[{"typeRoundChannelsDim": 2, "singleChannelsDim": 1, "roundChannelsDim": 1, "className": "hyception", "roundsDim": 6, "typeChannelsDim": 2, "typesDim": 3}, {"bnMean": [-3.320937395095825, 0.7241540551185608, -0.20170444250106812, -2.4410650730133057, 0.3362046480178833, -3.558774709701538, 1.523006796836853, 6.6270751953125, 1.9576343297958374, -0.12754623591899872, 1.5755534172058105, -0.11181022226810455, -1.7253597974777222, 1.2393126487731934, -7.226189136505127, -6.463653564453125, 9.02462387084961, 2.5260159969329834, -8.428787231445312, 0.3544333577156067, -1.218827724456787, 1.0375992059707642, -5.12317419052124, -0.5002949237823486], "bnGamma": [4.58552885055542, 2.5162851810455322, 6.503859519958496, 2.165526866912842, 2.607518196105957, 2.059016227722168, 1.6852039098739624, 2.2383711338043213, 2.3845736980438232, 2.3157193660736084, 3.4791641235351562, 1.8921149969100952, 1.9314035177230835, 4.101134300231934, 3.6624605655670166, 2.924184799194336, 5.006666660308838, 1.7386771440505981, 5.0000200271606445, 3.0552663803100586, 3.3591620922088623, 5.232365608215332, 3.2756927013397217, 2.695493459701538], "bnBeta": [-3.5226073265075684, 0.6683646440505981, 1.149327039718628, -0.6942392587661743, -1.2467494010925293, 2.0234038829803467, 1.1293466091156006, 4.985403537750244, 2.932372570037842, 0.40268075466156006, -1.1136678457260132, -0.024421552196145058, -0.01938128098845482, 0.9643434882164001, -0.4851170778274536, -4.126171112060547, -1.4456074237823486, -0.8639715909957886, -4.769219875335693, -0.6429218053817749, -2.5731866359710693, 3.690471649169922, -1.067219853401184, 1.2547813653945923], "kernelTypesDim": 1, "kernelRoundsDim": 1, "roundsDim": 6, "className": "ception", "upsamplingRoundsDimFactor": 1, "typesDim": 3, "channelsDim": 24, "upsamplingTypesDimFactor": 1, "bnVariance": [15.676587104797363, 16.535011291503906, 7.721107006072998, 2.6399013996124268, 9.502533912658691, 4.992086887359619, 4.301187038421631, 7.2192535400390625, 3.3319778442382812, 15.931456565856934, 4.360237121582031, 8.20861530303955, 2.6605782508850098, 7.36666202545166, 13.453112602233887, 16.835084915161133, 17.283161163330078, 3.6589791774749756, 38.714256286621094, 9.876562118530273, 7.722740650177002, 17.6268367767334, 5.191824913024902, 8.413797378540039], "convKernel": [-4.387058258056641, -0.2468598186969757, 6.622287273406982, 0.7786871194839478, -0.9020472168922424, 5.962315082550049, 0.013796498998999596, 5.549939155578613, -4.387477397918701, -1.6050958633422852, -0.12115105986595154, -1.6494174003601074, 0.11491941660642624, -0.7906152009963989, 4.234450340270996, -0.8470839858055115, -5.127895832061768, 1.3547248840332031, -1.1991084814071655, 2.3630781173706055, 1.2880959510803223, 0.9538503885269165, 3.3651740550994873, -1.9678016901016235, -14.739266395568848, -0.07278092205524445, -6.470706462860107, 6.55411434173584, -2.023660182952881, -3.601020097732544, -2.4554145336151123, 2.456901788711548, -4.533158302307129, 1.9716362953186035, 2.162775993347168, -2.0188956260681152, -3.5011487007141113, 7.991034984588623, -0.7686983346939087, 3.0827369689941406, 0.6291065216064453, -1.5213068723678589, -0.3232516348361969, -2.300076484680176, 2.1060492992401123, 0.3059912621974945, 0.1993127018213272, -3.5022692680358887, 0.8763018250465393, -2.6906070709228516, -3.7848739624023438, -0.5818120241165161, 1.813058614730835, -5.23581075668335, -1.7104572057724, -0.4184255003929138, 4.5446295738220215, 5.5470452308654785, -1.4545257091522217, -1.980177402496338, -0.18157021701335907, 1.3786247968673706, 5.477659702301025, 0.6308417916297913, -1.3079293966293335, 6.955668926239014, -3.555359125137329, -0.6545603275299072, -0.5940065383911133, -11.39737319946289, 3.745894193649292, 0.9500129818916321, 0.3009902834892273, 1.3230266571044922, 3.929921865463257, -2.4350152015686035, 0.5256293416023254, -3.586878538131714, 2.4442365169525146, 3.8769333362579346, 2.310080051422119, 0.08350110799074173, 6.53482723236084, -1.3617360591888428, 3.8334968090057373, -1.7190651893615723, -6.757124900817871, -8.324291229248047, 0.4227714538574219, -0.2659710645675659, 0.9763410687446594, 2.8940916061401367, -1.508823275566101, -0.13032473623752594, 3.702585458755493, 3.782956600189209, -0.2202284187078476, -0.7001305222511292, 0.5692012906074524, 0.3566984534263611, -11.575779914855957, 4.0462260246276855, 1.5560173988342285, -2.563711404800415, -1.2696800231933594, 6.329286575317383, 0.23742805421352386, 2.99696683883667, 0.7054746150970459, -0.2267003208398819, -3.685612916946411, 0.00284107425250113, -0.021993018686771393, -10.513175010681152, 3.1238656044006348, 0.6026328206062317, 1.0881168842315674, -9.7076416015625, -0.7256975769996643, 0.5804338455200195, -1.4607212543487549, 0.9249550700187683, -0.4254050850868225, -1.691076636314392, 8.166245460510254, -0.47011834383010864, 9.786581993103027, -0.8338451385498047, 0.4510558247566223, 0.7304638624191284, -0.9209713339805603, -5.187769889831543, 0.6283137798309326, -0.5266379714012146, 1.7691776752471924, -0.29132241010665894, 0.808646023273468, 0.25793179869651794, -6.051188945770264, 1.5238101482391357, 0.919590175151825, 0.0609104223549366, -0.5487363934516907, -0.15038342773914337, 7.280847072601318, -0.7900090217590332, -0.2645677328109741, -1.571171760559082, -0.8484368324279785, -0.1856795996427536, 0.6475599408149719, 3.9438021183013916, -2.4172723293304443, -1.3281952142715454, -1.0665148496627808, -6.817172527313232, 5.752516269683838, 12.219619750976562, -0.14047470688819885, -6.686488628387451, -1.1487942934036255, 1.6277188062667847, -1.24280846118927, 10.379722595214844, -22.90608024597168, 0.06521221995353699, 2.8339486122131348, -18.503408432006836, 3.6407527923583984, 0.15774312615394592, -0.12220600247383118, -6.857067108154297, 0.5690932273864746, 2.0095839500427246, 0.8873796463012695, -5.66764497756958, 7.373891353607178, -4.891938209533691, -0.9382866024971008, 1.8249530792236328, 2.7182095050811768, -2.16461181640625, -1.7227370738983154, -0.8748880624771118, -1.0323446989059448, -0.19777347147464752, 1.3005529642105103, 0.8636621236801147, -0.8880991339683533, -0.9483981728553772, -0.7314553260803223, 0.6767900586128235, 1.4332270622253418, -1.3222609758377075, 0.0818004161119461, -2.3403160572052, 0.6908071041107178, -1.2886649370193481, 1.2318049669265747, 0.12214507162570953, -0.0644526332616806, -0.6301851272583008, 1.5128724575042725, -5.865237712860107, -10.133100509643555, -2.297006368637085, -0.8263752460479736, 8.131593704223633, -0.536464273929596, 2.3939948081970215, 0.2075117975473404, -13.469257354736328, -6.244025230407715, 0.03447854146361351, 0.6753911375999451, 6.198830604553223, 0.7222675085067749, 0.9149132370948792, -0.15072742104530334, 2.6405584812164307, -1.6073812246322632, 1.758535623550415, -1.8998433351516724, 1.728101372718811, -2.140958070755005, -1.5581926107406616, -5.265164852142334, 4.234353065490723, -3.63527250289917, -0.5410700440406799, -0.7339882254600525, -0.32148799300193787, 7.473127365112305, 2.7831807136535645, -0.21819968521595, 0.4984859824180603, 2.2434160709381104, 2.531175136566162, -7.606198310852051, -1.6065678596496582, 0.7631568908691406, 1.8637065887451172, -0.0987115129828453, 2.4877917766571045, 0.11014661192893982, 0.450868159532547, -1.1620515584945679, 1.9064428806304932, -0.3579159080982208, 0.9414244294166565, -0.8305621147155762, -8.011651992797852, 6.416830062866211, -1.110126256942749, 0.5923520922660828, -0.03604882210493088, 0.8074094653129578, -2.16178035736084, 0.7688983678817749, -5.9012908935546875, 4.599421977996826, 0.4030133783817291, -1.0288745164871216, 1.0208067893981934, 0.722801685333252, 3.900740385055542, -0.06203228607773781, -1.524434208869934, 2.193666458129883, -3.22148060798645, -6.428109645843506, 0.984710156917572, -0.7357944250106812, -1.4418628215789795, 1.3106504678726196, 0.020775500684976578, -0.777888298034668, -0.09280357509851456, 1.938450574874878, 0.25348183512687683, 5.793513298034668, -0.5545075535774231, -20.468015670776367, 0.5299944281578064, 1.2113571166992188, 1.5450255870819092, 0.025747355073690414, -0.24025022983551025, -0.7451324462890625, 5.578636169433594, -1.314956545829773, -1.4546914100646973, -0.9609003663063049, 0.773815393447876, 1.892534613609314, 5.712794303894043, 1.0485905408859253, 8.615839004516602, 3.324753522872925, 3.953470230102539, -0.4102746844291687, 0.23738783597946167, -0.3585401177406311, -0.05900037661194801, -5.717901706695557, -2.029496192932129, -3.00496244430542, -2.0555837154388428, 0.18955054879188538, 5.544921875, -1.059728980064392, -1.2873742580413818, 0.16434946656227112, -7.2597575187683105, -0.1160503402352333, -0.6784546971321106, -0.3965345323085785, -0.5661090612411499, 0.21770910918712616, 0.814872145652771, -0.22343134880065918, 1.3836023807525635, 0.17293676733970642, 0.22483329474925995, 0.08516913652420044, 0.05347394943237305, -0.012467443011701107, 0.028181420639157295, -0.3667941391468048, 0.149507075548172, 0.08526971936225891, -0.2488657385110855, 0.2030785232782364, -1.2466503381729126, -0.3338276147842407, 0.02271209843456745], "convBias": [0.001731297466903925, 0.0012337215011939406, -0.009523686952888966, 0.0019193715415894985, -0.0014070337638258934, -0.00408702390268445, 0.0047532543540000916, 0.0027363451663404703, 0.005819281097501516, -0.0008089395123533905, -0.0029092926997691393, -0.0018137625884264708, -0.000985640217550099, -0.00033070819335989654, -0.0011882423423230648, 0.0014888390433043242, 0.0009176742751151323, -0.0009134334977716208, 0.0009764956193976104, -0.000994717818684876, -2.720830525504425e-05, -0.010299693793058395, 3.252817623433657e-05, -0.0038915062323212624], "inputChannelsDim": 14}, {"bnBetaA": [-1.2941726446151733, -1.170683741569519, -4.750701427459717, -1.988704800605774, -1.06489896774292, -4.443248271942139, -4.389537811279297, -0.7054095268249512, -1.2605868577957153, -1.4473845958709717, -2.6975667476654053, 1.040300965309143, -1.4941908121109009, -0.48196667432785034, -7.055067539215088, -1.4974321126937866, -5.075646877288818, -2.04988431930542, -0.11714108288288116, -3.013223171234131, -5.213644027709961, 0.08109809458255768, -1.86642324924469, -3.599417209625244], "convKernelA": [-8.76063346862793, 0.09574993699789047, -6.589555740356445, -7.7593512535095215, -4.957242488861084, 7.119126319885254, -3.853595018386841, 5.131329536437988, -2.66037917137146, 1.4241999387741089, 3.0087976455688477, -3.0560121536254883, 0.6583625078201294, 4.649557590484619, 1.95026433467865, 5.756559371948242, 2.284482479095459, -4.779787540435791, 1.5929783582687378, 0.30245140194892883, 1.6536463499069214, -2.446828603744507, 1.2990964651107788, 5.643284797668457, 0.254304975271225, -4.091405391693115, -0.6971744298934937, -3.2019078731536865, -2.7810869216918945, -1.4076712131500244, 1.6080790758132935, -0.5711514353752136, 0.3573340177536011, -4.162628173828125, 0.8565665483474731, 0.28880321979522705, 2.7057299613952637, 1.5489981174468994, -1.1666221618652344, 1.3581998348236084, 1.2452876567840576, 0.3820366859436035, -5.879961967468262, -7.45231819152832, 0.8745524287223816, -0.46658897399902344, -0.29156842827796936, -0.3268812894821167, -0.0423140823841095, -0.9020687341690063, -3.8199429512023926, 4.843754291534424, 0.15197201073169708, 2.7252871990203857, 2.969684600830078, -1.5628974437713623, 0.6201552152633667, 0.5405260324478149, -3.6884214878082275, -2.2077131271362305, 1.671956181526184, -3.368220806121826, 1.84256112575531, 0.25380033254623413, -21.800203323364258, 0.7308228611946106, -0.5905619859695435, 0.8143935203552246, -3.44527530670166, 4.359773635864258, 1.4049535989761353, -0.8015970587730408, 2.491523504257202, -4.781034469604492, 5.822498321533203, 5.706740856170654, 0.2060624361038208, 4.050432205200195, -1.316178321838379, -4.2693190574646, 2.5973827838897705, -1.903067946434021, -7.592339038848877, -3.4373741149902344, -1.38156259059906, 1.876739740371704, 0.3716111183166504, -0.4364301562309265, 0.39918726682662964, 0.2560078203678131, -1.5018240213394165, 0.750216543674469, 0.5123150944709778, 1.843910574913025, -2.5232889652252197, -2.0289878845214844, 2.2993502616882324, 1.554712176322937, -4.115762233734131, -1.4974091053009033, -1.0708009004592896, 0.4272323548793793, 2.894620895385742, -0.2114448994398117, -1.6111080646514893, -2.03596568107605, -2.6220712661743164, -5.290614128112793, 3.394481897354126, -2.1836302280426025, 2.2816197872161865, -2.0668599605560303, -9.434364318847656, -3.409841775894165, 0.6655464172363281, -1.6442066431045532, -2.6001014709472656, -2.974658250808716, 2.049067497253418, -1.7019619941711426, 0.05624455586075783, -4.40723180770874, -4.1939616203308105, -3.049928903579712, -4.2606425285339355, 1.8388434648513794, -5.7776198387146, 2.3586249351501465, 1.9926453828811646, 1.2646141052246094, -2.8348495960235596, -0.15056999027729034, 0.9565112590789795, -2.5015337467193604, -1.0591057538986206, -3.9042601585388184, 1.285515308380127, 2.8381500244140625, -3.1702346801757812, 0.434364378452301, 5.06846284866333, -1.215742826461792, -0.03422392159700394, 2.5431509017944336, -6.359140396118164, -1.2126965522766113, -3.4205548763275146, 2.835155487060547, -1.8820246458053589, 2.400298595428467, 2.331779956817627, 0.7041279077529907, -0.249522864818573, 1.9142259359359741, 1.6374045610427856, -4.386124610900879, 0.6038999557495117, -6.963185787200928, -10.615504264831543, 1.653123140335083, 0.3542550802230835, 1.038068175315857, 1.1021363735198975, 1.3418269157409668, -2.594125986099243, -2.2402639389038086, -0.9597930908203125, -0.7859364151954651, -3.510000228881836, -4.996119022369385, 3.4938323497772217, 1.9542005062103271, 1.066874623298645, -5.06141471862793, 2.2080116271972656, -3.356722354888916, 2.117597818374634, 2.527723789215088, -1.5288971662521362, -0.31127655506134033, 3.7064313888549805, 0.5659475326538086, 0.5381560921669006, -0.2526721656322479, 2.235093832015991, -0.584667444229126, -4.140533924102783, 2.6170573234558105, 3.220614194869995, -9.015227317810059, -1.2088112831115723, -1.0901509523391724, -0.18526852130889893, -5.31245756149292, -3.4736413955688477, -1.036630630493164, -4.383607387542725, -2.8611953258514404, -3.4040889739990234, -1.655570387840271, 1.335759162902832, -0.7430780529975891, 5.049318790435791, -4.3220319747924805, 1.4018194675445557, -1.9285569190979004, -1.6718090772628784, 2.3855185508728027, 0.17225229740142822, -5.882241725921631, -0.5691851377487183, -0.6795886754989624, 0.8480538129806519, 1.2057523727416992, 2.356447219848633, 0.6846961379051208, -0.8537189364433289, -2.048593044281006, 1.4195510149002075, 1.2048487663269043, 1.3807274103164673, 2.2239181995391846, 0.10491430759429932, -0.628867506980896, 1.177077054977417, -2.758490562438965, -3.673992156982422, 4.36311674118042, -0.14116905629634857, 1.727193832397461, -2.3985726833343506, -1.2133105993270874, 0.5222434401512146, 1.0149376392364502, 0.2800544798374176, -0.4086790084838867, 1.6426613330841064, 1.1818493604660034, -0.4124467670917511, 0.2956349849700928, -5.120619297027588, 0.8546254634857178, -2.21622896194458, -2.1770074367523193, 8.85047721862793, -3.2951252460479736, 2.223125457763672, -3.31294584274292, -1.2451857328414917, 3.619757890701294, 1.55866539478302, -2.4774222373962402, 3.082397222518921, -3.045818567276001, -0.17224611341953278, 3.988128662109375, -0.5026946067810059, 0.9412664771080017, -3.6238853931427, -1.2770227193832397, -3.24509596824646, -1.9231032133102417, -1.6457992792129517, -1.5843849182128906, 0.8513070940971375, -0.07587197422981262, -2.024019241333008, -1.6168140172958374, -2.453674793243408, -2.828824520111084, -3.068042039871216, 0.14078868925571442, 1.3768702745437622, 0.11762703210115433, 1.311367392539978, -6.566247940063477, 2.4588875770568848, -2.29002046585083, 5.511790752410889, -0.6329706311225891, -0.7346054315567017, -2.654951572418213, -3.2157461643218994, 9.149675369262695, -2.187654733657837, 1.3622620105743408, 1.3203697204589844, 0.3880409300327301, 2.521491289138794, 2.4510719776153564, -8.889411926269531, 3.7980620861053467, 4.4230241775512695, -3.8166544437408447, -2.680206537246704, 1.849477767944336, -0.2376175820827484, -0.8232080340385437, -2.0442144870758057, -1.5367863178253174, 3.6094794273376465, -1.3921562433242798, -3.3565924167633057, 4.429227828979492, 0.6997098922729492, -4.670795440673828, 0.6123382449150085, -8.183544158935547, -0.7539233565330505, -4.921649932861328, -1.05902898311615, 3.1018922328948975, -4.934579849243164, -0.272297203540802, 1.3723865747451782, 0.9146794080734253, 1.1395176649093628, 3.0166215896606445, 3.329939603805542, -5.326746463775635, 9.55768871307373, -0.3725392818450928, -2.2842206954956055, -4.209264755249023, -1.1386154890060425, -0.5066302418708801, 2.6381492614746094, -9.140435218811035, -1.6296252012252808, -7.231451034545898, -1.7075508832931519, -2.9161643981933594, -4.5072550773620605, -1.930842399597168, 4.715821266174316, -4.048083782196045, 0.44559380412101746, -1.073148250579834, -1.5889196395874023, 2.187920331954956, -4.077767372131348, 3.758697271347046, 3.7856860160827637, 1.1632328033447266, 0.21446365118026733, -3.917414665222168, 3.81636905670166, -3.591632127761841, -0.5151523947715759, -1.7712972164154053, -3.1435189247131348, -3.1188502311706543, 1.5609545707702637, 0.8500022292137146, -2.803677797317505, -2.9130120277404785, 6.438438892364502, 0.5356220006942749, -1.0651912689208984, -0.6382109522819519, 7.068233489990234, 2.727414608001709, 3.983344316482544, 5.958716869354248, -4.103825092315674, -2.7225563526153564, 3.8729727268218994, 10.8255615234375, -4.240363121032715, -3.0238373279571533, -1.8953278064727783, -2.2451529502868652, 12.690746307373047, 1.2534408569335938, -3.353329658508301, -2.7272589206695557, -0.27568089962005615, 0.9083057045936584, -8.611597061157227, 0.7273110747337341, 2.8971283435821533, -6.6397480964660645, -5.80899715423584, 5.670745372772217, 3.5906331539154053, 0.7106539607048035, 0.838873565196991, -3.607436180114746, -0.5240589380264282, 1.3049812316894531, 1.3343802690505981, -1.0466691255569458, -0.596954882144928, -4.759934902191162, 0.6238706111907959, 2.0070579051971436, 0.01582062989473343, 5.062119483947754, -4.191214561462402, -0.8356614708900452, -4.4595441818237305, 2.1928555965423584, 3.053072690963745, -1.2750356197357178, 1.7355684041976929, 2.9904942512512207, -1.2636603116989136, 0.44553640484809875, 0.5371036529541016, -1.2130552530288696, -1.6564409732818604, 0.010957488790154457, -0.9482333064079285, -3.8324897289276123, 0.256782203912735, -0.3105681240558624, -1.6079953908920288, -0.29979678988456726, -1.5399138927459717, 0.4619225561618805, -0.2775213122367859, 1.2406882047653198, 3.4924721717834473, -0.4810759425163269, 0.6150874495506287, 0.11248347163200378, 2.6616978645324707, -1.4644043445587158, -0.6794957518577576, 2.79953932762146, -0.4651547968387604, 0.4595797061920166, 3.066234588623047, 1.669304609298706, 1.763179898262024, -7.012929916381836, 1.3956983089447021, 0.4150632917881012, -0.6431630849838257, -2.491748571395874, 0.23687483370304108, -2.8196234703063965, 1.9582136869430542, 1.1577577590942383, 3.1937406063079834, -2.291515827178955, 4.952673435211182, -3.3719100952148438, -2.6525590419769287, -3.306097984313965, 4.344019889831543, -2.5299062728881836, 4.1966705322265625, -3.04223370552063, -0.756592333316803, 0.36920931935310364, 1.2905501127243042, -2.038001775741577, 0.29686471819877625, -1.09810209274292, -0.6839686632156372, 1.5749248266220093, -1.203528642654419, 0.6101924180984497, -0.7185488343238831, -0.6784378290176392, -7.061971664428711, 4.395709991455078, 4.395581245422363, -1.25578773021698, -4.174170017242432, -2.771059513092041, 0.832659900188446, -7.0826005935668945, 5.813715934753418, -1.0439980030059814, 4.662356853485107, 4.1409430503845215, -7.226670742034912, 7.48820686340332, 1.6772758960723877, -5.621137619018555, 1.1757148504257202, 3.013181686401367, 0.4690091907978058, 1.3688753843307495, -8.815276145935059, -3.3021562099456787, -4.4945807456970215, 0.7199497222900391, 1.6113518476486206, -1.9667829275131226, -2.6028339862823486, -1.7007472515106201, -5.928987503051758, -1.3746120929718018, 0.22844365239143372, 5.650172233581543, 6.816141128540039, -3.7470970153808594, -1.897051453590393, -2.173649311065674, 2.50899338722229, -7.424332618713379, -0.2675078809261322, 4.537892818450928, 0.31888875365257263, -0.5806286931037903, -0.011472229845821857, -0.06291649490594864, -1.1212857961654663, 0.32395023107528687, -0.08451805263757706, 9.038861274719238, 0.40508604049682617, 0.37050172686576843, -1.0940394401550293, -2.5063316822052, -0.9102561473846436, -0.5003558397293091, -0.2183845341205597, 0.35025522112846375, -2.1407248973846436, -1.983648419380188, -1.2574676275253296, -0.08767395466566086, 0.7480049133300781, 0.6766852140426636, -3.024338960647583, -3.301504135131836, 0.5322656631469727, 1.857717514038086, 5.63150691986084, -0.20577730238437653, 4.334362506866455, -0.7597070932388306, -2.103276014328003, 3.5368707180023193, 2.2763473987579346, 1.9658992290496826, -1.0522270202636719, 1.364678144454956, -1.7949376106262207, 5.914085865020752, 1.7348271608352661, -1.3820911645889282, -0.44613614678382874, -4.078962802886963, 4.447453022003174, -0.9118351936340332, 1.3072607517242432, 2.888824701309204, 0.08188939094543457, 2.334554672241211, -1.0214377641677856, 0.9106398820877075, 2.3634064197540283, 5.520625591278076, -1.8161643743515015, -8.075566291809082, 8.627150535583496, 0.8658313155174255, 3.242971658706665, -1.3551298379898071, -2.606137275695801, 7.666767120361328, 2.025209426879883, -1.4156889915466309, 0.06278187036514282, -1.7177852392196655, 1.6468673944473267, -0.7967832684516907, -0.7141253352165222, -3.6103568077087402, 15.58462142944336, -5.57603645324707], "bnMeanC": [12.186042785644531, -41.31404495239258, 14.501843452453613, -43.67371368408203, -60.4389533996582, 57.37226867675781, 10.727418899536133, 33.18818664550781, 23.67308235168457, -24.624738693237305, -20.67389678955078, -28.18763542175293, -2.367263078689575, -3.6934568881988525, -28.532716751098633, -10.336209297180176, -27.820110321044922, 14.940411567687988, -36.51267623901367, -35.372493743896484, 23.771503448486328, -34.17715072631836, 13.776596069335938, 6.835929870605469], "roundsDim": 6, "className": "reception", "bnVarianceC": [837.0646362304688, 718.0494995117188, 545.5361328125, 871.3832397460938, 1125.7725830078125, 1674.1180419921875, 613.10546875, 1640.1358642578125, 1830.0003662109375, 1227.88720703125, 826.114013671875, 2441.5380859375, 967.312744140625, 653.5402221679688, 1003.6542358398438, 1113.7974853515625, 1517.564697265625, 472.24951171875, 1614.7894287109375, 1155.15478515625, 1375.0548095703125, 812.3217163085938, 1574.6436767578125, 624.1497802734375], "bnGammaB": [3.569535732269287, 4.440084934234619, 3.7682955265045166, 2.8999946117401123, 2.4024507999420166, 2.5461485385894775, 2.623567581176758, 3.699955463409424, 2.1156601905822754, 3.7227120399475098, 2.565563440322876, 3.1298015117645264, 4.219655990600586, 3.3638360500335693, 3.2085890769958496, 1.8281255960464478, 2.1679837703704834, 2.5330443382263184, 2.687856674194336, 2.622701406478882, 2.8899197578430176, 2.937396764755249, 2.313992500305176, 4.634207725524902, 1.6245856285095215, 1.9393118619918823, 4.001270294189453, 3.369929790496826, 2.375789165496826, 2.8467094898223877, 3.6305761337280273, 3.5066041946411133, 2.8826820850372314, 3.5613439083099365, 2.991766929626465, 2.5499086380004883, 4.2730584144592285, 3.240370035171509, 2.22471284866333, 2.5108695030212402, 2.5675437450408936, 3.976963520050049, 1.9362000226974487, 2.1552040576934814, 2.436317205429077, 3.4787368774414062, 1.8898602724075317, 2.3759052753448486], "bnGammaC": [5.318178653717041, 5.205954074859619, 4.489730358123779, 3.2573630809783936, 5.999244213104248, 3.80124831199646, 2.631523370742798, 4.353818416595459, 6.1807475090026855, 4.020710468292236, 3.5073468685150146, 3.63918137550354, 3.504441022872925, 3.936079502105713, 3.033486843109131, 3.091329336166382, 4.84779167175293, 3.0495362281799316, 4.2743306159973145, 3.362300157546997, 5.890188217163086, 3.5137035846710205, 4.315090656280518, 2.196117877960205], "convBiasA": [-5.685343057848513e-05, -0.00018130862736143172, 0.00011849209113279358, 0.0001777621073415503, -0.00010530106374062598, 0.00019912366406060755, 0.00033379896194674075, -0.00033541832817718387, 6.511110404971987e-05, -0.00043286813888698816, -1.5695888578193262e-05, 0.00026212280499748886, 0.00018828640168067068, -0.00024836749071255326, -1.151977812696714e-05, 0.0007018257747404277, -7.464743248419836e-05, -0.0002766101388260722, 0.00020975862571503967, -1.4433148862735834e-06, -0.00018182411440648139, -0.00021136677241884172, -0.0006947461515665054, -0.0001095103652914986], "bnVarianceD": [4897.8837890625, 3651.678955078125, 3941.74072265625, 2729.4189453125, 5486.07421875, 4463.3134765625, 2969.8076171875, 4150.38623046875, 2501.240966796875, 3149.690673828125, 3444.9501953125, 2811.82421875, 2877.47021484375, 2240.392333984375, 6793.7900390625, 3306.8212890625, 7116.28662109375, 2992.49462890625, 4492.91162109375, 3146.043701171875, 4612.09228515625, 5235.34716796875, 4666.09814453125, 3848.51513671875, 2786.552490234375, 5339.0478515625, 6204.89990234375, 4569.70654296875, 2195.8193359375, 4438.7470703125, 3447.194580078125, 5408.4697265625, 7692.857421875, 7250.25, 5843.96630859375, 5298.7001953125, 3505.80224609375, 3030.91650390625, 3064.894287109375, 5878.95849609375, 2307.117431640625, 4441.48974609375, 4501.54833984375, 2551.382080078125, 5813.05224609375, 7263.63720703125, 10448.8203125, 3485.162353515625], "scaleFactor": 3, "bnBetaB": [-3.925848960876465, -10.290839195251465, -3.8056647777557373, -3.4847335815429688, -2.169224500656128, -4.21943998336792, -5.158555030822754, -5.651501655578613, -3.3519351482391357, -4.225824356079102, -4.371596813201904, -2.4727697372436523, -6.60711669921875, -5.016968727111816, -4.655820369720459, 0.5721951127052307, -5.621054172515869, -2.7012622356414795, -3.5806331634521484, -4.833662509918213, -3.804516315460205, -3.3403213024139404, -8.121844291687012, -3.0409951210021973, 0.89780193567276, -1.6563925743103027, -4.00512170791626, -5.317165374755859, -2.710740566253662, -4.0224175453186035, -7.794579982757568, -1.7847492694854736, -2.307039499282837, -5.199620246887207, -2.183318614959717, -5.1861348152160645, -4.938518047332764, -4.955109596252441, -6.0393171310424805, -3.9938361644744873, 1.9883825778961182, -4.0522356033325195, -1.8125609159469604, -4.783872604370117, -1.102644681930542, -6.432504653930664, 0.0777217298746109, -4.515495300292969], "typesDim": 3, "bnVarianceB": [2375.871337890625, 1612.88720703125, 2590.03271484375, 2594.14306640625, 1445.7789306640625, 1503.0528564453125, 1807.9493408203125, 1671.0098876953125, 956.958984375, 3805.4169921875, 881.3583984375, 3933.664306640625, 2285.471435546875, 1702.966796875, 3452.15576171875, 2407.46728515625, 3054.51025390625, 2365.62451171875, 1270.0166015625, 1359.611572265625, 2310.3564453125, 2223.309326171875, 1504.021484375, 3414.53662109375, 2214.05810546875, 2197.857177734375, 1829.86474609375, 1904.5316162109375, 2924.08203125, 1746.5072021484375, 717.4307861328125, 3071.075439453125, 1725.7900390625, 2160.339111328125, 1627.138671875, 645.5399780273438, 2303.318359375, 3368.770751953125, 603.3667602539062, 1078.415771484375, 2699.2109375, 3523.169677734375, 1751.96826171875, 735.2637939453125, 2787.509765625, 2059.4677734375, 1924.3555908203125, 670.762451171875], "bnMeanA": [-39.16876983642578, -37.4231071472168, -22.24394416809082, 13.556869506835938, -10.487100601196289, -3.60351824760437, 4.1620283126831055, -49.0774040222168, 58.068695068359375, 48.84148025512695, -6.200083255767822, -30.941564559936523, 16.579465866088867, -23.39702606201172, -17.248050689697266, -17.346229553222656, -49.8988151550293, -29.306055068969727, -43.025508880615234, -10.918329238891602, 8.223296165466309, -35.35721969604492, 38.519378662109375, -11.739243507385254], "bnVarianceA": [555.5297241210938, 1084.4835205078125, 1295.37109375, 534.9574584960938, 967.0492553710938, 682.3303833007812, 701.3119506835938, 824.2433471679688, 383.5440979003906, 1212.464111328125, 1049.58447265625, 365.68646240234375, 474.2620544433594, 570.8409423828125, 752.7144775390625, 1074.097412109375, 9904.474609375, 1239.3619384765625, 822.465087890625, 875.5388793945312, 871.9816284179688, 381.63385009765625, 1131.02587890625, 542.3035278320312], "bnMeanB": [26.82072639465332, 7.08167839050293, -10.16073226928711, -39.608314514160156, 9.247182846069336, 5.2463555335998535, -27.939783096313477, 16.44173240661621, 13.518350601196289, 8.96941089630127, 22.814098358154297, 7.36591100692749, -31.745981216430664, 16.65412139892578, 55.391387939453125, -8.015535354614258, -13.745211601257324, 45.772377014160156, 25.29376792907715, 11.480461120605469, -4.356308937072754, -4.889735698699951, -10.570928573608398, 5.838676452636719, 19.77317237854004, -25.6373348236084, 47.73200607299805, -15.763132095336914, 5.814306735992432, 32.30488586425781, -42.04716110229492, 20.858257293701172, 6.733371734619141, 14.583232879638672, -2.907355308532715, -4.783807277679443, 5.316418170928955, -4.696388244628906, -12.307621955871582, -31.50764274597168, -9.65728759765625, 32.02989196777344, 56.386329650878906, 15.899309158325195, 5.923046112060547, 9.250855445861816, -19.457157135009766, -9.270561218261719], "bnGammaA": [2.8831632137298584, 3.7377829551696777, 6.68345832824707, 2.3416049480438232, 4.80592679977417, 3.2755935192108154, 3.4123740196228027, 3.2495639324188232, 2.5393190383911133, 3.9740748405456543, 3.146864175796509, 2.7115581035614014, 2.866582155227661, 2.3886826038360596, 5.601191997528076, 4.270940780639648, 8.618545532226562, 2.999699831008911, 2.5839500427246094, 2.592740535736084, 3.6937649250030518, 1.8518555164337158, 3.221771240234375, 3.094963788986206], "convBiasB": [3.333455606480129e-05, -8.760992204770446e-05, -7.022709178272635e-05, -0.00024780051899142563, -8.858892397256568e-05, 2.7714966563507915e-05, 1.934392457769718e-05, -4.561048626783304e-05, 1.2286050150578376e-06, -0.00021881834254600108, -0.00010656968515831977, -1.6594567568972707e-05, 4.4343341869534925e-05, 0.0001506144180893898, 8.49492716952227e-05, -1.674401391937863e-05, 0.00035951207973994315, 2.690124347282108e-05, 3.941812246921472e-05, -6.573657447006553e-05, -1.7242400645045564e-05, 0.00016073050210252404, 0.00020467059221118689, 1.2846641766373068e-05, -0.0003923651238437742, 7.597976218676195e-05, 3.371182901901193e-05, 4.908578921458684e-05, -3.693775579449721e-05, 2.5312338038929738e-05, -9.376647540193517e-06, 0.00015851458010729402, 3.1411651434609666e-05, 7.728158379904926e-05, 2.5297915271949023e-05, -1.5326264474424534e-05, 4.821109541808255e-06, -1.4395546713785734e-05, 6.960249447729439e-05, 1.761208477546461e-05, -1.8931497834273614e-05, -0.00013167416909709573, 6.558214226970449e-05, 9.787855378817767e-05, -7.311281660804525e-05, 0.00021483065211214125, -0.00015641354548279196, 2.57104493357474e-05], "convKernelB": [0.6066129207611084, 1.3005675077438354, -0.6897454857826233, -4.135186195373535, 1.6732852458953857, -4.197673797607422, -3.3053667545318604, 3.1708099842071533, -3.5306904315948486, 7.000504016876221, -2.348118543624878, 0.5467242002487183, 4.402881145477295, -3.140348434448242, -1.3843319416046143, 2.162402629852295, 1.1234771013259888, 0.8746379017829895, -4.882069110870361, 2.0828442573547363, 1.8117611408233643, -5.545246601104736, 2.8993186950683594, 1.569930076599121, 5.811041831970215, -6.407800674438477, 0.5387774109840393, 3.860287666320801, -1.5681363344192505, -1.5963081121444702, -0.508551299571991, -1.5167216062545776, 2.086423635482788, 2.342120409011841, -1.2244281768798828, -3.737978935241699, 0.5229530334472656, 0.27349451184272766, -0.6378341317176819, -1.058692216873169, -0.2818467915058136, -4.396355152130127, -0.9167019128799438, -1.9951404333114624, 0.2776685655117035, -2.339262008666992, -1.4240809679031372, -0.4259682595729828, 2.9748740196228027, 3.06956148147583, 0.804958701133728, 3.2421834468841553, 6.608058929443359, -0.8517354726791382, -5.631964683532715, 3.4558324813842773, -1.6664361953735352, 3.505556583404541, 0.37113675475120544, -3.768660545349121, -2.883366823196411, -3.845865488052368, 2.8046255111694336, 0.018561217933893204, -0.7223329544067383, -2.0356104373931885, 3.0676674842834473, 0.4620080590248108, -0.6217858791351318, 5.214834213256836, -1.3902891874313354, 3.042557954788208, 2.5724663734436035, -0.7728787660598755, 1.4592201709747314, -0.1186753362417221, -5.887162208557129, 1.5134328603744507, 1.4026581048965454, -1.4981105327606201, -0.3762539029121399, -1.0003207921981812, -3.51763653755188, 0.4791443645954132, 3.671633005142212, -0.2943207919597626, 1.8862684965133667, -2.7208380699157715, 0.4608193337917328, -0.11024318635463715, 2.81433367729187, 0.6506452560424805, 3.2322919368743896, 3.5011303424835205, -3.5624020099639893, 1.184428095817566, 4.002187728881836, -0.9649068713188171, -0.3301181495189667, 1.540376901626587, -1.4182980060577393, 2.059065103530884, 4.5713300704956055, -4.565664291381836, 1.251927375793457, -6.652282238006592, -3.3521480560302734, -2.472766637802124, 4.516308307647705, -5.459743499755859, -4.292746067047119, -0.833083987236023, 2.062058210372925, -0.12838813662528992, -4.610968112945557, -3.2927298545837402, -2.4871373176574707, 1.238402247428894, -2.4977567195892334, -3.3555681705474854, -2.5811288356781006, -0.44230297207832336, 2.5743701457977295, 4.867702007293701, -2.468736410140991, 2.771651268005371, -1.2312220335006714, -2.436826705932617, -6.299704551696777, 1.1838810443878174, 3.5510337352752686, 0.5985469222068787, -0.11699908971786499, -3.1438467502593994, -3.0577502250671387, -2.068708896636963, 1.4104466438293457, -3.2470831871032715, -3.012596845626831, 4.085916042327881, 7.040721416473389, 1.3103784322738647, -6.070072174072266, -1.850342035293579, -3.259385824203491, 0.46038514375686646, -4.850187301635742, -0.018122093752026558, 2.443519115447998, -5.249704360961914, -2.6535837650299072, -4.35379695892334, -1.1017098426818848, 1.9687923192977905, 0.830906331539154, 1.090049386024475, 3.7495954036712646, -1.6307576894760132, -2.03448486328125, -2.251951217651367, 3.460369825363159, -1.6849613189697266, -3.6765377521514893, 2.3418288230895996, -1.5296049118041992, 3.293923854827881, -1.4024839401245117, 2.1453568935394287, 1.460382103919983, -2.9563796520233154, 2.7889695167541504, 2.167557716369629, 2.307971954345703, -2.240968942642212, 1.6292238235473633, 4.713285446166992, 0.26564714312553406, -2.551439046859741, -8.119502067565918, 1.5594488382339478, 0.09550018608570099, 1.244025468826294, 2.2507271766662598, -2.7664036750793457, -0.7045716643333435, 1.1153143644332886, 2.3268094062805176, -3.131328582763672, -0.06497073173522949, -0.4841611683368683, -0.7770447731018066, 2.2849059104919434, -2.6768808364868164, -0.06596899777650833, -4.980996131896973, -4.806066989898682, 0.07111050933599472, -3.815656900405884, -2.3723576068878174, 2.1847052574157715, -2.736579418182373, -5.16691255569458, 0.13544128835201263, 1.416037917137146, -1.3717927932739258, 0.7108151912689209, 5.0496649742126465, -3.0877554416656494, -2.1355185508728027, 0.14082661271095276, -1.8479430675506592, 2.746589422225952, 1.2115821838378906, 3.395106315612793, -0.47942110896110535, -2.775273561477661, 2.0128374099731445, -0.20615221560001373, -1.3703398704528809, 0.7487415075302124, 5.227222919464111, 3.3286795616149902, -1.9689151048660278, -0.8345853686332703, -1.5186368227005005, 6.186351776123047, -2.1808505058288574, -1.8743056058883667, -2.578047275543213, 6.523155212402344, 1.7628823518753052, -1.2413051128387451, 1.7199022769927979, 2.7817113399505615, 3.317495584487915, -1.2634670734405518, -6.699559211730957, 0.013786605559289455, 0.5747057199478149, -2.336066961288452, -3.374567747116089, -1.8943547010421753, -3.046215534210205, 3.8894095420837402, 1.0539063215255737, 3.7302873134613037, -2.6267178058624268, 3.0941355228424072, 0.6592978239059448, -0.33573397994041443, 4.213176727294922, -4.637435436248779, 2.3877809047698975, -2.6972739696502686, -1.0677670240402222, -0.9816683530807495, 2.764843702316284, -4.084814548492432, 0.12576235830783844, -5.669447898864746, 4.063689708709717, -5.389650821685791, 2.1449620723724365, -5.164190769195557, 1.187596321105957, 2.935914993286133, -4.36399507522583, -0.630782961845398, 0.5220248699188232, -0.0062197428196668625, -2.2573742866516113, -3.767331600189209, -1.8252345323562622, -4.156530380249023, 0.9251954555511475, -2.129302978515625, 6.264829158782959, -1.9790434837341309, 1.426716685295105, 1.8122283220291138, 2.296401023864746, -3.793633222579956, 3.9878971576690674, -0.27332600951194763, -1.0397751331329346, 2.406688928604126, 2.9973459243774414, -0.22194510698318481, -3.0999302864074707, 1.4933077096939087, 0.8761957883834839, 4.219632148742676, 4.2262115478515625, -3.3630623817443848, -0.9520706534385681, -2.0528111457824707, -2.4427947998046875, -1.3865829706192017, 2.2490973472595215, 4.759192943572998, 1.0970666408538818, -1.0167028903961182, -0.7224817872047424, -7.137474536895752, -3.370771884918213, 0.8393967151641846, -2.0939619541168213, -2.7611827850341797, -2.241788148880005, 1.3424482345581055, -0.7379578351974487, 0.29364898800849915, -0.4338276982307434, 1.448761224746704, 0.5146034955978394, -3.3794617652893066, 4.73918342590332, 0.22498789429664612, 1.1269298791885376, 4.951884746551514, 0.519445538520813, 5.965810775756836, -0.6329359412193298, 0.7194234132766724, -1.4779704809188843, -0.2786398231983185, -0.07229822874069214, 5.600892543792725, -2.4613521099090576, -4.818868160247803, 1.1027897596359253, -0.07376517355442047, -0.6369753479957581, 1.2565299272537231, 1.9385404586791992, 2.343902587890625, 0.13292555510997772, -1.068467378616333, -2.3190994262695312, -2.4264330863952637, 1.5495222806930542, -2.982924699783325, -1.5400023460388184, 2.035586357116699, -1.6971451044082642, 2.362062931060791, -2.395536184310913, -3.2788875102996826, -5.628087043762207, -1.1633164882659912, 1.4194453954696655, 1.3566383123397827, 1.1273138523101807, 2.3036561012268066, -0.6657731533050537, 1.1927725076675415, 0.03073997050523758, 0.5927552580833435, 3.860572576522827, -7.6472320556640625, 3.540261745452881, -0.45134979486465454, -0.8069131970405579, 4.386002540588379, -3.0554540157318115, -1.0367475748062134, -0.7319728136062622, -2.402068614959717, -0.695075511932373, 0.8070762157440186, -3.7173056602478027, -2.549001932144165, 3.0659492015838623, -3.882779121398926, 0.24200955033302307, 1.9726850986480713, 6.495759963989258, -0.2933689057826996, 1.3434889316558838, 0.0670536682009697, -0.500877320766449, 1.050606608390808, 0.45095041394233704, -2.4351069927215576, -3.3527333736419678, -0.18924012780189514, -3.5490376949310303, 6.064060688018799, 1.8888742923736572, 5.491635322570801, 0.3715759813785553, -3.720776081085205, 0.06497611105442047, -1.5741891860961914, -0.4394652247428894, 1.0799537897109985, 3.727735757827759, -1.7278798818588257, -3.647380828857422, -4.490537166595459, -0.14562445878982544, 0.25244611501693726, -0.22385065257549286, 0.8915427923202515, -2.9704091548919678, 1.4087107181549072, -2.4984545707702637, 0.2870354950428009, 1.3964085578918457, 4.469949245452881, 0.02494032308459282, -4.544679164886475, 1.6820439100265503, -4.750940322875977, -1.706157922744751, 3.861971616744995, -4.5264973640441895, -1.9552421569824219, -0.4744524359703064, -5.2387824058532715, -0.1807708740234375, 1.7155364751815796, -1.3546876907348633, -6.643012046813965, -6.767433166503906, -0.26528608798980713, 1.3883914947509766, 0.6364079713821411, 1.412822961807251, 1.6250231266021729, 0.06205934286117554, -0.13330581784248352, -0.48079755902290344, -0.9226471185684204, 2.4111404418945312, 0.6610596776008606, -1.6567630767822266, -0.21689052879810333, 0.5114021301269531, -0.8673563599586487, 0.2692621350288391, -1.2489062547683716, 2.344999074935913, 2.863574743270874, 2.1240787506103516, 1.3279130458831787, -1.5842344760894775, 1.2244608402252197, -9.613923072814941, -6.1936564445495605, -0.0022152436431497335, -1.3492103815078735, -0.5934121012687683, 4.261795997619629, 1.950243353843689, 0.7099964022636414, 3.818453550338745, -0.7624031901359558, 6.417624473571777, 0.10572990030050278, 1.5694948434829712, 2.3845410346984863, -0.6170985102653503, 0.7252430319786072, 0.7216672897338867, 1.2874759435653687, -3.9363489151000977, 0.42798876762390137, 5.883135795593262, 0.8724849224090576, 0.09768861532211304, -0.9840028285980225, -3.0131123065948486, 4.190136909484863, 1.5292216539382935, -0.10655199736356735, 2.757920265197754, -3.390183448791504, 5.536910057067871, -0.2807568609714508, -1.4940848350524902, 4.075671195983887, -0.19149675965309143, 0.8366425633430481, -0.35123616456985474, 2.631608247756958, 4.3611159324646, 2.9377212524414062, -0.43858638405799866, 1.7737782001495361, -1.660435676574707, -0.16068801283836365, 4.929085731506348, 0.9057379364967346, -0.3864787220954895, -0.8545066118240356, -1.3484045267105103, -3.8927814960479736, -0.9261403679847717, 0.23432815074920654, -0.4956642687320709, 5.005131244659424, -1.0002578496932983, -4.333128452301025, -0.7840428352355957, 6.811639308929443, -1.862235188484192, -0.5338086485862732, 1.8823455572128296, 2.1225810050964355, 4.867218494415283, -1.0313029289245605, 5.39375638961792, 4.099820137023926, -1.9081060886383057, 0.017785923555493355, -1.2756798267364502, 6.129176616668701, -1.616318702697754, 0.08159037679433823, -1.9802727699279785, -4.140219211578369, -1.4697781801223755, 1.1664037704467773, -0.5833011865615845, 1.838871955871582, 1.7837769985198975, 1.5426714420318604, 0.8507715463638306, -0.7352865934371948, -3.8418686389923096, -1.873913288116455, 3.6335110664367676, 1.757676601409912, -2.381901264190674, 1.9022819995880127, 3.4895119667053223, 3.5288031101226807, 4.994818687438965, -3.734311580657959, 1.8006188869476318, 1.7374820709228516, 6.660799026489258, -2.036900520324707, -2.0816805362701416, 5.785799980163574, -0.9564499855041504, -5.142179012298584, -5.304098129272461, -2.099102735519409, -2.3282790184020996, 2.3187332153320312, 2.8490419387817383, -1.1664950847625732, 0.6804975271224976, -4.782018184661865, 1.094951868057251, 0.8390152454376221, -3.7097063064575195, 2.3833749294281006, 1.6331560611724854, -0.21417595446109772, 0.5929520130157471, -0.04338197782635689, 3.163703203201294, -2.670154571533203, -1.7618216276168823, -2.027430295944214, -4.148833751678467, -0.33048900961875916, 4.512980937957764, 1.7710340023040771, -1.0046007633209229, 2.062251091003418, 1.1970549821853638, 0.7718843817710876, -3.599475383758545, -0.15885399281978607, 4.877232551574707, -0.3807818293571472, 0.6995100975036621, -0.12970562279224396, -1.1156787872314453, -2.7154133319854736, -2.291137933731079, -0.5440167784690857, -0.11084279417991638, -0.850102961063385, 0.9016934037208557, 4.798195838928223, -3.266627788543701, 5.004354476928711, 1.124162197113037, 2.4136855602264404, -5.021136283874512, 3.262885808944702, 5.002386569976807, -1.0049550533294678, 4.076130390167236, -5.307219505310059, 3.559805393218994, -5.0164875984191895, -2.3648083209991455, 2.598597288131714, 1.9719887971878052, 0.7896079421043396, 1.7534332275390625, 1.3985047340393066, -0.4045356810092926, 1.072383999824524, 0.44761279225349426, 3.9320950508117676, 1.377506971359253, 3.391266107559204, -0.47718480229377747, -0.39968016743659973, 2.0797810554504395, 1.4329640865325928, -0.5725501775741577, -2.2611680030822754, 0.5937528014183044, -0.11924661695957184, 2.9230072498321533, 4.041137218475342, 2.194901466369629, -1.335788607597351, -3.8521597385406494, 1.293684959411621, -2.443988800048828, 3.773355484008789, 1.3024048805236816, 0.389884352684021, -3.174741744995117, 1.8739680051803589, 1.9146180152893066, -0.8889532685279846, -1.9930938482284546, 0.0996880754828453, 1.427964687347412, -1.8432729244232178, 1.9696226119995117, 5.544690132141113, -1.024736762046814, -4.005588531494141, 2.618133068084717, -2.969195604324341, 6.040546417236328, 1.1331026554107666, -2.8152987957000732, 2.4226298332214355, 2.077153444290161, 1.8682892322540283, 3.494175910949707, -3.283627986907959, -2.6737070083618164, -0.08723144233226776, 1.587600588798523, -0.41734814643859863, -4.16231632232666, -0.6636816263198853, -3.709962844848633, -0.10249370336532593, 2.7640674114227295, 1.7701536417007446, -0.22044239938259125, -6.113670825958252, -0.06181255728006363, 1.4269630908966064, -0.4715346395969391, 0.46476006507873535, -3.5823752880096436, 1.2813478708267212, 0.5913515090942383, -2.0033068656921387, -6.202610969543457, 3.175220489501953, -0.03818248584866524, -2.8952040672302246, -1.5725980997085571, 4.29500150680542, -4.864485263824463, 2.570509433746338, -4.092255115509033, -3.1820874214172363, 3.6379847526550293, 5.027307033538818, -0.020791394636034966, 4.487241744995117, -2.656315326690674, -2.3139822483062744, -2.7225539684295654, -3.3906710147857666, -3.912954092025757, 3.042062282562256, 1.2165380716323853, 0.7316474318504333, 2.527203321456909, 2.5747437477111816, -3.622749090194702, -2.4534730911254883, -0.7872521281242371, -2.4172885417938232, -2.689584255218506, 0.7571914792060852, -4.571775436401367, -3.079773426055908, 2.971395969390869, 1.549612045288086, 2.350358724594116, 0.10929466038942337, 9.819568634033203, 6.255394458770752, -1.9218850135803223, -2.5826504230499268, -0.1521410346031189, -0.8203269243240356, 0.7185511589050293, 3.2928314208984375, 1.6654658317565918, -4.341121673583984, -5.493180274963379, -0.9059993624687195, -2.3478844165802, 2.175403594970703, -5.1541361808776855, 1.2872366905212402, -1.6312201023101807, 0.2806946933269501, -2.2243075370788574, -5.380605220794678, 0.035194896161556244, 1.9629215002059937, 2.5237584114074707, -0.3473096787929535, 0.8938537836074829, -2.6179604530334473, 4.718629837036133, -0.38861382007598877, 1.0020878314971924, 1.4415948390960693, 2.2788209915161133, 0.920363187789917, -2.990537166595459, -3.603788375854492, -5.704952716827393, 3.8248069286346436, 2.3901100158691406, -0.8571075797080994, -0.5426965355873108, 6.47716760635376, -0.623490571975708, 0.814113974571228, -4.764807224273682, -2.370605230331421, -0.30453529953956604, 0.9715120196342468, -0.8819670081138611, 3.1473982334136963, -0.6957107782363892, 0.5608987808227539, 1.680052399635315, -3.431454658508301, -0.126059427857399, 0.8610697984695435, 3.906428575515747, -0.46383416652679443, -5.806290626525879, 0.6455665826797485, -0.7451554536819458, 12.046606063842773, 0.7329124808311462, -0.5400760769844055, -0.5833137631416321, -2.314162015914917, -0.12807218730449677, 0.42055630683898926, -0.3050459325313568, -0.21703249216079712, 2.4173355102539062, -0.2576836049556732, -3.229337215423584, 0.9698079824447632, 1.8442202806472778, 1.3876205682754517, -1.311271071434021, -0.06376976519823074, 1.5854620933532715, 0.1556064337491989, -3.997864246368408, -0.5981229543685913, 0.12839141488075256, 1.0424126386642456, -1.4666521549224854, 2.5800821781158447, 3.5508923530578613, -1.3222532272338867, 4.411259174346924, 2.355441093444824, -5.07048225402832, -3.2693793773651123, 0.1297537386417389, -2.4706223011016846, 2.6302859783172607, 1.550389051437378, -2.4710021018981934, 1.312848687171936, 3.4190664291381836, -4.350647926330566, 0.05398832634091377, -0.5082510709762573, 0.12413892894983292, 2.9089038372039795, -0.5380141139030457, 11.72675895690918, 0.776120126247406, -1.2255327701568604, 0.9614616632461548, -1.5816916227340698, 1.6626695394515991, 3.0102176666259766, 0.41233256459236145, 1.253043532371521, -1.251602292060852, 5.380391597747803, 6.545154094696045, 3.235098123550415, 6.656267166137695, 0.8623281717300415, 0.021496089175343513, -5.7520036697387695, -0.032979026436805725, 0.9074646234512329, -1.1955703496932983, -3.137812852859497, 3.2288620471954346, 3.4868640899658203, -1.6907532215118408, -0.3770448863506317, -1.430936336517334, -0.628887414932251, 4.21916389465332, -1.5961402654647827, -1.546430230140686, 1.4674551486968994, -5.371401309967041, -0.42635393142700195, -0.6348124146461487, -6.78209924697876, -4.156006336212158, -7.885197162628174, -4.039284706115723, 1.8243707418441772, 2.354158878326416, -1.4111604690551758, 2.296135902404785, -0.9597477316856384, 2.137568235397339, -1.3094652891159058, 0.3692508637905121, 0.8620681762695312, -1.1773053407669067, -0.22132499516010284, 4.510279178619385, -4.4687089920043945, 0.7170983552932739, 2.072132110595703, -0.49405378103256226, -6.663281440734863, -3.0370547771453857, -0.8529013395309448, -0.38170063495635986, -3.9242653846740723, 3.24259090423584, 1.152314305305481, 2.900836706161499, -2.283109426498413, 0.5348386764526367, 4.769441604614258, -0.6659127473831177, -0.047417037189006805, 5.142840385437012, 2.1393394470214844, 0.9957951903343201, -1.6432976722717285, 4.012249946594238, -4.916275978088379, -0.6211851835250854, 0.37853264808654785, 0.5851284861564636, -1.1337928771972656, 0.7881834506988525, 1.1835119724273682, 0.7424476742744446, 2.163238048553467, 0.47884252667427063, -0.5319949388504028, -6.39259672164917, -2.032957077026367, -2.1381466388702393, 0.9206603765487671, -4.061097621917725, -0.5761311054229736, 0.5265198349952698, 2.0285274982452393, 2.814499855041504, -1.132438063621521, -4.198119163513184, 0.13328182697296143, -1.8476142883300781, 0.040083207190036774, -5.969793796539307, -1.4059295654296875, 0.6547175645828247, -0.4471341371536255, -0.4040946960449219, -4.994503498077393, -2.3708736896514893, -1.2777882814407349, 1.0906257629394531, 0.2662525177001953, -0.3509795367717743, -1.6023694276809692, -0.8511375188827515, -1.4946773052215576, -3.214539051055908, 2.9381797313690186, 1.6100577116012573, 0.493319571018219, 0.7533614039421082, 1.4329686164855957, 4.753634452819824, 0.7951542735099792, -2.0386383533477783, -0.9729155898094177, -3.1203675270080566, 3.5480473041534424, -0.9418541789054871, 1.4403598308563232, -5.656665325164795, 2.6114094257354736, -2.182635545730591, -4.562168598175049, -1.1377055644989014, -5.3077006340026855, 0.991243839263916, -0.16546645760536194, -7.043056011199951, -1.3937894105911255, -2.559861898422241, 0.8462852835655212, 0.2472936064004898, -3.8654844760894775, 0.9932230114936829, 2.310821294784546, -6.209385395050049, 1.364637851715088, -7.194453716278076, -1.1607383489608765, 1.6115072965621948, -0.1238948404788971, 1.4560455083847046, 3.5776827335357666, -2.4726524353027344, -0.23607845604419708, -3.5304787158966064, -1.3160277605056763, 0.1473361700773239, -1.3653005361557007, -5.235504627227783, -0.04476425424218178, -3.2652978897094727, -10.49477481842041, -0.5459480881690979, 0.25861576199531555, 1.5376713275909424, 2.345977783203125, 1.6240118741989136, -1.0382946729660034, -1.1947394609451294, -2.285245180130005, -0.8430185317993164, -0.1511140614748001, 0.8298319578170776, -3.7505204677581787, -0.9855185151100159, -1.263087511062622, -8.678522109985352, 0.8732587099075317, 2.1554954051971436, -0.054484833031892776, 6.673314571380615, -7.543513298034668, -2.132786512374878, 1.2483586072921753, 0.03581074997782707, -1.5775392055511475, -1.730969786643982, 1.2596937417984009, -1.7600891590118408, 2.5638861656188965, 2.152623176574707, -4.6221022605896, -5.315446853637695, -3.2958827018737793, -5.026233196258545, -1.088462471961975, -1.1443231105804443, 1.9121578931808472, 6.762798309326172, -0.09938737750053406, 3.009735584259033, 1.8951302766799927, 0.555214524269104, -0.18887034058570862, -4.5408830642700195, 0.3361653685569763, -1.9692628383636475, 1.3726208209991455, 0.4905097484588623, -0.3626759648323059, -4.601389408111572, -0.7890377044677734, -2.7227327823638916, 3.0980634689331055, 0.6014454364776611, 2.371548652648926, 1.4968265295028687, 2.6582822799682617, 0.5477591753005981, -0.004865266382694244, -4.648092269897461, -3.211962938308716, 3.0180890560150146, -3.694000005722046, -3.93989634513855, 1.5827574729919434, 0.042768917977809906, -1.6720707416534424, -1.912248969078064, -2.4622297286987305, -1.868760585784912, 1.5286321640014648, -2.359724998474121, 2.421365261077881, 0.6322661638259888, -0.6367971301078796, 2.1821680068969727, 1.0519148111343384, -4.128683090209961, -1.0013803243637085, 2.175133228302002, -1.0184439420700073, 2.9238109588623047, -1.9632811546325684, -1.321481466293335, 0.7424386143684387, 2.3410112857818604, -0.0238075852394104, -3.078514575958252, -0.54448401927948, -3.901583671569824, 4.678544044494629, 1.5933061838150024, 4.344562530517578, -0.3082450032234192, 1.0476475954055786, 1.1571094989776611, 4.023921489715576, 2.482684373855591, 3.112863540649414, 4.142614841461182, -7.619856834411621, -1.2793707847595215, -1.183415412902832, 1.922938585281372, -1.163673996925354, 2.8920578956604004, 2.7678825855255127, 1.958859920501709, 2.9670677185058594, -3.0342185497283936, 3.5750153064727783, 0.8134120106697083, -4.154056549072266, 4.731617450714111, -0.31627288460731506, -1.2952443361282349, 1.9376577138900757, 0.3356817066669464, 1.269325852394104, 1.1496233940124512, -2.5181522369384766, 2.4068474769592285, 4.024714946746826, -2.6623241901397705, 4.299145698547363, -5.465158462524414, -4.133699417114258, -1.0663659572601318, 2.618908166885376, -1.3597909212112427, -0.8381242156028748, 1.9216063022613525, 2.709785223007202, -5.299055576324463, -0.2333754152059555, 2.604360818862915, -3.715770959854126, 0.06896267086267471, -3.01212477684021, 0.917508602142334, -3.4816882610321045, 0.9423784017562866, -0.4519469738006592, 3.3672571182250977, -3.259317398071289, -1.2469509840011597, -1.0696135759353638, -0.16910547018051147, 3.3213863372802734, 2.0593276023864746, 3.503739356994629, -8.474791526794434, 2.755496025085449, 4.919885635375977, -2.0364115238189697, 3.6397156715393066, 0.23109106719493866, 2.094804525375366, -0.5426319241523743, -1.231509804725647, 5.884033679962158, -0.9512372016906738, 0.8997958898544312, -0.9212296605110168, -1.5722193717956543, -3.771571159362793, 0.1753864288330078, -0.006707184016704559, 3.877689838409424, -3.1562061309814453, 3.7927913665771484, 2.961925983428955, -0.8520715832710266, 3.3936684131622314, -0.2897697687149048, -4.663924217224121, 0.29991060495376587, 3.281456232070923, -0.03285876661539078, -2.012617826461792, 2.1474111080169678, 0.5706286430358887, 0.6673616170883179, -0.09725889563560486, -2.5466549396514893, 2.1213643550872803, -3.4287497997283936, -2.356234312057495, 2.4152071475982666, -2.942258358001709, 6.771543025970459, -2.7765824794769287, -0.2126692235469818, 3.9425644874572754, -2.8015668392181396, -2.609579563140869, 2.6223838329315186, 1.6339601278305054, -0.06595154851675034, -5.333380699157715, 2.0156447887420654, 2.179255723953247, -4.257051467895508, 3.096980094909668, 2.1871297359466553, 5.655639171600342, -6.555663585662842, -0.7722011804580688, 4.415746212005615, -2.9703798294067383, -2.555342435836792, -0.5561352968215942, -1.5680800676345825, 2.237884759902954, 2.52728271484375, -1.9045829772949219, -4.507327079772949, 1.0780409574508667, -0.9021718502044678, 0.08263322710990906, 0.3166781961917877, -0.36102139949798584, -3.868624210357666, -0.7432820796966553, -0.8304945230484009, 0.6368682384490967, -1.5468746423721313, -1.4395493268966675, -0.12372593581676483, 2.856962203979492, 2.7841835021972656, 0.7969648241996765, 2.5434038639068604, 5.7474188804626465, -1.2201694250106812, -5.151108264923096, 3.088467836380005, -1.4866455793380737, 3.7010276317596436, 0.5611010193824768, -3.8804402351379395, -2.37898588180542, -4.219175815582275, 3.098282814025879, -0.44419029355049133, -1.038114309310913, -2.2087655067443848, 2.3217813968658447, 1.4381903409957886, -1.2706791162490845, 4.121984004974365, -1.6620509624481201, 3.9427685737609863, 2.8011438846588135, -0.2371109127998352, 1.7049671411514282, -0.04169677942991257, -4.953536510467529, 1.9090008735656738, 0.3747137784957886, -1.4876760244369507, -1.1569766998291016, -0.8257870078086853, -4.32165002822876, 1.0822744369506836, 3.5602314472198486, -0.17033493518829346, 2.212223768234253, -2.7522201538085938, 0.7693682312965393, -0.29778581857681274, 2.4877238273620605, 1.0544596910476685, 2.435472249984741, 3.3366410732269287, -2.97739315032959, 1.4518213272094727, 4.592188358306885, -0.8538244962692261, 0.276657372713089, 1.894976019859314, -1.763879418373108, 2.2160000801086426, 4.602608680725098, -4.888214588165283, 1.4011244773864746, -7.232559680938721, -2.493114948272705, -2.4924814701080322, 4.064635753631592, -6.269028186798096, -4.366258144378662, -0.41664209961891174, 2.715733528137207, 0.8212279081344604, -4.4711785316467285, -3.924178123474121, -2.366089344024658, 1.9993385076522827, -3.4725353717803955, -3.536334753036499, -1.8243566751480103, -0.24123279750347137, 2.526216506958008, 4.053670406341553, -1.656035304069519, 2.6776113510131836, -1.6098153591156006, -2.455155611038208, -6.286197185516357, 1.3568609952926636, 3.083178997039795, 0.5411025881767273, -0.3598664700984955, -3.1559934616088867, -2.5588674545288086, -1.3410041332244873, 1.3320366144180298, -2.209317922592163, -3.0078418254852295, 4.116970062255859, 7.256567001342773, 0.8360276818275452, -5.746456623077393, -1.7810938358306885, -3.2394893169403076, 0.7430762052536011, -4.795305252075195, 0.11634370684623718, 2.3709402084350586, -4.496271133422852, -3.274528980255127, -4.430490016937256, -0.9353669285774231, 1.7839696407318115, 0.7065073847770691, 1.481868863105774, 3.258674144744873, -1.9752882719039917, -1.052588939666748, -1.835731863975525, 3.983421802520752, -3.0111443996429443, -3.00490403175354, 2.7660186290740967, -2.1045260429382324, 4.326728820800781, -1.450836181640625, 0.9589285850524902, 1.1634613275527954, -4.110021591186523, 2.305884838104248, 1.9964063167572021, 1.3383818864822388, -2.4698774814605713, 1.507267951965332, 4.199553489685059, -0.15241508185863495, -2.3453617095947266, -7.3397216796875, 0.6753063797950745, 0.845504879951477, 0.9655835032463074, 2.0255281925201416, -3.478790283203125, -0.21086418628692627, 0.4330903887748718, 2.0785675048828125, -3.194629192352295, -0.4457573890686035, -1.753627896308899, -0.4134926497936249, 2.043348789215088, -1.2941478490829468, 0.34724318981170654, -5.166929721832275, -4.469297885894775, 0.6153324246406555, -4.03736686706543, -2.547330141067505, 1.9125003814697266, -3.72664213180542, -6.914809226989746, 0.7575083374977112, 1.1391302347183228, -1.0905680656433105, 0.7781769633293152, 4.605203628540039, -3.1564526557922363, -2.654923677444458, 0.36710211634635925, -1.8820185661315918, 2.7331113815307617, 0.9402173757553101, 3.3022260665893555, -0.19434690475463867, -2.8366549015045166, 2.2292912006378174, -0.04120659455657005, -1.7988815307617188, 1.8143900632858276, 4.654163837432861, 3.4647104740142822, -1.7160626649856567, -0.6008064150810242, -0.7440358400344849, 6.757253646850586, -2.2476136684417725, -1.4657032489776611, -2.8832294940948486, 5.89456033706665, 2.1104700565338135, -1.0938318967819214, 1.5810508728027344, 3.2469983100891113, 2.686790704727173, -0.8508834838867188, -5.9622344970703125, -0.8480137586593628, 1.1311079263687134, -2.472363233566284, -3.5197157859802246, -1.4370205402374268, -4.4407501220703125, 3.5434772968292236, 1.178938388824463, 3.9350008964538574, -3.315378427505493, 3.233271837234497, -0.08573409914970398, -0.4112553298473358, 3.7045726776123047, -5.1157145500183105, 2.037369966506958, -2.9397051334381104, -1.5036582946777344, -1.597516655921936, 2.131890296936035, -3.9487693309783936, -0.5038982629776001, -5.399430274963379, 3.715604782104492, -5.295554161071777, 1.2113865613937378, -5.70853853225708, 0.8858539462089539, 2.324218511581421, -4.438339710235596, -1.1096004247665405, 0.20516812801361084, 0.43548449873924255, -2.5556557178497314, -3.0456554889678955, -1.5328682661056519, -2.036036729812622, 1.1516169309616089, -2.504911422729492, 6.440737247467041, -4.398585796356201, 1.7652406692504883, 1.873550295829773, 1.839898943901062, -3.819269895553589, 2.8503081798553467, 0.0009380136616528034, -1.3891611099243164, 2.3537726402282715, 2.3084001541137695, -1.0053207874298096, -4.368187427520752, 1.8534249067306519, 1.270469069480896, 4.172159671783447, 4.081023693084717, -3.0367355346679688, -0.49393507838249207, -3.329469680786133, -2.2932233810424805, -1.8724253177642822, 2.5387160778045654, 4.106843948364258, 1.2130200862884521, -1.9473224878311157, -0.9077916741371155, -6.731480121612549, -2.3411448001861572, 0.5729084014892578, -2.244413375854492, -4.053844928741455, -1.3070412874221802, 0.8451306819915771, 0.9698997139930725, -0.2612549066543579, -1.1349130868911743, 1.3515018224716187, -0.14312900602817535, -3.219745397567749, 4.3155975341796875, 1.2416517734527588, 0.6787878274917603, 4.675005912780762, 1.1600557565689087, 6.265791893005371, -0.7683988213539124, 0.45234817266464233, -1.7966723442077637, -0.04919690638780594, 0.5319435000419617, 6.134922981262207, -2.575619697570801, -5.004931449890137, 0.1943054050207138, -0.504788339138031, -1.6705881357192993, 1.065994381904602, 1.943664789199829, 2.667606830596924, -0.20709964632987976, -1.0609298944473267, -2.595567464828491, -1.5510222911834717, 1.4088079929351807, -3.1475167274475098, -0.6229972243309021, 2.7634117603302, -2.327913522720337, 2.6380109786987305, -0.594607412815094, -2.9615728855133057, -5.829204082489014, -1.4329938888549805, 1.678831696510315, 1.0549384355545044, 1.4395358562469482, 2.431023597717285, -0.29820388555526733, 1.5188320875167847, 0.07879603654146194, 0.9463697075843811, 3.6374192237854004, -8.044524192810059, 3.625614643096924, -0.9049203991889954, -0.32832565903663635, 5.2007246017456055, -2.5954644680023193, -1.2713921070098877, -1.2161240577697754, -2.1782596111297607, -0.13625316321849823, 0.4749840199947357, -3.5767624378204346, -2.258085012435913, 2.729898452758789, -3.0356192588806152, 0.753536581993103, 1.930255651473999, 6.730178356170654, -0.3947623372077942, 0.7268310785293579, 0.7350239753723145, -0.46266403794288635, 1.2339895963668823, 0.9021062850952148, -2.692983627319336, -3.678903102874756, 0.39951562881469727, -2.694204568862915, 5.291250228881836, 1.9298996925354004, 5.377735614776611, -0.05441189557313919, -2.8674888610839844, 1.0878772735595703, -1.680720329284668, 0.21601025760173798, 0.600337564945221, 3.417659282684326, -1.758575439453125, -3.2733712196350098, -4.288882732391357, -0.25230672955513, 0.1513798087835312, -0.5494410991668701, 1.305465579032898, -3.7664430141448975, 2.46205472946167, -1.8931864500045776, 0.6979937553405762, 1.8399401903152466, 4.896117687225342, 1.0198216438293457, -4.264260768890381, 1.318905234336853, -4.475627899169922, -2.117464303970337, 3.71682071685791, -4.812299728393555, -1.1271090507507324, -0.4077460765838623, -4.586945533752441, -0.984294593334198, 2.15531325340271, -1.5245498418807983, -6.561756610870361, -7.09004545211792, -0.22695188224315643, 0.6596370339393616, 0.7905932664871216, 0.9933449029922485, 0.4078689217567444, 0.5694306492805481, -1.4633104801177979, -0.49440503120422363, -1.0416637659072876, 2.363569498062134, 0.3325311839580536, -1.6206879615783691, 0.27230799198150635, 1.398690104484558, -0.841878354549408, -0.279676616191864, -1.0641701221466064, 2.0230140686035156, 2.662107229232788, 2.0299954414367676, 0.48006290197372437, -0.9762881398200989, 1.3013721704483032, -10.013588905334473, -5.929646968841553, 0.3354257047176361, -2.4929189682006836, -0.3268299698829651, 4.6098527908325195, 2.251324415206909, 0.9930689334869385, 3.612358331680298, -1.4291330575942993, 6.018364906311035, 0.17579907178878784, 1.6232030391693115, 2.080477714538574, -0.9987249970436096, 0.4845809042453766, -0.3374861776828766, 1.6231046915054321, -4.4450297355651855, 0.4664759039878845, 6.082638263702393, 0.19380293786525726, 0.33125507831573486, -2.5325942039489746, -3.099043846130371, 4.338435173034668, 1.6391233205795288, -0.06504678726196289, 2.122859239578247, -3.141216516494751, 4.74360990524292, -0.282584547996521, -0.8484514951705933, 4.557114601135254, 0.3299133777618408, 1.56684148311615, 0.639946460723877, 2.3922646045684814, 4.416481971740723, 3.8590521812438965, 0.07886695861816406, 1.9263137578964233, -0.9309536814689636, -0.9624195694923401, 4.440169334411621, -0.10849015414714813, -1.289218783378601, -1.2437535524368286, -0.9589240550994873, -3.3849596977233887, 0.01234565768390894, -0.2665109634399414, -1.6790109872817993, 4.513278007507324, 0.1003451868891716, -3.4972827434539795, -0.7790312767028809, 6.813937664031982, -1.5559515953063965, -0.2076333463191986, 1.7640794515609741, 1.2054176330566406, 4.82576322555542, -1.0600569248199463, 5.937255859375, 3.2295634746551514, -2.3264100551605225, -0.01150369644165039, -1.6569411754608154, 5.798766136169434, -1.9263176918029785, 0.748145341873169, -1.7570092678070068, -3.7880592346191406, -0.8131139278411865, 2.120345115661621, -1.100101351737976, 1.0400182008743286, 1.2371125221252441, 1.8881806135177612, 0.3006686270236969, -0.4324604570865631, -3.8842971324920654, -1.3517332077026367, 3.1218016147613525, 1.3917921781539917, -1.9525402784347534, 1.6942238807678223, 2.9987597465515137, 4.011322021484375, 4.2853217124938965, -4.712194442749023, 1.6840941905975342, 2.1913013458251953, 5.7618536949157715, -1.1351293325424194, -1.7762565612792969, 6.163813591003418, -0.5918372869491577, -4.629940032958984, -6.245058059692383, -1.290706992149353, -2.1697921752929688, 2.414308547973633, 3.047961950302124, -1.542913794517517, -0.12459540367126465, -4.822255611419678, 0.8099671006202698, 0.2823026180267334, -3.764705181121826, 2.9549813270568848, 1.764437198638916, 0.4234926998615265, 0.7856423258781433, -0.2526199221611023, 2.9269604682922363, -2.1895952224731445, -2.0284790992736816, -2.5433413982391357, -4.295069694519043, -0.7845970392227173, 5.188363552093506, 1.7428888082504272, -0.8758464455604553, 1.5169990062713623, 1.4948633909225464, 0.6196011900901794, -4.978059768676758, -0.08513043820858002, 4.291736125946045, -0.12730948626995087, 0.9250602722167969, -0.04579745605587959, -1.2894020080566406, -1.8421759605407715, -2.19621205329895, -0.3003997504711151, -0.7075210809707642, -0.3909202218055725, 1.197931170463562, 3.4734015464782715, -3.0970444679260254, 4.799509525299072, 1.0272016525268555, 2.03446626663208, -5.254456520080566, 3.411686897277832, 4.8199992179870605, -1.3232775926589966, 4.036302089691162, -5.984462261199951, 3.6598002910614014, -4.505465984344482, -2.2049484252929688, 2.9924371242523193, 1.4867966175079346, 0.38833171129226685, 2.4629435539245605, 1.3271969556808472, -0.4963236451148987, 0.7367343902587891, 0.5499572157859802, 4.229991436004639, 1.5850343704223633, 3.091041088104248, -0.6147094964981079, -0.945623517036438, 2.3390371799468994, 1.276398777961731, 0.19523830711841583, -3.1760265827178955, 0.677209198474884, -0.59676593542099, 2.132847785949707, 4.027888774871826, 1.4734143018722534, -1.086107611656189, -4.587401390075684, 1.711051106452942, -2.1295008659362793, 3.83286190032959, 0.8271852731704712, -0.09139774739742279, -2.940775156021118, 2.013838052749634, 1.5561736822128296, -1.1832653284072876, -1.8226056098937988, 0.438767671585083, 2.1717498302459717, -1.7170743942260742, 2.1676695346832275, 5.269715309143066, -0.01238352432847023, -4.16493558883667, 2.3443336486816406, -4.239218711853027, 6.38112211227417, 0.8845624923706055, -2.368044137954712, 2.6072070598602295, 2.2081871032714844, 2.4939422607421875, 3.313223123550415, -3.8584392070770264, -1.6844861507415771, 0.3768422603607178, 2.3638436794281006, 0.7736488580703735, -3.923574924468994, -0.04754909127950668, -4.585258960723877, 0.07981006056070328, 3.8401682376861572, 1.1953654289245605, -0.14695601165294647, -6.812957286834717, 0.1690458059310913, 2.1534764766693115, -0.2537094056606293, -0.311765193939209, -3.7643706798553467, 1.370931625366211, 0.5805644392967224, -1.989914894104004, -5.463064193725586, 3.421729326248169, -0.11879373341798782, -2.617830276489258, -1.215491533279419, 3.8237359523773193, -4.647243499755859, 2.487098455429077, -5.558040142059326, -3.4181456565856934, 3.7421982288360596, 5.27211856842041, -0.018611615523695946, 4.676705360412598, -2.5206685066223145, -2.622795581817627, -2.7427542209625244, -4.022431373596191, -4.337120532989502, 1.2379037141799927, 1.4881114959716797, 1.027651309967041, 1.9841454029083252, 2.6867098808288574, -2.6125524044036865, -2.319803476333618, -0.693976879119873, -1.2134857177734375, -2.2792041301727295, 0.39458826184272766, -4.887142658233643, -3.792064905166626, 3.1594784259796143, 0.9140002131462097, 2.328994035720825, -0.126577690243721, 10.158205032348633, 6.291965484619141, -1.9164328575134277, -3.1478142738342285, -0.851827085018158, -1.0673096179962158, 0.07273045927286148, 2.90016770362854, 1.7076610326766968, -3.706804037094116, -5.6441330909729, -1.0218712091445923, -2.910233497619629, 1.7683662176132202, -4.704697132110596, 1.4386450052261353, -0.9416511058807373, 0.14653262495994568, -2.4043478965759277, -5.933802127838135, 0.019977372139692307, 2.5673060417175293, 2.514270067214966, -0.12125048041343689, 0.3547155559062958, -2.9192049503326416, 4.655048847198486, -0.24704642593860626, 0.9108327627182007, 1.28014075756073, 1.9891992807388306, 1.2150688171386719, -2.353482723236084, -3.9229190349578857, -5.582335948944092, 3.397688150405884, 2.5093305110931396, -0.8328208923339844, -1.3113837242126465, 6.269744396209717, -0.9991312623023987, 0.5114689469337463, -5.622744560241699, -2.9116342067718506, -0.17097695171833038, 0.5163840055465698, -0.9085191488265991, 4.094795227050781, -0.0346636138856411, 0.02714373730123043, 2.0751209259033203, -3.0495223999023438, 0.0005859965458512306, 1.1796889305114746, 3.283790111541748, -0.3780447840690613, -5.718498706817627, 1.0304787158966064, -0.6425151228904724, 12.375608444213867, 0.6316297054290771, -0.45908260345458984, -0.061706557869911194, -2.507753849029541, -0.15654949843883514, 0.0920741930603981, -0.4842560589313507, -0.2311239242553711, 1.809912085533142, 0.3032568693161011, -3.2746105194091797, 1.159987211227417, 2.38265061378479, 1.8112380504608154, -2.2307846546173096, -0.3738327920436859, 1.8921082019805908, -0.5406523942947388, -3.6551363468170166, 0.016458462923765182, 0.4936752915382385, 1.5159484148025513, -1.224977970123291, 1.0296913385391235, 3.1164722442626953, -0.9828557968139648, 4.202470779418945, 2.0512712001800537, -4.362541198730469, -3.551738739013672, 0.008308641612529755, -2.8500120639801025, 3.2024383544921875, 1.0283348560333252, -2.3178563117980957, 1.3096489906311035, 4.157406330108643, -4.021894931793213, -0.0761883333325386, -0.5563892126083374, -0.2808595299720764, 2.802318572998047, -0.4651575982570648, 11.912741661071777, 0.7859971523284912, -0.7777289152145386, 0.7970899343490601, -0.7134637236595154, 2.0757088661193848, 3.131317138671875, 0.3360247313976288, 1.4941359758377075, -1.1874656677246094, 5.917354583740234, 6.229217529296875, 3.400803565979004, 5.783261775970459, 0.5466235280036926, -0.6160350441932678, -4.844419956207275, -1.225447654724121, 0.7220548391342163, -1.158429503440857, -3.1104347705841064, 3.349127769470215, 2.318849802017212, -1.9883793592453003, -0.6530991196632385, -1.4086198806762695, -0.5089507699012756, 4.480571746826172, -2.167571544647217, -1.7303496599197388, 1.6302727460861206, -5.001994609832764, -0.4841887354850769, -0.6018310189247131, -6.752039909362793, -3.937523365020752, -8.22385311126709, -3.927309513092041, 2.0828511714935303, 2.2233688831329346, -1.8623713254928589, 2.6853606700897217, -0.8353046178817749, 1.8359719514846802, -1.7847325801849365, 0.9031821489334106, 1.0713564157485962, -1.3538010120391846, -1.41585373878479, 4.218594074249268, -3.4010531902313232, 0.5708093643188477, 2.304283618927002, -0.5338222980499268, -6.782393455505371, -2.869507312774658, 0.3336658775806427, -1.7478740215301514, -4.86981725692749, 2.5031802654266357, 0.9725020527839661, 1.9945976734161377, -3.0674288272857666, 0.6064671874046326, 5.594547271728516, 0.0457974374294281, -0.4765807092189789, 5.9899821281433105, 1.8009778261184692, 1.1494696140289307, -1.7827383279800415, 3.8717598915100098, -5.329545021057129, 0.9006031155586243, -0.39884763956069946, 0.8655929565429688, -1.3897472620010376, 0.9094820022583008, 1.2091882228851318, -0.3158119320869446, 1.9285063743591309, 0.1271737813949585, -0.32421788573265076, -5.377292156219482, -1.960644245147705, -3.0144424438476562, 0.43645986914634705, -4.176170825958252, -0.18224003911018372, -0.01633055880665779, 1.1722908020019531, 2.4017069339752197, -0.11065628379583359, -4.05654764175415, 0.17451472580432892, -2.095125675201416, -0.3965447247028351, -5.782879829406738, -1.899296522140503, 0.498192697763443, -1.0751850605010986, -0.2663554251194, -5.0215888023376465, -3.182697057723999, -0.9442474246025085, 1.263235092163086, 0.2256041020154953, -0.4814329445362091, -1.6276443004608154, 0.0418662391602993, -1.626640796661377, -3.7217929363250732, 2.774360179901123, 0.5038816332817078, 0.8791448473930359, 0.8250661492347717, 2.1259007453918457, 4.2442169189453125, 0.19958984851837158, -3.6296565532684326, -1.2420743703842163, -3.581536054611206, 3.3574047088623047, -0.8402630090713501, 1.6559133529663086, -4.847205638885498, 2.5661773681640625, -1.7135937213897705, -3.8744890689849854, -0.6990137100219727, -4.33926248550415, 1.3937592506408691, -0.3439870774745941, -7.044574737548828, -0.9134504199028015, -1.9399889707565308, 0.6868686079978943, 0.026226023212075233, -5.195505619049072, 0.4915420413017273, 2.825798749923706, -5.6899333000183105, 0.9257097244262695, -6.121621131896973, -0.11042887717485428, 1.1348540782928467, -0.6104384660720825, 1.4949878454208374, 3.5636487007141113, -2.846975564956665, -0.12198691815137863, -3.406421661376953, -1.7985278367996216, -0.74158775806427, -1.4157713651657104, -5.139697074890137, 0.04506905749440193, -3.768117666244507, -10.370760917663574, 0.21981525421142578, 0.30076703429222107, 1.0369713306427002, 1.9156458377838135, 2.0054306983947754, -1.3571497201919556, -1.6523525714874268, -2.119049310684204, -2.26198410987854, -0.021948620676994324, 0.9960553050041199, -3.9690728187561035, -0.945408046245575, -1.757879376411438, -8.45103645324707, 0.9966012239456177, 2.1107003688812256, -0.8523616790771484, 6.803953170776367, -6.9072370529174805, -1.2794581651687622, 0.7292391061782837, -0.6339118480682373, -1.968069314956665, -1.9053560495376587, 0.6725438237190247, -2.2024452686309814, 2.632906913757324, 2.1050689220428467, -4.448369979858398, -3.8201651573181152, -3.306429147720337, -4.631174087524414, -0.4078615605831146, -1.235167145729065, 1.779964804649353, 7.065214157104492, -0.01437362004071474, 2.97709584236145, 0.5765005350112915, 0.44371360540390015, -0.2417203038930893, -4.128129005432129, 0.10174442082643509, -2.237165689468384, 1.7105023860931396, 0.6271249055862427, -0.5291447639465332, -4.222170352935791, -1.156744360923767, -3.477933883666992, 2.598803758621216, 0.6904520392417908, 2.68276309967041, 2.442486047744751, 3.3529422283172607, -0.011356106959283352, -0.2723328173160553, -4.3288493156433105, -2.654477596282959, 2.1256699562072754, -4.693940162658691, -3.6280605792999268, 1.6987348794937134, -0.8743479251861572, -2.556107997894287, -1.902764916419983, -2.481389045715332, -1.9035202264785767, 1.2285816669464111, -2.780734062194824, 2.94797682762146, 0.07698141783475876, 0.049573302268981934, 2.481626510620117, 1.196370005607605, -4.195831298828125, -0.31090179085731506, 2.5469048023223877, 0.009074750356376171, 3.5502426624298096, -2.132439374923706, -1.5559191703796387, 0.6450839042663574, 2.57126522064209, -0.29540684819221497, -2.7855224609375, -0.7409135699272156, -3.1207447052001953, 5.30631685256958, 1.5063328742980957, 5.054177284240723, -0.7013412714004517, 1.2217333316802979, 0.8468011617660522, 2.730078935623169, 2.7720296382904053, 3.1119959354400635, 4.4006524085998535, -8.501859664916992, -0.8260075449943542, -1.3234087228775024, 1.6147922277450562, -0.80848628282547, 2.972574234008789, 2.6521782875061035, 2.043189764022827, 2.8580031394958496, -3.152740955352783, 3.2528905868530273, 0.6520223021507263, -3.9948959350585938, 4.657802104949951, -0.22059226036071777, -1.3296171426773071, 2.172245979309082, -0.12944263219833374, 1.1374822854995728, 1.1720303297042847, -2.821681022644043, 2.4866397380828857, 3.4780962467193604, -2.407222032546997, 4.1626811027526855, -5.29378604888916, -3.816546678543091, -1.127923607826233, 2.0858466625213623, -1.3053799867630005, -1.2615302801132202, 1.9456993341445923, 2.9973316192626953, -5.47188663482666, -0.2924432158470154, 2.2431135177612305, -3.8012163639068604, -0.7208429574966431, -2.401921272277832, -1.6396256685256958, -4.002896785736084, 0.8029497861862183, -0.4006761908531189, 3.468080520629883, -3.1814305782318115, -1.3002568483352661, 0.1933789849281311, -1.302673578262329, 2.9478518962860107, 2.518296480178833, 3.9435036182403564, -7.609872341156006, 2.3899624347686768, 4.2236008644104, -1.9298911094665527, 4.4617228507995605, -0.13267189264297485, 1.9554107189178467, -0.13775195181369781, -0.43977469205856323, 5.654268264770508, -0.38673678040504456, 1.3624776601791382, -0.8231711983680725, -1.5106018781661987, -2.671858072280884, -0.07145699858665466, -0.7686687707901001, 4.274058818817139, -3.099294424057007, 3.1367886066436768, 2.120410919189453, -0.7967081665992737, 3.134675979614258, 0.16406749188899994, -5.47499942779541, -0.9655239582061768, 3.062441825866699, -0.04238832741975784, -2.72029447555542, 1.7324374914169312, 1.6104211807250977, 1.0837761163711548, -0.5969609618186951, -2.2460596561431885, 2.219381093978882, -3.3971517086029053, -4.266414165496826, 2.6469292640686035, -2.730239152908325, 6.601414680480957, -2.5673370361328125, 0.7954352498054504, 3.626129388809204, -1.9452749490737915, -2.1622726917266846, 1.377435326576233, 1.2859387397766113, 0.06472975760698318, -4.8876566886901855, 2.8668086528778076, 2.2126405239105225, -4.292351245880127, 2.8942441940307617, 2.1484386920928955, 5.839210510253906, -6.438013553619385, 0.4568715989589691, 4.435302257537842, -2.9842288494110107, -1.1325360536575317, -1.1607823371887207, -0.9485286474227905, 1.8542115688323975, 2.5731403827667236, -2.0873703956604004, -4.107666969299316, 1.0713731050491333, -1.3634283542633057, -0.5586706399917603, -0.117226243019104, -0.035250671207904816, -5.032744884490967, -0.9878736138343811, -2.967876672744751, 0.8582403063774109, -2.2999768257141113, -0.9403384327888489, -0.5128822326660156, 3.2954251766204834, 1.3565553426742554, 1.2962651252746582, 3.5340359210968018, 5.911853790283203, -1.186189889907837, -4.633941650390625, 3.6589112281799316, -1.9365456104278564, 3.3585104942321777, 0.535713791847229, -5.01621675491333, -2.643793821334839, -3.6533031463623047, 3.4256391525268555, 0.6245176196098328, -2.5385029315948486, -2.3765203952789307, 2.542978525161743, 0.003383333794772625, -0.4266887307167053, 4.338692665100098, -2.0531117916107178, 3.6110758781433105, 2.0138967037200928, -0.049775220453739166, 0.9916794896125793, -0.6904594898223877, -5.550172328948975, 2.1116766929626465, 0.8501068353652954, -0.6345343589782715, 0.3243812620639801, -0.8810819983482361, -4.215693473815918, 1.1469780206680298, 4.051358222961426, 0.10552728176116943, 2.46396541595459, -3.525200128555298, 0.15883849561214447, 0.8003239035606384, 2.002056360244751, -0.8611128926277161, 2.667501449584961, 2.7305753231048584, -3.0411500930786133, 1.818424105644226, 4.340911388397217, -0.07751954346895218, -0.30482468008995056, 2.154665470123291, -1.5201929807662964, 1.9421970844268799, 4.258405685424805, -4.527480125427246, 1.5022294521331787, -6.640275955200195, -3.139867067337036, -1.5915536880493164, 4.519196033477783, -6.033106327056885, -3.650116205215454, -0.5986508131027222, 2.339906930923462, 0.38495513796806335, -4.996705532073975, -3.674158811569214, -1.424841284751892, 0.768298864364624, -2.9661476612091064, -3.7808890342712402, -1.753422498703003, 0.022013530135154724, 2.943679094314575, 4.192270278930664, -1.8909611701965332, 2.58174729347229, -1.2026309967041016, -2.2036256790161133, -5.6048197746276855, 1.7795724868774414, 3.26081919670105, 0.6970881819725037, -0.2961277663707733, -2.9266722202301025, -3.0352632999420166, -2.1394433975219727, 1.6031819581985474, -2.750579595565796, -2.7559971809387207, 3.6356561183929443, 7.459964275360107, 0.5375045537948608, -5.700514793395996, -1.8071397542953491, -2.7518210411071777, 0.18061411380767822, -4.642528533935547, -0.5238397717475891, 3.078289747238159, -4.1398701667785645, -2.935203790664673, -3.6027991771698, -1.6223053932189941, 1.137848138809204, 1.2391705513000488, 1.2497704029083252, 3.3710250854492188, -1.8676902055740356, -1.9950168132781982, -0.40024513006210327, 2.5274441242218018, -1.913162350654602, -3.6126697063446045, 2.777669668197632, -1.1965835094451904, 3.920490264892578, -1.4292869567871094, 1.3825150728225708, 1.2729570865631104, -4.298575401306152, 2.66501522064209, 2.263070583343506, 1.2329738140106201, -1.5699222087860107, 1.6070003509521484, 4.811990737915039, -0.07388041913509369, -2.2505104541778564, -6.931078910827637, 0.8654844164848328, 0.7742713093757629, 0.878655195236206, 1.2216403484344482, -3.890500068664551, -0.27538201212882996, 1.4749523401260376, 1.5388535261154175, -3.924561023712158, 0.2568535804748535, -1.3104647397994995, -0.19932782649993896, 1.863244652748108, -2.476522922515869, 0.05274224281311035, -4.410262107849121, -5.522760391235352, 1.2580056190490723, -2.8757193088531494, -2.4807446002960205, 2.0560123920440674, -3.381330728530884, -6.117559432983398, -0.07923758029937744, 1.6637539863586426, -0.6972021460533142, 0.22334469854831696, 4.525827407836914, -2.6580355167388916, -3.2835166454315186, 0.06261181086301804, -1.9788950681686401, 2.8340277671813965, 1.409751057624817, 2.8296172618865967, -1.124965786933899, -3.0920681953430176, 2.2878634929656982, -0.8365082144737244, -1.991780161857605, 1.528955340385437, 4.751798152923584, 2.63053560256958, -1.5090781450271606, -0.6146966218948364, -0.41002392768859863, 6.5457963943481445, -2.099799394607544, -1.6552983522415161, -3.8155946731567383, 6.644019603729248, 2.058677911758423, -0.025956882163882256, 1.6103912591934204, 3.44213604927063, 2.4980218410491943, -0.4792775511741638, -6.4339470863342285, -0.5662285685539246, 1.034166693687439, -2.0986146926879883, -3.9099769592285156, -1.5477288961410522, -4.412057876586914, 3.7595319747924805, 1.3872075080871582, 3.56813645362854, -2.7156596183776855, 2.698322057723999, 0.5124524235725403, -0.11080615967512131, 4.801304340362549, -4.674112319946289, 2.061798095703125, -3.650219440460205, -0.9195590019226074, -0.7802931070327759, 3.1656482219696045, -4.5272932052612305, -0.3447474241256714, -5.688861846923828, 3.780179023742676, -4.349219799041748, 1.1251146793365479, -4.882458209991455, 0.8121193051338196, 2.626427173614502, -4.2765421867370605, -0.35454294085502625, 0.16967661678791046, -0.2011793702840805, -2.962132692337036, -2.4116106033325195, -0.809460461139679, -3.5861806869506836, 1.1440457105636597, -1.8142917156219482, 6.512609481811523, -3.2674367427825928, 2.0906193256378174, 1.9298864603042603, 2.1772332191467285, -3.435880184173584, 3.076369285583496, 0.28127533197402954, -1.7801636457443237, 2.1731410026550293, 2.829880714416504, -0.7951415181159973, -4.276190280914307, 2.2985243797302246, 0.8693143725395203, 4.269409656524658, 4.91461181640625, -2.425234317779541, -2.19500732421875, -3.158989906311035, -1.0438061952590942, -0.3155096471309662, 1.1719616651535034, 5.192466735839844, 0.7957708835601807, -0.8664384484291077, -1.255780577659607, -7.340824604034424, -3.2621960639953613, 0.04143628105521202, -1.1566593647003174, -3.4545981884002686, -2.0819647312164307, 1.4234821796417236, -0.35921427607536316, -0.3489393889904022, -1.6464132070541382, 1.676796793937683, 0.8273134827613831, -2.871471643447876, 3.8017077445983887, 0.07830885797739029, 0.737687885761261, 4.642629623413086, 0.2534254789352417, 5.951202869415283, -1.048764705657959, 0.9456992149353027, -0.9294043183326721, 0.40971696376800537, -0.21063624322414398, 6.078177452087402, -2.789412498474121, -5.1934943199157715, 1.0550730228424072, 0.5540416836738586, -0.4907582104206085, 0.6182935237884521, 1.5176743268966675, 2.7949140071868896, -0.23874057829380035, -0.9272803664207458, -2.5815446376800537, -1.8692611455917358, 1.5529242753982544, -3.0768487453460693, -1.1933701038360596, 2.616985321044922, -1.711640477180481, 2.3262267112731934, -1.9065396785736084, -2.973161458969116, -5.595364093780518, -1.150767207145691, 1.17604660987854, 0.2587724030017853, 1.0795890092849731, 2.787644863128662, -0.2259133756160736, 1.507190227508545, 0.1760830134153366, 0.5811514854431152, 3.2228689193725586, -7.639873504638672, 3.3227176666259766, -0.3392786979675293, -0.523309051990509, 4.687071800231934, -3.0977742671966553, -0.7747291326522827, -1.2412151098251343, -2.4793806076049805, -0.3541634976863861, 0.9548494219779968, -4.352071762084961, -2.4097180366516113, 3.1965534687042236, -3.373582601547241, 0.7039329409599304, 2.3902013301849365, 7.030505657196045, -0.5812554359436035, 0.41380074620246887, 0.5198315978050232, -1.0147273540496826, 0.996184766292572, 0.9437280297279358, -2.0646188259124756, -3.1299915313720703, -0.23886819183826447, -3.1148617267608643, 5.814043998718262, 2.1969027519226074, 5.921629905700684, 0.4624718129634857, -4.07343053817749, 0.6000878810882568, -1.6670732498168945, 0.3743814527988434, 1.4982026815414429, 3.760547637939453, -1.492005705833435, -2.6595044136047363, -4.763119697570801, -0.633840799331665, 0.6279948353767395, -0.21221283078193665, 1.214213490486145, -2.906183958053589, 2.4249343872070312, -1.2313764095306396, 1.0785300731658936, 1.113533616065979, 4.163395404815674, 0.24640944600105286, -4.250306129455566, 1.0202460289001465, -5.658173561096191, -2.4793460369110107, 3.76078724861145, -5.029472827911377, -1.6523327827453613, -0.5005923509597778, -4.6738715171813965, -0.6872857213020325, 0.9801846742630005, -0.997452974319458, -5.844799518585205, -6.8348846435546875, -0.13381682336330414, 0.3522745668888092, 0.6403975486755371, 1.316094160079956, 1.051324486732483, 0.07155391573905945, -1.0202503204345703, -0.3902519941329956, -1.1906520128250122, 2.5601255893707275, -0.02606089971959591, -1.6425694227218628, 0.03612484037876129, 0.6817464828491211, -1.7640622854232788, -0.7640224099159241, -1.5575226545333862, 2.739151954650879, 2.031630039215088, 1.6502610445022583, 0.9604479670524597, -0.4177775979042053, 0.8785068392753601, -8.144320487976074, -6.238981246948242, 0.1091594398021698, -1.9805561304092407, -0.6936977505683899, 5.058255195617676, 2.952436923980713, 0.5851983428001404, 3.5754613876342773, -1.4036808013916016, 5.9533467292785645, 0.334811270236969, 2.5461320877075195, 2.019922971725464, -0.9307748079299927, 0.26825010776519775, 0.7663165330886841, 0.9715675711631775, -4.431426048278809, 0.250062495470047, 6.186885356903076, 1.0909370183944702, -0.35421690344810486, -2.3806374073028564, -3.0971007347106934, 4.1275153160095215, 1.5923926830291748, 0.21673883497714996, 3.05104660987854, -2.8789217472076416, 5.444464206695557, -1.3429049253463745, -0.42258018255233765, 4.403114318847656, 0.6445378065109253, 0.9324498176574707, -0.19768178462982178, 2.36657452583313, 3.9929378032684326, 3.651616334915161, -0.9218037128448486, 1.7400774955749512, -0.36233898997306824, -1.2337968349456787, 5.0075907707214355, 0.16290633380413055, -1.6796469688415527, -1.5613495111465454, -1.5694894790649414, -3.4575459957122803, 0.04836012423038483, -0.23854674398899078, -1.0765495300292969, 4.712295055389404, -0.49948379397392273, -4.000636577606201, -1.3800175189971924, 6.965290069580078, -2.156036615371704, -0.3970448076725006, 1.8109365701675415, 1.4513300657272339, 4.661906719207764, -0.8419812917709351, 5.813475131988525, 3.9000608921051025, -2.4077348709106445, 0.08013278990983963, -1.2497130632400513, 6.8439717292785645, -1.2347171306610107, -0.19249004125595093, -1.5042579174041748, -3.9671149253845215, -2.1571388244628906, 2.4835500717163086, -1.0869014263153076, 0.8560202121734619, 1.0979903936386108, 2.073927164077759, 0.9561803340911865, -0.608377993106842, -3.939026355743408, -1.3938260078430176, 3.257855176925659, 1.4576663970947266, -2.426327705383301, 1.9924033880233765, 2.987478256225586, 4.000926971435547, 4.024554252624512, -4.728471279144287, 1.7970398664474487, 1.3318532705307007, 6.034985542297363, -1.615289568901062, -1.4734915494918823, 4.844969272613525, -0.10597100108861923, -3.502986192703247, -5.073873043060303, -1.7178289890289307, -1.8882328271865845, 2.179250478744507, 3.3641419410705566, -0.5439740419387817, 0.7718008756637573, -4.580554485321045, 1.0188332796096802, 1.4516069889068604, -4.504907131195068, 2.99416184425354, 1.7768445014953613, -0.45406094193458557, 0.9641456007957458, 0.4147533178329468, 2.654284954071045, -3.3518869876861572, -2.528186798095703, -3.3675265312194824, -3.6259512901306152, -0.4763377010822296, 5.614988803863525, 1.967700719833374, -0.9316175580024719, 2.1062281131744385, 1.0092978477478027, 0.9563182592391968, -4.620978355407715, -0.21439304947853088, 4.922420501708984, -0.576599657535553, 0.99946528673172, 0.04936942830681801, -1.2755916118621826, -1.7370189428329468, -2.749232769012451, -0.7106772661209106, -1.5237796306610107, -0.6268463134765625, 1.1387144327163696, 4.2338080406188965, -2.9567883014678955, 5.208876132965088, 1.0779683589935303, 1.969240665435791, -5.19948673248291, 2.971615791320801, 5.41311502456665, -0.7754517793655396, 4.6809163093566895, -5.747845649719238, 3.936816692352295, -4.676599025726318, -1.7641481161117554, 2.553847551345825, 2.16630482673645, 0.8789346218109131, 1.6726609468460083, 0.9791921973228455, -0.8742471933364868, 1.1394400596618652, 0.08310393989086151, 3.9591259956359863, 1.2864205837249756, 2.4782047271728516, -0.5711700916290283, -1.412168264389038, 2.3614161014556885, 2.2806553840637207, 0.38335201144218445, -3.089047908782959, 0.8189951777458191, -0.638299822807312, 2.6524040699005127, 4.787446975708008, 1.9916191101074219, -1.4388693571090698, -4.029989719390869, 1.2027825117111206, -2.054807424545288, 4.001974582672119, 0.08282269537448883, 0.30667924880981445, -2.410407304763794, 1.9210026264190674, 1.5180240869522095, -0.9448490142822266, -2.660977363586426, 0.8772065043449402, 1.7585270404815674, -1.8110231161117554, 2.028519630432129, 5.060579776763916, -0.3874739110469818, -5.000735759735107, 2.689129114151001, -3.0926389694213867, 5.892399311065674, 0.2897053062915802, -2.5332250595092773, 2.7426013946533203, 3.110621213912964, 2.146108388900757, 3.0424060821533203, -3.3093221187591553, -2.4842286109924316, -0.1820164918899536, 1.9116684198379517, 0.8112690448760986, -3.9943690299987793, 0.09348418563604355, -3.9907281398773193, -0.8342180848121643, 3.279849052429199, 1.092596173286438, 0.22313182055950165, -6.054619312286377, 0.3328266441822052, 1.7718271017074585, -0.7092978954315186, 0.32031378149986267, -3.9411861896514893, 0.3866225779056549, 0.32283279299736023, -2.098299980163574, -5.92407751083374, 4.087289810180664, 0.08796560019254684, -2.6624181270599365, -1.387250542640686, 3.561480760574341, -6.121266841888428, 2.087506055831909, -3.217592716217041, -3.261610269546509, 4.068253517150879, 5.649203777313232, -1.6308519840240479, 4.991829872131348, -2.627598524093628, -2.2325522899627686, -3.428140640258789, -4.1575775146484375, -4.82293701171875, 2.805088520050049, 2.282447338104248, 1.2157927751541138, 2.575993061065674, 2.4296348094940186, -2.842845916748047, -2.798863410949707, 0.2412465214729309, -2.9109561443328857, -3.400933027267456, 0.6518612504005432, -4.625125885009766, -4.209738254547119, 3.1941139698028564, 0.8710524439811707, 2.1765809059143066, 0.06412846595048904, 9.783028602600098, 5.585260391235352, -2.1001288890838623, -3.1758017539978027, -0.5938470959663391, -0.5255216956138611, 0.05547386407852173, 3.654794692993164, 2.173854112625122, -4.1523823738098145, -4.924798011779785, -0.6217815279960632, -2.21480655670166, 2.0907070636749268, -5.447897434234619, 1.239426612854004, -1.5112487077713013, 0.32872912287712097, -2.4249050617218018, -5.6546196937561035, 0.063269704580307, 2.294355869293213, 2.208153247833252, -0.510260820388794, 1.3840759992599487, -2.4898393154144287, 5.338228702545166, -0.24838367104530334, 1.1443753242492676, 0.2938235402107239, 1.5866003036499023, 1.0125575065612793, -1.8264710903167725, -3.0471322536468506, -5.710858345031738, 3.2414066791534424, 2.8167335987091064, -1.1635199785232544, -0.9959534406661987, 6.600768089294434, -1.2380542755126953, 0.8812859654426575, -4.808204174041748, -2.9798734188079834, 0.3949601352214813, 0.5803684592247009, -0.8561473488807678, 3.8004682064056396, -0.07816369831562042, 0.24004924297332764, 1.5653698444366455, -3.163957357406616, -0.036957528442144394, 1.1624153852462769, 4.067127704620361, -0.03669625520706177, -6.106207370758057, 0.5970407128334045, -0.5747110843658447, 12.305988311767578, 0.5248251557350159, 0.00442687701433897, 0.704135000705719, -2.1962146759033203, 0.3070170283317566, 0.16792425513267517, -0.5530869960784912, -0.4201984107494354, 0.9891843199729919, -0.3537542521953583, -2.7641258239746094, 0.5783396363258362, 1.9347065687179565, 2.1895923614501953, -1.7536208629608154, -0.04322383925318718, 1.9214658737182617, 0.3232668936252594, -3.18638014793396, -0.44111546874046326, 0.5411151051521301, 1.4801251888275146, -1.1616597175598145, 2.0742406845092773, 3.3056201934814453, -0.8972886204719543, 4.410532474517822, 1.8136005401611328, -4.56938362121582, -3.6574106216430664, -0.25780513882637024, -3.0574660301208496, 3.0626566410064697, 1.603104829788208, -1.7345455884933472, 0.7865217328071594, 3.4294652938842773, -4.199727535247803, -0.28751885890960693, -0.10831324011087418, 0.22152334451675415, 3.0796711444854736, -0.8327938914299011, 11.221501350402832, 0.8169773817062378, -0.8553350567817688, 0.30745941400527954, -1.6913481950759888, 1.7899061441421509, 3.1898653507232666, 1.7599433660507202, 0.7596225738525391, -0.825600266456604, 6.117183685302734, 6.282200336456299, 3.3455893993377686, 6.273191452026367, 0.1377849131822586, -0.5971764326095581, -6.247232437133789, -0.43796518445014954, 1.0375010967254639, -1.7354254722595215, -3.286543607711792, 3.3412585258483887, 3.8063414096832275, -2.1657679080963135, 0.3655104637145996, -1.0934079885482788, -0.3584915101528168, 4.336478233337402, -1.7322077751159668, -1.4951595067977905, 1.6689032316207886, -4.574902057647705, -0.3881761133670807, -0.38897329568862915, -7.250870704650879, -4.331862926483154, -9.02243423461914, -4.590139865875244, 2.2462680339813232, 2.780561685562134, -1.6272927522659302, 2.276355028152466, -1.8005645275115967, 1.6022095680236816, -1.9304543733596802, 1.1998155117034912, 1.0874205827713013, -1.6464380025863647, -0.06997799873352051, 4.516998291015625, -3.526376485824585, 0.7133113145828247, 2.7912986278533936, -0.8100703358650208, -6.663815498352051, -2.7400882244110107, 0.3925721049308777, -1.7340151071548462, -4.427402973175049, 2.715280294418335, 1.2619305849075317, 2.7146716117858887, -1.9511690139770508, -0.25055864453315735, 5.547999382019043, -0.3985031843185425, -0.2263527810573578, 5.152088642120361, 1.0800412893295288, 1.535211443901062, -2.174262285232544, 3.2112090587615967, -5.302428722381592, 1.0166479349136353, -0.1404111087322235, 0.7450612187385559, -1.403478980064392, 1.0130105018615723, 1.1238101720809937, 0.9142520427703857, 2.1131949424743652, 0.6414263844490051, -0.5144846439361572, -5.977227687835693, -1.4419755935668945, -2.8757150173187256, 0.14959624409675598, -4.124318599700928, -0.6025421023368835, 0.1990102380514145, 1.529504418373108, 2.397256374359131, -1.1130675077438354, -4.199490070343018, 0.04276273399591446, -2.492358922958374, -0.6683613657951355, -5.678983688354492, -3.267531633377075, 0.33946532011032104, 0.2829678952693939, -0.9768376350402832, -4.135984897613525, -1.653809666633606, -1.193716287612915, 1.7535059452056885, 1.0214325189590454, 0.019265247508883476, -1.3426973819732666, -0.2137545794248581, -1.231427788734436, -3.651937246322632, 2.6845619678497314, 1.017256259918213, -0.2150050401687622, 1.3648855686187744, 1.631686806678772, 4.469606876373291, 0.1479422003030777, -2.7226052284240723, 0.029380813241004944, -2.243917465209961, 2.8352627754211426, -1.1337946653366089, 1.7878185510635376, -5.441451072692871, 2.396716833114624, -1.6122864484786987, -5.605071067810059, -1.0863382816314697, -3.8493916988372803, 1.7191181182861328, -1.544208288192749, -6.922121524810791, -0.6355318427085876, -1.8037923574447632, 2.064368724822998, -0.6674819588661194, -5.100320339202881, 1.1074635982513428, 1.507340431213379, -7.886979579925537, 0.7114570140838623, -6.825926303863525, -1.4108203649520874, 1.598872184753418, -1.1183390617370605, 1.4946626424789429, 3.2065253257751465, -2.2533533573150635, -0.06627117097377777, -2.2304317951202393, -1.345402717590332, -0.10678049921989441, -1.4799000024795532, -6.039880752563477, 0.1383419930934906, -3.5085065364837646, -10.696927070617676, 0.21570715308189392, 0.6116675734519958, 1.571629524230957, 2.207655191421509, 2.0311429500579834, -1.0717542171478271, -1.6105167865753174, -2.5179848670959473, -0.8354041576385498, -0.33458319306373596, 0.7723016738891602, -3.150606155395508, -0.6495340466499329, -0.9992643594741821, -8.790261268615723, 0.9063411355018616, 1.773423433303833, -0.5600088834762573, 6.720223903656006, -7.701761722564697, -1.6688361167907715, 0.06099240481853485, -0.5437398552894592, -1.6315993070602417, -2.4026284217834473, 0.7496790289878845, -2.710958957672119, 2.4512650966644287, 2.4677324295043945, -4.693335056304932, -4.182737827301025, -3.459077835083008, -6.396405220031738, -0.45923665165901184, -1.508286952972412, 1.6548420190811157, 6.056498050689697, -0.5340096354484558, 3.0636868476867676, 1.2482441663742065, 0.6645401120185852, -1.2314904928207397, -3.5748038291931152, -0.788074791431427, -3.130490779876709, 1.2627400159835815, 0.7787602543830872, -0.36890673637390137, -4.4794697761535645, -1.1093008518218994, -3.1549265384674072, 2.733259677886963, 0.36347439885139465, 2.2937498092651367, 2.3330304622650146, 3.6148874759674072, 0.3085395395755768, -0.484599232673645, -4.138087749481201, -3.32719087600708, 2.6021296977996826, -4.267153263092041, -4.2888078689575195, 1.6861166954040527, -0.5111674666404724, -0.7199714779853821, -2.9111826419830322, -2.4126737117767334, -1.792971134185791, 1.114689588546753, -2.5996549129486084, 2.527971029281616, 0.7334574460983276, 0.7341961860656738, 2.175917863845825, 1.1842937469482422, -4.37473201751709, -0.38314107060432434, 1.9532618522644043, -1.8862801790237427, 3.9563229084014893, -2.518855571746826, -1.681160807609558, 0.1258482038974762, 2.4791266918182373, -0.1468840390443802, -3.2154016494750977, -0.8650550842285156, -3.343914747238159, 4.584063529968262, 1.5106875896453857, 4.108814239501953, -0.10536015033721924, 1.200463056564331, 1.9013017416000366, 3.579655647277832, 2.377652883529663, 2.9776124954223633, 4.276071071624756, -8.324000358581543, -1.00175940990448, -1.9654020071029663, 1.988129734992981, -1.1123137474060059, 3.3822994232177734, 3.3328475952148438, 1.4405486583709717, 2.772174835205078, -3.6437182426452637, 3.3991823196411133, 0.41482746601104736, -4.055591106414795, 5.235477447509766, 0.12850229442119598, -0.7009660005569458, 2.3501410484313965, -0.1079539880156517, 1.0362039804458618, 0.6239730715751648, -2.4369852542877197, 2.860157012939453, 3.5097267627716064, -2.3214616775512695, 3.482333183288574, -5.430027008056641, -4.698489189147949, -0.8784373998641968, 2.794027328491211, -1.7480405569076538, -0.8912723064422607, 2.5842788219451904, 3.1561758518218994, -5.4614129066467285, -0.08983872085809708, 2.1200363636016846, -4.483947277069092, -0.8186235427856445, -3.16788911819458, -0.7413670420646667, -3.708681106567383, 0.040895767509937286, -0.45888152718544006, 2.8393399715423584, -3.0095794200897217, -1.4775258302688599, -0.16917617619037628, -1.254174828529358, 3.6013567447662354, 2.5860953330993652, 3.835824489593506, -7.240854263305664, 2.4002859592437744, 5.244880199432373, -2.504664182662964, 4.200933933258057, -0.34102749824523926, 2.288949966430664, -0.355479896068573, -0.926935076713562, 5.314131259918213, 0.08195740729570389, 0.489100843667984, -0.7884088754653931, -2.670977830886841, -2.811291217803955, -0.012795740738511086, 0.003433207981288433, 4.134061336517334, -3.3634941577911377, 4.078747749328613, 2.1645333766937256, -0.46387675404548645, 3.3693349361419678, -0.03229206055402756, -6.550898551940918, -0.573229193687439, 3.0662620067596436, -0.4614463150501251, -2.554980516433716, 1.2698564529418945], "bnGammaD": [4.951632976531982, 4.068758010864258, 4.6100287437438965, 4.844192981719971, 5.49547004699707, 5.3614349365234375, 3.9742956161499023, 3.951366901397705, 4.801630973815918, 4.139212131500244, 3.797952175140381, 4.127831935882568, 3.8241159915924072, 3.8158035278320312, 5.053838729858398, 4.303574085235596, 4.664061069488525, 5.131115436553955, 5.2310380935668945, 5.088444709777832, 4.022970199584961, 5.05625057220459, 3.6994266510009766, 4.004176139831543, 4.641787528991699, 3.795647382736206, 4.250936985015869, 4.094786167144775, 3.9009876251220703, 4.272912502288818, 5.3299384117126465, 4.515566349029541, 5.858938217163086, 4.599605560302734, 4.787890911102295, 3.982569694519043, 3.5543711185455322, 4.738179683685303, 4.045841693878174, 5.314495086669922, 3.835983991622925, 4.296578407287598, 2.794022798538208, 4.270505905151367, 4.715411186218262, 3.905609130859375, 5.797030925750732, 4.339690685272217], "convKernelC": [-1.0465545654296875, -0.40717124938964844, -4.822119235992432, -1.0236884355545044, -0.6176620125770569, -0.2795884609222412, -1.4467602968215942, 2.0423264503479004, 1.2239142656326294, -2.4646267890930176, 1.356317162513733, -0.30135512351989746, -3.86816143989563, -4.430683135986328, 3.215874433517456, -7.528932094573975, 1.443019151687622, 1.7887717485427856, 4.265335559844971, 1.4098068475723267, -2.1149933338165283, 4.170856475830078, -9.351080894470215, 6.572862148284912, -0.9560759663581848, 1.7628068923950195, -1.03883695602417, 0.5010495781898499, -0.2809198498725891, -0.362445592880249, -1.723014235496521, 2.4452767372131348, -4.967485427856445, 0.3534676134586334, -0.21621787548065186, -3.793766975402832, -2.3875012397766113, -0.9633479118347168, -3.397982120513916, -0.2251163125038147, -6.434656143188477, 0.4054674804210663, -4.759316921234131, -6.634858131408691, 1.809546709060669, 0.844462513923645, -1.2041280269622803, -1.7529304027557373, -0.9122458100318909, 2.2812416553497314, -1.9626209735870361, -3.6088316440582275, -0.48061835765838623, -0.32267698645591736, 1.4277840852737427, 0.7638682723045349, -1.0924994945526123, 0.40460535883903503, 0.48325905203819275, -3.375004291534424, -0.280904620885849, -1.2667312622070312, 0.42117252945899963, -2.2570886611938477, 0.632977306842804, -2.147843837738037, 1.3047250509262085, -4.457819938659668, 3.4042043685913086, -1.8796998262405396, 3.254650354385376, -2.9289469718933105, -1.6215728521347046, -0.002618169877678156, -2.0972652435302734, 0.18453781306743622, 0.5225351452827454, -5.233780384063721, 0.7724295258522034, 2.1732466220855713, -2.33921217918396, 0.5660781860351562, 0.23275363445281982, 2.302138566970825, 1.9356114864349365, 4.4729838371276855, 4.401108264923096, 0.5926767587661743, 0.3285164535045624, 1.7687321901321411, -0.8649612069129944, -4.846810817718506, 0.9652925729751587, -1.209106683731079, 3.2687363624572754, -1.4572497606277466, 0.4958726465702057, -0.8612068891525269, -2.158032178878784, -3.1622400283813477, 0.882262647151947, 3.6781411170959473, -2.2783474922180176, 2.204164743423462, -2.524510622024536, 4.395510196685791, -2.2400898933410645, -6.437187194824219, -2.9606106281280518, 3.330703020095825, -0.5491335988044739, 2.0814599990844727, -0.2669214904308319, 0.7591928243637085, 0.3632601201534271, 2.351663827896118, -0.24483907222747803, -2.985699415206909, -0.8312137722969055, -3.258984327316284, -4.42173957824707, -2.1171295642852783, 3.641437530517578, -4.028493404388428, -2.6225476264953613, -1.9097682237625122, 2.7258009910583496, 0.2929432988166809, 0.2658393383026123, -1.3274815082550049, 6.407775402069092, 0.39338570833206177, -5.887356758117676, 2.9547080993652344, -0.8494154214859009, -4.040058135986328, -1.9790297746658325, -2.086174964904785, -2.9657301902770996, 4.513514995574951, 2.1202595233917236, 5.045948505401611, -1.9892171621322632, 0.009245356544852257, -3.2393860816955566, 0.3169245421886444, -1.4898123741149902, -8.472090721130371, 0.2605656087398529, -1.734549880027771, -1.3827464580535889, 0.874180257320404, 1.3321348428726196, 1.361966609954834, 1.288048267364502, 0.2400737851858139, -1.8230606317520142, 2.7595112323760986, -1.979018211364746, 0.7273942828178406, -0.13048681616783142, 0.5845398306846619, -0.8481276035308838, 2.148590326309204, 0.876300573348999, -5.882559776306152, -1.7166341543197632, 2.342280626296997, 0.37705114483833313, 1.440600872039795, 0.8912551403045654, -3.297563076019287, -0.5476301312446594, 1.1634202003479004, -0.7656345367431641, 0.5714898109436035, -1.6775407791137695, -7.104467868804932, -3.435762643814087, -0.10959883034229279, -1.8807090520858765, -0.24414056539535522, -8.980547904968262, 3.249603033065796, -5.815802574157715, -3.063115119934082, 0.766632080078125, -4.10290002822876, 4.887334823608398, -2.7257747650146484, -0.9993056654930115, 4.045647621154785, 4.000802993774414, -5.121939659118652, -0.007116804365068674, -1.5710387229919434, -1.0872204303741455, 1.1597731113433838, 3.044992685317993, 0.49815186858177185, 0.2739337682723999, 2.3335163593292236, -3.983023166656494, 3.4488272666931152, 4.72275972366333, -1.6646839380264282, 3.040616989135742, -6.912967205047607, -3.770033597946167, 2.267225980758667, 2.98305082321167, -3.8254709243774414, -8.469889640808105, -2.9307620525360107, -3.555525779724121, 2.227757215499878, -0.9338189363479614, -3.386693239212036, 0.44934263825416565, 1.6581071615219116, -4.006325721740723, 2.598206043243408, -3.513288974761963, -0.041387736797332764, -8.686274528503418, 3.7340409755706787, 1.8934184312820435, 3.606304883956909, -1.949584722518921, 2.2846152782440186, -3.6672236919403076, 4.896786212921143, -2.2542026042938232, 10.527287483215332, 0.0031145759858191013, -2.6383872032165527, 4.98700475692749, -2.7797422409057617, -2.444251775741577, -0.4313138425350189, 1.1892746686935425, 0.2359369546175003, 2.399416208267212, -5.977794170379639, 0.9964618682861328, 1.518832802772522, 0.8984929919242859, 2.9973337650299072, -1.1590014696121216, -0.8513515591621399, 1.1455092430114746, -4.032223701477051, 1.3536733388900757, -0.6181900501251221, -2.5707907676696777, 3.810100793838501, -4.328821659088135, -3.5962369441986084, -0.5297241806983948, -6.546085834503174, -2.0835013389587402, -5.831981658935547, -0.9975267052650452, 3.2948076725006104, -2.9452037811279297, -1.1143250465393066, 0.4155779778957367, -6.360946178436279, -0.8649377822875977, 2.0004422664642334, -2.107156276702881, 1.9894033670425415, -2.7776052951812744, -0.48501601815223694, -0.3859768211841583, 1.5264415740966797, 2.1157236099243164, 6.699440956115723, -0.8489752411842346, -1.9437294006347656, -1.4192960262298584, -1.1952381134033203, 1.4013862609863281, 0.39041221141815186, -2.329817295074463, 0.8071454763412476, -1.348248839378357, -4.374758243560791, -0.053345996886491776, -2.2552618980407715, 0.7027657628059387, -1.3058369159698486, 0.09497471153736115, 1.9801753759384155, 2.839067220687866, 1.6694804430007935, -1.131121277809143, 2.126715898513794, 0.7566719651222229, -1.4446370601654053, -5.278091907501221, 0.9722338914871216, -0.35181260108947754, -4.093014240264893, -2.151583194732666, 1.7229734659194946, -3.0956971645355225, 3.912271499633789, -1.7160052061080933, -5.334105491638184, 3.9543206691741943, 4.248414993286133, 0.8135708570480347, -1.202797532081604, -0.18144989013671875, -2.639230251312256, -0.722105860710144, -1.1434247493743896, -4.950367450714111, 1.16299307346344, 1.3625775575637817, 4.219757080078125, -1.2411693334579468, -0.8723801970481873, -2.0648889541625977, -1.1141034364700317, -0.2985434830188751, 3.3763866424560547, -2.4560813903808594, 0.7494148015975952, -0.3217596113681793, 0.16165408492088318, -0.5780928134918213, -4.843657970428467, 4.5819878578186035, -5.6997456550598145, 6.710268974304199, 2.804290771484375, 4.236122131347656, -1.710577368736267, 1.0046287775039673, -0.3349672853946686, 2.0005362033843994, -8.262150764465332, 0.757800817489624, -1.2704532146453857, -5.398648738861084, 4.878148078918457, 3.2827870845794678, -1.714877724647522, -0.6503183841705322, -0.9890339970588684, -5.272820472717285, 0.5803180932998657, 2.2504591941833496, 3.002264976501465, 3.2359893321990967, 2.7455379962921143, -2.9904978275299072, -3.264099359512329, -0.1484971046447754, 1.3848973512649536, 7.244109630584717, -1.4460963010787964, -1.0290100574493408, 0.17847034335136414, -7.74299955368042, -11.045591354370117, 3.4654738903045654, 3.5840415954589844, -1.5844597816467285, 3.4793903827667236, -0.0361393541097641, -1.3410099744796753, -1.400586724281311, 3.1513092517852783, -5.225475788116455, 2.053109645843506, -3.5807673931121826, -1.1149137020111084, -3.5882294178009033, -3.2463831901550293, -4.768952369689941, -5.820798397064209, 2.189612627029419, 3.910504102706909, 8.12199878692627, 3.3726818561553955, 6.762260913848877, -4.749651908874512, -8.780824661254883, -3.6180171966552734, -0.5376480221748352, -5.171680450439453, 2.7201082706451416, 2.040785789489746, 1.1183502674102783, -4.980034828186035, -2.1225528717041016, 0.46188485622406006, 1.6674059629440308, 2.523231267929077, 5.269172191619873, 2.0013720989227295, -2.7930784225463867, 5.262246131896973, 2.4899654388427734, -1.6390262842178345, 1.8489347696304321, 3.2230775356292725, -1.0244314670562744, -2.271425485610962, 3.766521692276001, -3.2142210006713867, 2.82401967048645, -6.923888206481934, -4.259510040283203, -3.5027356147766113, -14.259709358215332, -1.3844025135040283, 1.74490487575531, -5.474667549133301, -2.3675520420074463, -2.0444817543029785, 1.3198448419570923, 0.5313737392425537, -0.6841822266578674, 1.3864448070526123, 1.12016761302948, 0.8522518873214722, -4.654642105102539, 2.1921560764312744, -6.938868045806885, -4.9041056632995605, -4.0868024826049805, 1.5605688095092773, -2.3966422080993652, -4.391632556915283, -1.101298451423645, 7.059965133666992, 3.593165636062622, -7.627941131591797, 3.3446996212005615, 0.17808516323566437, 5.283536911010742, 5.4880170822143555, 0.1913350522518158, 1.6519298553466797, 2.592241048812866, 1.2425366640090942, -2.1453521251678467, -2.0865888595581055, -2.027132272720337, 1.213715672492981, 1.0425949096679688, -0.9499621987342834, -2.963538646697998, 1.3082911968231201, 3.1332621574401855, -3.4005229473114014, -1.221704125404358, 0.6415696144104004, 4.794194221496582, -1.7774569988250732, 0.33018648624420166, -1.8647541999816895, 1.9991968870162964, 3.6910228729248047, -2.859438896179199, 4.746234893798828, -3.629955768585205, -1.3020501136779785, 2.526336193084717, -2.632549524307251, 1.158020257949829, 0.13912157714366913, -0.3613954186439514, -1.4034020900726318, -0.005941308103501797, -2.244126796722412, -8.065746307373047, 0.7783748507499695, 2.0724518299102783, 1.0227463245391846, -3.581509590148926, 2.9073545932769775, -4.9593186378479, -1.142504096031189, -1.477626085281372, 1.1834468841552734, 0.7880489826202393, -0.9193572998046875, 5.650537014007568, -3.2633450031280518, -0.21680687367916107, -2.4758858680725098, -0.8384686708450317, 0.7105101943016052, 0.15183302760124207, 0.436909943819046, 1.686941385269165, 1.8793978691101074, -0.7537486553192139, -2.9011905193328857, -0.4696492850780487, -8.797210693359375, 1.15750253200531, 2.256516218185425, -11.759824752807617, 13.096677780151367, 2.2971291542053223, 5.093154430389404, 10.100995063781738, -1.7193305492401123, -1.2654021978378296, -6.85724401473999, 2.549672842025757, 0.7291227579116821, 3.4677951335906982, 0.06971676647663116, 6.359766960144043, 5.618714809417725, -10.75999641418457, 0.6618518233299255, 0.032144997268915176, 0.14394991099834442, 3.4258458614349365, -0.5014055371284485, 5.447267055511475, 1.2023965120315552, -2.766176462173462, 0.7403348684310913, 0.6384786367416382, -2.364171028137207, 2.2288241386413574, -6.549951553344727, -0.17545054852962494, 0.40291479229927063, -1.905477523803711, 3.731370210647583, -1.126757264137268, -6.117427349090576, -5.352893352508545, 2.434250831604004, 0.038650400936603546, 2.092470169067383, 1.4023990631103516, -3.0659258365631104, 2.1340720653533936, -0.5941535830497742, 0.765321671962738, 0.1602908819913864, 2.785393238067627, 0.5754620432853699, -1.494766116142273, 2.048358201980591, 0.7738121747970581, -1.4776133298873901, -2.585932970046997, 0.005860939156264067, 0.5073636174201965, 2.8936727046966553, -1.384384274482727, -0.3495224714279175, 5.151075839996338, -3.2915866374969482, 5.146894931793213, 0.0809217020869255, 0.868164598941803, -0.10065444558858871, 0.5226922035217285, -1.2438223361968994, 2.0279603004455566, -1.7889747619628906, -0.8637118339538574, -0.15996280312538147], "convBiasC": [8.34360471344553e-05, 1.0337014828110114e-05, -9.567088272888213e-05, -4.434577567735687e-05, -0.0004205259319860488, -9.415902241016738e-06, 1.4803646081418265e-05, -0.00024954945547506213, -0.00014431924500968307, -9.776180377230048e-05, 0.0001699769782135263, -0.00018232154252473265, 2.058931022475008e-05, 9.247071830031928e-06, -7.5696452768170275e-06, -0.000220145404455252, -1.755747143761255e-05, 0.00029356448794715106, -9.436620166525245e-05, 5.05160896864254e-05, 0.00020288332598283887, 5.623887409456074e-05, -0.0002586664049886167, 6.533174018841237e-05], "bnBetaD": [-1.8899080753326416, -3.8899435997009277, -2.419140577316284, -4.134183406829834, -2.203171491622925, -1.9540269374847412, -3.140197277069092, -2.9023423194885254, -5.999117374420166, -3.7809360027313232, -2.257228136062622, -3.5014963150024414, -1.827187180519104, -4.386977672576904, -1.8131568431854248, -3.6348023414611816, -1.752212643623352, -4.864130973815918, -2.856980323791504, -3.9504003524780273, -1.7572813034057617, -2.9208128452301025, -2.9506070613861084, -1.7376941442489624, -6.520073413848877, -0.6595140099525452, -2.718778610229492, -2.3587610721588135, -4.891546726226807, -4.059974670410156, -4.115625858306885, -2.362081289291382, -4.080738544464111, -2.092947006225586, -4.570871353149414, -1.739341139793396, -1.6312998533248901, -5.489327907562256, -2.975978374481201, -4.787109851837158, -1.1180922985076904, -2.587571859359741, -0.23992212116718292, -4.19709587097168, -2.7399165630340576, 1.1583367586135864, -2.5824971199035645, -3.9561357498168945], "convKernelD": [-3.174081563949585, 1.7489948272705078, 0.23816214501857758, 4.244055271148682, 7.995832920074463, -2.9272634983062744, 0.011556830257177353, 3.2467496395111084, 1.4201186895370483, -3.1931610107421875, 0.08793634921312332, 1.1954673528671265, -5.024652004241943, -4.812264919281006, -5.6495232582092285, -4.720815658569336, 3.0828475952148438, -4.926666259765625, 1.3767354488372803, 3.79795241355896, -5.30726957321167, 2.137892246246338, 5.843769550323486, -2.584230422973633, 2.357527494430542, -3.853137969970703, -5.213447570800781, -1.8174179792404175, 3.6467971801757812, 4.107267379760742, 0.799905002117157, -3.2501604557037354, 0.33425453305244446, -2.952080488204956, -5.285154819488525, 0.8362982273101807, -2.4020309448242188, -8.658531188964844, 0.7076581716537476, -1.541968822479248, -0.31664279103279114, 1.2321181297302246, 0.4313942790031433, 1.7280733585357666, 4.5415167808532715, 7.158982753753662, 0.3242214322090149, 3.358523368835449, -1.058239221572876, 1.7221827507019043, -1.7753082513809204, 3.4008772373199463, 1.2688333988189697, -5.53449821472168, -4.774633884429932, -2.4967234134674072, -2.5666608810424805, -3.645055055618286, 9.472969055175781, 3.9188919067382812, -3.5004560947418213, 2.2323544025421143, -0.4342169463634491, -13.928279876708984, 3.8063626289367676, 0.4402256906032562, -3.0972394943237305, 8.506657600402832, -7.9586381912231445, 0.050694722682237625, 4.406000137329102, -0.9197649955749512, 5.0250654220581055, 0.49847397208213806, 2.9232614040374756, -0.5978009104728699, 2.1391751766204834, -1.6099016666412354, -2.7860686779022217, -2.3676869869232178, 2.831153154373169, -8.06782341003418, -0.4588867723941803, -9.245270729064941, -4.510336399078369, -3.3438479900360107, 1.7169625759124756, -6.679586410522461, 4.905737400054932, -3.028331995010376, 0.6561587452888489, -2.669001817703247, 2.5102081298828125, 1.0694763660430908, -7.038496494293213, -0.10117637366056442, -0.707708477973938, -11.86769962310791, -2.2694971561431885, -8.401812553405762, 1.2942537069320679, -2.4876925945281982, -3.310588836669922, -4.9351487159729, -9.518733024597168, -1.3802906274795532, 5.509974956512451, -2.5043983459472656, 0.4409746825695038, -3.0533032417297363, 4.695162296295166, 2.6388003826141357, -4.169144153594971, 3.5401382446289062, -4.435067176818848, 5.727981090545654, 0.03193951025605202, -2.8911619186401367, -6.40717887878418, -0.4317246675491333, -3.0076394081115723, 0.825019896030426, 3.610966682434082, 4.127971649169922, -1.6800415515899658, -0.5631826519966125, -6.8773884773254395, -2.2713937759399414, -1.7406392097473145, 1.4792217016220093, -0.9795892834663391, 0.7490053176879883, 4.606499195098877, -0.5176544189453125, -4.222159385681152, 0.4580380618572235, 1.0084173679351807, 1.4696078300476074, -2.781039237976074, 2.361248254776001, -3.3750526905059814, -6.164233207702637, -0.7413657307624817, -11.910459518432617, -0.1879749447107315, 1.167959451675415, 4.613794326782227, -2.87308406829834, -5.489040851593018, -0.026952054351568222, -2.894106864929199, 4.297945499420166, -1.7937724590301514, -0.9260798096656799, -2.955383539199829, -1.5975860357284546, -2.477529764175415, 8.266758918762207, 1.7836477756500244, -0.07356274873018265, 2.6014039516448975, 2.546731472015381, 4.22509765625, -1.7117193937301636, 0.2472689002752304, 1.6228975057601929, 4.87761926651001, -2.9857842922210693, 3.1663331985473633, -8.221071243286133, 0.25016796588897705, -4.134025573730469, -3.192209482192993, 5.347203731536865, -1.0538254976272583, -2.488370180130005, -0.7065845131874084, -0.9426708221435547, 3.6938345432281494, 1.4835410118103027, -3.8895041942596436, -4.49947452545166, -10.314201354980469, 2.532064199447632, -4.695843696594238, -0.15320679545402527, -6.5666823387146, -1.03193998336792, 0.36369243264198303, 1.0674512386322021, -0.9674491286277771, 2.9644784927368164, -0.41826561093330383, 2.428637981414795, -4.713742256164551, -0.3131771683692932, 1.9544481039047241, -7.291273593902588, 1.6570491790771484, -2.921407461166382, -1.8696781396865845, 0.20061665773391724, 2.1005890369415283, 5.024057388305664, -5.236567974090576, -1.2215445041656494, 1.5280927419662476, -4.690422058105469, 2.5876502990722656, -2.086317539215088, 3.9623730182647705, 3.6846556663513184, -5.332131385803223, 3.7987377643585205, 5.111186504364014, 1.666650414466858, 2.587999105453491, -1.4391037225723267, -3.563447952270508, -5.186879634857178, 1.674257516860962, 3.306124687194824, 3.1784305572509766, -3.687056303024292, -5.637081623077393, -1.7844948768615723, -4.427102088928223, -0.8088100552558899, -1.7113007307052612, -4.115046977996826, 0.08711986243724823, -4.925722122192383, 3.4289016723632812, -4.312455177307129, 0.782897412776947, -3.8226990699768066, 5.105995178222656, -0.7654241919517517, -5.7550950050354, -5.357414722442627, -0.09260678291320801, -2.8459198474884033, 6.556520462036133, 3.604306697845459, 0.4368821084499359, 2.093005895614624, 3.143749952316284, 0.2029627412557602, -2.595686912536621, -3.462897777557373, -1.4309654235839844, -4.00494909286499, 0.6869054436683655, 0.2349930852651596, -3.4307634830474854, 0.6716753244400024, -2.493213653564453, 1.7806473970413208, 0.7871236205101013, -0.8633131384849548, 0.31465011835098267, -1.047057867050171, -1.1751362085342407, 5.081149578094482, -2.6479074954986572, 3.122915506362915, 0.013415923342108727, 1.0315277576446533, 0.8115922808647156, -3.7450506687164307, -6.6902899742126465, -0.12104404717683792, 0.8131726384162903, 3.1611568927764893, 2.901360511779785, 1.4528807401657104, 2.3467798233032227, -6.86362361907959, 4.708162784576416, 2.4539380073547363, 0.5600693821907043, -2.855185031890869, 0.7188757061958313, -0.39553773403167725, -0.5050802230834961, 0.2583516240119934, -0.2881755530834198, -6.217403888702393, -0.7776699066162109, 1.6696293354034424, -3.741206169128418, -7.508608341217041, 1.0587700605392456, 6.551421165466309, 1.2816667556762695, -2.6743297576904297, 9.532678604125977, 3.43658185005188, 2.8199691772460938, 3.1902644634246826, 1.2676631212234497, -0.9039422273635864, 3.591850519180298, 0.22146408259868622, -3.997447967529297, 5.195096969604492, 3.207282543182373, 5.199590682983398, -1.1181448698043823, 3.4602484703063965, 1.1634340286254883, -2.982050657272339, -1.059146523475647, 1.0488568544387817, -3.4356696605682373, -0.10191445052623749, 5.162281036376953, -3.70188570022583, 1.531853437423706, 1.1776419878005981, 0.7313680052757263, -6.06337308883667, 0.2410735785961151, -4.198704242706299, -8.317075729370117, 4.846318244934082, -2.0574142932891846, -0.8427278399467468, 4.033820629119873, -0.05016889050602913, 0.9365387558937073, 0.9055269956588745, -7.090237617492676, 5.952778339385986, -2.64323091506958, 2.0689847469329834, 1.6588757038116455, 6.657323360443115, -0.0010302767623215914, -0.9667538404464722, -1.2668503522872925, -0.7137244939804077, 1.5927098989486694, -0.24531471729278564, 2.937232732772827, -6.476032733917236, 1.2055962085723877, -4.652011871337891, 2.8476402759552, -4.939226150512695, -7.740158557891846, 0.6210699677467346, -3.6325204372406006, -0.21716231107711792, -5.209066390991211, -2.3671536445617676, 3.9229652881622314, 2.2880454063415527, 3.365137815475464, -0.15176603198051453, -2.745832920074463, -0.6351733207702637, 3.4733035564422607, 7.1039299964904785, 1.0472760200500488, -0.9064340591430664, -3.051459550857544, 2.996124744415283, 5.972555160522461, -1.459134578704834, 1.5550600290298462, -1.4041334390640259, 5.340844631195068, -6.56645393371582, -0.760593831539154, 2.7197437286376953, 0.674242377281189, -0.015623951330780983, 1.1275914907455444, -1.243735432624817, -1.9784290790557861, -6.845077037811279, 0.1363937109708786, 2.0353658199310303, -2.1928012371063232, -1.7965408563613892, 5.501400947570801, 4.665714263916016, -1.3059669733047485, 6.635831832885742, 1.5907026529312134, -0.13653163611888885, -0.9996338486671448, -1.2678531408309937, -6.427896022796631, -4.390536785125732, 3.530200481414795, -0.6604269742965698, -8.354950904846191, 4.503769874572754, -5.632575988769531, -2.234994649887085, -3.8526456356048584, -1.4175894260406494, 1.1630359888076782, -4.303035736083984, -2.299459457397461, 4.819009304046631, -0.49049869179725647, 5.492068290710449, 3.1582727432250977, 4.1911163330078125, -2.6643521785736084, 0.9280831217765808, -4.688882350921631, 2.1328210830688477, 4.892158508300781, -4.7170867919921875, 4.015676021575928, 2.8462281227111816, 4.872058868408203, 0.6680284738540649, -0.40927621722221375, 0.8404353857040405, 2.0364925861358643, -0.056961432099342346, 2.0807619094848633, 1.7282413244247437, -1.6714063882827759, -6.173739910125732, 3.5653131008148193, 0.2293163239955902, -3.4382753372192383, -4.429143905639648, -6.549443244934082, -10.185088157653809, -1.2732117176055908, 1.9293327331542969, 1.497922420501709, 5.74336051940918, 1.5154606103897095, -3.3887665271759033, -0.6154748201370239, -4.514466285705566, 0.8017992973327637, 0.3551870584487915, -2.7353224754333496, 0.4414081573486328, 0.21344861388206482, 0.48710623383522034, -6.767449378967285, 1.0845807790756226, -3.4477453231811523, -3.4548442363739014, 0.08264471590518951, -0.29630282521247864, -2.2422542572021484, -1.055152177810669, 1.5890896320343018, -7.860559463500977, 4.0144124031066895, -8.240403175354004, -2.5293068885803223, -1.2471520900726318, 1.880236268043518, -2.889658212661743, -2.876040458679199, 0.45291879773139954, 0.9349316358566284, 0.8484466075897217, -3.062774658203125, 2.0651800632476807, 4.865480899810791, 0.32277044653892517, -3.428269863128662, -1.5530242919921875, -0.6247382164001465, -0.5149348974227905, -0.5181836485862732, -1.3679174184799194, 4.287416458129883, 0.0215984508395195, 0.6914687156677246, 1.914367437362671, -1.7199925184249878, 7.161174297332764, 0.681888997554779, -1.5001068115234375, -1.3651113510131836, 4.910157203674316, 1.215978980064392, -1.3330051898956299, 1.425331473350525, -4.8989105224609375, -0.9186901450157166, 4.0852155685424805, 0.5238875150680542, 2.487447738647461, 2.1239285469055176, -2.078339099884033, 3.039346694946289, 0.5328490734100342, -0.5465087890625, 4.196840763092041, 8.26544189453125, 0.9575059413909912, -2.0137293338775635, 2.264820098876953, -0.19731220602989197, -1.1128243207931519, 1.2163931131362915, 2.5433361530303955, 1.5708189010620117, 1.579595685005188, 2.6555120944976807, -2.2294082641601562, 2.7837491035461426, 2.8030028343200684, 0.8671575784683228, 1.4240812063217163, -2.5390570163726807, -1.0446580648422241, 4.403857707977295, -0.03610973432660103, 3.544257879257202, 0.9615817070007324, 2.1149590015411377, 0.7725907564163208, 3.0286102294921875, 2.1453022956848145, -2.392106294631958, 0.6921188831329346, 2.4365384578704834, -5.082189559936523, -8.285971641540527, 3.223270893096924, -6.661800384521484, -2.807016372680664, 2.399862051010132, -2.0690243244171143, -4.222100257873535, 5.903652191162109, 4.878405570983887, -4.858689308166504, 6.590878009796143, -3.038910150527954, 3.163774251937866, 2.986323595046997, -3.402416706085205, -2.4324429035186768, 1.5667202472686768, -3.953639030456543, 2.240211009979248, -4.065526485443115, -2.437221050262451, -3.497764825820923, 1.1413174867630005, 1.3116724491119385, 0.6153786778450012, 5.896884918212891, -0.7504504919052124, -0.4779816269874573, -4.251603603363037, -2.5051698684692383, -7.681830883026123, -1.1645331382751465, -3.0446856021881104, -1.3138923645019531, -0.9273030757904053, -0.61652672290802, -2.134072780609131, -2.7837982177734375, -1.1776254177093506, 4.018986225128174, 1.0113264322280884, 1.0833162069320679, 2.680708408355713, 6.392396926879883, -0.5262373089790344, -3.7718913555145264, -3.819941282272339, -8.789959907531738, 3.5498273372650146, 1.1828712224960327, 3.5062756538391113, -5.336751937866211, -6.319282531738281, -1.159281611442566, -2.053288459777832, 1.3779628276824951, 2.1648528575897217, -6.456066608428955, 4.389396667480469, -1.1045472621917725, 7.485351085662842, 0.9097093939781189, 0.6641483306884766, 3.588057279586792, 5.653865337371826, -7.34869909286499, 4.372646808624268, -9.517632484436035, -8.817214965820312, -5.216926574707031, 0.12905867397785187, 1.869329810142517, -0.39288559556007385, 3.1833996772766113, -0.253987580537796, 2.0824403762817383, 1.1626025438308716, -2.8463454246520996, -0.5779139995574951, -3.4869747161865234, -5.843714237213135, 1.059493899345398, -3.4764950275421143, 3.245401382446289, -1.3513667583465576, 1.9021376371383667, -0.2979575991630554, 5.877145767211914, 2.3661086559295654, 2.415365695953369, -0.09672243893146515, 5.856329441070557, 0.643901526927948, -6.54897403717041, -1.6996244192123413, 4.159042835235596, 0.4323887825012207, -2.5877485275268555, -9.362467765808105, 4.118478775024414, -1.8482171297073364, 5.797537326812744, -1.2386999130249023, -1.9156906604766846, -5.255218505859375, 3.8978018760681152, -6.3651533126831055, -1.2657084465026855, -1.4219008684158325, -2.136368989944458, -4.936759948730469, -11.090169906616211, 0.7185308337211609, 7.16505241394043, -0.9626848101615906, 2.366292953491211, 9.416419982910156, 2.819669485092163, -5.899510383605957, 7.201381683349609, 5.621736526489258, 1.9889938831329346, -9.231280326843262, -2.601849317550659, -0.4101567268371582, 2.5062506198883057, -8.707822799682617, -1.724969506263733, 0.8781968355178833, 2.5004029273986816, 1.369232177734375, -0.4619207978248596, -2.7144758701324463, 0.1824081689119339, -0.11138379573822021, -4.381160259246826, -4.416856288909912, 5.231023788452148, -0.49815842509269714, 2.4861061573028564, 0.6699046492576599, -0.06714694201946259, -2.4650418758392334, -6.094143390655518, 1.551235556602478, 1.2900786399841309, 1.1872799396514893, -10.299922943115234, -10.110445976257324, -3.6691396236419678, 0.4635574519634247, 3.600088119506836, 1.4847466945648193, -1.8409408330917358, 3.091878652572632, -4.563727378845215, 2.755208730697632, 4.993803024291992, 0.39081117510795593, -2.508699655532837, -0.44819286465644836, -0.5809188485145569, 0.549943745136261, -1.693730354309082, -2.7340633869171143, 1.2137564420700073, 1.4689806699752808, 3.4544992446899414, -1.2552963495254517, -2.345888614654541, -0.9471960067749023, 0.6405640244483948, 1.529396414756775, -6.8925323486328125, -1.3849961757659912, 3.1874101161956787, -1.4937539100646973, 1.3339176177978516, 3.9715771675109863, -2.924811601638794, 2.4540233612060547, 1.5093622207641602, -3.905545711517334, -0.38697096705436707, -2.5104565620422363, 4.325238227844238, -1.204885482788086, -1.0214747190475464, 4.306246757507324, 2.205875873565674, -0.8142748475074768, -7.238209247589111, 0.6482745409011841, -2.2635278701782227, 1.2035754919052124, -6.850662708282471, 6.41956901550293, 1.456270456314087, 2.4473934173583984, 2.516389846801758, -2.6894209384918213, 0.6450405120849609, -6.4538750648498535, -1.3972752094268799, -7.2055344581604, -4.311059474945068, -2.5696682929992676, 1.4204148054122925, -2.3948769569396973, 8.041086196899414, -4.259313583374023, -0.526591956615448, 6.403869152069092, -1.63906991481781, -2.7147674560546875, -0.3860255777835846, 0.7412900924682617, -4.837584018707275, -0.2043599635362625, 4.136388778686523, 0.5579831004142761, 2.8515427112579346, 1.867160677909851, 0.9497483372688293, 6.669098854064941, 4.0445661544799805, 0.7652608752250671, 1.3929781913757324, 0.20845605432987213, -0.34584614634513855, 0.15768738090991974, -5.532504081726074, -2.1051251888275146, -5.209012985229492, -1.9783331155776978, 1.6294794082641602, 3.380223274230957, -2.6190426349639893, 1.8043869733810425, -0.4400433897972107, 2.5312235355377197, -0.13366703689098358, -2.459289789199829, -3.3223862648010254, -1.029188871383667, -0.6149085164070129, 0.44775524735450745, -0.11486903578042984, -1.5284136533737183, 4.3486409187316895, 0.2060619592666626, 2.7833266258239746, 2.016533136367798, 2.8920798301696777, 0.20657403767108917, 3.594619035720825, -3.876627206802368, -3.0202510356903076, -0.5621709823608398, -2.134080171585083, -2.550226926803589, 5.069496154785156, 1.1605801582336426, -1.9521719217300415, -3.970507860183716, 2.557638168334961, 4.000521659851074, 1.734301209449768, 4.509199142456055, -2.1625823974609375, 3.9147496223449707, 0.5232325196266174, -0.140894815325737, 2.069511651992798, 0.25090882182121277, -1.5250025987625122, 2.6401572227478027, 1.0813162326812744, -1.1848286390304565, 3.6856608390808105, 0.8409718871116638, 0.10672414302825928, -3.8535828590393066, -6.0970940589904785, -3.702944040298462, 2.231057643890381, -0.06097159534692764, -5.239562034606934, -4.9104132652282715, 4.559410095214844, 5.4180498123168945, 0.1657693088054657, 3.493204355239868, -6.642399311065674, -2.4762251377105713, -4.163667678833008, -0.28785645961761475, 1.0477734804153442, 0.9402295351028442, -0.29016995429992676, -5.844391345977783, -6.3578314781188965, 1.6231882572174072, -0.14074008166790009, 0.7605618238449097, 0.22664448618888855, 1.991857886314392, -3.47194766998291, 6.072449207305908, -6.27736234664917, -3.8803415298461914, 0.09932747483253479, -2.138789415359497, 6.898045539855957, -1.0627613067626953, 3.471616268157959, 1.7586207389831543, -1.7588088512420654, -2.059976100921631, -6.552890300750732, 0.13033075630664825, -4.400010585784912, 3.0091676712036133, 1.883763313293457, -3.1289570331573486, -4.37767219543457, 1.6333633661270142, 0.9798466563224792, 0.42563310265541077, -1.824947476387024, -3.7395076751708984, 0.8894357085227966, 0.8132884502410889, -0.19032122194766998, 7.090658187866211, -2.6244935989379883, -2.933199644088745, 0.4308619499206543, -4.878592014312744, 1.1897609233856201, 3.002004384994507, 1.5386227369308472, 0.14191430807113647, -1.8903539180755615, 0.9133245348930359, -6.226207256317139, 2.2369251251220703, -8.208050727844238, 0.4634871780872345, 6.811552047729492, -2.9978935718536377, -2.741713523864746, 0.47903162240982056, -7.273613452911377, 4.497514724731445, 0.3048724830150604, -2.7544257640838623, -4.92104959487915, 4.05861759185791, -6.510966777801514, -3.7831709384918213, -3.9627435207366943, -2.0324606895446777, -2.263669729232788, -4.336103439331055, -0.11792846769094467, -7.761989116668701, -5.947132587432861, -1.5891201496124268, -4.860213756561279, 3.4344615936279297, -6.41033411026001, 0.6475945115089417, -5.627075672149658, -1.298799991607666, 1.103020429611206, -5.174548625946045, -1.6448248624801636, 0.0914916917681694, 2.4620845317840576, -4.683414459228516, 3.821039915084839, 5.538187503814697, -0.6444069743156433, 2.84541392326355, 1.093088150024414, -1.8193098306655884, -2.3757855892181396, 2.0609583854675293, -7.183536529541016, -1.5757315158843994, 10.176515579223633, 3.5058462619781494, 2.062809705734253, -5.516006946563721, 3.432598829269409, -5.696043491363525, -3.0738940238952637, -3.713627815246582, -4.479682922363281, -1.4287431240081787, 1.0763239860534668, 0.2888520359992981, -0.4198319911956787, 5.802714824676514, -16.103376388549805, 8.667695999145508, -1.8924586772918701, -4.402522087097168, -1.1576499938964844, -2.1268694400787354, 2.558387517929077, -5.312094211578369, -0.9859195351600647, 1.9439189434051514, -2.4422547817230225, 2.706754684448242, 0.304521381855011, 0.39952602982521057, 6.491986274719238, 0.31713050603866577, 5.8117570877075195, 0.5903241634368896, 2.4387567043304443, 5.03572416305542, -6.532331466674805, 1.7470792531967163, -4.5519866943359375, 3.1924092769622803, 3.2375707626342773, 3.6397035121917725, 5.044280529022217, 0.8184381127357483, -6.1093220710754395, 5.747128963470459, 8.118313789367676, 1.2888904809951782, -6.618827819824219, 1.564692497253418, -2.386206865310669, -3.129258871078491, -5.785965919494629, -3.998896598815918, 2.2449989318847656, -1.6599388122558594, 3.9841511249542236, 2.352935552597046, -0.4261712431907654, 0.4896705150604248, 1.3281326293945312, 0.47374656796455383, 8.815559387207031, -7.926258087158203, 2.2923970222473145, -0.5868952870368958, 1.1276144981384277, -5.964715957641602, -2.7753984928131104, -0.16776315867900848, -9.06199836730957, 0.3903326094150543, 6.052240371704102, -1.6565033197402954, 3.4979031085968018, 4.260766983032227, -0.8798996806144714, 4.2149858474731445, -1.758147954940796, 1.5027799606323242, -2.6367006301879883, -1.8846626281738281, -1.3736952543258667, 0.7662923336029053, -4.650286674499512, 1.3351603746414185, -7.244314670562744, -7.911192417144775, -4.610077381134033, -0.18611793220043182, 0.6821474432945251, -8.798660278320312, -0.7894342541694641, -10.272316932678223, 2.981497287750244, -1.9568572044372559, -4.554270267486572, -5.820152759552002, -0.33201515674591064, -2.3532025814056396, -0.9217363595962524, 0.1887369006872177, 6.466530799865723, -2.0320725440979004, -1.4276407957077026, -3.678192615509033, 6.5951056480407715, 3.0646767616271973, -2.0398008823394775, 3.9446237087249756, -1.6497806310653687, -3.225752592086792, -2.218942165374756, 0.5292839407920837, -1.194315791130066, 7.598998069763184, 3.948342800140381, -5.981259346008301, -1.779626727104187, 2.9674103260040283, -1.024971604347229, -1.1349942684173584, -3.0485265254974365, -2.87730073928833, -0.26703906059265137, -4.784820079803467, 3.4470956325531006, 5.989158630371094, 4.82682466506958, 3.4758942127227783, 6.597456455230713, 0.826283872127533, 6.687845706939697, 1.1139042377471924, -3.416822671890259, 6.767848014831543, -2.6600112915039062, -2.0680835247039795, 2.1771275997161865, 3.209472179412842, -0.8958799242973328, -0.14417433738708496, 2.3795831203460693, 3.666055202484131, 0.8736200928688049, 5.488098621368408, 0.3947570323944092, -2.3315281867980957, 2.5705389976501465, -2.286686658859253, 1.5022817850112915, -3.6264548301696777, 0.3666001856327057, 3.0260610580444336, -5.4250054359436035, -2.996427536010742, 1.0334904193878174, -5.526280403137207, 3.0726535320281982, 4.375369548797607, 1.4200682640075684, -3.1641464233398438, -2.187221050262451, 1.3496562242507935, 1.846361517906189, 0.4501584768295288, -2.5100224018096924, -1.8951808214187622, 5.78012228012085, 4.157823085784912, -1.9777809381484985, 4.713717460632324, 1.6225436925888062, -2.744474172592163, -0.06433926522731781, 0.9792653918266296, -1.6815918684005737, -0.01073573436588049, -6.681252479553223, 1.2413464784622192, 1.886167049407959, 0.4982703626155853, 6.3831868171691895, -3.237605094909668, 0.2554079294204712, 1.8164713382720947, 2.734302282333374, -2.960179328918457, 0.4986293613910675, -2.172302484512329, 10.483257293701172, -5.5294036865234375, -4.511759281158447, 0.9436895847320557, -3.965725898742676, -1.8602371215820312, 0.020721226930618286, -1.9374980926513672, -4.1802191734313965, 3.1895318031311035, 1.0567405223846436, 2.8364548683166504, -2.829465627670288, 3.0450632572174072, 2.9028146266937256, 5.475316047668457, 1.9398937225341797, -4.467636585235596, -0.9830954670906067, -1.9205056428909302, -3.0223701000213623, -1.504612922668457, 2.690964460372925, -0.3108867108821869, -5.128452777862549, 3.7613213062286377, -0.4389161467552185, -4.757796287536621, 3.7791635990142822, -6.230783939361572, 2.8977503776550293, 5.530420303344727, 2.7675061225891113, -1.4879902601242065, -0.3669200539588928, -1.3500076532363892, -2.721426010131836, 2.828693389892578, 2.5319769382476807, 0.5609140396118164, 3.695995569229126, 9.87407112121582, 6.7839202880859375, -1.0134892463684082, 6.966426372528076, 3.9497978687286377, 1.6610569953918457, 2.336240768432617, 2.1290338039398193, -0.08154308050870895, 3.1897661685943604, 0.9426127076148987, -4.285454273223877, -5.555516242980957, 4.040889739990234, 1.867828607559204, -1.419321894645691, 1.511027455329895, -1.0829020738601685, 4.6999101638793945, -0.5724719166755676, 2.3852672576904297, 2.832429885864258, 4.707432270050049, -4.101302623748779, -0.3424220383167267, 15.398187637329102, 0.9114134311676025, 4.282837867736816, -2.505280017852783, 1.6420698165893555, 5.935337066650391, 2.877495288848877, 3.1223762035369873, -0.9820042252540588, 8.07288932800293, 2.7380096912384033, 2.531738758087158, 4.68390417098999, -0.10540744662284851, 6.538534641265869, 0.5662229061126709, 3.515533685684204, 4.3431830406188965, 1.1780121326446533, 4.0508551597595215, 0.47017425298690796, 3.788461446762085, -2.320002794265747, 0.7369987964630127, -0.7269793748855591, -1.2394838333129883, 3.0413968563079834, 1.0335350036621094, 0.8468190431594849, -1.6470046043395996, 0.6797655820846558, -2.25557017326355, -3.9919068813323975, 6.526276111602783, 0.6823589205741882, 1.8370602130889893, -1.0656150579452515, -0.16663026809692383, -3.096569776535034, -4.670537948608398, 3.241485834121704, 3.1060688495635986, -5.426280975341797, -2.0303311347961426, -3.2080836296081543, 3.1161487102508545, 0.30769410729408264, -3.07547926902771, 6.660379409790039, -2.5240209102630615, -0.017181171104311943, -0.8460714817047119, -1.777640461921692, 9.032651901245117, -8.276714324951172, 11.443799018859863, -10.621596336364746, 2.85306715965271, -1.43342125415802, -2.3391594886779785, 2.8569467067718506, 3.8691470623016357, 1.3206630945205688, -6.542945384979248, 0.873410701751709, 1.8920856714248657, 0.693198025226593, 3.202002763748169, 0.681110680103302, -2.143934965133667, -3.8804659843444824, -2.417667865753174, -1.992012619972229, -1.7716807126998901, -3.7427477836608887, -1.306702733039856, -4.043442726135254, -5.4344706535339355, -0.029790744185447693, 3.2137744426727295, 1.3397554159164429, -2.0123050212860107, -0.2176770567893982, 1.6620099544525146, -2.5108470916748047, -2.972168207168579, -0.5250226855278015, 0.23137858510017395, 3.7770729064941406, -1.3390083312988281, -3.597564220428467, -4.192104339599609, -3.076591968536377, 0.6048639416694641, 2.602294921875, -0.7834304571151733, 1.783263921737671, 0.22371017932891846, -4.953756809234619, -2.0176353454589844, -3.2073113918304443, 2.9322495460510254, -0.1041310653090477, -3.346769094467163, 2.4433093070983887, 1.9461538791656494, -2.328662872314453, 1.1972736120224, -0.32677680253982544, -0.8368445038795471, 0.8463956713676453, -1.7254612445831299, -1.8768855333328247, -0.6510114073753357, -4.223871231079102, -2.0828487873077393, -3.275195360183716, -0.3043769896030426, -1.2575048208236694, -0.9281774759292603, -0.12452157586812973, 0.14869843423366547, -2.1009557247161865, -3.274477243423462, 0.05660301446914673, 0.45105528831481934, -0.7224261164665222, -3.7602784633636475, -1.409659743309021, -2.7238006591796875, -2.4319684505462646, -0.7393806576728821, -0.009281134232878685, 0.46278417110443115, 2.6411848068237305, 1.2797164916992188, 2.912764549255371, -0.4314245581626892, 1.8003644943237305, 0.4846157133579254, 1.9357892274856567, -2.6763265132904053, -1.850757122039795, 0.8066933751106262, -3.660630702972412, 0.7835509777069092, 0.18911123275756836, 2.174459934234619, 0.1761799454689026, -0.8047781586647034, -2.890385150909424, 4.083855152130127, -2.294166326522827, -3.2418129444122314, 0.07796105742454529, -3.5777058601379395, -0.6533344984054565, 1.214748501777649, -0.573361337184906, -3.5813815593719482, -4.748229503631592, -1.3679319620132446, 0.0429387241601944, -0.41976821422576904, -0.9518999457359314, 3.989147901535034, -0.23407502472400665, 2.301180124282837, -2.4947357177734375, -1.0431195497512817, 4.200516700744629, 6.3065385818481445, -0.21653755009174347, -4.614107608795166, -0.2997915744781494, -2.5468719005584717, 4.958371162414551, 5.107450485229492, -4.55433988571167, 0.9296053647994995, 5.430704116821289, 0.3134291470050812, -0.3897509276866913, 0.1394495964050293, -1.8379749059677124, 4.4588751792907715, -5.989086151123047, 2.542208194732666, 0.2418339103460312, 1.9288793802261353, -3.6240837574005127, 2.2411468029022217, 5.436887741088867, 0.14852595329284668, 3.5478997230529785, -3.5177223682403564, 1.8893418312072754, 4.162902355194092, -0.6998702883720398, 2.735684633255005, -3.1011369228363037, 7.546771049499512, -1.4818614721298218, -1.508949875831604, 5.713179111480713, -0.6215164661407471, 0.5557185411453247, -0.5284764766693115, 3.9576635360717773, 4.90471076965332, 0.42604967951774597, 3.219388008117676, 0.39265260100364685, -1.7981232404708862, -3.5329203605651855, 4.679633140563965, 0.021507328376173973, -0.5501794219017029, -1.3065681457519531, 0.2939380705356598, 0.3216899335384369, -1.989490270614624, -1.4010330438613892, 1.119508981704712, 0.7824758887290955, -5.759022235870361, 2.6423051357269287, -2.3546946048736572, -4.893956661224365, -0.6106932163238525, 2.621204376220703, 0.17970921099185944, 2.029157876968384, -2.7611334323883057, -2.24670672416687, -1.2518250942230225, 2.6540653705596924, 0.8697385787963867, 2.427257537841797, 0.29200634360313416, -1.6291041374206543, 2.033287525177002, -2.7303080558776855, -7.493450164794922, -0.959604024887085, -0.07784871757030487, 0.0665605217218399, 0.8631880879402161, 3.407867670059204, -1.0393396615982056, -9.901795387268066, -1.1405854225158691, -0.6105659604072571, 1.2724424600601196, -4.453512191772461, 1.6919622421264648, -1.5340288877487183, -1.2389847040176392, 3.213155746459961, -2.6548702716827393, -5.015100955963135, -1.3176599740982056, 0.7676669359207153, 0.35415512323379517, -2.954313278198242, 1.2915786504745483, 0.18768039345741272, 4.929774761199951, -0.4272167682647705, 5.881317615509033, -1.2492862939834595, 1.744041085243225, 4.539379119873047, 0.8530321717262268, -1.916965126991272, 2.5416791439056396, -0.13791245222091675, -4.930783748626709, -0.5217897295951843, -2.6921722888946533, -0.14628630876541138, -2.439460277557373, -2.3039710521698, 1.7323646545410156, -0.9394181370735168, -2.645260810852051, -0.06463977694511414, 1.403510332107544, -0.41178247332572937, 0.6892148852348328, -3.9256415367126465, 1.6555060148239136, 0.3697342574596405, 0.3260076940059662, -4.153823375701904, 1.1859463453292847, -4.312025547027588, -3.9748849868774414, -0.46692344546318054, -1.210939645767212, 0.03987811505794525, 0.6757829189300537, -0.3118600845336914, -1.2833433151245117, 0.06915552169084549, 0.042191531509160995, 1.9032596349716187, -3.698293924331665, 2.0026063919067383, -2.118248701095581, 0.19250169396400452, -2.064055919647217, -1.8941550254821777, 1.2650175094604492, -3.498537540435791, -0.10853645950555801, 2.1164615154266357, -2.958470582962036, -0.7769920825958252, 0.5082933902740479, -2.697556972503662, -1.5673025846481323, -0.3424026370048523, -4.811574459075928, -2.127911329269409, -1.1464309692382812, -0.544269323348999, -2.6628644466400146, 1.594164252281189, -0.5974631309509277, -1.2012909650802612, 1.6138038635253906, 1.4879032373428345, -3.1637282371520996, -0.3607478141784668, 0.998443067073822, 3.320427417755127, 0.4245343506336212, -1.0780953168869019, -3.4197115898132324, -1.6434037685394287, 2.28408145904541, -0.5995530486106873, -1.9779082536697388, 0.1641184538602829, 1.0463895797729492, -3.877668619155884, 0.012476131319999695, -0.8272333145141602, 0.532483696937561, -2.09212327003479, 2.557830333709717, -1.6660618782043457, -2.2646186351776123, -1.1248112916946411, -2.1031320095062256, -2.598966121673584, -3.229523181915283, 0.34240081906318665, -1.4978642463684082, 1.5092600584030151, 0.03438104689121246, -1.5721759796142578, -1.1291351318359375, -1.7698298692703247, 2.091968297958374, -1.669546127319336, -1.8342267274856567, 1.6280832290649414, -4.419622898101807, 1.7498456239700317, -6.676497936248779, -3.848086357116699, -2.210878372192383, -0.272779256105423, 1.5010051727294922, 2.029313564300537, -4.558323383331299, 1.137340784072876, -0.29157397150993347, -2.6612207889556885, 3.74225115776062, 2.472369909286499, -0.7041723728179932, -0.21240706741809845, 0.18246044218540192, 0.018464157357811928, -6.235020637512207, 5.198632717132568, 2.5770304203033447, -4.494606018066406, -3.098238945007324, 4.606168746948242, 0.09980951994657516, 1.6232874393463135, -0.43407365679740906, -4.677905082702637, 4.181221961975098, -2.2689144611358643, 1.0605794191360474, -5.537678241729736, -3.605949878692627, 2.6086533069610596, -3.261784791946411, -4.906126976013184, 2.0598599910736084, 1.271103024482727, -5.674131870269775, -6.469881057739258, -1.0277204513549805, 3.509913444519043, 3.3999218940734863, 2.488191843032837, 4.644494533538818, -0.9126453399658203, 1.5812695026397705, -5.244757652282715, 2.0235707759857178, 0.1524619162082672, -1.4401569366455078, 2.057476282119751, 2.1157281398773193, -0.17535094916820526, -3.086273431777954, -1.258772850036621, -1.233150839805603, -0.19066622853279114, 2.859768867492676, -1.4897980690002441, 2.198014497756958, -0.6127843260765076, 0.1880742907524109, -1.2697008848190308, 2.225039005279541, -6.61751127243042, 0.399284690618515, 0.16882935166358948, 2.6707546710968018, -0.15456417202949524, -3.154839038848877, -0.21842636168003082, 3.559683322906494, -1.7727184295654297, 1.6689517498016357, 1.6848340034484863, 1.8472626209259033, 3.3087127208709717, -3.2283596992492676, 1.3108652830123901, -1.5601003170013428, -0.17050714790821075, 0.9070824980735779, -5.54648494720459, -0.10517238825559616, -2.7676801681518555, -1.8241207599639893, 3.5603137016296387, 0.6966012120246887, -0.14832423627376556, 1.1479556560516357, -0.23614224791526794, -0.6920896768569946, 0.5017879605293274, 1.3454676866531372, -0.07898987084627151, -3.4465231895446777, -3.8049583435058594, 0.3787562847137451, -1.9019978046417236, 1.1322590112686157, -0.5059754252433777, 0.4156651496887207, -2.0190165042877197, -3.6448237895965576, -1.7388662099838257, 2.9062790870666504, -1.4680449962615967, 7.002433776855469, 1.9886802434921265, -0.607940673828125, -7.484576225280762, 1.0778905153274536, -1.7466378211975098, 2.6358542442321777, -4.586448669433594, -2.597271680831909, 0.16344475746154785, -6.245769023895264, 0.912120521068573, -4.534348964691162, -5.851071357727051, 1.212379813194275, -2.8929953575134277, -1.5670146942138672, -6.1415581703186035, 2.9022176265716553, -1.8623368740081787, -1.5327636003494263, 0.9054991006851196, -1.8805710077285767, 1.1626219749450684, 6.887613296508789, 0.07756056636571884, 4.488369464874268, 0.9234867095947266, -2.3356645107269287, 2.478262424468994, -2.2460479736328125, -0.2926420569419861, -4.801476955413818, -1.6773648262023926, 1.9835373163223267, -3.8128435611724854, 3.3188838958740234, 0.05768575519323349, 2.4183590412139893, 4.113819599151611, 4.527720928192139, 1.2455998659133911, -0.1418948769569397, -0.26695698499679565, 3.263915777206421, -4.539750099182129, -2.0267341136932373, 5.363175392150879, -2.663303852081299, -3.3824617862701416, 0.5755606293678284, 6.921720027923584, -3.8507442474365234, -1.3288090229034424, -1.7977946996688843, 7.668251037597656, 4.950849533081055, 4.6597185134887695, 3.8570146560668945, -5.59207820892334, 2.136986255645752, 2.729513168334961, 0.36363449692726135, 3.126314640045166, -0.01041437964886427, 3.1847214698791504, -3.248239040374756, 1.7081633806228638, 0.11747404932975769, -3.020479917526245, 6.555017948150635, 0.3510591983795166, -2.008563995361328, 0.897056519985199, 0.13477157056331635, -1.1195558309555054, -2.2009356021881104, -3.6095614433288574, 1.7984371185302734, 1.6773614883422852, -2.1056370735168457, 0.7978498935699463, -5.258618354797363, -1.7453466653823853, -1.3272768259048462, -1.4895238876342773, -1.0866273641586304, -6.4329304695129395, -0.19563232362270355, 1.6331065893173218, 1.7222070693969727, 2.820685863494873, 0.4582819938659668, 1.2317041158676147, 1.2505496740341187, -0.8096519708633423, 1.7441030740737915, -2.347358226776123, -0.6856423616409302, -4.082071304321289, 0.9590826630592346, -1.0525814294815063, -2.0830352306365967, -0.04607153311371803, -0.5676493048667908, -0.5584487915039062, 1.5070085525512695, -4.52412748336792, -1.1386611461639404, -3.3747639656066895, -0.3158529996871948, -0.9989103674888611, 1.9080703258514404, 2.0908021926879883, -1.553396224975586, 1.453245759010315, 0.5767470598220825, 2.647578239440918, 2.6210830211639404, 1.5835652351379395, -1.1770280599594116, 3.437363386154175, -0.0715264305472374, -6.785788059234619, 0.31563708186149597, 3.213320255279541, 0.8646433353424072, -4.85727596282959, -4.874016761779785, 2.3730456829071045, 0.1538958102464676, 6.489717960357666, -2.158730983734131, -1.4404304027557373, -5.32905912399292, 0.5764963030815125, -5.325038433074951, 0.3093472123146057, -3.6592442989349365, -3.5611186027526855, -5.220560073852539, -9.43436050415039, 2.084742546081543, 4.0878586769104, -4.096560478210449, 2.3078293800354004, 7.399990558624268, 2.3980820178985596, -5.260330677032471, 4.193819522857666, 3.0431337356567383, 0.7964209914207458, -8.445426940917969, 0.3441963195800781, -4.7631120681762695, 2.7985517978668213, -7.108842849731445, -1.8418253660202026, 2.4688854217529297, -0.1927705854177475, 4.967621803283691, 0.7396251559257507, -3.4634695053100586, -0.5738208889961243, 0.5468935966491699, -4.616178035736084, -5.673609256744385, 2.9185140132904053, -0.05150924623012543, -1.3548026084899902, 0.7709741592407227, 1.6163376569747925, -0.5019301772117615, -4.025649547576904, 2.4700753688812256, -3.1487698554992676, 2.553173780441284, -0.26649367809295654, 0.5035879611968994, -4.0645341873168945, -1.983127236366272, 5.774312973022461, 2.7406857013702393, -2.793104410171509, 2.8689589500427246, 5.758962631225586, 4.919236183166504, 2.3012561798095703, -3.2155730724334717, 3.2575395107269287, 2.374086380004883, 2.071972608566284, 4.413170337677002, -3.1906261444091797, -2.326376438140869, 0.23893195390701294, 1.3176337480545044, 3.17814564704895, 3.2436182498931885, -2.6599013805389404, 0.9346043467521667, 0.04666009545326233, 2.29414963722229, -1.5863829851150513, 3.815403938293457, 1.4157904386520386, -0.19424310326576233, -2.322965621948242, 3.0625357627868652, -1.8822952508926392, -4.59956693649292, -0.559597373008728, -4.075523376464844, 2.1512861251831055, -3.9036571979522705, -2.1766111850738525, -1.6206389665603638, 1.4440674781799316, 0.6304903030395508, 1.6233097314834595, 1.2844312191009521, 0.8338205218315125, -3.7632994651794434, -0.8056551218032837, -0.9742339849472046, -2.3607494831085205, -0.7321708798408508, 0.5115430951118469, 4.711791515350342, 2.6682350635528564, -3.159224033355713, 0.38914942741394043, -3.4964332580566406, -3.4160234928131104, 0.4407902657985687, -0.49357742071151733, -0.23491668701171875, 1.4043421745300293, 1.7306770086288452, -2.0747008323669434, 1.528987169265747, -2.186570167541504, -0.5155285596847534, 0.15053041279315948, -3.524229049682617, 0.2519148588180542, -0.5321378707885742, -0.14836600422859192, 1.4672410488128662, 0.04792849346995354, -0.9415920376777649, 2.956397294998169, -0.08138622343540192, 1.2054033279418945, -0.10940133035182953, 3.7522268295288086, 1.43965744972229, 3.0954251289367676, -0.43757787346839905, 0.6104646325111389, -3.289304494857788, 2.480928897857666, -1.9703280925750732, -0.4924914836883545, -0.917512834072113, 5.716662406921387, 1.0773686170578003, 1.9682633876800537, 2.1510324478149414, -4.025808811187744, -0.5557227730751038, -2.0244226455688477, -3.0293760299682617, 0.6554869413375854, 0.5267013311386108, -2.6436054706573486, -7.129689693450928, 5.643819332122803, -2.6792140007019043, -1.8365147113800049, 0.9593000411987305, 1.9690940380096436, 5.590196132659912, 2.2422573566436768, -6.870808124542236, 5.966638565063477, -0.0702892541885376, -4.709164142608643, 3.231106996536255, 1.1063717603683472, -3.0556483268737793, 2.8500800132751465, -0.49821949005126953, 0.5003451108932495, 0.45686301589012146, 0.7542814612388611, -1.1778348684310913, -3.2374014854431152, 0.29830560088157654, 1.0342360734939575, -0.8908064961433411, -0.5375542044639587, -0.20282113552093506, -2.385803699493408, 6.177417755126953, -3.4528093338012695, 4.289731979370117, -3.139676809310913, -2.737121820449829, 1.148050308227539, -1.670426607131958, -1.9724682569503784, 1.3480608463287354, -1.585720181465149, -4.3038458824157715, -1.7227778434753418, -0.12992775440216064, -2.147218704223633, -6.843076705932617, 1.3401280641555786, 5.210371017456055, 2.6582510471343994, -0.7250470519065857, -3.1426925659179688, -2.0230278968811035, -4.891273498535156, -0.7032977342605591, 2.6247241497039795, 2.047144651412964, 1.1020159721374512, 0.8206424713134766, -2.0987586975097656, 3.3813202381134033, -2.5554885864257812, 1.1237907409667969, -4.9849677085876465, -0.9255096912384033, -3.136247396469116, 2.3024280071258545, 0.2486228495836258, 0.06612008810043335, 0.7532711625099182, -6.099869251251221, 5.198360919952393, 2.113508939743042, 0.9476679563522339, 3.3586337566375732, -2.140923023223877, -0.708920419216156, -0.5848516821861267, 0.6088698506355286, -5.238702774047852, -0.10248994082212448, 0.6418823599815369, -2.2470147609710693, -4.42566442489624, 1.989227294921875, 2.8494198322296143, 1.8143287897109985, -2.5953094959259033, 6.79285192489624, -2.197744607925415, 7.296041011810303, 0.2338758260011673, -2.2261457443237305, 3.521409273147583, 10.034071922302246, -3.8832180500030518, -2.9448492527008057, 0.6207079291343689, 0.8920716047286987, -1.8473002910614014, 7.311561107635498, -3.481382369995117, 2.4076120853424072, 6.337782382965088, 0.29359200596809387, -2.684028148651123, -1.2489509582519531, 1.2107563018798828, 5.516440391540527, -5.693861484527588, -3.978186845779419, -0.3366928994655609, -1.5087836980819702, -3.350620746612549, -2.4222354888916016, 7.942473411560059, 1.2850415706634521, -2.9328150749206543, -4.913506031036377, 3.5895683765411377, 10.06934928894043, 3.3074657917022705, 6.058193206787109, -3.1490862369537354, 7.831131458282471, -1.3363806009292603, 0.8229385614395142, 9.09383773803711, 2.7826547622680664, 3.683976650238037, -0.5513121485710144, 0.2250027060508728, 3.902684450149536, 0.0846002995967865, 2.898444652557373, -3.268311023712158, -1.0488756895065308, 1.9976744651794434, 1.4889483451843262, 3.1938774585723877, -0.4533514082431793, 2.775084972381592, -3.838571071624756, -0.23934003710746765, -1.222099781036377, 1.6786625385284424, 1.133729338645935, -7.721991539001465, -1.1381107568740845, 7.860585689544678, -1.3491630554199219, 0.5396175384521484, -2.1491544246673584, 0.6264933347702026, 2.9452879428863525, 0.7762271165847778, -1.2656010389328003, -0.29618144035339355, -0.6017075777053833, 0.8367916345596313, -1.7931643724441528, 3.0346977710723877, 0.08190301805734634, -2.720216989517212, 1.3961327075958252, -1.9301351308822632, 2.796308755874634, 1.3419052362442017, -0.8749445080757141, -5.988565921783447, -0.9226492643356323, 0.48985162377357483, -0.9706937074661255, -3.8441267013549805, 3.260816812515259, 0.4709985852241516, 6.182234287261963, 1.8228846788406372, -3.742341995239258, -1.0772877931594849, 4.900700092315674, -4.690046310424805, -1.827417016029358, -0.3540586233139038, -2.3015265464782715, -4.908466339111328, 3.032336711883545, -2.243185043334961, -0.5945910215377808, 3.5700929164886475, 4.4283127784729, -1.3608816862106323, 4.608074188232422, 3.446664333343506, -1.1471065282821655, 0.686002254486084, 4.027157306671143, -5.463472366333008, -3.4237542152404785, -4.435624122619629, -2.581038236618042, -2.0205698013305664, -5.294349670410156, -0.7456156611442566, 4.609920978546143, -6.285706043243408, 3.103639602661133, -8.355059623718262, 1.5645769834518433, 5.643211364746094, -2.316075325012207, 1.3715848922729492, 4.008836269378662, -0.7708477973937988, -7.292568683624268, -4.072118282318115, 0.28351572155952454, -7.9574127197265625, 0.9431820511817932, 3.5641379356384277, 0.5466966032981873, 1.1615451574325562, -0.895972490310669, 0.37111878395080566, 0.6604551672935486, -0.8183344006538391, 0.6846759915351868, -3.2833340167999268, 2.818648338317871, -3.086026430130005, 1.114713430404663, -3.7923059463500977, -1.908609390258789, -2.5327980518341064, -0.8964312076568604, -2.8390345573425293, 1.4391306638717651, -1.4636611938476562, -1.3981220722198486, -1.2900748252868652, 0.38396939635276794, -1.5158568620681763, -2.482067108154297, 1.1533544063568115, -4.375766277313232, 1.131485939025879, 1.6681733131408691, 1.1334141492843628, 3.4425058364868164, -0.7059815526008606, 0.6801167726516724, -4.786917209625244, 1.0734386444091797, -4.003628253936768, 1.7037075757980347, 1.247476577758789, -2.0629491806030273, -1.5237610340118408, -0.6790149211883545, -1.7314833402633667, -2.6924047470092773, -5.370670795440674, -3.38991117477417, -2.0293328762054443, 0.8142461776733398, 0.038061026483774185, 3.6205663681030273, 1.9032080173492432, 0.7111144661903381, 4.722030162811279, -3.111105442047119, -0.9749017357826233, -1.3311536312103271, 1.927807331085205, 1.8048079013824463, -2.0201480388641357, 2.5017173290252686, 2.185168743133545, -2.309194326400757, -2.4682297706604004, -2.4773449897766113, -0.2108287364244461, -2.019473075866699, -0.5030170679092407, -2.2281742095947266, -1.2280447483062744, 2.2933812141418457, -1.5266927480697632, -2.159210205078125, 1.9522625207901, 0.43865400552749634, -1.175386667251587, -0.7959424257278442, 1.0987343788146973, -0.9478470683097839, -5.500300407409668, -1.1536725759506226, -1.797485589981079, 1.107357382774353, -0.719637930393219, -3.7502284049987793, 0.10924919694662094, -1.0887424945831299, -3.919384002685547, 0.7803743481636047, 3.190117835998535, -0.6424022316932678, -4.039812088012695, -0.8002107739448547, -1.4254473447799683, -0.6623213291168213, -0.4399315416812897, -3.217438220977783, -4.3528900146484375, -11.065272331237793, 4.649807929992676, 0.2892139256000519, -2.719271421432495, 2.0550107955932617, -0.7211993932723999, -1.6278550624847412, -2.6443138122558594, -1.9363172054290771, -3.7986669540405273, -1.1814974546432495, -4.160137176513672, -0.0833287388086319, 1.3413523435592651, 2.963047981262207, 3.820016860961914, 1.7073352336883545, -1.3490327596664429, 2.5734615325927734, 1.6518205404281616, 0.9337244629859924, 0.5856470465660095, -0.5267872214317322, 1.6359471082687378, -2.452592372894287, -0.9323797225952148, 0.37559401988983154, -0.10997338593006134, -0.5490240454673767, 0.03117162175476551, -1.6015253067016602, -4.184060573577881, 0.5794814229011536, -0.6465914845466614, 1.5582590103149414, -2.949592113494873, 1.9968980550765991, 3.023031234741211, -0.19076979160308838, 0.2121392786502838, -4.426642894744873, -0.19267740845680237, -2.5471079349517822, -1.9214712381362915, -1.1162834167480469, 3.1146163940429688, -0.07330186665058136, -2.1540298461914062, 1.5470267534255981, 0.572189211845398, -0.4785408079624176, 1.4690403938293457, 1.0478394031524658, 2.765071392059326, 0.19928817451000214, 2.8682174682617188, 0.6200917959213257, 0.4108227491378784, 2.147085189819336, -2.6973750591278076, 3.040220260620117, 0.06258615106344223, 1.8224996328353882, 1.4944851398468018, -1.0057508945465088, -4.180769443511963, 3.7590346336364746, 0.5207213759422302, -4.219458103179932, -3.4375076293945312, -5.413981914520264, 0.049694616347551346, 0.6249992847442627, 2.461000442504883, 0.9757897853851318, -3.739941358566284, -6.751832485198975, -0.6788694858551025, 0.4344114065170288, 0.4875372350215912, 0.04144451394677162, -0.05859848111867905, -2.1094164848327637, -4.525788307189941, -0.8500580191612244, -0.2288268804550171, -16.11482810974121, 2.418046236038208, 1.239763617515564, -0.6708773970603943, -3.774704933166504, 5.5246968269348145, 0.8832452893257141, 1.421862006187439, -3.0454015731811523, 0.1531941443681717, 2.5513241291046143, 1.0599452257156372, -2.727212429046631, -4.628114700317383, -0.7366036772727966, -10.27491569519043, -0.17166447639465332, -1.7195019721984863, 0.24947448074817657, 3.2645175457000732, -7.339633464813232, -2.4543075561523438, -1.149714708328247, 2.647005558013916, -0.38248345255851746, 2.320103883743286, -2.8358266353607178, -3.013195037841797, -0.6360427737236023, -1.717893123626709, 1.7938549518585205, 3.04695463180542, -5.347475051879883, 0.9387781023979187, -0.3364110291004181, 1.1100988388061523, -0.4101913571357727, -6.254402160644531, -2.912196159362793, -3.0074994564056396, 4.549129486083984, -0.860960841178894, 2.275989532470703, -4.609712600708008, 2.4862751960754395, 1.5216729640960693, -5.761368751525879, -2.738520383834839, -3.037018060684204, -4.710139751434326, -1.5705249309539795, 0.07724178582429886, 2.3789031505584717, -3.0334136486053467, -0.8544929623603821, 3.786536693572998, 1.6447604894638062, -1.2389791011810303, 0.14296120405197144, -2.0451979637145996, -0.12266682088375092, -0.27646875381469727, 4.317094802856445, -1.0914771556854248, -1.9673662185668945, 2.332245111465454, 3.8560876846313477, -3.234975814819336, -2.4055941104888916, 2.787554979324341, 2.3630688190460205, 2.1058132648468018, -0.4617637097835541, -1.6117442846298218, -0.6380628943443298, -7.171472072601318, -2.65339994430542, -3.3606436252593994, -0.14610505104064941, -2.071422815322876, -1.8509199619293213, -0.43037936091423035, 2.160677909851074, -0.4086795747280121, 0.5989505052566528, 1.0284353494644165, -3.039910316467285, 0.8994770646095276, -5.0413947105407715, -1.5845768451690674, -0.9064017534255981, -2.3396644592285156, -3.9427828788757324, -0.7496773600578308, 1.1690397262573242, -2.3178203105926514, 0.28677019476890564, 0.8502964377403259, 2.608924627304077, -3.977374315261841, 1.5626745223999023, -5.952944755554199, -0.13959212601184845, 2.5606606006622314, 0.23701174557209015, 2.896242141723633, -1.6403498649597168, -0.7512046694755554, 1.0683783292770386, -2.836725950241089, -1.0676344633102417, -2.521498918533325, -0.77784264087677, -3.4841318130493164, -0.1938074231147766, -1.3287545442581177, 0.5018251538276672, 0.14856846630573273, -0.06764920055866241, 1.5898874998092651, -0.249167338013649, -3.5603291988372803, 2.56553316116333, 0.9739543199539185, 0.5532805323600769, -0.08777904510498047, -0.9398322701454163, 0.9903271794319153, -1.4280380010604858, -1.5483673810958862, -0.8319651484489441, -2.7539467811584473, 1.4951541423797607, 0.8466048240661621, -1.491448163986206, 0.9743106365203857, -0.37193119525909424, -1.1769251823425293, -5.8478264808654785, 0.13100312650203705, 0.7806589007377625, 0.2568627893924713, -0.28538385033607483, -0.7350543737411499, 1.928629994392395, 1.9238594770431519, -0.38311922550201416, 1.1722116470336914, -0.6528061628341675, -0.42788437008857727, 3.7774739265441895, -1.7833616733551025, 0.14040625095367432, -2.3790488243103027, 3.583113431930542, 4.339173793792725, -4.732360363006592, 1.1037132740020752, -5.3292059898376465, -5.215710639953613, 0.9090560674667358, -0.41954466700553894, -2.4670679569244385, 2.7215821743011475, -0.5480149388313293, -1.874019742012024, -0.19329367578029633, -0.13015277683734894, 0.7381701469421387, -0.2549590468406677, -0.5924753546714783, 0.5266658067703247, 0.05121162533760071, 0.6013869047164917, -4.267842769622803, 3.1960980892181396, 5.233527183532715, 1.4257073402404785, -1.6789969205856323, -3.4905667304992676, -1.3230211734771729, 3.1966614723205566, -2.439465045928955, 2.164482355117798, -0.5960981249809265, 0.22704927623271942, -1.1870146989822388, -2.0868277549743652, 2.1828486919403076, 1.5289770364761353, -7.084685802459717, -0.8947484493255615, -2.6987597942352295, 4.183778285980225, -0.35207581520080566, -0.2407369762659073, 0.6604498028755188, -4.11569356918335, -1.8954979181289673, 2.765627384185791, 1.3640894889831543, 2.7819790840148926, -0.20198220014572144, 1.4848127365112305, 0.39433619379997253, 3.3155465126037598, -3.2887966632843018, 4.4482035636901855, -5.125164031982422, -1.2512092590332031, 1.1303884983062744, -2.2760403156280518, -8.443388938903809, 0.17445749044418335, 3.3626718521118164, -0.8159355521202087, 1.5762171745300293, 2.017697811126709, -4.334599018096924, 0.43456482887268066, 3.2799580097198486, 0.7296893000602722, -4.242122650146484, 0.24956202507019043, 0.7272304892539978, 0.3965800404548645, -5.042397975921631, 1.961516261100769, 0.47001925110816956, 0.3712548315525055, 6.033847808837891, -1.3208787441253662, -2.337930202484131, -1.1612776517868042, 1.9612975120544434, -6.729061603546143, -0.06033237650990486, 0.21779879927635193, 0.9985447525978088, 2.7342374324798584, 4.337645053863525, -0.6470023989677429, -1.9826573133468628, 1.48343026638031, -1.363587498664856, -2.4217915534973145, 1.556516170501709, -0.4823949337005615, -5.222167491912842, 3.8897314071655273, -0.27544599771499634, -4.991426944732666, 0.6749956607818604, 0.6071022748947144, -2.119931221008301, 4.205460548400879, -0.9865785241127014, -5.432443141937256, -3.475241184234619, 2.627594232559204, 3.8661231994628906, 1.818009614944458, 1.4186079502105713, -1.78701913356781, -1.337157130241394, -1.140533447265625, 0.5569411516189575, 3.34271502494812, -0.7983563542366028, -4.663434982299805, -1.0314573049545288, -0.17142821848392487, -2.6525142192840576, -0.41337263584136963, 3.7658698558807373, 0.49896758794784546, 2.262303113937378, 2.0404269695281982, 0.9613752961158752, 0.5177104473114014, 2.1219370365142822, -1.3327600955963135, 3.0931687355041504, 0.7357958555221558, 1.878986120223999, -2.3749122619628906, 0.6176486015319824, -0.47073128819465637, -2.171579360961914, -1.024440884590149, -0.28727269172668457, 1.7524187564849854, -0.4023433029651642, -1.8322486877441406, -2.298102855682373, -3.519726037979126, -0.6515995264053345, 1.9249457120895386, -4.016012191772461, -3.4859635829925537, 3.8005833625793457, -0.9413332343101501, 2.4382002353668213, 1.390624761581421, -0.026091357693076134, 0.4375593662261963, 1.7655823230743408, 2.0491247177124023, 0.6444660425186157, 1.6022776365280151, 0.10294167697429657, -3.157944440841675, -0.5881052017211914, -0.8259709477424622, -6.177549839019775, 1.952566146850586, 5.515067100524902, 0.27991577982902527, 0.16394299268722534, -0.43562889099121094, -5.087740421295166, -1.4023504257202148, -1.0456023216247559, 1.6412076950073242, -1.8694498538970947, 0.37410932779312134, 0.8166695237159729, -1.6629449129104614, 2.09859299659729, -0.3286517560482025, -0.5894031524658203, 0.5111069083213806, 1.3201216459274292, 2.7528574466705322, 1.9655044078826904, -3.1357879638671875, -3.3161234855651855, 1.0414239168167114, 0.11831293255090714, 1.8089792728424072, -2.2289624214172363, -1.339800238609314, -1.9055850505828857, 2.5706934928894043, -0.18182344734668732, -2.675762414932251, 2.8869879245758057, -3.2303335666656494, -3.63348650932312, 0.8727172017097473, -2.0755228996276855, 0.5018938779830933, -1.4387186765670776, -0.604600191116333, -2.3447277545928955, 3.2169384956359863, 2.7060980796813965, 1.436161756515503, 1.6115024089813232, -1.1983890533447266, 4.89343786239624, 0.1329175978899002, -5.294846057891846, -2.0178096294403076, 3.1910390853881836, 0.29071244597435, -2.1439528465270996, -2.4524948596954346, 1.679700493812561, -1.0075337886810303, 0.1497373878955841, 1.9284112453460693, 0.7007454037666321, -3.6574528217315674, 3.3136579990386963, 0.8279730081558228, 2.068664789199829, 0.40963342785835266, 2.3128278255462646, -2.099895477294922, 2.6864805221557617, 0.49078071117401123, 4.35720157623291, -0.40977832674980164, -1.6886277198791504, -1.4132634401321411, 0.8551835417747498, 0.29874515533447266, -6.500063419342041, 0.24750608205795288, 3.6372241973876953, -1.3960386514663696, -2.4588921070098877, 2.503542423248291, -0.5151236653327942, -5.492364883422852, 1.6883715391159058, -0.3006860017776489, -0.6818483471870422, -1.4213768243789673, -4.481392860412598, -1.548726201057434, -2.5317740440368652, 3.6357669830322266, 0.4089716672897339, 1.3652229309082031, 1.3310226202011108, -0.01815526932477951, -1.9510672092437744, -3.88881516456604, -0.7422323226928711, -1.5143285989761353, -0.1869957596063614, 0.3118382692337036, -0.5494341850280762, -1.731518030166626, 3.486814498901367, -1.8911335468292236, -0.7827693223953247, -1.6574413776397705, -0.5769740343093872, -1.8074132204055786, -2.839651584625244, -1.9467384815216064, -1.6114975214004517, -0.6446431279182434, -2.9718239307403564, -0.16972140967845917, 2.860469341278076, 4.013360977172852, -2.4210503101348877, 0.6202749013900757, 6.774169921875, -0.5809503793716431, 1.5444892644882202, -2.32423734664917, -4.333632469177246, -0.2261316478252411, 4.483011245727539, 0.8235316276550293, 0.23733176290988922, -3.7538888454437256, 0.350903183221817, 2.045644521713257, 3.2846269607543945, 1.3076022863388062, -0.8044278025627136, 3.454754114151001, -0.3496982753276825, -1.7339285612106323, -2.561558246612549, 4.212736129760742, 0.4667913317680359, -0.19870880246162415, 1.590153694152832, -3.5307469367980957, -1.2090177536010742, 0.3900968134403229, -0.9415173530578613, -4.533359527587891, -3.1707558631896973, -0.23354634642601013, -3.0669100284576416, -4.927329063415527, -0.10633060336112976, 0.04841366782784462, 0.4921070337295532, -0.8405171036720276, 1.3397680521011353, -1.1435202360153198, 0.03779645264148712, -0.7435154318809509, -3.9397528171539307, 0.5039326548576355, 0.3935055136680603, -4.390304088592529, -0.05132218450307846, 0.3933289349079132, 2.0117321014404297, 0.24421030282974243, -4.702950477600098, 1.8612724542617798, -0.15789823234081268, 3.9375369548797607, -4.073098659515381, -1.5958293676376343, 2.1280345916748047, 7.427918434143066, -0.24803613126277924, -6.182421684265137, 1.603398084640503, -2.2915546894073486, -3.8037924766540527, 3.5324008464813232, -2.3833577632904053, -4.96811056137085, 2.8580925464630127, -1.5528655052185059, -1.3748972415924072, 0.829338014125824, -0.09160876274108887, -1.0885725021362305, -1.2652525901794434, 3.868990659713745, -2.393629789352417, 0.8696650862693787, -2.3481714725494385, -1.7364016771316528, 2.5502512454986572, -0.1609088033437729, -4.076249122619629, -2.8094520568847656, 1.3796560764312744, 2.6307480335235596, -0.21426483988761902, 0.22202637791633606, 2.61385178565979, -0.055996060371398926, -2.602571725845337, 0.528657078742981, -0.18718013167381287, -1.464695930480957, -3.0424752235412598, -7.088533401489258, 2.964782953262329, -0.8644882440567017, -0.7979296445846558, 4.639984130859375, 1.7739417552947998, 1.4188592433929443, -0.36891621351242065, 0.009657417424023151, 0.29871445894241333, -3.1572980880737305, 3.195338487625122, 0.7356793880462646, -3.532160997390747, 0.20233723521232605, 1.3029145002365112, 1.1204144954681396, 0.6818900108337402, 3.6178648471832275, 0.7892623543739319, -3.6436173915863037, 0.8875512480735779, -2.9528868198394775, 0.02967984601855278, -0.04399485886096954, -3.8170037269592285, -0.5569566488265991, 2.1115291118621826, -4.646143436431885, 0.15564590692520142, 3.315964460372925, 3.8621621131896973, 1.4109877347946167, 1.2258187532424927, 1.7919379472732544, 3.9474616050720215, 2.9211463928222656, 1.839828610420227, -3.6774561405181885, -4.770905017852783, -1.1263400316238403, 1.2240355014801025, -2.8804547786712646, -0.8793687224388123, -0.7962789535522461, -1.6524386405944824, -1.354683756828308, -0.13151904940605164, 1.2582143545150757, 4.986055850982666, 0.37197667360305786, 2.3110742568969727, 1.148667573928833, 0.09383006393909454, -1.2881239652633667, -0.6567702889442444, -5.482127666473389, 2.2266757488250732, -0.023448528721928596, -0.038008954375982285, -2.455138683319092, 1.6943451166152954, -0.4954085946083069, 1.875104308128357, -4.009110450744629, 1.1179978847503662, -0.3116166889667511, 1.9220824241638184, 0.7500318884849548, 3.719564199447632, 0.742047131061554, -1.7986774444580078, 2.2648768424987793, 0.7021352648735046, -0.2297760546207428, -0.6752432584762573, -0.37441983819007874, 0.7760331630706787, -0.28313812613487244, 2.306518077850342, -2.307965040206909, 0.8525186777114868, 2.7169954776763916, -4.559144973754883, -4.561165809631348, -0.9243032336235046, 5.457738399505615, 0.7850639820098877, 0.8629060387611389, -1.3722779750823975, -2.3089547157287598, -3.749953269958496, -5.050229072570801, -1.4256372451782227, -3.530374050140381, -4.695112705230713, -7.89186954498291, -6.998619079589844, -8.960521697998047, 1.5667425394058228, 5.439854621887207, -3.084923267364502, 2.256518840789795, 1.650197982788086, 4.199227333068848, -0.5498015284538269, 3.8407514095306396, 3.5603175163269043, -1.4714173078536987, -2.825061798095703, 3.9019598960876465, 1.9563716650009155, 1.576011300086975, -2.8931427001953125, -5.0031609535217285, 2.9556756019592285, -0.8033096194267273, -2.7585575580596924, 0.6675509810447693, 2.1679792404174805, -1.6495646238327026, 0.39402663707733154, -4.831051826477051, -1.349199891090393, -0.6458202004432678, -6.388685703277588, -0.14021821320056915, 1.5565330982208252, 1.3066487312316895, -1.671669602394104, 0.24470524489879608, 2.8400754928588867, -0.19540171325206757, 3.3807880878448486, 3.5788652896881104, -1.6369975805282593, -0.5010338425636292, 0.16942666471004486, 1.865739107131958, -0.768069863319397, 1.7462166547775269, 5.447601795196533, 0.6217989325523376, -0.7684919834136963, -5.844086170196533, 1.1861907243728638, -1.0639053583145142, 4.46053409576416, -1.8497545719146729, -1.5600930452346802, 0.5905863046646118, -0.006454759277403355, -1.5579842329025269, 2.852612257003784, 3.15899920463562, 1.1153507232666016, 1.1023070812225342, 0.46418532729148865, 1.594220757484436, 0.39989230036735535, -3.279723882675171, 3.0917561054229736, 1.4116638898849487, -3.27656888961792, -2.300355911254883, -0.4415222108364105, -1.1163095235824585, -3.707498550415039, 0.16120141744613647, 6.125569820404053, -0.12690259516239166, -0.3242197632789612, 1.9627604484558105, 0.9312729239463806, -0.08102830499410629, 0.2246590256690979, -0.9174523949623108, 1.4895180463790894, 1.422592043876648, -2.2141833305358887, 2.4237747192382812, -0.4083126485347748, -0.18058501183986664, -0.8169382214546204, -1.4298182725906372, -7.613499641418457, -2.1432747840881348, -1.5752586126327515, -1.123273491859436, -3.5167601108551025, -1.5809190273284912, 3.0369553565979004, 0.40656349062919617, -0.41298675537109375, -0.09221930056810379, -0.0815747007727623, -2.229813575744629, -2.143399715423584, -2.5174217224121094, -3.8759987354278564, 1.4734776020050049, 2.013572931289673, 2.822471857070923, 1.196887731552124, 3.195822238922119, -1.0399836301803589, 2.5819926261901855, 0.16075728833675385, 5.0370988845825195, 2.1245765686035156, 2.2708473205566406, -3.691336154937744, 0.44732922315597534, 0.3400194048881531, -0.8859344720840454, 5.981297969818115, 0.051889799535274506, 1.0710999965667725, 1.7506541013717651, -0.03660883754491806, 2.096433162689209, 0.5268107056617737, 2.346179962158203, 3.1430907249450684, -1.0112168788909912, 2.575892448425293, -0.8521554470062256, -0.4038843512535095, 0.8087732195854187, 0.738939106464386, 1.1543217897415161, -1.2458138465881348, 0.8669090867042542, 1.7831482887268066, -3.0862300395965576, 1.6774036884307861, 1.774091124534607, -2.363661766052246, -1.7854307889938354, -0.18762348592281342, -2.154264211654663, 3.0288314819335938, -1.5392811298370361, 5.187870979309082, 2.7840962409973145, 1.2831045389175415, -1.1169135570526123, 1.52875816822052, -1.3702174425125122, -3.3519275188446045, 4.417685508728027, 1.9188902378082275, -3.114485263824463, 3.3951947689056396, 0.6768477559089661, -0.7655321359634399, -3.6335902214050293, 0.7060684561729431, -3.036562919616699, 0.006992582231760025, -3.5634267330169678, -2.4528610706329346, -5.180699348449707, -4.1752610206604, 0.2504532039165497, 1.7620068788528442, -0.44290974736213684, 2.5004658699035645, 0.8374220728874207, -3.4949638843536377, -2.211146831512451, 2.3534109592437744, -2.294494152069092, -4.516193389892578, 2.8699166774749756, 4.91145658493042, 0.6254816651344299, -7.179494857788086, -1.9190617799758911, 2.347827911376953, 1.6727765798568726, 2.8578813076019287, -7.899013042449951, -0.22003623843193054, 6.2807087898254395, -2.3569016456604004, -4.243796348571777, 0.43207913637161255, 8.071333885192871, -2.435879945755005, -6.670550346374512, 0.585763156414032, -4.571989059448242, 1.4215667247772217, 1.541272521018982, -0.27485427260398865, -1.7907384634017944, 5.372344970703125, 2.200571060180664, -1.0120995044708252, -2.391437292098999, -3.1594436168670654, 2.2930896282196045, 1.5716699361801147, 7.505979537963867, -5.402343273162842, -7.28578519821167, 4.673991680145264, -1.3848425149917603, 4.086376190185547, 0.7448112368583679, -0.4373868703842163, 1.0971533060073853, -1.6998841762542725, -1.0412335395812988, -0.28204354643821716, -1.2604238986968994, 1.2018100023269653, 1.614001989364624, -6.507956504821777, 1.8589324951171875, -1.9594905376434326, -1.9907726049423218, -3.9717113971710205, -0.8428199887275696, 3.991931915283203, 0.09970041364431381, -1.4883241653442383, -0.1020415872335434, 3.274324417114258, -4.00848388671875, -3.5925486087799072, -5.430719375610352, 3.256364583969116, -2.4693148136138916, -1.4984264373779297, -4.284097671508789, 0.6455248594284058, -0.5253605842590332, -6.746807098388672, 1.2208367586135864, 1.5109152793884277, -2.805793523788452, 0.11433311551809311, 1.8725018501281738, 1.7251406908035278, -4.1138224601745605, 2.2835581302642822, -0.46888476610183716, -1.174325942993164, 3.176515817642212, -1.4143726825714111, -2.095825433731079, -4.75771951675415, -0.07752552628517151, -2.763054847717285, -7.763214111328125, -4.816580295562744, -0.9821427464485168, 1.8599001169204712, 0.3472754955291748, -16.198013305664062, 2.6999261379241943, 4.72986364364624, -1.3862303495407104, 0.28814175724983215, 6.551137924194336, -0.20700684189796448, 4.161815643310547, -0.2617681920528412, 1.8208385705947876, 2.1747825145721436, -0.2595849931240082, -0.09595697373151779, 3.8483638763427734, -2.5392675399780273, 1.1461161375045776, 1.2853046655654907, 0.24069681763648987, 0.8124783635139465, -1.2498522996902466, 1.4412277936935425, -0.12749601900577545, 1.953751802444458, 1.300506591796875, 1.1238833665847778, 2.083164930343628, 4.689054012298584, -0.24885816872119904, 1.1161435842514038, 2.002993106842041, 0.14336802065372467, -3.279233932495117, -0.06707071512937546, -0.4732375741004944, -0.9279190301895142, -0.5570409893989563, 3.5998928546905518, 1.2992225885391235, -3.6163463592529297, 3.9111220836639404, -0.060834020376205444, -3.4169929027557373, 0.7728624939918518, -0.09154476225376129, 0.6216712594032288, 2.0076944828033447, -3.4074416160583496, 1.990647792816162, 1.4144278764724731, 1.6429667472839355, -1.8248982429504395, 0.15171903371810913, 1.5995296239852905, 0.8246387839317322, -10.224263191223145, 1.4472684860229492, 6.819780349731445, 2.2979884147644043, 0.8962131142616272, 1.4678301811218262, 7.794623374938965, -1.123061180114746, -6.414412021636963, 2.10332989692688, 4.020326614379883, -2.80495023727417, -0.6414467096328735, -1.277492880821228, -4.504958152770996, -0.99462890625, 0.2563960552215576, 2.9621193408966064, -2.4066898822784424, 5.44574499130249, 3.024974822998047, -4.881843566894531, -4.383506774902344, -5.57315731048584, -3.7837586402893066, 4.998769760131836, -2.584576368331909, -2.510601043701172, 2.352116584777832, 3.748307228088379, -6.398303508758545, -7.429734230041504, -1.2108876705169678, 1.9400017261505127, -2.1622602939605713, -3.630307674407959, -5.05737829208374, 0.15384583175182343, -6.141623020172119, -3.276582717895508, -1.6869100332260132, 3.58526349067688, 2.9656031131744385, -1.847108006477356, -4.242864608764648, 5.361063003540039, 0.7791708111763, -0.6399045586585999, 1.1830365657806396, 0.4479454755783081, 3.8886682987213135, -1.0753347873687744, -0.023974904790520668, 1.8260577917099, 2.362912893295288, -2.1167585849761963, -0.981264054775238, 4.963210582733154, 3.218317985534668, 3.3124027252197266, -3.41499400138855, -1.3175122737884521, 2.2561733722686768, 0.9988347291946411, -0.7612949013710022, 1.931456208229065, -1.6366616487503052, -1.7084040641784668, -4.690720558166504, -1.5886644124984741, -1.2699402570724487, 0.5072780847549438, -0.9142932891845703, 1.217408299446106, 2.562375545501709, -6.360905647277832, -3.5157723426818848, 0.9197423458099365, -0.5555441379547119, 0.2866802513599396, -1.419633388519287, 2.309485673904419, 0.4787155091762543, 2.9749855995178223, -0.2870403528213501, 2.9786922931671143, 0.46429339051246643, 2.5262129306793213, -1.5088852643966675, -1.6460233926773071, -4.2990241050720215, -1.0850486755371094, -0.3767048716545105, 1.929762601852417, 2.020080327987671, 0.8263665437698364, -2.8012619018554688, 0.6115999221801758, 3.906369686126709, -0.9988844394683838, 2.44557523727417, -0.057071030139923096, 3.7440578937530518, -0.24887552857398987, 0.694297730922699, 2.1617166996002197, -2.764331817626953, 3.0618133544921875, 2.8271820545196533, -2.525535821914673, 1.7200871706008911, 0.3392375111579895, -1.039962887763977, -3.2195935249328613, 0.24405620992183685, -2.8276970386505127, -0.4571112394332886, -0.9394035935401917, 0.29101642966270447, -2.394029140472412, 2.2788166999816895, -3.927525758743286, 1.1549992561340332, 1.774798035621643, -1.188882827758789, -1.0932382345199585, 1.7835755348205566, 2.143260955810547, -6.430622577667236, -3.3342278003692627, 3.6460018157958984, -3.9753854274749756, 2.125549793243408, 0.42085859179496765, -1.1356626749038696, -4.194676876068115, -0.4658995568752289, 2.525420904159546, 3.205054998397827, -1.1360939741134644, -1.3003865480422974, 0.031113531440496445, 0.8461636900901794, -1.1281646490097046, 1.0647430419921875, 1.587770938873291, -2.335076332092285, 2.3466243743896484, 4.017744541168213, -0.3471474051475525, -2.038217306137085, 1.2588527202606201, 0.20541933178901672, 0.35270947217941284, -4.3326921463012695, -4.947203159332275, -2.441786527633667, 0.04095620661973953, 1.4596972465515137, -0.42327210307121277, -3.972315788269043, 1.6392014026641846, 0.32265064120292664, 0.5054847002029419, -1.1614632606506348, -0.049728766083717346, -3.018038511276245, -1.6970425844192505, -2.2287392616271973, -1.5858125686645508, 1.0625251531600952, 3.9957973957061768, 1.7707639932632446, 4.376672267913818, 1.279180884361267, 0.1690719872713089, -0.25486239790916443, -2.9402034282684326, -0.6544542908668518, -0.9351893067359924, -1.3950198888778687, 3.7054593563079834, -1.7964905500411987, 1.1304930448532104, 1.818731665611267, 1.9618000984191895, -1.697807788848877, -2.802562952041626, -2.133408546447754, -0.2738623023033142, 2.3227174282073975, -8.333148002624512, -6.942006587982178, -3.7163336277008057, -6.094444274902344, -0.3084694743156433, -6.276702880859375, -1.0917303562164307, -3.8262927532196045, -0.9016257524490356, 1.4754548072814941, 3.6254827976226807, 1.3630573749542236, 1.4820165634155273, 2.886037588119507, 1.2314029932022095, -6.390532970428467, -1.673171043395996, -2.8045573234558105, 1.1273430585861206, 6.107802391052246, -2.009420394897461, -1.706874966621399, 1.3707973957061768, -0.8546364903450012, 4.065072536468506, 1.6643565893173218, -0.3031972050666809, 0.2868333160877228, 0.8171544075012207, -2.031425714492798, -0.6362046599388123, -2.2644567489624023, 3.669779062271118, 3.1690173149108887, -1.8987901210784912, -0.15737293660640717, -4.946596145629883, -0.33714765310287476, 2.0636937618255615, -1.4290680885314941, 2.075751304626465, -1.7155450582504272, -2.958573818206787, 4.509764194488525, -0.08671330660581589, -3.588738441467285, -0.8172299265861511, 0.8715568780899048, 2.59600830078125, 0.251837819814682, 1.2695083618164062, -6.94895076751709, 0.618427038192749, 0.6734023094177246, -2.7588770389556885, -1.9719868898391724, -0.36091917753219604, 1.3943082094192505, -1.057836651802063, -1.5409467220306396, -4.46750020980835, 0.2092745006084442, 2.509101390838623, 4.121860980987549, 0.3233797252178192, 1.1367017030715942, 0.4747276306152344, -0.48012444376945496, 1.8749887943267822, 1.4286359548568726, -0.6452793478965759, -5.231749534606934, -2.3508145809173584, -0.9287404417991638, 2.4995079040527344, -6.747987747192383, -0.6071742177009583, -0.5196790099143982, 0.596396267414093, -1.699985146522522, -0.8187906742095947, -4.466763496398926, -0.5863065123558044, 0.15404631197452545, 1.3345632553100586, 2.2914538383483887, -5.384530067443848, 0.23940788209438324, -4.155633926391602, 1.1433258056640625, 4.916469097137451, -2.3595452308654785, 1.4283474683761597, 1.7409754991531372, -1.3575149774551392, 0.9172763228416443, 0.7461754679679871, -0.10150480270385742, -7.229166507720947, -3.173522472381592, -0.13856248557567596, -2.102414846420288, -1.607227087020874, 2.4902215003967285, -0.8460788726806641, 1.2153711318969727, 2.390048027038574, 1.4310200214385986, -2.7902162075042725, -1.7277569770812988, 3.1986610889434814, -0.12612804770469666, -6.116783142089844, -4.204751968383789, 0.09393967688083649, -1.71563720703125, -1.978468656539917, 5.77419900894165, -2.2301604747772217, 0.49488162994384766, -0.06757857650518417, 3.489027976989746, -2.8052730560302734, -1.592398762702942, -3.5726258754730225, 3.5538692474365234, -3.58665132522583, 0.24973294138908386, -0.39568114280700684, 1.0141106843948364, -1.6505086421966553, 1.832924723625183, -0.24202072620391846, 0.1380545198917389, 0.7948094010353088, 1.30377197265625, -1.4538155794143677, -1.3608825206756592, -2.2578818798065186, 0.08213290572166443, 0.14051173627376556, -0.5092111229896545, 2.7074859142303467, 2.314523458480835, -4.159457206726074, -3.226553201675415, -0.46660953760147095, -0.6272211670875549, 2.677745819091797, 1.4007519483566284, -5.394564628601074, -5.845625400543213, -2.7358250617980957, -2.983462333679199, -2.0888614654541016, 3.2520596981048584, -0.24032673239707947, 1.5009015798568726, 1.0845849514007568, -6.1751861572265625, -1.5900014638900757, -3.0615181922912598, -3.1810264587402344, 3.706662893295288, -3.547244071960449, 1.6261990070343018, -0.006931297015398741, 0.9721973538398743, 2.8221256732940674, -0.8667858839035034, 0.08255844563245773, -2.8126800060272217, -1.799271821975708, 0.35743528604507446, 1.2037092447280884, 0.669529378414154, 2.352566957473755, 1.060179591178894, 2.5708014965057373, 0.8100117444992065, 2.614447593688965, -0.8775873780250549, 1.5440455675125122, -1.280527949333191, -1.7503819465637207, -2.045884370803833, 0.5976184606552124, -0.2549901306629181, -3.145348310470581, 3.5089266300201416, 0.09642715007066727, 2.760413646697998, 0.7699065208435059, -0.1975538432598114, -0.6573050618171692, -3.2371628284454346, -0.7592517137527466, -1.671169400215149, 1.4239869117736816, 1.4736223220825195, -1.2079341411590576, 1.390591025352478, -2.8395111560821533, 0.5044587254524231, -1.164062261581421, 2.1595726013183594, -1.1391476392745972, -3.511889696121216, -0.01063868310302496, -1.5074272155761719, -4.083629608154297, 2.918341636657715, 2.824554204940796, -0.2849808633327484, -1.5499756336212158, -0.6485035419464111, 1.9197564125061035, 1.6946974992752075, -2.271709680557251, -6.412041187286377, 1.3742121458053589, 1.0571669340133667, 3.586660385131836, 0.4131005108356476, 2.332855224609375, 0.20666931569576263, 0.215143084526062, -0.293267160654068, -0.047963257879018784, -0.5508952736854553, -6.570785045623779, 0.6602914333343506, -6.66589879989624, 2.263188600540161, 6.915297508239746, -5.9629950523376465, -0.5160700678825378, 2.150923490524292, 1.6970360279083252, 4.260898590087891, 3.4375975131988525, -2.670980215072632, 1.0588725805282593, -2.159247636795044, -0.8424298763275146, -8.11193561553955, 0.7739863395690918, -0.8886492252349854, -0.34909185767173767, -0.3089751899242401, 1.6365025043487549, 2.470311403274536, 0.43439704179763794, 2.763392448425293, 1.1376913785934448, 3.5008113384246826, 1.2161873579025269, -3.095991849899292, -0.9769052863121033, -5.367805480957031, 0.7016883492469788, 0.9394684433937073, 1.3269474506378174, 1.0721278190612793, -4.016391754150391, -0.8749779462814331, -4.157206058502197, -2.979701280593872, 0.7025541663169861, 3.171584129333496, -1.0178487300872803, -5.097259998321533, -0.5186266899108887, -4.176784992218018, -0.6282895803451538, -0.45982733368873596, 1.5345207452774048, 0.1797601282596588, 3.1250882148742676, 3.2645459175109863, 4.064484596252441, -4.955613613128662, 2.274850368499756, 0.10923128575086594, -0.7052551507949829, -1.553213119506836, 3.616281032562256, 1.3799837827682495, -2.670046329498291, 1.0536346435546875, 3.903825044631958, 1.5151853561401367, -2.636820077896118, 3.4574124813079834, 3.4464657306671143, 1.34275221824646, -2.990082025527954, 0.9463744163513184, 0.483811616897583, 1.0828630924224854, 0.2943783700466156, -1.159684181213379, -0.3514772951602936, 4.571821212768555, -0.20703095197677612, 1.4774740934371948, 0.8299487233161926, 0.610970139503479, 2.431058883666992, -1.1137768030166626, 1.1715445518493652, -0.1167016252875328, 0.44161176681518555, -3.4427597522735596, 2.751328229904175, 2.2702696323394775, -0.43410593271255493, -2.877657175064087, -4.612061977386475, 0.5125129222869873, 4.8767523765563965, -5.64389181137085, 1.0990111827850342, 0.42145809531211853, -3.070258617401123, 0.590665876865387, -1.2026094198226929, -2.8016324043273926, 0.0746438205242157, -2.748068332672119, 3.994110584259033, 2.6920413970947266, -0.24832171201705933, 2.7700753211975098, 0.03373211622238159, 4.422006607055664, -4.890754222869873, -7.955317497253418, -2.3581042289733887, -3.0940191745758057, 0.5816197991371155, -3.7990589141845703, -3.2180068492889404, -1.9850621223449707, 1.625766634941101, 1.198535680770874, 0.41714775562286377, 2.5848937034606934, 1.1860018968582153, 3.230109453201294, 1.8760554790496826, 2.398012638092041, 0.5784591436386108, -0.7322955131530762, 0.45439839363098145, -0.7230867743492126, 2.293219804763794, 2.4981985092163086, -1.8528705835342407, -0.5859605669975281, 1.0801159143447876, -3.291278123855591, 3.5488388538360596, -1.8731927871704102, 3.4937734603881836, 0.20806469023227692, 3.131869077682495, -3.804722309112549, -5.400704860687256, 4.22135591506958, -3.337271213531494, -3.0597569942474365, -0.8902736902236938, 0.7348339557647705, 2.913835287094116, -1.1805322170257568, 4.328588485717773, -3.4295268058776855, -2.6299781799316406, 1.8528064489364624, 1.7930803298950195, -2.092594623565674, 1.9618805646896362, 4.5494303703308105, 0.3841387629508972, -0.28641998767852783, -0.7043142914772034, -0.10787081718444824, -2.206939458847046, 2.0618245601654053, -3.5581908226013184, 0.70167076587677, -1.6765010356903076, 2.8463971614837646, 0.04784686118364334, 2.1431150436401367, -2.5107407569885254, 6.69725227355957, 0.9008989930152893, 5.154433250427246, 0.31428655982017517, 1.2269829511642456, 1.093591570854187, -6.027678489685059, -0.14129531383514404, 0.9180198311805725, -0.5249427556991577, 0.6079123616218567, -4.129750728607178, -0.7003259062767029, -1.0684773921966553, -3.527221918106079, 0.6836968064308167, 3.911086082458496, -0.0884617418050766, -5.311739921569824, 3.0491626262664795, -1.6695308685302734, -4.1884331703186035, -4.611278533935547, -4.020116806030273, -0.38462865352630615, 3.9150397777557373, -1.9895670413970947, 0.9565541744232178, -1.1651781797409058, -0.3767610490322113, -1.2511096000671387, 0.5818216800689697, -2.267171859741211, 0.7046352624893188, 1.290582537651062, -1.698221206665039, 1.4920580387115479, 0.10260452330112457, 0.5395623445510864, -0.28210851550102234, 0.29374435544013977, -0.12935373187065125, 2.5303940773010254, 0.2679295837879181, -4.040114402770996, 0.8977352976799011, -1.6044321060180664, 0.42204955220222473, -0.9057132601737976, -1.840883731842041, 1.331146478652954, 1.571436882019043, 1.557358980178833, -0.7044436931610107, 4.942495346069336, -1.0717315673828125, -1.7709819078445435, 4.010095119476318, -0.641623854637146, -3.0211355686187744, -1.1249445676803589, -1.6462583541870117, 1.6570720672607422, -0.8279495239257812, 1.9978810548782349, 5.3278584480285645, -0.6158239841461182, 1.0912023782730103, 0.06015915423631668, 0.8491821885108948, -1.2354991436004639, 4.6354498863220215, -2.317782163619995, -2.9153904914855957, -0.7910969853401184, -0.16817374527454376, 3.196650981903076, -5.225312232971191, 2.093142032623291, -0.6754143238067627, 2.429170608520508, 2.41931414604187, 0.5527629852294922, 0.7711772918701172, -1.2644882202148438, -2.2689409255981445, 1.5849888324737549, -2.846735715866089, -5.640383720397949, 0.6729801893234253, -1.3662714958190918, -1.1938185691833496, 2.6703317165374756, 1.3182240724563599, -0.6563456654548645, -0.7721064686775208, 1.300323724746704, 0.9866914749145508, 0.3331128656864166, 2.30893611907959, 0.4909055233001709, 1.0359866619110107, -2.4516937732696533, -2.3703787326812744, -0.6733642220497131, -2.180861234664917, -6.237587928771973, -1.5427910089492798, 0.07966435700654984, 3.3777003288269043, -2.7491843700408936, 3.4633371829986572, -3.512957811355591, 4.835433006286621, -3.121725559234619, -7.928775787353516, -0.27963000535964966, -2.722512722015381, 2.8070876598358154, -2.1421613693237305, 1.3635979890823364, 1.0695570707321167, 0.2709237039089203, 4.597464561462402, -1.5776690244674683, -5.983607292175293, -4.0325703620910645, -0.8189982175827026, -1.801274299621582, -1.5783346891403198, -1.5330690145492554, -2.4246578216552734, -1.0015583038330078, -1.1433074474334717, -1.2902145385742188, 2.3903844356536865, 0.46785321831703186, 4.050285816192627, 0.3932717442512512, 1.6204601526260376, -0.4854744076728821, 0.10989072918891907, 1.4237775802612305, 0.19837352633476257, -0.8085429668426514, 1.3446807861328125, -2.194540500640869, -1.4938737154006958, -0.7419488430023193, -4.746631145477295, 2.2196428775787354, -0.7704446315765381, 1.2122608423233032, 2.0126991271972656, -2.5494964122772217, -1.317823886871338, -0.6424202919006348, 0.01445386465638876, 3.797008514404297, -1.1630812883377075, 0.11063291877508163, 3.755811929702759, -3.5495293140411377, -1.2478073835372925, -0.38058972358703613, 2.3235089778900146, -1.347537636756897, 3.567824602127075, 2.8474647998809814, -2.758836030960083, 0.04853016138076782, 0.028944723308086395, 0.02121460996568203, -1.115775227546692, -1.6110060214996338, -1.2537704706192017, 3.2871792316436768, -1.3850510120391846, -3.903200387954712, 0.7747943997383118, -0.07297901809215546, -0.15073856711387634, -0.6127821207046509, 0.5837123990058899, 1.343222737312317, -3.3856804370880127, 2.300804376602173, 0.32886478304862976, 3.6300559043884277, -2.036489486694336, 0.039691999554634094, -2.53517484664917, 2.4076387882232666, -3.078077793121338, -4.0334882736206055, -2.091749429702759, -0.21044932305812836, -0.6625034213066101, -2.7028753757476807, 0.7241267561912537, 3.079892158508301, 2.636002540588379, -1.5805734395980835, -3.2634408473968506, -2.415647268295288, -3.3234641551971436, -6.249350070953369, -0.4259115159511566, 1.7911616563796997, -1.522686243057251, 1.5489816665649414, -1.5805714130401611, 0.7726328372955322, -0.49556964635849, -2.3807804584503174, 0.8463619947433472, 0.3418170213699341, 1.5734838247299194, -0.0801200345158577, 2.142512798309326, 1.9373849630355835, -0.17880791425704956, -0.7219715714454651, 1.602836012840271, 0.3491111695766449, -0.11275482922792435, -1.1959043741226196, -4.535280227661133, 4.329015254974365, 5.422619342803955, 1.5786592960357666, 2.758357048034668, -1.5558123588562012, -2.4068782329559326, -2.646118640899658, 2.739051342010498, 0.31096816062927246, 0.6357969045639038, -1.548815131187439, 0.045677367597818375, -3.0461232662200928, 0.8876334428787231, -1.9596964120864868, -6.227836608886719, -7.049844741821289, 1.1095212697982788, -0.07141654938459396, -5.658109664916992, -4.026268482208252, 3.1233296394348145, -2.8822131156921387, 0.7487766146659851, 0.18031474947929382, 0.19875939190387726, -5.728216648101807, 2.388035297393799, 0.9747036099433899, -5.09055757522583, 0.9257140755653381, 3.5482089519500732, 5.543088436126709, -0.2624111771583557, -1.6957746744155884, 0.6705975532531738, 0.4376447796821594, 0.47566771507263184, 1.117457628250122, 0.00797670055180788, 4.136337757110596, 1.7008553743362427, -6.188809871673584, -3.783879280090332, -8.395842552185059, -3.0521209239959717, -0.2963526248931885, -5.15919828414917, 1.402623176574707, 1.9078768491744995, -1.292929768562317, 2.903737783432007, 2.6484289169311523, -5.213700294494629, 1.1543163061141968, -2.3840315341949463, -5.9214348793029785, -5.4725661277771, 1.2836204767227173, 1.4463438987731934, 2.3316824436187744, 2.3475048542022705, 2.8627090454101562, -2.3561344146728516, -0.33936023712158203, 1.3907098770141602, 0.7798064947128296, -5.356323719024658, 1.8012487888336182, 4.968277454376221, -1.4262250661849976, 0.024033144116401672, 0.5778886079788208, -2.2359261512756348, 1.069396734237671, 0.21808935701847076, 1.7865769863128662, 0.9249517321586609, -1.4247428178787231, 1.3838201761245728, -1.849224328994751, 0.36125364899635315, -1.352663278579712, 2.9331631660461426, -2.5282492637634277, -0.6312569379806519, -0.22770258784294128, 1.6254706382751465, 5.153916358947754, 1.0700039863586426, 1.687684178352356, 0.20941272377967834, -0.03729802370071411, 6.228032112121582, 1.7460215091705322, -0.990056037902832, 0.8733065724372864, -1.7400327920913696, 2.2106058597564697, 2.434492588043213, 0.329949289560318, 3.2535560131073, -1.1452407836914062, -1.2503098249435425, 2.8879241943359375, -1.4585262537002563, -11.089967727661133, -1.6600772142410278, -0.12806396186351776, -1.312736988067627, 0.8902406692504883, -3.564091205596924, 2.70902419090271, -1.4515247344970703, -0.4387172758579254, 0.21980071067810059, -2.4929614067077637, -1.218053936958313, 1.5507092475891113, -1.4991101026535034, -3.6898622512817383, 0.09492908418178558, 0.006811246741563082, 0.3622871935367584, -1.083229660987854, 0.8317212462425232, 0.679354727268219, 1.265660047531128, -1.122377634048462, -4.144171714782715, 3.2803239822387695, -2.8367738723754883, -2.160222291946411, -0.09652899950742722, 0.007164120674133301, 0.3503594696521759, 2.2823190689086914, 0.8668695092201233, 0.348949670791626, 1.8944096565246582, 0.39704352617263794, 0.8725494742393494, -1.5164233446121216, 0.5749334096908569, 1.730681300163269, 3.125096559524536, -0.10850866883993149, 2.54531192779541, 0.37998268008232117, -0.9933375120162964, 4.920889377593994, 4.777292728424072, -3.247972249984741, -3.6303322315216064, 4.237600803375244, -3.5937435626983643, 0.5356041789054871, -4.763784408569336, -2.3962316513061523, -1.3789867162704468, -2.6274876594543457, -4.630519866943359, -3.223369598388672, -0.23749102652072906, -2.873563051223755, 2.4518535137176514, 3.5388386249542236, 1.0157026052474976, -2.7690722942352295, 0.2217792421579361, -1.0997058153152466, 1.0696136951446533, 3.6186578273773193, 1.4126255512237549, -1.3341786861419678, -0.594785213470459, -0.47492700815200806, -0.6184701919555664, -0.4186919331550598, -0.9797887802124023, -0.16672934591770172, 4.218741416931152, -3.7193081378936768, -0.033221952617168427, -0.19931107759475708, -4.515457630157471, 0.2515130639076233, -4.518916130065918, 3.69512677192688, 4.616567611694336, -1.2743827104568481, -6.33738899230957, 0.3445013463497162, 0.8834548592567444, 0.5655245780944824, -0.7827870845794678, -0.001297489507123828, -0.20168811082839966, 2.080301523208618, 1.6878430843353271, 3.6288695335388184, 5.0004119873046875, 0.8643534779548645, -3.890475273132324, -2.0885047912597656, 3.8605306148529053, -1.1991643905639648, -3.437289237976074, -2.89755916595459, 3.3739562034606934, 4.103264808654785, 1.3983534574508667, -3.310486078262329, 0.37263578176498413, -1.3665094375610352, -1.1236566305160522, 1.39363431930542, -5.2390289306640625, 0.09258261322975159, -3.768342971801758, 0.6893183588981628, -4.64740514755249, 1.8653724193572998, -2.2027411460876465, 0.5207101702690125, 6.134788513183594, 0.429048091173172, 1.9154478311538696, 0.5261662006378174, 6.576366901397705, 0.6521022915840149, 2.1058456897735596, 0.7392255067825317, 2.13747239112854, 2.299598455429077, -1.4768481254577637, -2.287242889404297, -0.262101411819458, -0.7792311310768127, 0.5725871920585632, -3.7143568992614746, 1.9821970462799072, -8.748735427856445, -1.9109089374542236, -2.955012083053589, -3.03151798248291, 4.091583251953125, -0.05600587651133537, -0.7322292327880859, 1.2273577451705933, 3.586940288543701, -0.33311763405799866, -0.5283909440040588, -4.496821880340576, -2.4865875244140625, -1.6972812414169312, -1.2998839616775513, 0.16455015540122986, 2.3833038806915283, 0.9675169587135315, -1.2382038831710815, 1.3668553829193115, 0.09435531497001648, -1.6137458086013794, -0.9229917526245117, -1.6175178289413452, -3.156141996383667, 1.6251884698867798, 2.470754861831665, 3.0462019443511963, -1.307869553565979, -2.455501079559326, -1.8965752124786377, -4.388641834259033, -4.507874011993408, -2.341923713684082, -1.2414158582687378, -2.9515297412872314, -3.414491891860962, -5.596031665802002, 0.9688329696655273, 1.3716459274291992, -6.4626054763793945, 1.4672608375549316, 4.568790912628174, 1.171586275100708, -0.5108656287193298, 4.574869632720947, -0.5123175382614136, 2.076504707336426, -2.6871609687805176, 0.770637035369873, 0.7239107489585876, -7.289059162139893, -0.14379072189331055, -0.7363448143005371, -3.1436915397644043, 4.700249195098877, -0.1303739845752716, -2.4751524925231934, 2.4015750885009766, -1.6752947568893433, 0.7969608902931213, 3.8451285362243652, 1.5386475324630737, 0.47492024302482605, 1.0754443407058716, -2.7215797901153564, 4.487011909484863, 0.8069528341293335, -1.1781266927719116, 1.1433779001235962, -1.076677680015564, -0.9111997485160828, -0.3213109076023102, 0.5619046092033386, -2.758819580078125, -0.95868319272995, 1.8064661026000977, -1.292413353919983, -3.515378952026367, 1.4798563718795776, -3.3161776065826416, 0.39061033725738525, 0.5978218913078308, -1.721133828163147, -0.01131516881287098, -1.4412996768951416, -7.7436676025390625, 0.6219390630722046, -0.23124538362026215, -0.5126845240592957, 0.6881516575813293, -3.6268653869628906, 3.140028476715088, 1.9025123119354248, -3.808957815170288, -1.0932459831237793, 5.353104114532471, -2.1400184631347656, 1.3558015823364258, 7.000214099884033, -0.2226303517818451, -3.1929118633270264, -3.7878451347351074, 0.06646817177534103, 1.010729193687439, -4.276904582977295, 4.149489402770996, -1.3659965991973877, 4.213357925415039, 1.893486499786377, 5.983023643493652, 0.9043466448783875, -4.925704479217529, 0.2375030815601349, 1.6335184574127197, 0.7200953960418701, -3.1152920722961426, -7.092369079589844, -3.2748923301696777, -2.4084877967834473, -0.35747653245925903, -0.5251322388648987, 5.639902591705322, 3.570671319961548, -1.248998999595642, -6.29323148727417, -1.2388637065887451, -6.084959030151367, -5.979597091674805, -1.5099250078201294, 2.5966591835021973, 5.9057698249816895, -2.418266534805298, 6.599117755889893, -1.1157093048095703, -2.70249080657959, 2.9421956539154053, 3.0691397190093994, -2.81499981880188, 2.140739679336548, -1.7163485288619995, 2.4372141361236572, 0.007515044882893562, -0.13149745762348175, 2.852518320083618, 0.6308278441429138, 0.05544843524694443, 2.429262161254883, 1.8870919942855835, 0.26068007946014404, 3.607625961303711, 3.3135225772857666, 0.31512388586997986, -1.4389022588729858, -4.0224151611328125, -1.8585180044174194, 0.7028569579124451, -0.2525826692581177, 1.2279372215270996, 1.4114986658096313, -0.3291971683502197, 2.605801820755005, -7.091220855712891, -1.1375725269317627, -0.3933315575122833, 0.029284188523888588, 2.6220157146453857, -1.0384236574172974, 1.7711045742034912, -5.143634796142578, -4.0643696784973145, 1.8215724229812622, 1.4933503866195679, -0.2816239595413208, -0.6895601153373718, 3.6690964698791504, -8.92945384979248, 2.903876543045044, 1.0305434465408325, -0.16837061941623688, 0.7231563329696655, -0.18624916672706604, -2.2005350589752197, 4.033385753631592, -1.9122234582901, -0.7462479472160339, -2.1297144889831543, -0.03626908361911774, 2.210878372192383, 0.5240374207496643, -0.03198811411857605, 3.323699474334717, 2.4559779167175293, 0.16369114816188812, 1.8725404739379883, -2.8683671951293945, 4.108583450317383, -1.464261770248413, -1.4146091938018799, -1.907887578010559, -6.473813533782959, 2.0012047290802, 3.5748507976531982, 0.01671617478132248, 2.273561716079712, 1.69977605342865, -0.7338337302207947, -1.8312844038009644, -1.1855888366699219, 2.017854928970337, 5.160449028015137, 4.376270771026611, 1.2464148998260498, -3.715287208557129, 0.8025994300842285, -0.8691980242729187, -2.5346312522888184, 1.576582908630371, -2.9338746070861816, 1.5906553268432617, -2.063892126083374, 0.48283371329307556, -5.300995349884033, -3.896106004714966, 0.5894297361373901, -0.8220887780189514, -0.6286386847496033, 2.7993667125701904, 2.961651563644409, 0.3280348777770996, 1.2610150575637817, -2.155790328979492, -0.6679447889328003, -0.7283775806427002, 1.8072271347045898, 0.06904514133930206, -1.602046012878418, -0.7942217588424683, -2.1244583129882812, -0.07871012389659882, -1.9901747703552246, 3.4069716930389404, 4.099837303161621, -2.552398443222046, 2.330369234085083, 1.7435224056243896, 0.9326344132423401, 1.132501482963562, -3.8027162551879883, -0.5654336810112, -0.6008642911911011, -3.264411687850952, -2.703322410583496, -1.1650358438491821, -0.8564072847366333, -4.411208629608154, 0.6968688368797302, 0.02204209379851818, -1.5882422924041748, 1.2370126247406006, -2.0051941871643066, 2.354414939880371, -0.23253457248210907, -2.3179004192352295, 2.4209439754486084, 0.4392089247703552, -0.7786841988563538, 2.4115631580352783, -0.6007729172706604, 1.6325747966766357, 2.199918270111084, -1.399763822555542, -4.0906291007995605, 2.7703986167907715, -1.69246506690979, -1.9117059707641602, 1.4367263317108154, -5.938037395477295, 0.9296664595603943, 2.0610692501068115, -0.24020028114318848, -2.2625837326049805, -0.5186500549316406, -1.936213731765747, -1.7132468223571777, 1.0380514860153198, -2.217726945877075, -5.48327112197876, -5.979665756225586, -3.1876940727233887, -1.4147108793258667, -4.939241886138916, -4.1144304275512695, 1.7150958776474, -0.8932062983512878, 4.399620532989502, 3.8517162799835205, 1.4995235204696655, 1.229702353477478, 0.6554769277572632, 4.203568935394287, -2.5091915130615234, 0.13028550148010254, 3.255836248397827, -5.371850967407227, -2.4107935428619385, -0.9297186732292175, 2.3864457607269287, 0.22717033326625824, -1.580809473991394, 0.17041437327861786, -1.1996164321899414, -6.387977600097656, -2.5280275344848633, 1.297859787940979, 5.721047878265381, -4.602377414703369, 5.542733669281006, 3.2246291637420654, -1.6808905601501465, -4.1010613441467285, -3.2521564960479736, 0.08388949930667877, -4.451974391937256, 1.3421695232391357, -0.904282808303833, 2.065643310546875, 2.6788487434387207, -3.9365274906158447, -1.736712098121643, -3.1083312034606934, -0.5144914984703064, 1.1285008192062378, -1.5608727931976318, -1.3088361024856567, 0.8774049282073975, -0.5983148813247681, -2.3944625854492188, 3.6291370391845703, -3.598356246948242, -0.34560924768447876, 3.312941551208496, -0.7942573428153992, 2.710571050643921, -2.208669900894165, -2.2182703018188477, -1.0685746669769287, 1.466295599937439, -4.524998188018799, 1.3965214490890503, 0.18298834562301636, -8.344871520996094, 2.292520761489868, 0.10454324632883072, 1.9708541631698608, -2.1057848930358887, -1.38816237449646, -0.16180241107940674, -4.034260272979736, 0.03639870136976242, 8.799176216125488, 5.106727123260498, -3.38320255279541, 1.2370797395706177, -7.044113636016846, -1.3486000299453735, -3.4077329635620117, -2.456449508666992, -2.83320951461792, -1.9874749183654785, -0.2482939511537552, 2.542994499206543, -2.4497971534729004, 1.9198133945465088, -0.0342673696577549, -3.487715482711792, 2.3200950622558594, 2.0124056339263916, 2.6717231273651123, -2.616960287094116, 1.8370859622955322, -2.3719890117645264, 1.5996781587600708, -4.415503978729248, -3.475013017654419, 3.9204139709472656, -1.8110681772232056, -0.2268279790878296, 1.5590327978134155, 4.7981061935424805, 2.388805866241455, 0.1854344755411148, 4.686639785766602, 3.842526435852051, -2.585068464279175, 1.0581884384155273, 3.849186897277832, -3.067629337310791, -3.305295705795288, -1.5171552896499634, -0.9617134928703308, -3.630314826965332, 1.0715011358261108, 3.960167646408081, -0.8182911276817322, 0.7128368020057678, 3.973834991455078, -1.1966638565063477, -0.6348313689231873, -2.32973313331604, 4.254858493804932, -1.86910080909729, 2.190882444381714, 3.6778600215911865, 1.9196463823318481, 0.8188925981521606, -3.864948034286499, -1.5397688150405884, -0.45617005228996277, 1.777497410774231, 3.378476142883301, 0.6017066836357117, -5.080495357513428, 0.2877335250377655, 1.0979264974594116, -5.268794059753418, 0.16032490134239197, 0.8606747388839722, 4.036340713500977, -2.2990872859954834, -0.1908571869134903, -3.7405638694763184, 0.8927292823791504, -0.396328866481781, 4.2229228019714355, 2.294342279434204, 1.8044594526290894, 1.7527024745941162, -0.08836673200130463, -1.6594550609588623, -1.5651437044143677, -1.0955636501312256, 2.270909547805786, -0.985682487487793, -0.25515902042388916, 2.0849361419677734, -1.101468563079834, -2.428619146347046, -0.21748948097229004, -1.7414995431900024, 5.416093349456787, -0.8640738725662231, -0.9242473840713501, 1.3937619924545288, 0.4150546193122864, 3.8271515369415283, 2.9895541667938232, -7.044543266296387, -3.486030340194702, -2.0796115398406982, -2.3037965297698975, 0.9613052606582642, 3.1570851802825928, -3.6430814266204834, 1.2444008588790894, 1.574299931526184, 2.3713231086730957, -1.5199812650680542, 0.8752862215042114, 1.7265517711639404, 4.1045145988464355, -0.6484729647636414, -2.7571146488189697, 1.428076148033142, -1.2583765983581543, 0.7599472999572754, 1.3341346979141235, 1.9432296752929688, -0.4781610369682312, 1.78260338306427, -1.7340960502624512, 2.991408348083496, -0.1289743334054947, -7.751373767852783, 3.522716522216797, -3.6016757488250732, 4.825173377990723, -4.1861395835876465, -0.5657780766487122, -0.8883989453315735, 2.4026689529418945, 0.27888023853302, -3.027708053588867, 0.015485848300158978, -2.4741127490997314, -4.975508213043213, -0.033377040177583694, -0.47566238045692444, -0.8193764090538025, -2.695122241973877, -1.1312302350997925, 2.733024835586548, 2.412771701812744, -0.1089758425951004, 4.344333171844482, -1.7346974611282349, 0.9525638222694397, 1.5729812383651733, -8.160187721252441, -1.931557059288025, -2.3580825328826904, -1.4280750751495361, -2.5293147563934326, 1.0275039672851562, 0.8228601217269897, 7.163207054138184, -0.7008012533187866, 3.881939172744751, -0.09566192328929901, -6.563730716705322, -4.157559394836426, -1.5251410007476807, 2.7201590538024902, 1.4400618076324463, 3.9659929275512695, 1.2865455150604248, -5.663621425628662, -3.6322782039642334, -3.916067361831665, -0.8766109347343445, -1.8985822200775146, 4.058485507965088, -2.6803505420684814, -0.7109130620956421, 2.9968276023864746, -0.9131634831428528, 3.4548747539520264, -0.7543947696685791, 0.41037774085998535, 0.3118310868740082, 0.8487240672111511, -0.7494893670082092, -3.5809519290924072, -3.255056142807007, 6.121913433074951, -5.017894744873047, 4.1181182861328125, -0.6233227252960205, -1.0297083854675293, -0.31004461646080017, -2.4633450508117676, 0.17935681343078613, 4.491397380828857, 2.806950807571411, 1.3042410612106323, -4.032413482666016, 0.7052357196807861, 1.5311864614486694, -1.755772590637207, 0.06706961989402771, 1.285644769668579, 2.2126030921936035, 0.6405784487724304, -0.36285942792892456, 0.4550112187862396, 6.6438493728637695, -2.7074637413024902, -0.4514673948287964, -4.384790420532227, -1.063327670097351, -7.572315692901611, 0.9160221219062805, 1.8033100366592407, 1.2915412187576294, 1.0291019678115845, 2.0970306396484375, 4.22191858291626, -3.2343592643737793, 1.0243085622787476, 0.9694730639457703, 2.1002376079559326, -4.1545867919921875, 0.0037307394668459892, -0.3035360872745514, -0.6916065216064453, -4.88493537902832, 1.229764699935913, -1.64999520778656, -0.07151078432798386, 0.17229755222797394, 2.4073541164398193, 3.4912168979644775, -2.6787679195404053, -0.38225629925727844, -5.798733234405518, 3.3012452125549316, 3.1601295471191406, -1.3813587427139282, -4.3453874588012695, 0.9897068738937378, -2.8688626289367676, -1.2538596391677856, -0.8824946284294128, -2.835930347442627, 1.9894113540649414, 2.006861925125122, -8.56420612335205, 2.5204436779022217, -1.8293097019195557, -1.255449891090393, 0.8583208918571472, 0.49531620740890503, -4.030349254608154, -2.660142183303833, -1.5448765754699707, 1.264206886291504, 0.17550645768642426, -2.5286524295806885, -0.3810681104660034, 2.1023857593536377, 0.04028433561325073, -2.926114082336426, -2.386296510696411, -1.7053323984146118, -4.748927593231201, 1.1116467714309692, -1.322454571723938, -1.0829132795333862, 0.05754008889198303, 2.3665733337402344, 1.5378549098968506, -0.5882610082626343, -2.57122540473938, 2.630673885345459, 1.9228382110595703, 1.5019320249557495, 2.5522890090942383, -1.9182097911834717, 0.2947482168674469, -2.0854651927948, 0.6689121127128601, -2.063516139984131, 0.24137552082538605, -1.6541180610656738, -0.14334622025489807, 3.772343635559082, 2.25523042678833, 0.45268937945365906, -1.8941785097122192, 1.6903289556503296, 1.0146267414093018, 0.1962279975414276, -4.612631320953369, -3.0492138862609863, 1.6192296743392944, -4.430724620819092, -3.5579965114593506, -2.2533366680145264, -1.1536847352981567, -1.1643624305725098, -4.259887218475342, 1.4511905908584595, 0.4776378273963928, -6.809183597564697, -2.0239129066467285, 2.4041690826416016, -9.321735382080078, 2.300875186920166, 4.292069435119629, -2.2126100063323975, -1.907852292060852, 2.910027027130127, -3.6382200717926025, -3.2609617710113525, -0.7654921412467957, 0.14125622808933258, 0.044419173151254654, 0.6974400877952576, 2.8894238471984863, 1.458463191986084, 0.8411408066749573, -3.368504524230957, 5.509995460510254, -1.4325010776519775, 4.454218864440918, -0.10992603003978729, -0.08624330908060074, 1.4969195127487183, 3.035233974456787, 1.4201167821884155, 2.035952568054199, -5.274442195892334, -0.03842335566878319, -2.841477870941162, -1.642623782157898, -4.8479180335998535, -0.9095960855484009, 1.3722251653671265, 4.094500541687012, -0.3545451760292053, -2.3867740631103516, -0.6153935194015503, -0.25650349259376526, -4.502142906188965, 0.9465519189834595, -4.632453918457031, -0.722179114818573, 2.7268998622894287, 0.5644565224647522, 2.794172525405884, 0.039708975702524185, 0.2163964807987213, 1.2811999320983887, 1.9461660385131836, -7.728653907775879, -1.664289951324463, 3.6803598403930664, 2.4912986755371094, 3.6450276374816895, 1.026718020439148, -1.1100620031356812, -1.348620891571045, 1.0477579832077026, 1.0406354665756226, 3.5587258338928223, 2.7854135036468506, -1.6299610137939453, 0.48320430517196655, -2.076540946960449, -1.9959913492202759, -3.216768741607666, -0.1330314427614212, -0.5086298584938049, 4.795028209686279, 1.1366313695907593, 4.337328910827637, -2.6128506660461426, -0.8118256330490112, -2.765242576599121, 4.553424835205078, -1.3995367288589478, 0.04276948794722557, -1.0532671213150024, 2.9005379676818848, 1.441995620727539, -3.2044594287872314, 0.417599081993103, 0.9230955243110657, -0.5792335867881775, -2.777358293533325, 1.356540322303772, 0.8925690054893494, 0.07267643511295319, 1.2102482318878174, -0.2542136609554291, 2.0201525688171387, -0.940142035484314, -3.024712085723877, -3.1931674480438232, 4.4181928634643555, -1.822595477104187, 0.23726455867290497, -0.2284649908542633, -4.33768367767334, 1.2086008787155151, 2.567082405090332, -1.9609324932098389, -2.9260470867156982, 0.6711460947990417, -3.8111650943756104, -4.10820198059082, 1.880497932434082, 0.3337475657463074, -0.8879735469818115, 1.1636977195739746, 1.6673916578292847, 0.09292175620794296, 3.2506465911865234, -5.081171989440918, 0.8906320929527283, 2.5339155197143555, -1.3250038623809814, -1.7307919263839722, 3.630424976348877, 5.635043144226074, -0.5922671556472778, -1.4245280027389526, -2.6792516708374023, -7.240298748016357, -4.482475757598877, -0.5985996723175049, 3.7754883766174316, 2.1719014644622803, 9.670897483825684, -3.4188976287841797, 5.58793830871582, -1.1324522495269775, -3.8333189487457275, -0.32127293944358826, -0.2766355574131012, 4.206169128417969, -4.9158430099487305, 0.27606552839279175, 1.3898035287857056, 1.3396296501159668, 3.283864736557007, -2.949977397918701, 0.3559745252132416, 1.3942112922668457, -0.3633386194705963, -0.8741604089736938, -4.112573146820068, 0.3217179775238037, 0.021398723125457764, -2.1525514125823975, -0.9699098467826843, -3.4591846466064453, 2.0728297233581543, -2.478140115737915, 0.10999279469251633, -3.9429409503936768, 0.7262075543403625, 0.5866115689277649, 1.3852521181106567, 1.2182554006576538, -0.41832584142684937, 1.5038869380950928, 0.8578212261199951, 2.061136484146118, -2.5277371406555176, 0.05404449254274368, -3.0635838508605957, -6.703161239624023, -3.014974594116211, 5.7537102699279785, 3.466647148132324, -1.0516594648361206, -1.500529408454895, -2.162790298461914, -1.0852280855178833, -3.6684985160827637, -0.434897243976593, 3.8427374362945557, 2.346186399459839, -6.167007923126221, 1.5472303628921509, 0.9575474858283997, 1.5388264656066895, 0.21178627014160156, -1.8156880140304565, 1.0089706182479858, 0.5577741861343384, 0.4946554899215698, 2.301539421081543, 2.183079481124878, 4.374195098876953, -2.6891722679138184, -4.70302152633667, 5.335757732391357, 0.5480514764785767, -3.1739413738250732, -0.43283671140670776, 1.1395456790924072, 0.35276028513908386, -2.324761390686035, 3.752699851989746, -3.230668783187866, -1.7784836292266846, 0.8438490033149719, 1.6435730457305908, -0.8418384790420532, -4.985469341278076, -3.9946913719177246, -1.1046022176742554, -1.076569676399231, -3.002270460128784, -1.8524941205978394, -0.6953949928283691, -0.16926530003547668, 2.4044511318206787, 1.0267258882522583, -0.9681154489517212, 4.098495960235596, 0.9708410501480103, -3.7465109825134277, -4.366968154907227, -0.19275817275047302, -0.6868104934692383, -3.2834267616271973, 3.2938499450683594, 0.9711980819702148, 3.2842953205108643, 0.4172278642654419, -5.094133377075195, 3.512817859649658, 3.594921112060547, -3.1777265071868896, 1.1219574213027954, -1.9957417249679565, 2.369307041168213, 3.501614570617676, 3.048933982849121, 2.610553503036499, -4.405252456665039, -4.116310119628906, -1.969866156578064, -1.8757574558258057, 1.2751606702804565, -1.5596810579299927, -3.4653427600860596, -0.4205614924430847, 4.922668933868408, 6.83064079284668, 2.0374813079833984, 0.6981669664382935, -4.047318458557129, -2.608013153076172, 2.96091890335083, -0.8395605087280273, -1.7273147106170654, -1.6107505559921265, -6.203084468841553, 0.37282422184944153, -4.014328479766846, -2.5866518020629883, 1.6434394121170044, 1.3429405689239502, -2.499619960784912, -5.993788719177246, -4.83642053604126, -4.242897033691406, 3.987666368484497, -2.208204746246338, -0.8253880143165588, -1.5531278848648071, -0.056817732751369476, -4.127965927124023, -0.10653899610042572, 1.1991370916366577, -5.105570316314697, -6.370797157287598, -11.085911750793457, -0.8484804034233093, -1.4517662525177002, -1.6537688970565796, 2.6481378078460693, -1.1176847219467163, 7.099504470825195, -0.5311806201934814, -3.8365478515625, 3.9088237285614014, 0.023296887055039406, -2.5178558826446533, -4.037309646606445, 2.4449565410614014, -2.4429728984832764, -2.1983025074005127, 0.8434749841690063, -4.618565559387207, 5.41860294342041, -0.32968077063560486, 2.095881462097168, -4.320312023162842, 1.8904892206192017, 3.077691078186035, 3.335939407348633, 1.4716264009475708, -2.215198516845703, 4.338943958282471, 0.8282743692398071, 0.17664821445941925, 0.09120412915945053, -0.6437673568725586, -3.6088922023773193, -0.6214382648468018, 1.210256814956665, 2.1668291091918945, -0.9914391040802002, -4.056812286376953, -1.9741429090499878, -7.238893508911133, -1.6743323802947998, 4.759950637817383, -1.057993769645691, 2.9409267902374268, -0.38540616631507874, -1.0086454153060913, -0.7874255776405334, 1.0405617952346802, 0.14893406629562378, 2.3155786991119385, 2.5328969955444336, 0.7576439380645752, 2.610861301422119, -0.6848345994949341, -0.5832639932632446, -7.104481220245361, 3.2240939140319824, -4.611640930175781, -0.47455042600631714, -2.498802661895752, -0.2746928334236145, 0.2417048215866089, 3.7727034091949463, -0.05474543571472168, 1.8669673204421997, 0.8254202008247375, 1.1973413228988647, 1.4421216249465942, 2.176880359649658, 2.088383436203003, -2.535761594772339, -0.3279482126235962, 1.6449710130691528, -1.460158109664917, -0.5885408520698547, -6.115714073181152, -3.847109079360962, 2.5793797969818115, 1.1039434671401978, 3.8566031455993652, -1.0679556131362915, 2.865405797958374, 1.713928461074829, -1.385844349861145, 2.055053234100342, -4.567428112030029, -3.658827304840088, 2.050588369369507, -5.835464000701904, -3.1213042736053467, 1.4794442653656006, -0.07355235517024994, -1.3312631845474243, -1.013100504875183, 0.1730065643787384, 2.221440315246582, -0.3927789628505707, -1.8286006450653076, -6.008119583129883, -1.6648942232131958, -0.6791203618049622, -0.47953131794929504, 2.4401021003723145, -2.9625892639160156, 0.4928187429904938, 1.3087313175201416, 0.8738667964935303, 1.2449679374694824, 0.2107231616973877, 1.3295671939849854, -0.5098829865455627, 6.72968053817749, 2.0015976428985596, 1.705242395401001, 3.159966468811035, 0.13624230027198792, 1.617951512336731, -2.6468467712402344, 0.08605080842971802, 3.715090751647949, 0.20692451298236847, 6.833565711975098, -3.454756021499634, 2.9561009407043457, -5.202425956726074, -2.5904126167297363, -2.7435836791992188, -1.0381828546524048, -0.1718267798423767, 0.7678897976875305, -2.200538158416748, 0.6921130418777466, -3.1714203357696533, 2.254004955291748, 2.373239278793335, 1.1751728057861328, -3.4995005130767822, -3.2162723541259766, -5.132870674133301, -3.1788315773010254, 0.5098952054977417, 4.59937047958374, -1.1112735271453857, -6.135078430175781, -1.461063265800476, -5.717705249786377, 0.954448938369751, 0.432571679353714, 0.4748394787311554, 1.3925398588180542, 3.3076815605163574, -2.364614486694336, 5.305008411407471, -6.184319972991943, -2.3151557445526123, -1.905970573425293, -2.4596266746520996, 2.549684762954712, 0.280693382024765, -1.032652497291565, -1.7716692686080933, 2.179089307785034, -4.948576927185059, 2.9025015830993652, -2.0547304153442383, 0.13169659674167633, 2.9903953075408936, 0.9509323835372925, 3.534127950668335, 1.4536669254302979, 3.4192955493927, 0.21263237297534943, -1.206959843635559, 0.3430134654045105, -3.036823034286499, -0.7726219296455383, -6.857361316680908, -3.250767707824707, -1.264949083328247, -6.333313465118408, -1.2317050695419312, -0.6185763478279114, 4.464287281036377, 2.8622379302978516, 4.066337585449219, 1.1381372213363647, -4.427943706512451, 1.5745763778686523, 1.8850953578948975, 2.3278651237487793, -0.2904547154903412, 0.3447107672691345, 3.761068344116211, -0.9939178824424744, 0.685322105884552, -3.1370773315429688, 1.8822426795959473, -3.296454906463623, -1.9591844081878662, -1.7478443384170532, -1.7449727058410645, -0.8681530952453613, -1.604508638381958, 0.26880165934562683, -0.9501485824584961, -1.875731110572815, -2.4468271732330322, -0.1716366708278656, -1.2315545082092285, -2.022512197494507, 2.6717636585235596, -1.4789789915084839, -2.71071720123291, -1.8863744735717773, -1.7132145166397095, 2.463869094848633, 3.388277053833008, 0.13944782316684723, 3.2773056030273438, 2.848442792892456, 2.520768165588379, 0.413367360830307, -0.4166414439678192, -2.7802939414978027, -0.9477460980415344, 1.9548312425613403, -1.444612741470337, -2.957628011703491, -2.1527233123779297, -6.143691062927246, 3.7163479328155518, -1.7445151805877686, -1.0017576217651367, -1.1143606901168823, 1.418030023574829, 0.9828397035598755, 2.066093921661377, 3.5728633403778076, 3.4048666954040527, -3.6145060062408447, 3.6776208877563477, -1.4935442209243774, 2.065042495727539, 0.6848416924476624, 2.1835527420043945, -0.43312668800354004, 4.217015743255615, 1.9005868434906006, 1.6518912315368652, 1.2682918310165405, -2.245335102081299, -2.1629602909088135, 1.0063753128051758, 2.396925687789917, -0.7210355401039124, -3.2347054481506348, 7.069408893585205, 0.9559749960899353, -1.2313600778579712, -1.782270073890686, 1.427708625793457, -1.0387910604476929, -1.0547852516174316, -2.01843523979187, 0.9613932371139526, -2.5835416316986084, 2.8883402347564697, 0.2270125448703766, -2.5064406394958496, 4.5365986824035645, -0.2471943199634552, 3.936105251312256, -1.5422449111938477, 3.0062012672424316, 1.4197295904159546, 0.2045474499464035, 0.7863656282424927, 2.6826095581054688, 2.015363931655884, -1.7694164514541626, 0.964271605014801, 0.2686559557914734, -0.06517769396305084, 3.1474828720092773, 5.790866374969482, -3.6306591033935547, 1.849373459815979, 2.4464704990386963, 0.14655886590480804, -1.0496324300765991, -0.2653781473636627, -3.2527430057525635, 1.238529920578003, -0.8551781177520752, -0.3428827226161957, -1.8104798793792725, 0.8608313202857971, -2.453495502471924, -3.2267842292785645, -0.719460666179657, 0.6977537870407104, -0.02551870420575142, 2.0266358852386475, 8.291338920593262, -0.3750561475753784, -2.6384520530700684, 4.205496788024902, -1.531005859375, -1.1647990942001343, -0.16482514142990112, 3.5843353271484375, -1.6699775457382202, -1.6439952850341797, 1.2710845470428467, 6.48345947265625, -0.09459971636533737, -1.678087830543518, 2.5048277378082275, 0.6207216382026672, 1.5606689453125, 2.033414840698242, 6.073967456817627, 0.9279347658157349, 0.7526037693023682, -2.345207691192627, -1.334306240081787, 0.22753873467445374, -0.28343483805656433, -4.160835266113281, -3.5387752056121826, 0.0839780867099762, 2.8845407962799072, -1.7419883012771606, 3.3766210079193115, 2.773939609527588, 3.2338082790374756, -4.246136665344238, -2.8383431434631348, -1.7754567861557007, -0.13263143599033356, 1.3947864770889282, -1.0114829540252686, -1.2243167161941528, 0.30107739567756653, -4.474452018737793, 1.6934690475463867, 0.9125709533691406, 6.395653247833252, 3.170919895172119, -2.7750015258789062, 3.839564800262451, -0.7163955569267273, -0.4604170024394989, 2.7831027507781982, 0.5138332843780518, 0.8345314860343933, 0.5895711779594421, -3.3057148456573486, -1.3662464618682861, 3.093507766723633, -0.09717737138271332, 3.629338264465332, 1.7601900100708008, -0.41902393102645874, -4.598232746124268, 1.9396581649780273, 2.3613815307617188, -3.4806461334228516, -1.5397484302520752, 1.0838119983673096, 0.10864533483982086, 0.5681509971618652, -0.5411104559898376, -0.21338625252246857, -1.1434054374694824, 1.7378031015396118, 6.102949619293213, 1.496950387954712, -1.611093521118164, 3.8832099437713623, 2.7155842781066895, -2.3153514862060547, 2.3830771446228027, 0.13168317079544067, -3.162341356277466, -0.5108022093772888, 4.99151086807251, -0.5421373844146729, 1.6398823261260986, -3.0907058715820312, 0.9232316613197327, -0.7350866794586182, -0.12334612011909485, -7.538334846496582, -3.936312675476074, 3.177752733230591, 1.4007678031921387, 2.364802598953247, -2.919293165206909, -0.48273563385009766, 0.8930225968360901, -1.5625265836715698, 4.1027116775512695, -5.487158298492432, 0.11037837713956833, -2.9199378490448, 0.42777249217033386, 3.694972276687622, -2.8190653324127197, -0.44073426723480225, -1.2554142475128174, -4.025943756103516, 3.2292070388793945, -1.5046433210372925, -1.1873462200164795, 2.6521432399749756, 2.355043649673462, 0.4097078740596771, 2.659503221511841, 2.7244925498962402, 1.629799246788025, -0.5096477270126343, 4.959203720092773, 2.910568952560425, -6.077858924865723, -0.21467263996601105, -0.6993799805641174, 0.008201712742447853, 4.078075408935547, 2.0043137073516846, -3.2552192211151123, -2.5340864658355713, -0.8017666935920715, -0.56343674659729, 2.6448233127593994, 4.66046142578125, 0.19201798737049103, 0.394133061170578, -1.8993223905563354, 3.915958881378174, 3.902461290359497, 5.199813365936279, 1.7111210823059082, 1.296893835067749, -3.961542844772339, -10.440118789672852, 5.171018123626709, -2.9022834300994873, -3.1212329864501953, 1.1228468418121338, 2.844601631164551, -0.47024068236351013, 1.7646455764770508, -0.802912175655365, -5.466387748718262, 2.4829227924346924, -0.4656377136707306, -3.5786807537078857, 1.9018635749816895, -1.6218528747558594, 0.48491889238357544, -0.05425448715686798, -4.60322380065918, 0.20844583213329315, -0.8839607238769531, -0.8113094568252563, -2.399148464202881, -2.298593282699585, 1.3953319787979126, -0.9906599521636963, -0.3431234061717987, -0.04585809260606766, 1.792619228363037, -0.5840274691581726, 1.819262146949768, 1.3277145624160767, 0.8893962502479553, 2.1303975582122803, 1.5443856716156006, 1.2424290180206299, -0.8440985083580017, 1.6112799644470215, -0.4051593244075775, 2.070796489715576, -0.17912888526916504, -0.4058936536312103, 1.5504584312438965, 1.2018909454345703, -2.48441743850708, -0.3342564105987549, 0.37999892234802246, 1.5424433946609497, 0.8019961714744568, -1.325502634048462, -0.8090735673904419, 0.7519354224205017, 4.313492298126221, 0.7748595476150513, -6.224234104156494, -5.533174991607666, -3.3525497913360596, 1.272742509841919, -0.6486383080482483, -4.861240386962891, 3.243187665939331, -1.5830237865447998, 4.12458610534668, -1.2354823350906372, 1.9812724590301514, 1.1476771831512451, 2.882887601852417, -2.0735929012298584, 5.637151718139648, -5.675634860992432, 0.15319284796714783, 2.935040235519409, 5.015712738037109, -0.7035826444625854, -4.679799556732178, 2.1130590438842773, 2.1334290504455566, 0.26074838638305664, -2.6056694984436035, 2.04626727104187, -0.5387977957725525, 0.6768103837966919, -3.680324077606201, -3.5291318893432617, -0.1879243552684784, 2.9019417762756348, -1.0775564908981323, -0.8726491332054138, 1.3540213108062744, 0.2264179289340973, -5.801926136016846, -2.7708992958068848, -1.4158295392990112, 2.987015962600708, -3.6098713874816895, 0.2551974356174469, 0.795695424079895, -5.157308578491211, -0.9965137243270874, -6.967489719390869, -2.357060432434082, -2.3802149295806885, -6.560285568237305, 4.316702365875244, -2.0106794834136963, -0.8252930641174316, 2.0896098613739014, -2.1596546173095703, 0.8244460821151733, 1.1454377174377441, -1.7983289957046509, 0.3651076555252075, -2.0196101665496826, -1.7271074056625366, 0.06348714977502823, 2.0721285343170166, -2.7051286697387695, 1.6307324171066284, -5.515989780426025, -0.2505023181438446, 0.984510600566864, -0.1968047171831131, 3.3387057781219482, -1.8365694284439087, -1.2471872568130493, -3.8152546882629395, -2.738600492477417, -0.026035528630018234, 5.893411159515381, -0.25771915912628174, 3.2480766773223877, -9.519856452941895, -1.604006290435791, -1.5810611248016357, 0.9901785850524902, 4.280540466308594, -0.09438198804855347, 3.7537498474121094, 0.9419150948524475, -5.565583229064941, 2.2468509674072266, 4.411982536315918, 2.397526502609253, 5.118660926818848, 1.316161870956421, -1.1704636812210083, 1.7860732078552246, -1.2530584335327148, -3.3933370113372803, -1.4673917293548584, -2.9443628787994385, 1.564775824546814, 0.6161227822303772, -5.257697582244873, 0.0716274306178093, 2.5642571449279785, 4.408851623535156, 6.92896842956543, 2.457148790359497, 2.8702380657196045, 3.3045413494110107, -1.5797947645187378, -11.739185333251953, 3.125284433364868, 1.3282065391540527, 7.043909549713135, -2.9528393745422363, 4.937142372131348, 6.500709533691406, 3.210264205932617, -0.3285253047943115, 1.843570351600647, 1.0214791297912598, 4.103202819824219, -1.9146977663040161, 1.222236156463623, -0.5025252103805542, 0.4603756368160248, -5.4060139656066895, -1.0651835203170776, -1.8039321899414062, 7.1190032958984375, 0.5604172945022583, 3.796916961669922, 2.861560821533203, -9.701716423034668, -1.7727841138839722, -4.740898132324219, 0.32197362184524536, 1.374904751777649, -0.7481829524040222, -1.6728770732879639, -11.16034984588623, -2.824296712875366, -7.742745876312256, 1.7471214532852173, 1.8951808214187622, -4.3310065269470215, 1.9411207437515259, 1.229242205619812, 3.65828537940979, -1.9148931503295898, -5.819404602050781, -4.696626663208008, 10.963943481445312, 6.39070463180542, 1.340686559677124, -6.013452053070068, -5.409034729003906, 3.0571110248565674, -6.103797435760498, 3.395841121673584, -7.136695384979248, -1.8702045679092407, 2.63474178314209, -2.7491021156311035, -4.92440938949585, 2.4915268421173096, 2.452481269836426, -2.715599775314331, 0.2488759458065033, -8.225902557373047, -2.147068738937378, -0.4644230902194977, -5.392570495605469, 0.18380609154701233, 1.5248814821243286, 1.327078104019165, 1.5375781059265137, -0.7714866995811462, -1.3282557725906372, 5.277810096740723, -5.290975570678711, 2.4123895168304443, 5.441375732421875, 11.484999656677246, 1.185969591140747, 8.148092269897461, 1.4718952178955078, 2.981595754623413, 2.1962568759918213, -0.7859739661216736, 0.5966864824295044, 4.550459384918213, -1.8841629028320312, -3.4615375995635986, -0.24343852698802948, 2.0083906650543213, 1.0013341903686523, -3.671663522720337, 5.998523712158203, 5.259885787963867, -0.28823113441467285, -1.2454168796539307, -3.272294521331787, -0.8395132422447205, 2.3662281036376953, -1.8175259828567505, -2.0090034008026123, -2.5535597801208496, 0.92201828956604, 2.2236814498901367, -0.1396457999944687, -0.9716812968254089, -1.5484821796417236, -0.9509068727493286, -2.5240447521209717, -3.3588576316833496, 1.4707695245742798, 4.184112548828125, -0.5039458274841309, -4.1373515129089355, -3.871802806854248, -0.7653130888938904, 0.6408902406692505, -2.971432685852051, 2.6952548027038574, -1.4737493991851807, 0.2436714917421341, 0.6598678827285767, 2.479630470275879, -2.0169262886047363, -5.434817314147949, 0.9141800999641418, 7.216259956359863, -4.998773097991943, 2.0673046112060547, 2.9569482803344727, -0.780956506729126, -6.285594940185547, -7.835175514221191, -1.5994607210159302, 3.739048480987549, -3.3320655822753906, -2.1619389057159424, -1.3931022882461548, 0.5832322239875793, 4.575123310089111, 2.279829978942871, -0.008808591403067112, -1.6766271591186523, -0.3571071922779083, 5.359644412994385, 1.5264140367507935, 0.3924749195575714, 7.068572521209717, -1.4422781467437744, 0.7765913605690002, -0.5375422835350037, -3.8638405799865723, 0.00843429658561945, -3.7868611812591553, -6.018022060394287, 1.2388124465942383, -1.229379653930664, -4.842575550079346, -1.811241865158081, -0.7206043004989624, 4.107949733734131, 0.38895857334136963, -1.7285585403442383, 1.3549107313156128, -3.6324710845947266, 1.6847721338272095, 3.7259774208068848, 1.7780694961547852, -2.512226104736328, 0.6733008623123169, 3.1433956623077393, -1.6164393424987793, 1.4899176359176636, 0.8054428696632385, 1.015044093132019, 0.7635483741760254, 5.24815559387207, 1.5310142040252686, 0.6285222172737122, 1.5864171981811523, 0.7069841623306274, -4.272046089172363, -0.0687398612499237, 2.2961864471435547, -0.8054133057594299, 1.6004151105880737, -4.188324451446533, -3.440671443939209, 0.36586618423461914, 1.347391128540039, -3.7891721725463867, 3.1875014305114746, -0.39564475417137146, 0.4136546850204468, -4.195042610168457, 1.8601758480072021, -0.891444206237793, 5.061491966247559, -2.9432311058044434, 2.0327742099761963, 0.7138597369194031, 0.5607802271842957, 3.8992252349853516, -5.868995189666748, 1.9431099891662598, 1.3662470579147339, 1.485388159751892, -11.315484046936035, 0.3291606605052948, 2.6805431842803955, 0.4158098101615906, -0.8918391466140747, -0.5094499588012695, 2.201925754547119, 1.9154366254806519, -0.20160484313964844, 1.9613815546035767, 2.1912107467651367, -0.7589863538742065, 10.697925567626953, 0.8729915022850037, 0.5451421737670898, -0.5179015398025513, 5.777819633483887, 1.7553400993347168, -2.846859931945801, 2.329742431640625, 1.3223258256912231, -0.9982066750526428, -1.5137938261032104, -6.766542434692383, -0.9676713347434998, 2.9849488735198975, -4.6815185546875, 8.261334419250488, -2.02377986907959, 0.6616408824920654, -2.1838388442993164, 1.7650407552719116, -3.240074634552002, 0.04865444824099541, -4.6699137687683105, 4.092769622802734, -1.2212376594543457, 3.109203577041626, 5.257606506347656, -0.40063369274139404, 0.9894433617591858, -4.2690749168396, 0.6288081407546997, -6.564958095550537, -1.5559805631637573, 1.5067487955093384, -3.1079370975494385, 2.4422497749328613, -0.3521852195262909, 3.1219356060028076, 1.0822229385375977, -1.67872953414917, 4.9487080574035645, 3.420433521270752, -3.121732234954834, -3.1402878761291504, 2.7503950595855713, -2.5715646743774414, -4.74529504776001, 1.28426992893219, 2.6463570594787598, -0.007654163520783186, -2.299208641052246, 1.2499067783355713, -5.766088962554932, -6.284531116485596, 4.716084003448486, 4.889643669128418, -2.4972519874572754, 1.0673601627349854, -13.720632553100586, -0.3922600746154785, -2.295576810836792, 4.834460735321045, 1.0879701375961304, -6.9681525230407715, 2.2131004333496094, 4.911954879760742, -0.0028896317817270756, 0.28470367193222046, 2.9679200649261475, -2.1529507637023926, -1.249300479888916, -4.1681718826293945, 3.203299045562744, 0.4222011864185333, 1.1403790712356567, 1.2258414030075073, -1.5518285036087036, -1.9312094449996948, -0.2881668210029602, 2.0464835166931152, 2.06345534324646, 1.8897403478622437, 0.09006885439157486, -4.080824375152588, 0.8101269006729126, 0.8377309441566467, 5.316601276397705, 0.8931955695152283, 4.174428939819336, 1.0522804260253906, 6.693717002868652, 2.477597713470459, -0.4127134084701538, -1.5250006914138794, 0.04930006340146065, 2.847771167755127, 1.7291563749313354, 2.668994903564453, -1.1835333108901978, 0.03300609439611435, -1.1152572631835938, -3.1458141803741455, -0.6276240348815918, 2.6039135456085205, 1.0380951166152954, 2.894550085067749, 4.36617374420166, -0.8966758251190186, 0.8649426698684692, -0.2281111776828766, 2.334048271179199, -1.0397331714630127, -3.2167723178863525, -2.2946395874023438, 3.727945327758789, 1.9483091831207275, -0.26656514406204224, 2.6320841312408447, 1.6373835802078247, 1.12558114528656, 0.4723204970359802, 2.4731109142303467, -0.365317165851593, -2.0213470458984375, -4.00644063949585, 2.2489771842956543, -0.5162385702133179, 3.0311362743377686, 4.4978132247924805, -7.213386058807373, 1.2813304662704468, 4.556136608123779, 2.4866297245025635, 3.1884992122650146, 4.49597692489624, -0.7214595675468445, -0.9340613484382629, -1.3519885540008545, -3.853245973587036, 1.9211840629577637, 7.692617893218994, -0.49411532282829285, 0.1590549647808075, 2.5759270191192627, -0.29198262095451355, -0.3827040493488312, -3.107919454574585, -2.4240570068359375, 3.9733428955078125, -1.4048610925674438, 1.109623670578003, -6.097858428955078, 0.8779714703559875, -1.4390286207199097, 2.5125019550323486, 3.4690229892730713, -2.381091594696045, -4.216123104095459, -1.0973753929138184, -4.787252426147461, 5.375645160675049, 0.24235811829566956, 1.3231884241104126, 0.21619564294815063, -0.9136139750480652, 3.0557260513305664, -0.6054190397262573, 6.1503167152404785, 3.3370285034179688, 1.8152577877044678, -0.4522400498390198, 1.0433955192565918, -3.55769419670105, 1.5810614824295044, -0.31325405836105347, -0.4969337582588196, -2.4916832447052, 3.6810548305511475, -6.989517688751221, -0.6523347496986389, 0.262053906917572, 0.9701197147369385, 1.3925880193710327, 4.463691711425781, 1.5770437717437744, 7.3273797035217285, 0.6014108061790466, -5.319571495056152, 3.8851218223571777, 0.05443950369954109, -2.0206525325775146, -6.923467636108398, 1.2054511308670044, -2.046633720397949, -0.6651935577392578, 1.4265238046646118, -1.8780618906021118, 5.967836380004883, -6.258402347564697, 1.8640196323394775, 1.0704864263534546, -7.425075531005859, 1.2721811532974243, 2.547438621520996, -3.0184686183929443, 1.8898576498031616, -6.257991790771484, 2.7849836349487305, 2.5432803630828857, 5.6624369621276855, -1.6410644054412842, -1.361901044845581, -0.9740857481956482, 0.5260235667228699, -5.101201057434082, -2.2406983375549316, -0.17104001343250275, -2.3311822414398193, -2.697779893875122, 3.9984521865844727, -1.6383602619171143, -7.200825214385986, 0.2275807410478592, 5.93984842300415, 1.6709837913513184, -3.2102324962615967, -0.7647421360015869, -1.6286815404891968, -1.968041181564331, 0.7986025214195251, 3.535759925842285, 1.000594973564148, 6.30897855758667, -1.3724125623703003, -4.57464075088501, -3.659689426422119, 3.064741373062134, -1.5422037839889526, 0.2470342069864273, 0.33735010027885437, -3.2895398139953613, -0.844693660736084, 3.478421688079834, 3.258204460144043, 1.0222140550613403, 0.40401163697242737, -1.227006196975708, -2.274916410446167, -5.614790916442871, 1.8398972749710083, -1.837261438369751, -2.491706371307373, 2.528897523880005, -4.069034099578857, -0.8500126600265503, -1.0103527307510376, -0.4111989140510559, -2.4501731395721436, 2.8828179836273193, 2.2192487716674805, 8.70142936706543, 1.2438175678253174, -0.5465043187141418, -5.150017738342285, 1.3012044429779053, -3.4028384685516357, 4.284966945648193, -4.902781009674072, -5.73945426940918, -4.7671427726745605, -3.9619767665863037, 5.388350963592529, 1.4743247032165527, -1.8675463199615479, 0.20941349864006042, -9.0299654006958, -2.0527727603912354, -0.01015386637300253, -1.2557066679000854, 0.07714491337537766, -2.479465961456299, 1.7186944484710693, -0.39737725257873535, -2.024904489517212, 2.8148398399353027, 4.1864190101623535, 1.9725961685180664, 3.071746587753296, -4.4697723388671875, 1.4342308044433594, 7.20691442489624, -2.384108066558838, -8.490889549255371, 4.111988067626953, 0.18487153947353363, -1.498686671257019, 3.4832279682159424, -5.355727672576904, 4.519872188568115, -0.3374667763710022, -3.0767900943756104, 2.270307779312134, 3.786473035812378, 5.020098686218262, 0.6713119745254517, -1.5373497009277344, -3.9248929023742676, -0.7646732330322266, -0.3520523011684418, -2.796821117401123, 2.3010573387145996, 2.685776948928833, -2.0971615314483643, -6.726016998291016, -1.4479968547821045, 0.2786518931388855, 3.8394229412078857, -6.809248447418213, -3.7875876426696777, 2.246624708175659, -8.479257583618164, 0.4767199158668518, 2.631502628326416, -1.6834642887115479, -2.446047306060791, 0.7105624079704285, 4.4107866287231445, 2.538053274154663, -2.138880968093872, -3.5822360515594482, 0.1652763932943344, -3.9207205772399902, -0.7396194338798523, 3.4581305980682373, 5.770389080047607, 4.033931732177734, -7.06951904296875, -0.639670193195343, 4.648934841156006, -1.069553017616272, -1.2776721715927124, -7.564291477203369, 1.983620047569275, -5.7044596672058105, -2.889941453933716, -6.34255313873291, 0.3691732585430145, -8.442156791687012, 2.21360445022583, 3.6357815265655518, 4.99943733215332, -9.3600492477417, 5.845188140869141, 0.40338969230651855, 1.5494567155838013, 5.975034236907959, 1.5158787965774536, 0.46304500102996826, 0.585737943649292, -4.8274245262146, -0.1301591992378235, 1.9358470439910889, 1.6395457983016968, -0.18692372739315033, -0.9957221746444702, -2.6016478538513184, -0.2390548288822174, -1.345125436782837, 3.840872287750244, 2.199239492416382, -3.8509538173675537, -1.0245906114578247, -12.586382865905762, 3.1348764896392822, 2.0419297218322754, -5.230734825134277, -1.236107349395752, 1.9981108903884888, 0.9168610572814941, 5.0055251121521, 1.3203251361846924, 1.75021493434906, -4.177239418029785, -3.2857370376586914, 0.6068822145462036, 1.838753581047058, 2.8859760761260986, -3.15824818611145, -1.4854867458343506, 1.126234531402588, 2.9067440032958984, 2.8753230571746826, -2.031742811203003, -1.606456995010376, -2.5140435695648193, 4.643448829650879, -2.725724458694458, 0.7386059165000916, -1.0048823356628418, 3.8377552032470703, -0.3541373312473297, -0.4854765832424164, 1.2290376424789429, 12.022346496582031, -2.284320592880249, -5.936794281005859, 4.330401420593262, 0.0605677105486393, -0.1515643447637558, 1.1467459201812744, 3.8849213123321533, 1.6183507442474365, 3.8232645988464355, 3.1618409156799316, 1.9265646934509277, -0.7255295515060425, -3.80102801322937, 2.4405055046081543, 0.9062867164611816, -1.3536579608917236, 9.007403373718262, 2.6910765171051025, 0.7751148343086243, -0.7159771919250488, -0.5810469388961792, -0.762521505355835, 1.5648175477981567, -0.34318527579307556, -2.5383474826812744, -0.0754595473408699, -2.2776873111724854, 4.179445743560791, -2.8333442211151123, -2.2895960807800293, -6.845361709594727, 2.643641948699951, -6.9820404052734375, -0.274649977684021, 1.092239499092102, 2.278991222381592, 4.01141357421875, -2.4591054916381836, 0.8625454902648926, 0.4460750222206116, 2.6706702709198, 1.1405243873596191, -2.230609655380249, -6.087551116943359, 4.277756214141846, -0.9378916621208191, -0.8488724827766418, -6.307860374450684, 3.00679087638855, -6.524203777313232, -0.10416357964277267, 4.056702613830566, 0.4375270903110504, 5.177147388458252, -5.315733909606934, 2.4284698963165283, -3.3877358436584473, -11.021109580993652, 0.7377496957778931, 5.992691516876221, -1.7910503149032593, -1.5497766733169556, -1.4643611907958984, 0.31306904554367065, -2.2180800437927246, 4.385705471038818, -3.4238510131835938, 4.573404788970947, 3.7493739128112793, 0.1912183165550232, -2.0913243293762207, -5.564537525177002, 1.649253249168396, 1.2542037963867188, -3.475695848464966, 3.995993137359619, 2.4660987854003906, 6.348922252655029, -3.20292067527771, 5.361393451690674, -3.508568048477173, -0.17765776813030243, -4.317664623260498, -3.5899713039398193, 0.47804340720176697, 0.14165011048316956, 5.0052409172058105, -2.2836012840270996, -0.4254440665245056, 0.9731844067573547, -4.894279956817627, 1.1040229797363281, -3.0280861854553223, -1.2809995412826538, 0.7879895567893982, -0.1655656397342682, -0.11071200668811798, 4.329873561859131, -3.8216233253479004, 1.1096593141555786, 0.4700005352497101, -6.859472751617432, 0.6747536063194275, 4.169759750366211, -1.7015690803527832, -2.0964112281799316, 1.0679073333740234, 5.915700912475586, -5.555665016174316, -5.89259672164917, 0.4748343825340271, 2.753129005432129, 0.5128481984138489, -0.8696776032447815, -3.0425169467926025, -1.8025046586990356, 5.9778151512146, 1.611720323562622, 0.7811630964279175, 1.6929917335510254, -0.38199755549430847, -8.228373527526855, -2.3332679271698, 0.5714436173439026, -0.7889137268066406, -0.9097700715065002, -0.5329312086105347, 0.8620179891586304, 1.2903636693954468, 2.7331583499908447, -0.1023552268743515, -3.8647096157073975, -2.2347958087921143, 1.5938804149627686, 2.131601095199585, 3.298917770385742, 2.5187301635742188, 1.6359974145889282, -2.8794000148773193, -2.059713125228882, 0.5417424440383911, 6.3832621574401855, 1.256813406944275, -0.10186715424060822, -1.9619983434677124, 3.87404465675354, -0.32150477170944214, 2.816800832748413, -1.8789424896240234, -0.8914548754692078, -6.047405242919922, 3.85257625579834, 3.7421317100524902, -1.7062033414840698, -0.2220357358455658, 0.6883848905563354, -0.021220751106739044, -0.7105222344398499, -2.273899555206299, -0.31909650564193726, 2.9400651454925537, 3.2418367862701416, 1.3431122303009033, 0.5848806500434875, 3.255941867828369, -1.33133864402771, 0.11598680913448334, 2.846149444580078, 1.216091513633728, 2.723079204559326, 4.347060203552246, 3.8723673820495605, 2.6565675735473633, -1.1409046649932861, 0.34813013672828674, 3.2875173091888428, -0.42208245396614075, 1.020672082901001, 1.0590542554855347, -1.7202712297439575, -4.270563125610352, 0.970524251461029, -1.4369443655014038, 0.9868039488792419, -1.4769586324691772, -5.0951738357543945, -6.243503093719482, -0.8512480854988098, -2.542957067489624, 7.387351989746094, 2.2098701000213623, 2.8733198642730713, -1.579024076461792, 3.936509609222412, -9.329739570617676, -0.8503901362419128, 0.1637115180492401, -3.972590208053589, 1.6801139116287231, 4.637582778930664, -0.05377838760614395, -3.65687894821167, 2.8520402908325195, 0.974260687828064, -1.8055099248886108, -4.807397365570068, -2.591423273086548, -0.667657196521759, 2.751683235168457, -0.5427920818328857, 3.1483232975006104, -1.3421839475631714, -3.429603099822998, -0.6095185875892639, -0.7078340649604797, -2.1142194271087646, 0.6305198669433594, 1.082505702972412, -1.3896753787994385, 0.7013057470321655, -7.3409037590026855, -1.4826244115829468, 5.024429798126221, -3.7353479862213135, -0.7170000076293945, 3.1953201293945312, -1.4356939792633057, -10.530462265014648, 0.1227213591337204, 2.68330717086792, -3.013262987136841, 3.8380603790283203, -2.095264196395874, 1.786929965019226, 3.100114345550537, -5.7494096755981445, -2.402527332305908, 2.5928761959075928, -7.749305725097656, -0.5900885462760925, 2.636643648147583, 0.007449408993124962, -1.9512284994125366, -4.497989177703857, 7.293817520141602, 5.888556003570557, -1.4202371835708618, 1.4608303308486938, 6.673661708831787, -2.440913677215576, -1.404257893562317, -5.247302055358887, 1.263018012046814, 2.0629894733428955, -1.4299275875091553, 3.160775899887085, 3.2328412532806396, 4.303848743438721, -0.8331442475318909, -3.1535801887512207, 0.1458139419555664, 2.9245846271514893, -1.7744486331939697, -0.5609681010246277, -1.2642533779144287, -4.624824047088623, 1.3810245990753174, 3.551875591278076, 2.2983884811401367, -1.3521811962127686, 0.9142771363258362, -3.1428029537200928, 3.8630521297454834, 0.15898734331130981, -6.05200719833374, -0.7971932888031006, 1.5763583183288574, 4.999994277954102, 0.5143786072731018, 2.292795181274414, -5.470160961151123, 0.2593425512313843, -1.78778076171875, 0.1532278209924698, -4.092923164367676, 0.5342088341712952, 0.13460610806941986, 1.1367532014846802, -5.154774188995361, 1.2878614664077759, -8.031835556030273, 0.9230505228042603, 2.401545763015747, 3.7631592750549316, -3.5219664573669434, 13.62492561340332, -2.814875364303589, 1.3010205030441284, 0.062422655522823334, 0.20209677517414093, -1.8284519910812378, -1.7465105056762695, -3.141631841659546, 5.518260955810547, 0.5012919306755066, -0.04175726696848869, -1.154465913772583, 5.949471950531006, 0.3968082666397095, -3.1448099613189697, -1.0568351745605469, -0.13059480488300323, -0.9404014348983765, -0.8756074905395508, -0.2764711380004883, -0.30871647596359253, 3.044792890548706, -0.8458952307701111, 11.643195152282715, -4.110367774963379, -0.2134847193956375, -0.1745723932981491, -2.1247143745422363, -1.2523081302642822, 2.4796085357666016, 1.4109365940093994, -5.332508563995361, 1.9984570741653442, 5.326842308044434, 6.160114288330078, -4.576809883117676, -4.173679351806641, 1.042773723602295, -0.9405751824378967, 1.8324793577194214, 7.617800235748291, 9.07243537902832, -3.9130775928497314, -0.13585786521434784, -0.2523685693740845, -1.278525710105896, -5.838294506072998, 0.3671216368675232, -1.8012195825576782, 1.619192361831665, 0.5066507458686829, 5.775396347045898, -7.800003528594971, 1.6470967531204224, 1.0466855764389038, 0.7807387709617615, 2.232239007949829, -1.1231088638305664, 3.200423002243042, -3.9731292724609375, -3.2827377319335938, 7.813447952270508, -5.585805416107178, -3.8515677452087402, -0.4478808641433716, -8.239362716674805, 2.4943904876708984, 6.908205509185791, -1.945819616317749, -5.043307781219482, 1.7139317989349365, -4.721960067749023, -5.2455339431762695, -5.245346546173096, -3.4014739990234375, -8.732605934143066, -0.8297231197357178, -7.8919453620910645, 2.828873872756958, 2.5702099800109863, -2.123333692550659, 4.629857540130615, 1.7027074098587036, -3.1097753047943115, -0.13330204784870148, -2.957141876220703, -3.955070972442627, 0.5817942023277283, -8.431596755981445, -4.957549571990967, -4.529538631439209, 0.625086784362793, 2.027195453643799, 2.2896170616149902, 2.6165218353271484, 1.8658883571624756, 0.85651695728302, -0.8382977247238159, 2.069647789001465, 3.3880455493927, -4.020008087158203, 1.480931043624878, -4.724918842315674, 1.143121361732483, 6.530986309051514, -10.690241813659668, -2.824953079223633, 0.2868313789367676, 1.0147664546966553, 1.093523621559143, 1.6880302429199219, 0.565384566783905, 3.175743579864502, 0.0330728143453598, 3.7834408283233643, -1.7815755605697632, -1.0489476919174194, 10.53901195526123, 1.7809215784072876, -6.587772846221924, 2.2727510929107666, -3.8355460166931152, 2.1254777908325195, -1.56789231300354, 9.748613357543945, -0.7520734667778015, -2.38313364982605], "bnBetaC": [-4.914199352264404, -5.736215114593506, -5.43045711517334, -2.049217462539673, -2.479663372039795, 0.01801549829542637, -2.377974510192871, -2.5724740028381348, -1.0426580905914307, -3.1603403091430664, 4.157557487487793, -1.6356992721557617, -3.1052606105804443, -6.63105583190918, -3.5327842235565186, -0.5677079558372498, -2.130619525909424, -1.5173149108886719, -3.612294912338257, -3.236280918121338, -7.398548126220703, -3.5636255741119385, -1.0735044479370117, -0.24672245979309082], "convBiasD": [5.084018630441278e-05, 1.0046001989394426e-05, -7.446011522915796e-07, -5.223207153903786e-06, -2.0747067537740804e-05, -1.533968315925449e-05, 4.487780825002119e-05, 2.542067250033142e-06, -2.6986232114722952e-05, 1.9990431610494852e-05, -1.1146260476380121e-05, -2.6067946237162687e-05, -2.8510199626907706e-05, 2.5439461751375347e-05, 2.457459777360782e-05, 2.1250920326565392e-05, 3.450933945714496e-05, 6.949042290216312e-05, 1.741410642353003e-06, -6.046235739631811e-06, -5.799550854135305e-05, 0.00013096872135065496, -6.80601442581974e-06, -1.6455474906251766e-05, 1.6184640116989613e-05, 4.6414868847932667e-05, 2.621473504405003e-05, 7.317129529837985e-06, -1.6720818166504614e-05, -1.7164436940220185e-05, -2.3797154426574707e-05, 5.1562677981564775e-05, 6.601015775231645e-05, 1.1228026778553613e-05, -1.0083250344905537e-05, 4.221810377202928e-05, 6.109483365435153e-05, 7.74092404753901e-05, 5.396704636950744e-06, 1.13943315227516e-06, 3.251819362048991e-05, 9.683351527201012e-05, -1.9045541193918325e-05, -3.027981802006252e-05, -3.106928488705307e-05, 0.00011590270150918514, -0.00011288002133369446, -8.985213753476273e-06], "inputChannelsDim": 24, "bnMeanD": [58.77839279174805, 57.8442268371582, -24.115808486938477, -4.688771724700928, -68.16446685791016, -10.532674789428711, -20.542179107666016, 15.717988014221191, -5.590007305145264, -31.365070343017578, -11.3153715133667, 29.62042999267578, -28.46804428100586, 30.146854400634766, 27.29092788696289, 41.24502182006836, -18.250036239624023, 76.61144256591797, 9.889695167541504, -47.14556121826172, 12.802909851074219, 47.01853942871094, -21.420717239379883, -20.888200759887695, -20.560413360595703, 28.02669906616211, 7.161715984344482, 34.76538848876953, -41.93581771850586, 64.83712768554688, 35.241371154785156, 111.03308868408203, -13.69624137878418, -40.581844329833984, -16.693485260009766, -42.4995231628418, 50.380863189697266, -41.72394561767578, 26.84211540222168, -23.639951705932617, -33.56391906738281, -11.082157135009766, 18.561798095703125, 5.827520370483398, -44.749534606933594, -1.446959137916565, -12.581855773925781, -29.487667083740234]}, {"bnMean": [-44.11450958251953, -33.354522705078125, -10.058323860168457, -9.599468231201172, -49.380577087402344, 6.089183330535889, -30.51783561706543, -13.160650253295898, 35.14426040649414, -68.99766540527344, -24.131549835205078, 3.8791518211364746, -5.247506618499756, 10.29531192779541, 69.28858947753906, -36.48685836791992, 6.201895236968994, 12.769612312316895, -9.190132141113281, 15.567448616027832, -15.320995330810547, 27.246261596679688, -103.40823364257812, -30.951574325561523, 79.11125946044922, 16.510223388671875, 18.933149337768555, 0.7336788773536682, 41.556121826171875, 18.014917373657227, 22.049535751342773, -22.35042953491211, -32.292789459228516, 30.142566680908203, 9.521601676940918, -9.967209815979004], "bnGamma": [3.6907756328582764, 3.013441801071167, 3.2137491703033447, 3.3230507373809814, 3.3986992835998535, 3.360990047454834, 3.1973936557769775, 3.49957537651062, 3.1712117195129395, 4.1416521072387695, 1.5741480588912964, 2.7573862075805664, 4.505181789398193, 3.936986207962036, 3.193270683288574, 2.3867740631103516, 4.845134735107422, 3.046689510345459, 4.056450843811035, 4.263216972351074, 4.187348365783691, 2.443739891052246, 3.443300247192383, 3.0233166217803955, 2.199939012527466, 4.937366485595703, 3.2683215141296387, 2.757392644882202, 3.476475477218628, 1.8438525199890137, 2.4053056240081787, 3.6758534908294678, 3.1088480949401855, 4.3544230461120605, 2.928274393081665, 3.370229721069336], "bnBeta": [-4.672538757324219, -4.834315299987793, -2.554973602294922, -3.6898281574249268, -3.6962738037109375, -3.1977827548980713, -2.7562272548675537, -3.6952311992645264, -2.8407599925994873, -4.927541255950928, 2.2932615280151367, -1.593308687210083, -4.412959575653076, -3.407325267791748, -3.5851988792419434, -0.8529448509216309, -5.8188676834106445, -1.8277080059051514, -4.652487754821777, -4.012315273284912, -6.76589822769165, -1.8948941230773926, -3.9184155464172363, -1.847497820854187, 0.047853708267211914, -5.156305313110352, -3.4240968227386475, -1.3030672073364258, -3.4900317192077637, 1.1455148458480835, -1.781130313873291, -4.205938816070557, -3.9107108116149902, -4.847127914428711, -3.1255295276641846, -4.007776260375977], "kernelTypesDim": 1, "kernelRoundsDim": 1, "roundsDim": 6, "className": "ception", "upsamplingRoundsDimFactor": 1, "typesDim": 3, "channelsDim": 36, "upsamplingTypesDimFactor": 1, "bnVariance": [5551.267578125, 2819.03759765625, 4606.15625, 2906.586181640625, 2607.7802734375, 4808.24169921875, 5883.0966796875, 3208.989990234375, 2986.217529296875, 4259.3076171875, 2905.82421875, 4014.261474609375, 5818.6640625, 4936.92138671875, 3628.515380859375, 2280.944091796875, 2907.384033203125, 4114.03173828125, 3031.38037109375, 4843.30712890625, 1431.0123291015625, 2146.38916015625, 3885.28515625, 3736.20849609375, 4941.75634765625, 4076.6357421875, 2660.553466796875, 3525.579833984375, 3829.25537109375, 3608.297607421875, 3335.676513671875, 3681.789794921875, 3079.3876953125, 2942.107421875, 3803.22802734375, 2988.124267578125], "convKernel": [5.089543342590332, 1.06438148021698, 4.4250030517578125, 2.1919291019439697, -1.3943008184432983, -2.747177839279175, 4.5605926513671875, 4.179741382598877, -4.873120307922363, -5.957449436187744, 4.403763294219971, -0.3427969813346863, -0.08272217214107513, -6.460137367248535, -2.6741528511047363, -4.727939605712891, 2.177718162536621, 8.67707633972168, 2.5930542945861816, -0.1413896083831787, -3.9803292751312256, -2.115466594696045, 3.150275707244873, 1.0764763355255127, -4.5087995529174805, -0.6951982378959656, 0.09183479845523834, 0.3954033851623535, -8.688261032104492, 5.282486438751221, -0.15897923707962036, 3.897407054901123, 2.265822172164917, 5.263590335845947, -0.17918546497821808, 0.3017216622829437, 2.7216787338256836, 2.091123342514038, -4.55399751663208, -4.53664493560791, -0.5677435994148254, -3.9011335372924805, 2.965851068496704, -0.4294995367527008, -4.6159443855285645, -3.5534706115722656, 0.9084835648536682, 1.019317388534546, -0.7149673700332642, -0.5157646536827087, 9.731898307800293, -3.8798916339874268, -3.333624839782715, 2.679281234741211, -2.283255100250244, 2.469855308532715, -5.158260822296143, 11.084787368774414, -8.639039993286133, -2.9917283058166504, -1.1338502168655396, -1.1642779111862183, 14.664173126220703, -0.8021063208580017, 2.953248977661133, -2.6718688011169434, -3.72810697555542, 1.271187663078308, 1.2910819053649902, -0.847845196723938, 1.0868604183197021, -2.716937780380249, -1.918874979019165, -2.0919086933135986, -2.7025067806243896, 0.6893114447593689, -0.38457420468330383, -1.0987203121185303, -1.446361780166626, 0.5433068871498108, -1.3773837089538574, -4.213257789611816, 2.1782875061035156, 1.2820861339569092, -1.1660879850387573, -4.0066375732421875, -6.216389179229736, -1.0614495277404785, -0.08822791278362274, -2.038346767425537, -0.4296601116657257, -2.4128150939941406, -1.907882571220398, 1.3374407291412354, -1.5922447443008423, -0.6652724146842957, 0.6088248491287231, 2.639927625656128, -1.8738560676574707, -1.1612138748168945, 1.1388574838638306, 0.3479897379875183, -0.9059953093528748, 0.2842588424682617, -0.2376842498779297, -0.27318161725997925, -3.662658214569092, -2.587514877319336, 6.654810428619385, 1.752751111984253, 4.453200817108154, -0.2784450650215149, 4.12838077545166, -3.3838369846343994, -2.7348241806030273, 1.2325222492218018, -0.08589235693216324, 7.021999835968018, 6.0917840003967285, 0.8462744355201721, 0.8828063011169434, 1.003035068511963, 0.18342287838459015, -9.074756622314453, 0.40214431285858154, -1.8740878105163574, -1.4392918348312378, -1.3183525800704956, -5.154458522796631, -0.9130081534385681, 2.271472215652466, 3.1486337184906006, 1.6456791162490845, 2.7819366455078125, 1.6924971342086792, -2.8859245777130127, -1.2407134771347046, 3.367203950881958, -0.03468066453933716, 5.7794036865234375, -0.08174106478691101, -2.498060941696167, -0.33911386132240295, 0.6600340604782104, -2.5398831367492676, -1.7659739255905151, -1.510027527809143, -0.5872958898544312, -0.5421037077903748, -4.0397138595581055, -2.600973129272461, -0.4156319499015808, -0.9253430962562561, -2.1352736949920654, -2.140996217727661, 1.1770566701889038, 3.063051462173462, 2.6015737056732178, -1.5070968866348267, -2.094897508621216, -0.19951672852039337, -0.009103327058255672, 2.8570444583892822, -1.895905613899231, 1.1202328205108643, -0.21519683301448822, -0.21047258377075195, -2.9098572731018066, -1.2329849004745483, 0.7739123702049255, -0.9090979695320129, -0.9751800298690796, 0.3834074139595032, 1.5029133558273315, -4.655860900878906, -1.3957514762878418, -4.7048115730285645, 0.7698358297348022, 2.3765816688537598, 1.1943684816360474, 7.015506744384766, 0.21788044273853302, 1.760445237159729, -5.8866777420043945, -0.0907922014594078, -0.7583475708961487, -1.8922154903411865, 5.972227096557617, 1.320500135421753, 3.573434352874756, -0.05805198475718498, 1.2948791980743408, -4.69727897644043, -0.4942234456539154, 5.023845195770264, -0.45479804277420044, -1.2975980043411255, 0.5135392546653748, -2.919083833694458, 1.861128807067871, -2.539170503616333, 3.4470114707946777, -1.8813799619674683, -4.652449607849121, -1.287263035774231, -4.197085857391357, 1.012089729309082, 5.090947151184082, 2.8557257652282715, -3.4689157009124756, 2.6429760456085205, 0.7035146355628967, 3.036804437637329, -0.1327962428331375, 1.9644426107406616, -1.5250320434570312, -4.464420795440674, 6.651597499847412, -1.7752363681793213, -0.31151822209358215, -2.7735276222229004, 2.5807721614837646, -2.4662344455718994, -0.22277361154556274, -5.709600925445557, -3.9521799087524414, -3.805954933166504, -0.6061537861824036, -1.9511762857437134, 0.5309855341911316, 0.7036622762680054, 4.501107692718506, -0.993790328502655, 4.038681983947754, -13.582515716552734, -0.11867723613977432, 3.1526875495910645, -1.8577202558517456, -1.819687008857727, -1.7956429719924927, 2.8255350589752197, 0.24025849997997284, -1.1236375570297241, 0.9641881585121155, 4.5544915199279785, 4.938104152679443, 5.070405960083008, 3.171062469482422, -0.26416537165641785, -4.512825012207031, -3.3914432525634766, 5.338979244232178, -0.08048899471759796, -1.5214715003967285, -2.039083242416382, -0.4617334008216858, -7.024338245391846, 1.784976601600647, -3.88546085357666, -5.9825849533081055, 2.2585108280181885, 2.920255184173584, -3.3995347023010254, -2.809724807739258, -0.17937743663787842, 3.573551893234253, 1.0804749727249146, -1.8829106092453003, 0.6321330070495605, 3.5998690128326416, -0.9148286581039429, 1.5827981233596802, -0.5863054990768433, -3.7773752212524414, -2.3072478771209717, 1.771117091178894, 9.460066795349121, -2.7671170234680176, 1.2975966930389404, -1.3005967140197754, 0.39569422602653503, -1.5082005262374878, -3.5848021507263184, -1.0971243381500244, -4.520791053771973, 1.0814529657363892, -0.024714097380638123, 6.3728742599487305, -1.0218573808670044, 1.8677000999450684, 1.4752482175827026, 0.6060734987258911, -1.2676787376403809, -0.7721693515777588, 3.8135323524475098, 2.5596704483032227, -3.184452772140503, -4.9542741775512695, -0.46666401624679565, -2.1676933765411377, 2.9533531665802, -3.567406415939331, 3.761121988296509, -3.8159477710723877, -2.5457065105438232, -1.5243111848831177, -0.46152159571647644, 1.29409921169281, 1.0908317565917969, 1.1202834844589233, 0.37679392099380493, -2.67339825630188, 1.7737563848495483, 1.5084385871887207, 2.8249213695526123, 0.3604268431663513, -3.329226493835449, 1.311934232711792, 6.007194995880127, -3.9174904823303223, -3.2453553676605225, 2.9708938598632812, -0.05180986598134041, -0.9313899278640747, -1.3033065795898438, 0.08691971004009247, -1.425927996635437, 0.3374634087085724, -0.7674968838691711, 5.767344951629639, -0.21966895461082458, -2.4074552059173584, 4.252136707305908, -6.771575927734375, -4.246998310089111, -2.731198787689209, 5.837634563446045, 3.1064181327819824, 0.06540855020284653, -3.889392614364624, -0.06875777989625931, -0.23644410073757172, 1.3275917768478394, -1.6192026138305664, -5.939118385314941, -2.2069766521453857, -6.146398544311523, 1.6772687435150146, -0.24126246571540833, -0.20380018651485443, 1.0805038213729858, -2.491093635559082, 0.5754523277282715, 1.7352979183197021, 5.56699275970459, -0.9348288774490356, -2.5100040435791016, -1.3036874532699585, -0.6605674028396606, -3.3349897861480713, -4.170755386352539, -4.080387115478516, -0.9354991316795349, 2.021432399749756, -2.7034029960632324, -3.3579232692718506, -3.6741585731506348, -3.934413433074951, -7.025020599365234, -4.677109718322754, 2.6083014011383057, -4.749094009399414, 0.9195343852043152, -4.539684295654297, -3.1789157390594482, -2.7333829402923584, -1.4322324991226196, 0.23826780915260315, -7.527602672576904, -0.42403343319892883, 1.8948984146118164, -1.0261744260787964, -3.0484397411346436, 0.6756771802902222, 2.550438642501831, 14.0647554397583, 2.6887102127075195, -0.46787384152412415, 3.172069549560547, -4.019018650054932, 0.7200025916099548, 4.675520896911621, -0.21527132391929626, 2.381619930267334, 0.12900622189044952, 2.5195722579956055, -1.9538167715072632, -2.901536703109741, 4.941725730895996, 0.9448570609092712, 0.6758575439453125, 0.4594036340713501, -1.0817681550979614, -0.8317497968673706, 3.026169538497925, -3.4382078647613525, -5.752045631408691, -4.159671306610107, -1.342061996459961, 1.6850817203521729, 4.762781620025635, 3.150646686553955, 0.21426470577716827, 0.0860348716378212, -3.4174468517303467, -0.5162126421928406, 1.6533894538879395, 5.241385459899902, -4.226025104522705, -5.527953147888184, -1.7697144746780396, -5.198598384857178, 2.106212615966797, 2.24832820892334, -1.486618995666504, -0.5497300624847412, -2.9879977703094482, -2.919799327850342, 2.6777329444885254, -5.185558319091797, 4.588985443115234, -3.9220192432403564, -0.21757234632968903, 3.575467348098755, -1.1550977230072021, -0.6519266366958618, -2.8082499504089355, 3.2457001209259033, -5.133205413818359, -1.141501784324646, 1.2345476150512695, -4.527880668640137, 13.16076946258545, 2.7565348148345947, 6.467804431915283, -2.3304901123046875, 6.637535572052002, -3.301461935043335, -1.560802936553955, -4.461924076080322, 0.9523030519485474, -1.7757937908172607, 2.1022162437438965, 3.5440633296966553, 0.23237906396389008, 3.3130908012390137, 0.12656919658184052, 4.504136085510254, -4.152385234832764, 4.366196155548096, 2.844390869140625, 2.522974729537964, 0.5276612639427185, -1.7649900913238525, -1.056754469871521, -2.8992648124694824, -0.9866926074028015, 0.1545613557100296, -9.539571762084961, -2.2358977794647217, -4.975949287414551, 1.2301135063171387, 2.8253371715545654, 1.8699774742126465, -8.583390235900879, -2.848057508468628, 2.745227098464966, -0.9574453234672546, -6.6249871253967285, -5.098750114440918, -1.5897139310836792, 6.0404133796691895, 2.348848581314087, -2.4056556224823, 0.7102956175804138, -1.3971927165985107, -2.342458724975586, -0.3064994513988495, -1.4753599166870117, 1.8014675378799438, -0.3705112040042877, -4.028356552124023, 10.815153121948242, 2.855926513671875, 1.3341439962387085, -8.035490989685059, 0.5935064554214478, 1.7794816493988037, -3.2432000637054443, 3.2223386764526367, -2.1455492973327637, 0.7110574245452881, -2.467921257019043, 4.895548343658447, 5.928447246551514, -2.2478103637695312, 4.07867431640625, -1.731360912322998, 6.099570274353027, 2.7691807746887207, 5.634440898895264, 2.9329018592834473, 3.623875617980957, 1.4394237995147705, -2.026423692703247, 3.179892063140869, 6.315026760101318, 2.775860071182251, 2.1335697174072266, -4.584473609924316, -0.8489488363265991, -7.168781757354736, 1.4892776012420654, 0.7354186177253723, 3.1064326763153076, 2.867995500564575, 0.8514814972877502, -1.1302965879440308, 1.2036043405532837, -4.836194038391113, -0.9369255304336548, 5.002938747406006, 0.517702043056488, -4.066318988800049, 2.672450304031372, -2.168666362762451, 4.726090908050537, 1.177935242652893, -0.7307041883468628, -2.5543935298919678, 9.005908966064453, -0.1108112633228302, 5.910262584686279, 0.9268516898155212, 0.9612255692481995, 4.677942752838135, -0.12704899907112122, -4.622416019439697, 6.682648658752441, 9.540750503540039, 5.852245807647705, 7.898638725280762, 0.3932513892650604, 6.5049309730529785, 0.19640667736530304, -0.49131909012794495, 1.7594265937805176, -2.599400281906128, -4.459267616271973, 3.1818580627441406, 0.3968721628189087, -4.022454738616943, -0.7613044381141663, 2.5702638626098633, -1.981999158859253, -3.266355276107788, 4.590505123138428, 7.187788963317871, 4.125121116638184, 1.4054315090179443, 5.768669605255127, -2.946179151535034, 1.5573590993881226, 1.03611159324646, -1.2025598287582397, -3.90079402923584, -4.733635425567627, -0.4069875478744507, -1.8385382890701294, -0.6160043478012085, 6.318375110626221, -3.4827802181243896, -2.345399856567383, 0.1556372493505478, 3.800199508666992, -3.881479024887085, -1.1673312187194824, -0.8233602643013, 4.394499778747559, 3.677537679672241, 0.4024043679237366, -3.9484317302703857, -4.398627281188965, 1.34756338596344, 1.2654608488082886, 1.5782363414764404, -0.78623366355896, 2.057008981704712, 3.8807311058044434, 4.144203186035156, 2.012603282928467, 3.2935755252838135, -0.833409309387207, 0.6488274931907654, -4.372473239898682, 1.1040371656417847, 0.16661308705806732, 4.720933437347412, 3.9633874893188477, -0.6818627715110779, 1.6898030042648315, -2.972625255584717, -2.2784996032714844, 0.31098681688308716, -0.7043144702911377, -3.323820114135742, 0.3611859381198883, -1.5137896537780762, 2.471944808959961, -2.6181998252868652, 0.19034233689308167, 1.916263461112976, -0.641290545463562, 0.5976715087890625, -0.46957945823669434, 0.17887727916240692, -0.641360878944397, 3.7738208770751953, 1.6008206605911255, 0.5236325263977051, -1.8970228433609009, 2.657139301300049, -0.8634918332099915, -2.628584623336792, 2.3844754695892334, -5.036983013153076, 0.8823553919792175, -1.657072901725769, -1.6054139137268066, -2.7252655029296875, -0.43136066198349, -0.5961912274360657, -0.46541905403137207, 4.4989519119262695, -1.8973801136016846, -2.4215731620788574, 1.7891086339950562, 0.5709312558174133, -0.5323840975761414, 0.04483482614159584, -5.750799179077148, -2.8247056007385254, -1.2140437364578247, -7.061923027038574, -2.1187515258789062, 0.9121967554092407, -0.7772783637046814, 1.4397846460342407, -0.27413830161094666, 0.32986176013946533, 1.1348320245742798, 5.960083484649658, -3.9955692291259766, -2.301591634750366, -1.966893196105957, -1.0731467008590698, -1.8467153310775757, -4.048239707946777, 4.143503665924072, -2.2557449340820312, 1.0687379837036133, 2.5598700046539307, -1.9007617235183716, 1.8589946031570435, 3.974937915802002, -1.7574007511138916, 2.411252021789551, 0.6222900152206421, -1.0262041091918945, -1.0588897466659546, 2.05098032951355, -1.8981069326400757, -1.5827932357788086, -0.8911263942718506, 3.9427692890167236, -1.8667503595352173, 0.3626357316970825, -0.7544829249382019, 1.6509193181991577, 3.067797899246216, -0.8032498955726624, 2.464144706726074, -1.5187864303588867, -4.242353916168213, 1.6891720294952393, -1.173675298690796, -1.0682356357574463, 0.36134108901023865, 5.474330425262451, -0.28809821605682373, 0.18522970378398895, -0.6755374073982239, 3.054727077484131, -0.09536314755678177, -0.854788064956665, -0.6219399571418762, -1.303759217262268, -2.9051830768585205, -3.694730043411255, -3.430231809616089, -1.6517566442489624, -1.2498741149902344, 1.339826226234436, -1.4473905563354492, -6.3239240646362305, -1.486132264137268, -1.8916784524917603, -2.551919937133789, -2.4123663902282715, 0.3773913085460663, 2.6708765029907227, 4.990421772003174, 1.0390483140945435, 1.2433221340179443, 0.19274131953716278, -9.18305778503418, 2.5172998905181885, -1.6382580995559692, 0.1845100075006485, 7.495339870452881, 3.5948030948638916, -0.38674014806747437, 1.587870478630066, -1.049383521080017, -4.941220283508301, -2.067085027694702, -1.3441885709762573, -2.1901485919952393, 0.6438570022583008, -2.0393929481506348, 0.8398134112358093, 1.3021814823150635, -2.3938965797424316, -5.213128089904785, -3.723067045211792, 1.2786089181900024, -4.927119731903076, -1.632778525352478, 7.205195426940918, -2.287346363067627, -6.466525077819824, 3.003110647201538, 0.9426073431968689, 2.2420878410339355, 5.850331783294678, -0.11189057677984238, -0.8668708205223083, 1.2472563982009888, 3.1810946464538574, -4.070742130279541, 0.02568884938955307, -2.9774036407470703, -0.3839961886405945, -2.7400612831115723, 1.6988743543624878, 1.1208363771438599, 3.2923195362091064, 1.3574360609054565, -5.492989540100098, 0.5089905261993408, -0.5284172296524048, -1.1431007385253906, 2.299821615219116, -2.5693252086639404, -0.5527998805046082, -0.615872859954834, 0.28093934059143066, 0.46446314454078674, -7.4337663650512695, -1.2267990112304688, -0.4510461390018463, -1.7427449226379395, -0.27443236112594604, -0.4456533193588257, -1.0666851997375488, 3.0730276107788086, 0.740874707698822, -5.940422058105469, 1.4473592042922974, 1.905858039855957, 3.6509931087493896, -0.7269577383995056, -3.3798129558563232, 2.257523536682129, -3.7461721897125244, 0.6486802101135254, -2.7192697525024414, 4.9155778884887695, 3.494494915008545, -2.802510976791382, -6.174369812011719, -5.5269622802734375, 3.6502113342285156, -2.8299810886383057, 1.8512463569641113, -0.286431223154068, 1.9014084339141846, -1.0831713676452637, -2.1994714736938477, -0.19476142525672913, 0.2517682611942291, -0.020539456978440285, -2.969679832458496, 1.8203222751617432, -6.969902515411377, 1.4937688112258911, 0.2950640618801117, 9.811768531799316, 1.5868115425109863, -4.863584995269775, 0.9579426050186157, 0.32739943265914917, 1.5320483446121216, 3.792678117752075, -3.6095378398895264, 2.4844322204589844, -5.101593017578125, -3.9028260707855225, -5.2912421226501465, 3.391331434249878, -2.935009717941284, 0.09678731113672256, -7.054177761077881, -0.5660260915756226, 6.276451587677002, -0.9375250339508057, -4.18127965927124, -3.1668217182159424, -6.871247291564941, -4.5541157722473145, 0.16833625733852386, -0.670201301574707, -0.7385193705558777, 1.4270260334014893, 2.0461108684539795, 0.8507544994354248, 0.3419455289840698, 1.9634006023406982, 0.19796139001846313, -0.1006198525428772, -1.6382410526275635, -2.3945837020874023, 8.00151252746582, 4.976174831390381, 0.9236918091773987, -2.8754022121429443, 0.17287296056747437, 3.587510108947754, 3.0450637340545654, -0.24231036007404327, -4.881968975067139, 1.1914570331573486, -0.842710018157959, 0.2182769924402237, 0.6698362827301025, -5.821432113647461, 0.29141154885292053, -7.322668552398682, 0.5454114675521851, 3.5360474586486816, 4.211246490478516, 5.234086036682129, -1.7683988809585571, 1.3117705583572388, 3.0347402095794678, 1.9164339303970337, 0.16769814491271973, 0.8961215019226074, 0.2745521366596222, 5.618497371673584, 0.6055342555046082, 2.2653985023498535, 1.230156660079956, -0.4806773364543915, 0.47818663716316223, -0.6428300142288208, 0.5073674321174622, -6.753430366516113, -6.255162715911865, -0.6395371556282043, -4.726316452026367, -3.217024564743042, 1.9804670810699463, 3.7969119548797607, 0.7393336296081543, 0.6590926647186279, -1.686835527420044, 2.863020420074463, -10.05708122253418, 0.20321685075759888, 0.517130434513092, 0.022953065112233162, 0.603264331817627, -0.8445518612861633, -4.254593372344971, -6.635800361633301, 1.1096022129058838, -3.779536008834839, -1.837873935699463, 1.3249404430389404, -4.230166435241699, 1.003197193145752, -4.558210372924805, 0.2470598965883255, -1.7967127561569214, 7.414830207824707, -6.579528331756592, -6.013651371002197, -1.1643587350845337, -4.652815341949463, 10.53744888305664, 5.591506481170654, 1.9001693725585938, 0.19721607863903046, 2.537837028503418, -0.920125424861908, -5.280812740325928, 3.1041226387023926, -3.381009340286255, -1.2367796897888184, -1.5411204099655151, -1.4574531316757202, 2.3842029571533203, -5.633907318115234, -1.1741803884506226, -5.9504714012146, 3.7576069831848145, -2.2590906620025635, 5.143315315246582, -10.903870582580566, 0.19538091123104095, 0.018579768016934395, 0.6764494776725769, -1.5172642469406128, -3.709608316421509, 0.9753013253211975, 0.8621608018875122, -1.7364414930343628, 0.9507425427436829, -3.1102633476257324, -0.01841508038341999, -0.5905058979988098, 0.5134977102279663, -0.07396914064884186, 1.6423126459121704, 0.51758873462677, -1.342531442642212, 2.6664886474609375, -0.9730373024940491, -0.7933240532875061, -3.185913562774658, -3.634431838989258, 2.3957059383392334, -0.4835515022277832, 3.360915184020996, -3.7216591835021973, 5.534140110015869, -1.2163617610931396, -3.059330701828003, -0.7918046116828918, 1.2294787168502808, -4.1071038246154785, -3.397216558456421, -0.38296282291412354, -7.392969131469727, -6.771664142608643, 0.6924034357070923, -0.8917892575263977, -2.944196939468384, -1.3417985439300537, -0.7229236364364624, -2.4627082347869873, 2.393754243850708, 0.6391115188598633, -1.1127023696899414, -5.4047393798828125, -0.363582968711853, -4.762856960296631, -1.720296025276184, -1.8754971027374268, -6.434231758117676, 0.18693190813064575, 1.223151445388794, 1.365842580795288, -1.2191680669784546, -4.177993297576904, 2.310701370239258, 0.6350051164627075, 2.193424940109253, 1.4146026372909546, 2.790069341659546, -2.12351655960083, 2.2529308795928955, -3.9068188667297363, -3.4267351627349854, 1.5178344249725342, 0.9470998048782349, 2.1946821212768555, 1.4412096738815308, -1.7973467111587524, -2.7212131023406982, 1.2424668073654175, 0.4478863477706909, -2.311452627182007, -1.0928499698638916, 1.3389220237731934, -4.229217529296875, -2.9596452713012695, -1.1438679695129395, -1.5639241933822632, -0.8409506678581238, 0.20903566479682922, -3.8281772136688232, -7.901841163635254, -0.8036525845527649, -1.830654263496399, 1.67304265499115, -0.2076258659362793, -0.8301049470901489, -0.193109929561615, 1.6625919342041016, -2.4046738147735596, -2.322618007659912, 1.457089900970459, 4.518680572509766, -0.1713019162416458, 1.8716468811035156, 0.09583919495344162, -0.018999507650732994, 0.8634043335914612, 2.445183753967285, 2.1979403495788574, 0.805022120475769, 1.4311976432800293, -6.465236663818359, 0.7110018134117126, -4.405345439910889, -5.828458786010742, 1.891699194908142, 4.3462347984313965, -1.3278347253799438, 2.423811197280884, -0.7192747592926025, -3.4778542518615723, -3.6346054077148438, -3.7083873748779297, -0.6358428597450256, 0.3731921315193176, -1.060630440711975, 2.734710931777954, -0.04746948927640915, -0.016525082290172577, 0.8511696457862854, 0.4199536442756653, 1.1551440954208374, -6.712646007537842, -2.778867721557617, -3.388080358505249, 4.32525634765625, 2.2835519313812256, -1.0450986623764038, -2.906574249267578, -0.6024056077003479, 1.4659481048583984, 1.977614402770996, 0.7419607043266296, -4.895506381988525, 0.6780455112457275, -2.8067359924316406, 2.809096574783325, 0.3373749554157257, 2.1860439777374268, 2.1072824001312256, 5.879968643188477, 0.4929913282394409, 4.76526403427124, 2.5154037475585938, 0.2587478756904602, 3.0771169662475586, 0.062248051166534424, 2.788004159927368, -0.6674131751060486, -2.582751750946045, 0.6111131310462952, 1.2477620840072632, 0.19418063759803772, 2.869194507598877, 2.278031826019287, 4.780657768249512, -0.8533114194869995, 0.3874027132987976, -6.676384449005127, 0.07741647213697433, 0.3165801167488098, 0.6532605290412903, -2.773106575012207, -3.044987916946411, -2.0904324054718018, -0.040766697376966476, -1.7823389768600464, -2.0001680850982666, 0.4383834898471832, 1.1509915590286255, -2.987246513366699, 3.7910568714141846, -1.183245301246643, 3.800520658493042, -2.076615810394287, 2.503584861755371, 1.4433397054672241, -0.536625325679779, 0.21939188241958618, 1.9038803577423096, 2.059049606323242, -2.286269426345825, -2.3772599697113037, -0.5078339576721191, -5.727902889251709, -5.554912567138672, 1.0362581014633179, -3.357313394546509, -2.982004165649414, -6.667422294616699, -3.2437219619750977, -1.3712209463119507, 2.306520938873291, 0.9587664008140564, -5.614173412322998, 1.2728561162948608, 1.1870338916778564, -8.89491081237793, 0.281524658203125, 4.469608306884766, -3.0296413898468018, -1.8421204090118408, -3.657485246658325, 2.2941861152648926, -0.5513115525245667, 5.830472946166992, 0.948859453201294, 1.4922733306884766, 6.566085338592529, -1.0734548568725586, 3.311190366744995, -1.2789422273635864, 1.5037437677383423, -2.845226764678955, -3.581550121307373, -3.667006015777588, -1.4626332521438599, 2.096304178237915, 2.013489007949829, -1.991484522819519, -4.658722877502441, -2.7261486053466797, -0.7077445387840271, -0.39232924580574036, 2.569232940673828, -2.3536601066589355, 0.803383469581604, -2.4826180934906006, 0.22940215468406677, 0.20807427167892456, -1.683742642402649, 0.13930264115333557, -1.7185180187225342, -3.425325393676758, -0.47005486488342285, 1.178934931755066, 0.5536758899688721, 1.1112897396087646, -0.9909290075302124, -7.122524738311768, 4.828607082366943, -2.1279895305633545, -0.873979389667511, -1.6638140678405762, 4.12078857421875, 2.5557000637054443, 3.4918289184570312, 2.5486297607421875, -2.432140350341797, 2.339250087738037, 1.1277685165405273, -0.6715614199638367, 2.8163561820983887, -4.103475570678711, 0.7679046392440796, 0.9009106159210205, -1.2607338428497314, 0.28863972425460815, 2.116988182067871, -5.601694583892822, -1.1917307376861572, -1.2712469100952148, 1.8992443084716797, 7.889631271362305, -0.2710161507129669, 1.5509517192840576, -4.658466339111328, -0.7592475414276123, -1.597275972366333, -8.6885347366333, 0.6536399126052856, 0.9129765033721924, -3.424129009246826, 0.8838123083114624, -1.9978487491607666, 0.6745737195014954, 2.8125693798065186, 0.1350315660238266, 0.41185176372528076, -1.895128846168518, -3.8566031455993652, -0.9416248798370361, 0.3060075342655182, -3.299574613571167, 0.3088245689868927, -0.738895058631897, -3.4575884342193604, -1.5223019123077393, -1.694594144821167, -0.5654568076133728, 5.155780792236328, 1.8621869087219238, -1.8191114664077759, -1.6054607629776, 1.1711318492889404, 1.7022532224655151, -3.0406746864318848, -2.4880435466766357, 3.071382761001587, -3.971780776977539, 4.480445861816406, -2.382472038269043, 3.579508066177368, -5.017261981964111, -0.03879603371024132, 0.18475019931793213, 0.38701409101486206, 2.4820845127105713, 0.25627803802490234, 0.45424598455429077, 2.990692377090454, -2.447951078414917, -4.436819076538086, -0.26760023832321167, -1.5958160161972046, -1.8730720281600952, 1.0964055061340332, -4.564992427825928, 2.717024087905884, -2.3167245388031006, 1.5764609575271606, 1.941706657409668, 3.4684932231903076, -3.512552499771118, 1.3445873260498047, -2.920994997024536, 3.0963008403778076, 7.792393684387207, -1.3152612447738647, -4.017023086547852, 5.135486602783203, 0.18824274837970734, 0.07697253674268723, -1.1968801021575928, -0.6465742588043213, -3.856085777282715, 0.2666141390800476, -2.0112953186035156, -0.7375414371490479, 1.5364934206008911, -6.3534321784973145, 1.827683448791504, 2.048295021057129, -2.400914192199707, 0.6006171703338623, 0.10997304320335388, -2.159454107284546, 3.833738088607788, -0.5264208316802979, -2.4651923179626465, 0.10708018392324448, 2.227656126022339, 3.1853082180023193, 2.598351001739502, 1.8323099613189697, -5.890985488891602, 2.9367294311523438, 5.778218746185303, 5.020389080047607, 0.008467948995530605, 0.27887657284736633, -5.483278751373291, 0.7195287942886353, -2.5655317306518555, -2.2482688426971436, -0.20766307413578033, 1.985317349433899, 2.213730573654175, -1.0834006071090698, 1.7631971836090088, -2.4628851413726807, 1.3334085941314697, 0.045208752155303955, -0.3264049291610718, -3.1202056407928467, 1.7034465074539185, 5.978370666503906, 3.884746551513672, -3.1572306156158447, -0.05009103938937187, -7.107006549835205, 3.848365545272827, 0.3168134391307831, -4.2763543128967285, 2.544905662536621, -6.745420455932617, -1.808754563331604, 0.09559990465641022, 5.84325647354126, -1.7578812837600708, 1.3043787479400635, -0.04363410919904709, -2.7244713306427, 0.239407479763031, 5.0362725257873535, 3.7165417671203613, 4.864814281463623, -3.0953831672668457, -5.813746452331543, 1.845223069190979, -3.312868118286133, 0.4999676048755646, 0.053907833993434906, 4.811495304107666, 0.28569266200065613, -1.7196955680847168, -3.5809364318847656, -6.362479209899902, 1.1067148447036743, -1.2060738801956177, -2.5096232891082764, 0.28532037138938904, -0.1896548867225647, -1.4678905010223389, 2.8093199729919434, 1.6986421346664429, -2.0464532375335693, 2.5439515113830566, -2.58349871635437, 1.38960862159729, 2.181840419769287, 1.8263081312179565, 1.714424729347229, -0.11239069700241089, 4.950741767883301, 0.38068926334381104, 5.358462810516357, -2.0325045585632324, -2.092684268951416, 3.7460615634918213, 0.08225184679031372, -1.153352975845337, 2.794731855392456, -2.850663900375366, 1.887265920639038, 0.14252372086048126, -0.890993058681488, -1.9480537176132202, 5.5347795486450195, -1.663953185081482, -1.9636635780334473, 0.5737563371658325, -1.8784770965576172, -2.9861762523651123, -5.149275302886963, -0.339995801448822, -0.678896427154541, -2.9867546558380127, 4.826660633087158, 1.3234126567840576, 0.48270711302757263, -2.3799381256103516, -1.6281410455703735, -1.6540840864181519, -1.522706389427185, 0.03273375332355499, 1.738848328590393, 0.1995675414800644, -2.166377305984497, 3.009434700012207, 4.145608425140381, 5.014451503753662, -3.208158254623413, 1.0930747985839844, -3.614549398422241, -0.935093104839325, 2.677341938018799, 1.9900233745574951, 0.7670738101005554, 1.1752415895462036, -1.8892253637313843, 4.5137481689453125, 5.3272247314453125, 0.43548065423965454, 0.6711551547050476, 2.2179794311523438, 0.5900887250900269, 0.3029966652393341, -1.2106443643569946, 0.9236806631088257, -1.3904290199279785, -1.3366508483886719, -0.5876586437225342, -1.90536630153656, -2.0749666690826416, -7.500882625579834, -3.487121105194092, -1.0955380201339722, 0.14074181020259857, 2.783247947692871, -3.9230592250823975, -4.116326332092285, -0.10954274237155914, -0.7278582453727722, 0.7255133986473083, -1.646829605102539, -2.4364378452301025, 1.572291374206543, 3.529883861541748, 4.2491936683654785, -3.5154669284820557, -6.435882568359375, 3.2183024883270264, 1.81077241897583, -5.975592136383057, -0.09175686538219452, 1.8975554704666138, 4.893416404724121, -1.7391210794448853, 0.8407782912254333, -0.4088326096534729, -5.849032878875732, -1.0720030069351196, -0.32755863666534424, -3.1411244869232178, 2.6874194145202637, 0.5280550718307495, 0.5009733438491821, -2.245995283126831, 0.9716769456863403, -4.9924540519714355, -1.1547731161117554, 0.01769486628472805, 4.737441062927246, 2.4988698959350586, -5.083841323852539, -0.9959025979042053, 5.842747211456299, 1.0882714986801147, -0.5154101848602295, -0.843586802482605, 1.9678574800491333, -2.8197999000549316, 3.7817575931549072, 1.5892528295516968, -3.877166748046875, 0.09626214951276779, 1.4092848300933838, 2.4622740745544434, -2.4381556510925293, 2.105717897415161, -2.0953962802886963, 0.8172705769538879, -5.919686317443848, 0.6150906085968018, -0.023732775822281837, 0.3849785029888153, -3.2257204055786133, 0.7698831558227539, -3.7477946281433105, -2.8080475330352783, 1.7723441123962402, 0.9756043553352356, -4.777601718902588, -7.912424564361572, -0.06718321144580841, 1.994093656539917, -0.05273975431919098, 0.7169908881187439, -0.7555626630783081, -2.2502706050872803, -7.873723983764648, -1.8307610750198364, -0.29168087244033813, 4.7093377113342285, -0.44860512018203735, 0.33466053009033203, -2.036618947982788, -3.7456490993499756, -3.1849114894866943, 4.993148326873779, 2.006580114364624, -3.5224266052246094, -0.7833767533302307, -3.4011495113372803, 1.7044495344161987, 0.29821836948394775, 0.974544107913971, -0.6210353970527649, -0.6935844421386719, 4.183346271514893, 0.280811071395874, 3.772634744644165, -7.412336826324463, 1.3332289457321167, 0.2688751518726349, -1.3951454162597656, 2.9847934246063232, -1.12962806224823, 4.0328192710876465, 1.7088978290557861, 0.7516494989395142, -2.260737657546997, -1.7544904947280884, -1.0886000394821167, -0.7237159013748169, -2.5702247619628906, -1.7800480127334595, -3.3881735801696777, -3.3087422847747803, 0.4969640374183655, 2.6418395042419434, -0.0379825234413147, -2.521649122238159, 4.457040309906006, 0.9143462777137756, 1.8764643669128418, 1.8873631954193115, 1.611139178276062, -2.1427388191223145, -0.4727898836135864, 3.3782503604888916, -9.258416175842285, -2.0745420455932617, -0.9235047101974487, -0.7783874869346619, 0.697350800037384, -1.367256760597229, -1.7648096084594727, 2.9590187072753906, 1.6122455596923828, 0.683875322341919, 0.6959561705589294, -1.3401305675506592, -2.9562299251556396, 2.480571985244751, 2.2083964347839355, 0.4471963047981262, -0.09968579560518265, 3.128983497619629, -1.836988925933838, 2.756960868835449, 1.4005059003829956, -2.2651896476745605, -0.13317418098449707, -4.675093650817871, -5.892734527587891, -3.5096898078918457, 3.7238457202911377, -5.736764907836914, 1.8703564405441284, 0.6435474157333374, -0.682876467704773, 2.719505786895752, -5.023791313171387, -0.8705743551254272, 0.39550912380218506, 2.747054100036621, 3.1664834022521973, -1.0994184017181396, 0.502554714679718, -0.5276325345039368, 0.42462125420570374, 1.1501359939575195, -5.443937301635742, 0.5465232133865356, -2.3396594524383545, 3.4136555194854736, 1.5532361268997192, 1.7400389909744263, 1.585400938987732, -0.6094459295272827, -0.423089861869812, -0.21187134087085724, 1.8013825416564941, -2.6935184001922607, 0.48184695839881897, 0.9320026636123657, 0.5615261197090149, -7.548584938049316, 1.7657767534255981, 0.8531659841537476, 0.5141037702560425, 1.0170880556106567, -1.0159962177276611, -12.248570442199707, -3.9493842124938965, -2.4673523902893066, 0.8113184571266174, -0.14645916223526, -2.2875418663024902, 1.8271158933639526, -1.7410575151443481, -1.0031390190124512, -2.233103036880493, 1.9004408121109009, -0.26933950185775757, 2.606940746307373, -3.2587764263153076, -1.809292197227478, 3.008619546890259, 3.7950439453125, -10.711926460266113, -1.1408569812774658, 0.8633828163146973, -2.9776699542999268, 0.5780669450759888, 3.3790149688720703, 3.676846981048584, 2.7048444747924805, 5.937709331512451, 2.247295618057251, -0.39428022503852844, -4.343581676483154, 0.3138239085674286, -1.2101538181304932, 0.29847320914268494, -2.36647891998291, 2.071600914001465, 3.328577756881714, -1.2568913698196411, 2.285362958908081, 0.7450898289680481, 2.269164800643921, 7.276022434234619, 0.4534263610839844, 1.1994246244430542, 2.067870855331421, -1.5290379524230957, 0.5704852342605591, 1.2170318365097046, 2.367924928665161, 5.6363139152526855, -0.17100098729133606, -0.4043474793434143, -1.3849225044250488, -1.2703827619552612, 4.435468673706055, 5.3520636558532715, 0.12990210950374603, 0.4034748077392578, 3.543985366821289, -2.2374441623687744, -0.1960781067609787, 5.143471717834473, -1.7045859098434448, 2.5880885124206543, 6.399949073791504, -1.7573609352111816, 5.4831953048706055, 2.4711110591888428, -0.1947050839662552, -4.141817092895508, -0.5088950395584106, -1.911390781402588, 4.56964111328125, 5.99329948425293, -6.668578147888184, 4.4784159660339355, -6.794856548309326, 4.022218704223633, -3.8653299808502197, 1.90809965133667, -3.1121387481689453, -3.4366676807403564, 1.740049123764038, -10.59436321258545, 1.6581358909606934, -5.137073040008545, -3.6707820892333984, -1.0276079177856445, 0.12173284590244293, -0.5316826105117798, -0.6562945246696472, -2.8480820655822754, -0.2015775740146637, -0.10747846215963364, 1.8487271070480347, 1.1428858041763306, -3.7624309062957764, 0.8992218375205994, -0.0031451904214918613, 1.1037205457687378, -2.0850024223327637, 1.0126553773880005, -2.7947399616241455, 2.806377649307251, -0.7193718552589417, 3.409245014190674, 3.1917529106140137, -3.2807512283325195, 4.846655368804932, -0.17179839313030243, 2.7180607318878174, 0.9469927549362183, 3.2626752853393555, -2.1652145385742188, 0.1418749988079071, -2.034304618835449, -1.5858219861984253, 0.9015164971351624, 0.9899657964706421, 0.3202339708805084, -2.8896093368530273, -0.4728943109512329, 4.297116279602051, 1.0644440650939941, -2.0614891052246094, -2.2700133323669434, -0.3542848229408264, -6.267981052398682, -0.4942973852157593, 0.6576247215270996, 4.040555000305176, -1.54107666015625, -1.7983756065368652, -1.660597801208496, 1.6181241273880005, -0.19477184116840363, -7.847689151763916, 2.8694071769714355, -2.8990142345428467, -2.1417129039764404, 1.3098547458648682, -2.381350517272949, -2.8453664779663086, -0.601207435131073, 1.6192562580108643, 0.16269829869270325, -4.166845798492432, -0.11108796298503876, -2.323709011077881, -1.279806137084961, 2.6242997646331787, -4.594300746917725, -0.976642906665802, 4.445337295532227, 2.3427488803863525, -0.2975284159183502, 1.6255244016647339, -2.4783172607421875, -4.907680511474609, -2.2643001079559326, -1.167356014251709, 1.684102177619934, 0.2558108866214752, 0.7499039173126221, 2.5171966552734375, -0.9089582562446594, -2.0263240337371826, 2.6254889965057373, -0.09818514436483383, -1.0631965398788452, 3.2562525272369385, -4.802970886230469, 1.6457043886184692, 1.456932783126831, 5.309433937072754, -2.4672935009002686, -3.2427608966827393, -1.8658759593963623, 1.9297977685928345, 1.0036336183547974, -4.094663619995117, 1.5914194583892822, 0.7005477547645569, 1.3906255960464478, 0.08001501113176346, 0.2158757746219635, 2.0384726524353027, -2.381044864654541, 0.9283929467201233, -2.2940521240234375, 5.742319107055664, -0.6248816251754761, -2.80482816696167, 0.4869179129600525, 4.260915279388428, -4.087071895599365, 2.807455539703369, -0.2886779010295868, -1.4991275072097778, -3.48396372795105, -0.11633533239364624, 1.4187371730804443, -8.987167358398438, -0.21337468922138214, -2.758690118789673, 4.626492500305176, 0.04704894497990608, -0.06709469109773636, 2.197343587875366, 0.23841719329357147, 1.8000060319900513, -7.2409844398498535, 3.037121534347534, 0.4785671532154083, -0.37698894739151, -1.6524571180343628, 5.917904853820801, -0.9000557065010071, -1.9060388803482056, 0.04306209832429886, 0.6776101589202881, 2.2447214126586914, 3.2908987998962402, 0.34769394993782043, -1.6242281198501587, 1.9970049858093262, 0.3627876341342926, -8.943323135375977, -3.0186524391174316, -0.8909854292869568, 5.144745826721191, 2.5582468509674072, 2.5701260566711426, -0.018553879112005234, -0.6213027834892273, -0.5043312311172485, -1.1301991939544678, -0.738783597946167, -10.428471565246582, 0.8586714863777161, 1.2249566316604614, 2.6087470054626465, 4.114025592803955, 3.812457799911499, -1.7486523389816284, 0.4880572557449341, -2.625619888305664, 1.5103265047073364, -0.10148633271455765, -2.8975250720977783, -3.245520830154419, -1.4158157110214233, -1.507285237312317, -0.7130308151245117, -1.538246750831604, -1.8542038202285767, 1.3162388801574707, 0.6851152181625366, -4.2811079025268555, -1.74268639087677, 1.0377095937728882, -1.3145883083343506, 2.8157360553741455, -2.940674304962158, -1.68881094455719, 1.2097179889678955, -2.98807692527771, -7.251136779785156, 2.6994621753692627, -0.33500200510025024, -4.9219512939453125, -1.3400031328201294, -1.5457370281219482, 0.35015422105789185, 0.1158466562628746, -0.14425303041934967, -1.0350968837738037, -2.272475004196167, 1.7801508903503418, -3.2457144260406494, -0.6643658876419067, 5.643099784851074, -3.5537843704223633, -1.6676971912384033, -2.0516366958618164, -2.793058156967163, 0.016652368009090424, 1.4232405424118042, 3.9520373344421387, -4.439913272857666, 2.025995969772339, -2.5555202960968018, 1.7683608531951904, 2.2922298908233643, 3.103379487991333, 2.316894292831421, 1.882724404335022, 1.8363105058670044, -4.066620349884033, 1.2713522911071777, -1.7839611768722534, 2.6921474933624268, -0.5184450149536133, -1.556807518005371, -3.0446906089782715, 2.2144107818603516, -0.903741180896759, -0.44978049397468567, 0.6415290236473083, -0.8146147131919861, -6.078374862670898, 3.386841297149658, -0.3440228998661041, -1.1686900854110718, 0.9763530492782593, 1.7251770496368408, 0.5333576798439026, -1.1790454387664795, -7.911406993865967, 2.1964762210845947, 1.5967886447906494, -4.382714748382568, -2.3868625164031982, -1.2221423387527466, -0.5161839127540588, 0.5914643406867981, 0.9395164847373962, 2.256303310394287, 0.5445255041122437, -0.1466834843158722, 2.1549072265625, 1.173391342163086, -0.9168018698692322, 2.9109585285186768, -1.204193115234375, -6.397685527801514, -0.43909797072410583, 0.8580917119979858, -0.09943816065788269, -1.0081387758255005, 0.12377253919839859, -0.5885193347930908, 3.167955160140991, -3.1088743209838867, 1.6359210014343262, -3.6574528217315674, 2.0936057567596436, 0.036872148513793945, -21.521221160888672, 1.2327682971954346, 2.7227981090545654, -0.3423629701137543, -1.1360291242599487, -3.8002021312713623, 1.7417728900909424, -2.400984525680542, -1.5504791736602783, 0.6107367277145386, -1.0128333568572998, -0.23946146667003632, 0.3430861532688141, 3.009507179260254, 0.8693944811820984, 3.613790273666382, 5.057612895965576, 3.0921311378479004, 6.2078423500061035, -1.7411922216415405, -0.42020002007484436, 1.208508014678955, 3.580986976623535, 1.1224536895751953, -0.9554873108863831, 0.7776267528533936, 4.691432476043701, 3.677016258239746, 0.9635012745857239, -2.0288379192352295, 1.734987497329712, -0.4526766240596771, -2.3653616905212402, 1.1022416353225708, -6.245419979095459, -1.3918607234954834, -0.02516254037618637, 3.8031907081604004, 3.0580735206604004, -4.828096389770508, -0.06645657867193222, 3.437268018722534, -3.701671838760376, 0.6628778576850891, -2.1276228427886963, 2.1177024841308594, 1.7859317064285278, 1.547919750213623, -4.033618927001953, 2.067418098449707, -0.27531707286834717, 2.3458893299102783, 1.0382704734802246, 3.827819585800171, -1.420051097869873, -0.16619926691055298, 4.254831314086914, -0.8859370350837708, 1.084067463874817, 4.316789627075195, 2.9845900535583496, -1.2173973321914673, -2.6270408630371094, -0.8475329875946045, 1.1552009582519531, 1.5327521562576294, 1.6317641735076904, -1.1505037546157837, 0.7012060284614563, -2.402564764022827, 3.2051239013671875, 2.438943862915039, 0.7890270352363586, -2.024132490158081, -2.1178128719329834, 0.7491246461868286, 1.6899020671844482, 0.26255178451538086, 3.0888662338256836, 2.2502307891845703, -1.7407143115997314, 3.5911900997161865, 0.11013222485780716, 1.1075794696807861, -4.80902624130249, 0.6661491990089417, -3.829637289047241, -4.435469150543213, 2.8735971450805664, 7.86433744430542, 0.47891363501548767, -0.40758320689201355, 0.5906255841255188, -0.13640600442886353, 0.030111027881503105, -2.028306722640991, -7.204747200012207, 0.2548077702522278, 1.3130375146865845, -2.307128429412842, 3.1220951080322266, -2.914370059967041, 2.138176441192627, 2.112766981124878, -1.4087823629379272, -1.2135919332504272, -5.010664939880371, -2.3329358100891113, 2.2829396724700928, 2.406320810317993, 1.9703612327575684, 0.28660517930984497, -1.6480801105499268, -0.4061320722103119, -4.175381660461426, -3.3700451850891113, 3.7391629219055176, -0.5288856625556946, 0.8590508699417114, -0.4166823923587799, 0.8798226118087769, -0.10280048102140427, 1.364912986755371, 3.228724956512451, -1.5507140159606934, 0.9688600301742554, -0.43742191791534424, -0.6680793166160583, -4.092674732208252, 2.583167791366577, 0.9070733785629272, -3.2852554321289062, -4.179716110229492, 3.243533134460449, -3.3149449825286865, -0.8857520222663879, -0.6752163767814636, -0.14698360860347748, -0.42417919635772705, 0.6746304631233215, 1.2618045806884766, -4.672226428985596, -1.0497492551803589, 5.586970806121826, 1.7271784543991089, 0.12329275906085968, -0.023885229602456093, 3.047849655151367, 1.9965951442718506, -2.318971633911133, 0.8064554929733276, 2.3327245712280273, -1.0146976709365845, -4.170461654663086, -2.763361692428589, -0.8925580382347107, -5.758199691772461, 0.33595314621925354, 1.9084210395812988, 3.146456718444824, 3.9040231704711914, -5.09780216217041, 0.7119594216346741, -1.381110429763794, -4.052926540374756, -0.2861045300960541, 4.994327545166016, 1.9371771812438965, -3.9304749965667725, 1.3904989957809448, 1.828242540359497, 3.6087422370910645, 1.8205583095550537, 2.4545388221740723, 3.2931740283966064, -1.2398148775100708, -1.8302844762802124, 0.7838971018791199, -2.294504404067993, -1.8098434209823608, -0.2693346440792084, -3.4345295429229736, -0.5097748041152954, 0.9120278358459473, -2.0144824981689453, 1.8734047412872314, 0.8481042981147766, 0.5986013412475586, -1.4368094205856323, 0.03911689296364784, -1.7826685905456543, -1.563143014907837, 0.33488649129867554, 1.0129355192184448, 1.2083697319030762, 1.2958837747573853, 1.1774020195007324, -1.3719851970672607, -5.600930690765381, -2.50831937789917, 3.1213738918304443, 2.2512528896331787, 3.6078875064849854, -1.3761231899261475, -0.9355237483978271, -1.2523061037063599, -2.4268269538879395, -0.8276991248130798, -7.7215375900268555, 2.1703972816467285, -1.8388473987579346, -10.169195175170898, -2.7803244590759277, -2.981539011001587, 0.8279615044593811, -1.8987853527069092, 2.567836284637451, 4.528327941894531, -6.61778450012207, -10.50947093963623, -2.517557144165039, 1.6493374109268188, 0.2703288793563843, 1.65367591381073, 1.582770586013794, 1.5521563291549683, -1.3553895950317383, 1.6867800951004028, 5.083763599395752, -0.644995927810669, -0.3656764030456543, 0.1447279006242752, 3.8391897678375244, 4.110055923461914, 0.5427592396736145, -2.2560665607452393, 5.350934028625488, -1.5050263404846191, -2.385572671890259, -1.5859485864639282, -1.0822257995605469, 0.18606822192668915, 3.994418144226074, -5.286993026733398, -6.758426189422607, 0.7757570743560791, 1.0731663703918457, -3.998199224472046, 1.4807463884353638, -5.778819561004639, -1.2446705102920532, -0.694528341293335, 0.1901947259902954, 2.3216259479522705, 2.5551722049713135, 2.6610922813415527, 0.5872429013252258, 1.569144368171692, -1.8464118242263794, 2.2974133491516113, -1.4065505266189575, -3.04498028755188, -0.8903186321258545, -2.5888776779174805, 1.4404329061508179, 1.0823761224746704, 2.864781141281128, 0.9806172847747803, 2.234471082687378, -1.3019927740097046, 0.24382774531841278, 5.646418571472168, -5.739048004150391, -2.2954273223876953, -0.030499670654535294, 0.3227493464946747, -0.7875831127166748, 2.448826313018799, -2.1852147579193115, 0.856718897819519, 1.6878124475479126, -5.454301834106445, -4.894486904144287, -3.108931303024292, -0.007345275022089481, -8.457380294799805, 3.994058132171631, 3.666888475418091, 1.527089238166809, 1.7148209810256958, 2.5632872581481934, 3.8269002437591553, -0.5813448429107666, 1.6716198921203613, 3.942380905151367, -4.1757097244262695, -4.306018829345703, 0.9700112342834473, -1.4536511898040771, 1.7345714569091797, 1.692397952079773, -1.7642982006072998, 4.026942253112793, -4.692020416259766, 2.61464786529541, 2.9089245796203613, 1.4212672710418701, -3.8453588485717773, 0.05713925510644913, 0.3432833254337311, 3.969165325164795, 0.7631312012672424, -1.1530616283416748, -1.6840096712112427, -2.6225812435150146, -2.747215509414673, -0.26022836565971375, -0.5207411646842957, -5.266181468963623, -1.3192559480667114, -6.082980155944824, -2.7644925117492676, 0.5059036612510681, -0.4318506419658661, -2.657595157623291, 3.335589647293091, 0.46645620465278625, -1.1283164024353027, -1.118799090385437, -0.5155362486839294, 2.9701249599456787, 0.8533118367195129, -8.491756439208984, 2.337961435317993, 0.9793357849121094, 4.160831928253174, 4.386384963989258, -1.801278829574585, -1.5414557456970215, -0.44745826721191406, 6.596269607543945, -2.909029483795166, 6.075815677642822, -2.9397237300872803, -0.31618255376815796, -0.45065972208976746, -0.4798246920108795, -2.28511643409729, 0.8108037710189819, 0.27166447043418884, 3.5325989723205566, 4.917715549468994, -0.7679523229598999, 1.3110953569412231, 2.5580267906188965, -0.5300649404525757, -0.4498273730278015, -3.3016762733459473, -1.489753246307373, 3.143038034439087, 0.8703413605690002, 2.157405376434326, 0.2271466851234436, 1.0912022590637207, 0.2640479803085327, 2.0261218547821045, 1.602683186531067, 5.387561321258545, -5.14003849029541, -4.492582321166992, -0.9432278871536255, -1.1874327659606934, -1.31597900390625, -1.6378270387649536, 2.0907480716705322, -1.8713029623031616, -0.699531078338623, -4.360838413238525, 2.5757694244384766, -4.764423370361328, -6.39968729019165, -1.4917514324188232, -8.279913902282715, 3.9533698558807373, 1.9885438680648804, 1.329192042350769, 1.2383251190185547, -3.701059341430664, -1.5841213464736938, -2.4189939498901367, -8.508413314819336, 2.2689974308013916, 1.037100076675415, 0.6848713755607605, -1.774618148803711, -2.856431007385254, -3.8316168785095215, -1.550583004951477, -3.6309831142425537, 3.3353657722473145, -0.8778545260429382, 1.5347328186035156, -1.7677960395812988, -1.0689103603363037, -1.5620874166488647, 0.8759723901748657, 1.892735481262207, -2.0742886066436768, 2.2984416484832764, 3.9547476768493652, -0.8024099469184875, 1.4175341129302979, 3.4283769130706787, 2.6411051750183105, 4.400713920593262, -2.3212850093841553, 0.5168918371200562, -7.404046535491943, -5.199074745178223, -3.1413354873657227, -1.9282299280166626, 0.7862827777862549, 0.48839232325553894, -0.867194652557373, -1.9517377614974976, 0.26688891649246216, -1.7596471309661865, -3.662592887878418, 0.3811749815940857, -1.628523826599121, -0.8171373605728149, 1.2580759525299072, -5.66019868850708, 4.260636329650879, 3.4607419967651367, 1.1891677379608154, -2.496140718460083, -0.14302778244018555, 3.199916362762451, 3.0198588371276855, -0.4889170527458191, -0.408494234085083, -2.309890031814575, -0.33328312635421753, 0.03685949742794037, 3.3566067218780518, -0.832588255405426, 0.3374771177768707, 0.411765992641449, -3.4201645851135254, -2.5329384803771973, 3.966172933578491, 0.7378515601158142, -0.8981204628944397, -3.165733575820923, 0.062342964112758636, -0.7386260628700256, 0.5755156874656677, 0.9080852270126343, -1.7429357767105103, 1.3894411325454712, -2.300401210784912, -2.3273019790649414, 3.9234583377838135, -3.0708088874816895, 2.5622007846832275, -0.7270338535308838, 0.007360446732491255, 0.27405276894569397, -2.894712448120117, 1.7313038110733032, 3.022292375564575, 0.9129219055175781, 0.5855371356010437, -3.4808616638183594, -2.6773524284362793, -0.5542329549789429, 0.17581705749034882, -1.1583893299102783, 1.050682783126831, 1.7719470262527466, 0.6151340007781982, 0.41754254698753357, -0.1745414286851883, -0.6349243521690369, -0.12967371940612793, -3.3033854961395264, -0.06716509908437729, 0.9112209677696228, 2.6367080211639404, -3.4702460765838623, -6.3688859939575195, -2.3887510299682617, 3.4947900772094727, 0.2505300045013428, 1.0018994808197021, 2.5689947605133057, -3.9525930881500244, -0.4117578864097595, 2.9509406089782715, -2.081120252609253, -0.14989718794822693, -7.45562744140625, -0.9823565483093262, -2.033403158187866, -0.7486645579338074, -2.920366048812866, -4.358187675476074, 0.5444425940513611, 0.35895222425460815, -0.08473921567201614, 0.9143394827842712, 3.6867709159851074, 2.335820436477661, -3.8628644943237305, -0.7804691195487976, -1.0015703439712524, 2.422685384750366, 2.278275966644287, 1.7809375524520874, 0.06153173744678497, 0.05072636902332306, 0.24536456167697906, -9.490817070007324, -4.352863311767578, -0.4593266248703003, -3.7365028858184814, -0.8098825216293335, 1.2285653352737427, 1.2634176015853882, -2.3773906230926514, 3.6299190521240234, 1.9291740655899048, 0.919162392616272, -2.530550241470337, 2.9024271965026855, 0.28847870230674744, 2.5589146614074707, 0.16590863466262817, 0.6696652173995972, 8.406291961669922, -4.702154636383057, 1.3411803245544434, 4.673252105712891, 1.9781346321105957, -2.6842265129089355, -1.20569908618927, 0.038389142602682114, -4.42575216293335, -1.0262362957000732, -2.964567184448242, -0.9859063029289246, -8.16160774230957, 0.07137998193502426, -5.7696099281311035, -0.8055004477500916, 2.2954444885253906, -1.4021022319793701, -1.9152296781539917, 0.8704516887664795, -1.947606086730957, -4.129279613494873, 1.5055276155471802, 3.70223331451416, 4.796908855438232, 0.3839443027973175, -0.23634587228298187, -5.446335792541504, 2.498054027557373, 4.478191375732422, -2.2613635063171387, -1.7668378353118896, -1.8932750225067139, 0.8615870475769043, 2.563336133956909, -1.6764277219772339, 0.9384751319885254, 0.8079262375831604, -5.290848255157471, 1.3044672012329102, -1.5704635381698608, 2.047802209854126, -2.2322030067443848, 0.2440623641014099, 3.7772018909454346, 1.7010785341262817, -4.170200824737549, 1.965986728668213, 4.492122173309326, -1.8939234018325806, -0.348317950963974, -0.18183571100234985, 1.945974588394165, 5.129226207733154, 0.8153432011604309, 1.7332292795181274, -1.9797595739364624, 1.0352321863174438, -2.662222146987915, -0.2910081148147583, -0.9783404469490051, 1.6284099817276, -0.49479806423187256, -3.243767261505127, -0.3552026152610779, -0.9711994528770447, 0.1916893869638443, -1.5298036336898804, -1.6193498373031616, 1.8209649324417114, -1.3937935829162598, -0.09721208363771439, 1.0580869913101196, 2.9975171089172363, 1.7269002199172974, 0.9711252450942993, -0.28316015005111694, -0.4019397795200348, -0.13576418161392212, -0.7760342955589294, -5.121818542480469, -2.4803154468536377, 3.897543430328369, -3.042182445526123, 1.4940046072006226, -2.3390085697174072, -1.2990678548812866, 1.558376669883728, 0.40778428316116333, 1.9271541833877563, -2.7907145023345947, 4.3669915199279785, 3.1044111251831055, 3.6571569442749023, -1.3117221593856812, 0.25668251514434814, 2.167741537094116, 1.1189734935760498, -1.060693383216858, -1.9650483131408691, 0.011181277222931385, 0.4462101459503174, -1.3800952434539795, -0.061077821999788284, -0.9407838582992554, 3.125413656234741, -0.133879616856575, -4.7136125564575195, 1.2378467321395874, 6.060673713684082, 3.5294203758239746, 1.5375697612762451, -3.1130571365356445, -0.7229171395301819, 0.4410996437072754, 1.9963080883026123, -3.227656126022339, -4.421553134918213, -1.455725908279419, -7.995221138000488, -1.2869316339492798, 2.9038422107696533, -6.035245895385742, 3.0455482006073, -2.3502907752990723, 0.8287861943244934, 2.9910528659820557, 0.2294197976589203, 6.797436237335205, 3.435798406600952, -5.609475135803223, 1.0947004556655884, 5.405172824859619, 2.1419105529785156, 3.1586620807647705, -5.966485500335693, -2.6740758419036865, -2.44920015335083, -5.132157802581787, 3.3392744064331055, 0.6620515584945679, 2.8662455081939697, 0.41276419162750244, 0.969584047794342, 3.2997329235076904, -1.699729084968567, 2.7612624168395996, 1.8976593017578125, -3.318801164627075, 1.3922240734100342, -1.0470952987670898, -3.195927619934082, -0.06287829577922821, -1.4455156326293945, -3.921410322189331, 1.6227991580963135, 2.277942419052124, -3.7576513290405273, -2.6580801010131836, -4.440673351287842, 3.0727288722991943, 2.6346824169158936, -1.4510926008224487, -3.109127998352051, -2.3951516151428223, -0.6212222576141357, 0.34862521290779114, 2.97928524017334, -2.267221689224243, 0.1426582932472229, -4.032375335693359, -2.1894631385803223, -0.5354201793670654, 5.45310115814209, -6.663873672485352, 0.4210567772388458, -0.6826158165931702, -7.316441059112549, -5.646312236785889, -2.1537370681762695, 0.4597001075744629, 3.8591015338897705, 2.3947558403015137, -1.2855490446090698, -0.05394626781344414, -7.444061756134033, 2.5059101581573486, 3.069694995880127, 2.0300841331481934, -1.9637515544891357, -2.695019483566284, 2.2607712745666504, -2.1546177864074707, 0.9898107647895813, -0.021801359951496124, 0.13022878766059875, -2.7656984329223633, -0.25785788893699646, 1.4923113584518433, 2.444286584854126, -0.20038212835788727, 3.5026609897613525, -6.692040920257568, -1.2971763610839844, -0.12417901307344437, -0.727170467376709, -0.38830795884132385, -4.4463958740234375, 3.6826672554016113, 2.72236967086792, -6.272752285003662, -1.1806681156158447, 0.6966869235038757, -6.721805572509766, 4.7794904708862305, 4.042019844055176, 0.042731817811727524, 0.5554782748222351, -1.8290066719055176, -1.8309930562973022, 4.360418796539307, 1.3529706001281738, -0.6148719787597656, 7.029893398284912, 3.5775532722473145, -3.9218568801879883, -3.232494354248047, -1.656168818473816, -0.425505667924881, 2.6075401306152344, -1.9647331237792969, 2.5251452922821045, 0.6084992289543152, -0.24819213151931763, 0.622051477432251, 2.231353759765625, 0.166476771235466, 1.7350069284439087, -1.9264484643936157, -0.534469485282898, 0.5094224810600281, -4.024986267089844, -1.45601487159729, 1.303816556930542, -14.542743682861328, 0.2442053109407425, 0.538984477519989, -2.2735226154327393, -1.4170403480529785, 2.429359197616577, -1.035954475402832, 3.37161922454834, -0.1642610728740692, -0.0341835543513298, 0.21601581573486328, 0.6329155564308167, 2.3811118602752686, 3.487560987472534, 1.4841086864471436, -0.6527680158615112, -1.1869981288909912, 2.4015026092529297, -0.7979305982589722, -5.160182476043701, -2.3326449394226074, 1.1443285942077637, -1.1180614233016968, -2.2894058227539062, 3.9198391437530518, 2.653028964996338, -5.9581122398376465, -2.3080945014953613, -7.349915027618408, -2.2921414375305176, 3.3138978481292725, 0.2700761556625366, -6.357419013977051, -6.3024210929870605, 2.2210679054260254, 1.3081114292144775, 3.552872657775879, 0.05235128104686737, 4.313807487487793, -1.945603847503662, -1.1771495342254639, -1.5538733005523682, -1.5987231731414795, -0.753761887550354, -0.9801033735275269, -0.0628938153386116, -3.3713929653167725, 1.8981903791427612, 0.07152996957302094, 3.637831449508667, -1.4964184761047363, -3.1042466163635254, -2.9334635734558105, 0.04269290342926979, 3.1196093559265137, 2.148813009262085, -2.225847005844116, -1.1169874668121338, -6.996854305267334, 1.1002129316329956, -1.685503363609314, 0.4919477701187134, -3.8667972087860107, 0.3996661305427551, 2.682833433151245, 2.594076633453369, -2.0821127891540527, 3.161374092102051, 0.7806652784347534, 0.04530701786279678, -1.890142560005188, 2.5090134143829346, -1.854638934135437, -3.177760601043701, 5.193706035614014, 3.9865317344665527, -3.16841983795166, -7.267838001251221, 0.47121191024780273, 1.2315559387207031, 1.9006458520889282, 1.6543337106704712, -3.793372631072998, 3.4900104999542236, 0.7732582688331604, -3.4407925605773926, -3.7698416709899902, -0.3464801013469696, -0.5172063708305359, -1.1952292919158936, 2.5510308742523193, -4.375212669372559, -0.8684307336807251, 6.375637054443359, 0.17812387645244598, -0.4905964732170105, 2.8300938606262207, -1.8931185007095337, -0.09873458743095398, -0.06593352556228638, 0.17674723267555237, 0.30922916531562805, -0.5317642092704773, -1.3080229759216309, -2.209031343460083, 0.07470107078552246, 1.1132524013519287, 4.315398693084717, 2.5417983531951904, 1.404570460319519, -3.1595919132232666, -0.7557716369628906, 5.262547492980957, 3.1735825538635254, 0.16361844539642334, -5.46661376953125, -0.7931029200553894, 1.0809136629104614, -0.7329458594322205, -2.7263150215148926, -1.3452695608139038, -1.8072398900985718, -1.7325867414474487, -1.2127516269683838, 0.6829395294189453, -2.1140260696411133, 3.819587230682373, -4.455986976623535, 5.286571502685547, 0.39772942662239075, -1.1576793193817139, 0.3280147314071655, 0.4421958923339844, -8.568854331970215, -1.356693983078003, -6.8631591796875, 6.2539873123168945, -1.909375786781311, -2.23953914642334, -2.4862680435180664, 3.7506260871887207, 0.5785955190658569, 1.2253295183181763, 2.8010735511779785, 2.866166114807129, -10.529459953308105, 1.6915394067764282, 0.30235597491264343, -4.955420017242432, 2.291449546813965, 1.1846272945404053, 1.0752332210540771, 1.6741197109222412, -1.503966212272644, -0.16039755940437317, 2.543473482131958, -3.526383876800537, 0.38813114166259766, -0.5621436238288879, -2.365696668624878, 0.27187421917915344, -5.523402690887451, 0.04098830744624138, 2.642889976501465, 0.8599899411201477, -1.713786005973816, -11.11296272277832, -5.424865245819092, -6.027071475982666, -5.588479518890381, -1.9585014581680298, 3.3772170543670654, 0.25388750433921814, -4.243801116943359, 1.4331823587417603, 1.4762758016586304, 0.49258166551589966, 0.9120886325836182, -1.3227126598358154, -3.9679808616638184, 0.5199968814849854, -0.16173942387104034, -0.2214912623167038, 0.41605517268180847, -0.4916623830795288, -3.311131715774536, -6.0298848152160645, 0.2954708933830261, 0.6027448773384094, 1.078110933303833, -1.956395149230957, -4.210102081298828, 0.7157600522041321, -1.5825906991958618, -0.21587705612182617, -10.04826545715332, 0.6298823952674866, 1.3576072454452515, -0.9480901956558228, 1.72715163230896, -4.920795917510986, -0.7818530797958374, 0.8193723559379578, 4.175175666809082, -0.573157548904419, 2.3595190048217773, 0.9727540612220764, -0.35020288825035095, 2.2519006729125977, -1.768795132637024, -3.5544700622558594, -0.17250336706638336, -2.271103620529175, -5.8366570472717285, -0.23044882714748383, -5.509636878967285, -3.420325517654419, -3.519681930541992, 1.538551688194275, -3.364720344543457, -2.4562535285949707, -3.208939790725708, 0.10752996057271957, 2.904783248901367, -1.9242092370986938, -1.2970473766326904, 0.42527416348457336, -1.3551756143569946, 1.3487845659255981, -2.1968255043029785, -0.4233551025390625, 0.2875131666660309, -5.7535881996154785, 0.5796861052513123, -4.908356189727783, -0.7899589538574219, 4.770374298095703, 2.747009515762329, -0.18322865664958954, -6.821017265319824, 3.1039302349090576, 2.345092296600342, -3.3041679859161377, 0.8973909020423889, -8.800915718078613, -7.003439903259277, -1.6878684759140015, -0.9584566354751587, -6.079695701599121, -0.18623794615268707, 3.3460004329681396, -4.094976902008057, -1.951682686805725, -1.2756133079528809, 2.3578712940216064, -1.7741619348526, -2.021662473678589, -0.4648602604866028, 4.069019794464111, -3.6787283420562744, 1.4783527851104736, -3.0360987186431885, 0.4299522936344147, -1.4283881187438965, -4.88154411315918, -2.315467596054077, 2.913674831390381, -2.2546024322509766, 0.8242925405502319, 1.3880486488342285, 1.4897949695587158, -1.0994994640350342, -1.8105322122573853, -5.4209208488464355, 2.2570488452911377, 2.0157909393310547, 4.123722076416016, 1.8259468078613281, -1.627658724784851, 2.0918400287628174, -3.150286912918091, 1.8986936807632446, 3.10520339012146, 5.014697551727295, -5.091625690460205, -0.479827344417572, -1.0843294858932495, -3.2872326374053955, -1.3024441003799438, 4.859353542327881, -2.8376693725585938, -0.7141330242156982, -0.7535225749015808, -1.0100127458572388, -2.281566619873047, -1.827455997467041, 4.057984352111816, -4.896647930145264, 1.3562456369400024, -1.208212971687317, -5.854586124420166, -0.6061859130859375, -0.9124142527580261, -3.3564372062683105, -0.4871325194835663, 3.8168044090270996, -4.094820499420166, 1.6562116146087646, 0.9248960018157959, -4.068907737731934, -0.44569894671440125, -1.8271842002868652, 1.6908440589904785, -0.2112528383731842, 5.364614486694336, 0.2073802649974823, 1.200729489326477, -9.612067222595215, 4.19450044631958, 3.0755667686462402, 4.022675037384033, 4.599661350250244, -0.37700414657592773, 4.1750383377075195, -0.5889678001403809, 3.591256618499756, 1.6923654079437256, 0.8756842613220215, -2.871699333190918, 1.7162108421325684, 0.11790589988231659, -2.6684324741363525, -1.3056914806365967, 1.7551579475402832, -3.5772578716278076, 0.5732804536819458, 4.315276622772217, 1.3745720386505127, 3.147462844848633, -3.355276584625244, 5.373353004455566, 0.15776196122169495, 0.314982146024704, -0.9533390998840332, -1.9641814231872559, -1.6308083534240723, 2.1495699882507324, 2.472231864929199, -0.1693786084651947, 2.575658082962036, 2.858428478240967, 5.6828203201293945, 0.7563093304634094, 0.5864272117614746, -6.419230937957764, 2.941741943359375, 1.349036693572998, 1.5595113039016724, -1.80283522605896, 0.9077531099319458, 1.9869009256362915, -6.462550640106201, -0.32785746455192566, 2.417020320892334, -3.0692977905273438, -0.04253716394305229, 0.9592335820198059, -7.251969814300537, 0.8202340006828308, -3.4546263217926025, -0.6753308176994324, 0.6700887680053711, 2.308762550354004, 2.3777425289154053, 3.3069045543670654, -3.194450855255127, 3.4633169174194336, -2.0374693870544434, -1.567716360092163, -5.322561264038086, -0.8938329219818115, 2.7414376735687256, -2.2271575927734375, 1.2471117973327637, 0.6514584422111511, 3.892324924468994, -7.885664463043213, 1.5430914163589478, -8.319426536560059, 4.362007141113281, 2.260410785675049, 3.7860054969787598, 0.8418868184089661, 0.00655476376414299, 0.5767129063606262, 2.2622406482696533, 2.6122939586639404, -0.2089325487613678, -3.887540102005005, -2.5078728199005127, 1.9426155090332031, 0.4685230255126953, 2.0455994606018066, 1.9293051958084106, -1.0809673070907593, -5.425387859344482, 4.44320011138916, 4.614291191101074, -2.8708715438842773, -0.32682672142982483, 0.9079754948616028, 0.4734547436237335, -2.1220014095306396, 2.1363320350646973, -2.145667552947998, 0.7656136751174927, -3.0533230304718018, -1.1245828866958618, -8.736005783081055, 2.640768527984619, -3.76162052154541, -3.6998984813690186, 2.014371395111084, -0.5641639232635498, 2.194883346557617, 2.250004291534424, -7.361998558044434, -0.6947247982025146, 3.040229320526123, -1.7186576128005981, 1.9517163038253784, 1.2612192630767822, -6.006026744842529, -7.101330280303955, -0.5607618689537048, -6.091073036193848, -4.404540538787842, 3.114269256591797, 2.3032233715057373, 3.601320505142212, 1.098494291305542, -4.139909744262695, 2.0772366523742676, 1.7355626821517944, -0.1931707113981247, 1.8270602226257324, -0.7973235249519348, -0.1349896341562271, 1.8235936164855957, -3.2640740871429443, 1.385334849357605, 0.5110328793525696, 2.567446708679199, -6.640204906463623, -0.1894889622926712, -2.116896390914917, 0.17120493948459625, -1.0695362091064453, -1.3465423583984375, -4.133877754211426, -2.0168533325195312, -2.0591602325439453, -5.94917106628418, -2.4203875064849854, -1.4195765256881714, -2.4405672550201416, 0.7971093058586121, -3.4476184844970703, -7.0079193115234375, -0.5238659977912903, 0.6657295227050781, -1.0341233015060425, -7.275792598724365, -5.828874111175537, -3.8847432136535645, -0.6604932546615601, 0.869001030921936, 0.5296133756637573, -2.5858538150787354, -4.78619909286499, -2.6371212005615234, -1.0666251182556152, -4.577413558959961, -0.8187298774719238, -4.085991382598877, -3.2387473583221436, -4.260852336883545, -2.790808916091919, -0.2529776096343994, -6.41873025894165, -1.3773462772369385, -1.139233946800232, 0.05256242677569389, 0.7288535833358765, 1.6141387224197388, 0.3643600046634674, -0.6533171534538269, -2.102032423019409, -4.207024574279785, 1.4886914491653442, 4.042991638183594, 5.709758281707764, -1.767060399055481, 2.235053300857544, 0.5803000330924988, -7.673501014709473, -1.2073458433151245, -3.870680809020996, 3.481243133544922, 0.6218051314353943, -3.081052541732788, 3.9305083751678467, -2.105384349822998, -0.0015550879761576653, 2.8071506023406982, -7.674681186676025, 2.2546334266662598, 0.6636937260627747, 1.5214637517929077, -1.013542652130127, 0.48544928431510925, -8.310908317565918, 4.867025375366211, -0.5999100804328918, -3.3585100173950195, 0.4765744209289551, 2.0872068405151367, 3.6867337226867676, 0.45244115591049194, -1.5014758110046387, 4.095121383666992, 4.190515518188477, -2.5997021198272705, 0.2416342794895172, 3.7432703971862793, 2.0794553756713867, -1.0322356224060059, 3.154965400695801, -1.4891809225082397, -7.218590259552002, -10.135551452636719, -2.3305201530456543, 1.9443007707595825, 0.6550769209861755, -3.0416219234466553, -0.03227083012461662, 5.345479965209961, -2.633833408355713, -0.8628730177879333, -3.111521005630493, 2.173792839050293, -0.31943705677986145, -0.8792227506637573, -0.29368022084236145, 4.862562656402588, -2.985243797302246, -1.2051090002059937, 4.38986349105835, 0.9202588200569153, 0.8052030801773071, 2.6638216972351074, -2.3749778270721436, 0.8854226469993591, 6.908522129058838, 0.2068636268377304, 2.1158368587493896, -0.7063805460929871, 1.1167033910751343, 0.652488112449646, 3.954498291015625, 1.3466894626617432, -0.12738145887851715, 0.3905421197414398, 1.8484147787094116, -0.12092413753271103, -2.7863805294036865, 0.6309928894042969, 0.4294954240322113, -1.4934144020080566, -0.5425800085067749, -6.316160678863525, -1.178652286529541, 1.2534151077270508, -2.363986015319824, 0.3246579170227051, -3.550610065460205, -1.3752775192260742, -1.6209641695022583, -1.569551706314087, 0.22679321467876434, 1.4486885070800781, 0.19768190383911133, 0.863362729549408, 2.4625070095062256, -2.88987398147583, 0.4542825520038605, -0.09155668318271637, -14.31972599029541, 0.6438453793525696, -0.18089626729488373, 4.986425399780273, 2.7867488861083984, 0.1652691811323166, 4.660237789154053, 4.856823921203613, -2.9729881286621094, -1.4031710624694824, 1.6312004327774048, -2.3950982093811035, 3.565760612487793, 2.403231143951416, -6.905425548553467, 1.531806468963623, -1.8123869895935059, 1.2282108068466187, 2.6307384967803955, -1.9814389944076538, -2.9018499851226807, 0.12417083233594894, 3.062894821166992, -1.922475814819336, -1.855751395225525, 1.8788864612579346, -3.1743452548980713, 3.5722951889038086, -1.0217869281768799, -1.8536951541900635, 2.493443012237549, -6.933538913726807, 2.010646343231201, -2.393505334854126, 3.291224479675293, -1.3193461894989014, 5.3473944664001465, -1.9397742748260498, 3.262909412384033, 2.905143976211548, -6.65717887878418, -4.736962795257568, 2.7545993328094482, 3.026562452316284, -3.654344320297241, 0.798766016960144, -3.2682371139526367, 4.879696369171143, 1.818699836730957, 1.9007000923156738, 2.662938117980957, -0.04967945069074631, -0.18194478750228882, 0.01608244515955448, 2.232038974761963, -0.21968801319599152, -3.7836203575134277, 3.9623403549194336, 2.0802910327911377, 1.1223647594451904, 0.02915349043905735, 1.7034883499145508, -1.4111887216567993, -0.7168046236038208, 0.15540234744548798, -6.403922080993652, -3.9379308223724365, -6.070302963256836, 0.7238196134567261, -1.615741491317749, 3.629432201385498, 1.6803817749023438, 1.9259551763534546, -1.1307607889175415, -1.6530805826187134, -1.6136488914489746, 5.848015785217285, 0.614385187625885, 1.8439401388168335, 0.5424740314483643, 2.8228859901428223, 1.395714521408081, 0.29768484830856323, 0.07425625622272491, -0.3621528148651123, 0.25331592559814453, -6.5353102684021, 0.2914718687534332, 5.183847904205322, -3.2120368480682373, 5.58634090423584, 1.723719596862793, -1.6268786191940308, -2.4402921199798584, 0.9509807229042053, 1.016617774963379, -3.149844169616699, -0.2995191514492035, -1.8387783765792847, 1.9030572175979614, -1.2569609880447388, 0.24320030212402344, 1.1177003383636475, -4.268713474273682, 7.235093593597412, 1.4865676164627075, 1.5893505811691284, 1.1875982284545898, -0.5888344049453735, 1.42064368724823, 1.6926716566085815, 5.006063938140869, -5.2085347175598145, -0.6460366249084473, 0.019952451810240746, -0.3771462142467499, -5.356320381164551, -2.938615560531616, 0.49909576773643494, 1.2166959047317505, 0.6338856220245361, -3.5518784523010254, 0.36550745368003845, 5.9463629722595215, -2.705883741378784, 0.8670629858970642, 4.666133403778076, -0.29406410455703735, 1.6100552082061768, 0.996876060962677, -1.7256712913513184, -0.03245077282190323, 6.405179023742676, 3.9500551223754883, -3.297009229660034, 4.408505439758301, 2.9624459743499756, 3.9987971782684326, 0.5688130259513855, -0.713808000087738, -4.520079612731934, 6.559593677520752, -3.392674684524536, 2.5805346965789795, -6.1771240234375, 0.49938780069351196, 4.316011905670166, 4.328897476196289, 0.47043219208717346, 3.3827240467071533, -4.7457475662231445, 0.3856326639652252, -4.14715051651001, 0.07534971833229065, -4.239612102508545, -2.0708775520324707, -5.676494598388672, 2.146791696548462, -2.26326060295105, 0.05665014311671257, 4.020123481750488, -1.952752947807312, -1.7723833322525024, 3.4661448001861572, -3.9184741973876953, -0.4194983243942261, -0.24384866654872894, -0.8285080790519714, -0.8661932349205017, -3.8091869354248047, 6.728301525115967, 0.7148659825325012, 2.5995070934295654, -2.3093721866607666, 0.9821240305900574, 1.6447348594665527, 0.2649077773094177, -0.7464190721511841, 1.1997771263122559, 0.6721437573432922, 4.5258564949035645, -4.657100677490234, 1.9857910871505737, -4.858057975769043, -6.964969158172607, -7.410480499267578, 2.431663990020752, -7.046245574951172, -0.8362061381340027, 0.9969152212142944, 2.1728367805480957, 0.31740596890449524, -8.39141845703125, -3.37798810005188, -0.14798490703105927, -0.3531171381473541, -1.0985817909240723, 2.5802650451660156, 3.184015989303589, -0.5528706908226013, 0.24560502171516418, -1.1797597408294678, -2.560450553894043, 1.5593085289001465, 3.680673599243164, -5.977640151977539, 1.906760811805725, -5.172982692718506, 2.27827525138855, 0.07326781004667282, -3.0379748344421387, 1.5554958581924438, -0.4511115849018097, -3.765951633453369, -0.0016896782908588648, 4.268309593200684, 1.8008626699447632, -0.7415514588356018, -0.8814250230789185, 1.1288009881973267, 1.0736453533172607, -1.131042242050171, -1.1222403049468994, 3.922457218170166, 2.782649278640747, 3.9545843601226807, 1.0407339334487915, -4.50862979888916, -2.072413444519043, 2.1325812339782715, -2.6314947605133057, 2.228593349456787, 6.014590740203857, 0.17830592393875122, 1.4915345907211304, -3.2063217163085938, 1.1269983053207397, -1.8175643682479858, -5.152387619018555, 0.3250699043273926, 0.272902250289917, -3.934831380844116, 1.900710940361023, -4.709872245788574, -0.43421587347984314, 3.049834728240967, -0.37235620617866516, -3.9492170810699463, -2.5108649730682373, 3.229417085647583, -0.6695876121520996, -1.4892915487289429, 1.853935956954956, -3.3752994537353516, 3.1241419315338135, 0.07815884053707123, -4.429181098937988, 3.1092684268951416, -0.36437729001045227, 1.9768396615982056, -0.07674191147089005, 1.0675370693206787, -0.1300000250339508, -0.9602440595626831, 2.8181493282318115, 3.95286226272583, 0.11285404860973358, -7.706342697143555, -0.13545572757720947, 5.286328315734863, -4.109219551086426, 6.648730278015137, -2.840367078781128, -1.065542459487915, -1.1698559522628784, 3.215496063232422, -0.2784282863140106, -0.2628849446773529, -3.3504202365875244, -3.0304110050201416, -4.006004333496094, -2.034285068511963, -4.739799976348877, -1.6659749746322632, -0.05976306274533272, -3.3202903270721436, -3.049401044845581, -5.152109146118164, -3.026340961456299, -1.9628756046295166, 2.745450019836426, 1.878912091255188, 2.315474271774292, -0.8682114481925964, 2.0681064128875732, 1.4440022706985474, 2.6957924365997314, -5.480435371398926, -3.3171780109405518, 1.3815112113952637, -1.0303188562393188, -0.9281398057937622, -2.4837260246276855, -1.680346965789795, 5.899343967437744, -3.30096173286438, 2.9534194469451904, -0.2745555639266968, -0.5472790598869324, 2.97826886177063, -5.151945114135742, 1.382151484489441, 1.3388804197311401, 0.017036642879247665, 3.68267560005188, -2.5619308948516846, 4.377903938293457, 4.166574001312256, 2.718242883682251, 1.4511711597442627, -1.1664373874664307, 1.806749939918518, -6.651760578155518, -1.2962336540222168, -5.920099258422852, 1.4604003429412842, 7.077690124511719, 1.4684504270553589, 3.22465181350708, 1.8876464366912842, 1.4185173511505127, -0.2464604526758194, -3.2697196006774902, 1.9284921884536743, -1.1321099996566772, -4.585547924041748, 0.8518880605697632, 2.0327491760253906, -3.3702964782714844, -4.298339366912842, 2.348633289337158, -0.8407233953475952, -0.48055142164230347, 5.100554466247559, -14.870840072631836, -1.2839714288711548, 3.0923941135406494, -1.873836874961853, -0.9473284482955933, -4.1031270027160645, -4.705713748931885, -2.7091474533081055, -2.777061700820923, 2.0490951538085938, 0.8221659660339355, -1.800234079360962, -2.304717540740967, -0.3527761697769165, -2.527667999267578, 2.5039591789245605, -5.957902431488037, 6.472260475158691, -0.10267259925603867, -0.7366771697998047, 2.7907192707061768, -0.9784035086631775, 2.562140703201294, 4.875105857849121, 0.5259051322937012, 1.030062198638916, -0.20494689047336578, 0.5462990403175354, 2.186004161834717, -0.5420823097229004, -1.8362903594970703, 1.0829545259475708, 1.0353189706802368, -4.621506690979004, 1.4118766784667969, -7.969417572021484, 1.6834144592285156, 0.740490734577179, -5.830977439880371, -1.7380436658859253, -1.1793774366378784, 0.41082796454429626, 0.24954383075237274, 0.5283938646316528, 1.3493109941482544, 3.688692569732666, -0.6963029503822327, 1.9697500467300415, -0.20970523357391357, -0.9494564533233643, -9.159085273742676, -2.7542173862457275, -1.8707523345947266, -6.25100040435791, -4.774585723876953, -0.6513611674308777, 1.1446303129196167, -1.8782236576080322, -2.3352861404418945, -1.9214177131652832, 0.7270442843437195, 0.6378025412559509, 0.8841099143028259, -0.38880079984664917, 2.538926601409912, 1.3156909942626953, -2.3950414657592773, 7.592801094055176, -3.2471323013305664, -2.7462234497070312, -1.1464159488677979, 4.742218971252441, -1.5555521249771118, -0.4156420826911926, -11.64389419555664, 0.5308715105056763, -0.37279781699180603, -3.443087339401245, 3.946197748184204, -2.4790539741516113, 1.1010875701904297, 0.36062461137771606, -2.451702833175659, -0.8004269003868103, 2.8919878005981445, -4.119751930236816, -11.04274845123291, -0.7560710906982422, -2.361541509628296, -2.5784337520599365, 3.421703577041626, 0.2683475911617279, -1.2234801054000854, -1.5125738382339478, -6.821725368499756, 2.2636971473693848, 1.2235020399093628, 0.5859412550926208, -0.11193704605102539, 0.6868200898170471, 1.3838139772415161, 0.8716789484024048, 0.026566799730062485, 1.8573410511016846, 0.35383105278015137, -1.4336587190628052, -0.10844773799180984, -9.3994722366333, 1.398980975151062, 2.6522271633148193, -3.1400511264801025, -0.6412023901939392, -3.20862078666687, -6.415802001953125, -0.643112063407898, -1.4658616781234741, 0.10205145180225372, -3.9261367321014404, 0.7321775555610657, 5.444490432739258, 0.7256956696510315, -2.91365385055542, -2.7544443607330322, -0.06200679764151573, 1.041678547859192, 2.303086996078491, -1.9300732612609863, 2.0277764797210693, 6.499963283538818, 0.8624672293663025, 0.34038764238357544, 1.119845986366272, 2.4021782875061035, 5.4741644859313965, 1.7089793682098389, -0.10847904533147812, 0.3514654338359833, -1.4529985189437866, -0.9604800343513489, 2.2494308948516846, 2.9092087745666504, 2.480248212814331, -2.8047120571136475, 1.2072100639343262, 0.7736364006996155, -1.9862921237945557, -2.294048547744751, -1.9814435243606567, -5.205485820770264, 3.7902822494506836, 3.4459433555603027, 6.638946056365967, -3.480053424835205, -6.066021919250488, 0.6252646446228027, 3.488837718963623, 4.395792484283447, -1.6988751888275146, 1.4937677383422852, -2.4054203033447266, 2.3918609619140625, -3.5976879596710205, -7.109075546264648, -1.7103323936462402, 1.9234565496444702, 1.4657455682754517, 3.4451496601104736, -1.9232178926467896, -1.8141921758651733, -3.344958782196045, -1.7747875452041626, -6.122618675231934, -4.018228530883789, 2.952605724334717, -4.113572597503662, -2.9374136924743652, 1.1120105981826782, -0.05408279225230217, -3.894968032836914, -1.5198559761047363, 1.8662300109863281, -1.4293239116668701, 0.3294702172279358, 1.1113944053649902, 0.6298927068710327, 1.2069717645645142, -0.29721736907958984, 2.341970920562744, -3.081341505050659, 3.891972780227661, 2.30791974067688, 1.760898232460022, -1.1206225156784058, -1.3376073837280273, 2.5154623985290527, -1.86467707157135, -0.36469554901123047, -10.454947471618652, -0.3344019055366516, -1.064965009689331, 3.277569532394409, -5.3088812828063965, 1.3621079921722412, -0.7350205183029175, 2.712085008621216, 0.9746003150939941, 5.485252380371094, -0.157328262925148, -2.8514819145202637, 0.016564976423978806, 4.550525188446045, 3.8972761631011963, -2.5129952430725098, 0.9716320037841797, -1.7746899127960205, -3.459017753601074, -1.9946672916412354, -0.7933284640312195, -1.548634648323059, 0.9250895380973816, -0.39580100774765015, -1.7535289525985718, 4.953787326812744, 0.1521943211555481, -2.4175000190734863, -2.5108683109283447, -0.10482672601938248, -6.513147830963135, 0.7712695598602295, -1.8677160739898682, -3.239830255508423, -7.09957218170166, -5.707820892333984, 1.5118290185928345, -4.626215934753418, 2.4112470149993896, 0.7781751155853271, -0.2491914927959442, 6.199803352355957, -0.4704764783382416, 3.1306419372558594, 1.8530993461608887, 3.699178695678711, -1.8209173679351807, -0.3909413814544678, -0.5341507792472839, -3.2525875568389893, 3.3684065341949463, 4.452927112579346, -1.9430203437805176, 2.1652705669403076, 1.7998207807540894, 5.4663496017456055, -1.239201545715332, -6.621786117553711, 1.5667279958724976, 1.1999653577804565, -3.5461819171905518, 0.9114343523979187, 1.851264476776123, 3.598015785217285, 5.030651092529297, 4.242475986480713, -5.673064708709717, 2.556201934814453, 3.020505428314209, -6.47850227355957, -2.36199951171875, 3.6181349754333496, 0.4161449670791626, 2.9605724811553955, -0.3413581848144531, -2.099257230758667, 0.015324748121201992, 2.1407692432403564, 2.1491403579711914, 1.422386884689331, 0.4550677537918091, -1.2400314807891846, 2.815873146057129, 1.5673017501831055, 4.534453868865967, 4.867943286895752, 1.5032473802566528, 3.0046896934509277, -1.3970423936843872, 0.41156309843063354, -2.019522190093994, 0.19644001126289368, 0.2297814041376114, 1.0365939140319824, 0.1707221418619156, -0.8886754512786865, 0.7664941549301147, -1.000372052192688, -1.8070768117904663, -1.1050796508789062, 2.362208843231201, 5.789625644683838, -5.04121732711792, 10.460354804992676, -2.2598588466644287, 2.1218841075897217, -2.683027982711792, -1.4184653759002686, 4.916048049926758, -3.6208975315093994, -0.4155791997909546, 0.13132883608341217, -3.383887529373169, -2.9828147888183594, -0.9055938124656677, 1.0321179628372192, 1.2455863952636719, -1.9262347221374512, 1.8234835863113403, 2.185457229614258, -1.5183093547821045, 0.36138466000556946, -1.2021872997283936, -2.0064120292663574, -1.8701763153076172, 0.5156580209732056, 3.881026268005371, -2.5054147243499756, 0.053838010877370834, -9.334590911865234, -1.8033976554870605, -4.417656421661377, -3.2685298919677734, -3.1632609367370605, 0.9666472673416138, -2.9733049869537354, 1.8795557022094727, -1.6601614952087402, -0.8766591548919678, -0.7616764903068542, -3.1868951320648193, -6.987915992736816, 0.6963875889778137, -5.8695292472839355, 0.33469364047050476, 2.9260997772216797, -2.1478896141052246, -0.8003410696983337, 1.0135704278945923, -0.8902918100357056, -3.18772292137146, -8.695530891418457, -1.2731391191482544, -10.902626037597656, -0.45655450224876404, -2.016852855682373, 0.3853233754634857, -1.318177342414856, -0.6477031111717224, -3.638446569442749, -3.553103446960449, -1.637765884399414, -2.769212245941162, 0.3544749617576599, 0.02517913095653057, -2.6543538570404053, -1.7949190139770508, 0.06811495125293732, -0.4706518352031708, 0.2111942619085312, 2.331836462020874, -6.546534538269043, -0.6074369549751282, 3.90708065032959, -3.2246758937835693, -3.5639901161193848, -1.9121030569076538, 1.1343739032745361, -0.589007556438446, -1.6161562204360962, 2.5907740592956543, 0.5783094167709351, 1.8377454280853271, -1.852561593055725, -5.210317134857178, 0.8146331310272217, -0.0017282392363995314, 1.9642726182937622, 0.05025728419423103, -0.3778585195541382, -1.0668771266937256, 1.506666660308838, -2.388768196105957, 2.466296434402466, 2.215296745300293, -1.3612982034683228, -1.0192078351974487, 2.2478280067443848, -6.813388824462891, -3.236283779144287, -0.478768527507782, -10.152263641357422, -0.32637467980384827, 3.1906580924987793, -0.8512715697288513, -1.070102334022522, -0.9061806797981262, 1.316640019416809, -4.035566329956055, 0.3198639750480652, 2.224651575088501, -0.4798395037651062, 0.4494291841983795, -4.302399635314941, -0.8102970719337463, -2.0776259899139404, -2.1228320598602295, -0.966815173625946, -3.3713796138763428, 0.8731584548950195, 2.267000913619995, 2.254474639892578, -1.3516240119934082, -1.7114874124526978, 0.6719891428947449, -1.8399773836135864, 6.663330078125, -1.711738109588623, 1.7528623342514038, -0.5249454975128174, 1.6319537162780762, -2.0117974281311035, 0.2570352256298065, 1.3447750806808472, 3.035520553588867, -9.844462394714355, 1.6633071899414062, 2.050576686859131, 0.025782888755202293, -0.033169474452733994, -0.38675859570503235, 0.35174068808555603, -2.000562906265259, 0.6772744059562683, 0.5952227115631104, 1.0059483051300049, -1.1387927532196045, 1.9114158153533936, -1.4703023433685303, -2.958467721939087, -0.15555648505687714, -1.0200361013412476, -3.4651753902435303, 4.835416793823242, -2.555234909057617, -1.6090742349624634, -3.4698691368103027, -1.1490858793258667, -2.727293014526367, 2.4335339069366455, 0.46969544887542725, 1.0272266864776611, 0.35761216282844543, 1.1286251544952393, 1.4584683179855347, 4.805634498596191, 0.8723368048667908, -3.762448310852051, -1.4498041868209839, -3.3873467445373535, 5.331088542938232, 2.084038496017456, -0.22382061183452606, -4.542001247406006, -0.14496096968650818, 1.5454503297805786, -3.075972557067871, 0.9668112397193909, 1.3192551136016846, -1.1376385688781738, -1.0696991682052612, -0.6927591562271118, 0.7815039753913879, 0.986813485622406, -6.8905534744262695, -1.7065144777297974, -2.614703893661499, -7.801064968109131, -1.1899051666259766, 2.6793410778045654, -0.06549423187971115, -4.431130886077881, 0.12552183866500854, -3.459010362625122, 3.9583563804626465, 1.5307636260986328, -1.6138195991516113, -1.919641137123108, -0.23538033664226532, 0.18908120691776276, -1.4419186115264893, -1.3624577522277832, -0.7513611316680908, -0.7319710850715637, -2.4847562313079834, 2.1800122261047363, -11.703522682189941, -0.1692836731672287, 1.1570066213607788, 3.6229636669158936, -0.6817089915275574, 3.303943634033203, -0.20733341574668884, -2.651864767074585, -1.8508825302124023, 0.6298093795776367, -5.746785640716553, 4.214645862579346, -5.330873966217041, -3.65350079536438, 3.904766082763672, 0.14092272520065308, 1.9208762645721436, -0.7278309464454651, 0.4381762742996216, -4.272599697113037, -3.800123691558838, -4.016686916351318, -2.028900384902954, 0.5739322304725647, -2.074739694595337, 3.725353717803955, -1.3033376932144165, 2.2877025604248047, 4.644624710083008, 1.7898504734039307, -3.315488576889038, -3.9637532234191895, -0.3341255187988281, 1.5609725713729858, 5.549440383911133, -0.5205641388893127, 1.9875491857528687, -0.2849823534488678, 2.2930309772491455, 1.7691279649734497, 0.5963346362113953, 2.0040438175201416, -4.977248668670654, -2.9105019569396973, -2.2755355834960938, 4.567058563232422, 2.315647602081299, -8.156664848327637, 5.643482685089111, -1.9880149364471436, 5.687797546386719, 4.4351325035095215, 0.8396595120429993, 2.780820846557617, -1.504376769065857, 1.1882070302963257, 0.045002397149801254, 1.1555081605911255, 0.39175862073898315, -5.360304355621338, -0.5972834229469299, -0.5590372085571289, -0.03328837454319, -0.10243894904851913, -1.5730432271957397, 0.5358514189720154, 1.8657358884811401, 0.9629185199737549, 1.4310625791549683, -0.9681487679481506, 0.4938247501850128, 1.0011663436889648, 2.33278751373291, 0.4549191892147064, 0.7592204809188843, -8.212440490722656, -0.7713130712509155, 3.059300184249878, -9.841634750366211, 2.3538095951080322, -1.0270181894302368, 3.626494884490967, -1.3207112550735474, -4.264559745788574, 1.5878527164459229, 1.2361241579055786, -0.592227578163147, -4.6297688484191895, 3.9823551177978516, 3.3988583087921143, -1.8799971342086792, 0.2831175923347473, -0.25467362999916077, 4.622142791748047, -0.2773075997829437, -10.169283866882324, 2.5166001319885254, 0.8655728697776794, -2.934523582458496, -3.0668909549713135, 0.3049556612968445, -1.9650980234146118, -0.23690259456634521, 1.6464896202087402, -4.223191738128662, -0.6667584180831909, -4.171596527099609, -4.770174980163574, 3.5911600589752197, -0.3659452497959137, 1.1896263360977173, 2.9633853435516357, -0.3946300745010376, 3.012448787689209, 3.1157052516937256, 0.3744999170303345, -3.1224124431610107, 0.6536027193069458, 2.213862180709839, -3.8139140605926514, 0.815392792224884, -5.723514556884766, -2.047320604324341, -0.6324661374092102, 6.313041687011719, -5.9825639724731445, -1.1283061504364014, -2.2571659088134766], "convBias": [0.00013567358837462962, -2.7943700843025e-05, 0.00013348028005566448, -3.7585123209282756e-05, -2.6754652935778722e-05, -5.485508154379204e-05, -9.257035708287731e-05, -2.6332925699534826e-05, 0.00015449084457941353, 4.617161175701767e-05, -4.531551167019643e-05, -1.2383875400701072e-05, -9.397121903020889e-05, -6.528878657263704e-06, -0.00018965391791425645, -0.00013222462439443916, 5.674921703757718e-05, -3.0331544621731155e-05, 0.00040457831346429884, 0.00012870239152107388, 6.617168401135132e-05, -7.605723658343777e-05, -5.4737851314712316e-05, -0.00022482292843051255, -9.042581950780004e-05, 8.475924914819188e-06, -7.740145520074293e-05, 1.176025307358941e-05, -6.596236289624358e-06, -0.0001446185342501849, 9.231812146026641e-05, 2.471303378115408e-05, 0.000172390544321388, -4.773420369019732e-05, 1.582290315127466e-05, 0.00014012152678333223], "inputChannelsDim": 120}, {"convKernelA": [4.484080791473389, -0.4712773263454437, -4.878525733947754, -0.053292252123355865, -1.495066523551941, -2.6517651081085205, -2.345975637435913, 1.6481653451919556, 3.205482006072998, -0.8034274578094482, -0.01759265922009945, 4.748006820678711, 3.888279914855957, -1.2300598621368408, 4.773210525512695, 1.7278188467025757, 0.8813720345497131, -5.680803298950195, 0.8139264583587646, -2.2327377796173096, 4.336418628692627, 0.9248583316802979, -4.080977439880371, 1.2508082389831543, -3.684006452560425, 2.643336534500122, -0.5430291891098022, 1.651073694229126, -3.219193696975708, 0.8497390747070312, -0.290821373462677, 1.4404146671295166, -0.8945525884628296, -4.087826251983643, -2.9190990924835205, 2.8142030239105225, 3.509005069732666, 0.2945156693458557, 2.6325557231903076, -4.257892608642578, 2.2212491035461426, 1.523027777671814, -0.9133004546165466, -0.3049229085445404, 1.2754242420196533, -10.132570266723633, -1.6766103506088257, -10.609009742736816, 3.3650455474853516, -4.3694376945495605, -4.5963850021362305, 4.17713737487793, -0.217455193400383, 1.8821183443069458, 0.8379971981048584, -0.5093536376953125, 2.107018232345581, 1.1611154079437256, -4.626166820526123, 1.178761601448059, 4.169072151184082, -0.6849830150604248, 0.9872727990150452, -0.6251256465911865, -2.850559711456299, 2.5538763999938965, -0.7685984373092651, -1.3421365022659302, 1.9504354000091553, -1.23246431350708, -2.840446710586548, -1.0685666799545288, -2.9329073429107666, -2.304628372192383, -1.3581024408340454, -0.015334203839302063, -1.873639464378357, -1.9802483320236206, 1.2841202020645142, -1.1471960544586182, 3.7581231594085693, -0.5385317206382751, -2.5847909450531006, 1.133074402809143, -2.765394687652588, 3.7087087631225586, 1.1756361722946167, -3.633197784423828, 0.5983909964561462, 1.4790103435516357, 2.1629185676574707, -5.281917572021484, -0.9864673018455505, -5.358261585235596, 1.79908287525177, 3.252788782119751, -0.36592161655426025, -5.588564872741699, -3.111565351486206, 1.3116792440414429, -2.9930689334869385, 1.9174065589904785, -2.142896890640259, -1.9777930974960327, 1.3040968179702759, -2.2919671535491943, 5.311704635620117, -0.7329848408699036, 3.9777002334594727, -9.443184852600098, -0.7371861338615417, -2.3629791736602783, 0.5653173923492432, 1.4677869081497192, 0.7959875464439392, -6.982961177825928, -6.9967498779296875, 0.10311762243509293, 1.9549099206924438, -2.7430686950683594, -1.913474678993225, -8.64181900024414, -4.949470520019531, 0.7054105401039124, 0.2680542469024658, -2.6847074031829834, -0.36470532417297363, -1.1495269536972046, -2.4617972373962402, -3.273002862930298, 0.6580984592437744, -0.6779204607009888, 2.0793166160583496, -1.0088505744934082, 1.5443758964538574, -3.2052407264709473, -0.888174831867218, -0.23071688413619995, -3.004934549331665, -0.11140628904104233, -0.33593520522117615, -3.8496217727661133, 2.6190431118011475, -2.8274898529052734, 3.9825735092163086, -0.24343790113925934, -4.606891632080078, -2.774627685546875, -0.47095513343811035, -0.6186150312423706, -0.3203844726085663, 1.5681264400482178, -0.8479208946228027, -2.22269606590271, 3.2924511432647705, 6.3502302169799805, 1.2391643524169922, 1.661106824874878, 3.3581879138946533, 0.9013686180114746, -4.691563606262207, 1.6982872486114502, 4.791346549987793, 0.03115910291671753, 5.632314205169678, 0.08494623005390167, 1.492127537727356, 0.0008204860496334732, 1.9500761032104492, -3.360689163208008, -4.15706729888916, 1.8486685752868652, 0.26895561814308167, -4.586629867553711, -5.549912929534912, -4.847006797790527, -1.520032286643982, -1.5643055438995361, 0.13239701092243195, 2.3453502655029297, 1.3023501634597778, 3.148521661758423, 2.3836781978607178, -0.02779262326657772, 1.7525084018707275, -1.107408881187439, -4.690366268157959, -1.708335518836975, -0.43101927638053894, 0.830257773399353, -1.4295142889022827, -5.135446548461914, -0.3182564675807953, -3.787686586380005, -2.9691457748413086, -1.971207618713379, -2.3997886180877686, -3.0149593353271484, 0.77677321434021, -2.4326331615448, 1.5934978723526, 3.375023603439331, -6.6690168380737305, -1.5861283540725708, 1.5685752630233765, -1.502062439918518, -1.6218607425689697, -5.926553249359131, 0.3240019679069519, -3.029937505722046, -3.444984197616577, -0.9013627171516418, 1.4154764413833618, -1.4566028118133545, -1.7482593059539795, 2.440877676010132, -9.016154289245605, -2.4679338932037354, 0.027153775095939636, 5.443854808807373, -4.194979190826416, -0.881361186504364, -2.133924961090088, -6.978479385375977, -1.2405909299850464, 3.5464301109313965, -1.96543550491333, -2.3400394916534424, -2.939276695251465, -0.6966888904571533, -0.4831928610801697, -3.448819637298584, 4.889645576477051, 0.3009556233882904, 0.5501000881195068, -1.3723335266113281, 1.991836667060852, -2.188591957092285, 1.692595362663269, 3.2150752544403076, 0.19012397527694702, -4.553823471069336, 2.402275562286377, -3.488615036010742, -1.3387365341186523, 0.00848422758281231, -0.3269471824169159, 0.45615053176879883, -2.2678205966949463, -1.097289800643921, -0.22277723252773285, -6.229645252227783, -4.185433387756348, -0.3017106056213379, 0.6817732453346252, -1.7095155715942383, -3.9360806941986084, -5.286070823669434, -0.6191328763961792, 4.8317131996154785, 2.0395779609680176, 0.09033705294132233, -4.688638210296631, -1.9090137481689453, -1.0685899257659912, -1.8109768629074097, 3.882078170776367, 3.582307815551758, -1.2788162231445312, 3.7653703689575195, -1.94697904586792, 1.2114781141281128, 1.3177146911621094, -0.9073803424835205, -2.0175814628601074, 0.6067206859588623, 0.915481686592102, 1.3326725959777832, 1.4219119548797607, -0.4444273114204407, -0.06080164015293121, 0.9618384838104248, 1.4241437911987305, 1.541121006011963, -1.7656182050704956, -5.852473258972168, 0.4187084138393402, -4.558356285095215, 3.909905195236206, 0.5230194330215454, 0.4457981586456299, 1.3705159425735474, -2.5534496307373047, 5.505335330963135, 1.0482456684112549, 0.929630696773529, -1.4769374132156372, 0.9676648378372192, -1.0593456029891968, -1.7184795141220093, 3.8978960514068604, -3.068429946899414, 1.0432615280151367, -2.2689833641052246, -0.24043314158916473, -1.1334987878799438, -3.6071951389312744, -3.609858274459839, 0.869882345199585, -4.203103542327881, -5.172416687011719, -2.0416059494018555, -1.2402238845825195, -2.111845016479492, 0.005323601420968771, -0.9863542914390564, 1.924342155456543, 1.489465355873108, -1.379328727722168, -2.4983413219451904, 2.2911083698272705, -2.4850447177886963, 0.5599666237831116, -1.1177921295166016, -1.7889765501022339, 2.581110954284668, 1.688691258430481, -3.4649345874786377, -3.759528636932373, 3.431260108947754, 3.2798638343811035, -4.991557598114014, 0.043701376765966415, -2.8892621994018555, 4.941373825073242, -1.35659921169281, 4.476648330688477, 1.0150368213653564, 0.8068801164627075, 0.3927542567253113, -7.378322601318359, 6.839511394500732, -0.7592014670372009, 0.3788342773914337, 0.0766960009932518, 2.831418991088867, 2.1502461433410645, -1.8527318239212036, 0.2653322219848633, 0.5324554443359375, 3.3606390953063965, -3.5133543014526367, -1.7287602424621582, 0.6372541189193726, -2.781682252883911, 0.47826096415519714, 1.2876460552215576, -1.5103343725204468, -4.827315330505371, -6.2314887046813965, 1.0877832174301147, 1.9781640768051147, 1.7394222021102905, 3.749680519104004, 3.610279083251953, 1.7036279439926147, -2.674457311630249, 2.6011974811553955, 5.686932563781738, 0.35369592905044556, 2.388427972793579, 3.556182384490967, -2.217703342437744, 0.2569000720977783, -4.57765531539917, 3.833620309829712, -0.9991355538368225, 5.436174392700195, 1.188269019126892, -0.4517190456390381, -4.43131160736084, 0.005744754336774349, -1.6364386081695557, -0.12732675671577454, -3.023754596710205, -3.644660711288452, 2.986273765563965, 2.551626682281494, 3.0459516048431396, 3.2714908123016357, -7.558653354644775, -0.8474320769309998, 3.7880215644836426, 1.944516658782959, -5.519270896911621, 3.827322483062744, 1.327826738357544, -5.153440475463867, 0.4380081593990326, 4.885498523712158, 2.1177306175231934, 4.193987846374512, 1.3254231214523315, 1.3091567754745483, 0.4639885127544403, 2.694892644882202, 0.33684927225112915, -0.15138018131256104, -2.6921226978302, 1.0484676361083984, 3.97678542137146, 2.7158164978027344, 0.7877460718154907, -6.206178665161133, -0.6614729762077332, 1.8858202695846558, 0.5903859734535217, -2.59563946723938, 0.33609068393707275, 0.22450095415115356, -6.2907795906066895, -0.5044903755187988, -2.6829121112823486, -7.102603435516357, -2.6018500328063965, 0.9178456664085388, 2.0787150859832764, 0.23924648761749268, -2.0210719108581543, -2.995657444000244, 3.3974509239196777, -1.0668206214904785, 3.196963310241699, -2.7829720973968506, 0.5476064085960388, 5.544898509979248, -0.1993582844734192, -1.3490427732467651, -1.8213661909103394, -1.718016505241394, 1.9517390727996826, 5.541442394256592, -2.4045732021331787, 0.1257815808057785, 3.5451691150665283, -1.8478455543518066, -11.9442720413208, -0.17361143231391907, -3.210970640182495, -2.5155465602874756, -2.749824285507202, -1.8088479042053223, -2.026994466781616, 0.5795157551765442, 0.8226144909858704, 2.0879318714141846, 3.515676259994507, 1.6762473583221436, 1.146918535232544, -3.2939836978912354, -2.8745498657226562, -0.8850244283676147, 0.2699471414089203, 1.0897096395492554, -3.353013277053833, -0.2540794610977173, -0.009884377010166645, 1.4239908456802368, -3.771289110183716, -2.1119699478149414, -4.486439228057861, -0.042118269950151443, 3.6437485218048096, -6.894514560699463, 1.311178207397461, 0.28369706869125366, 5.653801441192627, -1.160961389541626, -6.018263339996338, 0.7539994716644287, 1.467743992805481, -1.5765918493270874, 0.25902459025382996, -0.6167201399803162, -3.015007495880127, -1.5081068277359009, -5.61840295791626, 0.8730446100234985, -0.045123763382434845, 0.7849690318107605, -3.3392088413238525, 0.6755357980728149, 1.191481590270996, -2.8250696659088135, -3.9750049114227295, -3.039458751678467, -5.62058687210083, -6.635380744934082, 1.8729008436203003, -2.7788121700286865, -0.7109981179237366, 0.46243762969970703, 1.9376497268676758, 0.5764203667640686, -5.001765727996826, 1.4495726823806763, -3.698045253753662, 1.6147844791412354, -9.22608470916748, -0.7740365266799927, 0.3455532491207123, -1.8244078159332275, -1.6228595972061157, -0.044986575841903687, -0.5762999057769775, -1.352040410041809, -0.8556718230247498, -0.20818528532981873, 0.36731815338134766, -4.283274173736572, -3.447883129119873, -0.8743569850921631, -3.1376144886016846, 0.07018616050481796, 10.135675430297852, 1.864624261856079, -0.6207342743873596, -1.3553451299667358, 1.4774197340011597, 5.704238414764404, 1.039625644683838, 0.34270042181015015, -7.592718124389648, -5.227231025695801, 2.131287097930908, 1.323509931564331, -1.1176934242248535, 3.74178147315979, -4.839879035949707, -1.2086734771728516, -0.21482844650745392, 2.6743288040161133, -2.3180673122406006, 1.3645212650299072, -3.4187686443328857, -3.7607486248016357, 2.8008060455322266, -0.07196536660194397, 1.9989558458328247, -1.7644658088684082, 2.0957963466644287, -4.192652702331543, 0.005375987384468317, 2.167447090148926, 1.9076331853866577, -0.5762673020362854, -3.8387529850006104, 3.8177990913391113, 0.983180820941925, -0.8752579092979431, -0.7709534764289856, -0.25785452127456665, 5.740407466888428, 1.9906622171401978, -1.9807424545288086, -6.243348121643066, -3.7145824432373047, -0.7313736081123352, 0.9585764408111572, 0.7363248467445374, 0.6243990063667297, -0.22895856201648712, 1.355002760887146, -1.546241044998169, -1.3299099206924438, -2.536559820175171, 3.402911901473999, -0.8119561076164246, -0.7310231328010559, 1.9975920915603638, -7.187872409820557, 1.0619264841079712, -3.1159439086914062, -7.633774280548096, -5.305567741394043, -1.5829180479049683, -0.9749747514724731, -1.546484351158142, -0.08277159184217453, -1.7575894594192505, 0.9224846363067627, 3.009525775909424, 3.5459985733032227, 0.4844444990158081, -0.5707420706748962, 1.9276905059814453, 2.6925175189971924, 0.8349295854568481, 2.039858102798462, 0.3803565502166748, 4.212444305419922, -0.5475147366523743, 0.62784743309021, 1.1079819202423096, 2.4142298698425293, 5.303953170776367, -0.24647639691829681, -5.691182613372803, 0.7469512820243835, 2.111849069595337, -3.1827962398529053, -3.209662675857544, 3.5028131008148193, 7.488891124725342, -2.4416866302490234, -0.7510886192321777, -3.710155487060547, 0.7933158278465271, -3.3312864303588867, -2.62823748588562, -0.20406928658485413, 0.3250611424446106, 1.6056487560272217, 0.36427995562553406, -1.7527562379837036, -0.10094194859266281, 0.6153759956359863, -2.773141622543335, -2.5157358646392822, -0.0013279793784022331, 0.8357843160629272, -4.371703624725342, -3.963670015335083, 2.8064141273498535, -0.5545875430107117, -9.359416007995605, -7.008767604827881, 5.580243110656738, 0.45225492119789124, 0.9683894515037537, 0.9143815040588379, -0.43259280920028687, 0.8498154282569885, 4.484160900115967, 0.5102231502532959, -3.5294394493103027, 2.5698444843292236, 0.5631295442581177, 4.04680871963501, 4.112826347351074, 0.1431029587984085, -3.196730136871338, 1.9790550470352173, -1.1828346252441406, -0.2715468406677246, 2.2423288822174072, 0.9690922498703003, -1.0797861814498901, -2.765453815460205, 1.051637053489685, -4.156955242156982, -1.709113359451294, 3.938979148864746, 3.7221617698669434, 0.8478365540504456, -0.401891827583313, -5.875668048858643, -3.3046510219573975, -4.231903553009033, 2.092400074005127, 0.48585036396980286, -2.8471872806549072, 2.645998001098633, 3.3662455081939697, -2.978390693664551, 3.768795967102051, -2.6708943843841553, 2.330731153488159, -8.587419509887695, 2.673532009124756, 0.532687783241272, 4.982163429260254, -3.599010705947876, 2.082043170928955, -0.5243355631828308, -0.06052085757255554, -4.775674819946289, 0.5135586261749268, 4.338287353515625, 0.9115995764732361, 4.5575385093688965, 2.6041152477264404, -3.122171640396118, -0.9457740783691406, -1.7016003131866455, -2.360982656478882, 1.439581036567688, 5.471257209777832, -3.3415703773498535, -6.686810493469238, -1.7302136421203613, 2.2634685039520264, 1.9180549383163452, 1.333985447883606, -1.2902898788452148, -0.5264818072319031, -1.5106838941574097, 0.5194692015647888, -0.7146985530853271, 0.6397754549980164, -2.8961281776428223, 0.8735560774803162, -4.068100452423096, -2.544755697250366, 0.797568678855896, 0.25704705715179443, -2.319009304046631, 1.6785391569137573, -0.9612884521484375, -1.194819688796997, -1.2412863969802856, -1.8665956258773804, -0.14478245377540588, -0.40817850828170776, 3.787425994873047, 0.8440991640090942, -0.1774149090051651, 1.3566964864730835, -2.7732064723968506, 2.3896703720092773, 0.7215582132339478, -1.0098519325256348, 0.8941529393196106, -0.5657721757888794, -1.552721619606018, -0.10754574835300446, 4.5311455726623535, -0.581579327583313, 1.3311975002288818, -2.4118998050689697, 0.25501418113708496, -6.2939839363098145, 1.1911649703979492, -4.254772663116455, 0.6638994216918945, -0.014736137352883816, 4.773482322692871, -5.143109321594238, -1.33385169506073, 0.3653094172477722, -4.525582313537598, -3.0922882556915283, 0.2143685221672058, -0.5823479294776917, -4.38063907623291, 3.322516918182373, -4.343745708465576, 1.4639806747436523, 1.7140955924987793, -2.2046828269958496, -2.6819539070129395, -3.277292490005493, 1.997475028038025, -0.6632069945335388, -0.02575954981148243, -0.8014140129089355, 5.1729044914245605, 0.9827211499214172, -1.5146818161010742, 3.881697654724121, -4.0100603103637695, 2.3781819343566895, 1.2177762985229492, -2.5761094093322754, 0.3630346655845642, 0.9352582693099976, 1.0733482837677002, 1.0685933828353882, 0.8282619714736938, 0.7126945853233337, -0.06276082992553711, 0.44009408354759216, 1.4660108089447021, -0.24964667856693268, 0.18906962871551514, -2.572866916656494, 7.778132438659668, 3.8633415699005127, -1.6772115230560303, 7.071466445922852, -7.651087760925293, 1.514700174331665, 0.14132775366306305, -0.4035049080848694, -1.8799593448638916, 1.4728238582611084, -3.573235273361206, 1.9962424039840698, 3.86422061920166, -3.9471054077148438, -0.07507986575365067, 5.218748092651367, -1.148776888847351, -1.8732129335403442, 1.7790076732635498, -2.249706745147705, -1.7803101539611816, -3.425381898880005, -0.3556423485279083, 6.480875492095947, 2.3892199993133545, -1.570363163948059, -6.539046764373779, 1.9301490783691406, -9.343626022338867, -2.416916608810425, 2.3414359092712402, 0.4942622482776642, 6.467898368835449, 2.5858263969421387, -0.32366910576820374, 0.9947225451469421, -0.3165239989757538, 1.0344281196594238, -8.514833450317383, -2.776945114135742, 0.9135609269142151, -1.0419652462005615, -2.9360995292663574, -1.0333175659179688, -0.2050381451845169, -0.7465425729751587, -2.707326889038086, 0.8047269582748413, -0.786491334438324, 2.128788709640503, -0.13705801963806152, -5.745197296142578, 1.7174221277236938, -1.4869028329849243, 0.3576861321926117, 1.0001424551010132, 0.18394213914871216, -0.7627153992652893, 2.2994697093963623, -2.1113340854644775, -0.7147386074066162, 5.183144569396973, -1.2776482105255127, -2.59535813331604, 2.0267770290374756, 2.2045912742614746, -4.2475385665893555, -5.656556606292725, 1.1833544969558716, -0.43484607338905334, 1.5107351541519165, -1.8828989267349243, 1.0838056802749634, 5.032159328460693, -2.952754497528076, 2.621603012084961, 0.54144287109375, -0.772641658782959, -1.3658511638641357, -6.024305820465088, -0.010948129929602146, 1.3432214260101318, -5.091587543487549, 3.356788396835327, 1.5680646896362305, 0.036626167595386505, -3.188704252243042, 5.280847072601318, -2.495431900024414, 1.9944027662277222, -6.077557563781738, 3.3677122592926025, -2.226017475128174, 5.212116241455078, -1.1259474754333496, 1.89641273021698, 0.8480760455131531, 1.646679401397705, -0.7595853805541992, -5.310348987579346, 4.83233642578125, 2.8269457817077637, -1.7205945253372192, 2.2521471977233887, 1.561514139175415, -0.23161494731903076, -3.8045432567596436, 1.6248196363449097, -0.7148791551589966, -3.8032662868499756, 4.610174655914307, 2.6188242435455322, -1.6538840532302856, 0.8672533631324768, 0.30774903297424316, -0.11594726145267487, 0.2860971689224243, 4.0184855461120605, -2.453171730041504, 3.1563260555267334, -4.491282939910889, -2.158607244491577, 0.7594726085662842, 1.4869794845581055, 2.391373872756958, 2.7193033695220947, -3.1533803939819336, -6.110028266906738, -5.0747504234313965, -1.970896601676941, 0.16886837780475616, 1.2599457502365112, 0.296271950006485, 4.96953010559082, -4.793519496917725, 1.2866897583007812, -5.095119953155518, -1.0931637287139893, 1.2644513845443726, 0.2826555669307709, 2.1245875358581543, 1.1180334091186523, 2.897841215133667, -2.0511534214019775, -4.397708415985107, -3.806973695755005, -6.294209003448486, -1.3740103244781494, -5.8490681648254395, -2.564640760421753, -1.458725094795227, -4.019801139831543, -1.155929446220398, 2.5695295333862305, -0.0529223196208477, -6.237438678741455, -3.4805831909179688, -1.3188891410827637, 5.067321300506592, 0.9360132813453674, -7.3420329093933105, 0.25599101185798645, -0.8256873488426208, 2.8403546810150146, -1.3607097864151, -2.3695061206817627, -0.9034069776535034, -2.638070583343506, -0.8033037185668945, -0.5777232050895691, -1.871629238128662, 0.5946536064147949, -2.9326939582824707, 0.7931328415870667, -0.9420623183250427, -1.941566824913025, -0.32872503995895386, -0.6427869200706482, -1.749051809310913, -1.2335517406463623, -1.0391130447387695, -2.5982234477996826, 0.3541956841945648, 1.7036352157592773, 2.7196311950683594, 0.7610800266265869, 2.400545358657837, -6.913995742797852, -1.0151348114013672, 0.3482881188392639, 2.2178761959075928, -2.455244779586792, -1.345081090927124, -7.462663650512695, -1.7857269048690796, 0.646111011505127, -1.2793946266174316, -0.9935690760612488, -1.6358975172042847, -6.235202789306641, 2.7162749767303467, 3.926945209503174, -3.003441572189331, -6.2413716316223145, 0.986075758934021, -1.1370360851287842, -6.8339924812316895, 0.8615790605545044, -1.1306642293930054, -2.894865036010742, 3.0455963611602783, 1.209802269935608, -3.6500401496887207, -3.5747499465942383, 0.5466312766075134, -0.2847228944301605, 5.064631462097168, 1.7418626546859741, 0.8592237234115601, -3.773711681365967, 0.8487421274185181, -2.7117934226989746, -0.5998926162719727, 0.49551835656166077, -4.269648551940918, -1.4421274662017822, -0.21966126561164856, -2.0304505825042725, -0.12377425283193588, -1.3958828449249268, -3.66540789604187, -0.9663028120994568, -3.6953125, -0.13916124403476715, 0.5818214416503906, 0.8343300223350525, -3.8690333366394043, -1.5519813299179077, 2.653700590133667, -4.5276570320129395, -0.19520172476768494, 0.5725201964378357, -3.0541563034057617, -3.309723138809204, 0.8177921772003174, 6.704385757446289, 4.333827495574951, 3.2980353832244873, 2.3119187355041504, -2.06907320022583, -3.4155263900756836, 1.0417308807373047, -0.5841018557548523, -1.7434152364730835, 5.78411340713501, -0.1799042671918869, -0.7587150931358337, -0.12009293586015701, -3.193390130996704, 0.3999372124671936, -1.013131856918335, 2.116347312927246, 2.665984869003296, -0.6332886815071106, -3.5003299713134766, 0.46384283900260925, -1.1562225818634033, -4.992073059082031, -4.934682846069336, -4.975085258483887, 0.9352035522460938, -2.6269516944885254, -2.5681583881378174, -0.6497021913528442, -3.555103063583374, -3.4092860221862793, -0.6291393637657166, 2.6063342094421387, -0.4153760075569153, -2.0229415893554688, -2.30780029296875, -0.6872143149375916, -0.5031678676605225, 1.0960537195205688, -6.997122287750244, 0.19755563139915466, -1.0207337141036987, -1.8096740245819092, -6.995237827301025, 0.2774265706539154, 2.5290918350219727, 1.1164342164993286, -6.343489646911621, -7.106729030609131, 1.1833415031433105, -4.600618839263916, 1.0805540084838867, 3.6332015991210938, -2.629906177520752, -1.6027623414993286, -2.171443223953247, -0.9993309378623962, -0.18420659005641937, 0.9359826445579529, 0.8193105459213257, 1.021616816520691, -3.0649807453155518, 1.5132874250411987, -1.4826184511184692, -1.6431455612182617, 1.2793354988098145, -0.37096691131591797, -1.9555084705352783, -1.8777670860290527, -2.233883857727051, -1.4454646110534668, -1.9037022590637207, -4.261011123657227, 1.402617335319519, 2.3450934886932373, -4.886569976806641, -1.0378637313842773, 0.5206633806228638, 0.6422294974327087, -2.216477155685425, 2.2836945056915283, 0.15792405605316162, 3.4067776203155518, 0.36674025654792786, 1.5726693868637085, -1.7455509901046753, 3.9183218479156494, 1.888116717338562, 4.270176887512207, 1.509365439414978, 4.545862197875977, 2.973496913909912, -3.2824838161468506, 0.5558903813362122, 1.2421735525131226, -1.9069944620132446, 3.1891531944274902, 3.270643949508667, -0.5061953067779541, -2.8227314949035645, 0.5059919357299805, 1.61741042137146, -2.8596599102020264, 1.3878601789474487, 1.861243486404419, -0.1823820173740387, -0.27111944556236267, -0.5497236251831055, 2.922567367553711, -4.512369155883789, -0.37230849266052246, 2.6760854721069336, 2.750823974609375, 1.546322226524353, -3.4135453701019287, -1.8391666412353516, -0.29462888836860657, 4.370924472808838, -0.5161895751953125, -0.6988517045974731, -3.255866765975952, 3.975201368331909, 1.8197870254516602, -1.111393690109253, -5.414905548095703, 0.211366206407547, -0.37013617157936096, -0.037723883986473083, 1.3199220895767212, -5.233541011810303, -2.710970640182495, 3.2210617065429688, 1.691301941871643, 3.1730823516845703, 0.3693426251411438, 4.182305812835693, -2.7472193241119385, 0.20466861128807068, 2.7249372005462646, 3.442168951034546, -1.1830090284347534, 0.3570746183395386, 0.6482333540916443, 3.3917715549468994, -2.977945327758789, -0.12729114294052124, 0.6558972597122192, -7.71328067779541, -0.16780021786689758, -4.922596454620361, 2.0002615451812744, -4.424227237701416, -0.8132989406585693, 0.5532919764518738, -6.432853698730469, 2.1113457679748535, 0.5080713033676147, 4.254262924194336, -0.8571805357933044, 6.075644016265869, -1.9482766389846802, 5.538644313812256, 3.6504745483398438, 2.634171724319458, 1.8352996110916138, 1.9571534395217896, -4.926397800445557, 0.1928441822528839, -0.387596994638443, 6.309457302093506, 4.699943542480469, -5.355672359466553, -8.342747688293457, -4.174812316894531, -1.5306609869003296, -3.0955400466918945, 2.0681090354919434, -1.0128765106201172, 0.9169904589653015, 0.41363996267318726, 0.5341238975524902, 0.6828451752662659, 0.5772655010223389, 0.34700119495391846, -0.9758794903755188, -1.5641604661941528, 0.3066393733024597, 1.31159245967865, -0.15502922236919403, 2.956352949142456, -2.001328229904175, 3.3122479915618896, -1.3350766897201538, -3.8277297019958496, -0.9877475500106812, -4.382102012634277, 3.935443878173828, -1.622136116027832, -1.140555500984192, 1.3291127681732178, -3.5713517665863037, 1.003859043121338, -0.44605007767677307, -0.1750846952199936, 2.569079875946045, 2.550865650177002, -1.9854161739349365, 2.846994400024414, 4.28576135635376, -3.027578830718994, -2.9447875022888184, -1.7666282653808594, -0.9543004035949707, -4.72737455368042, 5.88639497756958, -2.261550188064575, -1.3560781478881836, 4.753811836242676, 2.637162923812866, -5.253394603729248, 1.2869409322738647, -0.9919497966766357, -2.921987295150757, -2.9564015865325928, -1.7768062353134155, -3.0911595821380615, 1.3448995351791382, -1.2810133695602417, 3.4886600971221924, -0.19634275138378143, 0.8987550735473633, -2.339160919189453, -1.8269295692443848, 2.803417205810547, 2.020461082458496, -0.32212376594543457, 0.8921217322349548, -4.860570907592773, 1.290090799331665, 0.2764686346054077, -8.374740600585938, 4.670628547668457, 2.5256028175354004, -0.6315702795982361, 3.314915180206299, -0.054111629724502563, 1.6955689191818237, -6.689838409423828, -3.912522792816162, -1.547379493713379, -1.8957325220108032, -5.7154436111450195, 1.1933914422988892, -4.467940330505371, 4.367401123046875, 1.1240659952163696, 3.029940366744995, -2.706827402114868, 0.3415558934211731, 0.5261183381080627, 5.067225933074951, 0.9773675203323364, 1.4366490840911865, 1.5716661214828491, 1.3034213781356812, 1.6587063074111938, -3.244159460067749, 1.6368136405944824, 6.346750259399414, -1.010062575340271, 0.2985854744911194, 0.048369117081165314, 1.26748526096344, 0.7424535155296326, -3.810044527053833, -4.987823009490967, 1.2961184978485107, 6.099069595336914, -3.4278922080993652, -5.02487850189209, -3.577901840209961, 3.5950465202331543, -3.9794492721557617, -5.809134483337402, -4.487873077392578, 0.3647380471229553, -2.0637621879577637, -0.6440516114234924, -1.8157904148101807, -2.439298391342163, 0.3278910219669342, -1.5436373949050903, -5.047665596008301, -0.6643764972686768, -1.0564525127410889, -3.0970888137817383, -0.8840866684913635, 1.338036060333252, -2.548198699951172, -2.3191239833831787, -0.6496105790138245, -5.693822383880615, -1.79384446144104, 1.3148150444030762, -3.4370899200439453, -2.645388603210449, -1.8090722560882568, 0.22226950526237488, -2.1283586025238037, 0.840412437915802, -0.21532529592514038, 0.23307397961616516, 4.681532859802246, 3.3383827209472656, 2.6244091987609863, -0.35590460896492004, -1.222624659538269, 0.4544100761413574, -4.54983377456665, 0.9906527996063232, -1.2913568019866943, -0.34119391441345215, 0.4800196886062622, 0.59848952293396, -1.4769811630249023, -2.6520180702209473, 2.946751356124878, 2.5622313022613525, -3.0885202884674072, -2.5968830585479736, -7.402236461639404, -0.24181190133094788, -4.425143241882324, -4.517066955566406, 3.8794777393341064, 2.9684529304504395, -4.51735782623291, 2.652489185333252, 0.40788519382476807, 0.14786550402641296, 0.3689495027065277, -3.1936802864074707, -6.056969165802002, 1.7681165933609009, -0.960591197013855, -6.470415115356445, -3.9380342960357666, -0.8510487675666809, 1.113250970840454, 4.871689796447754, -3.4326817989349365, -2.1511189937591553, 1.5152957439422607, -1.0397872924804688, -2.115638017654419, -2.192437171936035, 1.9173328876495361, 1.4130127429962158, 1.4703526496887207, -8.102349281311035, -3.053567409515381, 4.8954620361328125, -2.7184455394744873, 1.8415013551712036, 0.5714948773384094, 2.1106128692626953, -5.187325477600098, 4.597533702850342, -2.410846471786499, 3.2119557857513428, -2.8610620498657227, 2.1479177474975586, 5.48018741607666, 2.679426431655884, -3.185879945755005, 4.31069278717041, 0.49825355410575867, 2.8304996490478516, -1.155613660812378, 0.8317729830741882, -1.9871982336044312, -0.9295762181282043, 4.113760948181152, -2.2711610794067383, 1.2351199388504028, -1.402394413948059, -0.5545983910560608, 5.074670314788818, 1.557489275932312, 0.3262386918067932, -4.422455310821533, 5.717448711395264, -0.7248696088790894, -4.500826835632324, 2.8729374408721924, -3.2279934883117676, -2.4112319946289062, 0.4741683304309845, 2.760911703109741, 5.048049449920654, -0.030058491975069046, 3.8467724323272705, -1.2173104286193848, 1.5114467144012451, -0.0771055817604065, 4.6540398597717285, -1.8518884181976318, 1.3441208600997925, -2.4943723678588867, -3.793727159500122, 1.113115906715393, 2.393433094024658, -5.570032596588135, -1.4623748064041138, 0.45893990993499756, 0.7148389220237732, 0.07944325357675552, -6.581301689147949, 2.8939781188964844, 1.2906447649002075, -1.744498372077942, -0.14728035032749176, -0.2700084447860718, 2.872976779937744, -1.9297329187393188, 0.9939068555831909, 1.6224234104156494, 0.23344556987285614, 0.6757403016090393, 1.84678053855896, -2.3063125610351562, 0.9412065148353577, 1.7846754789352417, 1.3782621622085571, 0.5750671029090881, -5.705109119415283, -0.4914877414703369, -2.7568185329437256, 1.9924359321594238, -2.9609951972961426, 1.2025376558303833, 4.672122478485107, 1.9051661491394043, 4.867762565612793, 0.40279626846313477, 1.3615299463272095, 2.159275531768799, 5.688666820526123, -0.2784731090068817, -1.3645201921463013, -1.934952735900879, 6.732739448547363, 1.7445136308670044, -4.377878665924072, 1.0467678308486938, 2.1293210983276367, -0.26860079169273376, -1.6479015350341797, -2.01596736907959, 2.2677152156829834, -2.7551424503326416, 0.5207776427268982, -2.838292121887207, -0.8019376993179321, 7.526529788970947, -3.5742597579956055, 1.9862701892852783, 2.4389357566833496, 4.595256328582764, 0.3693758249282837, 0.7276865839958191, -1.0888656377792358, -4.306399822235107, -7.196014404296875, 0.041997045278549194, -6.454312324523926, 0.23056194186210632, 2.9452781677246094, -1.7360271215438843, -0.7895119786262512, -0.7038293480873108, -0.252308189868927, 1.2768794298171997, -0.8699620962142944, 0.03796542435884476, -1.7880632877349854, 0.12094030529260635, 4.563674449920654, 4.286101341247559, -0.6944510340690613, 0.3354676067829132, 2.5423667430877686, -2.3528990745544434, 1.3553274869918823, -2.686272144317627, -3.8383305072784424, 0.5486125946044922, 2.6792168617248535, -3.2836058139801025, 1.6912585496902466, -1.6102248430252075, -2.008197069168091, -0.6354518532752991, -1.1221598386764526, -0.16862168908119202, -2.3353476524353027, -0.8688710331916809, 0.18479803204536438, -0.7289555668830872, -1.592058777809143, 3.349705219268799, -0.69301837682724, -2.7731807231903076, 2.1930859088897705, -2.270808219909668, -2.8919384479522705, 0.7324143648147583, 1.452140212059021, -1.4214789867401123, 2.3572394847869873, 2.630725145339966, 1.66062331199646, -0.950978696346283, 0.12829945981502533, -0.757007360458374, 0.36046645045280457, 1.4038454294204712, -3.9011645317077637, -2.2074594497680664, -3.2729909420013428, -1.2171872854232788, 0.10170257836580276, -2.8281397819519043, 4.231949329376221, -2.395045042037964, 1.4335473775863647, -9.307004928588867, 2.001555919647217, 6.1937689781188965, -2.060418128967285, 1.4953651428222656, 2.373708486557007, -1.5238797664642334, 1.5062514543533325, 0.3510117828845978, -0.7851837873458862, 6.028405666351318, -0.6103500723838806, -4.384301662445068, 2.064340114593506, -0.6839725375175476, -4.5452375411987305, -2.8933942317962646, 4.050126075744629, -4.48082971572876, 0.38833343982696533, -0.4757426083087921, -1.914597511291504, -1.7336232662200928, -2.7920961380004883, 3.347576856613159, -0.090689517557621, 1.5515211820602417, -1.4743318557739258, -1.0665267705917358, 1.2828751802444458, 0.13269852101802826, 2.930454969406128, -5.200007438659668, 6.038937568664551, 2.639669895172119, -6.49847412109375, 0.30199432373046875, 2.688953161239624, -10.25914478302002, -2.2565219402313232, 1.3136357069015503, 2.2044715881347656, -4.326629638671875, -0.07043160498142242, 0.7412312626838684, 0.25687330961227417, -3.148617744445801, -7.783752918243408, -3.619877576828003, 0.9083518981933594, -2.230950117111206, 2.0043420791625977, 3.065802574157715, -3.575101613998413, -2.794694185256958, -0.9961874485015869, -3.6188817024230957, 4.662261486053467, -4.100681781768799, 1.245609998703003, 1.6766738891601562, 1.9907199144363403, -1.4209895133972168, 2.33604097366333, 0.9788534641265869, -0.2155865877866745, -1.133015751838684, -1.2516802549362183, -2.480616569519043, -2.514369249343872, 2.3670809268951416, 1.2266846895217896, 3.8858675956726074, -1.3465783596038818, 3.038254976272583, -1.1791253089904785, 1.6124497652053833, 3.6663992404937744, -3.513066053390503, 1.72691011428833, 1.410876750946045, 3.6983110904693604, 3.854898452758789, 1.1217200756072998, 3.3413920402526855, -3.7979519367218018, 2.5167529582977295, -0.423535019159317, 0.08803340792655945, -0.392618328332901, 0.17545472085475922, -2.8987817764282227, 4.0148115158081055, -1.859681248664856, 0.0326215997338295, 2.426536798477173, 3.973353862762451, 1.7052223682403564, 3.4004738330841064, 5.0055646896362305, -0.20464225113391876, 3.0396788120269775, -2.6423091888427734, -3.468613386154175, -1.1401524543762207, 4.672361373901367, 0.7072633504867554, -0.5608223676681519, -2.747666835784912, -3.603482246398926, -0.6333226561546326, -4.084646701812744, -0.33930090069770813, -4.302069187164307, 3.956634044647217, 3.1915066242218018, -6.106509685516357, -0.7119669914245605, -0.46059146523475647, -8.87782096862793, -0.36771777272224426, 1.9175218343734741, -2.077009677886963, -0.6177332997322083, 2.6120715141296387, -4.897673606872559, -1.7193479537963867, 0.13491511344909668, -8.412396430969238, 0.050372280180454254, -0.22863397002220154, 3.0324864387512207, 0.5971255898475647, -4.28989839553833, -2.2604410648345947, 0.7688770890235901, -2.933422327041626, -3.403921604156494, -1.524088978767395, 1.7868576049804688, -5.429999351501465, -2.587249755859375, -0.7016063928604126, -0.542829155921936, -0.7715523838996887, -2.076812982559204, -1.0563023090362549, 2.0468533039093018, 0.6480909585952759, -1.4970587491989136, 0.1530831903219223, 1.1464654207229614, 4.3974809646606445, -5.235299110412598, 2.86250638961792, -7.945277214050293, -0.7963998317718506, -0.5116090178489685, -1.6093593835830688, -0.12463369220495224, -1.2696787118911743, 4.122557163238525, -0.6301912069320679, -4.596755027770996, -0.6596412658691406, -1.0146613121032715, -3.136850357055664, -3.007739543914795, 1.747090458869934, 3.2310824394226074, -1.52666175365448, -0.3092386722564697, 4.752284049987793, 3.839486598968506, -0.44881248474121094, 4.534242630004883, 1.8574544191360474, 1.2448269128799438, -5.385347366333008, 1.0067698955535889, -2.287851333618164, 3.9760725498199463, 1.2673518657684326, -3.8601927757263184, 1.402750015258789, -3.759197235107422, 2.706942319869995, 0.06474219262599945, -0.03702346608042717, -3.874744176864624, 0.9255504608154297, -0.025774313136935234, 1.1547894477844238, -0.7874492406845093, -4.0462260246276855, -3.403505563735962, 2.501357078552246, 2.9673006534576416, -1.2601380348205566, 3.334185838699341, -4.60627555847168, 1.7487025260925293, 1.9377784729003906, -1.7958041429519653, -0.35152092576026917, 1.4863682985305786, -9.151559829711914, -0.8394283652305603, -9.926392555236816, 3.581761598587036, -5.192426681518555, -3.5487704277038574, 3.6103944778442383, -0.6827423572540283, 0.3122307062149048, 0.466158002614975, -0.3736508786678314, 3.0952320098876953, 0.6831533908843994, -3.7791006565093994, 1.0031673908233643, 4.437039852142334, -0.7226252555847168, 1.3698694705963135, -0.9772959351539612, -3.237347364425659, 2.3698832988739014, -0.7522631883621216, -1.4630428552627563, 1.3448073863983154, -1.7341208457946777, -3.2953367233276367, -0.9429730176925659, -3.606999635696411, -1.2153022289276123, -1.432906985282898, -0.854080080986023, -1.743881106376648, -1.8025476932525635, 0.13178466260433197, -1.5264421701431274, 3.156278133392334, -2.421257495880127, -1.9880354404449463, 0.5884857773780823, -2.678962469100952, 3.54819393157959, 0.592021107673645, -3.533048629760742, 1.4704238176345825, 1.1399704217910767, 2.6785781383514404, -5.86130428314209, -2.0783183574676514, -5.546071529388428, 1.3806681632995605, 2.3383312225341797, -0.2670120298862457, -5.716165065765381, -3.6618387699127197, 0.8329275250434875, -2.5470521450042725, 1.7514739036560059, -2.2141835689544678, -1.6227033138275146, 1.1934491395950317, -1.9330631494522095, 5.695044040679932, -0.6983945369720459, 3.943556547164917, -9.528523445129395, -0.6375846862792969, -2.9069766998291016, 0.45392805337905884, 0.728689432144165, 0.3112509548664093, -7.100865840911865, -8.230210304260254, -0.14158736169338226, 2.177157402038574, -2.6268231868743896, -2.2413034439086914, -8.650925636291504, -5.5706892013549805, -0.28780123591423035, -0.06504420936107635, -2.474104642868042, 0.08708006143569946, -1.164901852607727, -2.587857246398926, -2.867941379547119, 1.030104160308838, -0.05267954617738724, 1.2520090341567993, -0.8220160603523254, 1.719330906867981, -2.3685572147369385, -1.464693546295166, -0.4310397505760193, -3.2816436290740967, -0.5683354139328003, -1.1406025886535645, -3.926846742630005, 2.764690637588501, -2.3380870819091797, 3.285943031311035, 0.17453299462795258, -3.624746799468994, -3.19948148727417, 0.03567172959446907, 0.48293063044548035, -0.07137975096702576, 2.1945574283599854, -0.30325278639793396, -2.1839778423309326, 2.9425048828125, 5.9164934158325195, 0.3696505129337311, 1.4728782176971436, 3.886200428009033, 1.0071102380752563, -5.222164154052734, 1.2203294038772583, 4.837677478790283, 0.8545541167259216, 5.342129707336426, -0.5515162944793701, 1.37144935131073, -0.08908873051404953, 1.3831840753555298, -2.3772058486938477, -3.6668882369995117, 2.771779775619507, -0.43347322940826416, -3.543177366256714, -4.455243110656738, -4.450209617614746, -1.8598356246948242, -0.8395206928253174, -0.1082518920302391, 2.1121835708618164, 1.9881117343902588, 3.209381103515625, 2.556133985519409, 1.0475372076034546, 1.5172568559646606, 0.0397254154086113, -5.003350734710693, -1.7961875200271606, -1.2775694131851196, 1.3606836795806885, -1.3802464008331299, -5.2095794677734375, -0.5271891355514526, -3.2883830070495605, -3.152186393737793, -1.5708354711532593, -1.6817314624786377, -2.4834272861480713, 0.47598394751548767, -1.572852611541748, 1.62024986743927, 3.326892375946045, -7.28607702255249, -2.148529529571533, 1.4725573062896729, -0.6347721815109253, -1.6752562522888184, -5.51869535446167, 0.33667394518852234, -2.429354667663574, -3.07886004447937, -0.5350890159606934, 1.717679738998413, -1.7683273553848267, -1.102597951889038, 2.642925977706909, -8.820951461791992, -2.271735668182373, 0.2718909978866577, 5.274569034576416, -4.037504196166992, -0.8764029145240784, -2.234369993209839, -6.791796684265137, -1.1566301584243774, 3.858185291290283, -2.0594356060028076, -2.74780011177063, -2.816328525543213, -0.7545788884162903, -0.7906467914581299, -3.732877016067505, 4.582955360412598, 0.5502768158912659, 1.0942165851593018, -0.9424421787261963, 1.5567721128463745, -1.4269570112228394, 2.45906662940979, 2.8666272163391113, -0.3035944104194641, -3.7050487995147705, 2.122821569442749, -3.5832386016845703, -0.4862542450428009, 0.8683903813362122, -0.43578967452049255, 0.23569923639297485, -2.055067539215088, -1.8295588493347168, 0.1371179223060608, -6.124052047729492, -4.168973445892334, 0.457124263048172, 0.9803599715232849, -1.777779459953308, -4.025656223297119, -5.235975742340088, -0.7195229530334473, 4.959517002105713, 2.4241738319396973, -1.0254623889923096, -5.176833629608154, -1.2298139333724976, -1.3732086420059204, -1.4943459033966064, 3.854680061340332, 3.9816107749938965, -1.3626974821090698, 2.982508659362793, -2.0437777042388916, 1.6274595260620117, 1.7348371744155884, -0.8564801812171936, -2.1400680541992188, 0.5890337228775024, 1.141286015510559, 1.1043745279312134, 1.1560254096984863, -0.7532986998558044, 0.047175344079732895, 1.0063680410385132, 1.528544545173645, 1.731554627418518, -0.6676974296569824, -6.023309707641602, -0.34348851442337036, -5.284430980682373, 4.231862545013428, 1.1102911233901978, -0.04930359125137329, 1.5250998735427856, -3.16467022895813, 5.4922661781311035, 1.0828076601028442, 0.503069281578064, -0.8895158767700195, 1.2522436380386353, -0.7192906141281128, -2.188632011413574, 3.5762438774108887, -2.5081734657287598, 1.786151647567749, -2.169069290161133, -0.3271943926811218, -1.6411277055740356, -3.758517026901245, -3.6219756603240967, 0.4449140429496765, -3.4901516437530518, -5.663291931152344, -1.5882692337036133, 0.6427375674247742, -2.6804656982421875, -0.32922112941741943, -0.5226663947105408, 1.7833936214447021, 1.4752167463302612, -1.455816388130188, -2.237590789794922, 2.7872703075408936, -2.696610927581787, 1.4248299598693848, -0.9578790068626404, -1.8584715127944946, 1.2397459745407104, 2.195369243621826, -3.515162229537964, -3.6827094554901123, 2.8191442489624023, 3.230494260787964, -4.754672050476074, 0.2810574173927307, -2.2112693786621094, 4.908806800842285, -1.7284101247787476, 4.58428430557251, 0.7141941785812378, 0.4806903302669525, 0.08928506821393967, -6.279158115386963, 7.276423931121826, -0.4947774112224579, -0.6759600043296814, 0.05900309979915619, 3.369009494781494, 1.2336727380752563, -2.9393272399902344, 0.049977365881204605, 0.5113001465797424, 2.985004425048828, -4.402142524719238, -1.6686184406280518, 0.9463937282562256, -2.8088905811309814, 0.4144611060619354, 0.969721794128418, -1.1940165758132935, -5.104149341583252, -6.6358747482299805, 1.4449421167373657, 2.2184970378875732, 0.8942360281944275, 3.2402491569519043, 3.756157159805298, 1.9247483015060425, -3.50046706199646, 1.9389641284942627, 5.500484943389893, 0.04269303381443024, 1.8925721645355225, 3.846491575241089, -1.5504106283187866, 0.41644105315208435, -3.9139885902404785, 4.304976463317871, -0.6392852663993835, 5.705931186676025, 1.0646626949310303, -1.96418297290802, -4.568591117858887, -0.7490411400794983, -1.372024655342102, -0.6577680110931396, -1.840614914894104, -3.716487169265747, 3.102944850921631, 2.8854992389678955, 2.8250391483306885, 2.9069101810455322, -6.982480525970459, 0.11709582060575485, 3.5899667739868164, 3.37016224861145, -5.165968894958496, 3.234239339828491, 1.823015809059143, -5.186060905456543, 0.37740540504455566, 4.345826148986816, 2.868596315383911, 3.83781099319458, 1.6818420886993408, 1.02351713180542, 0.7848352789878845, 2.3693532943725586, 0.41183438897132874, -0.5925978422164917, -2.8946216106414795, 0.965229332447052, 4.628271579742432, 1.7858554124832153, 0.5515519976615906, -5.590232849121094, -0.4782368242740631, 1.6159634590148926, -0.33488526940345764, -3.1780595779418945, 0.6313385963439941, 0.08079018443822861, -6.613373279571533, -0.14045804738998413, -2.0266199111938477, -6.763628959655762, -2.799025297164917, 0.7465295195579529, 2.042815923690796, -0.25695693492889404, -2.2485949993133545, -2.554752826690674, 4.030889511108398, -0.4533792734146118, 3.11077618598938, -3.16628098487854, 0.46300873160362244, 4.871827602386475, -0.2423981875181198, -0.799821138381958, -1.5531258583068848, -1.7415831089019775, 2.9589896202087402, 5.425796031951904, -2.0366947650909424, 0.4568367600440979, 3.4850497245788574, -2.2807772159576416, -10.339226722717285, -1.0080372095108032, -2.9656615257263184, -1.9301278591156006, -2.804821252822876, -1.471396565437317, -1.3961529731750488, 0.3097027838230133, 1.6511313915252686, 2.0760061740875244, 4.104015827178955, 1.925782322883606, 0.5186037421226501, -3.445805072784424, -2.706516981124878, -0.7088732123374939, 0.04971680790185928, 1.3917129039764404, -3.946732997894287, -1.480477213859558, -1.2364168167114258, 1.1251752376556396, -3.6724109649658203, -1.0519118309020996, -3.5720105171203613, 0.15989789366722107, 4.434414386749268, -6.9867167472839355, 0.46309512853622437, -0.13671746850013733, 5.340000629425049, -1.368677020072937, -7.040675640106201, 0.3405865430831909, 1.8289934396743774, -1.6443662643432617, -0.08365609496831894, -0.36602866649627686, -3.1228134632110596, -1.8415911197662354, -5.840825080871582, 1.476369023323059, -0.6470485925674438, 0.5333985090255737, -3.039020299911499, 0.5369973182678223, 1.0492637157440186, -2.8122262954711914, -3.539541006088257, -2.899221658706665, -6.453154563903809, -6.495481014251709, 2.349036455154419, -2.56874680519104, -1.2852975130081177, 1.226017713546753, 1.8343220949172974, 0.4347583055496216, -4.617606163024902, 1.3456021547317505, -4.469911575317383, 1.1981444358825684, -9.07827091217041, -0.7408580183982849, 0.21087375283241272, -2.238954544067383, -2.158231496810913, -0.9520562887191772, -0.7763382792472839, -0.7003723382949829, 0.20159603655338287, 0.45898693799972534, 0.36827531456947327, -4.032441139221191, -2.922598123550415, -1.7487819194793701, -2.87219500541687, 0.34020012617111206, 9.031712532043457, 1.8546335697174072, 0.4206892251968384, -0.8554814457893372, 1.7211745977401733, 5.235515117645264, 1.0683588981628418, 0.6341583132743835, -7.172076225280762, -4.49623966217041, 2.447082757949829, 2.3101234436035156, -1.2194875478744507, 4.555163860321045, -4.721108913421631, -0.07026314735412598, -0.2686310410499573, 2.8539726734161377, -1.823978304862976, 1.9643652439117432, -3.1668248176574707, -4.04459810256958, 3.3226988315582275, 0.4275616407394409, 2.3733739852905273, -1.1817970275878906, 2.7096974849700928, -3.9587247371673584, -0.7560534477233887, 1.6158967018127441, 1.6802583932876587, -2.1212329864501953, -3.5511116981506348, 3.332566499710083, 0.5263874530792236, -0.8266025185585022, -1.7734812498092651, -1.609785795211792, 6.356114864349365, 1.5065221786499023, -1.6401097774505615, -7.009007930755615, -4.228461742401123, 0.019849730655550957, 1.2292182445526123, 0.5951084494590759, 0.9335620403289795, -0.19613195955753326, 1.6158928871154785, -1.288506269454956, -2.163179874420166, -2.6796836853027344, 3.7848761081695557, -1.4702672958374023, -0.892616868019104, 2.4142324924468994, -6.977837085723877, 0.9809486865997314, -3.052842855453491, -8.523837089538574, -5.079686641693115, -2.1122355461120605, -0.8804206252098083, -0.5766230225563049, -0.18386656045913696, -1.802553415298462, 0.6236953735351562, 2.7841644287109375, 3.2230985164642334, 0.20662517845630646, -0.21869221329689026, 2.0570404529571533, 2.434600353240967, 1.0238145589828491, 2.0780413150787354, -0.29491835832595825, 3.507326364517212, -0.2821651101112366, 0.5542394518852234, 1.9832582473754883, 2.5002970695495605, 5.2107744216918945, -0.12926390767097473, -6.310503005981445, 0.5234076976776123, 0.9690074324607849, -3.555091619491577, -4.097278594970703, 2.8149406909942627, 7.069231986999512, -1.8684971332550049, -0.8498522639274597, -3.7952451705932617, -0.2598813772201538, -3.088468551635742, -2.771002769470215, 0.4201347827911377, 0.6891399025917053, 2.0141804218292236, 0.591362714767456, -3.2337872982025146, -0.15835461020469666, 1.1506602764129639, -2.897991418838501, -2.2269906997680664, -0.32265034317970276, 1.3958826065063477, -4.722256183624268, -4.3290863037109375, 3.225766897201538, -1.2969890832901, -9.41036605834961, -7.0183491706848145, 5.463335990905762, 0.21343225240707397, 1.0633289813995361, 0.7207922339439392, -1.0681675672531128, 0.7617989778518677, 4.023123741149902, 0.7842269539833069, -3.1716277599334717, 2.3936362266540527, 0.029988165944814682, 3.568814754486084, 3.300887107849121, 0.6822903752326965, -3.671821355819702, 2.330646514892578, -1.259239912033081, -0.2827334403991699, 2.4780170917510986, 0.6986437439918518, -0.40355730056762695, -2.8132269382476807, 1.3544529676437378, -4.118685722351074, -1.273234248161316, 3.7646312713623047, 3.5201120376586914, 1.0547541379928589, -0.42198336124420166, -5.210004806518555, -3.5575554370880127, -3.552190065383911, 2.257438898086548, -0.6925219297409058, -2.469963312149048, 2.038361072540283, 3.389343023300171, -3.1469738483428955, 3.318613052368164, -1.931722640991211, 1.485189437866211, -8.070241928100586, 2.075680732727051, 0.42432886362075806, 4.258586406707764, -3.010582685470581, 2.93198561668396, -0.5188796520233154, 0.9916513562202454, -4.602442264556885, 0.16922922432422638, 5.232301235198975, 1.4346030950546265, 4.910480976104736, 4.2302656173706055, -3.714690923690796, -1.8743609189987183, -1.9044326543807983, -1.9842692613601685, 0.9985605478286743, 4.733107566833496, -3.6298696994781494, -4.319730758666992, -1.2491908073425293, 2.3974599838256836, 1.3060016632080078, 1.0494612455368042, -1.1070306301116943, -0.47162890434265137, -2.186267614364624, 1.1250050067901611, -0.962364137172699, 0.9976310133934021, -3.1266818046569824, 1.1269052028656006, -3.862710952758789, -2.1626670360565186, 1.4041149616241455, 0.9392367601394653, -2.7702083587646484, 1.0868884325027466, -1.5420070886611938, -2.0319554805755615, -2.455669403076172, -1.5894068479537964, 0.5092027187347412, -0.6174042820930481, 3.720566749572754, 0.9120728373527527, 0.26195237040519714, 1.056204915046692, -2.6137492656707764, 2.126699447631836, 1.4000760316848755, -0.38640037178993225, 1.053057312965393, -0.5983784794807434, -1.5110276937484741, -0.5578561425209045, 4.257793426513672, -0.061000045388936996, 0.9276748299598694, -2.345576286315918, -0.8457233309745789, -6.097328186035156, 1.4013235569000244, -3.717966079711914, 0.8339587450027466, -0.8894518613815308, 3.4320545196533203, -5.629524230957031, -2.0529277324676514, 0.39437243342399597, -3.667577028274536, -3.321988821029663, -0.35930362343788147, 0.057157035917043686, -3.9561877250671387, 3.324798583984375, -4.22745943069458, 1.2682541608810425, 0.8612134456634521, -1.9531296491622925, -3.028390407562256, -3.7680110931396484, 1.9538154602050781, -0.35814961791038513, -0.3411354124546051, -0.9761027097702026, 4.650883197784424, 0.8870892524719238, -2.4255781173706055, 3.260901927947998, -4.533874034881592, 2.068448781967163, 1.4210071563720703, -2.0169475078582764, 0.36819422245025635, 0.48747387528419495, 1.9361172914505005, 1.318881869316101, 1.298518419265747, 1.0076526403427124, -0.15867139399051666, -0.16243311762809753, 1.5886876583099365, -0.025347135961055756, -0.45898282527923584, -3.0499866008758545, 7.956433296203613, 4.561154365539551, -1.4991313219070435, 7.45965576171875, -7.02172327041626, 0.7700423002243042, -0.9223834276199341, 0.38192853331565857, -0.9327641129493713, 2.1829874515533447, -3.692136287689209, 2.1731581687927246, 4.06942892074585, -4.913771152496338, -0.07036944478750229, 5.4654541015625, -0.6196238398551941, -2.0835800170898438, 1.3449962139129639, -1.3419138193130493, -2.035525321960449, -3.330963134765625, -0.37771904468536377, 6.73423957824707, 1.8506572246551514, -0.5037086606025696, -7.632206439971924, 2.515134811401367, -9.228705406188965, -2.402522087097168, 2.0150809288024902, 0.1688980609178543, 6.855093002319336, 1.7563446760177612, -0.9188167452812195, 1.0728538036346436, -0.035409096628427505, 0.9690492749214172, -8.417013168334961, -2.9203195571899414, 0.8213464617729187, -1.1314584016799927, -2.9800519943237305, -1.8234801292419434, -0.23318681120872498, -0.06470590829849243, -3.0409655570983887, 1.0319818258285522, 0.02056797966361046, 1.5103442668914795, -0.19610776007175446, -6.561018943786621, 0.9796666502952576, -1.1751344203948975, 0.12365036457777023, 1.1148487329483032, 0.9539436101913452, -1.4733864068984985, 3.04490065574646, -2.61702299118042, -1.0423880815505981, 5.237865924835205, -1.4401752948760986, -2.7597129344940186, 2.1812961101531982, 2.553274631500244, -4.196140766143799, -5.3572163581848145, 1.1068153381347656, -0.738351583480835, 1.5891793966293335, -1.7867728471755981, 0.11917047202587128, 5.584160327911377, -3.9307405948638916, 2.7396764755249023, 0.7161335349082947, -0.6451600193977356, -1.9891568422317505, -6.11610221862793, 0.08182931691408157, 0.9605050683021545, -4.000787258148193, 3.046567678451538, 0.47707799077033997, 0.13386738300323486, -1.9674324989318848, 5.020338535308838, -3.090714693069458, 1.2566406726837158, -6.4633378982543945, 3.275205373764038, -1.980675458908081, 4.588668346405029, -1.3263394832611084, 0.9207929968833923, 1.0852482318878174, 1.5578680038452148, -0.21627219021320343, -5.259378433227539, 4.800354957580566, 2.8849234580993652, -2.1194779872894287, 1.7679697275161743, 1.678977131843567, -0.7071731686592102, -3.7010715007781982, 2.032698392868042, -0.801232099533081, -3.865557909011841, 3.3419933319091797, 2.8295791149139404, -1.938031792640686, 1.2673358917236328, 0.23693197965621948, -0.09437541663646698, 1.094988465309143, 3.9553182125091553, -1.8601734638214111, 3.0025532245635986, -3.8898770809173584, -1.414903998374939, -0.43770840764045715, 1.2931420803070068, 2.203014373779297, 2.6411850452423096, -2.520768880844116, -4.982800483703613, -4.772694110870361, -1.5238300561904907, 0.20862391591072083, 1.8907071352005005, 0.8362680077552795, 5.023049354553223, -4.47216272354126, 1.4644361734390259, -5.294573783874512, -1.4750349521636963, 1.4700052738189697, 0.032420530915260315, 2.3684000968933105, 1.17445969581604, 3.0948214530944824, -2.165085792541504, -4.02766227722168, -4.336759090423584, -6.63066291809082, -1.687867522239685, -5.628354072570801, -2.8419909477233887, -1.0927814245224, -4.0907063484191895, -0.8751855492591858, 2.907036781311035, 0.7279682755470276, -5.421604633331299, -3.297128438949585, -1.256991982460022, 4.552657604217529, 0.8802977204322815, -6.718380928039551, 0.7277405261993408, 0.005323431920260191, 2.839421510696411, -1.443414330482483, -2.060603380203247, -1.2573448419570923, -3.4652507305145264, -0.4824669361114502, -0.7061925530433655, -0.9511687159538269, 0.3511218726634979, -2.47369122505188, 0.8458880186080933, -0.2644476294517517, -1.975585699081421, -0.8696642518043518, -0.5159344673156738, -1.964524507522583, -1.2002415657043457, -0.18969567120075226, -2.388190984725952, 0.8209012150764465, 1.4271355867385864, 3.2150583267211914, 0.24712304770946503, 2.74784779548645, -7.225395679473877, -0.9679745435714722, -0.42941421270370483, 2.5810048580169678, -2.5224008560180664, -1.292352318763733, -7.170568466186523, -0.4885227382183075, 0.33468690514564514, -2.2792723178863525, -0.6236883997917175, -2.2030889987945557, -6.714629173278809, 2.521993398666382, 3.8291075229644775, -1.541584849357605, -6.175506591796875, 1.6064252853393555, -1.1726512908935547, -6.132757186889648, 1.7050483226776123, -0.15161146223545074, -2.8808555603027344, 3.9504668712615967, 0.6885983347892761, -4.249566555023193, -3.097294807434082, 0.34759920835494995, 0.4418105483055115, 4.951355457305908, 0.16582255065441132, 1.2571953535079956, -5.208160400390625, 0.651755690574646, -2.3508496284484863, -0.8287420272827148, 0.7296705842018127, -4.508944988250732, -1.3385825157165527, -0.9254491329193115, -1.7649649381637573, -0.16900822520256042, -1.113756775856018, -4.496294021606445, -0.6451169848442078, -4.018181800842285, -0.6320984959602356, -0.20891593396663666, 0.33959099650382996, -4.227816581726074, -1.9698866605758667, 1.337376594543457, -3.813755750656128, 0.12578348815441132, 0.723932683467865, -4.0161452293396, -3.9749557971954346, 1.0434876680374146, 6.3430986404418945, 4.088461399078369, 3.441103458404541, 1.6475999355316162, -2.098055601119995, -2.9075868129730225, 0.9981380701065063, -0.9165360331535339, -2.2904903888702393, 5.0188307762146, -0.42877230048179626, -0.6087518334388733, -0.5570914149284363, -3.833059787750244, 1.1046350002288818, -1.3867436647415161, 2.291355609893799, 2.287858247756958, -0.19029897451400757, -3.4665048122406006, 0.23542152345180511, -1.6248549222946167, -4.921427249908447, -4.702287197113037, -4.739847660064697, 1.6640453338623047, -3.1560468673706055, -3.1723618507385254, -0.3022647500038147, -3.1907947063446045, -3.5709619522094727, -1.2342816591262817, 3.3886101245880127, -0.3904508650302887, -2.0836315155029297, -1.9414361715316772, 0.8660317659378052, -0.29873788356781006, 1.5606895685195923, -7.17516565322876, -1.1229417324066162, -0.9792172312736511, -1.7210437059402466, -6.871694087982178, -0.030655743554234505, 2.4918034076690674, 0.7359653115272522, -5.668104648590088, -7.474911212921143, 2.126866579055786, -4.104522228240967, 2.237915515899658, 3.885603427886963, -2.516469717025757, -1.7836787700653076, -2.107436180114746, -0.8633420467376709, -0.18453465402126312, 0.4113670289516449, -0.5089004635810852, 1.2175590991973877, -1.9892419576644897, 1.342591643333435, -1.4674257040023804, -1.1229392290115356, 2.105523109436035, -1.3992829322814941, -2.413341760635376, -2.7881760597229004, -1.540771484375, -1.5697475671768188, -1.2280923128128052, -4.377755165100098, 1.5151034593582153, 2.5763843059539795, -4.685342788696289, -0.7360802888870239, 0.4201123118400574, -0.05416460707783699, -1.6833277940750122, 1.4406375885009766, -0.17815224826335907, 3.120013475418091, 0.26710379123687744, 0.878343403339386, -0.836452841758728, 4.096870422363281, 1.3810176849365234, 4.006200790405273, 0.6490270495414734, 3.9929254055023193, 2.4348325729370117, -3.1554267406463623, -0.125212624669075, 0.8648378849029541, -1.6428749561309814, 3.241076707839966, 3.1287624835968018, -0.4282883405685425, -2.272838592529297, 0.24610061943531036, 1.7217258214950562, -3.3916687965393066, 1.4839104413986206, 1.9373198747634888, -1.328871250152588, -0.006669710855931044, -0.23818327486515045, 1.9051984548568726, -4.3607563972473145, -0.4605565667152405, 1.7385432720184326, 3.2540059089660645, 1.408168077468872, -3.866349220275879, -1.17728590965271, -0.645517110824585, 4.434747219085693, -0.3452361226081848, -0.8743826150894165, -3.56984543800354, 3.3451545238494873, 2.0897104740142822, -1.033916711807251, -5.99014949798584, 0.5067471861839294, 0.058508895337581635, 0.8623523116111755, 1.1266659498214722, -5.430002689361572, -2.0144824981689453, 3.3157854080200195, 1.38405179977417, 3.6359617710113525, 0.20918245613574982, 3.0562660694122314, -2.50386905670166, -0.6221965551376343, 2.1463842391967773, 3.520604372024536, -1.7828391790390015, 0.4671928882598877, 0.3387880325317383, 3.6094470024108887, -3.0571460723876953, -0.31211408972740173, 0.6513497233390808, -7.325271129608154, 0.48679864406585693, -5.122011661529541, 2.3176512718200684, -4.521737575531006, -1.2612900733947754, 0.36416879296302795, -6.147861957550049, 2.5676426887512207, 0.20186108350753784, 4.245477676391602, -1.3258644342422485, 6.499809741973877, -1.303490161895752, 5.11931037902832, 3.4600942134857178, 2.5921471118927, 2.2931854724884033, 1.154620885848999, -5.261028289794922, 1.0105609893798828, -0.5524855852127075, 5.2563982009887695, 4.7123332023620605, -5.27052640914917, -7.945303440093994, -3.568615436553955, -1.0136620998382568, -2.223789930343628, 1.2631824016571045, -1.525288462638855, 1.1816792488098145, 1.2309677600860596, 0.9415472745895386, -0.19919909536838531, 1.2136553525924683, 1.584417700767517, -0.6845496296882629, -2.5606584548950195, 0.3691782057285309, 0.9066231846809387, -0.9615838527679443, 2.478466749191284, -2.0504863262176514, 3.3093209266662598, -2.0562970638275146, -2.8646905422210693, -0.578067421913147, -3.6012027263641357, 3.5399246215820312, -1.7480666637420654, -0.5021987557411194, 1.3347551822662354, -3.680164098739624, 1.412099003791809, -0.3125757873058319, 0.5689255595207214, 0.4803007245063782, 2.668553113937378, -2.3037214279174805, 2.745243549346924, 3.76232647895813, -3.9228901863098145, -4.482642650604248, -1.6129775047302246, -1.821579098701477, -3.3404018878936768, 5.662714958190918, -2.609006404876709, -0.9773143529891968, 3.9285101890563965, 2.589015483856201, -4.806055068969727, 1.4222010374069214, -2.045417308807373, -2.3488752841949463, -2.5911664962768555, -1.8447649478912354, -1.7640933990478516, 0.8513896465301514, -0.5213313102722168, 3.3463308811187744, -0.2653442323207855, 0.9944776892662048, -2.074781656265259, -1.8516590595245361, 2.9563872814178467, 1.1153225898742676, -0.5234929919242859, 1.0345231294631958, -5.245474338531494, 0.9294715523719788, 0.13016670942306519, -7.522181987762451, 4.540886402130127, 2.326868772506714, -0.7892274260520935, 1.5981847047805786, -0.9269370436668396, 2.133152484893799, -6.245161056518555, -4.132641315460205, -0.7331832647323608, -1.4331393241882324, -5.519086837768555, 1.2880220413208008, -4.347111701965332, 3.640409231185913, 1.2993578910827637, 3.1618447303771973, -3.5103025436401367, 0.15072661638259888, 0.4261544644832611, 5.110731601715088, 1.5937836170196533, 2.255723237991333, 0.9890568256378174, 2.216979742050171, 2.066436767578125, -3.31164288520813, 1.5486829280853271, 5.986578464508057, -0.13180604577064514, 0.3619914948940277, -0.2144593745470047, 1.3199695348739624, 0.3652133047580719, -4.911295413970947, -4.086627960205078, 1.3728958368301392, 6.06431245803833, -2.8763506412506104, -5.646810531616211, -2.833608865737915, 2.8211114406585693, -2.63015079498291, -6.219844818115234, -4.661117076873779, 0.7873222231864929, -1.816800832748413, -0.864687442779541, -1.2387696504592896, -3.1412672996520996, -0.0426313653588295, -1.5587375164031982, -4.13535213470459, 0.4613693058490753, -0.5897984504699707, -2.670957565307617, -1.2565051317214966, 0.6490225791931152, -2.660055160522461, -2.702300786972046, -1.086977243423462, -5.337767601013184, -1.427223563194275, 1.4853545427322388, -3.621299982070923, -2.3894824981689453, -2.0243499279022217, -0.08755281567573547, -1.3039828538894653, 0.8692376613616943, -0.9511160850524902, 0.4795192778110504, 4.389340877532959, 3.5082180500030518, 2.557612657546997, -1.0474621057510376, -0.954896867275238, 1.515811562538147, -4.113569736480713, 1.2455339431762695, -0.9080191850662231, 1.1475619077682495, -0.6449384093284607, 0.5257667303085327, -0.385100394487381, -2.105069637298584, 2.0346386432647705, 1.8302054405212402, -2.777580738067627, -2.1284427642822266, -6.769491672515869, -0.426409512758255, -4.1834716796875, -5.047098159790039, 3.7143311500549316, 2.8517258167266846, -4.095466613769531, 2.9475698471069336, 0.7221815586090088, 0.1998642534017563, 0.6028474569320679, -2.150420665740967, -5.880618095397949, 2.2167248725891113, -1.3421952724456787, -5.656187534332275, -4.030683994293213, -1.457454800605774, 1.6027917861938477, 4.586231231689453, -3.5434703826904297, -0.5348556041717529, 0.9730913043022156, -1.3694689273834229, -2.0326409339904785, -2.4288129806518555, 2.417203187942505, 0.28894346952438354, 0.8995376229286194, -7.394305229187012, -2.4082436561584473, 4.749799728393555, -2.5275375843048096, 1.970192790031433, 0.49197033047676086, 2.0595619678497314, -5.529971599578857, 3.886436700820923, -2.065916061401367, 4.047954082489014, -1.3942325115203857, 0.9122066497802734, 5.518553256988525, 2.645988941192627, -3.135183334350586, 4.242157459259033, 1.0073943138122559, 3.4924283027648926, -1.6149202585220337, 0.3837701678276062, -1.80021071434021, -0.15625275671482086, 3.2037131786346436, -1.675481915473938, 1.6010466814041138, -0.9193497896194458, -0.11142751574516296, 4.587802410125732, 0.9616650342941284, -0.3417009115219116, -4.991755485534668, 6.347175598144531, -1.0164339542388916, -3.965001344680786, 2.7784883975982666, -4.072049617767334, -3.018968343734741, 1.2486380338668823, 2.367687702178955, 4.6651482582092285, -0.0848446786403656, 2.507004976272583, -0.5638744235038757, 1.5547205209732056, -0.11650847643613815, 4.119800567626953, -1.920310616493225, 1.0633115768432617, -2.4319326877593994, -3.2876763343811035, 0.37899506092071533, 2.018390655517578, -5.209607124328613, -1.6846297979354858, -0.22851040959358215, 0.28479889035224915, 0.8496251106262207, -5.568994522094727, 2.4616856575012207, 1.5268192291259766, -1.7384629249572754, -0.0441335029900074, 0.4424828290939331, 3.0118796825408936, -1.2456144094467163, 1.2912205457687378, 1.5771132707595825, 0.26364102959632874, 1.0640796422958374, 2.6875522136688232, -2.7404842376708984, 0.25555849075317383, 2.5358383655548096, 0.854156494140625, -0.1081278920173645, -6.597956657409668, -1.0944113731384277, -2.654470205307007, 1.8941677808761597, -2.6832220554351807, 1.0731886625289917, 4.887893199920654, 2.0660622119903564, 4.74575662612915, 0.6725885272026062, 1.1772464513778687, 1.445214033126831, 6.112066745758057, -0.1366138607263565, -1.0489985942840576, -1.013382911682129, 5.878763675689697, 2.423887252807617, -4.871798515319824, 0.418277770280838, 1.4729640483856201, -0.2287560999393463, -1.192659616470337, -1.5543979406356812, 2.405402421951294, -2.87209415435791, 0.10659176111221313, -2.6103076934814453, -0.9558358788490295, 7.257606506347656, -4.420126438140869, 2.39974308013916, 3.561612129211426, 4.209420204162598, 0.6112537384033203, 0.7391329407691956, -0.9587370157241821, -3.9950735569000244, -7.105567455291748, 0.6577613949775696, -5.769947052001953, 0.32049480080604553, 2.8715288639068604, -1.8496285676956177, -0.8691450953483582, -0.9982191920280457, 0.09708943963050842, 1.6701719760894775, -0.7784374356269836, -0.06954923272132874, -1.8722913265228271, 0.6950535774230957, 4.304115295410156, 4.506868839263916, -0.1678440123796463, 1.7669193744659424, 1.9228233098983765, -2.167818069458008, 1.4862794876098633, -2.268996000289917, -3.270559310913086, -0.4486719071865082, 2.997149705886841, -2.775632381439209, 1.5551949739456177, -3.2705891132354736, -2.738905429840088, -0.7139195203781128, -1.2881896495819092, -0.0821329653263092, -3.476635456085205, -0.44425296783447266, 0.5112207531929016, -1.3192027807235718, -0.7610029578208923, 2.7847933769226074, -0.27821943163871765, -3.240962028503418, 1.7440996170043945, -1.7775906324386597, -4.163978576660156, 0.8485559225082397, 0.8269014954566956, -0.8988229036331177, 2.3270092010498047, 2.7796170711517334, 0.8658307790756226, -0.5996752381324768, 0.9242111444473267, -0.8896754384040833, 1.5560551881790161, 1.0801736116409302, -2.659071207046509, -2.280569076538086, -3.5248653888702393, -1.1121734380722046, -0.2529248595237732, -2.6702675819396973, 4.091235160827637, -2.5911388397216797, 1.8949187994003296, -8.97315502166748, 1.8646026849746704, 5.890167713165283, -2.280482530593872, 2.154301166534424, 2.6207828521728516, -1.5668278932571411, 2.3500375747680664, 0.041058722883462906, 0.42102324962615967, 6.184395790100098, 0.10001030564308167, -3.8808109760284424, 1.8800054788589478, -0.6916013360023499, -5.394388675689697, -3.0210585594177246, 3.5649900436401367, -3.6462299823760986, 0.3917635977268219, -0.27626556158065796, -1.5393388271331787, -1.6219511032104492, -2.678558111190796, 3.6895995140075684, 0.5920286178588867, 0.8749258518218994, -0.9044431447982788, -1.3665258884429932, 1.4177298545837402, 0.6472543478012085, 2.25365948677063, -4.542212009429932, 5.240960121154785, 2.47999906539917, -6.243649959564209, 0.006781606934964657, 2.121262788772583, -10.487675666809082, -2.923322916030884, 1.6421869993209839, 3.601808547973633, -3.718477249145508, 0.8524166345596313, -0.4550759792327881, -1.3349169492721558, -2.918442487716675, -7.291112422943115, -3.0001444816589355, 1.6803604364395142, -1.4988176822662354, 2.2996585369110107, 3.1826021671295166, -4.211056232452393, -3.4457454681396484, -0.5092707872390747, -3.4710493087768555, 4.847425937652588, -3.767528772354126, 0.6439134478569031, 0.5205039381980896, 2.5386037826538086, -0.978441596031189, 3.1618001461029053, -0.13277365267276764, 1.0375614166259766, -0.6109718084335327, -1.843402624130249, -2.6302223205566406, -1.9789888858795166, 3.0282247066497803, 1.3984417915344238, 3.9727957248687744, -1.8079421520233154, 2.026331663131714, -1.4943926334381104, 1.8857046365737915, 4.464795112609863, -2.817582607269287, 1.9667869806289673, 1.5840312242507935, 4.010084629058838, 3.425973415374756, 1.5963536500930786, 3.072164297103882, -3.148682117462158, 1.6340851783752441, -0.7977021932601929, 0.4017930030822754, 0.6959559321403503, -0.0383775569498539, -2.215492010116577, 4.523008346557617, -1.182173490524292, 0.046230416744947433, 2.5020687580108643, 4.014110088348389, 1.2324808835983276, 3.4724135398864746, 4.265973091125488, -0.7473542094230652, 2.9217605590820312, -2.35725998878479, -3.148754835128784, -1.0081614255905151, 3.6203761100769043, 1.1469453573226929, -0.43714070320129395, -4.03386926651001, -3.2748024463653564, -1.0091707706451416, -4.969882011413574, -0.30510953068733215, -3.955014944076538, 3.891050338745117, 3.76177716255188, -6.3160858154296875, -0.4417289197444916, -0.02025611139833927, -9.318178176879883, -0.18898019194602966, 1.5266904830932617, -2.695889472961426, -0.9483399391174316, 2.257899045944214, -4.602597236633301, -1.459938645362854, 0.42254528403282166, -8.31904411315918, 0.7312797904014587, 0.28768494725227356, 2.8490524291992188, 1.7997961044311523, -4.274356365203857, -1.7455281019210815, 0.7449785470962524, -2.3702445030212402, -3.7638535499572754, -1.8554948568344116, 2.106005907058716, -4.559422016143799, -2.3199193477630615, -0.47153931856155396, 0.41373974084854126, -1.0298488140106201, -1.5611567497253418, -1.1837013959884644, 2.3321826457977295, 0.011801636777818203, -1.6594486236572266, -0.6269456744194031, -0.11113754659891129, 4.675960063934326, -4.001424789428711, 3.4497759342193604, -8.102614402770996, -1.507978916168213, -0.9686126708984375, -1.2520238161087036, -0.31444960832595825, -0.08536255359649658, 4.139123916625977, -0.029863588511943817, -4.269988059997559, -0.3680042624473572, -0.7162933945655823, -3.3135788440704346, -1.464408040046692, 1.3109313249588013, 3.3732056617736816, -1.7617286443710327, 0.3690778613090515, 4.4468464851379395, 4.040217399597168, -0.5650455355644226, 5.107691287994385, 1.7568706274032593, 0.38383954763412476, -5.618329048156738, 0.49785786867141724, -3.1161389350891113, 3.2574923038482666, 1.0312411785125732, -3.493516683578491, 2.164883852005005, -4.479914665222168, 2.8013665676116943, 0.19188053905963898, 1.0676188468933105, -3.995885133743286, 1.0439316034317017, 0.25367802381515503, 1.3822088241577148, -1.057141900062561, -4.387265682220459, -3.223806142807007, 2.3255648612976074, 3.238692045211792, -0.5963596701622009, 2.9675235748291016, -4.548293113708496, 2.2300472259521484, 1.7979450225830078, -0.7028017640113831, -0.4336065351963043, 1.2418134212493896, -9.149092674255371, -1.64716374874115, -10.266541481018066, 3.2589950561523438, -4.879307746887207, -4.48733377456665, 3.6334526538848877, -0.2531161308288574, 0.8758975267410278, 1.2344937324523926, -1.3371189832687378, 3.713059902191162, 0.5353540182113647, -4.628647327423096, 0.5535947680473328, 3.760082483291626, -0.9570444822311401, 1.2775380611419678, -0.2813110947608948, -3.1084461212158203, 3.03108549118042, -1.3930401802062988, -1.5785552263259888, 1.6138360500335693, -1.5357383489608765, -4.060499668121338, -0.7225746512413025, -2.2210896015167236, -2.039175510406494, -1.5435404777526855, -1.0189155340194702, -1.2607142925262451, -2.190908193588257, 0.556524395942688, -2.085892677307129, 3.037360191345215, -1.3885236978530884, -0.7979327440261841, 0.8933651447296143, -2.363778591156006, 3.6974287033081055, 1.3637151718139648, -3.463862419128418, 1.1059505939483643, 1.45906400680542, 2.641660451889038, -6.5925188064575195, -2.1110594272613525, -6.259573936462402, 0.6613416075706482, 1.2451266050338745, -0.6855353713035583, -5.457522869110107, -3.7264561653137207, 0.7603089809417725, -1.5851359367370605, 1.9165732860565186, -2.508838415145874, -1.5469229221343994, 1.8176612854003906, -2.112035036087036, 5.5773396492004395, -0.42714735865592957, 3.72107195854187, -9.470534324645996, -0.617275059223175, -2.713046073913574, 0.41443079710006714, 1.7060155868530273, 0.889051079750061, -6.883223533630371, -7.25015115737915, -0.03442821651697159, 2.060056686401367, -3.1049203872680664, -1.5760494470596313, -8.64321231842041, -4.801802635192871, 0.8497918844223022, -0.1461980938911438, -2.986459970474243, -0.5194929838180542, -0.8657975196838379, -2.666041374206543, -2.7675414085388184, 1.5716497898101807, 0.24255645275115967, 1.9842865467071533, -0.3957475423812866, 1.1459051370620728, -2.376610279083252, -1.28009033203125, -0.8220811486244202, -3.0375590324401855, -0.4823504090309143, -0.7547032237052917, -3.553804636001587, 2.557800054550171, -2.1745314598083496, 3.3765816688537598, -0.1001446545124054, -4.115259170532227, -3.237071990966797, -0.6718587279319763, -0.09647932648658752, 0.026715070009231567, 3.0068154335021973, -1.4718445539474487, -0.7876432538032532, 3.070380687713623, 5.825377941131592, 1.855461835861206, 1.6418551206588745, 3.79914927482605, 0.3109592795372009, -4.725693702697754, 1.4656912088394165, 5.077831268310547, -0.481791228055954, 5.211698055267334, -0.45918533205986023, 1.4716384410858154, -1.7393943071365356, 1.4339641332626343, -3.198913812637329, -4.156795978546143, 3.052712917327881, -0.18677495419979095, -4.621101379394531, -5.837197303771973, -4.504494667053223, -1.6468441486358643, -0.2861064672470093, -1.3628509044647217, 2.4064950942993164, 1.632705569267273, 3.277662754058838, 2.8437836170196533, 0.1802833378314972, 1.4904351234436035, -1.3703526258468628, -4.7603559494018555, -1.135001540184021, -1.6013462543487549, 0.1956203281879425, -1.7011817693710327, -5.06046199798584, 0.17754733562469482, -3.740715503692627, -4.503177642822266, -1.6911762952804565, -2.7523088455200195, -3.128265142440796, 0.34549838304519653, -2.0225985050201416, 2.003387928009033, 3.9706132411956787, -7.362443447113037, -2.4559104442596436, 1.5501760244369507, -1.102713942527771, -1.115551233291626, -6.08756685256958, -0.09142863005399704, -2.9033615589141846, -2.506180763244629, -0.506479024887085, 1.9184331893920898, -1.1202762126922607, -1.6460720300674438, 3.090383291244507, -8.349787712097168, -2.486177921295166, -0.24526062607765198, 5.0948805809021, -3.9148519039154053, -0.8529568910598755, -2.5771942138671875, -6.072715759277344, -1.4957420825958252, 3.682626485824585, -2.481502056121826, -2.738272190093994, -1.9639567136764526, -1.349963903427124, -0.29177194833755493, -3.706057548522949, 5.111659049987793, 0.6011093258857727, 0.9909164309501648, -0.756416380405426, 2.6542727947235107, -2.3575851917266846, 2.0035135746002197, 2.8162946701049805, 0.024360045790672302, -4.579452037811279, 2.7768514156341553, -3.124568462371826, -0.8911958932876587, 0.878196656703949, -0.870638906955719, 0.48305320739746094, -2.2414920330047607, -1.170359492301941, -0.9860328435897827, -6.220334529876709, -4.382091522216797, -0.11825018376111984, 0.8024954199790955, -2.0712738037109375, -3.794741630554199, -5.869411468505859, -0.5947373509407043, 4.4875898361206055, 2.850979804992676, -0.7368428707122803, -4.6568450927734375, -1.6117457151412964, -1.0864416360855103, -1.5449318885803223, 3.24670672416687, 4.14522647857666, -1.3720109462738037, 2.5966691970825195, -2.682159662246704, 1.033770203590393, 1.6435518264770508, -0.515175998210907, -2.420741558074951, 0.6937797665596008, 1.1178354024887085, 1.1581600904464722, 1.5830079317092896, -0.6446787714958191, 0.4785371422767639, 1.1108369827270508, 2.0951545238494873, 0.7259109020233154, 0.11135627329349518, -6.082918643951416, 0.852628231048584, -4.41829252243042, 3.9667601585388184, 1.1285407543182373, -0.3581677973270416, 1.7585904598236084, -2.8893821239471436, 5.733750820159912, -0.025321466848254204, 1.081347942352295, -0.8824460506439209, 1.5114352703094482, -0.5327440500259399, -1.4987105131149292, 3.992020606994629, -2.5353949069976807, 1.3490756750106812, -1.103668212890625, -0.09492924809455872, -0.7782646417617798, -3.7970192432403564, -3.3696529865264893, 1.1881715059280396, -3.9922447204589844, -5.673952579498291, -0.42230287194252014, -0.487021267414093, -2.1953723430633545, -0.4587082266807556, -0.13328689336776733, 1.9330549240112305, 2.106977939605713, -1.721884846687317, -2.569995403289795, 3.019080400466919, -2.383911371231079, 1.180626630783081, -1.2090409994125366, -2.3629937171936035, 1.7438174486160278, 2.3115322589874268, -2.9779844284057617, -3.5280871391296387, 2.197335720062256, 3.4497697353363037, -4.750206470489502, 0.5133066177368164, -2.044288396835327, 4.444390773773193, -0.9190909266471863, 4.645420551300049, 0.8485609292984009, 0.565188467502594, 0.6456732749938965, -8.690869331359863, 6.509992599487305, -0.9449721574783325, -0.49467480182647705, -0.25760316848754883, 3.3723602294921875, 1.4719643592834473, -2.065690755844116, -0.12022583931684494, 1.1505695581436157, 3.0049970149993896, -3.5373775959014893, -1.2610089778900146, 1.1431243419647217, -4.173303604125977, 1.3485313653945923, 1.871701955795288, -1.1245688199996948, -5.308594703674316, -6.096993446350098, 1.475710153579712, 2.2443437576293945, 0.9880306124687195, 3.144277572631836, 3.91463041305542, 1.6979658603668213, -3.1121160984039307, 2.3062984943389893, 6.014021873474121, 0.5596055388450623, 1.4932383298873901, 2.8283746242523193, -1.622576355934143, 0.1774536818265915, -5.068455696105957, 3.924198627471924, -0.549668550491333, 5.0272698402404785, 0.14962059259414673, -1.3266898393630981, -5.9044108390808105, -0.45644456148147583, -0.8484449982643127, -0.20618313550949097, -2.4940567016601562, -3.7528798580169678, 3.0531420707702637, 3.0139734745025635, 3.14697003364563, 3.378491163253784, -7.750271320343018, -0.08368571102619171, 3.8467843532562256, 1.5554322004318237, -5.762993335723877, 4.113851070404053, 1.115889549255371, -5.27977991104126, 0.9902610778808594, 4.405762195587158, 2.9975602626800537, 3.9115700721740723, 1.368738055229187, 1.417233943939209, 0.21530283987522125, 2.707493305206299, -0.18800732493400574, -0.733989953994751, -3.714414358139038, 0.5965345501899719, 3.6722207069396973, 3.5416767597198486, 0.6194160580635071, -5.901849269866943, -0.23927603662014008, 1.6002920866012573, 0.6084086894989014, -2.129753589630127, -0.06378106772899628, -0.008455155417323112, -5.503627777099609, -0.36550450325012207, -2.5514087677001953, -6.740233898162842, -3.32736873626709, 0.5385535955429077, 2.2266921997070312, -0.3966865539550781, -2.3526711463928223, -2.7679836750030518, 3.837351083755493, -0.7399461269378662, 2.6129767894744873, -3.088063955307007, -0.0220086257904768, 5.774960041046143, 0.4902876913547516, -0.643047034740448, -2.897773504257202, -1.4166475534439087, 3.0668795108795166, 5.320839881896973, -1.9089570045471191, -0.16754527390003204, 3.5165493488311768, -1.877072811126709, -10.712639808654785, -0.7352584004402161, -3.4002437591552734, -2.991478443145752, -2.4769861698150635, -1.890637755393982, -1.9394832849502563, 0.45616215467453003, 1.6456282138824463, 1.3524847030639648, 4.768725872039795, 1.3311108350753784, 1.4709700345993042, -4.729399681091309, -2.70662260055542, -0.557643473148346, -0.6290991902351379, 1.1651597023010254, -3.946227788925171, -1.6390024423599243, -0.5534392595291138, 1.069040298461914, -4.040482044219971, -1.3194130659103394, -4.844399929046631, -0.40374329686164856, 3.6925437450408936, -7.544018268585205, 1.5414843559265137, -0.10983440279960632, 5.904083728790283, -1.02285897731781, -5.274287223815918, 0.7685579657554626, 2.3755810260772705, -1.9602116346359253, 0.010529832914471626, -0.5157713294029236, -3.3966023921966553, -1.1364513635635376, -5.515041828155518, 0.8804163336753845, -0.5961267948150635, 0.9284830689430237, -3.232550621032715, 1.0198016166687012, 1.2752372026443481, -2.80135440826416, -3.878873825073242, -3.0429251194000244, -6.2777252197265625, -6.227560043334961, 2.211801290512085, -2.656581163406372, -0.5190185904502869, 0.8414780497550964, 2.1928274631500244, 0.5228810906410217, -4.1987690925598145, 0.8715969324111938, -3.6257433891296387, 0.9124870300292969, -9.312383651733398, -0.7775169014930725, 0.7984418869018555, -2.154109239578247, -1.6082406044006348, -0.6836978197097778, -1.1738975048065186, -1.4692126512527466, -0.4139949083328247, 0.44196876883506775, 0.6282765865325928, -4.0774641036987305, -2.9298715591430664, -1.4530088901519775, -3.200615167617798, 0.532568097114563, 9.706939697265625, 2.1783719062805176, 0.08730965852737427, -0.7796420454978943, 2.327082395553589, 5.51633358001709, 0.7137636542320251, 0.6907816529273987, -7.541046142578125, -4.721214771270752, 2.0124027729034424, 1.6173427104949951, -0.7136907577514648, 5.043101787567139, -4.835773944854736, -0.4157552719116211, -0.4149017333984375, 2.9282712936401367, -1.9598556756973267, 2.252366542816162, -3.081655740737915, -4.192633628845215, 2.6977689266204834, 0.023075945675373077, 2.9183146953582764, -2.188748836517334, 2.620612621307373, -3.2458431720733643, -1.2668920755386353, 1.9749072790145874, 1.5150152444839478, -0.8001976013183594, -3.9867405891418457, 3.7685208320617676, 0.9651633501052856, -1.1581114530563354, -0.9667801260948181, -0.483340322971344, 6.060144424438477, 1.3452321290969849, -1.5055781602859497, -6.219443321228027, -3.7992336750030518, -0.17581653594970703, 0.4058118164539337, 1.1792351007461548, 1.1359610557556152, -0.25854766368865967, 1.4928351640701294, -1.7221217155456543, -1.5971109867095947, -1.956594467163086, 3.300081253051758, -0.9881244897842407, -0.8181105852127075, 2.4066550731658936, -6.431095123291016, 1.541547417640686, -2.736863374710083, -8.630913734436035, -5.278524875640869, -1.8376790285110474, -0.9968142509460449, -0.9719883799552917, -0.6054824590682983, -1.7430166006088257, 1.1799278259277344, 2.668897867202759, 2.814537763595581, -0.07270877063274384, -0.3711453676223755, 1.2663062810897827, 1.6893339157104492, 1.0560357570648193, 1.5830737352371216, 0.08249996602535248, 4.026182174682617, -0.7071729898452759, 0.7951148152351379, 0.45958212018013, 2.268420696258545, 5.3529229164123535, -0.016132861375808716, -5.205783843994141, 0.6453123688697815, 1.2309938669204712, -2.7890241146087646, -3.1233887672424316, 3.014921188354492, 7.372651100158691, -1.7429602146148682, -0.12219341099262238, -3.6453049182891846, 0.024781078100204468, -2.7900705337524414, -2.7030599117279053, -0.46674150228500366, 0.6003629565238953, 1.8471260070800781, -0.38685646653175354, -2.064605951309204, -0.31293338537216187, 0.6445546746253967, -2.997607946395874, -2.6984596252441406, -0.2746105194091797, 1.2928814888000488, -3.7760422229766846, -4.527522563934326, 3.022308349609375, -0.5617744326591492, -9.084004402160645, -6.975924491882324, 5.155394077301025, 0.8418369889259338, 1.5514329671859741, 0.41370728611946106, -0.6198267340660095, 0.6360732316970825, 4.327590465545654, 0.3909241259098053, -3.1448912620544434, 2.4237563610076904, 0.33604469895362854, 3.931605339050293, 3.7147130966186523, 0.12028014659881592, -2.791513442993164, 2.0853240489959717, -1.1860636472702026, -0.027048617601394653, 2.2918996810913086, 1.0532983541488647, -0.9835951924324036, -3.2332632541656494, 0.9340987801551819, -3.4087393283843994, -1.4843010902404785, 3.8835673332214355, 3.7153971195220947, 0.955811619758606, -0.4515926241874695, -6.297316551208496, -3.5677008628845215, -2.730159282684326, 1.860660195350647, 0.6594101190567017, -2.5843122005462646, 1.9325028657913208, 3.0273349285125732, -3.6010446548461914, 3.429781436920166, -2.872248888015747, 1.975058674812317, -8.230315208435059, 2.663830518722534, 0.13387572765350342, 4.087272644042969, -2.934854030609131, 2.056785821914673, -0.5274126529693604, -0.05630949139595032, -5.002325057983398, 0.30859988927841187, 4.871880054473877, 0.9210554957389832, 4.806377410888672, 3.403015375137329, -2.8698923587799072, -0.8811838030815125, -2.073326826095581, -2.0001885890960693, 0.7495567798614502, 5.042851448059082, -3.98398494720459, -6.129960060119629, -0.9073433876037598, 1.7062602043151855, 1.3150897026062012, 1.1659724712371826, -0.9933522343635559, -0.3969965875148773, -2.2472996711730957, 1.2357072830200195, -0.8335866928100586, 0.7177037000656128, -2.800834894180298, 1.1321135759353638, -4.228734016418457, -1.629210114479065, 1.620211124420166, 0.04373610392212868, -2.7776284217834473, 1.4956579208374023, -1.4976170063018799, -2.6946146488189697, -2.0256857872009277, -1.7732771635055542, -0.0740920901298523, -0.651187002658844, 4.0188093185424805, 0.03577829524874687, 0.30303019285202026, 1.788767695426941, -2.978496551513672, 1.6255069971084595, 0.6289036870002747, -0.46270671486854553, 1.4342999458312988, -0.7503634095191956, -1.5061018466949463, -0.5665038824081421, 3.597217082977295, 0.16324064135551453, 0.8541936278343201, -2.181307077407837, 0.8127834796905518, -5.259116172790527, 1.2954119443893433, -4.029397964477539, 0.48648348450660706, 0.015984641388058662, 4.661910533905029, -4.9802350997924805, -1.484829306602478, 0.8413903117179871, -4.101279258728027, -3.5899741649627686, 0.4086630642414093, -0.4370405375957489, -4.463456153869629, 2.365816354751587, -4.020301818847656, 1.7083817720413208, 1.392521858215332, -2.553884506225586, -1.7724390029907227, -3.3018176555633545, 2.186624765396118, -0.6839179992675781, -1.016960859298706, -1.087889313697815, 4.640553951263428, 1.0966840982437134, -1.5422393083572388, 3.4667720794677734, -3.617445945739746, 2.692302942276001, 1.2627469301223755, -1.832306146621704, 0.4507553279399872, 0.19751660525798798, 1.062965989112854, 1.3649338483810425, 0.760261058807373, 0.8533737659454346, -0.12844765186309814, 0.5073264241218567, 1.3660520315170288, 0.48267316818237305, -0.5232845544815063, -2.853642702102661, 7.520051002502441, 4.823539733886719, -1.1911978721618652, 7.533018589019775, -7.085002422332764, 1.2070097923278809, -0.7947161793708801, 0.6115880608558655, -1.400007963180542, 0.24458573758602142, -4.217340469360352, 2.811664342880249, 3.825627326965332, -3.747201442718506, -0.519192099571228, 5.098564624786377, -0.26537925004959106, -2.3432722091674805, 1.5143886804580688, -1.3655034303665161, -1.867649793624878, -3.0896618366241455, 0.7758813500404358, 6.463598728179932, 2.4249684810638428, -0.8467168211936951, -8.624298095703125, 2.0791139602661133, -7.348353862762451, -2.168330430984497, 2.739387273788452, 0.7980298399925232, 5.8983001708984375, 2.1344499588012695, -0.722449779510498, 0.8002263903617859, -0.2813635766506195, 1.6055421829223633, -9.687174797058105, -2.987994432449341, 1.2991924285888672, -0.4209400415420532, -2.5344035625457764, -1.1570006608963013, -1.4228253364562988, -0.6877378821372986, -3.034083843231201, 0.8296464085578918, -0.7292456030845642, 2.653597116470337, -0.26373058557510376, -6.107224941253662, 0.6701748371124268, -1.0088794231414795, 0.47051355242729187, 1.7225587368011475, 0.6448270082473755, -1.26006281375885, 2.5753464698791504, -2.389253616333008, -0.8774409294128418, 5.282909870147705, -0.2915028929710388, -2.5046825408935547, 2.7431640625, 2.9459595680236816, -3.7977283000946045, -5.813451766967773, 0.9928251504898071, -0.9228772521018982, 2.5146708488464355, -2.1650099754333496, 1.0218383073806763, 4.747014999389648, -2.3964014053344727, 2.9515514373779297, -0.49055561423301697, -0.5440666675567627, -0.8607593774795532, -6.543797492980957, 0.3231419622898102, 0.7791941165924072, -4.332221508026123, 2.8278815746307373, 0.6820560693740845, -0.20852991938591003, -2.725649118423462, 5.586073875427246, -2.5731990337371826, 0.9491592049598694, -5.461322784423828, 3.512317657470703, -2.044975519180298, 4.694284915924072, -1.2588516473770142, 1.30388605594635, 0.37690117955207825, 1.7875219583511353, -0.47207459807395935, -5.871488571166992, 5.163018703460693, 3.073503017425537, -1.8475645780563354, 2.2939627170562744, 1.378538727760315, -0.49498388171195984, -4.327336311340332, 2.040631055831909, -0.7158553004264832, -3.434145212173462, 3.755774974822998, 2.986602783203125, -1.1387311220169067, 1.3862764835357666, 0.03745336830615997, 0.2505718469619751, 1.1325773000717163, 3.8074047565460205, -1.4444868564605713, 2.7115235328674316, -3.017153739929199, -1.9703344106674194, 0.2354356348514557, 1.3686610460281372, 2.3669612407684326, 3.291422128677368, -2.3072803020477295, -5.907118320465088, -5.109908103942871, -1.9650046825408936, -0.3695335388183594, 2.2502267360687256, 0.5266488790512085, 4.563697814941406, -4.578351020812988, 2.255507230758667, -4.5788187980651855, -0.5949127674102783, 1.4823511838912964, 0.8723703026771545, 2.4383718967437744, 0.8655811548233032, 2.68524169921875, -2.698329448699951, -3.9193906784057617, -4.2281575202941895, -6.170604705810547, -1.0339481830596924, -6.1795735359191895, -2.2969257831573486, -1.590440273284912, -5.41084623336792, -1.042720079421997, 3.3489959239959717, 0.0634983479976654, -6.135612964630127, -3.8851470947265625, -1.1935607194900513, 4.307528972625732, 0.853456437587738, -7.195760250091553, -0.5084052681922913, 0.3719317615032196, 2.6677167415618896, -2.788539171218872, -2.0691826343536377, -0.5928919911384583, -2.773054838180542, 0.13873425126075745, -0.39247626066207886, -1.2404927015304565, 0.42886653542518616, -2.2852349281311035, 0.5949249267578125, -1.0163995027542114, -3.160220146179199, -0.6322588324546814, -0.6064463257789612, -0.4787498116493225, -1.096535325050354, -1.3740628957748413, -2.989417314529419, 0.9939221739768982, 0.6001625657081604, 4.109867572784424, 0.23201386630535126, 2.6495258808135986, -6.646564960479736, -0.4063214063644409, 0.5426925420761108, 2.3678138256073, -2.5803005695343018, -1.0411629676818848, -7.007184028625488, -1.1814848184585571, 1.0852751731872559, -0.7707564830780029, -0.8712679743766785, -1.9700243473052979, -6.841794013977051, 2.849212169647217, 3.491292715072632, -2.2527658939361572, -6.603376388549805, 2.12457275390625, -1.1204570531845093, -6.5172200202941895, 0.7498458027839661, 0.5338496565818787, -2.011298179626465, 2.9272613525390625, 0.9829883575439453, -3.2304084300994873, -3.698303699493408, -0.3241432011127472, -0.5539756417274475, 5.058831691741943, 0.7113983035087585, 1.1883583068847656, -3.5223793983459473, 0.25314217805862427, -3.3117613792419434, -0.8142319917678833, 0.5299431085586548, -5.577357769012451, -2.0316407680511475, -0.9016557931900024, -1.1657277345657349, -0.3866078555583954, -1.1893436908721924, -3.8505382537841797, -0.2022143304347992, -3.657203197479248, -1.1084715127944946, -0.4885210394859314, 1.0077389478683472, -3.899796724319458, -2.056243658065796, 1.2626140117645264, -4.45660924911499, -0.35161519050598145, 1.035079836845398, -3.3655388355255127, -3.048736095428467, 1.2988877296447754, 6.165781021118164, 4.452453136444092, 3.3870480060577393, 1.8141676187515259, -2.457942008972168, -3.639371871948242, 0.6527737379074097, -0.9364321827888489, -2.0471718311309814, 5.467761039733887, -0.5894467234611511, -0.7707736492156982, -1.1324596405029297, -3.011765718460083, 0.5350977182388306, -1.4719829559326172, 2.3973660469055176, 2.8632688522338867, -0.52930748462677, -3.4584124088287354, -0.006386348977684975, -1.6335970163345337, -5.805979251861572, -5.2461347579956055, -4.716116905212402, 1.1871583461761475, -2.5090999603271484, -3.2288806438446045, -0.3248445987701416, -3.8608994483947754, -3.310819387435913, -0.36823219060897827, 2.5299735069274902, 0.24588577449321747, -2.870593309402466, -2.163447141647339, 0.7595787644386292, 0.04537534341216087, 0.6948914527893066, -6.489101886749268, 0.01752312481403351, -1.0104762315750122, -1.4200091361999512, -6.526492118835449, -0.249594584107399, 3.040989875793457, 0.6854434013366699, -6.3995184898376465, -6.336816310882568, 1.8650752305984497, -4.329685211181641, 1.9397895336151123, 3.231966972351074, -3.2818500995635986, -0.540540874004364, -2.2066445350646973, -1.5286179780960083, -1.2864482402801514, -0.2682274580001831, 1.2665820121765137, 1.178959608078003, -1.8430602550506592, 1.2536075115203857, -1.7231405973434448, -0.3839554488658905, 2.5654757022857666, -0.4139469563961029, -2.5944268703460693, -1.7438315153121948, -2.249781370162964, -1.65414559841156, -1.5884078741073608, -5.699748516082764, 1.3938241004943848, 2.218993902206421, -4.593379020690918, -1.5865525007247925, 0.8098614811897278, 0.46804243326187134, -1.399858832359314, 1.9759443998336792, 0.601839005947113, 2.610701322555542, -0.0940360501408577, 0.9930589199066162, -1.3713916540145874, 3.780820369720459, 1.6793221235275269, 4.031932353973389, 0.5825825929641724, 4.159196376800537, 3.106137752532959, -2.81351637840271, -0.5489406585693359, 1.4821991920471191, -1.72091543674469, 3.3288204669952393, 3.339892625808716, -0.049144480377435684, -2.131178140640259, 1.1174721717834473, 1.9193397760391235, -2.992676258087158, 1.7851922512054443, 1.441506266593933, 0.0726468414068222, -0.6037696003913879, -1.1842639446258545, 1.4561525583267212, -3.8768348693847656, -1.663210153579712, 1.7765544652938843, 2.8544540405273438, 2.12748384475708, -3.536914825439453, -1.5476852655410767, 0.3890989124774933, 4.19592809677124, -1.0986579656600952, -0.7181273698806763, -3.6959352493286133, 4.7176194190979, 2.0386815071105957, -0.8521432876586914, -5.482694625854492, 0.481667160987854, 0.33968016505241394, 0.3904522657394409, 1.0947792530059814, -5.1129255294799805, -3.1715126037597656, 2.823843002319336, 1.2684438228607178, 3.520479917526245, 1.1503219604492188, 3.3418383598327637, -2.3439531326293945, -0.13078083097934723, 1.9466967582702637, 3.8939743041992188, -1.3011263608932495, 1.000675082206726, -0.4256301522254944, 3.3394997119903564, -2.9275503158569336, -0.6529492735862732, 0.5590115785598755, -6.937722206115723, -0.2883991003036499, -4.894319534301758, 2.0852227210998535, -4.259167671203613, -0.554729700088501, 0.3079036474227905, -6.38875150680542, 2.177448034286499, -0.0337558351457119, 3.814021587371826, -1.9103622436523438, 6.91032600402832, -1.9943827390670776, 5.22792387008667, 3.959489107131958, 2.9328510761260986, 2.1595592498779297, 1.4854774475097656, -5.506937503814697, 0.24841326475143433, -0.7256760001182556, 5.775331497192383, 4.654937744140625, -5.111448764801025, -8.798079490661621, -3.5514397621154785, -1.451566457748413, -0.7583324909210205, 1.070092797279358, -1.4616159200668335, 0.5240329504013062, 1.0123748779296875, 0.8570931553840637, 0.15680907666683197, 0.6702402830123901, 0.5757477283477783, -0.6898958086967468, -3.1447696685791016, 0.4193224608898163, 1.4200533628463745, -0.6867614388465881, 2.819363832473755, -1.6823787689208984, 4.029741287231445, -1.977818250656128, -2.695572853088379, -1.5651472806930542, -4.010091781616211, 3.1347286701202393, -1.7972023487091064, -0.12873084843158722, 1.639809489250183, -3.632800579071045, 1.4557931423187256, -1.2890145778656006, 0.8068374991416931, 2.18009877204895, 2.3850584030151367, -1.3805657625198364, 2.193932294845581, 4.228398323059082, -3.2684292793273926, -3.2376551628112793, -0.6118050217628479, -2.3375978469848633, -2.967721939086914, 5.278022766113281, -2.7169127464294434, -0.804886519908905, 3.8200364112854004, 2.8749735355377197, -6.223057746887207, 1.388318419456482, -2.017188787460327, -1.8415632247924805, -1.8023210763931274, -1.237840175628662, -3.0784668922424316, -0.16235721111297607, -1.189011812210083, 3.091215133666992, 0.059711940586566925, 0.433513343334198, -2.2642436027526855, -2.0786237716674805, 2.572768211364746, 1.6393001079559326, 0.1672855168581009, 1.1028273105621338, -5.87448263168335, 1.1631050109863281, 0.14080891013145447, -8.697249412536621, 4.3874592781066895, 2.8583033084869385, -1.8554625511169434, 2.925855875015259, -0.8233329653739929, 2.729823350906372, -7.382608413696289, -3.809522867202759, -0.45866864919662476, -1.1561369895935059, -5.50816011428833, 1.3990310430526733, -4.624897003173828, 4.235256195068359, 2.052870273590088, 3.1632039546966553, -1.7411366701126099, 0.3388979732990265, 0.3394964933395386, 4.963328838348389, 0.8670045733451843, 1.6509982347488403, 1.5491377115249634, 1.709049940109253, 1.368147373199463, -3.350264310836792, 1.056531310081482, 6.584161281585693, 0.6276429891586304, 0.45686075091362, -0.40939560532569885, 1.107712984085083, 0.6906428337097168, -3.6713051795959473, -5.186607360839844, 0.7440481781959534, 5.300098419189453, -2.650329351425171, -5.360136032104492, -3.558060646057129, 3.5728068351745605, -2.954185962677002, -5.877558708190918, -4.853494167327881, 0.04762198030948639, -1.2611650228500366, -0.22731943428516388, -1.3950868844985962, -2.8832168579101562, -0.09330794960260391, -2.1883909702301025, -4.504044055938721, -0.3706252872943878, -0.6997091770172119, -2.279575824737549, -1.4519683122634888, 0.4679950475692749, -2.1760637760162354, -2.3682539463043213, 0.34106460213661194, -5.152368545532227, -1.029376745223999, 1.939454197883606, -3.2746310234069824, -2.3350112438201904, -2.3770084381103516, -0.22652989625930786, -2.128324508666992, 0.5070287585258484, -0.7055596709251404, 0.30292636156082153, 4.265804767608643, 3.1170196533203125, 2.3994874954223633, -1.1807647943496704, -0.9515529870986938, 0.5452358722686768, -4.644482612609863, 1.6242883205413818, -1.2853093147277832, 0.5155286192893982, -0.9720001816749573, 1.2100639343261719, -1.2241809368133545, -2.2281320095062256, 2.844128131866455, 2.016752004623413, -3.1373815536499023, -2.517280340194702, -7.529991149902344, -0.031870849430561066, -4.118565082550049, -5.572895050048828, 3.8925564289093018, 3.1361985206604004, -4.524596214294434, 2.9715371131896973, 0.2610698938369751, -0.0332973375916481, 0.6535130739212036, -1.935101866722107, -5.821700572967529, 2.276711940765381, -1.2106122970581055, -6.313805103302002, -3.7911674976348877, -0.8826723694801331, 1.1517300605773926, 4.369410037994385, -3.7530505657196045, -1.2793465852737427, 1.2876955270767212, -1.81587815284729, -2.856541395187378, -2.3147706985473633, 2.0020341873168945, 1.3165665864944458, 0.5964208245277405, -7.193979263305664, -2.8964169025421143, 4.820817470550537, -2.0368781089782715, 1.9193788766860962, 0.8508440852165222, 2.2181036472320557, -5.65197229385376, 4.274308204650879, -3.0129034519195557, 3.8625450134277344, -2.221721887588501, 1.7291613817214966, 5.157175540924072, 2.348040819168091, -3.092142105102539, 3.9872281551361084, 1.0766905546188354, 3.55955171585083, -1.0792895555496216, 0.9821951389312744, -1.939583659172058, -0.4942367374897003, 3.442922592163086, -1.7370388507843018, 1.140213966369629, -1.1830018758773804, -0.47047656774520874, 4.355239391326904, 0.443008154630661, 0.14679929614067078, -4.053664684295654, 5.898800373077393, -1.0385550260543823, -4.784212589263916, 3.370757818222046, -3.603306293487549, -1.7990593910217285, 1.536328673362732, 2.8113014698028564, 4.23343563079834, 0.398593008518219, 3.296919584274292, -0.6857756972312927, 1.6514010429382324, 0.21053288877010345, 3.620795965194702, -2.210893392562866, 0.5132187604904175, -2.222248077392578, -3.1205945014953613, 0.5585991740226746, 2.1602702140808105, -4.75523042678833, -0.6896224021911621, -0.4009106159210205, -0.262797474861145, 0.5718693137168884, -5.886038780212402, 3.153360605239868, 1.5656664371490479, -1.4962990283966064, -0.0765312984585762, 0.4284292161464691, 2.7509372234344482, -0.8460724353790283, 0.8293544054031372, 1.427693247795105, 0.2627788186073303, 1.3260051012039185, 2.658437967300415, -2.6527061462402344, 1.0688982009887695, 1.876068353652954, 0.17744722962379456, -0.3593888282775879, -5.7951340675354, -1.433885097503662, -2.707287549972534, 1.8897227048873901, -3.3329899311065674, 1.5116305351257324, 4.916561126708984, 2.0458874702453613, 5.049806594848633, 1.0738123655319214, 1.4121545553207397, 2.4425089359283447, 5.6451568603515625, -0.75633305311203, -1.9606645107269287, -1.856387972831726, 6.00302267074585, 2.5756173133850098, -3.6719675064086914, 0.1560632437467575, 1.311598539352417, -0.17897462844848633, 1.076479434967041, -2.102108955383301, 2.935533285140991, -2.168731212615967, 0.5608342289924622, -3.270871639251709, -1.1150962114334106, 6.959756374359131, -3.998063325881958, 1.9367475509643555, 2.9315667152404785, 4.671993255615234, 0.7498680949211121, 1.3100498914718628, -0.18449051678180695, -4.050442218780518, -7.065519332885742, -0.23730936646461487, -4.161428451538086, 1.3930739164352417, 2.530139446258545, -0.7762975096702576, -0.7506830096244812, -0.796737790107727, 0.288239061832428, 1.478587031364441, -1.0335265398025513, -0.33249160647392273, -1.6819429397583008, -0.16185855865478516, 4.038215160369873, 3.7156262397766113, -0.5103172659873962, 0.03217678144574165, 2.675497055053711, -2.0348708629608154, 1.9333913326263428, -2.4171764850616455, -3.654374122619629, -0.2287260890007019, 3.0145721435546875, -2.8752639293670654, 1.942598581314087, -2.640042781829834, -1.7358527183532715, -1.0172775983810425, -0.2529633939266205, 0.3049178123474121, -3.0383780002593994, -0.6066833734512329, -0.22075851261615753, -1.2320549488067627, -0.20781293511390686, 3.2046303749084473, -0.12188147008419037, -2.861686944961548, 1.2218997478485107, -1.686518669128418, -2.9575345516204834, 0.9962193369865417, 0.6937586069107056, -1.3863641023635864, 2.167829751968384, 2.1035690307617188, 0.8786042332649231, -0.756442129611969, 0.3442526161670685, -0.8897865414619446, 1.8690611124038696, 1.4003692865371704, -3.842879056930542, -2.180265188217163, -3.6276838779449463, -1.1079246997833252, 0.5974030494689941, -3.2395131587982178, 3.9717631340026855, -2.4804556369781494, 1.5370689630508423, -8.6686372756958, 2.529158115386963, 5.544743061065674, -1.563664436340332, 2.3789796829223633, 2.224904775619507, -1.7485570907592773, 1.3961185216903687, 0.4284868538379669, -0.8887785077095032, 5.683466911315918, 0.031854696571826935, -4.166634559631348, 1.7297303676605225, -0.017359379678964615, -4.969257831573486, -2.781902551651001, 3.902256727218628, -4.0450053215026855, 1.055873155593872, 0.633165717124939, -1.5671814680099487, -2.215235471725464, -2.4875564575195312, 3.552987813949585, 0.7340294122695923, 1.3014191389083862, -1.9486193656921387, -0.8200766444206238, 1.2194530963897705, 1.760055422782898, 3.3343186378479004, -5.2039103507995605, 5.427643775939941, 3.186964750289917, -6.338610649108887, 0.8370855450630188, 2.213505268096924, -9.53258228302002, -2.3454644680023193, 0.8903481364250183, 2.7673704624176025, -3.38787841796875, 0.645559549331665, -0.3093709647655487, 0.24862432479858398, -3.3060142993927, -7.471104621887207, -3.6374621391296387, 1.8635220527648926, -1.3996779918670654, 2.2699339389801025, 2.4491937160491943, -3.166886806488037, -2.8960883617401123, 0.3483985364437103, -3.2141189575195312, 4.778966426849365, -3.1796813011169434, 0.9715227484703064, 0.9392673373222351, 2.2197768688201904, -1.3112322092056274, 3.194728136062622, -0.03592479228973389, -0.5489148497581482, -1.4006891250610352, -1.7044484615325928, -2.032501459121704, -2.792689085006714, 3.1741280555725098, 1.350264072418213, 4.309654712677002, -2.2274091243743896, 2.4402801990509033, -1.4610127210617065, 1.7551380395889282, 4.25376033782959, -3.0047731399536133, 2.295361280441284, 1.0258780717849731, 3.7912487983703613, 3.597938060760498, 1.964142084121704, 2.832362651824951, -3.5732827186584473, 2.4930191040039062, -0.4218675494194031, 0.047323089092969894, -0.28378617763519287, 0.4593571126461029, -2.4330615997314453, 4.64223575592041, -0.8390634059906006, 0.908197820186615, 2.5232200622558594, 4.208804607391357, 1.7991943359375, 2.9139227867126465, 3.9740123748779297, -1.9941985607147217, 3.458750009536743, -2.259913682937622, -3.122468948364258, -1.1983779668807983, 4.089399337768555, 0.4732877314090729, -0.6264882683753967, -3.268960952758789, -2.6835951805114746, -0.9542946815490723, -4.354315280914307, 0.5558883547782898, -3.300767421722412, 3.602860689163208, 3.675142288208008, -7.112495422363281, -0.10565796494483948, 0.7060865163803101, -9.368206024169922, -0.3511354625225067, 1.2223410606384277, -0.4082604646682739, 0.06633029133081436, 2.463632822036743, -4.4128642082214355, -1.3731513023376465, 0.6537289023399353, -8.44780445098877, -0.10426056385040283, -0.3453163206577301, 2.318641185760498, 1.1528161764144897, -3.995469570159912, -2.094855546951294, 1.2062631845474243, -2.4632928371429443, -3.496760129928589, -1.67512845993042, 1.5913174152374268, -5.884489059448242, -2.408883810043335, -0.15304791927337646, -0.24752341210842133, -0.2852504253387451, -2.4484550952911377, -0.5705265402793884, 2.1002275943756104, 1.4135093688964844, -1.3636677265167236, 0.8217610120773315, 0.5954369902610779, 4.6120924949646, -4.573901176452637, 2.238234043121338, -8.432478904724121, -0.7428650259971619, -0.8428620100021362, -0.8152775168418884, -0.35692301392555237, -0.11607638001441956], "bnGammaA": [2.9997663497924805, 8.194594383239746, 4.671599864959717, 2.541463851928711, 4.770655155181885, 5.546112537384033, 3.704636812210083, 4.879234313964844, 3.0247318744659424, 3.4919962882995605, 3.3309903144836426, 3.2890260219573975, 3.8022124767303467, 3.6704258918762207, 4.706256866455078, 4.327173709869385, 3.216196060180664, 4.33552360534668, 4.959290981292725, 3.0087485313415527, 4.151104927062988, 4.9454569816589355, 4.903528690338135, 4.558304786682129, 4.464385986328125, 7.553412437438965, 4.950777053833008, 3.2482070922851562, 5.55269193649292, 4.33359432220459, 4.810999870300293, 5.104763984680176, 4.657223224639893, 4.565104961395264, 3.767606496810913, 2.7486627101898193, 4.714784622192383, 3.4131531715393066, 3.159776449203491, 6.811560153961182, 3.1600589752197266, 4.481314182281494, 3.6665685176849365, 5.069800853729248, 3.036686897277832, 4.6081013679504395, 3.326775550842285, 2.9156582355499268], "convBiasB": [4.658549642044818e-06, 1.0057010513264686e-06, 2.9334200007724576e-05, 8.009959128685296e-05, 2.7203335775993764e-05, 3.557664240361191e-05, -6.554404535563663e-05, 8.512957720085979e-05, 5.447380317491479e-06, 2.900894651247654e-05, 9.70193650573492e-06, 2.6096586225321516e-05, 3.219851805624785e-06, 6.134971772553399e-05, 3.567114254110493e-05, 4.653648647945374e-05, 3.3516145776957273e-05, 1.1365117643435951e-05, -4.1966406570281833e-05, -1.0362406328567886e-06, 1.0221581305813743e-06, 1.8087615671902313e-06, -5.506398338184226e-06, 1.892919681267813e-05, 1.4830569853074849e-05, 1.391563728248002e-05, 5.074918590253219e-06, 5.656635494233342e-06, -2.2144826289149933e-05, -3.8185844459803775e-06, 4.736388291348703e-06, 3.628005288192071e-06, 8.616632112534717e-05, 5.919525210629217e-05, -6.095760181779042e-05, 1.8741560552371084e-06, 5.1932579481217545e-06, 7.759163054288365e-06, 7.91959791968111e-06, -3.441859735175967e-05, 5.589847933151759e-05, 1.796324249880854e-05, -1.926093773363391e-06, 0.00010677133104763925, 3.939828729926376e-06, -1.3346489140531048e-05, -2.264404611196369e-05, -3.020385975105455e-06], "bnVarianceB": [6475.31591796875, 144.35787963867188, 14422.43359375, 19894.1953125, 8638.234375, 22081.45703125, 21572.0234375, 11836.2470703125, 10861.2265625, 156.52159118652344, 26750.173828125, 30917.357421875, 19191.134765625, 20131.427734375, 16216.4931640625, 23682.208984375, 17347.8203125, 61.51089096069336, 18453.900390625, 37.174983978271484, 13336.7197265625, 8025.8134765625, 19206.59765625, 138.54736328125, 63.015907287597656, 38103.5078125, 16592.421875, 273.9160461425781, 14459.5419921875, 16137.4267578125, 15998.3486328125, 247.60845947265625, 33023.7265625, 22382.923828125, 21633.2265625, 16182.57421875, 130.89881896972656, 9278.41015625, 23592.6171875, 35841.23828125, 20593.533203125, 16651.392578125, 63.81745147705078, 23315.208984375, 20083.10546875, 14428.6298828125, 21319.435546875, 8867.0185546875], "convKernelB": [-3.520970106124878, 0.1295761913061142, 0.3091356158256531, -4.49824333190918, -1.802172064781189, 3.000793218612671, 2.399724245071411, 6.180507659912109, 0.3636871576309204, 0.08646481484174728, -3.5797243118286133, 1.1914706230163574, 0.9518775939941406, 0.8469263315200806, 3.2128801345825195, -0.7320767045021057, -4.0837931632995605, 0.0761103704571724, -4.411158084869385, -0.033537741750478745, -1.5964659452438354, -2.8551793098449707, 3.060991048812866, 0.1296566277742386, -0.04792551323771477, 1.882434606552124, -1.2701702117919922, 0.1675901561975479, -2.4818997383117676, -0.8334639072418213, 5.315439224243164, 0.10101727396249771, 1.8848991394042969, 2.9622714519500732, -0.5190404057502747, 3.8329079151153564, 0.16408120095729828, 1.3943365812301636, 0.33564072847366333, -0.8801097869873047, 0.7865449786186218, -0.32128632068634033, 0.14890989661216736, 7.732954978942871, 1.0492063760757446, -3.194627523422241, -3.6677982807159424, -3.0489020347595215, -2.047905206680298, -0.0227547287940979, -1.0025616884231567, 2.160799741744995, -0.11566141247749329, -3.262981414794922, -1.2055569887161255, 2.8455562591552734, 0.4407942593097687, -0.011783480644226074, -3.260082960128784, 2.2270007133483887, -3.409503936767578, -1.2538400888442993, -2.992429256439209, 2.0063042640686035, -1.3870651721954346, 0.05278224125504494, 2.3092103004455566, 0.0330699123442173, -4.077615737915039, -0.893812358379364, 1.4357178211212158, 0.03481549769639969, 0.12215236574411392, -2.4561729431152344, 3.197052001953125, 0.059263039380311966, 2.2452313899993896, 2.062814235687256, 1.5849344730377197, -0.012567684054374695, -0.9446784257888794, -1.844190239906311, 1.159449815750122, -0.926242470741272, 0.017515575513243675, 0.05505964532494545, -0.023412473499774933, -3.0831007957458496, 0.3914591670036316, 0.45209673047065735, 0.10541694611310959, -1.5577704906463623, -1.3765722513198853, 0.9177199006080627, -1.006710410118103, 0.5488818287849426, 2.500870704650879, -0.10537243634462357, 0.3562728464603424, -2.8952536582946777, 0.2565493583679199, -14.20846939086914, 3.3236310482025146, -0.9925732612609863, -3.4364702701568604, 0.14522171020507812, 2.6515607833862305, -2.697614908218384, -4.122257232666016, 1.7937545776367188, -1.870255708694458, -6.728007793426514, -2.097522497177124, 0.04284375160932541, -3.802645683288574, 0.0890880674123764, -3.3275835514068604, -1.0769948959350586, -1.9864531755447388, 0.10280802100896835, 0.014299931935966015, 1.5295072793960571, -2.565248966217041, -0.12198104709386826, 1.3155205249786377, -3.454817295074463, -2.694089889526367, -0.03888025879859924, 2.761350154876709, 0.13709472119808197, -2.0984485149383545, -4.488736152648926, -0.10350571572780609, 1.957634449005127, -4.68202543258667, 0.15771785378456116, 0.08964914828538895, -3.491899251937866, 0.0453689843416214, -1.6914762258529663, -2.13999605178833, 1.843122124671936, -2.0075788497924805, -1.2962114810943604, -2.749203681945801, -0.16521553695201874, -1.295745849609375, 1.5675280094146729, 3.8702266216278076, 3.7834973335266113, -0.9723028540611267, -0.8699445128440857, -0.3676072359085083, 0.11891376972198486, 0.35757553577423096, 3.2117607593536377, 0.04130465164780617, -1.0972864627838135, -3.003697395324707, -0.7394701838493347, 1.622790813446045, 0.05830945819616318, -1.916407823562622, 0.057445041835308075, 1.9908692836761475, 2.802896022796631, 1.5339922904968262, -0.2645679712295532, 0.013691521249711514, 0.17318794131278992, 2.052656650543213, -0.26815304160118103, 0.3255194127559662, -0.47831207513809204, -1.1474908590316772, -0.1373641937971115, -0.9660153388977051, 1.4520092010498047, -1.4773409366607666, 1.8153966665267944, -0.09735292196273804, -2.1347882747650146, 3.2685227394104004, -1.5045573711395264, 2.1943819522857666, 2.585268259048462, -0.07876227796077728, 2.5066328048706055, 1.0692592859268188, -0.7005166411399841, 0.8680090308189392, 0.5431586503982544, -2.8661792278289795, 0.15837781131267548, 3.0633492469787598, 4.428898334503174, -7.414205074310303, 1.1534281969070435, 0.7543668150901794, -1.404783010482788, -0.6298718452453613, -0.15376028418540955, 1.9695481061935425, -0.1334158331155777, 0.47810667753219604, 1.6060690879821777, 0.20846495032310486, -1.5516071319580078, 0.8055608868598938, -0.0488622710108757, -0.9041241407394409, 0.04711250588297844, 2.5225565433502197, -1.157274842262268, -1.0942319631576538, 0.0874490886926651, -0.08294253796339035, 0.4283960461616516, -1.1586982011795044, 0.12296690046787262, 1.596226692199707, 1.188670039176941, 3.052766799926758, 0.00024357694201171398, -3.7906486988067627, 2.0781545639038086, 2.6074211597442627, 1.6861127614974976, 0.11647579818964005, -0.7189004421234131, -1.0960965156555176, 5.23989200592041, -0.4655101001262665, -3.6035804748535156, 0.08309520781040192, 2.9957518577575684, 2.2999587059020996, 0.09900027513504028, -1.5112375020980835, -3.1463630199432373, 1.4831939935684204, -0.02175658755004406, -3.953740119934082, 4.6744279861450195, -1.3903334140777588, -0.9168711304664612, 2.7530741691589355, -1.1969563961029053, -4.396834850311279, -0.13115370273590088, -1.1435309648513794, -1.8611466884613037, -1.4814311265945435, -3.1854004859924316, -5.322192192077637, 0.06780391186475754, -2.9952473640441895, -0.08965525776147842, -0.23564836382865906, 0.043775904923677444, -0.05893002450466156, -2.8256053924560547, 1.2217597961425781, -0.008027658797800541, 0.02359723672270775, -2.3786213397979736, 0.8698688745498657, 0.02787546068429947, -1.5332705974578857, -3.03389835357666, -2.627005100250244, 0.060004424303770065, 3.4089505672454834, -1.3542505502700806, 1.5564296245574951, -1.4380422830581665, 0.005212039686739445, -0.120966337621212, 3.1362385749816895, -2.413928270339966, 0.272337406873703, 0.760401725769043, -0.1097320169210434, 3.5869107246398926, 0.07516105473041534, -7.148073673248291, 1.1556302309036255, -7.324199676513672, 0.17467549443244934, -0.12814511358737946, -2.547081708908081, 4.992317199707031, -0.5994862914085388, -1.5455724000930786, -1.754418134689331, -2.734564781188965, -0.5721419453620911, 0.04686092212796211, -1.5077811479568481, 2.4261105060577393, 0.9057298898696899, -0.34216758608818054, -4.693618297576904, -6.540044784545898, -4.722265243530273, 0.0794268399477005, -3.1522140502929688, 0.06284606456756592, 6.068079471588135, -2.6785213947296143, -1.8845032453536987, 0.3321034908294678, -0.06101183965802193, 3.150489330291748, -3.8773787021636963, 0.001600507297553122, -3.8870887756347656, 2.3075194358825684, -0.45057427883148193, -0.06417392194271088, -2.5357651710510254, -1.7163695096969604, -0.6179456114768982, 0.6568650603294373, 0.00639705965295434, 2.1753392219543457, -8.609743118286133, 1.2558884620666504, 0.06773452460765839, 1.869411826133728, 0.14564232528209686, -3.304685592651367, 2.7846477031707764, 3.574536085128784, 0.3828795552253723, -3.020479917526245, -1.2972465753555298, 0.12732097506523132, -2.773761510848999, 2.7942423820495605, -0.5436556935310364, 0.46743863821029663, -4.038834571838379, 5.799622535705566, -8.914257049560547, -0.057565610855817795, -0.2361842691898346, 3.1401777267456055, -5.276598930358887, -1.315605640411377, 3.324002265930176, -0.8117710947990417, -0.6687614917755127, -0.0035163559950888157, -1.5355899333953857, -0.06402289122343063, 0.9614746570587158, 2.149404525756836, -3.0536913871765137, 0.15027879178524017, 0.0586126446723938, 0.6776947975158691, 0.41529732942581177, -0.0875374898314476, 0.5267773270606995, -3.3052096366882324, 5.455000400543213, 0.06532211601734161, -0.1574801653623581, 1.291936993598938, 4.269087791442871, -2.7440314292907715, -0.022201314568519592, -3.6999754905700684, -1.2208853960037231, 1.0707757472991943, -1.583471417427063, -0.0739985927939415, -0.00310005946084857, 3.3215699195861816, -0.4623783528804779, -4.139945030212402, -3.420506715774536, 2.4032599925994873, -0.7722729444503784, 0.04313414916396141, -1.5139931440353394, -0.12034880369901657, 1.1461175680160522, 1.488100528717041, 0.1510286033153534, -0.29404181241989136, -4.364156246185303, 0.14531737565994263, 2.8817379474639893, 1.1507998704910278, 5.523519992828369, -3.798647403717041, 0.09755329042673111, -3.4675395488739014, -1.767168641090393, -0.04715394228696823, -0.9149528741836548, 0.02279498055577278, 0.7667704224586487, -3.527524471282959, -0.6967285871505737, 0.04873410984873772, 0.023270133882761, 3.0889031887054443, -3.3599066734313965, -0.07578787952661514, -2.9771645069122314, -1.1315220594406128, 2.818760633468628, -0.3229757249355316, -2.340089797973633, -8.252584457397461, 0.42948010563850403, 1.2559508085250854, -0.06080997362732887, 1.7236863374710083, -3.2223877906799316, -1.3151108026504517, -0.7750363945960999, 0.9538063406944275, 0.06079120934009552, 0.4848058223724365, -0.23399242758750916, 1.448225975036621, 0.5219888687133789, -0.7916028499603271, -7.139007091522217, -0.023346714675426483, 0.7374110817909241, 1.9924097061157227, -1.510179042816162, -6.6041765213012695, 3.9546446800231934, 3.1993677616119385, 2.248432159423828, 0.07445862144231796, -0.8752400279045105, 1.4768208265304565, -3.4344241619110107, -0.3039238154888153, 0.3610629737377167, -1.057641625404358, -6.060320854187012, 0.07733747363090515, 0.2171301245689392, 0.007007837761193514, -2.225022077560425, 3.7942821979522705, 0.02141270786523819, 0.03147844597697258, -0.0205970648676157, 2.7562525272369385, -2.393549680709839, -0.16409645974636078, -5.417849540710449, -0.6846103668212891, -2.260406970977783, -0.013046062551438808, 0.8393173217773438, 1.8026233911514282, -1.38763427734375, -1.0151716470718384, 0.049599096179008484, 2.8166372776031494, 2.97515869140625, 1.5150607824325562, 0.84110027551651, 4.279752254486084, 0.10109878331422806, 1.770505428314209, 2.438412666320801, 2.0231144428253174, -0.01769409328699112, -3.3568923473358154, 1.286615014076233, -0.12875805795192719, -0.7611704468727112, -2.365417957305908, -2.5021162033081055, 0.6713871359825134, -1.7841942310333252, 2.2656049728393555, -2.3550589084625244, -0.2589411735534668, -0.8100858926773071, 3.2027862071990967, -0.3387945294380188, 1.7242053747177124, 0.0698278546333313, -3.413407802581787, -0.016835758462548256, -0.22786542773246765, 0.3709327280521393, -0.02658398449420929, -2.863429069519043, 1.769927740097046, 1.6923547983169556, 0.0008864286355674267, -0.025547383353114128, 0.31297188997268677, 0.04765066131949425, -0.044076088815927505, 2.9813663959503174, -0.4327395260334015, 5.212681770324707, -0.09480667114257812, 1.4405598640441895, 1.6501275300979614, 0.7945125699043274, -1.1503868103027344, 0.06967496126890182, 0.22513757646083832, 0.4481210708618164, 1.640668272972107, 0.4658384323120117, 0.7364383339881897, -0.038304563611745834, 2.0659258365631104, 1.4976351261138916, -0.2839743494987488, -3.2599809169769287, -1.2286893129348755, -0.8917964696884155, 0.06977330148220062, -1.991835594177246, -4.269681930541992, 0.1504955291748047, -3.079805374145508, 3.0620086193084717, -1.5387496948242188, -4.777912616729736, -0.01451172772794962, 2.112387180328369, -0.03228465095162392, -1.1883177757263184, 4.741708755493164, 1.426316738128662, -7.54191780090332, -1.4903645515441895, 0.00027253315784037113, -3.876400947570801, -0.0322922058403492, -1.6678404808044434, -0.6736751198768616, -1.522948145866394, -0.003659459762275219, 0.00810801051557064, 0.7579850554466248, -3.1234183311462402, -0.03996627777814865, -3.304980754852295, -0.005412029568105936, 0.6964860558509827, 0.07648327201604843, 1.167156457901001, -0.16144242882728577, 6.073615074157715, -1.5805891752243042, 0.018153762444853783, 5.068511486053467, -1.6355217695236206, 3.78585147857666, 0.6975461840629578, 3.0930018424987793, -0.025596337392926216, 0.5951356887817383, 0.0052732680924236774, 1.2182810306549072, -2.431473731994629, 7.780503273010254, -0.20905444025993347, -0.04205707088112831, -6.171798229217529, -3.354480266571045, -1.2513647079467773, -2.958981513977051, -0.4655535817146301, 0.09868130087852478, -0.8694010376930237, 0.11033440381288528, -0.5183516144752502, 1.0346484184265137, -2.598769187927246, 1.42006254196167, -1.6214021444320679, 4.062434196472168, -4.986453533172607, 0.10574333369731903, -0.5599731802940369, 0.001121260691434145, 3.2430362701416016, -2.6661462783813477, 0.2594578266143799, 0.08707632124423981, 0.005189841613173485, 1.9050521850585938, -0.5090058445930481, 0.04695397615432739, -2.592461347579956, -5.356595993041992, -0.3891953229904175, -0.06859388202428818, -3.3237009048461914, -1.5386559963226318, 2.5550451278686523, -1.0264673233032227, -0.015520812012255192, 1.963910698890686, -2.24580454826355, -1.4397451877593994, -0.11018723994493484, 1.5292192697525024, 0.11430228501558304, -3.232706069946289, 0.9861951470375061, -0.862382173538208, 1.2150548696517944, -4.223926544189453, -1.5657448768615723, 0.09531082957983017, 3.677232265472412, 1.0860872268676758, 0.7200281023979187, -6.90737771987915, 0.9319304823875427, -3.0403904914855957, -0.3795701861381531, -0.08861297369003296, -0.7547401189804077, -1.3720080852508545, -1.6340131759643555, 0.06216755509376526, -0.23787814378738403, 2.975010871887207, 0.5158253312110901, -0.08829247951507568, -0.8962162137031555, -0.0879920944571495, 0.7274092435836792, 3.2050485610961914, -1.9813352823257446, -0.11635976284742355, 0.04810461401939392, 3.697474241256714, -1.6453158855438232, 0.24295559525489807, -2.7585294246673584, 0.883380651473999, -0.35876893997192383, 0.1777377426624298, -0.29015305638313293, -2.415870428085327, -1.381649374961853, -0.5074610710144043, 0.09466451406478882, 3.465158462524414, 3.5832583904266357, 2.9354240894317627, -0.924354612827301, -3.3568451404571533, 0.00597422756254673, -0.7702112793922424, 0.0904700979590416, 3.493154287338257, -0.4577074646949768, 2.8872368335723877, 2.005089044570923, 0.12071553617715836, 1.4162366390228271, -1.2126882076263428, -4.304377555847168, -5.003056049346924, 1.5392340421676636, 0.5064812302589417, 3.3043529987335205, -0.1711704283952713, 1.0197703838348389, 2.8189871311187744, -2.5406811237335205, 3.207545757293701, -0.7016188502311707, 3.10490345954895, -0.9770973324775696, -0.06624531000852585, -2.40975284576416, 0.05201428383588791, 0.027992775663733482, -1.2425317764282227, -3.1210744380950928, 0.00876108929514885, 0.06209491565823555, 3.3260772228240967, 3.534823417663574, -0.0009885170729830861, -1.2058411836624146, -4.390087604522705, 1.7311044931411743, 0.037102047353982925, 2.8630480766296387, 0.5885947942733765, -0.567221462726593, -1.476650595664978, 0.08210678398609161, -0.2996048927307129, -0.9749416708946228, 1.7653955221176147, -0.8184537887573242, -1.4778835773468018, -0.08088386058807373, -1.4651094675064087, 0.04446731507778168, -1.434718370437622, -0.6888282299041748, 7.214471817016602, 0.7710026502609253, -0.017263883724808693, 7.206857204437256, 1.6788196563720703, -0.7871266603469849, 1.3398325443267822, -1.263711929321289, -2.1021668910980225, 0.9519188404083252, 0.07404991239309311, 1.3604512214660645, -1.9347354173660278, 1.074354648590088, -0.3726228177547455, -0.5574312806129456, -2.1053829193115234, -0.6293586492538452, 0.17573317885398865, 0.19166533648967743, 0.06648837774991989, -4.087490558624268, 4.011931896209717, -1.4976969957351685, -0.10159187763929367, 0.05049227178096771, 0.2754599452018738, 1.5762852430343628, -0.03955291211605072, -1.972330093383789, -2.7810218334198, -1.6522345542907715, 0.02022114396095276, -0.7196035385131836, 3.9584856033325195, -0.14588415622711182, 2.6968626976013184, 0.11674809455871582, 1.4155261516571045, -2.1241259574890137, 1.2081177234649658, -0.842667818069458, -1.5949881076812744, 0.07942768931388855, 0.38939371705055237, 0.7293586730957031, -5.931478023529053, -0.039571117609739304, -2.5551586151123047, 0.2613351047039032, 0.02293383702635765, -1.6123286485671997, 1.7296314239501953, -3.4891133308410645, 1.521493911743164, 0.26322904229164124, 0.8440186381340027, 1.7972208261489868, -0.025111492723226547, -0.40670710802078247, 0.02144009992480278, 1.9659889936447144, 0.38534092903137207, -1.3437532186508179, 1.202623963356018, 2.5846400260925293, 0.04586480185389519, -0.8813155889511108, -0.0355021171271801, -0.5476697683334351, 3.5820751190185547, 4.536221027374268, -0.00917072594165802, 0.011618883349001408, -3.3998024463653564, 2.3748204708099365, 0.10554057359695435, -1.2224013805389404, -1.0455821752548218, -0.5367832779884338, 0.13351395726203918, 1.8218947649002075, -0.13684718310832977, -2.0601654052734375, -1.361709475517273, -0.004228624980896711, -0.20720814168453217, 1.6475622653961182, -0.04432935267686844, 0.09348161518573761, 0.22399041056632996, -0.09623418748378754, 0.07511717826128006, 0.49924734234809875, -1.5216962099075317, -2.6239469051361084, 4.1411590576171875, 1.3830578327178955, 0.1618034541606903, 0.1794811636209488, 6.109316825866699, 0.3131980895996094, -0.999079167842865, 0.5042974352836609, 1.101314663887024, 0.8730253577232361, 0.13245467841625214, 3.4046757221221924, -1.1501408815383911, -1.5151044130325317, -3.3270270824432373, 0.10635702311992645, 1.7451331615447998, 2.9929311275482178, 0.02993076853454113, -0.03815819323062897, 0.10294930636882782, -5.26904821395874, 1.5802403688430786, -1.7347297668457031, -0.158157616853714, 0.09741468727588654, -1.1741305589675903, 3.2621963024139404, 0.10490287095308304, 2.1009087562561035, -0.18662157654762268, -2.6945953369140625, 0.1386765092611313, -1.2089308500289917, -0.6809297800064087, 1.8970677852630615, -1.0349652767181396, 0.11086777597665787, -0.5833624005317688, 1.8762943744659424, 0.21054671704769135, 0.013144293799996376, -3.0562827587127686, 0.11162830144166946, 5.260135650634766, -0.9834346771240234, 1.405052661895752, 1.825282335281372, 2.9825754165649414, -5.36643123626709, -0.15253296494483948, -0.7028297185897827, 2.671236515045166, -6.109619617462158, -1.0231108665466309, 1.8264113664627075, -3.106353759765625, 0.8346889615058899, -0.15237972140312195, -3.4939935207366943, 0.010388555936515331, 0.8846383094787598, 2.1727209091186523, -0.262565553188324, -0.09896436333656311, 0.8710601925849915, -0.16080263257026672, -3.164891242980957, -0.06115949526429176, 4.374383926391602, 5.199821472167969, 0.31656917929649353, -0.06725792586803436, 0.07416696101427078, 3.1700994968414307, -1.382104754447937, -0.24325120449066162, 2.1767966747283936, 0.5913130044937134, -0.6634839177131653, -0.08889894932508469, 2.2650184631347656, -0.9526734948158264, -0.7888164520263672, -0.7328553795814514, -0.307914674282074, 2.7706456184387207, -0.5320350527763367, -0.5993955135345459, 2.902132034301758, 0.9762812256813049, -0.12165070325136185, 2.569279670715332, 0.05392668396234512, -8.573896408081055, -3.3209266662597656, -3.687955141067505, -3.910331964492798, -0.07972290366888046, 0.29354849457740784, 3.448967456817627, 0.6296171545982361, 2.3710718154907227, -1.8394559621810913, 1.7749475240707397, 3.105412244796753, 0.1569114476442337, -0.7970408201217651, 2.502103328704834, 2.7956950664520264, -2.1634838581085205, 4.394689083099365, -3.636427402496338, 1.7330620288848877, -0.021829361096024513, -4.128239631652832, -0.056478068232536316, -3.0579607486724854, -1.1665116548538208, -0.4099002182483673, -0.08275981992483139, 0.07972434908151627, 0.1699989289045334, 4.171477317810059, -0.23541899025440216, -0.4959905743598938, -1.9828479290008545, 1.6400353908538818, 0.025914501398801804, 2.786147117614746, -1.1894540786743164, 1.7881896495819092, 0.09781894087791443, 0.04941604286432266, -1.0068377256393433, 0.07069600373506546, -3.1241133213043213, -1.165177345275879, 0.013304331339895725, -0.2422001212835312, 2.014538526535034, -2.820466995239258, 0.3673912286758423, -1.8029677867889404, -6.970746994018555, 5.624413967132568, -0.15587882697582245, -1.9013527631759644, -2.9144489765167236, 1.335615873336792, -1.7794909477233887, 4.117228984832764, 0.6683526039123535, 0.19892556965351105, 0.24423463642597198, 0.35533323884010315, 1.7895904779434204, 4.888731479644775, 0.9147635102272034, 2.5426559448242188, -0.6907966732978821, -2.08453369140625, 0.17424173653125763, -2.509699583053589, 0.10725339502096176, 0.6971431970596313, 1.8542616367340088, -3.2929399013519287, -0.07185622304677963, -0.07946811616420746, 4.569008827209473, -2.2360455989837646, -0.4565589725971222, 1.5239818096160889, 1.4884579181671143, -1.4478299617767334, -0.36191326379776, -2.891552686691284, -3.381181478500366, -3.0001580715179443, -4.55565071105957, -0.12488522380590439, 4.173049449920654, 1.7789479494094849, -0.37680721282958984, 1.087698221206665, -1.9758610725402832, 0.16120755672454834, 0.9297434687614441, 1.4549752473831177, 1.0606030225753784, 1.7587249279022217, -1.0388177633285522, 4.130002498626709, -0.00015176164743024856, 0.2270515412092209, -2.168107509613037, 0.9953122735023499, 1.6910597085952759, -0.8666359186172485, -2.1282384395599365, 4.234332084655762, -0.17531295120716095, -1.2672594785690308, 0.12825308740139008, -0.5678808689117432, -0.5935797691345215, -0.06910628080368042, 0.4810101389884949, 3.319291830062866, -0.18366822600364685, 0.9156700372695923, -0.15616478025913239, -4.35479736328125, 1.692929744720459, 1.6986358165740967, 0.012834860011935234, 0.009502916596829891, 1.6459283828735352, 2.394049882888794, 0.1373370885848999, -1.424170732498169, 1.1212249994277954, -0.3150036036968231, 0.1839003711938858, -1.6323308944702148, -1.0027368068695068, 0.5404326319694519, 3.061795711517334, 0.015959899872541428, -0.06182802841067314, 1.8400602340698242, -1.3253130912780762, -0.021832190454006195, -1.0341706275939941, -0.2274632304906845, -1.3309770822525024, -1.7371069192886353, 1.0105583667755127, -0.9839395880699158, 0.9208868741989136, 0.0699654147028923, -0.013214696198701859, 0.6643060445785522, -2.052558660507202, -2.947004556655884, 0.6264110207557678, -2.7060112953186035, -0.7235034704208374, 1.396895170211792, 0.15084655582904816, 1.1436322927474976, -3.432252883911133, 0.12374621629714966, -3.284219980239868, -0.3608398139476776, 0.5118375420570374, 1.1893284320831299, 0.1352514624595642, -0.962830126285553, -0.05048206076025963, 2.08182430267334, 3.006155014038086, -1.2667502164840698, 0.045660216361284256, -0.008366977795958519, -3.2761077880859375, 2.934460401535034, -0.00495490524917841, -0.5361211895942688, -1.108856439590454, -2.944228410720825, -0.06368278712034225, 1.3164247274398804, 1.0998951196670532, 2.49021315574646, 0.1155497208237648, -0.06544606387615204, -2.922072172164917, 2.428013563156128, -0.5272115468978882, -0.5468985438346863, -0.44187259674072266, 0.11239666491746902, -1.3278467655181885, 0.50633704662323, -1.6731709241867065, 1.0629847049713135, 4.886903762817383, 0.696753740310669, 0.10794980823993683, -2.514167547225952, 1.7238585948944092, -2.041022777557373, -2.7658956050872803, 5.467770576477051, -1.5217649936676025, 1.2693955898284912, -0.0516454316675663, 2.0526957511901855, -0.9321954846382141, -1.2002476453781128, -3.497022867202759, -0.5201817750930786, -0.9559482336044312, -0.2115924060344696, -0.05027620121836662, 3.6262271404266357, -0.019655225798487663, -2.6846110820770264, -0.6436081528663635, 2.631561279296875, -0.056266337633132935, -0.11710962653160095, -1.9480328559875488, -0.782799243927002, -0.026328235864639282, 2.6055099964141846, 1.3734729290008545, 0.6872422695159912, 0.0432671457529068, 5.035124778747559, -4.247866153717041, 0.3946494162082672, -2.155647039413452, 0.1564885675907135, 3.092228412628174, 0.8002721071243286, 0.5943689942359924, 1.471229910850525, 4.1348066329956055, -0.026927664875984192, 1.211888074874878, 0.10374961793422699, 2.651925563812256, 1.541022777557373, -0.9223665595054626, -2.818688154220581, -0.09030061960220337, -0.18819445371627808, -0.5255439877510071, 2.350708246231079, 1.4549227952957153, -2.6877658367156982, -2.1318187713623047, 0.21093888580799103, 0.13478076457977295, 2.92697811126709, 1.6230357885360718, 1.528645634651184, -3.999065399169922, 1.9720426797866821, 2.5771396160125732, 1.039406657218933, 0.029277034103870392, 2.5886824131011963, -0.014459864236414433, 1.2139627933502197, 1.0095312595367432, -1.069307565689087, -0.1655552089214325, -0.100949227809906, 2.8395116329193115, -0.055180247873067856, 0.054662760347127914, -0.4270818829536438, -1.2670609951019287, 0.9184418320655823, -0.004905975889414549, 1.1548548936843872, 2.6157515048980713, -0.4213263988494873, 1.9157634973526, 0.02782786265015602, -0.5053026676177979, -0.7461475133895874, -2.036876678466797, -1.247663140296936, 1.5062823295593262, 0.03985052555799484, -1.514113187789917, 0.4032590985298157, 1.7929364442825317, 4.979601860046387, -1.068660855293274, -0.7735720276832581, 0.09289199113845825, -2.9403388500213623, -1.777780294418335, -1.0231564044952393, -0.3119076192378998, 0.6279243230819702, -3.1548521518707275, -3.05263614654541, -0.1534554660320282, -0.3244408965110779, -3.957144260406494, 3.496992349624634, -4.622995376586914, 1.2097774744033813, -1.7631845474243164, -0.49865883588790894, -0.12780697643756866, 3.388059616088867, -0.1139736920595169, -0.37115535140037537, -0.2291272133588791, -2.6237289905548096, -0.07308445125818253, -0.00045105619938112795, -3.9343361854553223, -5.331239223480225, 0.08511227369308472, -3.0941009521484375, -3.1375527381896973, 0.5798910856246948, 0.03927982971072197, -1.059335708618164, 1.9226796627044678, 2.2701621055603027, 2.092113971710205, 0.07585562020540237, -1.0926282405853271, 3.2923624515533447, -1.0857394933700562, 0.42439377307891846, 0.2304113656282425, -0.061729468405246735, -3.9536235332489014, 0.8073838949203491, 0.13495665788650513, 0.47490859031677246, -7.826958179473877, 0.7069592475891113, 0.039596542716026306, 1.2242529392242432, -2.4784486293792725, 0.16500410437583923, -0.29519951343536377, -0.2645603120326996, 1.9170371294021606, 4.048401832580566, -0.3121015727519989, -0.9973718523979187, -0.5131477117538452, 0.7707576155662537, 0.5918721556663513, -0.013834401033818722, -2.67104434967041, -1.7739644050598145, -0.07699646055698395, -1.1681321859359741, -0.017713619396090508, -1.7946364879608154, 1.6257953643798828, -1.6175470352172852, -0.04336493834853172, -0.039071980863809586, 3.4964892864227295, -0.5327001810073853, 0.16093412041664124, -3.5677266120910645, 1.6086136102676392, 2.94191837310791, 0.11979468911886215, -0.8767857551574707, -2.93812894821167, -1.6549361944198608, -0.9934457540512085, 0.1044757291674614, 1.191421389579773, 0.3096088469028473, -0.41248247027397156, 0.962067723274231, -5.050196170806885, -0.08912807703018188, 0.008538156747817993, -0.4900241196155548, -5.28033971786499, -4.297441005706787, -1.6367993354797363, -3.298823118209839, -0.1027497723698616, -1.503803014755249, -0.8662774562835693, -0.8982746005058289, -0.6120699644088745, 1.1094145774841309, -0.47931036353111267, -2.6744484901428223, 0.08815126121044159, -2.2425079345703125, 1.2472059726715088, 1.8912510871887207, -0.17788562178611755, -1.3536643981933594, -2.707521915435791, -2.716087579727173, 0.1672775149345398, -0.5045135021209717, -0.0038817659951746464, -4.2843780517578125, 3.18708872795105, 2.0378012657165527, 0.03305276855826378, -0.01103607565164566, -3.2378089427948, -1.4159789085388184, -0.08662782609462738, 0.8923969864845276, -3.0542523860931396, 4.8817362785339355, -0.11368055641651154, 4.076718330383301, -1.5683156251907349, -0.46112295985221863, 4.109057426452637, -0.04182713106274605, -1.9003536701202393, 0.032493170350790024, 1.0488865375518799, 0.7207045555114746, -0.5762020945549011, 0.02030719444155693, -2.173290252685547, -0.3137703537940979, 0.07046880573034286, -0.08821158111095428, 0.05589144676923752, -3.029550552368164, 0.11324792355298996, 1.863326907157898, 2.789882183074951, 0.17553605139255524, -4.6828436851501465, 3.053220510482788, -2.1282501220703125, -4.70652437210083, -0.12803836166858673, 3.121190309524536, -1.0973106622695923, -0.04009893909096718, 3.632169008255005, 2.9624462127685547, 3.158414602279663, -3.6102755069732666, -0.03569401428103447, 0.0707521066069603, -0.04868822544813156, 7.184474945068359, -1.5827215909957886, -2.086691379547119, -0.049735069274902344, 0.012464862316846848, 2.6124730110168457, -2.2521889209747314, 0.0731157511472702, -1.296547770500183, -2.4239089488983154, -3.432344436645508, 0.11627378314733505, -1.5245161056518555, -2.6534576416015625, -0.6559069156646729, 0.36919134855270386, 0.03268891200423241, -0.43584683537483215, -1.053470253944397, -5.487568378448486, -1.8870480060577393, 0.8990119695663452, -0.023559195920825005, -0.24485599994659424, -1.5430320501327515, -1.57581627368927, -3.2237601280212402, 2.9183764457702637, 0.8482873439788818, -0.06967747956514359, -0.384962797164917, 0.16261300444602966, 2.8132002353668213, 0.30431824922561646, -1.9816633462905884, -4.067547798156738, 1.1839150190353394, -0.028624651953577995, 3.4020299911499023, -2.9452593326568604, -2.2476413249969482, 0.08850850909948349, 0.7671424746513367, -0.07984130829572678, 1.7214487791061401, -0.21337133646011353, 0.871131956577301, -0.05495569854974747, 0.5070267915725708, 1.329117774963379, 0.2506728172302246, 0.06620446592569351, -0.00136499700602144, 1.646336317062378, 0.853800892829895, 0.1264348179101944, 2.377070665359497, -2.762957811355591, -1.831883192062378, 0.2900583744049072, -4.571977138519287, -1.7703911066055298, -0.16461415588855743, 2.902754306793213, 0.3059789836406708, -0.7973954677581787, 0.4526430070400238, -1.7475138902664185, -1.273794174194336, -1.703244686126709, -0.024618251249194145, -1.0264816284179688, 0.7282471656799316, 0.37098753452301025, -0.43821918964385986, 1.9378055334091187, 0.17373420298099518, -0.0018115543061867356, -2.0942647457122803, -2.429802894592285, -0.4652844965457916, -7.389811038970947, 1.0809307098388672, -4.485837936401367, 0.47918859124183655, 0.15790775418281555, -2.377089023590088, -1.7011966705322266, -6.952795505523682, 0.8245773911476135, -0.4183543026447296, 1.37140691280365, -0.49364811182022095, 0.02299143746495247, 1.0132837295532227, 0.021550152450799942, -1.6275936365127563, 2.0380330085754395, 0.0257505401968956, -0.25016385316848755, 0.1427011340856552, 1.1490731239318848, -1.0512340068817139, 0.14517904818058014, -0.33891570568084717, -1.6985939741134644, 1.2809208631515503, 0.03981133550405502, -0.3010518252849579, -2.3855814933776855, -0.06677275896072388, -6.412957668304443, 0.0659027174115181, -0.25869807600975037, 3.5035107135772705, 0.3857237994670868, -0.34502413868904114, 1.397733211517334, 0.06208546459674835, -2.0556178092956543, 0.35516613721847534, 1.494214415550232, -4.393073081970215, 2.1034281253814697, 1.9491472244262695, -0.07224929332733154, -3.0706846714019775, 3.674403429031372, -2.3011622428894043, -1.666870355606079, 0.5143242478370667, 1.578900933265686, 1.1089253425598145, -0.1670832633972168, -3.3727834224700928, 3.1537110805511475, 1.1913962364196777, -2.3102502822875977, -1.4241993427276611, -0.2945705056190491, -3.470238447189331, -0.07851164788007736, 0.3164944052696228, 0.0032707855571061373, -1.5119198560714722, -1.0812346935272217, 1.1474034786224365, -0.07581944018602371, 0.013543548993766308, 1.2034839391708374, -6.631182670593262, -0.045983560383319855, 1.311018705368042, 1.8547656536102295, 1.675931692123413, 0.02540244720876217, 2.5602996349334717, 3.001377582550049, 3.4293227195739746, -4.337782382965088, 0.057924095541238785, 0.1077810674905777, 4.163625717163086, 4.373798370361328, 0.016456764191389084, -1.0142600536346436, -0.16134709119796753, -1.322238802909851, 1.3853106498718262, 1.6852149963378906, 0.39137282967567444, 0.7716192007064819, -6.373681545257568, -0.016318418085575104, -0.9978530406951904, -0.20253506302833557, -3.777379035949707, 2.0325450897216797, 4.85626220703125, -0.49123334884643555, -7.893181324005127, 0.13560692965984344, -1.565719485282898, 3.475717544555664, 1.0967555046081543, 2.6542248725891113, -1.3051644563674927, -2.8938093185424805, -0.2856352925300598, 0.11156705021858215, 1.0071132183074951, 0.11537246406078339, -2.309924364089966, -7.654714584350586, 2.7843995094299316, 0.16679833829402924, 0.04198649525642395, -4.404876708984375, -1.6897996664047241, -0.06259918957948685, 0.44754111766815186, -0.29786524176597595, -5.264770984649658, -0.17444278299808502, -2.0794882774353027, 1.2075387239456177, -0.5162877440452576, -1.6975206136703491, -0.01398043055087328, 2.635336399078369, -1.0686382055282593, 1.7550691366195679, 1.2933036088943481, 3.348898410797119, 0.05360274389386177, -7.9202446937561035, 5.1122822761535645, 7.614291191101074, -3.868440866470337, -1.496714472770691, -0.20059306919574738, 0.014989878050982952, -2.052236795425415, 5.167990684509277, -2.218050718307495, 2.4624104499816895, 0.014924056828022003, 2.245400905609131, -3.929295301437378, -0.040726710110902786, 1.6084281206130981, 2.5093297958374023, -0.22774843871593475, 3.9353840351104736, -1.7540535926818848, -0.0680176243185997, -0.6012387275695801, 0.08004488050937653, -0.7761475443840027, 0.15455548465251923, -2.8456084728240967, -3.1601223945617676, 1.335519552230835, 0.049865420907735825, 0.07050391286611557, -0.7983134984970093, -0.07312828302383423, 0.0013976810732856393, 0.6912199258804321, 0.361930787563324, 3.4058468341827393, -0.08248405903577805, 0.08793151378631592, -2.0704071521759033, 1.0632286071777344, -0.11024154722690582, 0.06252619624137878, 2.3950204849243164, 0.320858359336853, -2.366816997528076, 1.145349383354187, -4.452981948852539, 0.016202185302972794, 0.8911066055297852, 1.6482082605361938, -2.9120395183563232, -1.8425275087356567, -1.1586718559265137, -3.380786180496216, 0.0477609783411026, -1.0150090456008911, 3.460439443588257, 0.5433124899864197, 1.801123023033142, -3.3929429054260254, -1.1993516683578491, -2.5553526878356934, 0.046173546463251114, -2.3266143798828125, 1.9804857969284058, 0.11007723957300186, -5.58083963394165, -0.1261262148618698, -4.785887241363525, -0.7206902503967285, 0.007058945018798113, 0.862465500831604, -0.05736441910266876, -2.031196355819702, -2.9136836528778076, 0.9523892998695374, -0.0029834473971277475, 0.07042775303125381, 0.810691237449646, 1.4838188886642456, -0.0049516321159899235, 0.3857111930847168, -1.5533915758132935, -1.231001377105713, -0.05776798352599144, 2.1577486991882324, -0.3252131938934326, -1.208931565284729, 3.1944386959075928, 0.07276765257120132, -0.5068461894989014, 0.9068312048912048, -3.4541168212890625, -2.3696277141571045, 0.02473858930170536, -0.015683306381106377, 3.6209182739257812, 1.2195297479629517, 4.961373805999756, 1.1636385917663574, 0.29828548431396484, -2.4890031814575195, 0.18418613076210022, -0.489519327878952, 2.608049154281616, -0.5452368855476379, -0.6664808392524719, 0.6616609692573547, 1.1431355476379395, 1.819689154624939, -0.2535783648490906, 0.5284528732299805, -1.702568531036377, -1.837365746498108, -3.3799407482147217, 0.36699169874191284, -1.0559931993484497, -3.6235880851745605, -0.006984166335314512, 2.128950357437134, -0.09075460582971573, 0.7906116247177124, -1.8909515142440796, -0.20301951467990875, -0.00040990294655784965, 0.0641724169254303, 0.8265047669410706, 1.5529652833938599, 0.15240851044654846, -4.044678211212158, -0.0742994099855423, 0.713433563709259, 0.07956785708665848, 0.2589194178581238, -2.9462826251983643, -4.418872356414795, -0.4702456295490265, 0.03295041248202324, 1.5263705253601074, -2.1757073402404785, -1.3524563312530518, -0.9516717195510864, -1.9295815229415894, -0.06905491650104523, -1.96194326877594, -0.028799429535865784, 1.691179633140564, 0.19637209177017212, 3.9344253540039062, 1.902672529220581, 0.023101240396499634, -7.444972515106201, 1.8914891481399536, 0.6142520904541016, 0.9988415241241455, -1.7178606986999512, -1.708533525466919, -4.254095554351807, -0.016193320974707603, -2.2674243450164795, 0.4126433730125427, 0.16352082788944244, -0.6512444019317627, -2.336503505706787, -2.537569999694824, -0.5791687369346619, 0.2104043960571289, 1.0397789478302002, -0.015828721225261688, 0.5996690988540649, -4.161633014678955, -3.7050375938415527, 0.17257897555828094, -0.012552774511277676, -4.051403045654297, -3.3906943798065186, 0.145656555891037, 2.730225086212158, 3.6736950874328613, 1.5222923755645752, 0.06486503779888153, -2.643096446990967, 0.9409366250038147, 4.623586654663086, 1.0479735136032104, 0.025817951187491417, -3.7086734771728516, -5.915681838989258, -3.0657994747161865, 0.31681856513023376, -0.7251414656639099, 0.08755472302436829, -2.34194016456604, 0.959356427192688, -0.10215047001838684, -0.37006044387817383, 2.0046610832214355, -0.024983275681734085, 0.03773215785622597, 2.1468605995178223, -1.7688913345336914, 1.6008604764938354, 1.0283522605895996, 2.109467029571533, -0.4457870125770569, 0.551943838596344, -0.24972985684871674, 2.3080766201019287, -4.102121353149414, -4.233729839324951, -3.925807237625122, 1.1769195795059204, -3.401399612426758, 1.7366409301757812, 0.026644621044397354, -1.097675085067749, -0.05647613853216171, 2.1358728408813477, 0.417316198348999, -5.47977876663208, 0.0025174350012093782, 0.03780212998390198, 3.2122342586517334, -1.6392334699630737, 0.17156796157360077, -2.0524678230285645, 0.7638453841209412, -0.5252841711044312, -0.03161060810089111, -0.8584524989128113, 1.5823695659637451, 0.2239665389060974, 1.660161018371582, 0.12873800098896027, 0.2789077162742615, 2.366544723510742, -4.294843673706055, -6.413566589355469, -2.596053123474121, -0.15656639635562897, -6.048590183258057, -2.7961032390594482, -2.3912618160247803, 0.016000298783183098, 3.944523572921753, -5.458913803100586, 0.049369219690561295, -1.8246654272079468, -3.1163034439086914, -2.152958869934082, -2.139681816101074, -2.6400856971740723, -2.9983651638031006, 1.0954055786132812, -0.04887944087386131, -1.5947295427322388, -3.489588975906372, -0.448483407497406, 0.7358540296554565, 0.8169873952865601, -6.581189155578613, -0.7140891551971436, 0.07388366013765335, 0.24601024389266968, 0.009404642507433891, -2.3595173358917236, -4.136673927307129, -2.4020371437072754, -0.15603423118591309, 0.026851605623960495, 0.14983327686786652, -2.165623188018799, 0.0017588507616892457, 5.379138469696045, -2.171943187713623, 3.3546814918518066, -0.0035602939315140247, -2.1805686950683594, -0.9369985461235046, -1.384238600730896, 2.107686758041382, -0.11980642378330231, -0.7941586971282959, -2.288327693939209, -2.639699697494507, -3.827863931655884, -1.5736130475997925, 0.01156696304678917, -2.637134313583374, -1.9205600023269653, -0.4673812985420227, -4.0013747215271, 3.9803617000579834, -1.2897510528564453, 0.05017898604273796, 1.4634101390838623, -4.20413875579834, -0.8720403909683228, -0.5101224780082703, 4.425778388977051, -0.28664064407348633, 2.690347671508789, 0.039457082748413086, -2.3749608993530273, 0.06500239670276642, -0.7274969816207886, 3.3785030841827393, 0.9970796704292297, -4.825411796569824, -3.6974434852600098, 0.06625400483608246, -2.943476676940918, -0.09488014876842499, -2.964017391204834, -1.175384521484375, -2.644484281539917, 0.005086353048682213, 0.030851997435092926, -0.2033453732728958, -2.106551170349121, 0.04147547855973244, -0.4564892053604126, 0.6263650059700012, -1.7076208591461182, 0.12259432673454285, 0.02985219471156597, -1.2601176500320435, 4.854852676391602, -0.9626950621604919, 0.026677394285798073, 3.4451112747192383, -5.135733604431152, 1.46898353099823, -1.1258245706558228, -0.035644397139549255, -0.08055856823921204, 0.7836956977844238, -1.5874463319778442, 1.498659610748291, -0.3514574468135834, -5.564907073974609, 0.25638121366500854, -0.05444833263754845, 0.46816253662109375, -0.04877099767327309, -2.773223876953125, -2.981959819793701, -0.3650619387626648, 3.741844654083252, 3.6691620349884033, 0.17314180731773376, 0.46734553575515747, -1.4818947315216064, -0.7687943577766418, -0.3099800646305084, -1.1061559915542603, 1.841342806816101, -0.51308673620224, 0.11117593944072723, -1.9032973051071167, -0.052587948739528656, 1.7221035957336426, -3.2066144943237305, 1.140317678451538, -0.016684792935848236, -0.11040963977575302, 2.540503978729248, 0.8760330677032471, -0.11488322168588638, -0.6383391618728638, -2.787479877471924, -1.3998546600341797, -0.024139022454619408, -6.005782604217529, -1.1555771827697754, 1.2887563705444336, 0.8550767302513123, -0.028210079297423363, -3.4353668689727783, 2.0190389156341553, -1.4622151851654053, -0.20577551424503326, -1.7982045412063599, -0.029717961326241493, -3.6961755752563477, -0.20001403987407684, 1.3303611278533936, -0.5640997886657715, -1.4844192266464233, 1.9021462202072144, 0.00788738951086998, -2.020017147064209, 5.250016212463379, 1.1191987991333008, -0.7345863580703735, -1.8168014287948608, 0.772913932800293, -0.5138759016990662, -0.03433508425951004, -1.3231313228607178, 3.408263921737671, -1.795583963394165, 2.342627763748169, 1.6017624139785767, 0.8373526334762573, 1.923445701599121, -0.08918115496635437, -0.3290373980998993, -0.06912979483604431, -0.3626692593097687, 3.8826889991760254, -0.5412006378173828, -0.012629804201424122, -0.029422758147120476, -3.0202481746673584, 3.187124490737915, 0.048714522272348404, 1.0073859691619873, -0.713426411151886, 0.6975365281105042, 0.039422955363988876, -4.65411376953125, 0.8078176379203796, 6.099748611450195, -3.6828930377960205, -0.005846760701388121, -3.9553616046905518, -2.087354898452759, 0.7599574327468872, 1.4381266832351685, -1.8116220235824585, 0.009519614279270172, -3.799548625946045, 1.8976205587387085, 5.423677444458008, -0.0715809166431427, 7.556834697723389, -1.6007779836654663, -0.016082989051938057, 0.1437796801328659, -3.021372079849243, 5.237395286560059, 0.7394909262657166, -1.555596947669983, 1.0055599212646484, 4.272034645080566, 0.024473028257489204, -3.6346864700317383, -2.122690439224243, 0.010280527174472809, 0.403694748878479, -2.804469585418701, 0.7121633291244507, -3.037203311920166, 0.043203629553318024, 2.1787524223327637, 0.012048037722706795, -2.1713740825653076, -3.8570749759674072, -0.4147501289844513, -0.025226203724741936, -0.016469430178403854, -0.0007183952257037163, -1.5052498579025269, -0.019726281985640526, 2.7800259590148926, 0.12768258154392242, 1.3429850339889526, 0.01091695111244917, -3.4746592044830322, 1.5762081146240234, -2.205673933029175, -0.38119691610336304, -0.11166020482778549, -2.224052906036377, -1.3053348064422607, 0.48549801111221313, -0.6182839870452881, -2.792280673980713, 0.07942469418048859, -0.4850958287715912, 3.518766164779663, 1.4909076690673828, 0.7500061988830566, -0.6193413734436035, 0.12115488946437836, -0.13705137372016907, 5.441915512084961, -3.2771339416503906, -2.579432964324951, -0.14634990692138672, 2.433363914489746, 0.5914233922958374, -0.20828673243522644, -0.025938939303159714, -1.912070870399475, 3.037795305252075, 2.4958131313323975, -0.6173275709152222, 0.7068870067596436, 2.806034803390503, -0.4372347891330719, 0.04848215728998184, -1.6173245906829834, 0.040638722479343414, -5.23158073425293, -2.2497661113739014, -1.3024282455444336, -0.006688249763101339, 0.033011846244335175, -1.3684602975845337, 1.9278751611709595, 0.023758936673402786, -0.005182530265301466, -0.35424211621284485, 0.8378536105155945, -0.10683898627758026, -1.4042357206344604, -3.233823537826538, -3.370009183883667, 0.8479411005973816, -0.034027889370918274, -0.26915276050567627, -1.687596321105957, 0.46015655994415283, -2.0051326751708984, 0.840918242931366, 0.12552723288536072, 0.9062405228614807, -2.064756155014038, 0.2543269991874695, -0.7643218636512756, -1.4504164457321167, 2.58671498298645, -0.011947094462811947, -0.30223435163497925, -7.7638468742370605, -1.9934003353118896, -6.233824253082275, 1.434969425201416, -1.717753529548645, 0.26902803778648376, 0.022956905886530876, -3.4036166667938232, -3.2320525646209717, -0.23234105110168457, 3.804715633392334, -2.3689610958099365, -2.037393093109131, -2.2246811389923096, 0.08021610975265503, 1.4206054210662842, -0.051668889820575714, 2.3506650924682617, -5.072933197021484, -2.862196922302246, 0.21226735413074493, 0.1266704648733139, -1.6148905754089355, -0.7660677433013916, -0.15937648713588715, 0.6906331777572632, 0.223425030708313, -0.7757337093353271, -0.07158121466636658, 0.0016393387923017144, -1.7812108993530273, 2.212312936782837, -0.9483844637870789, -0.060456302016973495, -1.3328803777694702, 0.8549721240997314, -1.9737147092819214, -0.2474922090768814, 0.6814396977424622, 0.08953075855970383, -2.8939290046691895, 0.2702420651912689, -0.9275428652763367, -1.1535969972610474, -1.0538753271102905, 4.103021144866943, -0.014961627312004566, 1.2668830156326294, 1.4583525657653809, -3.4790451526641846, -0.6650752425193787, 0.4012339115142822, -0.8493680953979492, 2.4820101261138916, -0.0865507572889328, -3.764719009399414, -0.6708335280418396, 1.4857144355773926, 0.7912681102752686, -0.26213374733924866, 1.4185826778411865, 0.5893043279647827, -0.07704637944698334, -2.3191542625427246, -0.05997541546821594, 2.3931612968444824, 5.717389106750488, -6.9761433601379395, -0.014133909717202187, 0.000677397707477212, 0.511113166809082, -2.0228114128112793, 0.06096253544092178, -1.0792415142059326, -1.2526415586471558, 3.1211767196655273, 0.10652850568294525, 0.9244897365570068, 0.710166871547699, -0.5003582239151001, -4.872668266296387, 0.023388657718896866, -2.59031343460083, -1.8492077589035034, 2.208699941635132, 1.2669802904129028, 3.264094114303589, -0.05762733891606331, -0.943159818649292, 2.088541030883789, 0.546672523021698, -1.0426191091537476, 2.37408447265625, -0.5753484964370728, -0.05617263540625572, 1.148937702178955, -0.07536408305168152, 0.9135814905166626, 2.5377731323242188, 0.8603966236114502, -4.44229793548584, 1.3177268505096436, -0.029942132532596588, -1.0590516328811646, -0.5738393664360046, 2.2924652099609375, 2.5855233669281006, 1.3380849361419678, 1.3102048635482788, 3.4570791721343994, 0.036936383694410324, 1.2359193563461304, -0.0071409777738153934, 1.2799311876296997, 1.7650469541549683, 0.133905291557312, -0.0038811087142676115, -0.025711864233016968, -2.437230348587036, -0.21716250479221344, 0.050711650401353836, -2.3436691761016846, 2.717026472091675, -3.4511313438415527, -0.01968366652727127, -0.406128466129303, 3.525907516479492, 3.5144400596618652, 0.46896934509277344, -0.018785743042826653, 1.5811599493026733, 2.836073398590088, -0.35998278856277466, -0.2726489007472992, -2.535888910293579, 9.66793522820808e-05, 0.9206380248069763, 0.022786373272538185, 0.37503916025161743, 0.15117770433425903, 2.4993629455566406, -1.6655542850494385, -0.1255873739719391, 0.46449899673461914, -4.435065269470215, -0.6224012970924377, 2.3011281490325928, -7.222600936889648, 1.0521409511566162, -4.246223449707031, 0.03559981659054756, -1.4408044815063477, -0.690735936164856, 1.067382574081421, -3.733639717102051, -0.19494055211544037, -5.357250213623047, -0.6171630620956421, 0.0010548875434324145, -1.7711039781570435, 0.0729077085852623, -3.921876907348633, 0.7339410781860352, -0.7707141637802124, 0.05916093289852142, -0.016339091584086418, -2.342273473739624, -2.3659188747406006, -0.03552085533738136, 1.075230360031128, 0.6185327768325806, 2.5738656520843506, -0.1424969732761383, -1.6548391580581665, 0.7623615860939026, 2.3150830268859863, -1.05797278881073, 0.014276164583861828, -1.9164397716522217, -1.8125745058059692, -3.6842503547668457, 1.8260829448699951, 3.530900239944458, 0.09130512177944183, 0.3889448642730713, 0.18920636177062988, -3.2713704109191895, -0.34749966859817505, 0.477413147687912, 3.9659407138824463, -0.08053510636091232, -4.154582500457764, -4.429750919342041, -1.8741158246994019, 2.7622241973876953, -0.3056551218032837, -3.6502602100372314, -2.0167644023895264, 0.18255290389060974, -7.253012180328369, -0.4108276963233948, 0.5267130732536316, 0.8102984428405762, -1.5607036352157593, 2.7348451614379883, 1.9039243459701538, 0.22109390795230865, -4.652963638305664, 0.08687321096658707, -4.047531604766846, -0.7673927545547485, -2.553273916244507, 0.38558730483055115, -0.06030026823282242, -4.201481342315674, -2.2815439701080322, -0.4012131989002228, 12.11469841003418, 5.8350419998168945, 3.7173759937286377, -0.26140525937080383, -0.503648579120636, 1.273292899131775, 6.78497314453125, 6.003406047821045, -0.08040264993906021, -0.9995468854904175, -0.46561887860298157, -2.1688737869262695, -1.2314823865890503, -0.36352089047431946, 0.10971466451883316, 2.9524030685424805, 2.2274510860443115, 2.188394546508789, 3.5869410037994385, -1.8195005655288696, 1.4939864873886108, -0.059861041605472565, -0.8375229239463806, 2.6778738498687744, 0.12970449030399323, 0.7538368701934814, 0.8396380543708801, -1.1063023805618286, 1.3992831707000732, -0.04278996214270592, -6.114356517791748, 1.166393518447876, -2.2869412899017334, 1.7946547269821167, 0.8364719152450562, 2.7242374420166016, 0.9179440140724182, 0.09626730531454086, -0.30944064259529114, 0.08266418427228928, -0.9268833994865417, 1.200596809387207, 1.0537441968917847, 0.03609861806035042, -0.08037929236888885, -1.5304967164993286, 0.3501839339733124, -0.0690842792391777, 0.7833022475242615, 3.32114577293396, 1.3270496129989624, -0.06850596517324448, 1.6381251811981201, 1.7784680128097534, 0.687615156173706, -2.230225086212158, -0.2226063311100006, -0.2843470275402069, 2.2887802124023438, 3.1146533489227295, 1.7090164422988892, 1.038385033607483, -0.061201807111501694, 1.250611662864685, 0.16607119143009186, 0.402057021856308, 2.2388205528259277, 1.035240650177002, -4.470280647277832, 0.08539148420095444, -2.064072370529175, 4.037328720092773, 3.4896388053894043, 1.0155754089355469, -3.5842394828796387, -3.5704994201660156, -2.0274159908294678, 0.06243157759308815, 0.728569746017456, 1.501033067703247, -8.343503952026367, 0.40430232882499695, 4.565919876098633, 4.416592121124268, 2.8166821002960205, -0.024559222161769867, 0.8887290358543396, -0.07839934527873993, 1.6505674123764038, -1.8982036113739014, 0.39114776253700256, -0.08301213383674622, 0.11841631680727005, -0.7401044368743896, 4.113032341003418, 0.14703966677188873, -2.196249485015869, 1.1162430047988892, 0.7879767417907715, 0.1360398828983307, -2.3740551471710205, 3.7594192028045654, -0.010626325383782387, -0.9570403695106506, 0.11135127395391464, -1.3234848976135254, 5.881015300750732, 0.7645110487937927, -0.6727048754692078, 0.3967626988887787, 0.08397544920444489, 1.0707358121871948, 4.4813995361328125, 1.9728460311889648, 5.503872871398926, -3.1560099124908447, -2.6342427730560303, 0.050150319933891296, -1.1706771850585938, -1.2592164278030396, 0.13850432634353638, 2.2058985233306885, -1.2768014669418335, 0.8420214653015137, -0.5168404579162598, -0.023111097514629364, -3.0526702404022217, 2.314229965209961, 2.087747573852539, -0.16200996935367584, -2.571531295776367, 0.6840524673461914, 0.046079158782958984, 0.01407654955983162, -0.10204732418060303, 0.031491246074438095, 3.905435085296631, 7.216731071472168, 2.1896729469299316, 0.09447161108255386, -0.025388214737176895, 2.1756534576416016, 1.2685242891311646, -0.12459626793861389, -1.5715508460998535, -0.8791409730911255, -3.2890050411224365, -0.032000213861465454, 1.7926175594329834, 3.679596185684204, 2.3634707927703857, 2.823749542236328, -0.11432894319295883, -4.782474040985107, 3.0740420818328857, 2.0868663787841797, -1.7359980344772339, 3.500792980194092, 0.017301984131336212, 1.584248423576355, -1.7287169694900513, -3.772063732147217, -0.4727245569229126, -0.35068437457084656, -5.006885528564453, 0.03656761720776558, 4.040040969848633, 0.48514145612716675, 1.542464017868042, -2.9515557289123535, 0.8381050825119019, -1.210845947265625, -0.9189062118530273, -0.07820120453834534, -2.5423643589019775, -2.853428602218628, 1.9455560445785522, -0.3183971047401428, -2.846252679824829, -1.652099609375, -2.181774616241455, -0.08733497560024261, -3.084970474243164, -0.07585690915584564, -0.7229748964309692, -0.5352608561515808, 3.3794007301330566, -0.09199666231870651, -0.13733606040477753, 1.096362829208374, 1.210871934890747, 0.04197084531188011, 3.129197359085083, -5.832810401916504, -1.8717628717422485, 0.24967032670974731, -0.32541128993034363, -3.40225887298584, -1.5931336879730225, -1.4682950973510742, 0.11490170657634735, 0.28511643409729004, 2.128530263900757, 2.5716094970703125, 0.06693609058856964, 0.2887052595615387, -0.14306685328483582, -1.5438555479049683, -3.623239755630493, -5.570518493652344, -2.6194586753845215, 0.7561684250831604, -3.5362939834594727, 0.07317687571048737, -0.038767922669649124, -2.4598960876464844, 1.270418643951416, 2.844308853149414, -2.3767147064208984, -1.2532538175582886, -0.5564079880714417, -0.0401441715657711, -4.846371173858643, -1.1096878051757812, 0.12645064294338226, -4.7222161293029785, -2.4024832248687744, -1.2867385149002075, -1.6682888269424438, -0.11995373666286469, -1.046043038368225, -0.12583239376544952, -4.195250988006592, -0.6293441653251648, 0.3519534170627594, -0.09341460466384888, -0.20178912580013275, 2.4496519565582275, -0.863690972328186, -0.05877065286040306, 2.1003589630126953, -0.9525370001792908, -4.122258186340332, 0.00112476060166955, -1.6945464611053467, -1.351010799407959, 0.7454919815063477, 0.8667399883270264, 0.08772902190685272, 2.378201484680176, 1.4769389629364014, -0.6769806742668152, -1.1179448366165161, 0.8307111263275146, 0.040670398622751236, 2.912975788116455, -0.3818303346633911, -1.315752387046814, 0.40627187490463257, -0.1434442400932312, -4.495846748352051, 0.1315380185842514, -1.9858189821243286, 3.9298267364501953, 1.7869290113449097, -1.0572776794433594, -0.07325436174869537, 2.4518516063690186, -4.645783424377441, -0.09685658663511276, -0.11265958845615387, 0.7400573492050171, -2.5445847511291504, -5.701644420623779, -0.6603233814239502, -4.896120071411133, 1.0480732917785645, -0.043184541165828705, -1.5610088109970093, -0.07974907755851746, -1.6723688840866089, 0.5477021336555481, 3.0522141456604004, 0.1070432960987091, 0.1234913244843483, -1.6205196380615234, -2.8515055179595947, -0.2045803964138031, -1.9044057130813599, 1.0719133615493774, -2.936574697494507, -0.02088719792664051, 2.2020606994628906, -2.36940336227417, -2.7145259380340576, 1.9197735786437988, -0.09926147758960724, 2.2511110305786133, 0.9310354590415955, -0.9392191767692566, -0.5171313285827637, 3.913607358932495, -0.08861273527145386, 0.8598599433898926, -1.9528656005859375, -3.5765552520751953, 2.7129218578338623, -1.6498312950134277, 0.26780566573143005, -0.10038372874259949, -3.102501630783081, 2.6655924320220947, -0.867089569568634, -0.7349236607551575, -2.409203290939331, 1.5170985460281372, -1.202348232269287, 0.04411665350198746, -1.8079280853271484, 0.20366890728473663, -2.158590078353882, -0.6546043753623962, -2.2610397338867188, 1.768256664276123, 0.696144163608551, 0.0634884163737297, -1.7855321168899536, 0.08542032539844513, 0.25821149349212646, -1.3037364482879639, 0.0517449826002121, 0.04362441971898079, -0.14119885861873627, -0.6984649896621704, -1.0057432651519775, -0.19051189720630646, -0.04776232689619064, 0.6937132477760315, 0.19130487740039825, -0.15995827317237854, -1.137228012084961, -2.336477756500244, -0.007695344276726246, -2.2439749240875244, -0.1639331430196762, -0.502551257610321, -0.6532189846038818, 2.5872080326080322, -1.1126749515533447, -0.5831359624862671, 0.12579353153705597, -0.4290068447589874, 1.5017668008804321, 1.2434252500534058, 0.8017849922180176, -1.8414256572723389, 5.499143600463867, -0.03280192241072655, 5.575216293334961, -0.2768070101737976, -1.2833561897277832, 2.109367609024048, 0.9283055663108826, 0.05876757577061653, -4.505496501922607, 0.11928456276655197, 2.626491069793701, -2.477959394454956, -1.2220717668533325, -1.409654974937439, -6.069721698760986, -3.042039394378662, 1.332291603088379, 0.014245637692511082, -1.7279047966003418, 0.008972525596618652, -3.930665969848633, -6.825937271118164, 0.40046483278274536, -0.07060439139604568, -0.023358022794127464, 0.22281624376773834, -2.689875841140747, -0.08522435277700424, -1.8283381462097168, 1.8112941980361938, 2.4843664169311523, 0.0026934018824249506, 5.256567001342773, -1.6032607555389404, 1.1454638242721558, -0.5730969309806824, -0.07038164883852005, -2.5979878902435303, 0.21890947222709656, -0.9961233139038086, -0.3046428859233856, 0.2621656060218811, 0.07707881182432175, -1.326127052307129, 0.5382893681526184, -3.239577293395996, 1.3943507671356201, -1.737083911895752, -4.1542181968688965, -0.060024555772542953, -0.13101822137832642, -4.988529682159424, 0.8119227886199951, 2.2359097003936768, -5.838198661804199, 2.329780101776123, -0.41891542077064514, -0.048552703112363815, 0.6102851033210754, 0.8528110980987549, 0.7158350348472595, -2.985541820526123, 1.8272874355316162, -1.1775169372558594, -0.6948444247245789, 0.10387162119150162, -2.20790433883667, 0.031254980713129044, 3.119314193725586, -2.416003465652466, 3.3567442893981934, -0.02769361063838005, 0.029564660042524338, -0.724499523639679, -3.1913185119628906, 0.0413811020553112, 0.22866782546043396, -1.1109809875488281, 3.9212393760681152, -0.0013960719807073474, -2.8517065048217773, -1.6722396612167358, -1.746063470840454, -0.9484283328056335, -0.06313862651586533, -2.6594231128692627, -0.16907857358455658, -2.5126471519470215, -1.8889596462249756, -2.7713236808776855, 0.03434135392308235, 1.4616773128509521, 0.202555850148201, -7.243392467498779, -2.471914291381836, 1.771010398864746, -0.17599378526210785, 0.056250642985105515, -3.465153217315674, -0.70870441198349, 0.44196265935897827, 1.198744535446167, 0.08646123111248016, 0.22513097524642944, -6.45468807220459, -0.13276250660419464, -0.3989315629005432, -2.075300455093384, -3.2169911861419678, 2.8347678184509277, 0.6386404037475586, -0.7474913001060486, 1.5738310813903809, 0.07887376099824905, 2.222358226776123, 0.017924513667821884, 0.1602131724357605, -2.194890022277832, 0.7668601274490356, -0.06428216397762299, 0.032288771122694016, -0.9857347011566162, -0.9670850038528442, 0.0034764453303068876, 1.4559297561645508, -0.3001829981803894, -0.4808747470378876, 0.07818610966205597, -0.2716129422187805, -2.686129331588745, 0.281646192073822, 3.2696046829223633, 0.028332287445664406, 1.2689480781555176, -2.5275142192840576, -5.192347049713135, -0.980444073677063, 2.9492621421813965, -0.07997644692659378, -2.481574058532715, 0.26905035972595215, -1.5101295709609985, 2.457359790802002, 1.5813697576522827, 2.8750364780426025, -0.10244183987379074, -0.641684889793396, 3.3243765830993652, -1.873681664466858, -0.5874040126800537, 2.491093635559082, -3.0427277088165283, 0.1251436024904251, -0.009826971217989922, -0.39858707785606384, 0.07423149794340134, -3.2743406295776367, -0.3264681100845337, -0.9372366666793823, -1.407199740409851, -2.4459950923919678, -0.059276580810546875, -0.18326354026794434, -0.10532223433256149, -2.613034725189209, -0.999758243560791, 0.11727103590965271, 0.09871623665094376, 0.06521927565336227, -2.679309368133545, -0.9731854200363159, 0.08792657405138016, -0.01738548092544079, -1.5810136795043945, -0.4922834038734436, 0.05726756155490875, 2.64711332321167, 0.22930766642093658, -0.7328341007232666, -2.192365884780884, 0.04204844683408737, -2.337979316711426, -2.6004228591918945, 0.30306005477905273, 0.019844235852360725, -2.1234052181243896, -0.1115875318646431, -1.857835054397583, -0.7314972281455994, 0.44088566303253174, 1.0048160552978516, 1.5120675563812256, 5.487234592437744, -0.023972107097506523, 6.882889270782471, -0.18345922231674194, 3.751725196838379, 0.6876795887947083, -2.315840005874634, -1.2786444425582886, 0.6722795963287354, -0.005759915336966515, 3.4300782680511475, 0.7309818267822266, -3.253833293914795, 2.4658427238464355, -0.8580734133720398, 2.6386971473693848, -1.2368615865707397, -0.0685666874051094, -0.8126184344291687, -0.0037232174072414637, 3.289212465286255, 0.4915899932384491, 3.2333598136901855, 0.19627544283866882, -0.09703989326953888, 1.4027684926986694, 4.658597946166992, 0.13285253942012787, -1.8254704475402832, 3.2068746089935303, -4.071689128875732, 0.15351592004299164, 0.9048370122909546, 0.9339847564697266, -0.6822934746742249, -3.140491247177124, 0.09175657480955124, 2.9732794761657715, 0.9912777543067932, -1.005157470703125, 0.9269545078277588, -2.212806224822998, -0.05850809067487717, -1.8808796405792236, 1.8521209955215454, -1.1441171169281006, 3.6233718395233154, 0.04492683336138725, -0.36653387546539307, -0.0573645643889904, 0.25903868675231934, -6.3643903732299805, 1.3398520946502686, 0.4842758774757385, -1.1887668371200562, 2.6958699226379395, 1.570647120475769, -0.03560730814933777, -1.0639797449111938, 2.9324378967285156, 3.0237855911254883, -1.2898186445236206, 3.3674871921539307, -0.009349765256047249, 2.0709221363067627, -0.07754774391651154, 2.2450218200683594, -0.07838696986436844, 2.998314142227173, -2.7564339637756348, 0.8996345400810242, 0.0027980757877230644, 0.07103455811738968, -1.8050072193145752, 7.236713886260986, 0.08842355757951736, -0.4063045382499695, -1.087727665901184, 2.0802693367004395, -0.0046732607297599316, 0.7173641920089722, 1.980956792831421, -1.636661410331726, 3.377561092376709, 0.0009561541955918074, 3.1514298915863037, 0.4698375165462494, -2.503411293029785, 1.0556615591049194, 1.8108271360397339, 0.00038494219188578427, -1.926103115081787, -0.6796613931655884, 2.6706318855285645, -2.2137715816497803, 3.2430994510650635, 0.20342764258384705, 0.038189761340618134, -4.5437822341918945, 3.149244546890259, -6.478302478790283, -6.193020820617676, -0.6975545287132263, 2.0226807594299316, -1.293086290359497, -0.03655767813324928, -2.657586097717285, -0.4280893802642822, -1.8333899974822998, 2.1848666667938232, 5.376213550567627, 3.323610782623291, 2.608745813369751, -0.0842343270778656, -3.0680761337280273, -0.039641689509153366, -0.01137856300920248, -1.0116453170776367, -2.1069493293762207, -0.04458615928888321, 0.07542255520820618, 2.582742929458618, -0.773543655872345, 0.0512709878385067, 1.6890077590942383, 1.2417491674423218, -3.628190517425537, 0.14829885959625244, -1.6316920518875122, 0.002106199972331524, -0.35876917839050293, 1.191576600074768, 0.060838546603918076, -3.369884729385376, -3.1937973499298096, 0.8396298289299011, -0.9511240124702454, -5.979673385620117, -0.08478623628616333, -1.2159844636917114, 0.6857985854148865, 5.349701881408691, -0.19481302797794342, 5.554455757141113, 0.05695964768528938, 0.03091972880065441, 4.589179992675781, 0.006833105348050594, -1.4814717769622803, -1.9050887823104858, 1.7539128065109253, -1.4072023630142212, -4.578598499298096, -0.0230710506439209, -0.16339892148971558, -1.583115577697754, -0.8231673836708069, -2.3243532180786133, -2.049213409423828, -0.6800118088722229, 1.031022548675537, 3.964419738622382e-05, -6.076612949371338, 0.03544607385993004, -0.23059171438217163, -5.893184185028076, -3.813797950744629, 0.045440204441547394, 0.06820698082447052, -0.2956041097640991, 0.5164443850517273, 0.15030714869499207, -2.5063977241516113, -0.3758910298347473, 0.3158109486103058, 0.16653387248516083, -0.03978048264980316, 2.516188383102417, -4.129268169403076, 2.4810597896575928, 0.005161861889064312, -3.091813087463379, -5.69573974609375, -0.10556825250387192, -1.2226920127868652, 3.383058786392212, 0.022152546793222427, 1.1299337148666382, -0.30519068241119385, -3.0642547607421875, -0.019499320536851883, -4.566689491271973, -2.2753283977508545, 0.053908850997686386, -1.491125464439392, -1.7014907598495483, -4.7881951332092285, -8.700313568115234, 3.34895658493042, 2.163900136947632, 0.6019274592399597, -0.060796961188316345, -2.489640235900879, -2.5836122035980225, 0.07549046725034714, 1.4179930686950684, -1.2586833238601685, -2.370434045791626, 0.9450784921646118, 0.008335963822901249, -4.016055583953857, -0.01146360021084547, 0.4599427878856659, -0.20069611072540283, 2.086515426635742, -0.12627525627613068, 0.04452218487858772, 0.02023700624704361, -0.8131412267684937, 0.11062547564506531, 0.7335935831069946, 0.8750991821289062, -0.36400216817855835, 0.13193660974502563, 0.2841026186943054, -1.7762290239334106, -0.8581647276878357, -5.407843589782715, 0.008305991999804974, 1.1789225339889526, -0.11213915795087814, 1.7289776802062988, -0.45162200927734375, -1.9595820903778076, -0.06042566895484924, 2.8502347469329834, -0.8408821821212769, -1.3577356338500977, -2.518073558807373, 1.5576521158218384, -1.7696062326431274, 0.2489655762910843, -1.4964901208877563, -3.3568508625030518, -1.7348988056182861, -13.15639591217041, 0.26583823561668396, 3.593841552734375, 4.895113468170166, -0.013562017120420933, -2.6753013134002686, 1.5265883207321167, -2.737260580062866, 1.0117969512939453, 4.536020755767822, 0.8822835087776184, 1.2420116662979126, -0.09312719851732254, -2.9106216430664062, -0.16051293909549713, -2.4179470539093018, -0.27034491300582886, 3.8768436908721924, 0.04469592496752739, 0.03804254159331322, 1.3605003356933594, -1.888772964477539, 0.7616745829582214, -2.308602809906006, -4.7502546310424805, 3.166231870651245, 0.6173087358474731, -3.5741076469421387, 2.9346423149108887, -2.892559289932251, 2.2514305114746094, 0.10798916965723038, -2.121309995651245, 1.6822525262832642, -0.5508823394775391, 2.5401978492736816, 0.7404192686080933, -0.03630480170249939, 1.1502435207366943, 2.025402069091797, -1.8217637538909912, 3.5387158393859863, -2.4467720985412598, -0.1688934713602066, -0.03930932283401489, 2.2365775108337402, -5.412291526794434, 0.2061159908771515, 1.972675085067749, -3.508246898651123, 0.4438096582889557, -3.598217248916626, 0.019042562693357468, 0.6585593223571777, -0.8459836840629578, 1.9823449850082397, -1.3609586954116821, -1.1869124174118042, -3.8203835487365723, -3.2746105194091797, 0.1345374882221222, 3.267864942550659, 0.11389818042516708, 0.08373578637838364, -2.456562042236328, 1.177715539932251, -0.01213888917118311, -0.024128317832946777, -3.8360044956207275, -1.1137841939926147, -0.009861929342150688, 2.481060028076172, -2.9089834690093994, 0.2075209617614746, -0.07892970740795135, 0.26568055152893066, 1.3426644802093506, 4.942741870880127, -2.330254077911377, -0.035017259418964386, 1.290769100189209, -2.1582534313201904, -5.049436569213867, -1.8534303903579712, 0.13692566752433777, 0.04799079895019531, -0.3162974715232849, -3.14380145072937, -5.126916408538818, 0.41841959953308105, 1.528886318206787, -4.926477909088135, -0.033352725207805634, -0.30629515647888184, -2.6917483806610107, 0.7698079347610474, 1.7436326742172241, -1.568280577659607, 0.18343426287174225, 2.5832138061523438, -0.3544773459434509, -1.3670272827148438, 0.3441862463951111, -3.6400556564331055, -5.942484378814697, 0.4082190692424774, -3.2765605449676514, 0.5023698210716248, -0.12696295976638794, 1.1795330047607422, -0.06780923902988434, -2.811194658279419, -4.348115921020508, 3.6059534549713135, -0.07940837740898132, -0.04533788561820984, 0.6341065764427185, 0.08739927411079407, -0.0345195010304451, 0.5466690063476562, -4.738377571105957, -0.6084089279174805, 0.0755460187792778, 0.5281309485435486, 3.1928679943084717, -0.01461181789636612, 4.444809913635254, -0.02665827050805092, -0.7470762729644775, -0.49808624386787415, -1.8138370513916016, -4.193615913391113, 2.2637085914611816, -0.16898152232170105, 0.684670090675354, -2.035600423812866, -1.3451616764068604, -2.161292791366577, -1.0890834331512451, -0.3730562925338745, 0.11699216812849045, 3.49930739402771, 1.5731631517410278, -6.137904644012451, -0.6429568529129028, -1.4903407096862793, 0.621253252029419, 3.472107172012329, -0.16321894526481628, -0.10797061026096344, 1.8814897537231445, -1.4676399230957031, 3.2652571201324463, 0.9144205451011658, 2.620709180831909, 1.0518286228179932, -0.03657444939017296, -3.543356418609619, -0.08811111003160477, -2.5864827632904053, -3.5078928470611572, 1.4506574869155884, -0.017231730744242668, 0.016380561515688896, -0.03489672392606735, 3.950320243835449, 0.296543687582016, 1.2503557205200195, 0.4135412871837616, -0.029793035238981247, 0.2820304334163666, -1.0212105512619019, -3.7655701637268066, 2.079935073852539, 0.3725619912147522, 0.13940398395061493, -3.882107734680176, -3.5253422260284424, 2.311035394668579, 2.2517666816711426, 3.0994374752044678, -0.10695309191942215, -5.354928493499756, 4.8189616203308105, -0.1340324580669403, 4.777769565582275, 5.269148349761963, -3.751499891281128, -0.09250234812498093, -1.7078406810760498, -0.839607834815979, -1.5727802515029907, 0.030476953834295273, -1.553954005241394, -1.2205506563186646, 0.36974725127220154, 0.10920572280883789, -0.9799854159355164, -1.4858745336532593, -0.3911706805229187, -0.38471782207489014, -1.7526277303695679, -3.7098727226257324, -2.562082290649414, 0.013713094405829906, 0.8855495452880859, -0.010501585900783539, -0.35098108649253845, 0.3768508732318878, -1.741569995880127, -0.09382196515798569, 0.056348297744989395, -0.5033160448074341, -3.589576482772827, -0.2885909676551819, 2.238701581954956, 0.8181530237197876, -0.8479101061820984, -0.2847635746002197, 1.1397103071212769, 0.958579957485199, -2.074859857559204, 2.1477842330932617, -0.3407897651195526, 0.48516061902046204, -0.49319541454315186, -3.4707369804382324, -2.2819602489471436, -3.4876925945281982, 0.1600482165813446, -1.491480827331543, 0.31437230110168457, -0.28512462973594666, -1.5950415134429932, 0.38885000348091125, 1.982990026473999, -0.005086923949420452, -0.7686673402786255, -1.9291590452194214, 1.169876217842102, 4.223340034484863, 4.82700252532959, -4.979133129119873, 0.165230855345726, -0.08678963780403137, 1.7764180898666382, -6.299910068511963, 0.7139451503753662, -2.1288490295410156, -0.047445010393857956, -4.192180156707764, 0.5515989661216736, -0.03793516010046005, 0.6952862739562988, 0.03422367200255394, 2.5872960090637207, -1.8891605138778687, 1.7324742078781128, 0.010370871052145958, 0.010791132226586342, -0.45893916487693787, -3.699571132659912, 0.1022176668047905, -4.011618137359619, -2.7652747631073, 0.4460985064506531, 0.008593961596488953, 2.959568977355957, -0.9878761768341064, 0.05737447366118431, -2.6076676845550537, 0.06804262846708298, -1.8145136833190918, 0.6986803412437439, -0.2418610006570816, -1.5009368658065796, 2.6131582260131836, -0.058907486498355865, -0.38461512327194214, 0.22206845879554749, 2.7961111068725586, -5.972908020019531, 0.5804316997528076, 0.8866280913352966, 0.05497775599360466, 1.7364511489868164, -1.6304693222045898, -0.5769206881523132, -0.527350127696991, 0.8716955780982971, -0.12714721262454987, -2.0421969890594482, -0.008633676916360855, 0.27602800726890564, -0.14959567785263062, -0.8713637590408325, 0.79398512840271, -0.898479700088501, 0.260768860578537, -0.27599918842315674, -0.016216879710555077, -2.0627849102020264, -0.0008223015465773642, -0.7671339511871338, -1.2716920375823975, -2.2548305988311768, -0.0957823395729065, -0.042696986347436905, -0.49296703934669495, -0.6032024025917053, -0.0033637566957622766, -0.04698508605360985, -0.0636393278837204, 1.4475581645965576, 0.03608183190226555, -0.9101433753967285, 0.9063475131988525, -1.5171847343444824, 0.032736483961343765, -0.05870962142944336, -0.15542030334472656, -2.5174720287323, 0.5737184882164001, 0.39179953932762146, 0.7518129944801331, 0.0024899281561374664, -0.13183309137821198, 0.0371212437748909, 0.3010757863521576, 0.5579109787940979, 1.0656898021697998, 0.375728577375412, -0.05604683235287666, -2.0747153759002686, 4.185387134552002, -2.6615512371063232, 4.875410556793213, -1.5575714111328125, -11.25117301940918, 1.33225417137146, 0.006758302915841341, 0.3743860125541687, 2.714063882827759, -1.6647915840148926, -4.786010265350342, 1.2802774906158447, 5.858423709869385, 1.4426125288009644, 0.08271459490060806, 0.7731328010559082, 0.08089552074670792, 0.8762925267219543, -3.145236015319824, 4.101448059082031, 0.06385298818349838, -0.10679890215396881, 0.5766925811767578, -1.204576015472412, 0.029077233746647835, 2.255406379699707, 2.166947603225708, -3.651578187942505, 0.020738478749990463, -1.944129228591919, 0.3108981251716614, 2.7654073238372803, 3.1534337997436523, -0.09871382266283035, -2.6201953887939453, 1.0293453931808472, -2.637800693511963, 1.1754354238510132, -4.104945659637451, 0.08608263731002808, -4.2944111824035645, 2.405555248260498, -0.9438481330871582, -1.8875272274017334, -0.9658092856407166, 0.4074954092502594, 0.004816513974219561, 1.9135068655014038, -1.064110517501831, 1.520063042640686, -0.20140472054481506, 0.44798195362091064, -2.068101406097412, 0.023907003924250603, 0.05023058503866196, -1.7695722579956055, -0.9956985116004944, -0.9399129748344421, -2.7597525119781494, 0.9172723889350891, -4.956794738769531, -6.838715553283691, 0.0010400356259196997, -1.1348286867141724, 0.03706250712275505, -0.48159047961235046, -1.7819873094558716, 0.8531040549278259, -0.01846003718674183, -0.06631157547235489, 4.359437942504883, 2.135868787765503, 0.036403998732566833, -1.0897144079208374, 0.6863232254981995, 0.42710742354393005, 0.015161413699388504, -4.817833423614502, 3.111201763153076, -4.888432025909424, -0.8807634711265564, 0.04083877429366112, -0.9994948506355286, 4.767028331756592, -0.12145881354808807, -3.503538131713867, -5.402456283569336, 0.11000976711511612, -7.763380527496338, -1.6279652118682861, -1.1633378267288208, -2.7304928302764893, 0.025249890983104706, 1.1431576013565063, 0.1154070496559143, -0.8888015747070312, -1.690752625465393, 0.8691263794898987, -2.636192560195923, -0.2481318563222885, 0.050539951771497726, 5.443409442901611, -0.005998353008180857, -0.6639332175254822, -3.7928497791290283, -2.159977912902832, -3.4862442016601562, -1.4109779596328735, 0.7639442086219788, 1.3163996934890747, -0.006659721024334431, 2.2418746948242188, -0.14672817289829254, 2.066467523574829, 3.2976484298706055, -3.743803024291992, -0.116457499563694, 0.02545151114463806, 2.9670846462249756, 0.8036206960678101, -0.006077457685023546, 1.780372977256775, -0.47770488262176514, -1.2282594442367554, 0.048651888966560364, -0.3921613097190857, -2.648529291152954, -0.48823925852775574, 0.14525946974754333, 0.08049780875444412, 1.5388177633285522, 2.517561197280884, 1.5782390832901, -0.265292763710022, 0.44494619965553284, 0.021784473210573196, -0.004758995492011309, 2.458646059036255, 4.191415786743164, 0.913068413734436, 1.2889608144760132, -0.6646829843521118, -0.01224491000175476, -0.35611385107040405, 1.142287254333496, 2.2966699600219727, 1.0879011154174805, 2.192188024520874, 0.7290221452713013, 1.3596985340118408, -0.2010212540626526, -3.231358051300049, -2.4307868480682373, 1.4223052263259888, -1.8576940298080444, -0.5182845592498779, 1.4297295808792114, 0.8064262866973877, 0.12097678333520889, 0.1935020238161087, 0.012203221209347248, -4.630862712860107, 0.3892597258090973, -0.0020859651267528534, 0.15677204728126526, -0.08505922555923462, -1.5852949619293213, -2.0823349952697754, -0.08673529326915741, -0.8390965461730957, 2.452781915664673, 1.045816421508789, -0.12733957171440125, 0.017763400450348854, 0.8684279918670654, -0.850753128528595, 0.683441162109375, -0.278178334236145, 0.26770541071891785, 2.139936923980713, 1.091991662979126, -0.26808735728263855, 0.8203703761100769, 0.08020684123039246, 0.3758641481399536, 1.09636390209198, 0.3387015461921692, 3.984546422958374, 1.282900333404541, -7.061130046844482, -0.07901211082935333, -0.29702481627464294, -4.118743896484375, 3.898927688598633, 2.0492677688598633, 1.1467289924621582, 1.67021906375885, -0.14546893537044525, 0.04935944825410843, -3.4362947940826416, 1.9555734395980835, -2.320622682571411, 1.6790653467178345, 0.9932395815849304, 1.6170380115509033, 2.6623382568359375, 0.06466154009103775, 1.3230867385864258, 0.07995028793811798, 6.1111345291137695, 5.642322063446045, 2.3729143142700195, 0.03233718127012253, -0.1066172793507576, -1.598533272743225, -1.5325961112976074, 0.024616211652755737, -3.004575252532959, -1.9874472618103027, 2.668627977371216, 0.08720998466014862, 4.2967119216918945, -1.6640214920043945, 1.9091439247131348, -0.6990106701850891, -0.056929755955934525, -1.1470513343811035, 2.6989924907684326, -2.3934686183929443, -0.19662469625473022, -0.5812253355979919, 0.0006360443658195436, -1.0061923265457153, -1.3349084854125977, -2.312560558319092, 1.119973063468933, 0.27423322200775146, 1.2295557260513306, 0.1945967823266983, -1.0532642602920532, 4.325546741485596, 0.05531013011932373, 2.0383284091949463, -0.9386309385299683, 0.6042628884315491, 1.3460109233856201, -0.24838832020759583, -4.567935466766357, 2.279919147491455, -2.0349762439727783, -1.0533241033554077, 3.992945432662964, -1.8702728748321533, -1.930446982383728, -0.0006915316917002201, -0.8592992424964905, 0.004777200520038605, -2.1589035987854004, -0.12237492203712463, 0.32839643955230713, 0.3085518181324005, 0.01615801639854908, 1.953155517578125, -0.30984824895858765, 0.1730768382549286, -2.1216440200805664, -3.1405982971191406, -1.3705497980117798, 0.17590965330600739, 3.8938138484954834, -0.6644778847694397, -3.8636200428009033, -4.208901882171631, -0.07414599508047104, -3.7426857948303223, -1.1071655750274658, -0.36123302578926086, -1.9197494983673096, 0.1957869827747345, 0.027578525245189667, 2.4082987308502197, -4.3354878425598145, 1.2545665502548218, -3.3670096397399902, -1.5966260433197021, -1.4716168642044067, 0.008658555336296558, 0.5373958349227905, -7.7801289558410645, -6.0380120277404785, -2.6315066814422607, -1.894012689590454, 0.24584880471229553, 5.675174713134766, -0.5562294721603394, 3.309925079345703, -0.6285068392753601, -0.7226070165634155, -3.677734851837158, 0.8773065209388733, 0.21761056780815125, 0.48757970333099365, -0.11865975707769394, 0.658353328704834, -0.10292059183120728, 2.2067716121673584, 0.6497983932495117, -2.6026251316070557, -0.27824610471725464, 0.033965613692998886, 0.6477474570274353, -1.0312708616256714, 0.2227761298418045, -2.896364212036133, -3.2146193981170654, 4.169514179229736, 0.13066157698631287, 3.9591610431671143, 1.6753731966018677, -2.077197790145874, -0.2947136163711548, -0.015661027282476425, -0.6775433421134949, 3.8223299980163574, -2.893568754196167, -0.6962412595748901, 1.2173173427581787, -0.1512252688407898, 0.6202925443649292, -0.5426537990570068, -7.784601211547852, -3.2069578170776367, -2.3198609352111816, -0.37862542271614075, -0.040736980736255646, 2.1357767581939697, 2.9139585494995117, 1.6508616209030151, -2.1543145179748535, -3.22301983833313, 0.0025649822782725096, 3.385909080505371, -0.047055650502443314, -1.6047037839889526, 0.6844180226325989, -0.5897048711776733, 1.6914221048355103, -0.05766867846250534, 0.7079977989196777, 0.6937666535377502, 0.06185024604201317, 0.09173096716403961, 0.08037035167217255, -2.7088754177093506, 2.693470001220703, -1.4373457431793213, -0.05156809091567993, -0.09874918311834335, 2.3325252532958984, 0.603866457939148, -0.07479022443294525, 0.18851764500141144, -2.962246894836426, -0.1515348255634308, -0.06758378446102142, 1.5575147867202759, 2.1810972690582275, -0.2751656472682953, -3.515657901763916, -0.03108377195894718, 2.5786566734313965, -2.254671812057495, 0.8279675841331482, -0.8992272615432739, -4.632006645202637, 0.08167306333780289, 1.0629537105560303, 1.0510895252227783, -0.4683227241039276, 0.024372585117816925, -1.2466212511062622, -5.871392250061035, -0.07682401686906815, -2.138470411300659, 0.884853720664978, -0.7546833753585815, -0.8735462427139282, 3.336041212081909, 2.4747352600097656, 5.059940338134766, -0.04386989772319794, -1.5025922060012817, -1.133610486984253, -2.6410951614379883, 5.809507846832275, -0.7247239947319031, -0.7466423511505127, 0.2936248183250427, 0.028937002643942833, -1.485829472541809, 0.09383933246135712, 0.5788941383361816, 2.4497294425964355, -1.171481966972351, 0.017390646040439606, -0.01946520060300827, 2.8071978092193604, 0.630081295967102, -0.004742600489407778, 4.639028072357178, 1.3867090940475464, 1.043265700340271, -0.0717078223824501, -4.181089878082275, -5.5119242668151855, 0.7071540355682373, -2.8296360969543457, -0.007063806522637606, -1.6642229557037354, 0.10688725858926773, -0.7133751511573792, -0.5305547714233398, -0.5906487703323364, 0.12511274218559265, 4.273489475250244, 1.0548123121261597, -1.627949833869934, -2.450089931488037, -3.235741376876831, -0.9047338962554932, -0.13580085337162018, -1.747963309288025, -1.5189006328582764, 0.391988068819046, -1.0559841394424438, -0.5642672777175903, -0.8722132444381714, 1.507035493850708, -0.11857199668884277, -1.5701191425323486, -1.0230212211608887, -3.2072818279266357, 2.6946072578430176, -3.496291160583496, 0.2774646282196045, -1.1728378534317017, -0.07364542037248611, 2.6526427268981934, 0.10654910653829575, -0.9042946100234985, 0.10221051424741745, -1.7450422048568726, -0.07900294661521912, -0.0075033484026789665, -2.803506851196289, 0.28717854619026184, -0.15120306611061096, 2.096283197402954, 1.3472524881362915, -0.8107216954231262, -0.2118753343820572, -0.7679957151412964, -1.180878758430481, -0.7963387966156006, -1.807112455368042, -0.3003901541233063, -1.0146299600601196, 4.002976894378662, 0.6653285622596741, -0.3454299867153168, -1.887672781944275, -0.007215342950075865, -0.0851009413599968, 0.03113599866628647, 0.9013506174087524, 0.5297759771347046, 3.04544734954834, -1.4619207382202148, 0.13599444925785065, -0.21549344062805176, 2.3243861198425293, -4.919520854949951, 0.6662893295288086, -4.187641143798828, 3.4544081687927246, 0.20454518496990204, -0.1123783215880394, 2.465363025665283, 1.5549732446670532, -0.0994790568947792, -4.314718723297119, 2.898984909057617, -3.176988124847412, 0.852878987789154, 0.09511740505695343, -0.9235730767250061, 0.11930066347122192, 4.926390647888184, 2.5136818885803223, -0.29394611716270447, -0.13520246744155884, -0.06408876925706863, 3.5906870365142822, -0.36335524916648865, 0.47226497530937195, -1.5986385345458984, -1.9829020500183105, 4.000196933746338, 0.180644229054451, -1.4266183376312256, -8.156497955322266, -0.1395704746246338, 0.07643851637840271, 0.17327898740768433, -4.625155448913574, -2.9582455158233643, 0.2729233503341675, -0.9941820502281189, -1.876859188079834, -0.01073392853140831, -1.0851866006851196, -0.9572286605834961, -5.801482200622559, -4.739503860473633, 1.1485527753829956, -5.253383159637451, -0.12387440353631973, 0.26572442054748535, -2.9232704639434814, -0.7441686391830444, 0.967292070388794, -2.5805864334106445, -2.514625310897827, -0.11128674447536469, 0.01834910176694393, -3.532893657684326, 0.004422471858561039, -1.2594059705734253, -1.36171293258667, 0.12702909111976624, 0.08143298327922821, -0.6524027585983276, 0.036325857043266296, 2.5346529483795166, 0.09387565404176712, -0.4239383339881897, -4.947359561920166, -2.2020833492279053, 0.10169205814599991, -0.11938969790935516, -2.07242751121521, -1.1151089668273926, -0.07202985882759094, 1.464481234550476, 0.19425439834594727, 3.5523436069488525, -0.05936337262392044, -0.4456106126308441, -1.509475588798523, -4.8990960121154785, -0.35984161496162415, 0.06958091259002686, 0.5332363843917847, -0.0741327553987503, 3.969888210296631, -0.7491089701652527, -5.23459005355835, -0.04642246663570404, -1.496629238128662, -0.1642528921365738, 2.889695167541504, -0.7254279851913452, -2.9801483154296875, -0.018491938710212708, 0.026417657732963562, -0.008396491408348083, 0.04821619391441345, -0.004879288375377655, -0.016577735543251038, 0.023056350648403168, -0.07689876109361649, -0.0314229279756546, 0.004003517329692841, 0.0769699215888977, -0.060734350234270096, 0.049416765570640564, 0.06323741376399994, 0.0038266628980636597, 0.07488694787025452, -0.006742879748344421, -0.07179578393697739, 0.08159996569156647, -0.07063409686088562, -0.08074353635311127, 0.08243781328201294, 0.037076860666275024, 0.06195211410522461, 0.06689602136611938, -0.040802136063575745, -0.03271730616688728, -0.06466582417488098, -0.030024070292711258, 0.0416741743683815, 0.08170588314533234, 0.0679859071969986, -0.020394209772348404, -0.04813842847943306, 0.020842060446739197, -0.04457954689860344, -0.07600148767232895, -0.08155076205730438, 0.06882929801940918, 0.03582163155078888, 0.05813559889793396, -0.004647240042686462, -0.02608884871006012, 0.060948967933654785, 0.008464314043521881, 0.05465133488178253, 0.01669999212026596, 0.02594534307718277, 5.38689661026001, 0.1573365479707718, 0.19919243454933167, 2.3013248443603516, 0.02161271497607231, 2.110659599304199, -0.14581260085105896, -0.13919778168201447, -1.9444892406463623, -0.16242177784442902, -0.06698247045278549, -1.3355565071105957, 0.770889401435852, -4.2363972663879395, 0.7034158110618591, -0.4170982539653778, 0.5893757939338684, 0.1387762427330017, 2.732699155807495, 0.03975500911474228, -2.457306146621704, -1.9932869672775269, 1.526902198791504, -0.13397809863090515, -0.09350554645061493, 0.5914965867996216, -1.979176640510559, 0.13093042373657227, -0.3385894298553467, 1.9361252784729004, -2.971057653427124, 0.06410140544176102, 0.3307992219924927, -0.9665822386741638, -1.9907615184783936, -0.5399500131607056, -0.0003827435430139303, -1.6395740509033203, 0.28711384534835815, 0.3897925019264221, -1.0175288915634155, 1.2493878602981567, -0.03447353467345238, -0.21264530718326569, 0.23405446112155914, -1.4732426404953003, 2.967132329940796, -1.9733998775482178, -0.06896635890007019, 0.07173219323158264, 0.012069009244441986, -0.07042835652828217, 0.0392991378903389, 0.03224571794271469, 0.02697405219078064, 0.0589686781167984, -0.0364140123128891, -0.01064523309469223, 0.08185884356498718, 0.03037939965724945, 0.01913411170244217, 0.025613613426685333, -0.0341738760471344, 0.05084905028343201, -0.040394678711891174, 0.020631857216358185, -0.08171603083610535, 0.03679899871349335, 0.0705287903547287, 0.021290205419063568, -0.019351176917552948, -0.000342346727848053, -0.04379424452781677, -0.054868679493665695, -0.024097666144371033, 0.05955299735069275, -0.057974860072135925, 0.024867795407772064, -0.03391736373305321, 0.0825265645980835, -0.0506262332201004, -0.0619586780667305, 0.031518884003162384, 0.028292931616306305, -0.06741529703140259, -0.03938070684671402, -0.031195025891065598, -0.06266631931066513, -0.05754883214831352, 0.037908054888248444, -0.043835703283548355, 0.008046969771385193, 0.050066038966178894, 0.009117603302001953, -0.028100531548261642, 0.02540382742881775, -2.539764881134033, -0.049068301916122437, -0.6674984693527222, 2.138075351715088, -1.3384524583816528, 1.2780166864395142, -0.8742666244506836, -1.8382238149642944, 1.4478462934494019, -0.24980564415454865, -0.8797141909599304, 1.0280590057373047, -1.3189597129821777, -3.6085190773010254, -1.8890224695205688, -0.3779012858867645, 0.188794806599617, 0.015391053631901741, 0.6384518146514893, -0.10508467257022858, -2.0855178833007812, -0.7370201945304871, -0.8359097242355347, -0.057204607874155045, 0.024187838658690453, 0.41019099950790405, -0.17203126847743988, 0.1490204781293869, 1.1747065782546997, -0.48497697710990906, -1.8407365083694458, -0.0026303865015506744, -1.5922930240631104, -2.1398279666900635, -1.3899388313293457, -2.696443557739258, 0.03921131789684296, -1.4779332876205444, 0.6356592178344727, -1.0032095909118652, -0.7481363415718079, 1.701320767402649, -0.1387995332479477, -1.730659008026123, -0.19338534772396088, 0.18477635085582733, 0.6037185788154602, -1.2863718271255493, 0.0654345452785492, 0.06829507648944855, 0.03409058600664139, -0.05055318772792816, -0.027526892721652985, 0.06308332085609436, 0.018895886838436127, 0.0053304508328437805, 0.04341484606266022, -0.022537384182214737, 0.01369813084602356, 0.03378774970769882, 0.06275869905948639, 0.04941776394844055, -0.0076548755168914795, -0.020911596715450287, 0.06443500518798828, 0.07484981417655945, -0.029150374233722687, -0.04777666553854942, 0.043514713644981384, 0.06235980987548828, 0.01006869226694107, -0.07199690490961075, 0.03824540972709656, 0.05786943435668945, 0.03464489430189133, 0.03017750382423401, 0.07529893517494202, 0.0660645067691803, 0.004303552210330963, 0.050227344036102295, 0.04488001763820648, 0.0570785254240036, -0.016860172152519226, 0.062201857566833496, -0.019846655428409576, -0.033825770020484924, 0.03157545626163483, -0.08117305487394333, -0.06326580047607422, -0.02240443229675293, -0.04416273534297943, -0.02175050601363182, 0.07673697173595428, -0.04229094833135605, 0.08069007098674774, 0.01773083209991455, -1.7979012727737427, 0.07594320178031921, -0.5445185899734497, -1.487865686416626, -0.28313010931015015, -1.6267508268356323, 2.5588083267211914, 1.330575942993164, 0.5533950924873352, -0.20251096785068512, -3.2486534118652344, 2.4843621253967285, -1.8961576223373413, 1.504659652709961, -2.8649847507476807, -0.9440871477127075, -2.008857488632202, 0.013409229926764965, -1.0918577909469604, -0.11172329634428024, 2.943890333175659, 1.1664772033691406, 0.1845945417881012, 0.028508197516202927, 0.030645262449979782, -2.5806260108947754, -0.9827833771705627, 0.022369882091879845, 3.0552916526794434, -3.0327401161193848, 1.9024561643600464, -0.021688848733901978, 0.9966244101524353, -4.3315839767456055, 0.36446237564086914, -1.9696472883224487, -0.09660017490386963, 2.617109537124634, -1.4340965747833252, 1.970343828201294, 2.405853271484375, 1.8195874691009521, -0.002121603349223733, -0.42862626910209656, -0.7994410991668701, 3.7065467834472656, -1.168571949005127, 2.8986456394195557, -1.1563469171524048, -0.14123283326625824, 0.01866559498012066, -1.3691682815551758, -0.09220234304666519, -0.6937277913093567, 3.909120798110962, 0.26679131388664246, 5.279748916625977, -0.07025641947984695, -3.1344666481018066, 1.4289904832839966, -2.543261766433716, 0.2812863886356354, -0.08991383016109467, 3.997161626815796, 0.6005574464797974, -0.08287984132766724, 1.413639783859253, 0.012993361800909042, 2.06661319732666, 3.2556872367858887, 2.4842379093170166, 0.03305070474743843, -0.17340140044689178, 2.1045315265655518, -1.008495569229126, -0.1844899207353592, -3.503225803375244, -2.5840904712677, 0.0053627872839570045, -0.011375438421964645, 2.361154079437256, 7.126015663146973, 1.655712604522705, -0.662183403968811, -0.0857151448726654, -0.030196959152817726, 2.4899206161499023, 0.8856421113014221, 1.8280750513076782, 2.8943228721618652, -0.002843413967639208, 3.0745556354522705, 1.6825331449508667, 0.814009428024292, -1.1542236804962158, 2.3110029697418213, 5.490767478942871, 0.12444475293159485, 0.251647025346756, 2.203803062438965, 0.0687183290719986, 2.082258701324463, -0.14767616987228394, -0.1904684454202652, -1.9299241304397583, -0.14395497739315033, -0.1613880693912506, -1.2603371143341064, 0.7572419047355652, -4.254120826721191, 0.8273131847381592, -0.4749579131603241, 0.49864891171455383, 0.04230004921555519, 2.6996521949768066, 0.04819681495428085, -2.5192129611968994, -2.0340704917907715, 1.5829179286956787, -0.0997762382030487, -0.0575183667242527, 0.6318843960762024, -1.9826221466064453, 0.07451891154050827, -0.3712509870529175, 1.953667402267456, -2.9268276691436768, 0.0008502492564730346, 0.46029460430145264, -1.0705366134643555, -1.9630868434906006, -0.5699481964111328, 0.02939443849027157, -1.5991132259368896, 0.3309493064880371, 0.5237072110176086, -0.9823116064071655, 1.1876264810562134, 0.0021463814191520214, -0.22590748965740204, 0.2969910800457001, -1.4433475732803345, 2.9129178524017334, -2.133558511734009, -0.8730424642562866, 0.05248013883829117, -0.6250963807106018, 1.381487250328064, 0.7644960880279541, -3.8635029792785645, 2.4438419342041016, 2.928771495819092, 2.495756149291992, 0.35906144976615906, -2.4179396629333496, -0.24061231315135956, -1.9469490051269531, 3.452333450317383, 1.204892873764038, -1.044793963432312, -0.4411841928958893, 0.14949984848499298, 3.211097478866577, -0.02740035206079483, -0.47713327407836914, 2.0197532176971436, 2.5889744758605957, -0.008128213696181774, -0.08890277147293091, -1.4071884155273438, -0.5873954892158508, -0.045668624341487885, -1.98084557056427, 2.5090372562408447, -1.195672631263733, 0.06866201013326645, 0.5209129452705383, -2.313044786453247, 0.6885271668434143, 2.2742230892181396, 0.08306021243333817, 3.118302583694458, 0.8747236728668213, 2.5250697135925293, 1.9163293838500977, 6.750851631164551, 0.24179185926914215, 4.354221820831299, 1.9924472570419312, -1.9850761890411377, -0.20609766244888306, -1.4242390394210815, -2.5570971965789795, -0.043640878051519394, -0.665543794631958, 2.108797550201416, -1.3361009359359741, 1.2566686868667603, -0.8206855058670044, -1.7746676206588745, 1.3625086545944214, -0.14968179166316986, -0.7834119200706482, 1.0924298763275146, -1.3974604606628418, -3.665376663208008, -1.849328637123108, -0.38699230551719666, 0.24004225432872772, -0.04489775002002716, 0.7024166584014893, -0.04925934970378876, -2.1620235443115234, -0.7128947377204895, -0.859329342842102, 0.006019207648932934, 0.16838225722312927, 0.4651753306388855, -0.14571894705295563, 0.16777946054935455, 1.2094782590866089, -0.5409308671951294, -1.8210810422897339, -0.0028131576254963875, -1.5305683612823486, -2.145925760269165, -1.3134677410125732, -2.675281524658203, 0.12053503096103668, -1.4190720319747925, 0.7334386110305786, -0.9997657537460327, -0.6553108096122742, 1.6535247564315796, -0.16035719215869904, -1.7730164527893066, -0.09364848583936691, 0.18906866014003754, 0.4565369486808777, -1.2558244466781616, 1.7164918184280396, 0.014475682750344276, -2.8322460651397705, -5.76745080947876, 0.9056625962257385, 1.5011928081512451, 0.7267990112304688, 2.2936160564422607, 3.787821054458618, 0.2551960051059723, 1.4923824071884155, 0.813848078250885, 0.5506438612937927, 2.5203983783721924, 0.10340049117803574, 0.9757714867591858, 2.978987455368042, 0.42937323451042175, 7.018767833709717, 0.02576855756342411, 2.866100788116455, 1.5756516456604004, 2.392564296722412, 0.4093497097492218, 0.05683644860982895, 4.71178674697876, 1.758955717086792, 0.3339334726333618, 4.16358757019043, 6.190271854400635, -0.7677727341651917, -0.06312604248523712, -0.6009606122970581, -0.23120801150798798, -1.1179523468017578, 5.565099239349365, -0.21546795964241028, 2.427590847015381, 1.0507094860076904, 2.7539284229278564, 2.3028879165649414, 9.816244125366211, 0.4147838354110718, 0.241132453083992, 4.5126566886901855, 1.6829240322113037, 4.318873882293701, 2.421281576156616, -1.7352761030197144, -0.033008772879838943, -0.580812931060791, -1.50626802444458, -0.27140873670578003, -1.665725588798523, 2.5179481506347656, 1.3476371765136719, 0.662358820438385, -0.263899028301239, -3.291651725769043, 2.6020636558532715, -1.9169973134994507, 1.5747783184051514, -2.9917519092559814, -0.9726489782333374, -2.0896544456481934, 0.019192194566130638, -1.0498440265655518, -0.13024620711803436, 2.8994715213775635, 1.1404433250427246, 0.10804537683725357, -0.055626608431339264, 0.03015179932117462, -2.6594290733337402, -1.0741826295852661, 0.013192442245781422, 3.070524215698242, -3.087411880493164, 1.9029618501663208, -0.05484483391046524, 0.9528279900550842, -4.401167869567871, 0.2802514135837555, -1.9475336074829102, -0.01593092456459999, 2.7329254150390625, -1.3921585083007812, 2.07383394241333, 2.372605323791504, 1.810060977935791, -0.13709375262260437, -0.37924590706825256, -0.8827159404754639, 3.6806750297546387, -1.2082479000091553, 2.9307706356048584, -0.028877347707748413, 0.07853719592094421, -0.05607284605503082, -0.06637752801179886, -0.028661325573921204, 0.05301438271999359, 0.030910179018974304, 0.03658224642276764, -0.029301144182682037, 0.04434323310852051, -0.013394363224506378, 0.05333489179611206, 0.012988723814487457, -0.0005744695663452148, 0.026547744870185852, -0.08233367651700974, -0.03679777309298515, -0.043530434370040894, 0.07639995217323303, 0.004880785942077637, 0.0015130043029785156, 0.016580097377300262, 0.06398895382881165, 0.0028450489044189453, 0.059103041887283325, -0.06591533124446869, 0.07594716548919678, 0.01630531996488571, -0.017084263265132904, 0.03140953183174133, -0.054025426506996155, -0.05088623985648155, 0.022030673921108246, 0.05919636785984039, -0.014735490083694458, 0.04000160098075867, -0.03362514078617096, 0.0723048597574234, 0.026761971414089203, 0.04035000503063202, 0.04860857129096985, -0.06605763733386993, 0.06507985293865204, -0.044053539633750916, 0.03744710236787796, 0.0404345765709877, -0.07904566824436188, 0.0031146034598350525, 3.69538950920105, -0.004020397085696459, -2.9874675273895264, 2.7802088260650635, -0.20292755961418152, -0.9215298891067505, 4.312167167663574, -3.473313570022583, 1.1035982370376587, 0.12333963811397552, -5.7108869552612305, -0.8664162158966064, 2.1455166339874268, 2.797377824783325, 0.7690057754516602, 0.31996777653694153, -0.04501494765281677, -0.040815290063619614, -2.0222296714782715, -0.1529650241136551, 1.4829423427581787, -1.0946741104125977, -0.5914431214332581, -0.083812415599823, 0.006840231362730265, -1.0611042976379395, 0.8997840285301208, -0.060780152678489685, -1.3937623500823975, 1.6772197484970093, -3.149409294128418, 0.010550747625529766, 1.118027925491333, -1.6392595767974854, -0.44147989153862, -1.8007805347442627, -0.06460510939359665, -0.3008701503276825, 1.2350877523422241, 0.9695351123809814, 2.167795419692993, 2.0177648067474365, -0.0251143965870142, 2.098311185836792, 2.192253351211548, 1.6202040910720825, 8.389519691467285, -2.73919415473938, 0.4493364691734314, 0.18157611787319183, -1.56168532371521, -0.1039687916636467, 0.33826538920402527, 1.7795827388763428, -1.1153743267059326, 4.0366435050964355, 0.48060423135757446, -0.21653661131858826, -0.7095617651939392, -1.1313855648040771, 1.6473454236984253, -2.8316190242767334, 1.8291144371032715, -0.013245802372694016, -4.479702472686768, -0.001071049482561648, -2.7604315280914307, -0.027002356946468353, -1.9879604578018188, -3.8709001541137695, 1.4440724849700928, 0.017940158024430275, -0.04493549466133118, 1.7081077098846436, 1.4071990251541138, 0.1766190528869629, -2.9841995239257812, -2.369901418685913, 1.3618663549423218, 0.23780497908592224, -4.5510711669921875, 1.3367900848388672, 0.26393234729766846, 0.6719169616699219, 0.26712170243263245, -0.14367620646953583, 1.5761499404907227, -1.1799927949905396, -2.095651149749756, -1.4034476280212402, 0.00027910745120607316, 4.466362953186035, -1.499182105064392, -1.9888739585876465, -3.1530861854553223, 4.15374755859375, -1.6914820671081543, -0.09406878799200058, -1.0629539489746094, -0.758614718914032, -0.08354201912879944, -3.192518711090088, 0.03768744319677353, 3.384398937225342, 0.3276107609272003, 0.011681930162012577, -2.0959599018096924, 1.3956725597381592, -3.305349349975586, -0.20794489979743958, -2.928304433822632, 0.961758553981781, -1.8972312211990356, 0.1708918809890747, 2.9086179733276367, 0.10951956361532211, -4.26631498336792, -1.1906845569610596, 0.848658561706543, 0.049139995127916336, 0.08780975639820099, -2.4204273223876953, 3.0739924907684326, 0.07392733544111252, 1.6925685405731201, 1.9154627323150635, 1.180291771888733, -0.016730785369873047, -0.7809544205665588, -1.6963776350021362, 0.09419046342372894, -1.3898552656173706, -0.0021904660388827324, -0.2594548761844635, -0.9880343675613403, -3.221497058868408, 0.1767779141664505, 0.527337372303009, 0.1311691403388977, -1.4407709836959839, -2.444580316543579, -0.25222617387771606, -1.2791935205459595, 1.3416889905929565, 1.4798636436462402, -0.012917676009237766, -1.0541850328445435, 1.1980977058410645, -0.006816355977207422, -13.870993614196777, 1.3834130764007568, 2.235508680343628, 1.2513047456741333, 0.001218921272084117, 1.9391999244689941, -0.9189659357070923, -2.535740375518799, 0.976290762424469, -1.5941399335861206, -1.507850170135498, -1.5970308780670166, 0.06517872959375381, -4.116009712219238, 0.15212175250053406, -3.277357816696167, -1.0258387327194214, -0.6196780204772949, 0.07015874236822128, -0.13280051946640015, 2.8676459789276123, -1.9812120199203491, -0.12416538596153259, 0.6311240792274475, -3.437016487121582, -1.9220937490463257, -0.1566210687160492, 0.9011099934577942, 1.6951959133148193, -4.213496685028076, -4.33317232131958, -0.05462462455034256, 0.9087041020393372, -2.7788918018341064, 0.16715262830257416, -0.7680069208145142, -2.760906457901001, 0.008530106395483017, -2.3119001388549805, -1.9885188341140747, 3.518155336380005, 0.10269616544246674, -0.923629641532898, -1.6294974088668823, -0.055889394134283066, -0.6019862294197083, -0.44539907574653625, 1.337469458580017, 2.16624116897583, 1.7783457040786743, 0.4577906131744385, 1.3023241758346558, 0.13212543725967407, 1.0887086391448975, -1.274742841720581, -0.8368503451347351, 0.29793602228164673, -3.199119806289673, -1.045541763305664, -1.0338762998580933, -0.08279965817928314, -0.5986837148666382, -0.10911773890256882, 0.23058277368545532, 0.02157294750213623, -1.03615403175354, -0.12185504287481308, -0.12610143423080444, 0.28737249970436096, 0.28886479139328003, -0.3278346061706543, 0.1151321530342102, -0.021747976541519165, -0.7251632809638977, -0.18612807989120483, -1.3184412717819214, -1.747706413269043, -1.2909414768218994, -1.0295746326446533, -0.10448428243398666, -3.9836480617523193, 0.7817957997322083, -0.4540488123893738, 1.5145493745803833, 2.3891639709472656, 0.0389116033911705, 2.126009702682495, 0.6397647261619568, 1.432128667831421, 2.483449697494507, -0.06716148555278778, -2.467303514480591, 0.07526922971010208, 2.785599708557129, -1.1750849485397339, -1.5650542974472046, 2.316563606262207, -1.1909698247909546, -2.362797260284424, -2.552534580230713, -0.11720769107341766, 2.497187614440918, -1.0307767391204834, 0.03591145575046539, 0.6633260846138, 1.5609742403030396, -0.14934521913528442, 1.3672066926956177, 0.05745559558272362, -0.5524167418479919, 0.18270587921142578, 1.1498126983642578, -1.2910709381103516, -0.8295144438743591, -0.07919187098741531, 0.01704743318259716, 2.033566951751709, 1.540779709815979, 0.1450730860233307, 0.9616523385047913, 1.8715957403182983, 2.653200387954712, 0.1411817967891693, -3.311605930328369, 2.5083467960357666, 1.6057552099227905, 2.814319372177124, 0.15511900186538696, -0.688449501991272, 3.6059463024139404, 1.675545334815979, -0.9929606914520264, -2.9522690773010254, 0.014458175748586655, 2.2771377563476562, 0.2968440055847168, -3.1645989418029785, -2.485504150390625, -0.41687414050102234, 0.5751318335533142, 0.06966432929039001, -5.580268383026123, 1.5796236991882324, -0.6131500601768494, -1.9466447830200195, 1.3738759756088257, -0.06953997164964676, -2.514242649078369, -0.08301665633916855, 1.464769959449768, -0.6533013582229614, -3.1166417598724365, -1.8391774892807007, -6.510387897491455, -1.2627100944519043, -1.3205777406692505, -0.03949965909123421, 2.5031068325042725, 0.014380275271832943, -0.5383558869361877, -1.287473440170288, 1.3965744972229004, -0.04282991960644722, -0.018307073041796684, -4.491644382476807, 0.8956581950187683, -0.008323108777403831, 0.4543044865131378, -4.27869176864624, -1.7176854610443115, 0.050873998552560806, 1.5244940519332886, -2.7520651817321777, 5.612967014312744, -2.3766274452209473, 0.07712164521217346, 1.7512344121932983, 0.45311808586120605, -1.7838484048843384, -0.64239901304245, -0.7177879810333252, 0.024121733382344246, 1.8339778184890747, -2.323888063430786, -5.627870082855225, -2.0927937030792236, -2.4261274337768555, -2.601529359817505, 0.02893470972776413, -4.129851341247559, -2.225292682647705, -2.753596544265747, -3.0923240184783936, -3.1163766384124756, -2.6183059215545654, 2.238727569580078, -0.005409184843301773, 2.822948694229126, 1.0719290971755981, -1.5665843486785889, -2.0332798957824707, -5.857425689697266, -4.194259166717529, -3.2076265811920166, 0.06188061833381653, 2.305938243865967, -0.01287341583520174, 5.371941566467285, -0.8115450143814087, -1.3019355535507202, 0.4114226996898651, 0.04686698690056801, 0.8143395781517029, -1.555766224861145, -0.010535785928368568, -2.9623425006866455, 0.14552631974220276, -1.900785207748413, 0.03734781965613365, -5.852841854095459, -3.888601303100586, 2.2127745151519775, -1.8638020753860474, 0.11879681050777435, 3.2441534996032715, -10.33327865600586, 0.16923318803310394, -1.7346323728561401, -0.5580281019210815, 0.11344771087169647, -6.11788272857666, 0.09113902598619461, -0.6658990979194641, -2.385671615600586, 1.194448709487915, -2.3962724208831787, 0.11185339838266373, -4.2989983558654785, -3.8895013332366943, -1.7443245649337769, -2.2830071449279785, -3.3780603408813477, 2.1711177825927734, -3.905963659286499, -0.3801693320274353, 3.827500104904175, -0.25961750745773315, -8.089178085327148, -1.974079966545105, 2.040952444076538, -4.437731742858887, -0.014749850146472454, -0.19426536560058594, 4.046386241912842, -0.08701018989086151, 1.1728124618530273, 0.4512154459953308, -3.794551134109497, 0.17845584452152252, 0.06589943915605545, -2.0451698303222656, -0.18258154392242432, -0.0917128250002861, 1.3885223865509033, -6.2508440017700195, 2.6688833236694336, 0.28107744455337524, -4.342709541320801, -0.9405525922775269, 7.884445667266846, -2.150599241256714, 0.030762622132897377, -2.414266586303711, -1.8146276473999023, 0.11678355187177658, -3.8439865112304688, -2.545524835586548, 0.005723706912249327, 0.051763251423835754, -3.0580942630767822, -3.9041497707366943, -5.969011306762695, 3.132080554962158, -2.4160776138305664, 0.07762643694877625, -0.07959423959255219, -1.5016136169433594, 1.4606447219848633, 1.8276501893997192, -2.5949721336364746, 1.0332159996032715, -2.7854177951812744, 0.24368037283420563, 2.756760835647583, -0.046469490975141525, 4.567742824554443, -6.902571678161621, 0.66232830286026, -2.873138904571533, -0.21633894741535187, 0.08403673022985458, -1.0030490159988403, 0.1364601105451584, -0.14156126976013184, -2.212836265563965, 2.9206173419952393, -0.02123257704079151, 0.04335980489850044, 3.429133415222168, -1.6234394311904907, -0.0011537225218489766, -2.891143560409546, -2.4198498725891113, 3.4186418056488037, -0.27237555384635925, -1.24508798122406, -8.066659927368164, 0.3552052080631256, 1.857427954673767, -0.15181581676006317, 0.9581786394119263, -0.562310516834259, -4.358334541320801, -0.5056567192077637, 0.13081608712673187, 0.17541992664337158, 0.576820433139801, -1.8566975593566895, -4.530800819396973, -0.5996769666671753, 0.2001134753227234, -1.3773614168167114, -0.06046195328235626, 0.3762473464012146, -1.3149088621139526, -3.30666184425354, -6.428595542907715, 2.9675397872924805, 0.9196194410324097, 2.7663261890411377, 0.2385498434305191, -0.5666240453720093, -1.7047040462493896, -4.1133904457092285, -0.4811364710330963, 1.2084569931030273, -1.8310997486114502, -4.225817680358887, 0.03334064781665802, 0.16656136512756348, -0.080210380256176, -3.914699077606201, 1.2223317623138428, 0.9162740111351013, 0.0524786114692688, -0.12928836047649384, 2.314708948135376, -3.8391189575195312, -0.12555111944675446, -5.576521873474121, -0.8105697631835938, -2.6641221046447754, -0.05727420374751091, 1.0866718292236328, 2.275015354156494, -1.4976613521575928, -1.7793225049972534, 0.07334752380847931, 3.7218017578125, 4.030425071716309, 0.1513342261314392, 0.7394323945045471, 3.325524091720581, 0.07854238897562027, 0.9093029499053955, 1.8983434438705444, 1.5058574676513672, -1.444912314414978, -3.2650182247161865, 0.07145415991544724, 0.004469616338610649, -0.6799306273460388, -0.4501756727695465, -0.555785596370697, 1.1656988859176636, -2.4679436683654785, 1.0450061559677124, -0.7023641467094421, -0.13731852173805237, -2.7513773441314697, 2.1555070877075195, 1.0973548889160156, 1.5223469734191895, 1.2112605571746826, -0.44846311211586, 1.9020814895629883, -0.12272012233734131, -1.7613532543182373, -0.02001780830323696, -1.8795961141586304, 2.5423743724823, 0.1706898957490921, 0.06666076183319092, -0.07184582948684692, 0.9777445197105408, -2.158242702484131, -0.00892020296305418, 1.5876381397247314, 0.24897754192352295, 2.6431734561920166, 0.07740507274866104, 1.319223165512085, 3.657679557800293, -2.409914016723633, -1.0691395998001099, 0.02128937840461731, -0.0763312354683876, 1.7931495904922485, 0.27898553013801575, 0.6224995255470276, 1.6387596130371094, -0.20008501410484314, 2.1770386695861816, 2.3244972229003906, 0.38507458567619324, -1.524631381034851, -3.5497782230377197, -0.47102585434913635, 0.07995322346687317, -0.45373594760894775, 0.6862941980361938, -0.1589290350675583, -2.782588481903076, -1.4379377365112305, -3.750380039215088, -1.0556527376174927, -0.10515104234218597, 1.5553367137908936, -1.5716766119003296, -0.21408013999462128, 0.8201550245285034, 1.6145821809768677, -4.438457489013672, -0.35692450404167175, -0.14387300610542297, -4.4538044929504395, -0.021713964641094208, -1.523829698562622, -1.4485636949539185, -0.35702216625213623, -0.06503796577453613, 0.07349886745214462, 0.9119088053703308, 0.698078989982605, 0.002276647835969925, -4.306722164154053, -0.2825142741203308, -1.3911218643188477, 0.09159594029188156, -0.0707751214504242, 0.2064034789800644, 5.215029716491699, -1.501982569694519, 0.07114843279123306, 4.485564708709717, -0.7158660888671875, 0.3077740967273712, -0.40422627329826355, 2.469865560531616, -0.07494465261697769, -0.24737894535064697, -0.0903770923614502, 0.7917264699935913, -0.6512290239334106, 5.1251325607299805, -1.1741429567337036, -0.09453041106462479, -7.862545967102051, -7.136560916900635, -1.1291240453720093, -4.077727317810059, -1.1818863153457642, 0.14207671582698822, 0.2253800332546234, 0.01783043146133423, 4.669959545135498, 1.065354585647583, -4.324221611022949, 1.238547682762146, -2.9382035732269287, 2.632981061935425, -2.847174882888794, 0.1571718156337738, 4.3007426261901855, 0.09985995292663574, 2.2319836616516113, -1.3202354907989502, 0.08717471361160278, 0.06530461460351944, 0.022891320288181305, -0.212932288646698, 1.1215766668319702, -0.009134677238762379, -2.0361647605895996, -6.666855335235596, -0.7407652735710144, 0.055690888315439224, -5.806155204772949, -3.720294237136841, 5.087172031402588, -2.3810930252075195, -0.0831431970000267, 1.7567609548568726, -4.814023017883301, -0.43557921051979065, -1.1750328540802002, -0.08821643888950348, 0.14779435098171234, -4.6990275382995605, -0.012987829744815826, -1.1981372833251953, -0.47882071137428284, 0.7146543860435486, -2.0435478687286377, 0.13696534931659698, 3.205955743789673, 0.4255850911140442, 0.4511488080024719, -7.175529956817627, 0.2815532088279724, -3.338473081588745, 0.6312974095344543, -0.18176068365573883, -0.1529819220304489, -0.7517284154891968, -2.0657129287719727, -1.0059335231781006, -0.986274242401123, 2.813123941421509, 0.49370214343070984, 0.014265633188188076, -0.3490709066390991, -0.16298817098140717, 0.28598201274871826, 2.7128281593322754, -1.510846734046936, 0.05659688636660576, -0.07173804938793182, 2.692669630050659, -0.16939276456832886, 0.10951324552297592, -2.3774681091308594, 0.989345133304596, -0.5421326160430908, 0.21822863817214966, -1.1540440320968628, -2.754859447479248, 0.11282113939523697, -0.2136182337999344, 0.1621619313955307, 3.354109048843384, 2.066180944442749, 2.67502760887146, -0.8255638480186462, -3.638369083404541, 0.024049052968621254, -0.9751120805740356, 0.2105785310268402, 2.530906915664673, -0.2976297438144684, 2.9409492015838623, 1.3706766366958618, 0.016782555729150772, 1.1106640100479126, 1.3633357286453247, -3.5595686435699463, -5.266484260559082, 1.1296327114105225, 0.371136873960495, 2.9653444290161133, -0.215144082903862, 0.6763289570808411, 1.5803067684173584, -2.2907216548919678, 2.6850953102111816, -0.9263594746589661, 2.3523313999176025, -0.7389123439788818, -0.155185729265213, -2.6440677642822266, -0.08023940771818161, -0.6937225461006165, -2.366299629211426, -2.3694262504577637, -0.07152733206748962, 0.021475570276379585, 1.800337791442871, 2.089134454727173, 0.0630330890417099, -1.0380560159683228, -4.351037979125977, 0.4523472487926483, 0.08572368323802948, 2.6238553524017334, -0.3686600625514984, -0.344520628452301, -1.2658580541610718, -0.008625171147286892, 0.25335419178009033, -2.14434814453125, 1.3668133020401, -0.9236462116241455, -1.8776308298110962, -0.08317913860082626, -1.5760804414749146, -0.24415184557437897, -0.9391253590583801, -0.7371524572372437, 6.607475280761719, -0.6122043132781982, 0.015401158481836319, 6.73973274230957, 0.6123106479644775, 0.17933900654315948, 2.1119141578674316, 0.8374653458595276, -3.621015787124634, -0.9071281552314758, 0.1470029503107071, 2.1486546993255615, -1.5489052534103394, 1.7699092626571655, -1.8459724187850952, -1.3060529232025146, -0.8801724314689636, 0.8853846192359924, 0.1610158383846283, 0.7001381516456604, 0.08740020543336868, -4.35501766204834, 3.579555034637451, 1.5014448165893555, -0.02566816844046116, -0.045327916741371155, -0.2841743230819702, -0.18173298239707947, -0.030043011531233788, -2.3109171390533447, -1.3029528856277466, -3.379133462905884, -0.05241280421614647, 0.18785333633422852, 4.637966156005859, -0.01739405281841755, 4.115442276000977, 0.08770845085382462, 2.1789865493774414, -5.58275032043457, 1.4928767681121826, -0.43117669224739075, -1.113850474357605, 0.013894550502300262, 1.4797289371490479, 0.9900237917900085, -3.128211498260498, -0.17611868679523468, -2.304802417755127, 1.1721234321594238, 0.03475349396467209, -1.461427092552185, 0.4929759204387665, -4.428243160247803, 1.40666925907135, 1.325755000114441, 1.4673720598220825, 3.6307804584503174, 0.040005411952733994, -0.4774388074874878, -0.9764692783355713, 1.8792718648910522, 0.26384487748146057, -1.6921498775482178, -0.27957531809806824, 0.8067696690559387, -0.001058395835570991, -0.833673357963562, -0.011662861332297325, -0.42957189679145813, 2.830589771270752, 4.195784568786621, -0.10008861124515533, 0.08687568455934525, -3.298966646194458, 2.3048994541168213, 0.1385984718799591, -1.4613089561462402, -1.1390758752822876, -0.1791268140077591, 0.06087246909737587, 2.0855278968811035, -0.3405318856239319, -2.1769354343414307, -2.173353433609009, 0.0834500640630722, -0.02588420920073986, 0.11516134440898895, 0.5193533301353455, 0.3002816438674927, 0.4580801725387573, -0.06262529641389847, 0.6589747071266174, -0.04511386528611183, -1.882298231124878, -3.9553802013397217, 4.254138469696045, 0.09431825578212738, 0.03973305970430374, -0.5000774264335632, 3.3092806339263916, -1.2613403797149658, -1.1091527938842773, 1.7887159585952759, 1.563089370727539, -0.32473766803741455, 0.10101870447397232, 3.718104839324951, 1.212929368019104, 0.30953216552734375, -1.2383298873901367, -0.9815251231193542, -0.6444804668426514, 2.567624807357788, -0.02861458994448185, 0.656317412853241, -0.029720185324549675, -4.003060340881348, 0.8764845132827759, -0.3149724304676056, -0.0815465897321701, 0.0875692293047905, -1.1060359477996826, 0.27060452103614807, 0.10054609924554825, 2.0271239280700684, 0.8297294974327087, -1.183318018913269, 0.006702604703605175, -0.741387128829956, -0.3069770336151123, 1.9643715620040894, 0.3284938335418701, 0.05343661457300186, -1.0912230014801025, -2.0286009311676025, 2.2027361392974854, 0.9637157320976257, -3.056028366088867, 0.06246263533830643, 5.70344877243042, 0.8413999676704407, 1.6446861028671265, 3.050217866897583, -0.5995656251907349, -3.0073487758636475, -0.07264668494462967, 1.2808945178985596, 0.1931716352701187, -5.436773777008057, -1.6610928773880005, 2.261096477508545, -0.7597941756248474, 2.119588613510132, -0.3401995897293091, -1.3532263040542603, 0.3033888638019562, 1.5637973546981812, 2.573944330215454, 0.6187604665756226, -1.3027324676513672, -0.5645254850387573, -0.11303744465112686, -2.2060673236846924, -0.08575201034545898, 2.542072296142578, 3.7952258586883545, -0.4494853615760803, -0.08070455491542816, 0.02354026772081852, 3.8843631744384766, -0.6528586745262146, -0.018890708684921265, 0.810042679309845, 0.5149832963943481, 0.9103494882583618, 0.34125664830207825, -0.3847030997276306, -0.6251866221427917, -4.640746116638184, 0.49421846866607666, -0.07222413271665573, 2.300686836242676, 0.5996179580688477, -1.0874141454696655, 1.4876152276992798, 0.3356034755706787, -0.18976245820522308, 1.132244348526001, 0.731837272644043, -0.44666942954063416, -0.3835994005203247, 1.3513824939727783, -4.853358745574951, 0.01953279599547386, 0.21813523769378662, 2.0090174674987793, 0.004157789517194033, 2.585904836654663, -2.2441110610961914, 1.4766439199447632, 2.8343493938446045, 0.15403133630752563, -0.9527541995048523, 2.169131278991699, 2.8732709884643555, -3.439756393432617, 4.404851913452148, -2.9947075843811035, 1.3732316493988037, -0.05775797367095947, -4.065999984741211, -0.11126574128866196, -3.1106956005096436, -1.5784416198730469, -0.36921361088752747, -0.007179976906627417, 0.13358500599861145, 0.4933459460735321, 3.5384273529052734, -0.23808562755584717, -0.48592236638069153, -2.290994882583618, 1.498911738395691, 0.09187620878219604, 2.6559200286865234, -1.225071907043457, 1.675497055053711, 0.004664034117013216, -0.002804872579872608, -1.2005716562271118, 0.6350466012954712, -2.9694607257843018, -1.406201720237732, -0.11557653546333313, -0.0794631615281105, 1.5803083181381226, -2.9744725227355957, -0.6980540156364441, -1.830267071723938, -4.973191738128662, 4.9337077140808105, -0.0934813916683197, -1.7590073347091675, 0.052341680973768234, 2.8708300590515137, -2.05942702293396, 3.5152549743652344, 2.782299280166626, 1.9551770687103271, 0.11052386462688446, 0.14966338872909546, 2.7409393787384033, 4.87235689163208, 1.208730697631836, 2.5905916690826416, -2.959299087524414, -3.4175291061401367, 0.010380587540566921, -2.745765209197998, 0.12134252488613129, 1.0522195100784302, 2.7328062057495117, -3.2648236751556396, 0.01933351345360279, -0.13807739317417145, 4.968862056732178, -0.9086387753486633, -0.32591065764427185, 1.6481434106826782, 1.454784631729126, -0.08806948363780975, -0.33721303939819336, -3.095787525177002, -2.578681707382202, -2.8030190467834473, -4.949208736419678, -0.20453080534934998, 4.335341930389404, 1.8096061944961548, -0.82475346326828, 1.4179775714874268, -1.1674206256866455, 0.013642304576933384, 1.1316514015197754, 1.3707035779953003, -0.30086302757263184, 1.4066580533981323, -2.129960536956787, 4.315185070037842, 0.03456037864089012, -0.27960965037345886, 3.279538154602051, 0.7427942752838135, 1.6138545274734497, 0.8321212530136108, -3.3176956176757812, 1.643493890762329, -0.22964198887348175, -2.5258290767669678, -0.21659576892852783, 0.6734352707862854, 0.00819514598697424, -0.7691271305084229, -1.6071817874908447, 2.569411277770996, -0.11000873893499374, -0.1808929443359375, -0.09057247638702393, -4.572726726531982, 0.11540058255195618, 0.9840697646141052, -0.1095907911658287, -0.07139048725366592, 0.8560212850570679, -0.11798873543739319, -0.0016720073763281107, -0.9986405372619629, 1.9961910247802734, -1.102329969406128, 0.15758062899112701, -1.8539636135101318, -1.016459345817566, 0.7646800875663757, 2.7385241985321045, 0.0943942591547966, 0.25726473331451416, 0.43001365661621094, 0.05298750475049019, 0.31690552830696106, -0.6898605227470398, -0.12430024892091751, -0.9824289679527283, -0.6215357184410095, 4.916499137878418, 0.5486159324645996, -1.8850659132003784, 1.3861382007598877, -0.0762866884469986, -0.6098966598510742, -0.19907918572425842, -1.4275215864181519, 0.6144031882286072, -0.6828578114509583, 0.09145326912403107, 0.3248606324195862, 0.12510918080806732, 1.229297399520874, -2.621833086013794, 1.1667829751968384, -1.1955132484436035, -1.0035895109176636, -1.8398833274841309, -0.3307570815086365, 0.002601079875603318, -0.6558642387390137, 0.026576539501547813, 0.341044545173645, 1.180048942565918, -0.36642083525657654, 0.06883646547794342, -0.01761724427342415, -4.34775972366333, -0.3582025468349457, -0.0830291211605072, -0.4078638553619385, -0.046784862875938416, -1.2218703031539917, -0.11880357563495636, 0.9629695415496826, 0.5796242952346802, 3.101259231567383, 0.9254302978515625, -0.16127298772335052, -1.9755864143371582, 0.5486687421798706, 1.5089054107666016, -0.11153817921876907, -0.6456295847892761, 0.036758556962013245, -1.050665020942688, 1.9090626239776611, 1.1850062608718872, 2.29122257232666, 4.372077465057373, -2.3861966133117676, -0.027960533276200294, -1.5608210563659668, -1.2409993410110474, -1.5150537490844727, -2.413892984390259, 5.233996868133545, -1.4043703079223633, 1.939074158668518, -0.14232344925403595, 0.724431574344635, -3.3243463039398193, -0.33899539709091187, -4.3522047996521, 0.07435522228479385, -1.4750536680221558, -0.7699142694473267, 0.06311742216348648, 1.254966378211975, -0.08657954633235931, -1.7651416063308716, 1.822061538696289, 0.400025337934494, -0.0179162435233593, -0.09279076755046844, -0.8469494581222534, -0.43584713339805603, -0.09714319556951523, 2.2823190689086914, 0.0998154878616333, 0.9876924753189087, -0.05655864253640175, 5.044894695281982, -4.086738586425781, -1.4905359745025635, 1.347446322441101, 0.184866800904274, 1.9729909896850586, 0.36005035042762756, -0.5226043462753296, 1.1917049884796143, 4.571726322174072, -0.04127566143870354, 1.1390128135681152, -1.2988611459732056, 0.5195545554161072, 0.5772977471351624, -0.6776221394538879, -4.463883876800537, -0.06264037638902664, 0.692333459854126, 0.731736958026886, 3.5266265869140625, 1.4944958686828613, -2.3155932426452637, -1.9382342100143433, 0.9480693340301514, 0.06166933476924896, 3.7558906078338623, 0.9269207715988159, 1.2829185724258423, -2.947528600692749, 1.128557801246643, 0.46673959493637085, 0.7459850907325745, 0.106355220079422, 3.0585741996765137, 0.033698998391628265, 1.394419550895691, 2.945075035095215, -0.9298872351646423, -0.07026270776987076, -0.14657917618751526, 2.330960273742676, -0.212330162525177, 0.1435128152370453, -0.630033552646637, 0.09029515087604523, 1.4193930625915527, -0.1612452119588852, 1.6257617473602295, 1.3295918703079224, 0.09262465685606003, 1.2856236696243286, 0.010541255585849285, -0.6864805817604065, -3.6718504428863525, -0.5285999178886414, -0.9196786284446716, 1.331046223640442, 0.03560306876897812, -0.7169526219367981, 0.10802678763866425, 2.879655599594116, 4.189250946044922, -1.0153025388717651, -6.044431209564209, -0.00552333565428853, -2.942920207977295, -0.5055856704711914, -1.7095067501068115, -0.7834706902503967, 2.34091854095459, -0.6687781810760498, -2.8135180473327637, -0.0722561702132225, 0.20031613111495972, -4.218289852142334, 2.1089375019073486, -1.5980111360549927, 0.9299592971801758, -6.257338047027588, -1.5139310359954834, -0.036320339888334274, 3.8825976848602295, -0.05995122343301773, -1.8346991539001465, 2.1554152965545654, -2.9346139430999756, -0.11336833983659744, -0.005745595321059227, -5.1170196533203125, -5.664543151855469, 0.0804799422621727, -3.1021108627319336, -4.019465923309326, 0.802436351776123, 0.07820597290992737, -0.4369922876358032, 1.7026017904281616, 2.6337568759918213, -1.6950072050094604, -0.007633847650140524, -0.2701335549354553, 0.7654433250427246, -1.7388746738433838, 0.8923706412315369, 0.4667946994304657, -0.04871789366006851, -3.5978715419769287, 0.021530868485569954, -1.1525592803955078, -1.2519410848617554, -1.7738680839538574, 3.027920722961426, -0.0025118279736489058, 0.8951386213302612, -1.2359187602996826, 0.04580630734562874, -0.7551910281181335, 1.2832508087158203, 0.9244741797447205, 1.3526818752288818, -0.35233157873153687, -1.4022729396820068, -2.5783298015594482, 0.5910667181015015, -1.1121324300765991, -0.022330859676003456, -3.3204829692840576, -0.8915410041809082, -0.15525737404823303, -1.4434226751327515, 0.038972098380327225, -3.8994057178497314, 0.8348020315170288, -0.5980581045150757, 0.03622819110751152, -0.02567165717482567, 2.2151591777801514, 0.7931885123252869, 0.0372089259326458, -3.599829912185669, 1.5746307373046875, 0.873333215713501, -0.04230685532093048, -0.741894543170929, -3.8274943828582764, -1.8482469320297241, -1.6879386901855469, 0.09612482786178589, 2.558298349380493, -0.43802204728126526, -0.4683375358581543, 1.052754521369934, -4.9890031814575195, -0.23447856307029724, 0.18651282787322998, -2.0601470470428467, -4.014194488525391, -2.6504573822021484, -2.5784544944763184, -0.8054625391960144, -0.10375770181417465, -0.44325563311576843, 1.5853033065795898, -0.9438101649284363, -0.6649836301803589, -0.5129289627075195, -0.39778733253479004, -1.2777937650680542, 0.08873412013053894, -2.2618236541748047, 0.39190995693206787, 2.475858211517334, -1.939412236213684, -1.1392295360565186, 1.2252758741378784, 1.2542519569396973, 0.10556608438491821, -0.5511231422424316, 0.09196332097053528, -4.28662109375, 3.613377094268799, 2.214660882949829, 0.14606483280658722, -0.11846832185983658, -2.2345919609069824, 1.6578104496002197, -0.07577068358659744, 0.2658381760120392, -3.715628147125244, 2.0815200805664062, -0.03785531967878342, 3.8210370540618896, -0.4848490357398987, -1.3054534196853638, 1.7938929796218872, -0.12617112696170807, -2.7811496257781982, 0.2617461383342743, -0.7147513628005981, -0.2820335924625397, -1.0063334703445435, 0.009320239536464214, -1.805169939994812, -1.5836398601531982, -0.16416600346565247, -0.21431680023670197, 0.5647289752960205, -2.3840136528015137, 0.03045555204153061, 1.819940447807312, 1.958964228630066, 0.3922139108181, -4.632710933685303, 3.402240514755249, -1.6166608333587646, -6.6743550300598145, -0.1351466178894043, 2.6750073432922363, -1.8092966079711914, -0.08251585066318512, 3.650660753250122, 2.717683792114258, 1.178950548171997, -5.894372940063477, -0.042182374745607376, 0.12792503833770752, 0.0665464773774147, 6.48157262802124, -1.440653920173645, -1.3553104400634766, -0.023768778890371323, 0.002829390112310648, 2.2458417415618896, -3.0569186210632324, -0.0416228324174881, -1.9121527671813965, -2.5615909099578857, -1.693037748336792, 0.032508015632629395, -1.1531630754470825, -2.6797492504119873, -0.8997336030006409, 1.781752109527588, -0.05404433235526085, -0.5151934027671814, -1.285921573638916, -4.963099002838135, -1.5427571535110474, 1.0571213960647583, -0.18108277022838593, -0.15192468464374542, -0.891973614692688, -3.014028787612915, -3.87947678565979, 0.9357042908668518, 2.295186758041382, -0.11575856804847717, -1.0225566625595093, 2.089423418045044, 1.063857078552246, 1.209729552268982, 1.538245677947998, -3.849264144897461, -0.46560776233673096, 0.1446472406387329, 2.4161758422851562, -0.8286299109458923, -0.3633190393447876, 2.364492893218994, 0.522021472454071, -0.7719958424568176, -0.27420926094055176, -0.007230846211314201, 0.3271915316581726, 0.0015304554253816605, 1.0202298164367676, 1.694074273109436, 1.2369440793991089, 0.047037627547979355, 0.0025182021781802177, 1.976993441581726, -0.636663556098938, 0.021098900586366653, 2.470590591430664, -1.0088155269622803, -1.1240463256835938, 0.12607695162296295, -3.153592348098755, -1.0110938549041748, -0.4886818826198578, 3.2251269817352295, 0.22953903675079346, -1.1392877101898193, -0.5607413649559021, 0.757819652557373, -0.013916007243096828, -0.5877422094345093, 0.07933511584997177, 0.5582284927368164, 3.2172725200653076, 2.8985116481781006, 1.0888489484786987, -0.9234737157821655, -2.168680191040039, -0.01105128601193428, -2.5239248275756836, -2.213305711746216, -1.0548890829086304, -7.264564037322998, 1.581664800643921, -1.7662080526351929, -1.203492283821106, 0.09360629320144653, -2.538288116455078, 1.0660688877105713, -6.639176845550537, 2.8730363845825195, -1.0909593105316162, -0.770186185836792, -1.3698910474777222, 0.17229227721691132, 0.9610111713409424, 0.005089409649372101, -2.1788599491119385, 1.6688874959945679, 1.6725577116012573, -0.21724607050418854, 0.05669437348842621, 1.0601104497909546, -2.1893913745880127, -0.04962706193327904, 0.18011140823364258, -0.759353518486023, 3.9837443828582764, -0.04882034659385681, 0.21620219945907593, -2.414177656173706, 1.0059622526168823, -4.83367395401001, -0.07632925361394882, 0.5728880167007446, 0.6811671257019043, 1.5689111948013306, 0.3158716559410095, 1.5089997053146362, 0.183325856924057, -1.6403363943099976, 0.39004409313201904, 0.9153616428375244, -3.880620241165161, 1.0868980884552002, 2.5015246868133545, -0.08329195529222488, -2.98786997795105, 4.800540924072266, -2.257662534713745, -1.562327265739441, 0.09645635634660721, 1.340569257736206, 2.5625851154327393, -0.18364934623241425, -3.3273487091064453, 2.7808187007904053, 0.8487035632133484, -3.1110644340515137, -1.3022347688674927, 1.4131736755371094, -0.42369118332862854, 0.009697241708636284, 0.343265563249588, -0.05399162322282791, -1.2721017599105835, -0.2758420407772064, 2.1389777660369873, 0.029310282319784164, -0.03653839975595474, 1.3441956043243408, -4.856528282165527, -0.023062918335199356, 1.3222324848175049, 1.931708812713623, -0.31321102380752563, 0.0451318621635437, 2.6345200538635254, 3.153890609741211, 3.4831483364105225, -4.966250896453857, -0.01805453561246395, 0.37101948261260986, 4.116756916046143, 3.785494565963745, -0.07312143594026566, -1.0574214458465576, -0.14457663893699646, -1.2423512935638428, 0.7316392064094543, 3.34414005279541, 0.0859287679195404, 0.9625951647758484, -3.3210883140563965, -0.017718495801091194, -1.3534233570098877, 3.3236446380615234, -1.864041805267334, 1.065116286277771, 4.326630592346191, 0.3213310241699219, -0.6445366740226746, 0.012175720185041428, -2.1233904361724854, -1.299106478691101, 2.8706777095794678, -0.22316955029964447, -1.5773388147354126, 1.2574143409729004, 0.38731464743614197, 0.00048474944196641445, 0.8827580213546753, 0.10486824065446854, -3.2630937099456787, -5.523557662963867, -0.09417921304702759, 0.27513211965560913, -0.06297589838504791, -3.316230535507202, -0.003485947847366333, -0.07175519317388535, 0.02720382995903492, -1.2957587242126465, -4.509665012359619, -0.04986529052257538, -3.204846143722534, 1.3022390604019165, -1.8286229372024536, -5.105334758758545, -0.10378057509660721, 0.7800016403198242, 2.6658287048339844, 1.9848462343215942, 0.4744812548160553, 4.1327924728393555, -0.014612378552556038, -7.313760280609131, 2.1371853351593018, 7.900040149688721, -5.250253200531006, -2.1252236366271973, -3.1395368576049805, -0.11030407249927521, -1.4837487936019897, 0.5884338021278381, -3.4084434509277344, 2.07879900932312, -1.1533821821212769, 0.10196706652641296, -2.3694546222686768, 0.022593529894948006, 1.3888355493545532, -0.1320686936378479, -0.5552791357040405, 1.705803394317627, -1.0698072910308838, 1.6799978017807007, -0.22772477567195892, 0.0167966578155756, -1.0750205516815186, 0.055172763764858246, -2.2837483882904053, -2.727886438369751, -1.174785852432251, 0.027411365881562233, -0.04275042563676834, 0.3418484926223755, 1.1066559553146362, 0.0016079031629487872, 0.587382435798645, -0.7186939120292664, 0.5957318544387817, -0.05019468814134598, -0.04337684437632561, -2.3911619186401367, 1.0694679021835327, -2.2596826553344727, -0.036029230803251266, 1.6170296669006348, 0.8924394845962524, -4.017989635467529, 0.06103130057454109, -4.331655025482178, 0.042240116745233536, -0.16927480697631836, -0.23195305466651917, -4.572638511657715, -3.65631365776062, -2.4482262134552, -4.26369047164917, -0.04339871555566788, -0.5072091817855835, 0.2477593719959259, 0.10617617517709732, 1.4262170791625977, -2.870847463607788, -0.4859750270843506, -1.1679507493972778, 0.009124968200922012, -2.384899377822876, 0.8379384875297546, -0.18837547302246094, -5.167490005493164, -0.20302805304527283, -5.3296098709106445, -1.9669984579086304, -0.034058984369039536, 0.6809467673301697, 0.006417459342628717, -1.8198755979537964, -1.903813362121582, -0.3008233904838562, -0.009451227262616158, 0.14507956802845, 0.9788721203804016, 2.0102264881134033, -0.015211988240480423, 0.5226830244064331, -2.255427122116089, -0.9999268054962158, 0.010402105748653412, 2.087770700454712, -0.7639535665512085, -1.0707676410675049, 2.2985551357269287, -0.05708008259534836, -0.5494287014007568, 0.40683984756469727, -3.1769299507141113, -2.4809231758117676, -0.1145753413438797, 0.05968008190393448, 3.434683322906494, 0.48463284969329834, 4.437038421630859, 1.0266894102096558, 0.3315631151199341, -4.020252227783203, 0.16344673931598663, -0.3292554020881653, 2.297133207321167, 0.44183531403541565, -0.04455764591693878, 0.9126893281936646, 1.8811509609222412, 1.4518799781799316, -0.039283521473407745, 0.018378375098109245, -0.4951189458370209, -1.9260503053665161, -3.0019028186798096, 0.4909091293811798, -0.1784827560186386, -3.7246947288513184, -0.12724623084068298, 1.8296632766723633, -0.14276424050331116, 0.696954607963562, -2.9599766731262207, 0.9775194525718689, -0.2017606943845749, 0.054547928273677826, 0.9492349028587341, 1.6078020334243774, 0.1441289782524109, -3.80619478225708, 0.33202987909317017, 1.1964579820632935, 0.08126316964626312, 0.9195190668106079, -2.6264185905456543, -4.304364204406738, -0.865029513835907, 0.018785303458571434, 2.179975986480713, -2.705031633377075, -1.2532086372375488, -0.6381999254226685, -1.3262563943862915, -0.1369868814945221, -1.7797966003417969, 0.4326093792915344, 1.978096842765808, -0.45693761110305786, 3.5616629123687744, -0.4969246983528137, -0.05322872847318649, -9.402904510498047, 2.326448917388916, 0.8499653339385986, -0.33872663974761963, -1.5819722414016724, -1.0735386610031128, -1.1448103189468384, -0.16315357387065887, 2.8696341514587402, 2.0865490436553955, -0.9551811814308167, 0.23980677127838135, -4.802067756652832, -2.417289972305298, -0.6594606041908264, 0.017642034217715263, 3.886561155319214, -0.06044613569974899, 0.048805516213178635, -2.0365099906921387, -2.094542980194092, 0.14058198034763336, 0.12923932075500488, -7.891641616821289, 0.13304811716079712, 0.12916317582130432, 4.416408538818359, 2.4274277687072754, -1.0503064393997192, 0.2653270363807678, -9.421934127807617, -2.6911873817443848, 9.48720645904541, -1.34822416305542, 0.2354079931974411, -1.3163297176361084, -9.515518188476562, -0.38390135765075684, -0.6089572906494141, -4.025317668914795, 0.13436049222946167, -6.423158168792725, 0.25845107436180115, 3.3318469524383545, -1.1395379304885864, 2.191960096359253, 0.49016985297203064, -0.06829406321048737, 1.008565068244934, 3.810457706451416, 2.3541364669799805, 1.3134845495224, 2.5869882106781006, 0.46835681796073914, -1.347686767578125, 0.034371472895145416, 2.176614761352539, -2.006620168685913, -4.762828826904297, -2.6658987998962402, 0.5788984894752502, -2.9522545337677, 1.131205439567566, -0.08575805276632309, -1.1237705945968628, -0.14135779440402985, 2.2118232250213623, -0.6012287139892578, -2.0766360759735107, -0.12938207387924194, 0.00034482471528463066, 1.4189393520355225, 0.5632156729698181, 0.11510389298200607, -2.159998893737793, 1.3650346994400024, -0.21300576627254486, 0.07433466613292694, -0.14573164284229279, 1.9204720258712769, 0.64508056640625, 2.0854909420013428, 0.13552707433700562, 1.303725004196167, 0.127030611038208, -3.542250156402588, -4.506371021270752, -1.722674012184143, -0.08506229519844055, -4.985116958618164, -0.6384981274604797, -1.5389114618301392, 1.4604934453964233, 3.3978257179260254, -3.9174840450286865, 0.062014512717723846, 0.3457147181034088, -1.4752224683761597, -0.2731618881225586, -2.0487751960754395, -0.6584140062332153, -1.433257818222046, 2.122112989425659, 0.2131626307964325, -0.666118860244751, 1.9747586250305176, 1.547492265701294, 0.17462702095508575, 1.0795459747314453, -0.22440043091773987, 5.85295295715332, 0.04471341520547867, 1.0863711833953857, 0.021164217963814735, -1.7303420305252075, 2.1658520698547363, 1.4438908100128174, -0.12468928098678589, -0.1002923920750618, 0.8121441602706909, -1.1001200675964355, -0.021730417385697365, 4.596973419189453, -1.1035102605819702, -0.35888755321502686, 0.07727055996656418, -1.0773948431015015, 0.6848329305648804, -1.8187360763549805, 0.8507781624794006, -0.027217263355851173, -3.08092999458313, -2.2579126358032227, 1.05515456199646, -3.9074909687042236, -1.6609628200531006, 0.06177530437707901, -0.9271131753921509, 2.652872085571289, 2.1143906116485596, -2.5471973419189453, 0.12051144242286682, 3.548434019088745, 0.061326511204242706, 2.1725289821624756, 1.1129966974258423, -3.0565309524536133, 0.03189391642808914, 0.8627374768257141, -1.1487877368927002, 2.528595209121704, -0.17817486822605133, -1.6267924308776855, -0.33176276087760925, 0.2557910978794098, 1.673934817314148, 1.7876521348953247, 0.29964593052864075, 0.1128789633512497, -0.17064769566059113, -1.8918676376342773, -0.06579900532960892, -3.6653192043304443, -1.992782711982727, -0.09494133293628693, 0.08570723980665207, 0.042821004986763, -0.9982960820198059, 0.2628468871116638, -0.017140690237283707, -2.4678289890289307, -1.0871517658233643, -1.0850887298583984, 0.07267309725284576, -2.6544973850250244, 0.1761166751384735, 2.6777801513671875, -1.3506168127059937, 0.08287690579891205, 1.8407652378082275, -2.502974033355713, -1.4988845586776733, -2.2617814540863037, -1.4298099279403687, -0.04529263824224472, -0.11561617255210876, -0.7669699192047119, 0.570926308631897, 0.9894706606864929, -4.298088550567627, 2.104137659072876, -0.02532641775906086, -0.45473721623420715, 3.8390538692474365, -2.8905375003814697, -1.9171117544174194, 0.15713898837566376, 2.829596757888794, 2.1626789569854736, 0.17808885872364044, -0.002560568507760763, 0.8870229125022888, -0.6400948166847229, 0.738675594329834, -1.6321310997009277, 4.237285137176514, -0.6805627942085266, 0.006518751382827759, -2.0792853832244873, 0.0871039405465126, 2.125133991241455, 0.5160290598869324, 3.968686819076538, -0.12615281343460083, -0.02254888229072094, 2.0966615676879883, 0.15727393329143524, -0.13101604580879211, -0.2891363203525543, -2.223264455795288, -1.6546177864074707, -0.10963015258312225, -5.137292385101318, -0.7596781849861145, 1.9948840141296387, 2.5761971473693848, -0.09647605568170547, -3.699336051940918, 1.173836588859558, 0.06630416214466095, 0.7922718524932861, -1.3089340925216675, 0.14611361920833588, -2.6995761394500732, 0.8478983640670776, 1.32139253616333, -0.6376848220825195, -3.880035877227783, 1.1581928730010986, 0.0892125591635704, -10.650699615478516, 4.172144412994385, 2.0447845458984375, -8.818672180175781, -0.3203970193862915, -3.427598714828491, -4.21055793762207, -0.14521373808383942, 19.770994186401367, 2.6261065006256104, -9.05942440032959, -0.3615793287754059, -8.97315788269043, 1.2465758323669434, 0.3114534318447113, -0.11002279818058014, 11.83703327178955, -0.11486093699932098, -2.9643096923828125, 3.0831663608551025, -0.2021213322877884, 0.020409511402249336, 0.15402087569236755, -22.761001586914062, 0.6871107816696167, 0.13361842930316925, 7.904292583465576, -4.0433502197265625, 0.1532176434993744, 0.14415343105793, -26.795589447021484, -9.897004127502441, 27.233882904052734, -0.2180585414171219, 0.16001346707344055, 2.809107780456543, -7.520209312438965, 1.8187694549560547, -2.628302812576294, -8.9266357421875, -0.1112571507692337, -17.693096160888672, 2.6857776641845703, 3.7412614822387695, 0.7699207067489624, 0.1471383422613144, -0.9097888469696045, -0.0668298751115799, 0.557347297668457, 2.714338779449463, 4.356672763824463, 2.574467420578003, -0.9573846459388733, 1.106753945350647, 0.2378842979669571, 0.1868966817855835, -3.6115870475769043, 1.0784263610839844, 0.905779242515564, 1.4432562589645386, -2.659501075744629, 3.1670258045196533, -0.5506381988525391, 0.090610571205616, 2.6955490112304688, -0.03729750216007233, -0.7132013440132141, -0.7383551597595215, 1.606337308883667, 0.08235351741313934, -0.0630953311920166, 1.304422378540039, 1.3646867275238037, 0.05366557464003563, 1.8676912784576416, 0.17391829192638397, 0.503860592842102, 0.05134165659546852, -2.552429437637329, 3.1929311752319336, -2.6005313396453857, 1.0490492582321167, -0.0196309182792902, -4.519096374511719, 0.5996509194374084, 0.6196375489234924, -0.38134098052978516, -2.1179888248443604, 0.035112135112285614, 0.5199580192565918, 3.8110268115997314, 2.4580297470092773, 0.4201117753982544, -2.5195772647857666, 0.655775249004364, -0.07216160744428635, 5.317642688751221, -3.377629041671753, -2.840174674987793, -0.11928300559520721, 2.4130842685699463, 0.6752687096595764, -0.2652527987957001, 0.08455139398574829, -1.946787714958191, 2.739398717880249, 2.643078088760376, -0.8641744256019592, 1.024149775505066, 3.1435365676879883, 0.05027652159333229, 0.07431134581565857, -1.6561442613601685, 0.06338264048099518, -5.989752769470215, -1.889641284942627, -1.4136508703231812, -0.0563514307141304, -0.10787981003522873, -1.8609135150909424, 1.4866200685501099, -0.059741079807281494, -0.041648030281066895, -0.7961902022361755, 0.8726514577865601, -0.09155236184597015, -1.2491379976272583, -3.192941665649414, -3.2442574501037598, 0.6438676714897156, -0.13202685117721558, 0.043641649186611176, -1.950432538986206, 0.41503942012786865, -1.925901174545288, 0.8720862865447998, -0.026959547773003578, 1.1974220275878906, -2.147887945175171, -0.10417646914720535, -0.8348544239997864, -2.334667444229126, 4.090655326843262, -0.024020954966545105, -2.850536823272705, -0.03505446016788483, -1.0116533041000366, -3.676685094833374, 0.2770690619945526, -1.1778032779693604, 0.06733706593513489, 0.2894875109195709, -5.524655818939209, 1.3118327856063843, 2.92114520072937, 2.740316867828369, -1.2031629085540771, 2.255570650100708, -1.3182038068771362, -0.06214308738708496, 1.070867657661438, 0.004378628451377153, 1.497881531715393, -3.058427572250366, -3.065462589263916, 0.10989464819431305, 0.12103652954101562, -0.05632607638835907, 1.0437469482421875, -0.21580740809440613, -1.4627588987350464, 0.5048538446426392, 1.3860613107681274, -0.05492401123046875, 1.3314306735992432, 2.078169107437134, -0.716698408126831, -2.011183738708496, -0.06469342112541199, -2.251692533493042, 6.072530269622803, -2.9192988872528076, 1.027457594871521, 2.3005309104919434, 0.04716568812727928, -0.6184747815132141, 2.6841037273406982, 0.2834203541278839, 0.7324619293212891, 1.3355730772018433, -1.5558947324752808, 0.02064032293856144, -2.3991715908050537, 1.0516207218170166, -1.415799617767334, -1.1116752624511719, -1.2389912605285645, -2.552273988723755, 1.5645252466201782, -0.1550765484571457, -1.2725753784179688, -1.4322278499603271, 1.0575920343399048, -1.0078527927398682, -1.3847036361694336, 0.21654969453811646, -0.8922707438468933, -0.04896830767393112, -1.1495779752731323, 0.05067378282546997, -0.8220613598823547, 2.223778486251831, -2.4891810417175293, 0.025572527199983597, 0.002942814491689205, -3.160391330718994, -4.774785995483398, 0.08366627991199493, -1.2358648777008057, -2.338907241821289, 0.1329289823770523, 0.12400971353054047, -2.606534957885742, 0.1646277904510498, -0.9323899745941162, 1.0861976146697998, 0.05685748532414436, -2.12923264503479, -1.2764874696731567, 2.251235246658325, 0.9300064444541931, 1.889451503753662, -0.015875961631536484, -3.740093231201172, 2.2231318950653076, -0.16067372262477875, 0.233102947473526, -2.235077142715454, 1.0152833461761475, -0.023520901799201965, 0.3463113307952881, -2.543170690536499, 1.1296725273132324, 2.456390857696533, 1.5141724348068237, -3.4359495639801025, 0.9654189944267273, 0.08609696477651596, -0.6612967848777771, 0.04534153640270233, 2.51733660697937, 3.938218355178833, 1.0936896800994873, 2.8971028327941895, 1.9007365703582764, -0.041739095002412796, 1.5833475589752197, -0.06005224213004112, 2.332841157913208, 1.9147156476974487, 1.7835474014282227, -0.1326153725385666, -0.000642480852548033, -1.9177473783493042, -2.102205753326416, 0.01868792064487934, -2.7000787258148193, 2.890702724456787, -2.8027141094207764, -0.013187477365136147, -0.2831628620624542, 3.3048102855682373, 3.4517195224761963, 0.2494165599346161, -0.049184542149305344, 0.5077685713768005, 2.1654245853424072, 1.2638157606124878, -0.09679531306028366, -2.1209614276885986, 0.035724785178899765, 0.5038562417030334, 0.6805031299591064, -0.49165862798690796, 0.24336650967597961, 3.0878400802612305, -0.7560850977897644, 0.028608154505491257, 1.4548693895339966, -3.1703789234161377, -1.9987943172454834, 1.7720783948898315, -5.226022243499756, 2.2197184562683105, -0.15733203291893005, 0.09811723232269287, -1.6894121170043945, -3.641942024230957, 1.5077422857284546, -4.256042957305908, 0.15658073127269745, -3.649411916732788, 0.8144802451133728, 0.04557565599679947, -1.6073611974716187, 0.09531503170728683, -3.921353816986084, 1.0345851182937622, -3.2492711544036865, 0.03143222630023956, -0.10296174138784409, -1.7267452478408813, -1.5375051498413086, 0.006538111716508865, 1.2007964849472046, 0.742326021194458, 2.6788339614868164, -0.12165802717208862, -1.9085885286331177, -0.4305453300476074, 2.4252161979675293, -2.686948299407959, -0.034565821290016174, -4.579241752624512, -1.7743092775344849, -2.050287961959839, 0.9498867988586426, 3.269233226776123, 0.032950371503829956, -0.15833748877048492, 0.32214590907096863, 0.2938233017921448, 1.27812922000885, -0.7611960172653198, -0.06744160503149033, -0.0322776660323143, -2.45633864402771, -4.269891262054443, -1.3763705492019653, 2.46754789352417, -2.177506685256958, -0.34243136644363403, 0.018225517123937607, 0.07790722697973251, -1.41892671585083, 0.5016045570373535, 1.597751498222351, -2.959735631942749, -0.6131052374839783, 2.1988658905029297, -2.033163070678711, 0.10110241919755936, -0.9253275394439697, 0.1323300004005432, -3.972419023513794, 0.16546188294887543, 0.6127406358718872, 0.22379717230796814, 0.04715642333030701, -0.7185691595077515, 0.0722258985042572, -0.09462462365627289, 7.234108924865723, 1.7148592472076416, 3.462289810180664, -0.09240058809518814, -3.2545597553253174, 2.2145702838897705, 1.9161362648010254, 3.44580078125, -0.1671806126832962, -7.414305210113525, -0.5519577264785767, -1.1738334894180298, -3.1594064235687256, -2.127650499343872, 0.16853436827659607, 1.1206616163253784, -0.0201560091227293, -3.428323984146118, 1.7599979639053345, 0.35376042127609253, 0.3548363447189331, -0.06607551127672195, 1.2239571809768677, -3.0887651443481445, 1.3453830480575562, -0.2595880925655365, 0.22882428765296936, -3.688167095184326, 0.2907525300979614, -0.17177021503448486, -4.692188262939453, -1.4140071868896484, -3.6062495708465576, -0.8415313959121704, 1.072759985923767, -0.8166370987892151, -1.0109236240386963, 0.014924095943570137, -0.02532386966049671, 0.1394226849079132, -1.2186191082000732, -0.34747523069381714, -2.165825128555298, 0.13619506359100342, -0.05427680164575577, -1.8560693264007568, 1.1181968450546265, -0.1461663395166397, 0.5206009745597839, 1.721382737159729, -1.3977793455123901, -0.09172265231609344, 0.44136714935302734, -0.8244890570640564, 0.9282750487327576, 1.1574382781982422, -0.3073233366012573, -0.6453670859336853, 1.7557464838027954, 1.3856315612792969, 0.27912792563438416, -0.15811380743980408, 0.051123909652233124, -0.28886544704437256, -1.5387723445892334, -0.15716637670993805, 0.8517088294029236, -1.2458714246749878, -1.1738923788070679, 0.11471795290708542, -4.348330020904541, 2.3807454109191895, 3.9667484760284424, -0.30735939741134644, -2.301898956298828, -2.2330217361450195, -2.3671512603759766, 0.0037307338789105415, 2.9827945232391357, 1.9836764335632324, -10.053661346435547, 0.8838856220245361, 3.2808046340942383, 1.0729408264160156, 0.25260603427886963, 0.008784342557191849, 2.890105962753296, -0.10094960778951645, 0.9896935224533081, -1.0012683868408203, 1.4419410228729248, -0.10562507063150406, 0.08560603857040405, -2.658381462097168, 0.49985384941101074, 0.02233567275106907, 1.5132756233215332, 0.5069981813430786, 0.442454069852829, 0.1495743840932846, -3.9393014907836914, 1.989071249961853, 6.658928394317627, -0.6351296901702881, 0.1232629120349884, 0.9685987830162048, 1.7498830556869507, 2.178326368331909, -1.661047339439392, -0.09756746888160706, -0.07684428244829178, -0.829537034034729, 2.9605395793914795, 3.0367321968078613, 4.335738658905029, -3.3029701709747314, -5.622117042541504, -0.0920160710811615, -1.4523866176605225, -1.7601609230041504, -1.7045964002609253, 1.038782000541687, 1.1877599954605103, -2.4757251739501953, -1.0922154188156128, 0.01494453102350235, -4.677245140075684, -0.3228076994419098, 0.4976818859577179, -2.2592389583587646, -2.2740557193756104, 1.4654369354248047, -1.8583965301513672, 0.10554897040128708, -1.3712282180786133, 0.06179759278893471, 3.523643732070923, 2.349303722381592, 3.6365063190460205, 0.13086356222629547, 0.09282711893320084, 2.271501064300537, 1.0493117570877075, -0.01797434873878956, -0.8858587741851807, -2.2228310108184814, -2.70468807220459, -0.00492553785443306, 0.6692345142364502, 3.1630136966705322, 2.5040409564971924, 0.9666892290115356, -0.01809035800397396, -4.371652126312256, -1.2312235832214355, 0.7853615880012512, -0.03714090213179588, 3.6334056854248047, 0.12901349365711212, 1.3621822595596313, -2.2669429779052734, -0.535766065120697, 0.06892471760511398, -1.5684689283370972, -1.3791364431381226, 0.012801437638700008, 4.3884711265563965, 2.684891700744629, 1.8330546617507935, -2.9957520961761475, 1.4041221141815186, -1.4182631969451904, -1.4003711938858032, 0.018167324364185333, -1.608486294746399, -1.8289357423782349, 3.4667043685913086, -0.3196461796760559, -3.9064290523529053, 0.18899273872375488, -0.4527699649333954, -0.15858592092990875, -2.2480547428131104, -0.13579794764518738, -1.8954089879989624, 1.4395884275436401, 2.9592816829681396, -0.035731296986341476, -0.11802126467227936, 0.6191231608390808, 1.8854864835739136, 0.18330907821655273, 3.3618617057800293, -4.839234352111816, -1.6852213144302368, 0.21698464453220367, -0.054641399532556534, -3.6526269912719727, -0.7493515610694885, -1.0398069620132446, 0.11237714439630508, -0.038893911987543106, 0.9981253743171692, 3.7345268726348877, 0.30167028307914734, 0.3634973466396332, 0.06979573518037796, -0.8218016624450684, -3.4252424240112305, -0.20784473419189453, -2.0859758853912354, 0.3596792221069336, 0.5257786512374878, -0.07208129018545151, 0.8135342597961426, -0.19303058087825775, -0.28563398122787476, 2.336232900619507, 0.8615419864654541, 0.68135005235672, -3.191901683807373, -0.12111619114875793, -4.2060370445251465, -2.8421123027801514, 1.438427448272705, -3.703808307647705, -2.7502431869506836, -2.6412200927734375, -1.5236395597457886, -0.05423218011856079, -0.9630153179168701, -0.1842235028743744, -5.901776313781738, 1.0037498474121094, -4.662607669830322, -0.05260304734110832, -0.18116100132465363, 1.956405758857727, -1.4381076097488403, 0.03267361968755722, 1.5102282762527466, 0.538490355014801, -1.0181461572647095, -0.05386745184659958, -1.49051034450531, -2.5759875774383545, 0.22167423367500305, -1.32615065574646, 0.04114333540201187, 0.583914577960968, -1.2984625101089478, 0.5964651703834534, -0.2985512912273407, 0.9743791818618774, 0.005857087671756744, 3.7496111392974854, -0.04955688863992691, 1.9393185377120972, 2.592055559158325, 1.6694141626358032, -3.0314080715179443, 0.17298629879951477, -0.28547462821006775, 1.1315157413482666, -0.07892091572284698, -3.1011550426483154, -0.05510995164513588, 3.5220022201538086, 0.10876122862100601, -0.10879281908273697, 0.08614281564950943, -4.771648406982422, -4.021225452423096, -4.257950782775879, -0.16434958577156067, -3.118973731994629, 1.8487235307693481, 0.02677706442773342, -1.15294349193573, -0.10972625762224197, 0.3438267707824707, 0.29417091608047485, -0.2617258131504059, 0.014901503920555115, 0.10084899514913559, -0.6958728432655334, -0.2596915662288666, -0.15109391510486603, -2.154114246368408, 0.12324739992618561, -3.7989368438720703, 0.04999375343322754, 1.6179693937301636, -4.271547317504883, -2.7952795028686523, -2.1695077419281006, -0.07168973237276077, 0.22184640169143677, -0.17331919074058533, -1.2219489812850952, -1.8766924142837524, 4.287213325500488, -0.09948565810918808, -0.6499738693237305, -2.8959157466888428, -3.965752124786377, 3.0902860164642334, -1.3836495876312256, 1.0027668476104736, -0.09084218740463257, -1.610779881477356, -0.22619739174842834, -0.4209173917770386, -1.722322702407837, -1.887692928314209, 0.2960335910320282, -1.7792736291885376, 0.0972864180803299, 0.09169743955135345, -0.525524377822876, -3.286393642425537, -1.056437373161316, -2.778578519821167, -1.970960259437561, 1.66920006275177, 0.1925564408302307, -0.05752408131957054, -0.02515009418129921, -0.6060436367988586, -1.3245102167129517, 1.2533942461013794, 0.04878583922982216, -0.18511362373828888, -3.0889389514923096, 0.07243917137384415, -0.2105463594198227, 1.4382359981536865, 0.07509307563304901, -0.9329200387001038, -0.2575589716434479, -0.9779195785522461, -3.926746368408203, 3.2482798099517822, 0.1356223225593567, -0.1965133547782898, 1.80886971950531, -2.4915127754211426, 2.177225351333618, -0.878163754940033, -2.049485206604004, 0.1646878868341446, -0.39352965354919434, -0.22106961905956268, 0.6081852912902832, -1.2370166778564453, -3.9504685401916504, 2.326991081237793, -0.03666190057992935, 0.7445563673973083, -2.7014193534851074, -1.4993196725845337, 0.3573852777481079, 0.8160574436187744, -0.7287817001342773, -2.0026090145111084, -0.04741968587040901, 6.161082744598389, -0.717225968837738, -3.5630619525909424, 0.16094817221164703, -9.51900863647461, -0.9230464100837708, 0.44819802045822144, 0.03792311251163483, 1.4514381885528564, 0.05505617335438728, -5.189334392547607, -1.9863734245300293, 0.6709527969360352, 0.0344662070274353, -0.0687301903963089, -5.813435077667236, 0.7131922841072083, -0.003575615119189024, 0.8166270852088928, 0.19875286519527435, 0.48368239402770996, 0.03689916431903839, -0.29059746861457825, -5.433926105499268, 6.668202877044678, -1.8279695510864258, 0.024991555139422417, 1.3366276025772095, -3.2608561515808105, 0.3004961609840393, -1.540156364440918, -2.684518575668335, 0.14652858674526215, -5.568606853485107, -1.1499842405319214, -0.3695337772369385, -1.0645415782928467, 0.0632152259349823, -0.1629393994808197, -0.11054155975580215, -0.04436526447534561, 3.1221659183502197, 0.5766952633857727, 2.0972421169281006, -2.937358856201172, 1.1415612697601318, -0.10674475878477097, 0.014195140451192856, 1.2128723859786987, 2.004984140396118, 1.2845520973205566, -1.4923357963562012, 1.3610539436340332, 0.631340742111206, 0.014914464205503464, 0.06768308579921722, -1.768352746963501, 0.0027534118853509426, 3.144427537918091, -1.7249947786331177, 2.55450439453125, -0.009350292384624481, -0.12247638404369354, -0.8820075392723083, -1.7798230648040771, -0.09909206628799438, -0.6676123738288879, 1.4728729724884033, 3.9578633308410645, -0.04024501517415047, -2.448539972305298, -1.7456167936325073, -3.2490005493164062, -1.6654764413833618, -0.05478236824274063, -4.0197930335998535, 1.120229721069336, -0.16760048270225525, -1.5020403861999512, -2.1324820518493652, -0.03468063473701477, 1.5179641246795654, 2.6185550689697266, 1.7261744737625122, 0.14229117333889008, 1.1657027006149292, -1.5341463088989258, 0.04424673691391945, -3.1733710765838623, 0.695892333984375, -0.4970892667770386, 1.2060444355010986, -0.8095564842224121, 0.4166066646575928, -5.218440532684326, -0.04494485631585121, -0.158901184797287, -2.0733420848846436, -4.199878215789795, 2.8418941497802734, 0.7548403143882751, 1.5010132789611816, 3.4799866676330566, 0.05850549787282944, 2.3809964656829834, 0.03179003670811653, 0.4992844760417938, -0.6806381940841675, 2.092435598373413, 0.019473765045404434, -0.10747341811656952, -1.3062764406204224, 0.22112707793712616, -0.0017072964692488313, 1.324169397354126, -1.0081958770751953, -1.4903048276901245, 0.008819056674838066, -0.4556260108947754, -2.352038621902466, 0.4278905391693115, 2.5041282176971436, 0.019335687160491943, 2.0496485233306885, -3.019270896911621, -6.632395267486572, -0.7868929505348206, 3.4465627670288086, -0.10030268877744675, -2.4741387367248535, 0.6015086770057678, -0.9198600053787231, 2.3520352840423584, 1.5264301300048828, 2.7525296211242676, -0.03926902636885643, -4.189690113067627, 1.6016427278518677, -2.094809055328369, 2.0070884227752686, -0.432913213968277, -4.33551025390625, -1.6179088354110718, 0.2243862897157669, -3.096942901611328, 4.710825443267822, -1.5539886951446533, -0.14460670948028564, 0.16893479228019714, 5.671036720275879, -1.2058948278427124, 0.03076813369989395, -2.196349859237671, -0.028640545904636383, -2.297473907470703, 2.2333033084869385, 2.10994553565979, 0.1613738238811493, -0.007749475538730621, -1.1548587083816528, -2.803658962249756, -0.08659203350543976, 1.7334966659545898, -2.7715277671813965, 3.242082357406616, 0.13415582478046417, 2.504016876220703, 4.357205390930176, 1.2357946634292603, 0.3612978458404541, -0.0019369219662621617, -1.368654727935791, 0.0855870395898819, -0.7635177969932556, 2.930302143096924, -0.32887932658195496, 0.005921987816691399, -1.732435941696167, 1.8022111654281616, -1.4237195253372192, 1.0251679420471191, -7.835086345672607, 5.766938209533691, 0.019941560924053192, 6.468393802642822, -1.7147526741027832, 3.5121734142303467, -0.2706432640552521, -2.6544764041900635, -0.599700927734375, 0.05123889073729515, -0.01788657158613205, 4.041601181030273, 1.4443174600601196, -4.2152910232543945, 1.6435147523880005, -2.838303327560425, 0.7247225642204285, -2.231431484222412, -0.027938183397054672, 0.8370702266693115, -0.03331734612584114, 2.6342520713806152, -0.9257950782775879, 3.0042526721954346, 0.22647392749786377, -0.04194880649447441, -1.0131322145462036, 1.9670062065124512, 0.12826648354530334, -0.6964719891548157, 3.1149237155914307, -1.4242677688598633, 0.36336782574653625, -0.1541789472103119, 0.004070923663675785, 2.1059327125549316, -0.053269971162080765, -0.0022820974700152874, 3.082486152648926, -2.5973100662231445, 0.37493985891342163, 1.127203106880188, -2.472736358642578, 0.06939749419689178, -2.1004347801208496, 1.8698766231536865, 0.07767418771982193, 3.301184892654419, -1.03984534740448, -1.3537269830703735, 0.01197742111980915, -1.1755989789962769, -1.584844708442688, 1.6610252857208252, 0.49209481477737427, 1.0902540683746338, 0.22740329802036285, -0.21290291845798492, -0.11341080069541931, -2.0421359539031982, 2.126303195953369, 2.7167701721191406, -1.239342212677002, 2.837005138397217, 0.8147746324539185, 1.5521551370620728, 0.004766733851283789, 2.157787561416626, -0.08422362804412842, 2.3319497108459473, -4.804244518280029, -1.2313604354858398, -0.008385502733290195, 0.04019026830792427, -3.6270298957824707, 2.3524036407470703, 0.08300695568323135, -0.6789163947105408, -1.3689794540405273, 0.7383255362510681, -0.0008118688128888607, 0.45275363326072693, 1.4448679685592651, -1.599036455154419, 2.805239200592041, -0.00935335736721754, 3.427917718887329, -0.889043390750885, -0.6784108281135559, 1.2416414022445679, 1.5611780881881714, -0.11022449284791946, -1.7255222797393799, 0.08664359897375107, 2.8966658115386963, -1.3059277534484863, 2.0194437503814697, -0.8080236911773682, 0.14020131528377533, -5.046926498413086, 0.8458480834960938, -2.1772234439849854, -8.27772045135498, -1.9828065633773804, 1.5166116952896118, -1.3194808959960938, -0.14162716269493103, 1.5814510583877563, -1.1001967191696167, -4.251984596252441, 1.5819724798202515, 3.0441415309906006, 2.059414863586426, 2.525012969970703, 0.023639850318431854, 1.8491289615631104, -0.05582046881318092, -1.8707464933395386, 2.127467632293701, -0.18981583416461945, 0.029690833762288094, 0.12029870599508286, -1.5724053382873535, -0.11466915160417557, -0.02133120596408844, 2.1578361988067627, -0.5649542808532715, 1.2338014841079712, 0.09993389993906021, -5.119887828826904, -1.7440218925476074, 4.028609752655029, 3.3833935260772705, 0.004401530139148235, -2.253600835800171, -3.9699010848999023, 0.06967762112617493, -1.6860401630401611, -7.289165496826172, -0.0062604802660644054, -3.803398370742798, 1.6604385375976562, 1.272608757019043, -1.33244788646698, 0.6735987067222595, -1.6977519989013672, 0.14978234469890594, 2.333921194076538, -1.4066896438598633, -1.4769036769866943, -3.6211891174316406, 3.1854498386383057, -0.1359419971704483, -3.1632497310638428, -0.08846478164196014, 4.447514057159424, -2.1580631732940674, -2.7099392414093018, 0.7888877391815186, -4.644357681274414, -0.6223804950714111, -0.3670046925544739, 0.013374662958085537, -0.2798656225204468, 0.06735292077064514, -2.0733795166015625, -3.2886173725128174, -3.5043981075286865, 0.09621843695640564, 0.1663348227739334, -5.102715015411377, 1.5574653148651123, 0.2841855585575104, -0.5549775958061218, -1.604489803314209, 0.5619669556617737, 0.30468887090682983, -5.342679500579834, -1.5081651210784912, 1.1821781396865845, 1.1817574501037598, -0.019874686375260353, 0.2666494846343994, -9.71358585357666, 1.0046404600143433, -2.189495086669922, 1.2374249696731567, 0.005700299981981516, -3.205448627471924, -1.9853721857070923, -1.3818279504776, -1.2414064407348633, -2.42039155960083, -1.365235447883606, -0.010519091971218586, -2.8674638271331787, -2.400524377822876, -6.264425277709961, -10.910289764404297, 1.7392102479934692, 0.3019163906574249, -1.707116961479187, -0.06256211549043655, 1.474264144897461, -2.7452197074890137, -2.3230838775634766, -0.7527139186859131, -3.4989588260650635, -1.521169900894165, 1.1074795722961426, -0.046640414744615555, -0.5472322106361389, -0.045666638761758804, -0.6943674087524414, -0.760489284992218, 0.8456383347511292, -0.0523555614054203, -0.0013336465926840901, -2.4745547771453857, -1.1968697309494019, 0.15503019094467163, 0.7695079445838928, 0.3130832612514496, -0.12543664872646332, 0.08267917484045029, -1.8135578632354736, -4.18049430847168, 2.1450092792510986, -2.9268112182617188, 0.009039939381182194, 0.7368819117546082, -2.007960796356201, 1.5113798379898071, -1.3338260650634766, -3.0462067127227783, -0.09502802789211273, 1.3092557191848755, -2.2305397987365723, -1.4992562532424927, -2.8496673107147217, 2.168415069580078, -1.8934131860733032, 0.3174899220466614, -4.760260105133057, -1.2785109281539917, 1.9852887392044067, -15.988940238952637, -0.013302318751811981, -0.042522743344306946, 0.4892502725124359, -0.43033644556999207, 1.5959787368774414, -1.164446234703064, -5.682705879211426, -1.3268811702728271, 0.2353891134262085, -0.8241152763366699, 1.5539408922195435, -0.08595351874828339, 1.8693745136260986, -0.06850878894329071, -5.875758171081543, -0.02608964964747429, 2.539764881134033, 0.16505983471870422, 0.04220133647322655, -4.443284511566162, -3.9593536853790283, 0.3795729875564575, -0.43552839756011963, -5.652997016906738, -0.18180842697620392, 0.5980294942855835, -10.826960563659668, -1.044189691543579, 2.5126454830169678, 0.4870002865791321, 0.07752548158168793, 0.7588561773300171, -2.8314318656921387, -0.8568851947784424, 0.2526392638683319, -2.925534248352051, 0.023026619106531143, -2.762768268585205, -1.1276880502700806, -1.0978310108184814, 2.651594638824463, 0.35942238569259644, 1.0617494583129883, 0.01755588687956333, 1.4075653553009033, 0.5357430577278137, -0.4421653151512146, 3.365717887878418, -0.06988324224948883, -1.965111494064331, -3.628953218460083, 0.22498829662799835, -2.6355044841766357, 2.683579921722412, 3.832082986831665, 0.16679105162620544, -0.44470518827438354, 1.2464903593063354, -2.6464149951934814, 0.0766720399260521, 1.1517151594161987, 0.08238843828439713, 2.501098155975342, 3.0866284370422363, 1.6685078144073486, -0.021630309522151947, -0.07380405068397522, -2.0326714515686035, 3.796936511993408, -0.007045998238027096, 1.5864871740341187, -2.394230604171753, 1.2447551488876343, 0.010389206930994987, 1.044283390045166, 3.944899320602417, 3.186289072036743, -1.1456048488616943, -0.12255150824785233, -1.5207382440567017, 0.895176351070404, -3.4551620483398438, 0.3191485106945038, 1.5252141952514648, 0.033401306718587875, 1.469275951385498, 0.32084497809410095, -0.1535693109035492, 1.8854339122772217, 1.151289463043213, 1.273714542388916, -0.1647019237279892, -2.8880741596221924, 1.796690821647644, -1.845393180847168, 2.7065439224243164, -0.5486123561859131, 2.134335517883301, -2.6412527561187744, -0.2761784791946411, -1.734336018562317, 3.391232967376709, 0.5243088603019714, -4.322711944580078, -0.3073902130126953, -0.7071300148963928, 4.13273811340332, -0.0014518878888338804, 1.2120401859283447, -0.13337674736976624, -2.4985504150390625, 1.7661008834838867, -0.8755935430526733, -0.020824776962399483, -0.09290225803852081, -0.9402390122413635, -2.9316282272338867, -0.1387331485748291, -0.09924309700727463, -2.237569808959961, 3.290513515472412, -0.09001095592975616, 1.0335742235183716, 3.5857927799224854, -0.009537694044411182, 1.8622583150863647, -0.08406117558479309, -1.213919997215271, 2.179490327835083, 0.4989197552204132, -2.122929811477661, 2.5810301303863525, -0.08674927800893784, 1.4222521781921387, -0.6007168292999268, 1.208701491355896, -2.1106486320495605, -2.6541216373443604, -1.0399044752120972, 0.20443959534168243, -1.816672921180725, -2.5770950317382812, -4.237998962402344, -3.8250296115875244, -0.4273633062839508, -0.48394420742988586, -0.4731546938419342, -0.2861255705356598, 5.534542560577393, 1.2062445878982544, -6.92681360244751, 1.426550269126892, -6.195777893066406, 1.1625267267227173, -0.324709415435791, -0.018081294372677803, 2.043928384780884, -0.0851668044924736, -3.955913543701172, 0.019608337432146072, 1.0475049018859863, 0.1480625867843628, 0.1240817978978157, -10.058899879455566, 1.2293058633804321, 0.354999840259552, 5.012782096862793, -3.2232871055603027, -0.9675627946853638, 0.4622150957584381, -7.63136625289917, -8.533319473266602, 10.9952974319458, 0.6013568043708801, 0.06389357894659042, 1.4125853776931763, -8.741242408752441, 1.8890894651412964, -0.4516640305519104, -1.503389835357666, -0.10836730152368546, -16.639877319335938, 2.2425482273101807, -1.3607271909713745, 1.064179539680481, 1.5673036575317383, -1.5628572702407837, -0.10339688509702682, -0.6955090761184692, 0.8270794749259949, -0.9324272871017456, 0.9474365711212158, -0.04805958271026611, -0.8371585607528687, 0.5998928546905518, 0.19500644505023956, -0.8851465582847595, -2.5668489933013916, 0.6339700222015381, 1.6405104398727417, -0.9638758897781372, -3.6176249980926514, -0.46210262179374695, 0.05990206077694893, -0.41782671213150024, 0.06654628366231918, -0.5625643730163574, -0.5848446488380432, -1.2608641386032104, -0.15486738085746765, 0.09788372367620468, 1.2763898372650146, 0.34211450815200806, -0.0968029648065567, 1.05607008934021, -1.5917274951934814, 1.4735151529312134, -0.27939456701278687, 0.6486304402351379, 3.213348150253296, -4.064260482788086, 1.8913545608520508, -0.2714259922504425, -2.9632203578948975, 0.1683397889137268, -2.6877477169036865, -2.293471336364746, -2.6896321773529053, -0.026356669142842293, -0.8700175881385803, -0.7859419584274292, 0.5644044280052185, -1.9902147054672241, -3.1034276485443115, -1.4601608514785767, 0.10010804980993271, 0.19589261710643768, 0.1056390330195427, 1.001395583152771, 3.9961462020874023, 2.2589833736419678, -4.992640972137451, 3.741624593734741, -0.026783224195241928, 1.4225740432739258, -6.48417854309082, -0.45738619565963745, -2.0022568702697754, 0.20179973542690277, -4.157129287719727, 1.569881796836853, 0.022250641137361526, 0.5141941905021667, 0.03655315935611725, 3.094869375228882, -0.4888938367366791, 2.6456046104431152, -0.0817672461271286, -0.04018387570977211, -0.1775425672531128, -0.2661686837673187, 0.01371975801885128, -4.133442401885986, -3.344080924987793, 0.29558175802230835, 0.00035630949423648417, 2.849299192428589, -0.749759316444397, -0.20247070491313934, -1.4262967109680176, 0.03190416842699051, -2.0652525424957275, 1.2204132080078125, -1.6398240327835083, -1.7294933795928955, 2.0127604007720947, 0.049508027732372284, -0.5449884533882141, -0.3332362771034241, 1.6291723251342773, -5.984360694885254, -2.1800382137298584, -0.374066025018692, 0.03414345905184746, 1.1631417274475098, 0.5823746919631958, -0.615519106388092, -1.264715313911438, 0.24041227996349335, -0.5936806797981262, -1.2249947786331177, -0.05115397647023201, 1.4104410409927368, -0.17666205763816833, -1.3629810810089111, -0.3037879168987274, -1.0902179479599, -0.24689534306526184, 0.4938986003398895, -0.06359915435314178, -0.6880573034286499, 0.016404690220952034, -0.8181710243225098, -1.164591908454895, -1.0818967819213867, 0.009869515895843506, 0.018896594643592834, -2.057415723800659, 0.7896842956542969, -0.041547950357198715, -0.24407821893692017, -0.8773269057273865, 0.15752357244491577, 0.04660657420754433, -2.9067282676696777, -0.04220924898982048, -0.6242956519126892, 0.4500293731689453, 0.07913057506084442, -0.7261537909507751, -2.4091882705688477, 0.9902303814888, -0.4099113941192627, -0.47679251432418823, -0.13018423318862915, -0.8653028011322021, 0.622544527053833, 0.5087623000144958, 0.8428909182548523, -0.4965919256210327, 0.4236317276954651, -0.05432688072323799, -1.787144422531128, -1.0638132095336914, -5.102029323577881, 3.4957571029663086, 0.41644880175590515, -9.214744567871094, 2.917449474334717, 0.08343227207660675, 1.8303409814834595, 0.4333540201187134, -3.068565845489502, -3.2849271297454834, 0.42122402787208557, 6.607577800750732, -0.02855232171714306, 0.04787074401974678, 1.803154706954956, 0.030598722398281097, 0.7072235941886902, -3.3697197437286377, 0.76601243019104, 0.05631786957383156, -0.04031278192996979, -0.42589113116264343, -2.760516405105591, -0.07384201884269714, 2.3201656341552734, 0.7039322853088379, -2.177039861679077, -0.11180320382118225, -2.65047025680542, -1.1902450323104858, 2.490041732788086, -0.9846449494361877, -0.01893889345228672, -2.256814956665039, -3.078472852706909, -1.4152767658233643, 1.343216896057129, -3.3337438106536865, -0.013816531747579575, -4.562282562255859, 1.9781266450881958, 1.7014071941375732, -3.1660525798797607, -2.5512731075286865, -0.4632234275341034, -0.018778741359710693, 0.5901978611946106, -6.315338134765625, 1.8617892265319824, -1.4807209968566895, 0.9000390768051147, -2.1968486309051514, -0.18813955783843994, -0.03521377220749855, 2.37300443649292, -1.3175883293151855, -2.5893776416778564, -2.146439790725708, -1.2253109216690063, -3.9327735900878906, -5.157776355743408, 0.069306381046772, 2.079822063446045, -0.08573364466428757, -1.2768036127090454, -1.4833812713623047, 0.3687422275543213, 0.031042132526636124, 0.04157227650284767, 1.5092906951904297, 0.07754655182361603, 0.05585204064846039, 0.7959825396537781, -0.4039759933948517, -1.7151365280151367, 0.06250584125518799, -9.933761596679688, -0.4435160160064697, 0.2498609721660614, -3.6000266075134277, 0.045311056077480316, 2.801381826400757, 1.7854775190353394, -0.12867070734500885, -4.782093524932861, -7.71595573425293, 0.048158686608076096, -11.107047080993652, -4.395545482635498, -1.175512671470642, -5.057724475860596, 1.9297603368759155, 2.2327749729156494, -0.012063243426382542, -0.6208669543266296, -1.1113499402999878, 1.2555123567581177, -2.826162815093994, 1.1409868001937866, 1.9287266731262207, 6.367323875427246, 0.00944170169532299, -0.0007325467886403203, -0.9943917393684387, -2.6648242473602295, -0.7724138498306274, -1.45362389087677, -0.9569578170776367, -0.25976788997650146, -0.09009086340665817, 2.4799649715423584, -0.008046247065067291, 2.4540205001831055, 4.224534511566162, -1.2333390712738037, -0.03236684948205948, 0.013650777749717236, 3.1770172119140625, 1.61674964427948, -0.05520927533507347, 1.3516786098480225, -0.1397460401058197, -0.7622843980789185, -0.0610065758228302, -0.05070485174655914, -2.677973747253418, -1.8740743398666382, -0.07587481290102005, 0.0918704941868782, 0.6123436093330383, 1.0362600088119507, 2.506460666656494, -0.22766123712062836, 0.7506128549575806, 0.034671198576688766, 0.39964619278907776, 1.8508192300796509, 5.096858024597168, 1.1009750366210938, 2.193756580352783, -0.9584874510765076, -0.059413470327854156, 0.8851982951164246, -0.0469382219016552, 1.27692711353302, 0.18010476231575012, 0.9135467410087585, 0.8330378532409668, 1.498740792274475, -0.2851267158985138, -2.90510630607605, -1.125223994255066, -1.0929354429244995, -1.6543054580688477, -0.1827777475118637, 0.28316253423690796, -1.9764914512634277, 0.08416494727134705, 0.17424516379833221, 0.05266520753502846, -2.945507764816284, 0.08008985966444016, -0.1109781339764595, 0.11035227030515671, -0.10508473217487335, -1.4377607107162476, 0.4277915060520172, -0.022688405588269234, -1.6384429931640625, 0.7180330753326416, 0.9938173294067383, 0.15597398579120636, -0.553970456123352, 0.45391878485679626, -2.102100133895874, -1.454756498336792, -0.24681702256202698, 0.008529906161129475, 2.1183865070343018, -0.5032352209091187, 0.4494760036468506, 1.1720385551452637, 0.08933235704898834, -0.3425491452217102, 1.4943842887878418, -0.1725856512784958, 3.187781572341919, 2.8593876361846924, 0.04404085502028465, -0.10789091885089874, -2.9397971630096436, -0.4758128821849823, 3.104834794998169, 2.220407724380493, 1.0864055156707764, -1.175696611404419, -2.2066662311553955, 0.03741975128650665, -3.638584613800049, 1.6082056760787964, -1.460708737373352, -0.3201040029525757, 0.23903237283229828, 1.4912444353103638, 0.31394723057746887, 0.0753568634390831, 1.4991158246994019, 0.0774724930524826, 4.4827046394348145, 2.361205577850342, 3.2603020668029785, -0.01220227126032114, -0.0034614335745573044, -1.5463014841079712, -4.29941463470459, 0.004987118765711784, -2.829428195953369, 1.0158088207244873, 0.9855666756629944, 0.06218307092785835, 4.345631122589111, -3.2096099853515625, 2.4261839389801025, -1.557462215423584, 0.00038562310510315, 0.39001378417015076, 2.0472304821014404, -1.7615717649459839, 0.2508842349052429, -0.28080809116363525, 0.03501777723431587, -0.2792551815509796, -0.8846120238304138, 0.0670347809791565, 1.3055236339569092, -2.551642656326294, -0.07757744938135147, 0.20029248297214508, -8.52881908416748, -3.536531925201416, -1.1902055740356445, -5.208748817443848, 1.1748286485671997, -1.4673535823822021, 0.5534732341766357, -0.34080806374549866, 11.343982696533203, -0.8029923439025879, -8.274660110473633, -1.0338655710220337, -2.668107509613037, -0.024846889078617096, -2.5296947956085205, -0.020274963229894638, 10.003805160522461, -0.03259843587875366, -2.5638816356658936, 0.8666560649871826, -0.6944274306297302, 0.7246583104133606, 0.0031338026747107506, -13.197663307189941, 0.22641007602214813, 0.22888600826263428, 5.233169078826904, -5.928895473480225, -0.8977121114730835, 0.4411250650882721, -12.843169212341309, -11.701773643493652, 16.908613204956055, -2.7210519313812256, 0.048909060657024384, 1.553942084312439, -5.54177713394165, 1.7532414197921753, -4.510534286499023, -5.940956115722656, 0.023272262886166573, -10.940812110900879, -4.628307342529297, 0.4617782235145569, -3.8866937160491943, -2.3748040199279785, -2.7889437675476074, 0.003153665689751506, 1.7215487957000732, 2.0040857791900635, 3.7079246044158936, -0.5755038261413574, -2.3066275119781494, 0.05560508370399475, -2.045558452606201, -0.25669020414352417, 5.955390453338623, 0.8464791178703308, 1.1480716466903687, -1.567489504814148, -1.5967419147491455, -1.7966750860214233, 2.476987600326538, -0.07977178692817688, 2.2484681606292725, -0.08793773502111435, 0.16967357695102692, -0.17793746292591095, 2.3275012969970703, -0.06832829117774963, -0.03906276822090149, 0.41467851400375366, -2.6658525466918945, 0.24267065525054932, -0.8696581125259399, 1.0919476747512817, 2.1160945892333984, 0.18413828313350677, 4.81478214263916, 1.3242206573486328, 0.42332980036735535, 1.8608242273330688, 0.0008409529691562057, 0.4515332877635956, -2.157979965209961, -2.3925533294677734, -1.0717133283615112, 1.3456555604934692, 0.007167447824031115, 2.220292329788208, -1.3459928035736084, -2.4465436935424805, -1.237818717956543, -1.0295573472976685, 0.1988981068134308, -0.0406184159219265, 1.2453370094299316, 1.2148879766464233, 0.8977518677711487, -2.106112003326416, -2.4432220458984375, -0.40138736367225647, 2.4415578842163086, -0.02187994308769703, -1.4571189880371094, 0.6840389370918274, -0.23429180681705475, 1.8385571241378784, -0.48520803451538086, -0.15734058618545532, -0.008990704081952572, -0.02505303919315338, 0.2356967329978943, 0.002985314466059208, -3.18982195854187, 2.9316885471343994, -0.8980170488357544, 0.007309049367904663, -0.056650325655937195, 0.7676166892051697, 0.437278151512146, -0.15826652944087982, 0.3360678553581238, -2.5403428077697754, 0.17630165815353394, -0.064200758934021, 1.2709426879882812, 1.8757860660552979, 0.010321766138076782, -1.9925919771194458, -0.06412964314222336, 3.39939546585083, -2.847825765609741, 0.8040585517883301, -0.1412236988544464, -4.728575706481934, 0.0029321741312742233, 1.1418925523757935, 1.1868879795074463, -0.6686684489250183, 0.39399635791778564, -1.4952199459075928, -1.6259839534759521, -0.058842457830905914, -6.058838367462158, 2.0014374256134033, 1.6708781719207764, 0.6364255547523499, 2.4790828227996826, -2.4177069664001465, 2.2925479412078857, 0.2082790583372116, -0.46093127131462097, -1.284303903579712, 0.843000590801239, 2.623424768447876, -1.0517058372497559, 3.6188652515411377, -1.11281156539917, 0.08945382386445999, -0.15922041237354279, 0.1518433392047882, -0.5501223802566528, 2.517868757247925, -2.322875499725342, 0.07848432660102844, -0.07640592753887177, 3.373601198196411, -3.509615898132324, -0.025220977142453194, 1.3724385499954224, 4.024779319763184, 0.6111366152763367, 0.013854455202817917, -4.480973243713379, -2.9246039390563965, -2.6268932819366455, -1.1280332803726196, -0.10812795162200928, -3.3787143230438232, -0.8191350698471069, 0.9076569676399231, 0.22565406560897827, -0.8024991154670715, 0.017952220514416695, 3.9326682090759277, 3.568380355834961, 1.9159059524536133, 2.1389129161834717, -7.038361072540283, -0.1954592615365982, -0.1513373851776123, -2.768548011779785, 1.1444326639175415, 0.6080859899520874, -1.8675907850265503, 1.5745373964309692, -1.118119716644287, 0.42980557680130005, 0.07288645207881927, -1.9969924688339233, 0.7468016147613525, -2.972982883453369, 3.1200780868530273, -3.296592950820923, 1.7637064456939697, 0.04023013263940811, 0.07861243188381195, 1.8564058542251587, -0.007304718717932701, 0.03620282560586929, 0.1928001046180725, -1.5676555633544922, -0.04074692353606224, 0.03474700078368187, -3.10268235206604, 1.0608570575714111, -0.02451908215880394, 3.0940260887145996, 1.2022922039031982, -2.735349416732788, -0.17476598918437958, -0.7593415379524231, -0.8731779456138611, 0.6015541553497314, -2.293341875076294, -0.32310399413108826, -0.02650861255824566, 2.1515772342681885, 1.7424603700637817, 1.5226869583129883, -1.5434033870697021, -0.041192103177309036, 0.34399324655532837, 2.297171115875244, 3.2309839725494385, 1.8857225179672241, 0.24041615426540375, 3.2658915519714355, 0.11725819855928421, -0.6599506139755249, 4.175346851348877, -3.6831214427948, -0.34223222732543945, -3.022454023361206, 2.7979254722595215, -0.9405515193939209, -0.20957742631435394, 6.33975076675415, 4.5772199630737305, -1.0660911798477173, -4.215195178985596, 0.6674633622169495, -1.4681040048599243, 2.619853973388672, 0.11477633565664291, 1.8696155548095703, 0.083113893866539, 1.8145005702972412, 2.3384363651275635, 0.9003797173500061, -0.01968819834291935, -0.047044701874256134, -0.7356060743331909, -1.1521387100219727, 0.6190125346183777, -0.022518746554851532, 1.2159209251403809, 2.947046995162964, 0.23454631865024567, -3.467329263687134, -9.020857810974121, 3.7445075511932373, -2.4128332138061523, 0.1900557279586792, -1.1950130462646484, -5.181507110595703, -0.05491490662097931, -0.8409771919250488, -2.6913325786590576, -0.0049010878428816795, -1.9012761116027832, -0.6474774479866028, 0.7155845761299133, -1.8706402778625488, 1.9253034591674805, -2.740788698196411, -0.12110358476638794, 1.7174983024597168, 1.6348237991333008, -0.6625223159790039, 1.9423253536224365, -3.0575063228607178, -2.1277358531951904, -2.2196645736694336, 0.06300117075443268, -3.366137742996216, 2.013639450073242, -0.8999094367027283, -1.0879324674606323, 0.27175548672676086, 2.510209083557129, 2.742008686065674, 0.038608305156230927, 2.2966535091400146, 0.14613595604896545, -0.3073763847351074, -2.5744872093200684, 0.155424565076828, 0.04545390605926514, -0.06275817006826401, -1.8875151872634888, 2.042170763015747, -0.012048509903252125, 1.3126850128173828, 0.4591290056705475, 2.0959622859954834, -0.1267130970954895, 0.6335368752479553, -0.11254286766052246, -4.618870258331299, 1.3462779521942139, -0.03197353705763817, 1.5594056844711304, -1.1181279420852661, 3.04870867729187, -0.021238459274172783, -4.652781009674072, 0.10563481599092484, 0.032679181545972824, 1.2287596464157104, 3.3094396591186523, -0.8794147968292236, -5.739109516143799, -2.3607587814331055, 0.18762388825416565, 2.9795854091644287, -15.936120986938477, -0.2306412309408188, -3.2166101932525635, -1.7255070209503174, 0.5553733110427856, -0.9665482044219971, -0.4702468514442444, 3.2105557918548584, -3.9804131984710693, -2.017484426498413, -1.3773826360702515, -3.795142650604248, -5.147335052490234, -1.164573311805725, -0.07910088449716568, 0.9438533186912537, -0.05089934915304184, -1.3985484838485718, -1.66726553440094, 0.5610722899436951, 0.16635866463184357, -0.05762769654393196, -6.7778143882751465, -2.2913734912872314, 0.22947058081626892, 2.574007987976074, -1.4727686643600464, -0.38268712162971497, 0.2848770022392273, -6.018167018890381, -3.8674051761627197, 7.976614475250244, 0.25494691729545593, 0.31652870774269104, 1.0539013147354126, -9.093734741210938, -1.76923668384552, -1.109217643737793, -2.5399858951568604, 0.11133409291505814, -3.1635258197784424, -3.217372179031372, -9.445979118347168, -2.75045108795166, -0.9961683750152588, 5.025049686431885, 0.13796478509902954, 0.6612716913223267, 0.43880990147590637, 1.1906424760818481, 2.169001579284668, 1.2515358924865723, 0.7083056569099426, -0.6646859049797058, 0.01604660600423813, 0.2066582888364792, -0.6074950098991394, 0.19505912065505981, -2.9716684818267822, 1.0269163846969604, -1.6200816631317139, 0.09266654402017593, 0.019512571394443512, 2.43408203125, 0.009640615433454514, -2.1613149642944336, -2.3048887252807617, 1.0170719623565674, -0.035998787730932236, -0.21193981170654297, 0.41082412004470825, -1.0693339109420776, 0.15063068270683289, -0.31488513946533203, 1.7599951028823853, -1.4638463258743286, 0.03723861277103424, 1.0454977750778198, -0.9756906628608704, -2.2064781188964844, -1.339023470878601, 0.09338647872209549, -1.308577299118042, 1.7838300466537476, 1.2658579349517822, -0.48976007103919983, 1.331588864326477, -0.03429236635565758, -0.20828521251678467, 0.46312886476516724, -1.4902379512786865, 2.192878246307373, 0.6883081793785095, -1.3463784456253052, 0.09163244068622589, -0.8313314318656921, -19.338382720947266, -0.6592367887496948, -4.694883346557617, -1.3325119018554688, 0.8047863245010376, -0.2950343191623688, -0.5809615850448608, 11.524744987487793, -1.4287077188491821, -3.392777919769287, -1.3395401239395142, -6.80836296081543, -3.7285430431365967, -0.40271133184432983, -0.18504920601844788, 12.029580116271973, -0.08474380522966385, -2.898653507232666, -2.377657651901245, -0.06757937371730804, 0.5445793867111206, 0.03753310441970825, -11.7551851272583, -1.3490018844604492, 0.008513061329722404, 5.906899929046631, -2.6410293579101562, -1.0031582117080688, 0.13536323606967926, -11.737342834472656, -6.155601501464844, 17.166379928588867, -2.0695924758911133, 0.41535067558288574, 1.7643054723739624, -13.71965217590332, -0.056585006415843964, -1.5444906949996948, -4.955144882202148, 0.10108471661806107, -5.577333450317383, -3.909939765930176, -7.007167339324951, -5.007806301116943, 6.5312886238098145, -3.6048672199249268, -0.01318623311817646, 0.32920852303504944, 1.4725184440612793, -0.9605989456176758, 1.0214965343475342, -1.0654737949371338, -0.8254995346069336, 2.5903916358947754, -0.15819549560546875, -1.2512314319610596, 2.835235834121704, -1.1553139686584473, -2.9332282543182373, -1.549037218093872, 0.3924374282360077, 0.43509840965270996, -0.09480276703834534, -0.2964499890804291, -0.05826330557465553, -1.4948146343231201, 0.8403211832046509, -3.274091958999634, -0.06928819417953491, 0.13706742227077484, 0.105357326567173, 0.02756570838391781, 0.2555043697357178, 1.2373663187026978, -0.7989380359649658, -0.2127992957830429, 0.0028899770695716143, -0.7336639165878296, -1.8875890970230103, -2.0411391258239746, -2.9547603130340576, 0.1761624664068222, -1.186086893081665, 0.4050765037536621, -0.30693793296813965, -0.038237590342760086, 2.192113161087036, -0.25176504254341125, -1.1945815086364746, 0.09097747504711151, 0.19618156552314758, -0.5266984105110168, 0.7166001200675964, -1.6009373664855957, 0.0335417240858078, 1.3078114986419678, -16.11642074584961, -0.4429863393306732, -2.901047468185425, -1.5489888191223145, -0.0190591961145401, 1.0522726774215698, -0.467911034822464, 6.312229156494141, -5.217991352081299, -2.231360673904419, -2.0157837867736816, -3.2543489933013916, -2.9015698432922363, 2.209761619567871, -0.1297861635684967, 4.424810886383057, -0.15113016963005066, -1.490889310836792, -1.4216612577438354, -1.1229685544967651, 0.18626278638839722, 0.21435251832008362, -8.201717376708984, 0.4182776212692261, 0.21062855422496796, 2.271409034729004, -2.061932325363159, -2.6439223289489746, 0.2870789170265198, -5.59354829788208, -3.441324234008789, 9.558100700378418, -1.578284502029419, 0.22660309076309204, 0.5915027856826782, -10.705278396606445, -4.32854700088501, -1.7447925806045532, -2.2854597568511963, 0.04474450275301933, -2.3315563201904297, -4.29857873916626, -11.892951965332031, -4.909775733947754, 7.00150203704834, -1.1066137552261353, -0.06011388078331947, -2.0878002643585205, -3.257789134979248, -1.7020313739776611, -1.5528326034545898, 3.760929822921753, -0.31969836354255676, 2.447617769241333, -0.19409315288066864, -4.120725154876709, 3.2230148315429688, -1.4524248838424683, 0.5256402492523193, -3.6754093170166016, -2.478341817855835, -3.1608333587646484, -0.07182412594556808, -0.5793077945709229, 0.0284587349742651, 3.965895652770996, -3.6892271041870117, 1.7408727407455444, 0.019442124292254448, 0.01777774468064308, -1.656628131866455, -1.5630261898040771, -0.05363013222813606, 3.697514295578003, -2.7375359535217285, 0.9775038361549377, -0.056271106004714966, 0.8745378851890564, -4.01504373550415, 1.8955415487289429, -1.1317415237426758, -0.20152263343334198, 2.897334337234497, -2.87624454498291, 2.883455514907837, 2.9968435764312744, 1.644315242767334, 0.06618863344192505, -0.22035422921180725, -0.6372650265693665, 3.50833797454834, -1.7182698249816895, 0.8083183169364929, -1.20856773853302, -0.11841707676649094, 0.03373396024107933, -1.2674765586853027, -0.010003335773944855, -0.5674088597297668, 4.014933109283447, 0.2830703854560852, 5.394186019897461, -0.1283237338066101, -3.140305519104004, 1.411920428276062, -2.5162227153778076, 0.3058917820453644, -0.16927996277809143, 3.9550154209136963, 0.531941831111908, -0.03396120294928551, 1.487868070602417, -0.029603254050016403, 2.016939401626587, 3.2332496643066406, 2.4454848766326904, 0.03957287222146988, -0.19063682854175568, 2.017038345336914, -0.9232161641120911, -0.09896009415388107, -3.4048094749450684, -2.6079318523406982, 0.019437745213508606, -0.1442425400018692, 2.334017276763916, 7.181200981140137, 1.5896565914154053, -0.5377942323684692, -0.01041062455624342, 0.0019341441802680492, 2.3762221336364746, 0.8391814827919006, 1.9064193964004517, 2.9255518913269043, 0.027191659435629845, 3.1732966899871826, 1.7092937231063843, 0.7657817602157593, -1.1003336906433105, 2.356713056564331, 5.404559135437012, 0.06128581240773201, 0.2292003482580185, 2.3538379669189453, 0.05861371383070946, 2.1766960620880127, -0.28157368302345276, -0.15785907208919525, -1.9745711088180542, -0.08843736350536346, -0.11539976298809052, -1.2902016639709473, 0.7641997933387756, -4.243030548095703, 0.7163366079330444, -0.42952653765678406, 0.4858078956604004, 0.011430498212575912, 2.718301773071289, 0.024005908519029617, -2.537731885910034, -2.1029930114746094, 1.4391355514526367, -0.0038298112340271473, -0.024981945753097534, 0.6680873036384583, -2.049424409866333, 0.039794761687517166, -0.4132199287414551, 1.8754905462265015, -2.9964749813079834, 0.018129311501979828, 0.3109307885169983, -0.9609308838844299, -1.9008136987686157, -0.6521680355072021, -0.012261576019227505, -1.6025140285491943, 0.3653165102005005, 0.4530414938926697, -0.9567412734031677, 1.271281361579895, 0.0810394361615181, -0.3252065181732178, 0.1687687635421753, -1.4807206392288208, 2.8868486881256104, -2.0244741439819336, -0.8443363904953003, -0.0591735914349556, -0.58152836561203, 1.3381656408309937, 0.6896957159042358, -3.8451929092407227, 2.456995964050293, 2.9124984741210938, 2.367664337158203, 0.35274431109428406, -2.4183149337768555, -0.2714536786079407, -1.895700216293335, 3.482699394226074, 1.155771255493164, -1.0415862798690796, -0.35592788457870483, 0.1789921075105667, 3.2445671558380127, -0.015582202933728695, -0.49784284830093384, 2.022285223007202, 2.6605024337768555, -0.026974327862262726, 0.0012968378141522408, -1.3741064071655273, -0.6421758532524109, 0.016605909913778305, -1.9829660654067993, 2.6254913806915283, -1.1084851026535034, 0.1178925558924675, 0.4012821614742279, -2.1852614879608154, 0.5965628027915955, 2.3735105991363525, -0.002866142662242055, 3.1563608646392822, 0.92453932762146, 2.5463075637817383, 1.9620182514190674, 6.697495460510254, 0.2808457612991333, 4.355928897857666, 1.9992868900299072, -1.9345248937606812, -0.14232337474822998, -1.365172266960144, -2.5076587200164795, 0.03615760803222656, -0.5934079885482788, 2.0901145935058594, -1.2964426279067993, 1.1681021451950073, -0.8313219547271729, -1.779701828956604, 1.4628065824508667, -0.20825092494487762, -0.878308117389679, 1.114832878112793, -1.4210751056671143, -3.7317066192626953, -1.8821040391921997, -0.32933077216148376, 0.22111551463603973, 0.022564994171261787, 0.7456378936767578, -0.03846348077058792, -2.1890950202941895, -0.7346360087394714, -0.9315916895866394, -0.030923426151275635, 0.15990638732910156, 0.38544291257858276, -0.07508546113967896, 0.07694512605667114, 1.1585372686386108, -0.5707382559776306, -1.9289709329605103, 0.021647736430168152, -1.5876495838165283, -2.090242624282837, -1.4218204021453857, -2.7116546630859375, 0.08472134172916412, -1.4848300218582153, 0.6252439022064209, -1.0144790410995483, -0.691809356212616, 1.6080390214920044, -0.2672911286354065, -1.652717113494873, -0.18488024175167084, 0.1732897311449051, 0.4756234884262085, -1.1917012929916382, 1.732000470161438, -0.09254121035337448, -2.7752225399017334, -5.799441814422607, 0.8699492812156677, 1.493685007095337, 0.696556806564331, 2.329313039779663, 3.8532984256744385, 0.26364246010780334, 1.4904237985610962, 0.7078116536140442, 0.48147448897361755, 2.4606029987335205, 0.17436715960502625, 0.8642856478691101, 3.1010587215423584, 0.3161771595478058, 6.967543125152588, 0.07637128233909607, 2.8576836585998535, 1.641068935394287, 2.392575263977051, 0.4785245358943939, -0.07566425204277039, 4.6927361488342285, 1.6561658382415771, 0.4154077172279358, 4.080663204193115, 6.245174884796143, -0.770508348941803, -0.10650713741779327, -0.6630359888076782, -0.2126464545726776, -1.0119540691375732, 5.726284503936768, -0.23779064416885376, 2.468142032623291, 1.0215423107147217, 2.6929190158843994, 2.2103075981140137, 9.853408813476562, 0.3518045246601105, 0.27688124775886536, 4.622524261474609, 1.6780695915222168, 4.330111026763916, 2.3772270679473877, -1.7818456888198853, -0.02138197049498558, -0.6362335681915283, -1.46073579788208, -0.3036658763885498, -1.580863118171692, 2.5318193435668945, 1.3252336978912354, 0.5897207856178284, -0.22370116412639618, -3.3611674308776855, 2.5666322708129883, -1.9352951049804688, 1.5350148677825928, -2.8436553478240967, -0.9792004823684692, -2.065005302429199, -0.0725492313504219, -1.1060259342193604, -0.07374811917543411, 2.903862237930298, 1.1194965839385986, 0.18117043375968933, 0.04395980387926102, 0.020028121769428253, -2.5042099952697754, -0.9868415594100952, -0.002188090467825532, 3.0824694633483887, -3.0415334701538086, 1.9769006967544556, 0.009564761072397232, 0.9506385922431946, -4.373265266418457, 0.22137056291103363, -1.8875384330749512, -0.012199953198432922, 2.703286647796631, -1.3605105876922607, 2.0821573734283447, 2.3609557151794434, 1.8117327690124512, -0.023137133568525314, -0.4129469096660614, -0.7840592861175537, 3.6154446601867676, -1.1108064651489258, 2.869508981704712, -3.6566081047058105, 0.02476702257990837, 1.7511053085327148, -23.052127838134766, -1.0876648426055908, -3.5924015045166016, -1.6327297687530518, -1.8518239259719849, -3.1384830474853516, -1.1446983814239502, 2.9194176197052, -6.927399635314941, -2.146554708480835, -3.241893768310547, -1.9425407648086548, -8.323100090026855, -5.443068027496338, -0.4522784948348999, 1.5821603536605835, -0.06402795761823654, -1.9704093933105469, -3.2214112281799316, -2.2067737579345703, -0.6556578278541565, 0.1935412436723709, -5.04218864440918, -4.169351100921631, -0.10163373500108719, -0.4594547748565674, -2.639873504638672, -2.1495678424835205, -0.2954834997653961, -2.5584378242492676, -4.882653713226318, 1.6583631038665771, -1.1345537900924683, 0.5663213729858398, -0.6979077458381653, -12.252989768981934, -5.011305332183838, -1.997965693473816, -1.5617308616638184, -0.41336071491241455, -2.3322811126708984, -4.221160888671875, -17.696556091308594, -3.893143892288208, 2.907531261444092, 3.829702615737915, -0.013852294534444809, -3.041280508041382, 2.8168327808380127, -0.20188382267951965, -0.8071593046188354, 4.288307189941406, -3.480092763900757, 1.1525806188583374, 0.025566551834344864, -5.573288917541504, -0.9478350877761841, 2.2070324420928955, 2.7226555347442627, 0.6656529903411865, 0.29001420736312866, -0.09707920253276825, -0.002579028019681573, -2.0380020141601562, -0.12872497737407684, 1.3513591289520264, -1.049247145652771, -0.6477389931678772, -0.06566016376018524, -0.043986883014440536, -1.1797401905059814, 0.8716437220573425, -0.027324948459863663, -1.387308120727539, 1.7411764860153198, -3.1889610290527344, -0.10050520300865173, 1.1573519706726074, -1.6597216129302979, -0.2773735821247101, -1.7301790714263916, -0.06136273220181465, -0.28817352652549744, 1.1952558755874634, 0.8830239772796631, 2.173767328262329, 1.98910391330719, 0.03075912408530712, 2.066178321838379, 2.1973378658294678, 1.6029874086380005, 8.444725036621094, -2.7593753337860107, -1.082728385925293, -0.048670221120119095, -3.051241159439087, 4.264588356018066, 2.1166300773620605, 2.0097849369049072, 3.666177272796631, 1.347513198852539, -1.6250132322311401, -0.2943378686904907, -0.8062728047370911, -0.832038938999176, -0.828458309173584, -0.26235148310661316, 0.23998068273067474, -1.2916241884231567, 0.46971914172172546, 0.13058817386627197, -0.852712869644165, -0.07302418351173401, -2.3825771808624268, -0.7534967064857483, -0.6672088503837585, 0.018406465649604797, -0.04117003083229065, -0.5770490765571594, -1.4460605382919312, -0.4352600574493408, -2.988158941268921, 0.3784552216529846, -1.1453708410263062, 0.013184024021029472, -3.1547563076019287, -10.281888008117676, 0.6916114091873169, -0.43467122316360474, 0.12731513381004333, 1.437038540840149, 2.39766001701355, 0.5269134640693665, 0.06107151880860329, -1.228834867477417, 0.16276375949382782, -0.1570921093225479, -0.462182879447937, 0.3449892997741699, 0.16236139833927155, 2.3361220359802246, 0.10059948265552521, 0.02641698531806469, -2.9979026317596436, 1.7647027969360352, 0.49353647232055664, -0.1090487390756607, 1.0372790098190308, 2.811741352081299, -1.9531725645065308, 0.14642250537872314, -1.384537935256958, 2.2191197872161865, -0.31912243366241455, -1.250125527381897, -2.8016793727874756, -0.5541074275970459, -0.7193336486816406, 0.07041411846876144, 0.9177089333534241, 0.000171875290106982, -2.8736746311187744, -3.3544912338256836, 2.668327808380127, 0.03632589057087898, 0.10487974435091019, -2.8150882720947266, 1.424752950668335, -0.007979683578014374, 0.5058865547180176, 3.0706264972686768, -0.27970364689826965, 0.0007512163720093668, -2.6082282066345215, 1.3747392892837524, -1.0975128412246704, 0.256102591753006, 0.060517020523548126, 0.19070371985435486, -1.9332287311553955, -1.7692979574203491, 0.2527908384799957, 0.9136882424354553, 0.08693014830350876, 0.9303531646728516, -2.6649129390716553, 0.5266997814178467, -0.1098824143409729, 0.6426970362663269, 1.0077118873596191, -0.11065313965082169, -0.13176210224628448, -1.3099344968795776, 1.794366478919983, -1.7258844375610352, 1.314666986465454, -0.6579631567001343, -1.401255488395691, -0.06990722566843033, 0.42964261770248413, -0.3608819842338562, -2.2512035369873047, 0.1144568920135498, -0.4019456207752228, -2.5239219665527344, 0.0946240946650505, 0.0513705350458622, 1.4523066282272339, 0.10201670974493027, -0.9364030361175537, 0.09629696607589722, -0.3096018433570862, 0.01248413510620594, -0.06558260321617126, 1.8030401468276978, -4.718392848968506, -0.18520194292068481, -2.206486701965332, 0.2867608368396759, -2.6087584495544434, -0.1471388339996338, 1.4110946655273438, -1.3792394399642944, 0.5522685050964355, -2.5595507621765137, -0.02182919718325138, 0.392253577709198, -4.345935821533203, -3.9950342178344727, -0.47660866379737854, -2.5484235286712646, 0.07698821276426315, -1.239090919494629, -1.2432206869125366, -0.6109954714775085, 0.666349470615387, 2.4367120265960693, -2.1880898475646973, -0.010174263268709183, 0.16979165375232697, -1.0380239486694336, -0.37111178040504456, 3.931079864501953, 0.2269226461648941, -0.05007651448249817, -0.4835086464881897, 0.03976699709892273, 2.0767626762390137, 3.634044885635376, 2.040064573287964, 4.606893062591553, 0.7764744758605957, 2.110154390335083, 0.307357519865036, -0.002684073057025671, 0.6153599619865417, -0.08388999104499817, -0.8617774248123169, -0.652377188205719, -4.411429405212402, -0.19633710384368896, -0.06988855451345444, 0.9150775671005249, 1.936019778251648, -0.10679154843091965, 2.034240245819092, -0.37799614667892456, 2.2756717205047607, -0.1518840789794922, -5.011810302734375, -0.6164586544036865, -4.140405178070068, 0.8082810044288635, 0.02464918978512287, -6.2788286209106445, -0.520736038684845, 1.3903467655181885, 1.8900361061096191, -2.344082832336426, -0.056040044873952866, -0.1704014241695404, 0.22985859215259552, 2.1742947101593018, -0.5517252087593079, -1.3739738464355469, 1.6909162998199463, 0.13800135254859924, 0.32096239924430847, -0.7436769604682922, -0.7756155729293823, -1.0320475101470947, -3.143092632293701, -0.4219402074813843, -1.169041395187378, -0.0129630658775568, -0.5596240162849426, 1.490230917930603, 1.9037178754806519, 0.4016224145889282, -1.622070074081421, -0.8999835848808289, 1.188287377357483, 0.03415306657552719, 2.743133306503296, 0.09995798021554947, -1.7367764711380005, -1.7306071519851685, -0.35901346802711487, 0.04766589775681496, -0.01578989252448082, 1.6342264413833618, 1.8916473388671875, 0.02006709575653076, -2.4820780754089355, -2.334137201309204, 3.058317184448242, -0.030195411294698715, -7.832361698150635, 1.265703558921814, -1.1954866647720337, 3.6691906452178955, -0.032385122030973434, -6.674125671386719, 2.26128888130188, -1.1222306489944458, -2.451016664505005, -4.416426181793213, 0.040123265236616135, -1.482365369796753, -2.6898844242095947, -0.493239164352417, -3.6154255867004395, 3.0949923992156982, -1.4353361129760742, -0.01700419746339321, -3.3444881439208984, -3.534106731414795, 0.6275266408920288, 2.2434213161468506, -0.8386569023132324, 0.09075531363487244, -2.6139848232269287, -0.06547077000141144, 0.643018901348114, 0.8876176476478577, -2.121195077896118, 0.8794316053390503, -6.275025844573975, -2.398897171020508, -3.28503680229187, 0.05402759462594986, 3.0228934288024902, -0.07638722658157349, -0.7820219397544861, -0.9287173748016357, 0.06751872599124908, 0.0071410550735890865, 0.09572656452655792, -7.8570780754089355, 1.2087785005569458, 0.024282878264784813, 0.571044921875, -1.7796306610107422, -1.2241344451904297, 0.09132629632949829, -6.562702655792236, -2.7108116149902344, -0.5649457573890686, -1.4487497806549072, 0.10471072047948837, 0.4807897210121155, 1.8440066576004028, -2.688066244125366, -1.1083464622497559, -3.4067864418029785, -0.09701202064752579, 0.9665060043334961, 0.3052689731121063, -0.778350830078125, 1.1477534770965576, 4.425808906555176, 0.08907648921012878, -0.1338721215724945, 0.4891398549079895, -0.5167462825775146, 3.8648509979248047, -0.6492254734039307, 3.070051670074463, 3.2917330265045166, -1.213775873184204, 0.03889748081564903, 0.0262921005487442, 0.48806053400039673, 5.528767108917236, -3.796631336212158, -4.983268737792969, -1.4290341138839722, -1.316360592842102, 0.11310993134975433, 1.040641188621521, -0.0048891641199588776, 3.8764848709106445, -3.3940494060516357, -3.036874771118164, 0.3673241436481476, -0.02211851440370083, 1.8618299961090088, -1.7661930322647095, -0.08714646846055984, 1.2533113956451416, 2.8900387287139893, -1.8123689889907837, -0.08218099921941757, 1.1290538311004639, -0.5563716888427734, -1.4104537963867188, -1.5864231586456299, -0.05502970144152641, 4.139980792999268, -7.655350685119629, -0.2388819456100464, -1.3071956634521484, 2.028134346008301, 0.062275148928165436, 2.3043675422668457, 1.1034822463989258, -2.244262933731079, 2.412285089492798, -1.3918402194976807, -0.46252867579460144, -0.0014131412608548999, -1.5865691900253296, 2.021181344985962, 2.3735060691833496, 3.224943161010742, 2.35223650932312, 2.7425951957702637, 0.4788532555103302, -0.30440011620521545, 3.11895751953125, -3.0914695262908936, -0.21103374660015106, -1.550728678703308, -1.8819016218185425, -1.9118810892105103, 2.3787238597869873, -0.051069773733615875, 3.4445724487304688, -0.07090834528207779, 3.0610692501068115, 4.133434772491455, 0.9253714680671692, 0.24365441501140594, -0.11212338507175446, -0.010922035202383995, 1.0364960432052612, -0.3744886517524719, 3.8958942890167236, -0.6258755326271057, 0.36893048882484436, -0.1302410215139389, 2.900170087814331, 0.4165971875190735, 1.6130281686782837, -0.9612265229225159, 0.20073378086090088, -0.295843243598938, 2.2974185943603516, -0.20292797684669495, -4.168568134307861, -1.1558568477630615, 0.04000246152281761, 1.3049043416976929, 0.13852912187576294, 0.5478035807609558, -1.5644301176071167, 1.6790095567703247, -3.6406967639923096, 0.07923994213342667, 1.1479865312576294, -1.105028510093689, 1.8992942571640015, 0.7685991525650024, -1.652165174484253, 1.8242175579071045, -0.7127010226249695, 0.046005748212337494, 0.9472004175186157, 1.5673720836639404, 3.3864972591400146, -2.523792028427124, -0.7491350173950195, -0.9916714429855347, 2.196227788925171, -0.06746517866849899, -0.4055120050907135, 0.1285567730665207, 1.6630123853683472, -2.6321945190429688, 1.5518088340759277, 0.14493687450885773, 0.03848864883184433, 2.91896653175354, -4.458033084869385, -0.01315576396882534, -2.2714595794677734, -1.2550394535064697, 5.226537704467773, -0.20838211476802826, 2.551126480102539, -3.5690600872039795, 2.8324146270751953, -1.1543647050857544, -0.1352766752243042, -1.7524808645248413, 1.4035437107086182, -3.493631362915039, -0.77525794506073, 0.21214143931865692, 0.037292834371328354, -1.32149338722229, -2.5819272994995117, 0.5454288125038147, -1.367013931274414, 1.2711265087127686, -0.2138042449951172, -0.024151699617505074, -0.5005444884300232, 0.9796568751335144, -0.3260204493999481, -5.288019180297852, 1.466339349746704, 0.814583420753479, 1.958635687828064, 0.08726111054420471, -0.8660427331924438, 1.7733105421066284, -5.010204792022705, -1.7688825130462646, -3.3508901596069336, 2.132103681564331, -2.6207282543182373, 0.16118118166923523, 0.11502251774072647, 0.04212010279297829, -2.0909390449523926, -0.7726618051528931, 1.3592939376831055, 0.09619534015655518, -0.016680441796779633, -0.3503749966621399, -4.414818286895752, -0.01936827041208744, -3.7224154472351074, -0.40037426352500916, 0.8784170746803284, -0.0747729167342186, 3.5206313133239746, -0.2124161273241043, -1.6859365701675415, -2.250039577484131, 0.0517614409327507, 2.9947099685668945, -0.23369422554969788, 1.368476152420044, 1.1858989000320435, 5.134768009185791, 0.1454681158065796, 1.4816545248031616, 3.144087791442871, 2.158940076828003, -0.2769887149333954, -1.4479749202728271, 3.3369178771972656, -0.18068408966064453, 1.7239574193954468, 1.9160057306289673, 0.7910729050636292, 3.643167495727539, -3.8847882747650146, -1.078367829322815, 1.3224259614944458, -0.21502290666103363, -0.06930015981197357, 0.1112779974937439, -0.3768707811832428, 0.45792698860168457, -0.2856100797653198, -0.9003698229789734, 0.9011043906211853, -0.16505344212055206, -0.4432717263698578, -0.08183185011148453, 1.0090032815933228, 1.4070619344711304, 2.15830397605896, -0.0052749719470739365, -0.024909639731049538, -0.7997422218322754, -1.8431402444839478, -0.09494984894990921, 1.7573400735855103, 1.7171820402145386, 0.7988085150718689, 0.05871758237481117, 1.480837345123291, -1.1927926540374756, -0.29257747530937195, -0.6603890061378479, 0.1375490128993988, 2.3409175872802734, 0.9886231422424316, -0.5644675493240356, 0.175590381026268, -0.33202794194221497, -0.18091115355491638, -1.812857985496521, 1.2794837951660156, 0.6072587370872498, -2.5245132446289062, -5.189347743988037, 1.3224984407424927, 0.0325341634452343, -2.7458443641662598, 1.8360275030136108, 0.51918625831604, 1.5496597290039062, -3.9385156631469727, -3.856590509414673, -1.429094672203064, -0.030945871025323868, 1.7736138105392456, -0.1024235337972641, 0.41864654421806335, 0.8388574123382568, -1.4349297285079956, -2.6694014072418213, 0.6852157711982727, -0.08932136744260788, -0.4838511645793915, -0.05208679288625717, 0.9619758129119873, -3.4003500938415527, -1.8919596672058105, 0.0429377518594265, 0.010482924059033394, 0.6333200335502625, -0.16807685792446136, 0.0446600615978241, -3.044097900390625, 2.1818032264709473, -1.3414603471755981, 0.05160335451364517, -3.482158899307251, -0.14552654325962067, 1.287471890449524, -2.305978536605835, 0.08696366846561432, 2.160574197769165, 0.5059489011764526, -0.987421989440918, -2.1542327404022217, 2.993110179901123, -0.07357876747846603, -4.777743816375732, -1.130097508430481, 2.780487298965454, -2.6597461700439453, 2.1158878803253174, -0.6685621738433838, -0.10059981048107147, -1.7337920665740967, -0.5859413743019104, -1.9584320783615112, -1.2561192512512207, 0.7767056226730347, 1.7360961437225342, -5.364401340484619, 0.0013588740257546306, 3.7042906284332275, 2.4186854362487793, -0.6902177929878235, 1.6987813711166382, 1.1224567890167236, 2.1933836936950684, -0.30565622448921204, 0.09464053064584732, 5.08310079574585, 0.001488185953348875, 2.8779563903808594, -3.750105857849121, -2.029068946838379, 0.1301090568304062, 0.024829696863889694, 1.7885618209838867, 0.7785465717315674, 0.054374199360609055, 2.325164556503296, -3.473339319229126, -0.45074790716171265, 0.07909911870956421, -4.568447113037109, -4.664775371551514, 2.4137725830078125, -1.5756312608718872, -0.04277767613530159, 0.31063729524612427, -1.775003433227539, -0.5737897157669067, -0.9707115888595581, 2.7570993900299072, 0.12147938460111618, 0.2716773748397827, 2.6304962635040283, -0.9542067646980286, 2.8310391902923584, -1.850688099861145, -3.3338582515716553, 0.14780421555042267, 3.6026721000671387, -1.5627391338348389, 0.2507770359516144, -5.784031867980957, 1.142850399017334, -1.170387864112854, -0.11965315788984299, -0.005169598385691643, -2.2462873458862305, 0.5575854778289795, -1.6620209217071533, 0.8464029431343079, -0.46367523074150085, 2.245102882385254, 0.28886258602142334, 0.014008528552949429, -0.11507707834243774, -0.049773503094911575, -3.3340017795562744, 2.1374106407165527, -0.9838217496871948, 0.12560021877288818, -0.0562056228518486, 2.2795166969299316, 0.6579169034957886, 0.17355181276798248, -1.3326703310012817, 1.3809319734573364, 1.2139008045196533, 0.19603930413722992, 3.2708871364593506, -0.3311426341533661, 4.123599529266357, -0.9995408058166504, 0.015124931000173092, 4.139252662658691, 2.281416177749634, 1.6245455741882324, -0.35748061537742615, -3.8211593627929688, -0.03167213499546051, -0.5039684176445007, 0.18022240698337555, 2.168820381164551, -0.9427047967910767, 3.0817065238952637, 2.286344528198242, 0.01205278467386961, 0.2408912181854248, -0.16648782789707184, -3.087108612060547, -4.929276466369629, -0.44147953391075134, 3.242548942565918, 1.9284896850585938, -0.17743630707263947, 0.21705849468708038, 2.8463633060455322, -0.6247287392616272, 3.608351707458496, -2.898864507675171, 0.672403872013092, -3.7738006114959717, -0.006973237730562687, -1.4855778217315674, -0.12050854414701462, -0.958791196346283, 0.920937180519104, -2.0019004344940186, -0.08710263669490814, 0.06783289462327957, -0.9565374851226807, 0.7562423944473267, -0.05598156154155731, -0.7698533535003662, -5.527970790863037, 0.7441694140434265, 0.11440879851579666, -1.1356576681137085, 0.815354585647583, 1.0443381071090698, 1.1947494745254517, 0.08479200303554535, -0.31781816482543945, -4.523187160491943, 0.42829185724258423, -0.3086946904659271, -1.655282974243164, -0.057607635855674744, -0.07555215805768967, 0.8616185188293457, -2.7799932956695557, -0.37106895446777344, 3.4520556926727295, -0.9163791537284851, -0.04626558721065521, 2.0221452713012695, 0.3210136592388153, -0.438514769077301, -0.4946736991405487, 3.6746675968170166, -0.9001033902168274, -1.587662935256958, 0.12819260358810425, -1.1444697380065918, -0.3068580627441406, -4.130061149597168, 2.040086030960083, -0.14015743136405945, -0.6040082573890686, -0.028865639120340347, 0.20355704426765442, 0.8969321846961975, 0.10171736776828766, -8.706369400024414, 2.13128399848938, -2.2170069217681885, -0.10114189982414246, 0.07046375423669815, -5.502615928649902, -0.8969293236732483, 0.04109274223446846, -0.9777648448944092, -0.9861457347869873, -1.9702160358428955, 0.10741166770458221, 1.4684348106384277, 0.8066012859344482, -2.320155382156372, -1.990196704864502, -0.043034110218286514, 4.872676372528076, -1.399686336517334, 0.26904022693634033, 0.4399976134300232, 2.7678213119506836, 0.07665160298347473, -0.9788984060287476, -0.8061342835426331, 0.40446189045906067, -0.46467527747154236, -1.8203926086425781, 1.2188843488693237, 0.005594095680862665, -2.409062623977661, 2.7271952629089355, -6.194977283477783, 1.2406078577041626, 1.5719842910766602, 0.5569936037063599, 1.5345619916915894, 0.016819853335618973, -0.582680344581604, -0.842126190662384, 2.2125723361968994, 0.5965908169746399, -0.700208842754364, -1.609173059463501, 1.1474580764770508, -0.14577822387218475, -1.6869876384735107, -0.009565704502165318, 1.0513503551483154, 0.9024946093559265, 2.5944995880126953, -0.012041231617331505, 0.09661775827407837, -1.884915828704834, 0.20771446824073792, 0.2020781934261322, 0.14663510024547577, -1.5699270963668823, 1.3890066146850586, 0.06461898982524872, 2.9421536922454834, 0.27933469414711, -4.226139545440674, -1.3311727046966553, 0.028728585690259933, -0.7380817532539368, 2.1826937198638916, 0.387452632188797, -0.30957576632499695, -0.45100781321525574, 0.025644613429903984, -0.7769589424133301, -1.1596497297286987, -1.3788301944732666, -3.9575531482696533, 3.5209972858428955, 1.5548824071884155, 0.10986322164535522, 1.4486033916473389, 0.1352376937866211, -3.067544937133789, -3.23142671585083, 3.1476950645446777, 0.5566626787185669, -0.478954941034317, 0.04383205249905586, 0.6533325910568237, 2.629274845123291, 1.4203343391418457, -0.8389982581138611, 0.4235755205154419, 0.3390800356864929, -1.7667886018753052, 0.07301968336105347, -0.8358033895492554, 0.07384360581636429, -4.9708476066589355, 0.11823660135269165, -0.8572956919670105, -0.05368099361658096, 0.07745000720024109, -0.07151094079017639, -0.8952704071998596, 0.16714335978031158, -0.5563438534736633, 0.8834215402603149, -2.8073623180389404, 0.06397290527820587, 5.598209381103516, -3.235618829727173, 1.044813871383667, -0.9148290753364563, 0.10697005689144135, 2.5925817489624023, -0.7326694130897522, 1.2105638980865479, 1.5129629373550415, -0.12857480347156525, -0.02319653145968914, 3.5876736640930176, -1.292077660560608, 1.9309865236282349, 3.1792542934417725, -2.693918228149414, -4.048720836639404, -0.15091095864772797, -1.420345425605774, 3.2624166011810303, -1.9040495157241821, -1.580716848373413, 1.1895785331726074, 2.7514419555664062, -0.11661680042743683, -0.024188630282878876, -2.117335081100464, 0.36205780506134033, -0.7064458727836609, 0.6122150421142578, -4.809147834777832, 2.2018675804138184, -3.032133102416992, -0.07803179323673248, 4.767376899719238, -0.19280509650707245, 3.1946170330047607, 1.5753028392791748, 2.7974867820739746, -0.13824908435344696, -0.033610060811042786, 0.7754225134849548, -0.3885085880756378, -0.32579851150512695, -0.5242064595222473, 2.058842897415161, -0.8503358960151672, -0.3420102596282959, 2.3998963832855225, -0.7881858944892883, 3.3254313468933105, -1.475382685661316, 0.09352606534957886, 0.39878353476524353, 1.2786661386489868, -3.371589422225952, 2.240868091583252, -0.7109360694885254, 0.010335976257920265, 5.965965270996094, 1.2789475917816162, -1.6271880865097046, 0.7526668310165405, -1.873828649520874, -3.34083890914917, -0.0976351872086525, -2.709933280944824, 0.7836491465568542, -1.6645808219909668, 0.8961509466171265, -2.7027924060821533, 0.8711634278297424, 0.41339486837387085, 0.1718851774930954, 2.175950288772583, 2.167158365249634, 1.4226915836334229, 0.7738311886787415, 4.206893444061279, -3.3666117191314697, 1.3265737295150757, -0.02295736037194729, -0.8610954880714417, -0.09396852552890778, -2.497709035873413, -0.8246152400970459, -1.4084748029708862, 0.03921821340918541, 0.09851178526878357, -1.4862079620361328, 2.356064796447754, -0.4164097011089325, -3.736499786376953, -1.3747907876968384, 1.2956571578979492, -0.10985663533210754, -0.1955055445432663, -1.3964786529541016, 1.8019260168075562, -0.2833600640296936, -0.14448538422584534, -3.4474430084228516, -0.3399985432624817, -2.2651708126068115, -0.8711329698562622, 0.021931085735559464, -0.13317528367042542, -2.086322784423828, -1.7759431600570679, 0.22337576746940613, -2.0029561519622803, -4.075239658355713, -2.2329165935516357, -0.1391877681016922, 3.0992159843444824, 2.2303647994995117, -0.5225414037704468, 7.25156307220459, -4.755746841430664, 1.4387069940567017, -1.7969306707382202, 0.29503265023231506, 2.643569231033325, -1.986918330192566, 3.1684494018554688, -5.237176418304443, 1.608489990234375, -7.482550621032715, -7.710660934448242, 0.08348473906517029, -1.5673331022262573, 0.11097744107246399, -1.4004223346710205, -0.5506009459495544, 1.3185675144195557, -0.13682562112808228, -0.09442930668592453, 2.5477519035339355, 0.01696035824716091, -0.190243661403656, -2.0113108158111572, 0.21029122173786163, -1.5276798009872437, -0.2775751054286957, -0.21337160468101501, -4.2469868659973145, -0.2355802208185196, -6.543078899383545, -0.04936237260699272, 1.258142352104187, 3.444319725036621, -5.538764953613281, 0.3252532482147217, -4.650575160980225, 0.08932463079690933, -0.5026915073394775, 0.5611312389373779, -2.013448476791382, 2.7261884212493896, 3.8834691047668457, 3.1808087825775146, 0.046533484011888504, 4.587303638458252, 0.11660518497228622, 1.7060171365737915, 2.0104336738586426, 0.7246197462081909, -0.9129660129547119, 2.1024413108825684, -0.3412421941757202, 1.862739086151123, -0.4941665232181549, -0.4363873600959778, -0.1501278579235077, -0.12076617032289505, -2.655292272567749, 0.9954493641853333, -0.1925649493932724, -1.60233736038208, -0.07397487759590149, -3.8607289791107178, 0.5114031434059143, -0.044015172868967056, -0.16395388543605804, -0.005832367110997438, 4.873215198516846, 0.9008934497833252, 0.014538507908582687, 0.17270997166633606, 1.1427260637283325, -0.14194822311401367, -0.008887536823749542, -0.8131033778190613, 1.481740951538086, 0.4691140353679657, 2.280029535293579, 0.061333101242780685, -0.6090748310089111, 0.3849281370639801, 0.50950026512146, -0.44763168692588806, -1.313472867012024, -0.11475476622581482, 0.22034534811973572, -0.05204985290765762, 0.9913876056671143, -0.6422814130783081, -3.4474542140960693, 0.7775866985321045, -0.014069387689232826, -1.5134007930755615, -2.049595832824707, -0.9310343265533447, 2.825348377227783, -0.9887593984603882, 3.6866142749786377, 1.7642477750778198, 0.05393771082162857, 1.0700712203979492, -2.323896884918213, 1.6369777917861938, -2.347036123275757, -3.1354188919067383, -2.4535067081451416, -2.869403123855591, -0.009943285025656223, -0.6256449222564697, 0.03237000107765198, -0.5927425622940063, 0.2992885410785675, -0.8122976422309875, 0.11157774180173874, -0.057653579860925674, -6.872921943664551, 0.36331406235694885, 0.024844886735081673, -0.5076872706413269, -0.9092753529548645, -1.705854892730713, -0.13273735344409943, -0.9547361731529236, 2.56965708732605, 0.7001810073852539, 1.0137404203414917, -0.061806660145521164, -1.9309297800064087, -3.2552309036254883, 1.3474366664886475, 0.3170459568500519, -0.5622161030769348, 0.005355265457183123, -1.9270944595336914, 0.6183295249938965, -3.108182430267334, 1.6065890789031982, 3.532517910003662, -2.5703935623168945, -0.02353864721953869, -0.9837170839309692, -0.9507875442504883, -2.225127935409546, -4.574067115783691, 2.0938384532928467, -4.431483268737793, 3.2690157890319824, -0.1784673035144806, 0.4745689928531647, -3.3001649379730225, -5.859345436096191, -1.9605284929275513, 3.0903990268707275, -5.16584587097168, 2.052694797515869, -0.03901065140962601, -1.3153245449066162, -0.07048598676919937, -2.7129838466644287, 1.149507761001587, -1.0275403261184692, 0.04679543152451515, -0.1065894141793251, 0.4745170474052429, 1.7649770975112915, 0.13919124007225037, 4.593210697174072, -0.48647576570510864, -0.9212002754211426, 0.14777976274490356, 3.6903460025787354, -4.471744537353516, -5.046546459197998, -0.6368129849433899, 0.047519657760858536, 3.3459055423736572, 1.7496254444122314, -0.3488812744617462, 0.10924948006868362, 0.552929699420929, 0.0004321498272474855, -1.3495979309082031, -1.215811848640442, -1.623833179473877, -2.0001168251037598, -0.4098770320415497, -0.13898155093193054, -0.16395831108093262, 2.8280858993530273, 1.9328722953796387, 1.9843616485595703, 1.757918357849121, 1.3503053188323975, -2.2428200244903564, -1.3906543254852295, -0.0036376002244651318, 1.1506959199905396, 1.3952537775039673, 1.4615319967269897, -1.0731877088546753, 1.3665339946746826, 0.5959458351135254, 2.288429021835327, 0.040724411606788635, -1.8000856637954712, -0.028026584535837173, -0.5415160059928894, 0.07129618525505066, -0.3128449320793152, -0.062119487673044205, -0.14672285318374634, 1.4625743627548218, 1.3911778926849365, 0.014968360774219036, 2.0856359004974365, 0.7412919998168945, 0.18743959069252014, -0.06680279225111008, 1.669326663017273, 3.3146190643310547, -3.04048490524292, 1.7276166677474976, -0.21952231228351593, 0.8751376271247864, -1.5639572143554688, -1.3752732276916504, 1.2282541990280151, 1.2858980894088745, 0.05636652931571007, -2.819531202316284, 0.5017825961112976, 4.424524784088135, 2.546492338180542, 0.03874088451266289, -3.2437045574188232, 0.12362560629844666, -2.452214002609253, 1.666006088256836, 0.03247614949941635, 2.311290979385376, 0.7943346500396729, -0.21578507125377655, -3.3721649646759033, -0.15725333988666534, -1.05681312084198, -3.1382884979248047, 4.122705936431885, -3.082709550857544, 2.345522403717041, -5.436183929443359, 1.7006657123565674, -0.09281130880117416, 2.4441263675689697, -0.037064079195261, -2.675508975982666, 0.6476680040359497, -1.325608730316162, 0.0067569175735116005, 0.010021578520536423, -1.600446105003357, -3.98376727104187, 0.10221469402313232, -3.0583267211914062, -3.790855884552002, 0.26281648874282837, 0.10062998533248901, 1.695926547050476, 1.3009753227233887, 0.6587716937065125, 0.3718261420726776, 0.03979698568582535, -0.8610530495643616, 0.9623891711235046, -0.623609185218811, 1.4708750247955322, -0.6033930778503418, -0.0879894569516182, -4.71647834777832, 1.3059682846069336, -0.11230287700891495, -1.099164366722107, -2.398956298828125, 1.7586420774459839, -0.027235161513090134, -2.3396806716918945, -0.3014736771583557, 0.6278367042541504, -0.9710708856582642, -0.24090392887592316, -3.2954330444335938, 3.247018337249756, -0.21827459335327148, -1.7789748907089233, -1.8228970766067505, -1.0815879106521606, 2.2692954540252686, -0.5241087675094604, 0.4658038914203644, -1.06649649143219, -0.04721768945455551, 0.27174752950668335, -0.101263627409935, -1.7821438312530518, 4.749157428741455, 0.6797162890434265, 0.05092805624008179, -0.0985259860754013, 2.2470617294311523, 1.2559183835983276, -0.14318552613258362, -3.461510419845581, 2.546926975250244, 2.91691517829895, -0.12558667361736298, -3.3457839488983154, -0.6631126403808594, -1.1211943626403809, -1.1150541305541992, -0.07214702665805817, -0.6034343242645264, -0.7549500465393066, 0.31780922412872314, 0.5366778373718262, -5.230525016784668, -0.14396853744983673, 0.5665386915206909, -0.29019102454185486, -2.1915671825408936, -2.652517557144165, -1.2711156606674194, 2.2648096084594727, -0.13257861137390137, -1.0508646965026855, 2.887502431869507, -3.09067702293396, -0.28416183590888977, 1.3419796228408813, -0.6669902205467224, 0.010500095784664154, 0.17382940649986267, -0.642035961151123, 2.224520206451416, 1.852647304534912, -0.05035724863409996, 0.39279451966285706, -0.29933375120162964, -0.21033503115177155, 0.11876840889453888, 1.0432162284851074, 0.045795805752277374, -2.883631944656372, 0.466484397649765, 0.8698176741600037, 0.07541140168905258, -0.04999668151140213, -3.118347406387329, -0.6964550018310547, -0.12604132294654846, 0.1377471536397934, -1.3077597618103027, 1.1528514623641968, -0.10182440280914307, 2.124361038208008, 2.898221731185913, -1.1768362522125244, -0.18458665907382965, -0.00569255743175745, -3.3276984691619873, 1.969670057296753, 1.3799264430999756, -0.05483013018965721, -1.631519079208374, 0.08584190905094147, -3.5795319080352783, 2.0033254623413086, 1.4664174318313599, 0.483919620513916, -2.5996482372283936, -2.077180862426758, -0.03153589367866516, -1.2124632596969604, 1.2673563957214355, -0.8825992345809937, -0.7679724097251892, 3.667442560195923, 1.7605160474777222, -2.956749200820923, 0.010382065549492836, 2.638183116912842, 0.3370876610279083, -1.683931589126587, -0.3831578195095062, 1.1040763854980469, 1.5832515954971313, -5.22812557220459, -0.008434335701167583, -0.3748261630535126, -0.09226658195257187, 0.5731388330459595, -4.7909440994262695, 2.511056661605835, -0.02781549282371998, -0.019838280975818634, -3.3108060359954834, -1.4330703020095825, -0.16134604811668396, -2.335322856903076, -2.3816845417022705, -3.313507556915283, -0.025474788621068, -0.2743648290634155, -0.6227562427520752, -2.5408449172973633, 1.5353449583053589, -0.10953239351511002, 2.304257392883301, -3.3132472038269043, -1.2910826206207275, 0.2167820930480957, 2.2905306816101074, 0.0017651427770033479, 0.6723456382751465, -1.1701146364212036, 0.1058606207370758, -3.8786532878875732, -3.1058290004730225, 2.155653715133667, -0.010595884174108505, -2.3360402584075928, 1.556269884109497, -0.44443559646606445, 0.35378581285476685, 3.1856882572174072, -4.5527448654174805, 1.0481826066970825, 0.11369577050209045, 2.2023401260375977, -3.6700329780578613, -1.909635066986084, -0.9515498280525208, 1.0236291885375977, -1.9461089372634888, -1.0549559593200684, -0.09265775978565216, -1.825680136680603, 0.10115151852369308, -1.5445530414581299, 1.3640384674072266, -0.0016558305360376835, 0.0573544017970562, -0.052529171109199524, 3.6903810501098633, -3.5628771781921387, 0.07170775532722473, -0.13343825936317444, -2.073209524154663, -2.629760980606079, 0.2279375195503235, -0.011256448924541473, -2.250077486038208, -0.9804428219795227, 2.290393590927124, 0.10085184127092361, -0.22118152678012848, 0.739870548248291, 0.06799343973398209, -0.5171284675598145, 1.766584038734436, 0.09358332306146622, -0.04864566773176193, -1.1908029317855835, 0.4805332124233246, -0.9425524473190308, -0.9685873985290527, -3.044708251953125, -0.054045937955379486, 2.016596794128418, -0.8491156697273254, -2.707310676574707, -1.187252163887024, 0.9717827439308167, 0.8385170698165894, -1.4924890995025635, 0.10891817510128021, -2.4852283000946045, -0.13370642066001892, -3.2274255752563477, 2.0887622833251953, 2.1075572967529297, 0.76950603723526, 0.009717341512441635, 0.16273249685764313, -0.005884368903934956, -0.05700286105275154, -1.4354450702667236, 1.707805871963501, 1.9555697441101074, -0.12182822823524475, 0.08470400422811508, 1.5611461400985718, 3.314814567565918, -0.04277055710554123, -0.44941943883895874, 1.0286734104156494, 3.073814630508423, -0.0712660476565361, 0.13319598138332367, 1.0725114345550537, -0.28915494680404663, -3.2569503784179688, -0.2510055899620056, 0.024241486564278603, 2.1544251441955566, -2.0575191974639893, 0.7296691536903381, 0.775287389755249, 0.04902169480919838, -2.5202102661132812, 0.5031629204750061, -0.4230746924877167, -4.978133201599121, -0.958793044090271, 2.7545809745788574, 0.06528420746326447, 1.2478505373001099, 2.468719959259033, 0.5190984010696411, -3.14190673828125, 1.7367146015167236, 0.30381476879119873, 0.9699485898017883, -0.13030341267585754, 0.2988235056400299, -0.09370515495538712, 1.2105302810668945, -4.108394622802734, -0.9858223795890808, -1.2201650142669678, 0.5154546499252319, -0.05601683259010315, 2.12406849861145, -0.07429640740156174, 4.730860233306885, 1.6964118480682373, 0.5352030396461487, -0.13580118119716644, 0.0059332880191504955, 2.2606241703033447, -0.746766209602356, -0.04137130826711655, 0.8326188921928406, 1.9971476793289185, -2.6650004386901855, -0.006370082031935453, 0.5675762891769409, -0.10591690242290497, -1.6289438009262085, -3.1010892391204834, -0.03189168497920036, 2.7945330142974854, 3.5583536624908447, 1.7137802839279175, -0.0030430667102336884, -1.7557244300842285, -0.1380099058151245, -2.5134806632995605, -0.5836021304130554, -0.1700848489999771, -0.8007931113243103, 2.8794312477111816, -0.7772328853607178, -0.09957148134708405, 0.12379740923643112, -2.384093999862671, -0.39242175221443176, 1.8217277526855469, -0.09385532885789871, 0.35067182779312134, -4.122808456420898, -0.04487593472003937, -0.7115183472633362, -3.656712055206299, 1.6752485036849976, 0.4001900255680084, -2.7833070755004883, 0.5419610142707825, -3.2527360916137695, 0.12520508468151093, 6.257368087768555, 0.1107122078537941, -1.9599218368530273, -0.5822539925575256, -3.245405435562134, 0.16725783050060272, -0.12667234241962433, 0.6539933085441589, 1.9816958904266357, -0.11181508749723434, -3.4777002334594727, 0.221846804022789, 2.610173463821411, -0.03734121844172478, 3.1255879402160645, -1.6896120309829712, -5.87053918838501, -3.9269614219665527, 0.025966307148337364, -3.4810874462127686, 2.2396957874298096, -4.935948848724365, -2.474212408065796, 2.4869608879089355, 0.12303641438484192, 0.04162896052002907, 1.482065200805664, -2.105128765106201, -3.4622464179992676, 6.877933025360107, -0.05435287952423096, 0.057852260768413544, -0.21757489442825317, 1.9982191324234009, -0.6579668521881104, 3.8344874382019043, 0.21887417137622833, 0.3842104375362396, -0.6148864030838013, 0.035165585577487946, 0.28797194361686707, -0.13473016023635864, 1.3829532861709595, 0.1467580646276474, -0.3995612859725952, 0.29873961210250854, -0.34754976630210876, 0.06227604299783707, 0.25749462842941284, 0.07091862708330154, -2.923865556716919, -3.4697749614715576, 0.4897359609603882, 0.1244073286652565, 0.06206611171364784, 0.10387905687093735, -0.642080545425415, -0.047224514186382294, -1.5955473184585571, 0.14437803626060486, 0.19207864999771118, -0.016801634803414345, 1.95503830909729, -0.7061719298362732, 1.5454930067062378, -0.2943228781223297, -0.03806668519973755, 2.4326813220977783, 0.42425844073295593, -3.2312841415405273, 1.3165937662124634, -4.455992221832275, 0.04480087012052536, 1.4507081508636475, -1.059181571006775, -2.649259090423584, -3.1822891235351562, -0.20090459287166595, -3.9823317527770996, -0.11208585649728775, -2.197932004928589, -0.024486834183335304, 1.060255765914917, -0.465694785118103, -4.3967461585998535, -0.2219420224428177, -0.03584006428718567, -0.07025205343961716, -1.6564544439315796, 0.2924049496650696, -0.524345874786377, -2.7060368061065674, -0.23582658171653748, -0.7056459188461304, -0.9343640208244324, 0.10554908215999603, 1.9523231983184814, -0.06307727098464966, -0.11412453651428223, 0.3878084719181061, -0.007884111255407333, -0.022815054282546043, 0.06789309531450272, 2.12791109085083, 1.8896559476852417, 0.1578742116689682, 0.08464078605175018, -5.251254558563232, 1.4815456867218018, 0.006464801728725433, -0.06147334352135658, 0.6923049688339233, -0.5687777400016785, 2.1970572471618652, -0.032282546162605286, -1.99358332157135, 2.2559475898742676, -4.806218147277832, -2.9853482246398926, -0.5345622301101685, 0.03380843251943588, 2.7609150409698486, -0.6743119359016418, -1.737075924873352, -0.14009077847003937, 0.7091635465621948, -1.2181625366210938, 0.2056516855955124, -1.5300655364990234, 0.44711971282958984, -0.017303965985774994, 1.7180209159851074, 0.9865215420722961, 2.5833005905151367, 0.24496743083000183, -0.14251482486724854, -2.6365084648132324, 1.201470136642456, -0.17017799615859985, -0.23827646672725677, 0.7592430710792542, 1.5344088077545166, -0.33470213413238525, -0.15219056606292725, 0.1382046341896057, -0.16294054687023163, 1.542423129081726, -2.6188676357269287, -0.1341865211725235, -0.22731773555278778, 0.1673058420419693, 0.5569751262664795, 0.5671795606613159, 0.1252649873495102, 0.04584631323814392, 1.2492585182189941, 1.926912546157837, 0.1433863639831543, -1.7786976099014282, -1.2714182138442993, -0.7033329010009766, -0.5161882042884827, 0.05605052411556244, 3.220255136489868, -0.8036211133003235, 1.4488314390182495, 0.8194220066070557, 0.3697415590286255, -0.1455092579126358, -1.6023539304733276, 0.9246788620948792, 2.5232129096984863, -0.08567148447036743, 4.990431308746338, 1.8751473426818848, -0.1446761190891266, 1.1978263854980469, 3.2223501205444336, 2.5278737545013428, 1.4036210775375366, -0.13115553557872772, 2.3138978481292725, -4.392600059509277, -0.07387559115886688, 1.1766676902770996, -0.9863452911376953, 2.2053630352020264, -1.7881546020507812, 2.0285377502441406, -1.8965773582458496, 4.407958030700684, 0.16741248965263367, -1.5303335189819336, -0.05948370322585106, -0.8048937320709229, 0.7554576992988586, 2.3925180435180664, 0.12560264766216278, -0.0026558900717645884, -3.5399720668792725, 2.0896785259246826, -0.3365721106529236, 1.8600770235061646, -0.6556441783905029, -2.356719970703125, 0.1814449429512024, 4.327803134918213, -5.425403594970703, -0.05346931517124176, 2.704791307449341, 0.14935967326164246, 0.052168652415275574, -2.832491397857666, -3.310131311416626, -1.5732245445251465, -4.42140531539917, 0.024778783321380615, -1.0915613174438477, -1.0224143266677856, -1.7008298635482788, 3.6369142532348633, 1.5083105564117432, -4.463920593261719, -0.040806371718645096, -2.3317959308624268, -0.9814932942390442, -0.5007531642913818, 1.0955528020858765, -0.40245264768600464, -2.00925874710083, 0.014840252697467804, 0.252185195684433, 0.6333006024360657, 0.8525566458702087, -0.8143386840820312, -6.246588706970215, 0.46772244572639465, -3.6988136768341064, 0.146657332777977, 0.09536955505609512, 0.5363452434539795, -0.11759206652641296, -0.8139340877532959, -0.6825060844421387, -0.1448282152414322, -0.14750777184963226, -0.02515571191906929, -1.1612035036087036, -2.5644352436065674, 0.10068007558584213, -1.5015026330947876, 0.02300279028713703, 0.36966970562934875, -0.011729078367352486, -0.7968361973762512, 2.36863112449646, -0.3536449372768402, -0.6723843812942505, 0.029879722744226456, 0.7875187993049622, 0.48898845911026, 0.0033312051091343164, -2.8985726833343506, -0.366788387298584, -0.047608934342861176, -1.6343923807144165, -0.439021497964859, 0.673804521560669, -1.2952334880828857, 1.915547490119934, -6.9393744468688965, -0.03504744544625282, 0.23194092512130737, -1.413957118988037, 0.4722806513309479, 4.735757350921631, -0.05790044367313385, -2.239405393600464, 0.5492066740989685, 0.23747697472572327, -0.576777994632721, -1.5072920322418213, -2.9037559032440186, 0.43872517347335815, -1.3329113721847534, -2.446120262145996, 0.2625700831413269, 0.10975512862205505, 1.3788801431655884, 0.08678819239139557, -2.8801119327545166, 0.7208305597305298, 1.7652573585510254, -0.13229641318321228, 0.022411968559026718, -0.1558138132095337, -2.7071022987365723, 0.0469110868871212, -0.7580512166023254, -2.400571823120117, -5.2502946853637695, 0.07847199589014053, 4.031965255737305, -0.18956595659255981, -1.6558938026428223, 1.9498546123504639, -0.16111381351947784, 4.410092830657959, 4.351311683654785, -2.5441367626190186, -3.6545889377593994, 4.892543792724609, 0.14810270071029663, 2.9837584495544434, -1.4271191358566284, 0.8410289287567139, -0.6912803649902344, -1.157671332359314, 1.7209364175796509, 0.0591457337141037, -0.8068986535072327, -0.8975470662117004, -3.5017621517181396, -0.46651366353034973, -4.013391494750977, 0.6997285485267639, 3.569032669067383, -0.017329085618257523, -0.8025471568107605, 2.8047101497650146, -3.201209545135498, -1.0767042636871338, 0.44852960109710693, 0.6181764006614685, -2.3120970726013184, -0.10090994834899902, 2.200939655303955, -0.02244211919605732, -2.1432950496673584, -0.12177404761314392, 1.5040405988693237, -0.009704487398266792, 0.04701957851648331, -1.7257846593856812, -0.2864139974117279, -0.06689579039812088, -2.973393201828003, -1.1789767742156982, -0.5428606271743774, 0.051398180425167084, -6.433862209320068, 0.2927514910697937, 0.706047534942627, -1.1791661977767944, 0.03943578898906708, -3.2545437812805176, 1.8524665832519531, -1.4689538478851318, -3.6230616569519043, -1.0293605327606201, 0.02479623816907406, -0.45464789867401123, 0.3220996558666229, 0.11921808868646622, 1.2962110042572021, -7.202496528625488, -1.5329850912094116, -0.14622728526592255, -1.4293996095657349, -1.146332025527954, -4.085649490356445, 4.841399669647217, 1.896268606185913, 1.4957493543624878, -0.758457362651825, 0.21230566501617432, -0.502501904964447, -0.21356576681137085, 3.194645881652832, -1.3721106052398682, -0.4195546805858612, 1.1752548217773438, 1.4167362451553345, -0.01564759761095047, -4.048006534576416, -0.024967852979898453, 0.5855472087860107, -3.9718778133392334, 0.21992743015289307, -0.15671373903751373, 0.0010161418467760086, -1.6157550811767578, -2.7773447036743164, -0.08650591969490051, 1.744822382926941, -0.7445078492164612, -2.3510661125183105, -0.01123160868883133, 2.4546031951904297, 0.0571921169757843, 0.7238377928733826, 3.609516143798828, -0.04444354400038719, -1.0638452768325806, -2.3564014434814453, 1.097843885421753, 2.3011932373046875, 1.5086597204208374, 0.07017782330513, 2.296251058578491, 1.985784649848938, -1.5592193603515625, 0.5418887734413147, -5.681477069854736, 0.9561905264854431, -0.03898892551660538, -3.496846914291382, -2.3736507892608643, 2.458894729614258, -2.323939085006714, 4.392614841461182, -0.6631161570549011, 1.753623127937317, -0.21559958159923553, 5.280686378479004, 1.8216763734817505, -0.04033096507191658, -3.678478240966797, -8.341979026794434, -2.446770429611206, 0.4239004850387573, 0.05190393328666687, 9.891108512878418, -0.02122918702661991, -1.0065264701843262, -0.4644632935523987, -0.23154295980930328, 0.004078884143382311, 0.020410029217600822, -8.466302871704102, -1.0497913360595703, -0.10150405764579773, 9.098939895629883, -0.988719642162323, -1.644607663154602, -0.05254872515797615, -4.5324201583862305, -8.075302124023438, -4.134423732757568, -1.538100004196167, 0.17577800154685974, 2.77803373336792, -6.572630405426025, 1.4377286434173584, -4.135008335113525, -10.683661460876465, -0.1249876543879509, -1.8717973232269287, -1.2712962627410889, 1.8309447765350342, -0.5638439059257507, -0.5333049893379211, 1.351314663887024, 0.008811065927147865, 0.002513002837076783, -0.400216668844223, -2.7035021781921387, 0.035447102040052414, 2.679732084274292, -2.6917033195495605, -1.5131944417953491, 0.12364648282527924, -4.521000862121582, -0.17135247588157654, -2.9075124263763428, -0.5237053632736206, -2.259284019470215, 0.18009598553180695, -5.704225540161133, -0.002547731390222907, 1.9355242252349854, -0.04840313270688057, -3.6426544189453125, 2.8774664402008057, -1.1621201038360596, 0.023435944691300392, -0.028793271631002426, -0.7986863255500793, 1.0411075353622437, -0.05988437309861183, -2.6910624504089355, -3.6799018383026123, -1.2977385520935059, 0.0069213793613016605, 2.2516837120056152, 2.3846585750579834, 0.22223776578903198, 2.430861711502075, -0.03411164507269859, -1.6915355920791626, 4.24010705947876, -2.5219156742095947, -0.06671278178691864, 0.9264776110649109, 0.017698172479867935, 0.5367271304130554, 0.2321949601173401, -2.014780044555664, -1.285439372062683, -0.5989713668823242, 1.1098685264587402, -0.02259303629398346, 5.286601543426514, -1.6204915046691895, 0.38500356674194336, 1.7308810949325562, 2.5890579223632812, 0.6205822825431824, 0.8090163469314575, -0.14837750792503357, -1.0437368154525757, 3.4576852321624756, 2.0383074283599854, 1.6089749336242676, -1.7005845308303833, 2.32873272895813, 1.1596943140029907, -0.005908747669309378, -4.266005039215088, -0.010124072432518005, -0.3364425599575043, -0.07074666023254395, -0.018801778554916382, -0.13650523126125336, -0.05459753796458244, -1.0806889533996582, 2.8208093643188477, -0.024237457662820816, 0.3128630816936493, 0.4381956458091736, -2.6553263664245605, -0.05430275946855545, -1.6239187717437744, -2.091618776321411, -0.8830245137214661, 1.147376537322998, -0.10986313968896866, -0.6258305907249451, -4.205886363983154, 1.1029479503631592, -1.1223139762878418, 0.9456060528755188, -0.08174127340316772, -3.682907819747925, -0.7705904245376587, -1.426796555519104, -0.8954936265945435, -1.8031842708587646, 0.1526661515235901, -0.17351441085338593, -1.6936450004577637, -4.238683700561523, 0.2677481770515442, -0.4232310652732849, -2.2695930004119873, 1.1586413383483887, 0.4775552749633789, 0.30794617533683777, -1.7831096649169922, -2.9283523559570312, 1.1800354719161987, -1.4826542139053345, -1.3512709140777588, -1.1946203708648682, -2.586308479309082, -0.01724844239652157, 0.6984919905662537, 0.06269989907741547, 0.44264400005340576, -2.347484827041626, -0.4927656650543213, 0.11952940374612808, 0.09514116495847702, -2.7874555587768555, -3.656874179840088, -0.3430819511413574, -5.532928466796875, 1.2686976194381714, 1.7680593729019165, -0.20378179848194122, 1.4420421123504639, 0.0836997702717781, -0.08155661821365356, -1.4716509580612183, 0.01539846695959568, -0.9847798347473145, 2.7926201820373535, -2.242368698120117, 0.5855342745780945, 4.579726696014404, 0.09747300297021866, 1.9413584470748901, 1.0288790464401245, -1.826087474822998, 3.658456802368164, 3.3700058460235596, -0.18896172940731049, 0.06257481873035431, 1.2104966640472412, 0.5852290391921997, 5.7125067710876465, 1.5439943075180054, 1.2090078592300415, -1.842170000076294, 4.367617130279541, -0.11342347413301468, 1.675053358078003, -1.4419771432876587, 4.053176403045654, -9.785980224609375, -7.046117782592773, -2.327181577682495, -1.4380619525909424, 0.015295018441975117, 2.8774075508117676, -0.072125144302845, -0.9893366694450378, 1.3632402420043945, 2.9079689979553223, -0.09857248514890671, -0.020156003534793854, -2.382723569869995, 2.812156915664673, -0.0911075621843338, 2.2964038848876953, 3.769237518310547, -0.15228046476840973, -0.0619853213429451, -1.9842294454574585, -4.21898078918457, -2.199686288833618, 1.6290587186813354, 0.17856913805007935, -2.30590558052063, -2.4424242973327637, -1.365938425064087, -1.1414332389831543, -4.753976345062256, 0.004045330453664064, 0.27233362197875977, -0.7405668497085571, 2.0190021991729736, 1.3368433713912964, -2.449110746383667, 0.1789083182811737, -0.0919637382030487, -1.8955328464508057, 0.9443300366401672, -1.6549293994903564, 1.307565450668335, 0.5497705340385437, -2.2236897945404053, 0.3449697494506836, 0.05783134698867798, 0.9742622375488281, 5.791889667510986, -1.5957244634628296, -1.4422941207885742, 4.117299556732178, 3.302446126937866, 0.1120368018746376, 0.049090683460235596, -0.26228097081184387, -0.06536392122507095, -1.514406442642212, 2.207890033721924, -0.10669928789138794, 0.003906306345015764, -0.06983721256256104, -0.8013449907302856, 1.6418274641036987, -0.01261103991419077, -0.65720134973526, 2.101168394088745, 1.4492470026016235, 0.03356640413403511, -3.787243604660034, 1.680781364440918, -3.134751558303833, 1.0378024578094482, -0.2613633871078491, -0.43506526947021484, 3.070661783218384, 1.523590087890625, 1.328959584236145, -3.641035795211792, 0.05661909282207489, -3.311673641204834, 1.4368035793304443, 0.8636488318443298, -2.693448543548584, -0.781026303768158, 0.2890395224094391, -0.09532742947340012, 5.224910259246826, 0.10320092737674713, 2.0232627391815186, -1.7357187271118164, -2.7267372608184814, -0.824672520160675, -1.0012950897216797, -0.01415090449154377, -0.12917651236057281, -3.012094020843506, 0.05986464023590088, 0.5146517753601074, 1.4386521577835083, -2.5605571269989014, 4.07889461517334, 0.031323038041591644, -2.2390475273132324, -0.05511341243982315, -4.604430198669434, -0.9604288935661316, -2.7427120208740234, 0.010460187681019306, -0.0063125197775661945, 1.4199894666671753, -0.0015257312916219234, -0.022223444655537605, 0.7579025030136108, 0.13483154773712158, 2.399315595626831, -0.10617411881685257, -1.2160815000534058, -1.9751677513122559, -0.7903535962104797, -0.874214768409729, -0.08212977647781372, -4.4868268966674805, -1.5339586734771729, -1.835257649421692, -0.14490491151809692, 1.2891274690628052, 0.1058235689997673, -2.0994441509246826, -1.5816807746887207, -0.22234851121902466, 1.728010892868042, 0.7061527967453003, -0.7530815601348877, -0.14377641677856445, 0.7397304177284241, -0.3782786428928375, -0.9730635285377502, 2.3359124660491943, -1.476261854171753, 3.5151872634887695, -0.476724237203598, 0.05460032448172569, 3.680194139480591, 2.1202714443206787, -2.8367843627929688, 2.3790042400360107, 4.234584808349609, 1.0653208494186401, 5.265739440917969, 0.011001910082995892, -0.6326625347137451, -0.017694471403956413, -3.333885669708252, -0.07045549899339676, 0.041109614074230194, -0.035516995936632156, -0.035282496362924576, -0.7461768388748169, -1.724496603012085, -0.45102423429489136, 2.6381359100341797, 0.6217671632766724, 1.2562421560287476, -0.15586836636066437, 0.21955476701259613, -2.0250349044799805, -1.1119256019592285, 4.121382236480713, -0.18867447972297668, -5.411750793457031, 0.36664924025535583, -4.493143558502197, 0.13654358685016632, 1.544809103012085, 0.023544980213046074, -5.968393325805664, -0.682461678981781, -6.278666973114014, 1.5416690111160278, 0.4001736044883728, 1.39987313747406, -0.10695742815732956, -3.7504706382751465, 1.018602728843689, -0.9219400882720947, -0.30032825469970703, 0.32202422618865967, -0.4129554033279419, -0.4440472424030304, 0.016356484964489937, -1.1273679733276367, 0.9622279405593872, -4.30446720123291, 0.41613397002220154, 2.251986503601074, -0.24176879227161407, -1.0560494661331177, 0.06551328301429749, -2.029545307159424, 0.051227930933237076, -1.0607566833496094, -0.4240405261516571, -0.720860481262207, 0.09753215312957764, -0.049662813544273376, -1.7721689939498901, 1.4113125801086426, -0.039745599031448364, 1.487552285194397, -1.088923454284668, -1.2357996702194214, -0.0008326663519255817, -3.918890953063965, 1.7422541379928589, -1.2620258331298828, 2.3136820793151855, -0.045102283358573914, -2.298701286315918, -0.19019564986228943, 1.2447575330734253, 1.4187078475952148, 0.3228069841861725, 0.06307243555784225, -2.5807528495788574, -0.9981441497802734, -1.4626613855361938, -0.6337090134620667, -1.3530179262161255, 0.360134094953537, 0.06482172012329102, -3.0260307788848877, 2.401668071746826, 0.2323245257139206, 1.0270577669143677, -0.7090865969657898, -0.9567872285842896, 0.17666800320148468, 0.0014660056913271546, 0.9962538480758667, -1.0525394678115845, -2.8768746852874756, -2.064598560333252, 3.33095121383667, -1.373694658279419, 1.2732642889022827, -0.010246825404465199, -1.3384623527526855, -0.06233159452676773, 2.8105263710021973, -3.213259220123291, 1.9243571758270264, 0.005648466758430004, -0.006652968004345894, 2.446021318435669, 0.953212559223175, 0.06929612904787064, -1.2132973670959473, -2.2356584072113037, -1.2775112390518188, 0.16091087460517883, -5.598196983337402, -1.8694849014282227, 1.9432690143585205, 3.433572769165039, -0.004155177157372236, -0.16386306285858154, 1.983656406402588, -0.04509987309575081, -2.850996732711792, -1.1611515283584595, 0.029253192245960236, -7.177984714508057, -0.03355059027671814, -0.3181418180465698, 0.9622302055358887, 0.6731842756271362, -1.0536596775054932, 0.05474444851279259, -0.5077393651008606, -3.0729832649230957, 1.131762146949768, 0.7007980346679688, 0.17109747231006622, 0.4106895327568054, -1.2996814250946045, -0.07497350126504898, -2.469773769378662, 4.229413032531738, 4.415693759918213, 0.4516947865486145, -3.9710168838500977, 1.1498758792877197, -3.5491738319396973, 0.08223406225442886, -0.108896404504776, 0.05079182982444763, 0.5855669975280762, 1.0975326299667358, 0.04212762415409088, 0.13677380979061127, 0.017075683921575546, -0.4666104018688202, 0.474132776260376, -0.0662524625658989, -0.7169010043144226, -3.169370651245117, 0.3852848708629608, -0.03469136729836464, -2.991379737854004, -0.5389675498008728, -0.06496541202068329, -3.1067798137664795, -0.004363148007541895, -5.595248222351074, 6.29940128326416, 1.670832872390747, 0.05736663565039635, 0.5468863844871521, 0.05443461611866951, 0.25763726234436035, -2.169175386428833, 1.0788038969039917, 1.059930682182312, -2.0038959980010986, -0.09800945222377777, 0.09955944865942001, 0.8397343754768372, 1.2030234336853027, -2.112138032913208, 0.9041754603385925, 2.554044485092163, 1.0352987051010132, -0.9890376329421997, 0.06432773917913437, -4.787176132202148, -0.28033560514450073, 5.292863845825195, 0.5785665512084961, -0.44617560505867004, 0.9324349761009216, 1.4342244863510132, -0.08503112196922302, -1.818747878074646, -0.13947530090808868, -6.014262676239014, 1.8707221746444702, 1.1862326860427856, -0.027944492176175117, -0.09751750528812408, -1.2197593450546265, 4.250094890594482, 0.19402256608009338, 2.6163058280944824, -2.076354503631592, -2.8197882175445557, 0.34122028946876526, 1.8037728071212769, 5.2703046798706055, -1.944473147392273, -2.5959832668304443, 0.10219807177782059, -3.115938663482666, 0.09059853851795197, 3.6738593578338623, 0.3464937210083008, -0.20237812399864197, -0.0087346276268363, 0.8689675331115723, -0.620246171951294, 0.12730936706066132, -0.5014346241950989, 2.4091532230377197, 3.3893749713897705, -0.0016846060752868652, 2.8945419788360596, -1.4285227060317993, -1.7055270671844482, -0.22066709399223328, 0.7813943028450012, -1.280908226966858, -0.07893986999988556, -0.009303838014602661, -2.6799285411834717, -0.45525169372558594, 0.3397592604160309, -0.7405320405960083, 0.35023653507232666, -3.2844159603118896, 0.9875430464744568, -0.059873539954423904, -5.041199207305908, -0.03193013370037079, -1.839393973350525, -1.2182238101959229, -2.912341356277466, -0.05552268028259277, -0.13708069920539856, -0.7286741733551025, 4.9343791007995605, 0.21823590993881226, 4.595344066619873, 1.7923942804336548, -0.13488343358039856, 0.12047899514436722, -0.5724343657493591, 0.7976730465888977, -4.712133407592773, -1.6444039344787598, -0.04522733390331268, 2.0631091594696045, 2.3752546310424805, -0.08576249331235886, 0.5823057889938354, -4.528196811676025, -0.019148599356412888, -0.030193880200386047, 0.17484913766384125, 0.2500177025794983, -0.03095068223774433, -1.030632734298706, 2.8450703620910645, 0.18349367380142212, -0.15879008173942566, -2.1323652267456055, 0.7293258309364319, -2.8545355796813965, -1.3730592727661133, -1.6007510423660278, -0.843370258808136, -0.047290537506341934, 3.387895345687866, -2.1445207595825195, 1.3406974077224731, 1.4706363677978516, 1.7817975282669067, -3.9630966186523438, 3.1925017833709717, -0.06686961650848389, 0.6740719079971313, -0.03628130257129669, 0.1672194004058838, -0.03173932433128357, -3.6967122554779053, -0.05753672495484352, 0.050215791910886765, 0.057865604758262634, -2.6068761348724365, 0.015997301787137985, -0.7737202048301697, 3.659072160720825, -0.7301135659217834, 0.0723455473780632, -2.290388584136963, -1.934179663658142, -1.6449463367462158, -0.9070261716842651, -0.018925532698631287, -0.7808553576469421, 1.9761782884597778, 1.6164402961730957, -1.9610986709594727, 0.5761382579803467, -0.08469560742378235, -2.6364927291870117, -1.5890663862228394, 0.32553911209106445, 1.4498976469039917, -1.1556645631790161, 0.378223180770874, 0.023176511749625206, 0.1338651180267334, -1.381973385810852, 0.39690762758255005, 0.025640008971095085, -2.4790256023406982, 2.029106616973877, -2.2430174350738525, 0.12870651483535767, 2.0598840713500977, -1.8629016876220703, 1.312822699546814, 1.9249310493469238, -1.4849364757537842, -0.23407523334026337, 1.5151653289794922, 0.08124731481075287, -2.022857427597046, 0.0355389267206192, 1.3253052234649658, -1.5535062551498413, 0.0509735569357872, 0.05187110975384712, -0.029179146513342857, 2.7123641967773438, -0.24512852728366852, 0.0016227143350988626, 1.16361665725708, -1.495521068572998, 0.10674663633108139, 0.0575108639895916, -2.2766551971435547, -1.4402387142181396, 2.2162270545959473, 1.091111421585083, -0.044805072247982025, -0.14512349665164948, -1.1474448442459106, -0.409961998462677, -1.537972092628479, -1.0964337587356567, 0.09148000925779343, -0.08469082415103912, -0.818777322769165, -1.6873842477798462, -0.24360407888889313, -1.8351067304611206, 1.9770878553390503, -0.021362731233239174, 1.618546724319458, -2.8053102493286133, -2.6332976818084717, 3.808627128601074, 0.39129897952079773, 0.7308772206306458, -1.9850629568099976, 0.016657795757055283, 2.3698697090148926, -1.1607060432434082, 3.4270131587982178, -1.2055643796920776, -6.742133617401123, -0.4921574592590332, 0.3619670569896698, 0.07703184336423874, 0.16479577124118805, 0.0791827142238617, -4.294880390167236, -2.1329524517059326, 1.125054121017456, -0.03583604469895363, 0.0008789031417109072, -1.618710994720459, -1.310514211654663, 0.06300909072160721, 1.0163999795913696, 0.6395557522773743, -0.24705371260643005, -0.03945053741335869, 3.245622396469116, -3.41009521484375, -1.738491177558899, -0.20811647176742554, -0.0748995989561081, 1.4475255012512207, -4.655263423919678, -0.7287139892578125, -2.429903268814087, -0.7885097861289978, 0.053362179547548294, -3.1834683418273926, -1.6143290996551514, -3.9428272247314453, -0.8172937035560608, -0.3136134743690491, 2.4758002758026123, -0.041238147765398026, -5.614694118499756, 5.112888336181641, 0.44674965739250183, 0.33716458082199097, -0.22635166347026825, -0.947018027305603, 2.278140068054199, 0.18561682105064392, -1.0978071689605713, -0.4244261682033539, -0.4924541413784027, -0.719794511795044, 1.623318076133728, 2.8110342025756836, 3.802367687225342, 0.06460744887590408, -2.898099660873413, 0.06307961046695709, 2.054593086242676, -0.09729400277137756, 0.5215915441513062, -0.023630861192941666, -0.06869954615831375, -2.717064142227173, -0.10958091914653778, -0.1346505731344223, 0.31269997358322144, 0.9104554057121277, 4.348812103271484, -0.084468312561512, 0.21819999814033508, 1.9502812623977661, -2.927546977996826, -1.815556287765503, 0.0515766441822052, -3.9912776947021484, 0.812243640422821, 3.834455728530884, -2.6626336574554443, 0.32246801257133484, 0.010040191002190113, 6.2463860511779785, 2.3505096435546875, 1.6919646263122559, 1.8321564197540283, 2.2054712772369385, -0.14601680636405945, 0.02662384696304798, 1.4539910554885864, 0.22756920754909515, -0.9843049645423889, 4.685506343841553, -4.4901556968688965, 1.2833497524261475, -0.44008585810661316, 0.0416593924164772, 2.87581205368042, 0.8102205991744995, -2.523707866668701, 1.3009475469589233, -0.48684877157211304, -2.0424723625183105, 0.04753674566745758, 0.01262657344341278, 1.970768690109253, -0.05850790813565254, 1.1434587240219116, -4.810178756713867, 1.7724689245224, -0.029451139271259308, -0.02991568110883236, -0.5874263644218445, 0.44142967462539673, -0.004562531132251024, -0.25824952125549316, -0.5131044983863831, 0.09598255157470703, 0.011508800089359283, -1.025080680847168, -3.293213129043579, -0.055216893553733826, 1.9375438690185547, 0.06303111463785172, -1.3969718217849731, 0.5180104970932007, -3.332463264465332, -1.249475359916687, 0.386974036693573, -0.02065429463982582, -1.6184405088424683, 0.15354645252227783, 2.261029005050659, 1.2482668161392212, 1.8772574663162231, -0.6567500233650208, -0.11169437319040298, 0.18772414326667786, -0.07896885275840759, -0.7623196244239807, -3.321516990661621, 0.09257567673921585, -3.865232229232788, 3.3748652935028076, 0.3058393597602844, -2.270784854888916, -0.3290503919124603, -0.2674645483493805, 0.9876262545585632, -2.6820876598358154, 0.20312203466892242, -1.4152718782424927, -0.018215490505099297, -2.342888355255127, -0.10739108175039291, 2.020350694656372, -3.4241206645965576, -1.0907561779022217, 0.0979839488863945, -0.16661839187145233, 0.1858772486448288, -2.749293565750122, -0.1713484823703766, 0.8080875277519226, -2.8395485877990723, -0.01067986711859703, -0.03997521474957466, 0.012106429785490036, -2.774529457092285, 2.0257186889648438, 0.23464784026145935, 0.015528121963143349, -0.946434497833252, 3.4473822116851807, 1.296613097190857, 2.5035996437072754, -4.465392589569092, 0.019415009766817093, 0.8562229871749878, -0.6269712448120117, -0.6465067267417908, 0.2440338283777237, 1.3969197273254395, 1.4774248600006104, 0.03777278959751129, 5.854991436004639, -0.28584253787994385, 0.6477901339530945, 4.403761386871338, -2.6660850048065186, -1.2134464979171753, 0.1846143752336502, -0.059021592140197754, 1.2617483139038086, 3.1046860218048096, -4.52192497253418, 1.3636317253112793, -0.027840830385684967, 4.092257022857666, -0.982014536857605, -0.01428550761193037, -0.9929226040840149, -0.011703782714903355, -2.176063060760498, 1.4748647212982178, 1.878991723060608, 0.11091221123933792, -0.0726405456662178, -2.322509765625, 3.0111653804779053, 0.33077895641326904, 2.5955231189727783, 1.147955298423767, -1.818102478981018, 0.26899904012680054, 1.514999270439148, 1.2866650819778442, 0.8014243245124817, -0.23697523772716522, -0.020201368257403374, 2.866896152496338, -0.05553470179438591, 0.09508474916219711, 1.3158776760101318, -0.7479788064956665, -0.12067432701587677, -1.2712304592132568, 3.8111259937286377, 1.8876664638519287, 2.8947455883026123, -0.843987226486206, -1.5959945917129517, -0.01817941665649414, 1.38185715675354, -2.619966745376587, -4.489735126495361, 0.08517086505889893, 1.09543776512146, -1.8929922580718994, -3.858785629272461, -0.13629448413848877, 1.5607012510299683, 0.10201898962259293, -0.2821143865585327, 2.765268325805664, 2.1029374599456787, -0.29779288172721863, 0.41415679454803467, 0.027049977332353592, 0.7039511203765869, -0.10862194001674652, 1.7706282138824463, -3.741910934448242, -4.045543670654297, -0.03424347564578056, -0.011840976774692535, 0.5215799808502197, 2.827885389328003, -0.04415038228034973, 2.500535011291504, -2.746570348739624, 3.425920248031616, 0.01745898276567459, -0.662717342376709, -1.0214715003967285, 0.9895887970924377, 2.6995062828063965, 0.03276028484106064, -3.632316827774048, 0.900861382484436, -1.7234961986541748, 1.9522162675857544, -1.1461777687072754, -0.118629090487957, -1.6901086568832397, -0.8779213428497314, -1.6071193218231201, -2.4147486686706543, -1.212354302406311, -1.1255533695220947, 0.12998080253601074, 1.3607968091964722, -2.909367561340332, 0.2539744973182678, 1.5055238008499146, -0.628580629825592, -0.06739142537117004, 3.0693273544311523, -0.08393219113349915, -0.8421072363853455, -1.3232403993606567, -0.8126857280731201, -0.0972079187631607, -8.959173202514648, -0.9436012506484985, -5.514132022857666, -0.060081467032432556, 2.659393548965454, -0.114664725959301, -1.2310905456542969, -1.3945059776306152, -2.488861322402954, -0.08143357932567596, 0.05397968739271164, -6.360001564025879, 0.6914347410202026, -0.1472117006778717, 0.7033284902572632, 1.1356087923049927, -1.5115602016448975, 0.02528814785182476, 5.347254276275635, -2.9991743564605713, -1.3037657737731934, -0.8004433512687683, 0.2099575698375702, 2.5583040714263916, 1.1609773635864258, 1.421112298965454, -2.5481019020080566, 1.3666536808013916, 0.06025153771042824, 2.518292188644409, -2.3506481647491455, 0.555629312992096, 0.8106939196586609, -3.552311420440674, 0.35510799288749695, -0.06696338206529617, 1.468509316444397, -2.017002582550049, -3.2781119346618652, 2.805779218673706, -1.5835539102554321, 1.5521162748336792, -1.9828081130981445, 0.020681414753198624, 1.1265679597854614, 2.9631030559539795, 1.5789765119552612, 1.0399450063705444, -4.265879154205322, 2.5567901134490967, 2.827575445175171, 0.10659924149513245, -2.354135751724243, 0.006283523980528116, -5.882417678833008, 0.4636310040950775, 1.8729374408721924, 0.11331761628389359, -0.0007354147965088487, -8.960529327392578, -2.114190101623535, -0.2546887695789337, 0.2127661556005478, 1.3718233108520508, -2.6364505290985107, -0.052819423377513885, -1.724834680557251, -0.07852813601493835, -2.6519687175750732, 4.1977949142456055, -0.015631722286343575, -0.32988253235816956, -8.30049991607666, -1.4291772842407227, -1.911302089691162, -8.039384841918945, 0.13853174448013306, 3.908153533935547, 1.0904018878936768, 2.167628049850464, 1.651890754699707, 1.0487396717071533, -0.032569143921136856, 0.12260989099740982, -0.4849088490009308, 3.6561763286590576, -3.765197277069092, -11.31186580657959, 2.232028007507324, -0.8052365183830261, -5.237498760223389, -0.05338667705655098, 2.53446364402771, -2.074883460998535, -0.04557722061872482, 1.4145431518554688, 1.0846476554870605, 0.13065724074840546, -0.25637733936309814, -0.03352256119251251, -1.0753555297851562, -0.1495915800333023, -3.47556471824646, 5.199655532836914, -1.630759596824646, 0.026923762634396553, 0.09033405780792236, -3.5417897701263428, -0.8020246028900146, 0.057537708431482315, 3.7349650859832764, -2.885923147201538, 1.5612385272979736, 0.03262000530958176, 3.819842576980591, -0.0633431077003479, 2.0681910514831543, -1.568373203277588, 0.055788055062294006, -0.9455539584159851, 2.2283785343170166, 1.396584391593933, -1.3108861446380615, -3.871007204055786, -0.009371443651616573, 3.0311272144317627, 1.4780079126358032, -0.0671558529138565, -1.7405015230178833, 2.2237467765808105, -0.005091285333037376, 0.21869422495365143, 2.5588955879211426, 2.4948060512542725, 1.9428850412368774, -1.619605541229248, 1.2076557874679565, 1.0223968029022217, 1.1169062852859497, -0.6530181765556335, 2.58799409866333, 0.21844519674777985, -1.2606699466705322, -0.16171270608901978, -1.051680326461792, 1.3576854467391968, 0.10942616313695908, -0.09476210922002792, 3.283489227294922, -0.05590394139289856, 1.6872637271881104, -0.28225570917129517, -0.44348374009132385, 0.09822311252355576, 0.12245991826057434, -1.7613292932510376, -0.37576761841773987, 0.12649431824684143, 5.652010440826416, -3.6583075523376465, 0.3309556841850281, 0.19920453429222107, -10.751293182373047, 0.19998465478420258, 1.1103308200836182, 3.1333718299865723, 0.21401795744895935, -1.9498002529144287, -2.0637121200561523, -3.4035487174987793, -0.6924607157707214, -1.2204644680023193, -0.04864674434065819, -1.0075770616531372, 2.7727348804473877, 0.5684854388237, 2.5083136558532715, -2.6194040775299072, -0.638446033000946, -0.07080269604921341, 3.0607306957244873, 3.303903341293335, -1.453460454940796, -0.9461997151374817, 0.9374048709869385, -3.9684672355651855, -2.6266350746154785, 0.2170022875070572, 1.2413091659545898, 3.362675666809082, 1.3875514268875122, 0.8355730175971985, 0.09068405628204346, -0.6326795816421509, 1.7599722146987915, 0.1304256170988083, -0.5948091149330139, 0.07371332496404648, 0.5018813014030457, 2.456622838973999, -0.30394819378852844, -0.03222889453172684, -0.11171591281890869, -2.445751667022705, 1.6909691095352173, -0.12368070334196091, -0.687458336353302, -0.6972630620002747, -2.093810558319092, 0.01146960724145174, -3.9639291763305664, 3.5608582496643066, -3.216594696044922, -3.096539258956909, -0.13951247930526733, -1.2352429628372192, 2.973900556564331, 0.8384817242622375, -0.3299432396888733, -0.8444855809211731, 0.04473163187503815, 1.0020488500595093, 2.5475876331329346, 0.9509686827659607, 3.4671685695648193, -1.731613039970398, 1.8319882154464722, -0.02780831791460514, 2.6192736625671387, 1.20972740650177, 1.6454029083251953, -2.429503917694092, -3.2350406646728516, -0.8635653853416443, -1.6539943218231201, -0.2604381740093231, 0.21712112426757812, 1.9977200031280518, 0.27465054392814636, 1.1731783151626587, 2.240652322769165, -0.4408925473690033, 1.3488563299179077, 0.02720261551439762, -4.090573787689209, -0.11300478875637054, 0.17010293900966644, 1.4303650856018066, -0.6921502947807312, -0.02180948294699192, -0.009710119105875492, 0.4292413592338562, 0.4761781096458435, -0.049663182348012924, -0.8564624786376953, -1.2179677486419678, 0.33111244440078735, 0.022064603865146637, 1.4276989698410034, 1.694848895072937, -2.4383997917175293, 1.4495916366577148, 0.08280669897794724, 0.0002250683755846694, 5.437081336975098, 0.8742817044258118, -1.5157572031021118, 1.390499234199524, -0.14855001866817474, -0.8819903135299683, 0.6651163101196289, -1.2751692533493042, -0.7318946123123169, 0.5578129291534424, -2.557403326034546, 0.07028601318597794, -4.2989983558654785, -2.4762673377990723, 3.7028801441192627, 0.5578308701515198, 2.661240577697754, 0.27528995275497437, 0.6681103706359863, -0.6136175394058228, 7.1786065101623535, -3.105727434158325, 1.238763451576233, -0.6560746431350708, -4.603885650634766, -3.061223030090332, 2.5619349479675293, -0.030961884185671806, 6.431060314178467, -0.10074993968009949, -1.575276494026184, -3.7182915210723877, -1.5705963373184204, 0.14301469922065735, 0.13986392319202423, -2.051079034805298, -3.3005237579345703, -0.10188005119562149, 7.423283100128174, 0.8021450042724609, -3.534127712249756, 0.01635950617492199, -4.7212324142456055, -2.551384687423706, -1.424157977104187, 2.210663080215454, 0.08707308769226074, 2.9750142097473145, -7.141107082366943, -1.6686447858810425, -2.1211438179016113, -6.158601760864258, -0.021466460078954697, -16.982894897460938, -1.5970382690429688, -2.670555353164673, -4.6239423751831055, -0.62071692943573, 4.262336730957031, -0.08207622915506363, -0.05903679504990578, 0.22013801336288452, -1.727928876876831, -0.34280070662498474, -0.3311227560043335, 0.762653648853302, 0.5982882380485535, 0.254645437002182, 1.0904088020324707, -1.8287649154663086, 1.6800838708877563, 4.3600382804870605, -6.513632774353027, 0.32886284589767456, -2.247227668762207, -0.019008295610547066, 1.0419461727142334, 0.02588099241256714, 0.5875636339187622, 0.4671272337436676, -3.632538080215454, -0.1413937658071518, 0.08610593527555466, 1.0739303827285767, -1.1579993963241577, -0.03675943240523338, -1.4020169973373413, -3.810394287109375, -0.19459503889083862, 0.12144694477319717, 6.44123649597168, 0.7979283928871155, 2.4839255809783936, -1.182552456855774, -0.13774466514587402, 4.001023292541504, 1.555788516998291, -3.4318580627441406, -3.7658398151397705, -1.5177072286605835, 0.16819138824939728, -0.6339704990386963, -0.44881558418273926, 2.6302855014801025, -0.03185639530420303, -1.9358494281768799, 0.4294221103191376, 0.10655567049980164, 1.2606165409088135, -1.3820953369140625, 1.5146524906158447, 3.5510926246643066, 2.1970224380493164, -3.7385692596435547, 1.9454232454299927, -0.015363366343080997, 0.20541797578334808, -4.042876720428467, -0.20652735233306885, -3.3277196884155273, -1.4465694427490234, -3.4966881275177, -0.5242340564727783, -0.037213604897260666, 0.7037249207496643, -0.09942495822906494, 2.3134608268737793, -0.5385108590126038, 1.716703176498413, -0.10474900156259537, 0.07083401829004288, 0.18819260597229004, 0.12407823652029037, 0.018328456208109856, -2.720008611679077, -3.8690614700317383, 0.29675742983818054, 0.023567132651805878, 3.6369705200195312, -0.15728354454040527, -1.4852474927902222, 0.0375385582447052, -0.026924384757876396, -2.0580902099609375, 0.8102824091911316, -2.0868427753448486, -2.0664501190185547, 3.3578836917877197, -0.03338806331157684, -2.6850321292877197, -0.6898743510246277, -0.3887577950954437, -6.546078205108643, 0.9528623819351196, -5.3725433349609375, 0.04732006415724754, 1.5891485214233398, 2.2820889949798584, -1.2289373874664307, 3.648750066757202, 2.571307897567749, 1.4665011167526245, -0.5088508725166321, -0.11275359243154526, -0.6694052219390869, -2.52081298828125, 0.2713477611541748, -0.5713630318641663, -1.5237600803375244, 0.9591856002807617, 0.650855302810669, -0.00344728771597147, -2.703157424926758, -0.035710446536540985, -0.17673784494400024, -0.31882962584495544, 1.713835597038269, -0.001235585892572999, -0.00940986629575491, 0.7325507998466492, 0.1630917340517044, -0.09677709639072418, 1.5101453065872192, 2.270259380340576, -1.3967137336730957, -0.05902929976582527, -1.7811588048934937, -4.407989501953125, 2.670785665512085, -0.7615455389022827, 0.09067510813474655, -0.48788943886756897, -1.3470516204833984, -0.9174220561981201, -0.16707341372966766, -1.6751713752746582, -0.08271217346191406, -1.4602760076522827, 0.15447106957435608, -2.691452980041504, 0.8929669857025146, -0.2753658890724182, -0.7730308175086975, -0.074775330722332, -3.3309504985809326, 5.048228740692139, -4.120669364929199, 2.7527475357055664, 3.414471387863159, 1.3916741609573364, 4.315695285797119, 0.008443307131528854, -2.692493200302124, -0.01215128693729639, -3.6137518882751465, 2.2769880294799805, -1.3689500093460083, 1.627676248550415, -1.1707569360733032, 0.11469317227602005, 1.5856380462646484, 0.02889677695930004, 0.6518437266349792, -0.07605716586112976, 1.1870085000991821, 0.139858677983284, 0.029025502502918243, 1.6884416341781616, -0.784816563129425, -0.04836086183786392, -3.799168348312378, 4.676463603973389, -3.7713396549224854, -0.0037146902177482843, 4.347362041473389, -2.0537221431732178, -4.216771602630615, -1.6687722206115723, -0.14700841903686523, -6.590625762939453, -2.605450391769409, -0.9398524165153503, 1.0918227434158325, 0.636021077632904, 0.1008806899189949, -4.783510684967041, 1.8995020389556885, -6.700071334838867, 2.3018298149108887, -1.220358967781067, 1.4077011346817017, -0.08376841992139816, -2.451117753982544, 0.5681527853012085, 2.487656354904175, 0.06712698191404343, 4.682132720947266, -2.5110421180725098, -2.5746970176696777, 0.06172025948762894, -3.586890697479248, -2.801036834716797, -0.3742106556892395, -1.5263522863388062, 5.161696434020996, -0.2781776189804077, -1.178260087966919, 0.12340667098760605, 4.074387073516846, 0.03858283907175064, -3.7137105464935303, -1.5116562843322754, -0.051630180329084396, 0.07413047552108765, -0.00019533649901859462, -0.8838978409767151, -1.551047921180725, 0.08070404082536697, 1.0542733669281006, 1.3586879968643188, -1.815016508102417, 0.10051476210355759, 1.1846965551376343, -0.9880097508430481, 1.2217384576797485, -1.6446062326431274, -0.060236524790525436, 0.29832005500793457, 1.3965998888015747, -0.23176635801792145, -3.7904469966888428, -0.6524555683135986, 0.018483484163880348, 0.7265535593032837, 0.8727325797080994, -4.305023193359375, -1.2110940217971802, 0.5737918615341187, -0.43837618827819824, 0.03909768536686897, 0.03896895423531532, -3.3899359703063965, -1.2160618305206299, 1.5252702236175537, 1.217430830001831, 0.7749599814414978, 2.914689540863037, -0.058571260422468185, -2.1056623458862305, -5.309175968170166, 0.7544211745262146, 0.10191591829061508, -1.3007776737213135, -0.7664635181427002, 1.096063256263733, -0.10590016096830368, 0.023318583145737648, -0.12048635631799698, -3.8722145557403564, -0.21279466152191162, -1.0627611875534058, -0.07853773236274719, 0.012015976943075657, 3.0178751945495605, 2.8651199340820312, 0.0520523265004158, 1.0458322763442993, 0.03338440880179405, 0.5255224704742432, -0.04617093876004219, 0.17550279200077057, 1.1192477941513062, 3.5607192516326904, 3.3575243949890137, 0.04482721909880638, 2.176466941833496, 1.1591488122940063, 1.4826585054397583, 0.40749621391296387, 2.5375678539276123, -0.05675690993666649, 3.3464581966400146, 2.4166769981384277, -0.39949390292167664, -2.101181745529175, -1.0997354984283447, 1.3926455974578857, -0.07227855175733566, 0.607846200466156, 0.28151577711105347, 0.4011673331260681, -1.6964530944824219, -0.27214887738227844, 2.8248002529144287, 0.5437461137771606, -0.040182601660490036, 0.45552435517311096, 1.043379306793213, -2.1444315910339355, -0.8516553640365601, 0.47574350237846375, -2.084272861480713, -0.6918781995773315, 0.1308843195438385, 0.010918020270764828, -0.03559255599975586, -1.4868550300598145, -0.41103509068489075, -3.0735771656036377, -0.0034923141356557608, -0.04478628933429718, 0.9356274604797363, 1.6256941556930542, -0.038383688777685165, -1.3394440412521362, -2.261115550994873, -1.600507140159607, -0.0007637642556801438, -0.21500271558761597, 1.2121168375015259, -2.8604631423950195, 0.05621261149644852, 0.19044096767902374, -0.8004685640335083, -0.8603408336639404, -0.5777685642242432, 1.8376758098602295, 0.8123650550842285, 0.2199137955904007, -0.33083099126815796, 1.0087188482284546, -1.5827585458755493, 0.03972700238227844, -1.2101327180862427, 0.4817103445529938, -0.013666510581970215, 0.058964118361473083, 2.2119157314300537, 3.149542808532715, 2.8734467029571533, -0.9984346032142639, -4.9646735191345215, -1.2074171304702759, -0.012445087544620037, -4.753048896789551, 4.901301383972168, -0.5363150835037231, -1.4614402055740356, -0.6385241746902466, 1.8932697772979736, -0.9096473455429077, 0.14892011880874634, 0.45143115520477295, 0.0709439069032669, 4.594263076782227, 3.0708272457122803, 0.8116041421890259, 0.17280197143554688, -0.04245556890964508, -0.9572557806968689, -2.815821886062622, 0.04617093876004219, -4.021820545196533, -1.4144773483276367, 1.3788316249847412, -0.04842563346028328, -0.2697654962539673, 0.1135159283876419, 0.7433515787124634, 4.9711384773254395, -0.10838164389133453, -5.1960883140563965, -2.74019718170166, -1.7908236980438232, 0.3377920389175415, -3.0531842708587646, 0.027007708325982094, -2.372775077819824, -1.6947280168533325, -0.7392790913581848, 0.7687497138977051, 3.074026107788086, 1.3097261190414429, 0.010188594460487366, -2.408473491668701, -3.734466552734375, 2.1355316638946533, -2.2052297592163086, 2.2268552780151367, 0.17336182296276093, 0.3302241265773773, -0.8554416298866272, 0.23537731170654297, -0.9673474431037903, -1.51523756980896, 0.5417038202285767, -8.752124786376953, 2.11175274848938, -4.1725287437438965, -0.01699238456785679, 4.762136459350586, 0.019170939922332764, -1.445519208908081, 2.5913777351379395, 2.0653886795043945, 0.46509408950805664, -0.13561762869358063, 1.8199766874313354, 1.1692159175872803, -0.1655193418264389, 7.9373908042907715, -0.7436150908470154, 1.0600188970565796, -0.08713234215974808, -7.303894519805908, -10.96804141998291, -1.8666250705718994, -3.136672019958496, 0.3695676922798157, -0.6757920384407043, -2.385085344314575, -0.6333159804344177, -7.177949905395508, -15.488640785217285, -0.13754577934741974, -0.9940422773361206, -2.7266006469726562, 2.3957831859588623, -0.6895057559013367, -0.6056280136108398, -0.2754688858985901, 0.14859609305858612, 2.0009472370147705, -0.9050989151000977, 0.4872787892818451, 1.24882173538208, -2.137248992919922, -1.0868077278137207, -1.2640224695205688, 0.03863629326224327, -3.444645404815674, 0.572464108467102, 3.6817259788513184, 1.3984086513519287, -0.46859222650527954, -0.9989874958992004, -1.2911146879196167, -0.13712741434574127, -0.035842034965753555, -0.027483923360705376, 1.3575786352157593, -0.012617318890988827, 0.6793322563171387, -0.055141229182481766, 0.12217392772436142, -1.550631046295166, 1.3665752410888672, 0.3047625422477722, -2.964101791381836, 1.3810685873031616, -0.4333699345588684, 0.12087634205818176, -3.1390464305877686, 5.638426780700684, 0.47232288122177124, 2.1617536544799805, 0.0701509416103363, -2.9915385246276855, 0.4392940104007721, -4.165469646453857, -0.2853926420211792, -0.03196238353848457, -0.04100200533866882, -4.106563568115234, 0.7823652029037476, -1.7064820528030396, -1.4010666608810425, 3.3423123359680176, -0.10369575023651123, -0.16955254971981049, 1.5688953399658203, 1.4617040157318115, -0.9296709895133972, 1.0436952114105225, -3.772127389907837, -1.009193778038025, 1.4391307830810547, 0.021122751757502556, 1.3141558170318604, -0.5861769914627075, 1.6610454320907593, 1.7398343086242676, 0.2208668291568756, -0.048300497233867645, 0.5257833003997803, 0.09099801629781723, -0.10867941379547119, 0.04412359371781349, 1.7205449342727661, 3.771790027618408, 1.0989457368850708, -0.0145585210993886, -0.09357405453920364, -0.04468844458460808, -0.2201727032661438, -0.19881993532180786, -0.5620107650756836, -1.4014281034469604, -0.20870910584926605, -0.17195814847946167, 2.120346784591675, -2.2186331748962402, -1.7225747108459473, -3.0922775268554688, -0.0017145004821941257, 4.616302013397217, -0.7100934386253357, 1.087378978729248, 1.2382780313491821, -2.479358196258545, -0.008400095626711845, 0.277509868144989, 0.8150542974472046, -0.6611117720603943, 1.6327228546142578, 1.5158189535140991, 1.5790830850601196, 0.01033721398562193, 1.083027720451355, 0.9594799876213074, 1.646632194519043, 0.8734485507011414, -0.8195170760154724, -1.6477173566818237, 0.7110309600830078, -0.03134162351489067, 1.278525710105896, -2.089874267578125, 3.1590006351470947, 3.478400707244873, 2.84611177444458, -1.881335973739624, 0.2400606870651245, 0.09189705550670624, 0.706750750541687, 0.1241094172000885, 0.6663592457771301, 1.6002129316329956, -0.9493642449378967, 0.03653917461633682, -0.02088882215321064, 2.7982213497161865, 0.11178621649742126, -0.036697663366794586, -1.8228425979614258, 1.5299930572509766, 0.3956567049026489, -0.06041645631194115, -1.3049532175064087, -9.79811954498291, -0.5059415698051453, 2.5176453590393066, -0.054811883717775345, -3.050616979598999, -0.13634739816188812, -3.0284221172332764, -0.5947512984275818, 0.6775944828987122, 0.015496882610023022, 0.9726751446723938, -2.2628371715545654, 2.4345877170562744, 0.2566811144351959, -4.872785568237305, -0.44629091024398804, -0.09375443309545517, -0.9989097118377686, 0.6523464322090149, -1.2068074941635132, -0.2690058648586273, -1.2086085081100464, 1.569551706314087, -2.0433132648468018, 0.16712510585784912, 0.7474285960197449, -0.6862432360649109, -3.345271110534668, 2.117143392562866, 0.17804916203022003, -0.748060405254364, 0.5886649489402771, -0.05093131586909294, -3.3170673847198486, 0.04395546391606331, -1.7243480682373047, 1.1222079992294312, 1.0892202854156494, -0.1477355808019638, -0.08572016656398773, -2.182549476623535, -1.7995977401733398, -0.058868665248155594, 0.7629162669181824, -3.3370859622955322, -0.7286094427108765, -0.15596753358840942, 5.4875664710998535, -1.8876832723617554, 1.405972957611084, -1.22660231590271, -0.11534056067466736, -0.617926836013794, 2.628946542739868, 0.7290276885032654, 1.8741599321365356, -1.9417651891708374, 0.11805567145347595, 0.46038979291915894, -0.38827240467071533, 0.6036878228187561, 1.5847077369689941, 0.7806902527809143, 2.4822633266448975, 0.11479653418064117, -5.5552449226379395, 3.9748096466064453, 0.04271869361400604, -0.9825361967086792, 1.350908875465393, 5.829472541809082, 2.356973648071289, 0.10425480455160141, -3.188014268875122, 5.2975172996521, -3.6246368885040283, -1.9488111734390259, 1.3617897033691406, 1.4458247423171997, 2.470724105834961, 0.15170931816101074, 4.848099231719971, 0.03322912007570267, -1.5192879438400269, 3.473252058029175, 1.6313774585723877, -0.02890591323375702, -0.01688576675951481, -6.5225934982299805, 1.0434613227844238, 0.30548879504203796, -0.006272443570196629, 1.8449808359146118, -1.276046872138977, 0.18978697061538696, 1.3194963932037354, -1.8783010244369507, -0.6173908710479736, -3.0975000858306885, 0.16822540760040283, -3.2736992835998535, 0.010273388586938381, -0.38217735290527344, 0.5762844681739807, 2.195909023284912, 0.0669238418340683, 3.7919671535491943, 0.5739260315895081, 0.5340898036956787, 1.2203195095062256, 0.038831546902656555, -0.47819432616233826, -0.02091326378285885, -1.988319754600525, 2.7794229984283447, 0.29577168822288513, 1.1937812566757202, -0.6004282832145691, -0.2521069645881653, -2.1527152061462402, 0.1218281164765358, -1.4971705675125122, 0.2325695902109146, -3.4803810119628906, 0.04856552928686142, -1.6176702976226807, -0.011885403655469418, 1.2377912998199463, -0.011623779311776161, -0.5364804267883301, 0.14519822597503662, 0.368830144405365, -2.0913822650909424, 1.7524601221084595, 0.04190286621451378, 0.05484071001410484, -0.011011913418769836, -2.9290807247161865, 0.04770314320921898, -1.40935218334198, -1.0240083932876587, -0.4295312762260437, 0.0548715703189373, -1.5855226516723633, 0.01874440722167492, -1.5778989791870117, -0.8404090404510498, -0.08132237195968628, 0.21793068945407867, 2.969230890274048, 0.3873761296272278, -0.2322198748588562, -0.3524700701236725, 0.0130328219383955, -1.5104814767837524, -0.260079950094223, 1.2233625650405884, 2.2616958618164062, -4.201752662658691, -2.985858201980591, 0.3020429313182831, 2.9536855220794678, -2.5627527236938477, -3.4266228675842285, 1.5709925889968872, -1.8409509658813477, 2.1324081420898438, -2.390747308731079, -0.055807746946811676, 4.462591171264648, -1.7856382131576538, -4.337940692901611, 1.5605003833770752, -2.4948954582214355, -0.29032254219055176, -0.8551373481750488, 0.08607124537229538, 0.724953830242157, 0.20348070561885834, 0.6735358238220215, -2.3954989910125732, 2.613316059112549, 0.24871717393398285, 0.3675243854522705, -1.3271325826644897, 2.7773663997650146, 0.7826197147369385, 5.951737403869629, -1.3383413553237915, -1.0753839015960693, 0.5352988839149475, -0.18948476016521454, -0.7683014273643494, -1.3379650115966797, -1.5181905031204224, -0.05642850697040558, 0.4939189553260803, -6.067943572998047, -0.9446762800216675, -0.21539050340652466, -0.2888036072254181, -0.1500709056854248, 1.6066962480545044, 0.7309072017669678, -2.7787961959838867, -0.9341031312942505, -5.177715301513672, 3.7607264518737793, 0.2851716876029968, 2.2809157371520996, -0.20726747810840607, 2.450453758239746, -1.9287726879119873, -0.033318471163511276, 0.5741045475006104, -0.12581713497638702, -0.2828374207019806, -0.6946241855621338, -0.2007923126220703, -1.0303772687911987, -1.5956237316131592, 2.423107147216797, -0.970034122467041, 1.1893117427825928, 0.06784207373857498, 2.5881552696228027, 0.007048125844448805, 0.7070364356040955, -3.9936575889587402, 1.9293996095657349, -0.05261184275150299, -0.09579882770776749, 1.0059314966201782, 0.492995947599411, 0.2534460127353668, 1.1155482530593872, -1.4540830850601196, -0.6770437955856323, 0.23728513717651367, -1.314675211906433, -2.2334144115448, -0.04504659026861191, -1.4280606508255005, 0.13320958614349365, -1.9428167343139648, 1.929694414138794, 1.9822040796279907, -0.6970458626747131, -0.3889297842979431, -0.11005312204360962, -1.1218496561050415, -0.4184383749961853, 0.797478973865509, 0.037868600338697433, 1.7147341966629028, -6.91032075881958, 0.00678588543087244, 0.3408012092113495, -4.966565132141113, -2.555466413497925, 1.4932063817977905, 0.8906175494194031, 5.580197811126709, -4.2913665771484375, -0.14583194255828857, 4.101559638977051, 1.4005106687545776, -1.9660917520523071, -0.03774229809641838, -2.627504825592041, -0.29803702235221863, 0.886476993560791, 0.11004339158535004, 6.098457336425781, -0.012999895960092545, -2.6684389114379883, -1.0653002262115479, 4.561784744262695, 0.17544551193714142, 0.012414040975272655, -3.909700632095337, 4.420654296875, 0.5623648166656494, 9.050057411193848, -1.8821791410446167, -1.7818430662155151, 0.31558528542518616, -1.656139850616455, -1.9243236780166626, -1.177706003189087, -2.6374995708465576, -0.2714490592479706, 1.3453903198242188, -3.063939094543457, -1.321984052658081, -0.2173316776752472, 0.6913043260574341, -0.09302044659852982, 1.9018865823745728, 0.47499510645866394, -4.56381893157959, -0.5388018488883972, 2.1158907413482666, -3.354440689086914, 0.062372174113988876, 2.2712960243225098, 0.9277756810188293, -1.924925684928894, 0.003772125579416752, -2.7778804302215576, -2.1421854496002197, 4.018407821655273, -0.09485945850610733, -0.3101996183395386, 1.1857473850250244, -2.142575740814209, -2.4425506591796875, 1.3812228441238403, 0.2634282410144806, 0.7173393964767456, -0.1421760469675064, 0.11781991273164749, -0.1041640043258667, 0.49871575832366943, -2.4326698780059814, -4.022994518280029, -0.17745889723300934, 0.1843571811914444, 1.3497567176818848, 1.6319472789764404, 0.6780357360839844, 2.0519044399261475, -1.7744944095611572, -1.339905858039856, 0.3159943222999573, -1.5229569673538208, -3.46164870262146, -1.9382909536361694, -3.4541282653808594, 0.35452762246131897, -1.9206480979919434, 2.6737868785858154, 1.9921845197677612, -0.3006168007850647, -1.5711456537246704, -0.3411332368850708, -1.6822017431259155, -0.6253077983856201, 3.112250804901123, -1.4897775650024414, 0.5344387888908386, -2.8720500469207764, -0.03253643587231636, -0.239729106426239, -0.6423825621604919, -0.792689323425293, 4.832021236419678, 4.840509414672852, 1.853895902633667, -2.6256513595581055, 0.3424035310745239, 2.3266477584838867, 2.0053393840789795, 1.3643895387649536, 2.184849977493286, -1.5260658264160156, 5.421540260314941, 5.6374831199646, 0.34938016533851624, 2.629149913787842, -0.09747625887393951, -3.089973211288452, -2.703338861465454, -1.0648822784423828, -0.0523570217192173, -0.26047810912132263, 0.6497986912727356, 2.2118539810180664, -0.28255173563957214, 7.71133279800415, 2.6284968852996826, -2.1656713485717773, -0.2858641445636749, 0.9238269925117493, 5.961676120758057, -2.0087215900421143, -3.2833354473114014, -0.27258920669555664, 2.2623071670532227, 1.3755779266357422, 1.0844842195510864, 0.5483582019805908, -3.74757719039917, 0.5024890899658203, 1.4878987073898315, 2.683250665664673, 5.465900421142578, -1.1105986833572388, 0.1079794317483902, 0.852272093296051, 0.02981792576611042, -2.8165602684020996, -8.349347114562988, -2.831045389175415, 0.40804535150527954, 1.0561798810958862, -3.3418540954589844, 2.9632883071899414, -0.15886494517326355, 1.631703495979309, -0.26819777488708496, -3.2988646030426025, -2.894760847091675, -3.9599905014038086, -2.591733932495117, -1.1393541097640991, 0.014618661254644394, -1.7071837186813354, -0.015248086303472519, 2.0759572982788086, 2.27425479888916, -3.0754451751708984, -0.026797449216246605, -0.06557352095842361, -2.0524682998657227, -0.16789154708385468, -0.18103629350662231, 0.6850875616073608, -4.039943218231201, -1.0264439582824707, -0.06273336708545685, -0.3347388207912445, -1.2625163793563843, 1.7010011672973633, -3.0409703254699707, -0.23668718338012695, 2.7639386653900146, -2.1274235248565674, 1.097280502319336, 3.0431904792785645, 5.283395290374756, -0.03817687928676605, 1.2689627408981323, -1.8138096332550049, 0.38639453053474426, -2.1599016189575195, 0.3418918251991272, -1.1665114164352417, -0.09659972041845322, -0.01846298947930336, -1.2310984134674072, -0.056321900337934494, -0.6895216107368469, 3.966702461242676, 0.340197890996933, 5.298442840576172, -0.1416929066181183, -3.145885944366455, 1.4968539476394653, -2.546882390975952, 0.3807567059993744, -0.10679628700017929, 3.959449529647827, 0.619286060333252, -0.16665056347846985, 1.4064662456512451, -0.09433026611804962, 1.9788360595703125, 3.3028507232666016, 2.4059646129608154, 0.015055553056299686, -0.06801608204841614, 2.0248353481292725, -0.9613414406776428, -0.061497900635004044, -3.404660701751709, -2.669229745864868, 0.03638961538672447, -0.0056445482186973095, 2.3205127716064453, 7.128579139709473, 1.71419095993042, -0.5574877262115479, -0.03484833240509033, -0.026239005848765373, 2.413331985473633, 0.9349867701530457, 1.8029745817184448, 2.8447413444519043, 0.007353121880441904, 3.1270997524261475, 1.6693309545516968, 0.6991512775421143, -1.1601924896240234, 2.219512939453125, 5.435550689697266, 0.08352214097976685, 0.1350371539592743, 2.317643165588379, 0.014811968430876732, 2.115325450897217, -0.3015454113483429, -0.22050108015537262, -1.9777883291244507, -0.18359647691249847, -0.14692096412181854, -1.326427936553955, 0.6441407799720764, -4.192434787750244, 0.7611817121505737, -0.510955274105072, 0.6073601245880127, 0.1364995837211609, 2.6352181434631348, -0.07691679149866104, -2.4406492710113525, -2.072171211242676, 1.4398396015167236, -0.01453532837331295, -0.057700831443071365, 0.6883206963539124, -1.9991720914840698, 0.08965734392404556, -0.30229711532592773, 1.868209958076477, -2.8817131519317627, 0.07631014287471771, 0.46418195962905884, -0.9629643559455872, -1.9123181104660034, -0.5986782312393188, 0.03879817947745323, -1.5664076805114746, 0.30488383769989014, 0.42302989959716797, -0.9694334268569946, 1.1481071710586548, 0.09297079592943192, -0.3553987741470337, 0.17646276950836182, -1.5158761739730835, 2.8914453983306885, -2.1298117637634277, -0.8271806240081787, 0.040032513439655304, -0.6027912497520447, 1.380416750907898, 0.8009369373321533, -3.8375792503356934, 2.423308849334717, 2.830592155456543, 2.4592370986938477, 0.31970712542533875, -2.4170637130737305, -0.26723891496658325, -1.9889435768127441, 3.5268964767456055, 1.0766736268997192, -1.0723081827163696, -0.4560147821903229, 0.18554450571537018, 3.3013980388641357, 0.0710868239402771, -0.47802019119262695, 1.9877114295959473, 2.632747173309326, 0.06537061184644699, 0.0017073057824745774, -1.3456246852874756, -0.5379733443260193, -0.07541503012180328, -2.033385992050171, 2.5441195964813232, -1.1262518167495728, 0.07915479689836502, 0.45258161425590515, -2.1923115253448486, 0.5372361540794373, 2.295107126235962, 0.01184348575770855, 3.080439805984497, 1.0120919942855835, 2.5232982635498047, 1.8344485759735107, 6.705578804016113, 0.23198892176151276, 4.28574800491333, 2.012845516204834, -2.00644850730896, -0.22327390313148499, -1.3061548471450806, -2.568956136703491, 0.00816453155130148, -0.6762868165969849, 2.0969324111938477, -1.265504002571106, 1.2127031087875366, -0.7678495645523071, -1.7828813791275024, 1.360721468925476, -0.180625781416893, -0.8123517632484436, 1.0921196937561035, -1.3460440635681152, -3.6588072776794434, -1.8243106603622437, -0.4162499010562897, 0.1971026510000229, -0.03173648938536644, 0.7193939685821533, 0.024197544902563095, -2.0488429069519043, -0.66628497838974, -0.9498866200447083, -0.10565826296806335, 0.13358041644096375, 0.4729950428009033, -0.0237677413970232, 0.04316028207540512, 1.2435671091079712, -0.5321545004844666, -1.7794615030288696, -0.038822464644908905, -1.5755650997161865, -2.1999142169952393, -1.4510653018951416, -2.741354465484619, 0.1394239068031311, -1.5135146379470825, 0.6298277378082275, -0.971825897693634, -0.7126772999763489, 1.5787321329116821, -0.1525655835866928, -1.7306900024414062, -0.06094014272093773, 0.08114650845527649, 0.44957178831100464, -1.3053218126296997, 1.796230435371399, -0.022407015785574913, -2.8112142086029053, -5.738994121551514, 0.8680545687675476, 1.4877336025238037, 0.744223952293396, 2.401501417160034, 3.753941297531128, 0.26084813475608826, 1.517492413520813, 0.7045422196388245, 0.4336897134780884, 2.573662519454956, 0.11260759085416794, 0.855427086353302, 3.0342767238616943, 0.3572259247303009, 6.963656902313232, 0.002514624036848545, 2.983450412750244, 1.5501863956451416, 2.3530001640319824, 0.4055553376674652, -0.09148570895195007, 4.700568675994873, 1.7392909526824951, 0.4451262950897217, 4.076106071472168, 6.178398609161377, -0.7932040095329285, -0.06736691296100616, -0.7173522710800171, -0.21647194027900696, -1.0986579656600952, 5.631859302520752, -0.14305657148361206, 2.4310836791992188, 0.9640244245529175, 2.6957170963287354, 2.2911887168884277, 9.849102020263672, 0.2804693877696991, 0.3028595745563507, 4.487500190734863, 1.615314245223999, 4.205013751983643, 2.4273760318756104, -1.829828143119812, 0.06925944983959198, -0.5480632781982422, -1.4780242443084717, -0.28215545415878296, -1.6324354410171509, 2.4250311851501465, 1.3724379539489746, 0.6859496235847473, -0.14204494655132294, -3.3284554481506348, 2.5775585174560547, -1.9967366456985474, 1.547008752822876, -2.983255624771118, -0.8551701307296753, -2.0810317993164062, -0.011775531806051731, -0.9864796996116638, -0.1079559400677681, 3.020615816116333, 1.0776817798614502, 0.08596643060445786, 0.061081476509571075, 0.029921110719442368, -2.548365592956543, -0.9205437898635864, 0.03609232231974602, 3.017414093017578, -3.029867172241211, 1.9894604682922363, -0.07344058901071548, 1.0040357112884521, -4.313938140869141, 0.3303684592247009, -1.998346209526062, -0.06874312460422516, 2.6701228618621826, -1.4145021438598633, 2.0841944217681885, 2.313690662384033, 1.668241262435913, -0.035596948117017746, -0.4843844771385193, -0.7858971357345581, 3.6821823120117188, -1.1975128650665283, 2.8594725131988525, -1.5938020944595337, 0.11680164188146591, -2.0100276470184326, -5.941967010498047, 0.09578847885131836, 0.40699487924575806, -0.771170437335968, 0.34868699312210083, -3.9727694988250732, -0.601738452911377, 2.4084081649780273, 1.8493306636810303, -1.9403085708618164, 1.6211059093475342, -4.38261604309082, 2.2028684616088867, -2.453322410583496, -0.13317660987377167, 2.3969333171844482, 0.12421851605176926, 0.8562594652175903, 0.39347293972969055, -0.2515323758125305, -0.2632315158843994, 0.2097661793231964, -2.499879837036133, -3.239413022994995, 0.4658396244049072, 4.573080062866211, -1.0762273073196411, 2.7237396240234375, 0.13552550971508026, -3.4039015769958496, 2.3012959957122803, -0.6866163015365601, 1.9253641366958618, 0.5509909391403198, -0.37708622217178345, -5.792996883392334, 1.660325527191162, -0.585811197757721, -1.7134202718734741, -0.2186276763677597, 1.4097553491592407, 0.7169097661972046, 0.29981139302253723, -1.174894094467163, 0.15727664530277252, 3.7740671634674072, -0.006531064864248037, -3.1137912273406982, 2.7800447940826416, -0.19286584854125977, -0.861383318901062, 4.241168975830078, -3.4372031688690186, 1.2365387678146362, 0.013695870526134968, -5.6143341064453125, -0.9745499491691589, 2.1143057346343994, 2.809413194656372, 0.6589559316635132, 0.3191632926464081, 0.009855945594608784, 0.03458688408136368, -2.0484018325805664, -0.034920286387205124, 1.3926644325256348, -1.1561799049377441, -0.6027762293815613, -0.00820852443575859, -0.06955289095640182, -1.027380347251892, 0.9210830330848694, -0.09815822541713715, -1.37758207321167, 1.6451319456100464, -3.1200084686279297, -0.08941599726676941, 1.1277525424957275, -1.6066699028015137, -0.43844494223594666, -1.8001739978790283, -0.02414887212216854, -0.3026728332042694, 1.1874994039535522, 0.9631811380386353, 2.174203634262085, 1.9390610456466675, 0.09210436046123505, 2.068117380142212, 2.2198050022125244, 1.6291073560714722, 8.39400863647461, -2.697321653366089, -2.806209087371826, 0.11766911298036575, -3.415128231048584, 1.5099586248397827, -2.0116336345672607, -4.28463077545166, 0.21993641555309296, -1.4959548711776733, 0.827025294303894, -0.14024588465690613, 0.5210566520690918, 0.5486145615577698, -2.270653009414673, -0.05671936273574829, 0.6043718457221985, -0.9395111799240112, -0.9366358518600464, 0.014238688163459301, 0.5496542453765869, -0.04291074350476265, -5.210125923156738, 0.5054965615272522, 2.107632637023926, 0.16785788536071777, -0.0009414296946488321, -4.414709091186523, -1.2814377546310425, -0.1055254191160202, -4.499576091766357, -1.3139972686767578, 1.3262138366699219, 0.16600210964679718, 2.6414122581481934, -6.1930742263793945, -0.4930266737937927, 0.260544091463089, -0.07187145203351974, 0.9890108108520508, 0.1788928508758545, 0.3779637813568115, -0.8066893815994263, -5.184035301208496, -0.01153965201228857, 1.0614348649978638, -1.7518540620803833, 2.50797438621521, 0.3405166566371918, -0.20670364797115326, -3.2345001697540283, -0.0764075443148613, 1.5731940269470215, -0.000850883312523365, -0.015151763334870338, -2.021259307861328, 0.13039155304431915, 0.784688413143158, -0.933193027973175, 0.10349535197019577, -1.3529719114303589, -0.30366331338882446, -1.300374150276184, -2.448671579360962, -1.4792611598968506, -1.1710927486419678, 0.019397180527448654, 0.11292397230863571, -2.8165123462677, 0.04614672064781189, -1.7293905019760132, -1.1891752481460571, -1.8022181987762451, 0.09530902653932571, 0.03510671854019165, -4.465246200561523, 2.3677353858947754, -0.03074389509856701, -0.2551843523979187, 3.2697160243988037, -1.1803178787231445, 0.034948572516441345, -4.5204572677612305, -1.8506509065628052, -0.748034656047821, 1.9537302255630493, 0.03254493698477745, 2.580813407897949, 0.15153780579566956, -1.6954582929611206, 0.11395743489265442, 3.371671199798584, 0.1211705356836319, -2.610461711883545, -2.3159303665161133, 2.9501194953918457, 0.39674142003059387, 1.5378544330596924, 3.8148162364959717, -0.05425412580370903, 0.3743361830711365, -1.3546843528747559, 3.2596657276153564, 0.008328964933753014, -0.42657390236854553, -1.0730637311935425, -1.1895612478256226, 0.0007540997467003763, -0.3318430781364441, -2.4238364696502686, 1.7830572128295898, -0.8774056434631348, -2.8504273891448975, -0.8950133323669434, 2.209958791732788, 0.09761393070220947, -2.576667070388794, 0.10507509112358093, 2.939570426940918, 0.7339350581169128, 2.203629970550537, 0.10590667277574539, -0.11679355800151825, -1.2843472957611084, -1.9558093547821045, -0.0005156907136552036, -1.1236546039581299, 1.646430253982544, -1.2138971090316772, -0.0028735697269439697, -1.683113932609558, 0.34762775897979736, -0.24263037741184235, -0.5047553777694702, -0.19098548591136932, 2.350914716720581, -2.4206111431121826, -3.244455099105835, -0.5922911763191223, -3.8989553451538086, 0.12243785709142685, -1.9730805158615112, 3.596486806869507, -1.3916542530059814, 1.0158342123031616, -0.5140688419342041, -1.3491663932800293, -0.07192974537611008, -0.742854654788971, -2.274010419845581, 2.8505094051361084, 1.00160551071167, 0.6655800342559814, 3.8700547218322754, 2.3947594165802, 0.03497081995010376, -0.4648689031600952, 0.455532044172287, 2.047673463821411, -0.6600136756896973, 3.0289244651794434, 2.5128047466278076, 1.6162323951721191, 0.0027578489389270544, -5.570438861846924, 0.06641928106546402, -4.389952182769775, 1.9631986618041992, 3.315166711807251, -0.135933980345726, -0.0363469123840332, 1.3592230081558228, -0.65662682056427, -0.1552143394947052, 1.5310254096984863, -1.9568657875061035, 0.9953216910362244, -0.08569689840078354, 0.3385622501373291, 0.03141578659415245, -3.091132640838623, 1.9305219650268555, -0.13624487817287445, -1.6566224098205566, -4.023571968078613, -3.2133266925811768, 3.2362842559814453, -3.69767427444458, 0.031119808554649353, -0.08771222829818726, 1.447295904159546, 0.2270454615354538, 0.83340984582901, -0.16224123537540436, 3.406832218170166, 0.07798268646001816, 3.789268732070923, -0.5469921231269836, 3.899599075317383, -1.9258307218551636, -0.5097930431365967, -0.3930993676185608, 2.3532564640045166, -0.08457449823617935, -0.17947806417942047, -0.23305195569992065, 3.6175503730773926, 0.3745967447757721, -3.9855494499206543, -1.2449331283569336, 0.41189929842948914, -0.08156231790781021, 1.3844072818756104, 0.05404786765575409, -1.3616691827774048, 2.7834837436676025, -4.124355316162109, 0.027289800345897675, 0.04217217490077019, -1.2923171520233154, -0.3789498805999756, 0.02508619613945484, 3.953153371810913, -0.012489954009652138, 2.7886581420898438, -0.10099354386329651, -7.347675800323486, -1.130208969116211, -3.174304962158203, 3.4751973152160645, -0.0859578475356102, 2.183544874191284, -3.120079517364502, -0.6334266662597656, -0.355052649974823, -3.7592520713806152, 0.013535826466977596, -3.5297353267669678, -1.9735630750656128, -1.0080280303955078, -1.4466853141784668, 2.9313485622406006, 1.1562154293060303, 0.050900429487228394, -2.4573023319244385, -0.8542019128799438, -1.9564604759216309, -1.039821743965149, -0.09150711447000504, 1.6126415729522705, 1.102766990661621, 0.026438219472765923, -2.2455077171325684, 0.8787082433700562, 1.9766477346420288, 1.6791099309921265, 3.2642197608947754, 0.517564594745636, -0.2056945413351059, 0.060011737048625946, 1.9922163486480713, 0.06208937615156174, -4.026824474334717, -1.0331006050109863, 1.018973708152771, -0.066348597407341, 0.014259382151067257, -5.667610168457031, 3.3119640350341797, -0.05840034782886505, 0.7097694873809814, -1.3534523248672485, -2.2143259048461914, 0.02952987141907215, 1.8830153942108154, 0.17703521251678467, 2.600296974182129, -1.6427161693572998, 0.09843168407678604, 1.5233107805252075, 1.2848899364471436, -2.2830214500427246, 0.4185675382614136, -2.4423773288726807, -0.018149159848690033, 0.2546579837799072, 1.5173790454864502, 1.2282811403274536, 2.3934507369995117, 4.126307487487793, -4.4076361656188965, -0.09300914406776428, -1.601655125617981, -1.1111266613006592, 0.7332515120506287, 0.8703641891479492, -0.8841148018836975, 0.5139691829681396, -2.1640923023223877, 0.06704405695199966, 2.3075990676879883, -0.49032625555992126, 1.122997760772705, 0.1300864964723587, -3.565026044845581, -1.2297699451446533, 0.46623682975769043, 0.1088060662150383, -0.6598021984100342, 0.11698571592569351, 1.6797893047332764, -1.7056235074996948, -1.7543959617614746, 0.8688229918479919, 0.03971849009394646, -0.8745495080947876, 0.7957344055175781, -0.07433078438043594, 0.6851216554641724, -1.3636518716812134, -0.1670345813035965, -0.0619870200753212, -1.5779889822006226, 0.2140529751777649, 2.0385208129882812, 1.665547490119934, 0.025630921125411987, 1.2956857681274414, -7.809109687805176, 0.05033343285322189, -2.6631035804748535, 0.5113581418991089, 0.12909221649169922, 2.7847700119018555, -0.8660232424736023, -2.5353550910949707, 2.9234156608581543, -1.91925048828125, 2.0326802730560303, 0.08965850621461868, -3.6664388179779053, 0.49357467889785767, 4.214014530181885, 3.1766247749328613, 2.669069528579712, 0.8635371327400208, 2.7087345123291016, -0.07562560588121414, 0.9790968894958496, -3.278277635574341, -1.0525661706924438, 0.9816217422485352, -1.3500703573226929, -3.9756791591644287, 1.3646636009216309, -0.013541854918003082, 3.279658317565918, 0.018268682062625885, 3.632688045501709, -1.777860403060913, -2.2241876125335693, 0.18518027663230896, -0.04701831936836243, 3.240351915359497, 0.6370223164558411, -0.28590983152389526, 2.8428943157196045, -0.3510853052139282, -1.116690754890442, -0.16806593537330627, 5.381966590881348, 0.5235872268676758, 2.1865434646606445, -1.3872750997543335, 0.14054645597934723, 1.857877254486084, 0.9821385145187378, -0.47820034623146057, -5.110450744628906, -1.9263253211975098, 0.141267329454422, -1.6457886695861816, -1.0893350839614868, -0.08787801116704941, -1.917866587638855, 1.8966963291168213, -1.688075065612793, 0.17494484782218933, 2.719944953918457, 0.542704701423645, 1.6102319955825806, -0.09834001958370209, -1.899680495262146, -1.2730693817138672, -0.21209289133548737, 0.10937728732824326, 1.6019587516784668, 4.744851112365723, 2.278752326965332, 0.16478073596954346, -1.6773923635482788, -0.2818770706653595, 3.551548480987549, -0.13011808693408966, -0.4662233591079712, 0.10521367192268372, -0.5303353071212769, -2.7160427570343018, 1.1990998983383179, -0.16184057295322418, -0.05389755219221115, -1.6052846908569336, 0.854267418384552, 0.04570577293634415, 5.123915195465088, 0.7154862284660339, 3.4177353382110596, -0.07007049769163132, 0.1939760446548462, 0.4999745786190033, 1.3269891738891602, 1.1691943407058716, -0.1088181808590889, -0.8499472141265869, 1.8847870826721191, 1.240510106086731, 0.1851726621389389, -3.259674310684204, 0.060815997421741486, 1.0123430490493774, -0.592116117477417, 2.1048309803009033, 0.40671998262405396, 0.4576908051967621, 0.7774140238761902, -0.08985904604196548, 1.7434266805648804, 0.6608582735061646, 0.8844959139823914, -1.7526201009750366, 0.8596154451370239, 0.2056250423192978, 1.7313904762268066, -0.0031880009919404984, -4.05082893371582, -0.23242118954658508, -4.886111259460449, -0.8543487787246704, -6.835258483886719, 1.5594795942306519, -3.8889870643615723, 0.1575082242488861, -0.8613545894622803, -0.017829349264502525, -1.176257848739624, -0.29452359676361084, 0.7401384711265564, 0.07176481932401657, -0.09297161549329758, 0.6440621614456177, -0.5565357208251953, -0.19920095801353455, 2.93334698677063, 2.1132452487945557, 1.6519010066986084, -0.05653982236981392, 2.6533195972442627, 2.2179312705993652, 0.8564866185188293, -2.3596956729888916, 0.042715951800346375, -1.4173630475997925, 2.976473808288574, 2.348808526992798, 1.4962999820709229, 5.00611686706543, 0.02437533251941204, 0.5599368810653687, 1.738861083984375, -1.3079681396484375, -3.4336514472961426, -4.025247573852539, -0.4995249807834625, -0.19167105853557587, 3.704160213470459, 1.2142688035964966, -1.6024062633514404, 2.1278610229492188, -5.4557283874601126e-05, -3.2115442752838135, 0.6726164817810059, 0.09577705711126328, 0.5994727611541748, -0.02091524377465248, -1.2552567720413208, -1.0884422063827515, -1.7773736715316772, -2.095895290374756, -1.2532109022140503, -0.04210124909877777, 0.6379441022872925, 0.014230824075639248, 1.4369755983352661, 2.1523807048797607, -0.12232252955436707, -0.051640063524246216, -0.10466214269399643, 1.3562071323394775, 0.5530697703361511, 0.03218957409262657, -2.318157196044922, -0.8724683523178101, -2.3119826316833496, 0.1285277009010315, 0.18987302482128143, 2.090784788131714, -2.96217679977417, -0.6879909634590149, 0.067689448595047, -2.119965076446533, -1.7226146459579468, -0.3377842605113983, 0.48922330141067505, 0.44687601923942566, -0.09527911990880966, -0.5652050971984863, 1.1189271211624146, 0.27500584721565247, -1.954572319984436, 1.6471997499465942, 0.7977343797683716, 0.14334185421466827, 2.004305124282837, -2.822868585586548, 0.04829074442386627, 1.0986380577087402, -2.535660743713379, -5.1875410079956055, 1.0196106433868408, 0.003710484132170677, 1.0189268589019775, 3.275766372680664, 1.1862094402313232, 1.3887763023376465, -0.6228104829788208, -1.1826355457305908, -1.865374207496643, 0.025742555037140846, -0.19492998719215393, -0.12142041325569153, 5.488575458526611, 1.1667048931121826, -0.708381175994873, -0.010902736335992813, 0.04361093044281006, 2.4393503665924072, -1.2826178073883057, 0.014268767088651657, -0.8416857719421387, 3.3318910598754883, -1.726454496383667, 0.0843462124466896, -4.329503059387207, -3.3275585174560547, 0.7153059244155884, -1.8181836605072021, -0.0357947014272213, 1.7644625902175903, -1.5367225408554077, 1.313522458076477, -1.9614533185958862, -1.850714921951294, 0.005354975815862417, -4.097424507141113, 1.6714446544647217, -1.5309553146362305, 0.8526214361190796, 2.1155433654785156, -1.7947062253952026, -0.08204837143421173, 0.8445650339126587, -1.9464035034179688, -2.232713460922241, -0.9371525049209595, 0.06177133321762085, 2.453587055206299, 1.691048502922058, 0.14329557120800018, -3.8528456687927246, 0.3492146134376526, -1.4411591291427612, 1.2735880613327026, 2.4921681880950928, 1.7775367498397827, 0.453866183757782, 0.10334235429763794, 0.8148307204246521, 0.03510718047618866, -0.11713608354330063, -0.23176535964012146, -2.906378984451294, 0.19020134210586548, 0.011180642992258072, 0.262552410364151, 2.578864097595215, -0.05575532466173172, 3.9815244674682617, -1.353082537651062, 2.8428738117218018, 0.0339900404214859, -3.152682065963745, -2.310171127319336, -1.9791756868362427, 1.8650530576705933, -0.11606068909168243, -0.12290085852146149, -2.854905843734741, 0.8274841904640198, -0.630262017250061, 1.0136735439300537, 0.05347055569291115, 1.7410001754760742, -1.193471908569336, -0.5705628991127014, -1.1281425952911377, 0.4194677770137787, -3.808743715286255, 0.03986208513379097, 0.36195969581604004, 3.0175256729125977, -1.6144342422485352, -4.557045936584473, -0.49760156869888306, 0.18361793458461761, 3.137514114379883, -0.02789982408285141, -2.0548129081726074, 1.141350269317627, -3.0336296558380127, -0.00851349625736475, 2.2592287063598633, 1.3834587335586548, 1.9541882276535034, -0.026554405689239502, 1.050661325454712, -0.1985684633255005, -0.9076338410377502, 4.3390092849731445, -1.616212010383606, 0.20862990617752075, 0.0075926510617136955, 0.4699395000934601, 2.0235466957092285, -0.00405254028737545, 1.2096199989318848, 0.09795030206441879, 0.5004967451095581, 0.2327774316072464, -1.105650544166565, -0.47010084986686707, 3.0814833641052246, -1.0752664804458618, -0.034319404512643814, 3.201894998550415, 2.4517059326171875, -0.3637905716896057, -0.04191087186336517, -0.41132140159606934, 0.03574458882212639, -2.110985040664673, -1.1646565198898315, 1.0758631229400635, 0.9743530750274658, 0.38131824135780334, 1.1761560440063477, -0.023615282028913498, -1.0292643308639526, -2.040480852127075, -5.90699577331543, -1.2445253133773804, 1.8036717176437378, -1.703258991241455, 1.4245368242263794, -0.19193102419376373, -1.2098243236541748, 1.5218427181243896, -0.690504252910614, 1.6350113153457642, -6.614169120788574, -0.11940401792526245, -5.39359712600708, -0.08695505559444427, 0.8797651529312134, 0.003342007752507925, -2.7504920959472656, -3.4730827808380127, -0.9979386329650879, -0.04635363444685936, -0.004153350833803415, -3.3541390895843506, -3.5114245414733887, 0.09080155938863754, 2.4248762130737305, -2.7886767387390137, -0.9826306104660034, 0.0026211990043520927, -0.847906768321991, 0.6627656817436218, -3.26792573928833, -0.7121092081069946, -0.041378553956747055, 0.48394325375556946, -6.697359561920166, 1.326126217842102, -0.2730555236339569, 2.8882486820220947, -0.11013856530189514, -0.04589149355888367, 0.333263635635376, -1.7952406406402588, 2.339003086090088, 4.322892665863037, 1.7398163080215454, -0.10495635122060776, 2.2870841026306152, -0.5944376587867737, 2.0771870613098145, 2.0445210933685303, 3.825531482696533, -2.593076705932617, -0.9117174744606018, 0.25334781408309937, -3.1092426776885986, -2.341616153717041, 0.22742816805839539, -2.164869546890259, -1.275314450263977, 1.8463093042373657, -0.6847156286239624, 0.20968887209892273, -0.5027495622634888, 0.08699411153793335, -3.1498444080352783, 2.4788265228271484, 0.27329015731811523, -0.11986107379198074, -0.11302925646305084, 0.8967254161834717, -3.9960803985595703, -0.2240407019853592, -7.093916893005371, 4.708716869354248, -0.2000991255044937, -0.06603000313043594, 2.7437222003936768, -7.231070518493652, 1.5806052684783936, -1.881035327911377, -0.2629387378692627, 5.949919700622559, -0.6428230404853821, 2.6792778968811035, -1.7519475221633911, 4.250131130218506, 0.2191345989704132, 2.7003469467163086, -0.6454442143440247, -0.33953848481178284, 4.570282459259033, 1.4918639659881592, 2.232292890548706, 0.14177174866199493, -2.1286866664886475, 2.200021505355835, -4.28843355178833, 0.7914527058601379, 0.7568509578704834, -0.44605228304862976, 1.0846441984176636, 0.04355930909514427, -1.485346794128418, -0.08176836371421814, 1.3948111534118652, -1.0247946977615356, 1.443162202835083, -2.4333255290985107, 1.2570419311523438, -0.0468609519302845, 1.0657434463500977, 0.01505233533680439, 1.8008594512939453, 3.1945998668670654, 0.33144330978393555, -0.04379619285464287, 0.15172375738620758, -5.9165358543396, 3.0023179054260254, 0.056918155401945114, 0.24318280816078186, 0.6319849491119385, -0.8390552997589111, 0.0027148257941007614, 2.6974363327026367, -0.40586671233177185, -2.5732781887054443, -1.3619333505630493, -0.03808419033885002, -2.9806220531463623, 0.786736011505127, 0.43780601024627686, 0.29824331402778625, -0.2688902020454407, -0.01456702221184969, 2.3972702026367188, -1.5539748668670654, -0.5918458104133606, -0.7525299191474915, 5.753305912017822, 4.1376872062683105, 0.05923705920577049, -0.39505535364151, -0.5920846462249756, -2.301145076751709, -0.7887139916419983, 2.3965625762939453, 0.18123304843902588, -2.009500026702881, 0.018515007570385933, 2.1878621578216553, 1.5607126951217651, 0.6194544434547424, -4.738077640533447, 3.52607798576355, 0.7003785371780396, 0.9269812107086182, -0.055265799164772034, -1.104502558708191, 0.09152325987815857, -3.9073615074157715, -1.7509428262710571, -1.179229974746704, -0.10016725212335587, 0.14077883958816528, 1.8171061277389526, -3.5184266567230225, -0.09264471381902695, -1.695753812789917, 0.8776190876960754, -0.08594933897256851, -0.002384727820754051, 1.207662582397461, -1.3492748737335205, -0.3933575749397278, 2.23809552192688, 0.13242597877979279, 0.823797345161438, 1.079779028892517, 1.2929168939590454, 0.45608654618263245, -1.0265564918518066, -0.032563891261816025, 1.5708779096603394, -0.18854540586471558, -1.0629191398620605, 2.857556104660034, -0.622216522693634, 0.965325653553009, -0.0006697460194118321, 2.0386149883270264, 4.30064058303833, 4.403585433959961, 4.550434589385986, 0.5564892888069153, 0.4473845958709717, 1.9088492393493652, 0.28498202562332153, 2.1781368255615234, 0.1977449506521225, -4.188857555389404, -5.894732475280762, -0.9358025789260864, 1.0146832466125488, -1.1030126810073853, -0.10257106274366379, -1.6349434852600098, -0.0380171500146389, 3.7716174125671387, 2.2929346561431885, -0.682159423828125, -0.13281086087226868, 0.072304867208004, -5.663954734802246, 1.718101143836975, -0.07390759885311127, -0.7402716875076294, 0.0006387860048562288, 3.6113808155059814, -0.028056131675839424, 1.5329093933105469, 4.334138870239258, 5.46279764175415, 0.5900813937187195, 0.2830151319503784, 1.8366544246673584, 0.937361478805542, -0.3617725670337677, 1.195224642753601, 0.9271277189254761, -0.11878969520330429, 2.3633921146392822, 4.435245990753174, 1.732954502105713, -2.2643425464630127, -1.5743675231933594, 3.4625425338745117, -0.12940841913223267, -4.46028995513916, 0.4708313047885895, -0.7885622978210449, 1.4513235092163086, -4.401346206665039, 2.838944435119629, -0.2184358388185501, 0.2571077346801758, 1.728965401649475, 1.6646556854248047, 1.7155040502548218, -0.7260449528694153, 3.479454517364502, -2.644498109817505, -1.0414232015609741, -0.09917737543582916, 1.5509099960327148, -0.15240511298179626, -0.34452807903289795, 1.3592969179153442, -0.061166707426309586, 0.02732589654624462, 0.07080480456352234, -2.1928651332855225, 1.6995296478271484, -0.7005709409713745, -1.539260983467102, -0.11830848455429077, 2.5185937881469727, -0.1997392177581787, -0.08126289397478104, -0.0853678435087204, 1.9972960948944092, -1.6903270483016968, -0.09287217259407043, -4.916985511779785, -0.42793509364128113, 0.023051792755723, -0.30463460087776184, -0.632964551448822, -0.10999522358179092, -2.8469767570495605, -0.28390032052993774, -4.473904132843018, -1.73454749584198, -3.64477801322937, -0.5178928375244141, -0.0735820010304451, 1.557766318321228, 2.4070260524749756, 0.6713259816169739, 0.2410539984703064, 0.16854512691497803, -1.9694472551345825, 3.7416303157806396, 0.22056059539318085, 1.6606398820877075, -3.195366382598877, 0.2291896939277649, -2.31071400642395, 2.8670668601989746, -4.167001247406006, -5.382788181304932, 0.09444431960582733, -3.055009603500366, 0.059854891151189804, -5.08092737197876, 0.6144816279411316, -0.3566853702068329, 0.010210154578089714, -0.12869878113269806, 3.350594997406006, -1.9640170335769653, -0.1301976442337036, 2.5926897525787354, 1.6969716548919678, -4.616147994995117, -0.1638578176498413, -1.2930327653884888, 0.22038960456848145, -1.247520089149475, -2.0336387157440186, -0.14243069291114807, 3.959031105041504, -0.015127665363252163, -3.5601093769073486, 1.2487670183181763, -1.8484232425689697, 0.18082953989505768, 0.1455710381269455, 3.4455435276031494, -3.2341668605804443, 1.451631784439087, -1.043237566947937, 1.1651660203933716, 0.04075068235397339, 2.783982753753662, 0.48976364731788635, 3.6179299354553223, -1.4786958694458008, 4.092472553253174, -0.18485908210277557, 2.4778025150299072, -0.3669557273387909, 2.5216565132141113, 0.7869492173194885, 1.0509203672409058, -1.4072520732879639, -2.815713882446289, -1.3414888381958008, 2.812629461288452, -0.1665448546409607, -1.9708008766174316, 0.023288439959287643, -3.8932125568389893, -1.333274245262146, 2.440751075744629, -0.13432247936725616, -0.05300293117761612, 4.887277603149414, 1.3459302186965942, -0.077619768679142, 2.260082483291626, 1.1590745449066162, -3.8343701362609863, 0.05201449990272522, 0.03769436106085777, -1.1081856489181519, -2.1046524047851562, 1.935425043106079, 0.07375118136405945, -0.622299313545227, -0.3303734064102173, 1.260380506515503, -1.3468865156173706, 0.11159928143024445, -0.1932528018951416, 0.15772376954555511, 0.4364642798900604, -2.2607085704803467, 0.26105767488479614, -3.735642671585083, -3.8608932495117188, -0.018072744831442833, -0.23986360430717468, -6.0168023109436035, -3.8634555339813232, 0.1114467903971672, 0.9230322241783142, 2.3690810203552246, 0.5733217000961304, 0.04559814929962158, -1.2361962795257568, -0.9212313890457153, 2.495530843734741, -3.8386104106903076, -4.203610420227051, 0.24787761270999908, -1.8088418245315552, 0.013654397800564766, -3.9821937084198, -0.011894444935023785, -1.2800325155258179, -0.3401249349117279, 0.432487428188324, -0.008546743541955948, -0.008155932649970055, -3.1115899085998535, -1.6571000814437866, 0.012701618485152721, -0.3427131772041321, -1.7279915809631348, -0.8795124888420105, -0.051559530198574066, -0.11735720187425613, 2.497939348220825, 1.2563962936401367, -2.7399706840515137, -0.07009407877922058, -0.05811970308423042, -1.988252878189087, 2.304263114929199, 0.27182716131210327, -1.3979700803756714, 0.05429747700691223, 0.06411175429821014, 1.0937678813934326, -0.5655381083488464, -0.11434614658355713, 2.0918521881103516, -2.617990255355835, 0.03563183918595314, -3.2950236797332764, 2.308692455291748, 2.2647042274475098, -1.0603184700012207, -0.6953569650650024, 1.3472959995269775, -2.4829370975494385, -0.14213927090168, 2.2112069129943848, -1.2929260730743408, -0.3885038495063782, -0.6484159231185913, 3.9803659915924072, 0.19832681119441986, -0.8368456363677979, -0.08982151001691818, 3.974200963973999, -0.021095819771289825, -1.7920185327529907, 0.25272440910339355, 2.6039416790008545, -0.010724417865276337, -0.0795430839061737, 1.5930129289627075, -1.5402135848999023, 0.021890705451369286, 1.6579773426055908, -0.9058899283409119, 2.2232749462127686, 0.061003293842077255, 1.8447489738464355, -5.877269268035889, -3.4452991485595703, 0.7729519605636597, 0.11279952526092529, 2.3557345867156982, -5.915249347686768, -2.374718189239502, -0.04381618648767471, -2.543187141418457, 0.028499631211161613, -1.55836021900177, 0.706770122051239, -2.5407097339630127, -2.5149827003479004, -0.08285540342330933, -3.0363519191741943, -0.1491241604089737, 1.3787744045257568, -0.013313015922904015, -1.8912180662155151, 1.2272757291793823, 0.12479017674922943, 1.7492245435714722, -0.2195461094379425, 0.021586516872048378, -5.772200107574463, 0.17171385884284973, 0.35381999611854553, -0.07107951492071152, 0.487168550491333, -1.50065016746521, -0.5871297717094421, 0.060383349657058716, -0.6328340768814087, 0.00010814053530339152, -0.6948877573013306, -0.5691124200820923, -0.4675094187259674, 0.0897359773516655, -0.14797857403755188, 1.8582216501235962, -3.0782382488250732, -0.2192026525735855, 1.0888327360153198, 0.3951481878757477, 0.6917459964752197, -0.14847849309444427, 0.05711778253316879, -0.1497970074415207, -4.226062774658203, 1.9666365385055542, -0.32305771112442017, 1.5406299829483032, -1.013048768043518, -1.1957552433013916, 1.965620756149292, 0.18758948147296906, 0.009947769343852997, -2.931013584136963, -2.021238327026367, 2.244140863418579, 1.7911655902862549, -0.7840436697006226, -4.375735282897949, 0.06357163935899734, 1.4093241691589355, 0.401243656873703, -2.7712416648864746, 0.8505905866622925, 1.251747488975525, -1.3458867073059082, -0.12571297585964203, -0.13115137815475464, -6.696720600128174, -4.286174297332764, 2.820770025253296, -0.5564703345298767, -0.7608633041381836, -3.045772075653076, 3.6465370655059814, -0.15217313170433044, -1.8480260372161865, -0.12065692991018295, 2.6587672233581543, 2.8156826496124268, -1.9482921361923218, -0.05427313223481178, 0.07717599719762802, 2.585791826248169, -4.64754056930542, -0.013922642916440964, 0.16414208710193634, -4.380680084228516, 4.169412136077881, -0.01984751597046852, -1.6434046030044556, 0.09403003007173538, 0.16416208446025848, 3.574699640274048, 0.007205726113170385, -1.8952022790908813, 2.1647517681121826, 0.6468815803527832, 3.1566107273101807, -0.2004941999912262, -0.08244426548480988, 0.39909154176712036, 2.839550018310547, -2.6982195377349854, -2.9594757556915283, 1.6401463747024536, -0.9254063963890076, 0.07923530787229538, -4.02060079574585, -0.599362313747406, 1.6809849739074707, 4.5243377685546875, -0.44247713685035706, -3.0407235622406006, 0.10340885818004608, -0.3325558006763458, -1.472723126411438, -0.3651823401451111, 1.187252163887024, 0.11389078944921494, -1.4441637992858887, -1.505468726158142, -4.146914482116699, -0.07319073379039764, 2.8925414085388184, -0.1160893663764, 3.251708984375, -2.9724836349487305, 1.716770887374878, 0.12200912833213806, -0.06985559314489365, 1.2378007173538208, 0.46741053462028503, -0.13163337111473083, 0.23040138185024261, 2.928060293197632, -0.6739588975906372, -0.08355666697025299, -3.4877564907073975, -2.592822313308716, -2.440187454223633, -6.285589694976807, -0.01586821675300598, -0.5216325521469116, -0.9818739891052246, -2.8878843784332275, -0.736606240272522, -5.509621620178223, -0.21197614073753357, 0.7142094969749451, -1.5251476764678955, 0.23153084516525269, -1.8877723217010498, -1.1403917074203491, 0.8822256922721863, -0.03978796303272247, -1.015923261642456, 2.9901819229125977, -3.7915472984313965, -2.763533353805542, 1.7483640909194946, -0.5672041773796082, -1.1253445148468018, 0.06123809888958931, -1.030900001525879, -0.7091776728630066, 4.524899959564209, -2.452676296234131, 1.7379049062728882, 0.5556573271751404, 0.24573864042758942, 0.08281736075878143, 1.2625283002853394, 0.0024790542665868998, -3.7414705753326416, -0.14870931208133698, -0.5911747813224792, 0.2129746824502945, -0.04908192902803421, -1.5982345342636108, -1.4547346830368042, -0.11938662081956863, 2.273848056793213, 1.331830620765686, 1.1685476303100586, -0.11422599107027054, 3.7059171199798584, -1.9319595098495483, 1.0578118562698364, -2.364001512527466, -0.09049231559038162, -3.67471981048584, 0.8321493268013, 2.446136951446533, 0.12233728915452957, -2.749640941619873, 0.10618799179792404, -1.1033297777175903, 4.422581672668457, 0.42471206188201904, 2.4179580211639404, -0.765958845615387, 3.186074733734131, -0.046615008264780045, 2.6429126262664795, -4.737878322601318, -5.102729797363281, -0.267370343208313, 1.2966188192367554, -0.8462525010108948, 2.8839917182922363, -0.06480374187231064, 1.75381338596344, 2.469808578491211, -1.1549512147903442, 0.8096973299980164, -1.3215900659561157, 3.6982269287109375, -1.0444865226745605, 0.014112861827015877, -1.6605956554412842, -0.07417058199644089, -1.3250572681427002, -0.3326827585697174, 0.878747820854187, -0.11227525770664215, -0.040857456624507904, -3.093818426132202, -2.252241373062134, -0.1341012716293335, 2.52085018157959, -1.1366151571273804, -4.751140117645264, 0.0022415569983422756, 2.4768142700195312, 2.1660051345825195, -0.7845855355262756, -0.6958950757980347, -0.10470103472471237, 0.2436406910419464, -3.942511558532715, 1.943953037261963, -0.7839979529380798, 3.78836989402771, -0.03354889154434204, 0.996309757232666, -0.41610240936279297, 4.037440776824951, -4.293972492218018, -8.308862686157227, 2.6260592937469482, -0.02232358604669571, -1.1092166900634766, 2.6417746543884277, -0.9647908806800842, 0.7786852121353149, 3.0877575874328613, -2.2567105293273926, -0.1031588464975357, 0.10634204000234604, 2.957641839981079, -0.8655997514724731, 1.5255976915359497, -1.3245469331741333, 2.3829519748687744, -2.0341973304748535, -1.260350227355957, -0.1482093334197998, 1.9051827192306519, -0.047232307493686676, -1.5948137044906616, -2.0287139415740967, -2.0859103202819824, 0.08364516496658325, -0.04872456192970276, 3.8592584133148193, -2.3655078411102295, -0.13207672536373138, -1.5556919574737549, -1.2398784160614014, -2.279045581817627, 0.027518106624484062, 1.1656970977783203, 1.1106610298156738, 1.2242865562438965, 2.0096395015716553, 0.03111468069255352, 1.303882360458374, -0.5000278353691101, -0.11258217692375183, -0.9452667832374573, 2.1741185188293457, 0.06914128363132477, 2.4131436347961426, -2.5910356044769287, -0.7458863258361816, 0.7021768093109131, -1.6777937412261963, -0.03228258714079857, -0.10395350307226181, -0.8555701375007629, 0.1603809893131256, -4.329633712768555, 3.832253932952881, -2.6078217029571533, 3.152313709259033, -5.630313396453857, 0.22006197273731232, -1.870753288269043, -2.1958260536193848, -0.3301903307437897, -1.1678500175476074, 2.119152784347534, -0.12578703463077545, 0.23404645919799805, 0.2210625261068344, -0.7998976111412048, -0.04403553903102875, 3.730099678039551, -4.9462971687316895, 1.5550554990768433, -0.011366683058440685, 0.14164453744888306, 2.2512459754943848, -2.926668643951416, -0.24847471714019775, 1.0334868431091309, 1.1388795375823975, 2.144287586212158, -0.17644231021404266, 3.275224208831787, -2.0480525493621826, 0.9709986448287964, -3.902759552001953, -0.33505895733833313, -1.740243673324585, 2.027730941772461, -1.8129613399505615, 0.1885565221309662, -3.9337079524993896, 0.049975041300058365, -0.619056224822998, 0.5530867576599121, 0.15612338483333588, -1.0407408475875854, 1.5577589273452759, 1.7852503061294556, -0.08329271525144577, 3.2911787033081055, -3.0675220489501953, -0.2692369520664215, -3.6562023162841797, 0.13262616097927094, -0.598017692565918, 2.9659485816955566, -0.12431395053863525, 2.5000624656677246, -2.604914903640747, -0.5170923471450806, -0.7083637118339539, -2.6951088905334473, -3.4857776165008545, -2.028805732727051, -0.02989248000085354, 1.0778499841690063, -0.049831099808216095, -0.7642790079116821, 3.783931016921997, -2.1829042434692383, -0.007944222539663315, 0.0840078592300415, 6.78275728225708, -3.449953317642212, -0.01851704716682434, -2.701092481613159, 1.185992956161499, 2.2227060794830322, -0.05794563889503479, -1.0870786905288696, -0.8751165270805359, -5.947089672088623, -0.6430965662002563, -0.0884031355381012, 1.2873549461364746, 3.9957518577575684, -0.2777521312236786, -0.7982155084609985, -3.6163218021392822, -0.14325092732906342, 2.739140748977661, -1.6719417572021484, 0.9868500232696533, 0.18339741230010986, -2.4378468990325928, 1.8898918628692627, -0.04608737677335739, -0.8629153966903687, -0.6563136577606201, 2.4881389141082764, 1.1658165454864502, -0.45856380462646484, 2.4488253593444824, -0.17370089888572693, 0.10419027507305145, -1.2428700923919678, -3.5988364219665527, -1.8746607303619385, 1.5950498580932617, -5.00596284866333, -2.431903600692749, 1.0492496490478516, 0.0180473942309618, -0.7942569851875305, 0.10691381990909576, 0.8184071779251099, 0.8867715001106262, 1.2915565967559814, 0.26328107714653015, -0.005842592101544142, -3.2516493797302246, -1.025075078010559, 0.1345507800579071, -3.1537652015686035, -0.2828114330768585, 4.253096580505371, 0.10855650156736374, -3.4802792072296143, 0.19897794723510742, -1.5901180505752563, 1.1795156002044678, -0.00527414632961154, 0.8570875525474548, 2.6388654708862305, -3.090442657470703, -2.530553102493286, 2.724992275238037, 0.04285186156630516, -3.4531407356262207, 0.1758318990468979, -0.995414137840271, -4.535723686218262, 4.78536319732666, -2.6188344955444336, -0.049980152398347855, -0.6035959720611572, 1.457486867904663, 0.42279863357543945, -0.8178399205207825, 0.5444982051849365, 1.9568465948104858, -1.2328394651412964, -0.04312660172581673, -0.9597740769386292, 1.1879878044128418, -4.724819183349609, 4.200100898742676, -1.390845537185669, 0.4942673146724701, -0.7230704426765442, 0.12949562072753906, -0.3128245174884796, 0.060545992106199265, -0.6117826104164124, -4.011816024780273, -0.977232038974762, 0.0017309804679825902, -0.07048056274652481, 0.9009712338447571, 1.152545690536499, -0.16003216803073883, -2.4122209548950195, -0.7503296136856079, -0.2647007405757904, -0.13931585848331451, -1.837607502937317, 2.00538969039917, -4.442162990570068, -2.582664966583252, -0.08892794698476791, 1.2916736602783203, 0.7356780767440796, -1.4510524272918701, 0.025604387745261192, -1.6314672231674194, -0.04521853104233742, 3.645108938217163, -0.9706838130950928, 0.288587361574173, 1.5697276592254639, 3.882169246673584, -3.6996092796325684, -0.021979806944727898, -3.614298105239868, -4.599765777587891, 0.12323933094739914, 0.5449970364570618, -2.327937602996826, -0.5249615907669067, 0.5363373756408691, -0.16195933520793915, -5.811224937438965, 1.234708547592163, -1.9011867046356201, 0.7242973446846008, 1.3297505378723145, -2.3294379711151123, 0.1887446641921997, 0.01495395042002201, -0.7968841195106506, -0.07243990898132324, -1.1161737442016602, 0.9720557332038879, 0.8246380686759949, -0.03276916593313217, 0.044076669961214066, 0.1769741326570511, 0.9785656332969666, 0.00904366560280323, 5.554380416870117, -4.015702247619629, 0.18179911375045776, -0.07956185936927795, -1.7278040647506714, 0.01626722887158394, 2.068627119064331, 1.8301831483840942, 0.004130532965064049, 1.0452977418899536, 4.022681713104248, -1.6124610900878906, -2.000776529312134, -3.379542827606201, -0.09354192763566971, -1.000665545463562, -0.8291255235671997, -2.700462579727173, 1.2125623226165771, -0.4509902596473694, -1.2278085947036743, 0.09949588030576706, 1.638975739479065, -1.587988257408142, 0.9009273648262024, 1.582251787185669, 1.1144381761550903, 0.7779920697212219, 2.1986656188964844, -0.1952866166830063, -3.1872122287750244, 0.7168610692024231, 1.2574414014816284, 2.3004586696624756, -2.1864449977874756, 1.748454213142395, 0.571065366268158, -0.0822884812951088, 0.7515117526054382, -0.18499423563480377, 2.1557817459106445, 0.8697889447212219, -4.11805534362793, -0.1488877683877945, -0.11146625876426697, 2.507099151611328, 1.1216157674789429, -0.14132463932037354, 1.2644016742706299, -1.022444248199463, 1.2956091165542603, -0.12003231048583984, 1.4377528429031372, 2.253791332244873, -1.1200861930847168, 2.20168137550354, -0.11392772942781448, 0.8718546628952026, 1.2557189464569092, 0.3002707064151764, 1.6842405796051025, 0.6499372124671936, -0.061747945845127106, 1.2004834413528442, -0.0990733653306961, -0.9517484903335571, 0.7993160486221313, 1.3678525686264038, 1.082017183303833, -0.060710545629262924, 0.7275754809379578, 4.329666614532471, -3.671487331390381, 1.0579569339752197, -0.6433658599853516, -2.946031093597412, -3.9896812438964844, -0.05182867869734764, -4.946951866149902, -2.4805681705474854, 0.7282674908638, 0.27694806456565857, 3.959787368774414, -1.560674786567688, 3.239800214767456, 0.12478893995285034, -4.533322811126709, -0.09930459409952164, -3.240769863128662, 2.2429699897766113, 0.59356290102005, 0.10032801330089569, 0.08296415209770203, -2.0011954307556152, 1.8060040473937988, -0.4098455607891083, -4.317541599273682, -0.2070053368806839, -0.16461952030658722, 0.20772939920425415, -0.8120205402374268, -2.7519800662994385, 0.8891808390617371, 4.043791770935059, -0.0808451846241951, -0.22688263654708862, -0.4373573064804077, -2.027921676635742, -2.107653856277466, 1.956394910812378, -0.020296825096011162, -3.30176043510437, 0.015528163872659206, -3.336664915084839, 2.012794017791748, -0.9082207083702087, -4.199321269989014, -0.12120440602302551, -2.50331974029541, 1.6079953908920288, -0.1434120088815689, -0.915377676486969, 2.815896511077881, -1.3525687456130981, 0.7959460616111755, 0.1022581085562706, -3.3918044567108154, -1.168370008468628, -0.13493254780769348, -2.461472272872925, -5.308821678161621, 3.187716484069824, -1.8365663290023804, 0.004986001644283533, 4.0308403968811035, -0.040865976363420486, -0.2948029339313507, 2.549792528152466, -0.048738401383161545, 0.24298690259456635, -0.06896957010030746, -1.717818260192871, -2.036505699157715, -0.42778366804122925, -1.3768664598464966, -5.0292887687683105, 0.9404831528663635, -0.3025150001049042, -3.948887348175049, 0.7731038928031921, -3.083345890045166, 0.030246276408433914, -0.3722856640815735, -1.1965876817703247, 2.0077157020568848, 3.1230149269104004, -3.145470142364502, -0.5610588788986206, -0.030268454924225807, 2.7866227626800537, 0.8562437891960144, 2.263787031173706, -5.065464496612549, 0.15895482897758484, -2.3539223670959473, -0.12733450531959534, -0.22602201998233795, 3.223322629928589, -2.6876559257507324, 5.964988708496094, 3.1603188514709473, -2.6045637130737305, -1.667458415031433, 0.23743177950382233, 3.467363119125366, 4.149513244628906, 1.5721063613891602, -1.1853865385055542, -2.9642562866210938, 2.6642143726348877, 3.079308032989502, 0.12071463465690613, -1.7586677074432373, 0.12083505094051361, 0.3499145209789276, 0.30859798192977905, 6.390758514404297, -0.349634051322937, -0.07109402865171432, 1.8380197286605835, -2.125899314880371, -0.02460877038538456, -7.558658123016357, 1.4515869617462158, -2.9289846420288086, 0.07873695343732834, 1.7218213081359863, 1.562081217765808, 0.6029440760612488, 1.7026206254959106, 0.04473242163658142, -1.7595713138580322, 3.183246374130249, -0.16325253248214722, -4.7280144691467285, 1.0343875885009766, 0.16620543599128723, 1.5655163526535034, 0.865933895111084, -1.7905608415603638, 1.6814231872558594, 1.9886786937713623, 0.3326565623283386, 0.055890463292598724, 1.9873600006103516, -2.073146343231201, 1.3138258457183838, 0.1966569870710373, -5.286036014556885, 2.760925531387329, -0.7083176374435425, 0.011684277094900608, 2.089942455291748, 3.8461148738861084, -2.500166177749634, -2.7837064266204834, 2.298020124435425, 1.7958521842956543, -0.670387864112854, -0.0036606669891625643, -0.6068095564842224, 0.004150862339884043, -2.194197416305542, 0.2634134292602539, 1.0192439556121826, 0.1690022349357605, 0.0726993978023529, -1.7006555795669556, 1.310807228088379, 0.08373945206403732, -0.2768920063972473, 0.16895310580730438, 3.5502970218658447, 0.13518628478050232, -4.399582862854004, 2.8237125873565674, 2.428427219390869, -0.6024524569511414, 0.002437449060380459, -3.045020341873169, 1.5011498928070068, -0.0861700102686882, -3.811903238296509, -1.2135649919509888, 0.05631687492132187, 0.19274142384529114, 2.4166672229766846, -0.6770700216293335, -1.24651300907135, -3.9794440269470215, 0.41002681851387024, -0.12743335962295532, 1.4779093265533447, 2.024472951889038, -3.3224282264709473, -2.153179883956909, -1.4125102758407593, 0.22315135598182678, -3.9411137104034424, 0.27559855580329895, -3.96256160736084, 2.3725104331970215, 0.6962422728538513, 4.042512893676758, 1.905174732208252, 2.434974431991577, -0.28249871730804443, 0.07074107974767685, 4.132717609405518, 0.06575017422437668, 1.6233994960784912, -1.193219780921936, -2.0149331092834473, -0.03680628165602684, 0.03621334582567215, -1.9369323253631592, -0.2197386771440506, -0.12293479591608047, -0.47974130511283875, -1.562778353691101, 0.8845816850662231, -0.11548773944377899, 2.5595691204071045, 0.9071666598320007, 1.8353667259216309, 2.0553016662597656, -0.027322495356202126, 4.744028091430664, -0.909466564655304, -0.6135408282279968, 0.04521544277667999, 2.873457670211792, 0.13566744327545166, 5.332082748413086, -1.87167227268219, -1.3402769565582275, 2.462282657623291, -4.801393032073975, 1.5423840284347534, 0.15214507281780243, 0.3992586135864258, -2.3292253017425537, 2.8035507202148438, -3.669261932373047, 2.9894630908966064, -2.2871079444885254, 1.0320836305618286, -0.03718088939785957, 2.8643946647644043, 0.8565229773521423, 1.3294206857681274, -5.611669063568115, -5.096273422241211, -3.259489059448242, -3.057526111602783, 0.003313130931928754, 5.253822326660156, 0.03252040594816208, 2.441324472427368, 0.9774456024169922, -1.9829075336456299, 0.12055453658103943, 0.0699104368686676, -5.957626819610596, -0.5124582052230835, -0.010923290625214577, 3.8612160682678223, 2.643840789794922, -3.5492160320281982, 0.05301343649625778, -0.7647415995597839, -4.495466709136963, -2.565781354904175, -2.440682888031006, 0.20202694833278656, 2.853245258331299, 0.7812613248825073, 2.2400496006011963, -7.749460697174072, -2.2620327472686768, -0.06772265583276749, -2.9339840412139893, 1.8134726285934448, 1.5347867012023926, -2.5614941120147705, -0.546281099319458, -1.7151509523391724, -0.007598544470965862, 1.7490699291229248, 1.5577278137207031, -0.3670928478240967, 3.826852321624756, -0.3380988538265228, 1.0114433765411377, 0.8269509077072144, 0.07111429423093796, -0.7542861104011536, 1.599741816520691, -3.230994939804077, -0.24551190435886383, -5.269511699676514, -1.0384982824325562, -6.587312698364258, 0.015972716733813286, -2.33427357673645, -0.03249623626470566, 0.07097481191158295, 3.5260589122772217, 0.4621902406215668, 0.0599745512008667, -0.021900050342082977, -2.4056296348571777, 2.9140074253082275, -0.04859695956110954, -6.221222877502441, -1.1281667947769165, -1.4335744380950928, -0.014239534735679626, 0.7990356683731079, 0.7167373299598694, 0.19112783670425415, -2.938835620880127, 0.03406279534101486, 0.1003149077296257, 5.318817615509033, -3.638864517211914, -0.028543904423713684, -0.38290145993232727, 0.03140366077423096, 2.6065587997436523, -0.9710461497306824, -5.452005863189697, -0.14540264010429382, -1.6704751253128052, 0.0365644246339798, -0.026842383667826653, 3.7041497230529785, 1.953558087348938, -3.214127540588379, 3.459608554840088, -0.4610302150249481, 1.6825991868972778, -5.2096991539001465, -0.0851554274559021, -3.158301591873169, 2.8927581310272217, -3.110112190246582, -0.30574262142181396, -0.579887866973877, 3.611182451248169, 0.9886597990989685, 0.14409904181957245, -11.650108337402344, -0.033746883273124695, -2.9474706649780273, 3.069758653640747, 2.351033926010132, 0.01849191263318062, -0.0308108888566494, -6.5374650955200195, 1.1224745512008667, -0.0584641695022583, -1.080344796180725, -0.36116302013397217, 0.7775696516036987, -0.08464638888835907, 1.3329023122787476, -4.152529239654541, 3.7966227531433105, 1.3123291730880737, -0.16084548830986023, -1.5129156112670898, -1.431517243385315, 0.37290439009666443, 0.33468833565711975, 0.4966928958892822, -0.06157083436846733, 0.9405025243759155, -0.6571072936058044, -5.5448994636535645, -2.1964526176452637, 5.049441814422607, 3.180415630340576, 0.011231774464249611, 4.647947788238525, -1.8670932054519653, 3.2439541816711426, 1.2805722951889038, -2.6559503078460693, -3.559490203857422, 0.1956995725631714, 0.3860546052455902, 2.9814963340759277, -2.4932408332824707, -1.427711844444275, 2.223503828048706, 0.048899199813604355, -3.162590742111206, -1.1082024574279785, 0.05272290110588074, -2.4915709495544434, -0.06886087357997894, -0.8584059476852417, -1.2280771732330322, -5.391171455383301, 0.15298201143741608, 0.0748714879155159, 1.3426822423934937, -1.5627532005310059, -0.15748141705989838, -2.438044786453247, -0.44069138169288635, 1.1158968210220337, 0.0615149661898613, -1.5962250232696533, 0.5976660847663879, 3.0893187522888184, 3.1812710762023926, 0.08436369895935059, 0.7532331347465515, -0.2781985104084015, -2.3311984539031982, 2.78086519241333, 4.509042263031006, 0.1685653179883957, -3.084855556488037, 3.032118320465088, -1.9163353443145752, 1.6411157846450806, -1.5117051601409912, -1.022231101989746, 0.13815411925315857, -1.7329052686691284, 1.4154735803604126, 1.9495986700057983, 2.1349802017211914, 2.1372580528259277, 3.3946211338043213, -0.50728440284729, -0.026675166562199593, -2.8035895824432373, -2.5572280883789062, -1.6259413957595825, -3.1930673122406006, -6.418442249298096, 0.31901755928993225, -2.2497870922088623, -0.007966897450387478, 3.1840996742248535, 0.09505485743284225, -0.6805413961410522, 0.5230172276496887, -1.0431222915649414, 0.03475521504878998, 0.030319634824991226, -0.005103196483105421, 3.469931125640869, -0.06396524608135223, 1.3859244585037231, 2.9186885356903076, 0.5452349185943604, -0.016559483483433723, 2.1889047622680664, 0.5787904262542725, -5.692448616027832, -1.1776615381240845, 0.1690874695777893, -2.031620979309082, 0.7551074624061584, -0.5260000824928284, -1.1279085874557495, -2.602304458618164, 0.0772845670580864, -4.689785480499268, -0.5707513689994812, 1.648720622062683, 1.8695993423461914, -6.344216346740723, -1.7418522834777832, -0.11415094137191772, -4.81719970703125, 1.0169779062271118, 2.6406757831573486, -3.838167667388916, -0.6441814303398132, -0.7252721786499023, 2.174248218536377, 0.03001384437084198, -8.672882080078125, -1.4127247333526611, -0.5284125804901123, 0.34884580969810486, 4.7884955406188965, -0.0262521393597126, -2.5688536167144775, -0.017403515055775642, -1.7893085479736328, 0.13423411548137665, -3.4388811588287354, 0.7606576681137085, -0.7672922611236572, -0.07981017976999283, -0.02060527354478836, 3.460178852081299, -1.4618275165557861, -0.24016793072223663, -1.6762747764587402, 1.524960994720459, 1.7347116470336914, -0.140036940574646, 1.6853349208831787, 2.3570191860198975, -1.1499426364898682, 0.1519681066274643, -0.3985523283481598, 2.4078006744384766, -6.950253009796143, -2.5446841716766357, 0.45737922191619873, -1.9987860918045044, -0.060562826693058014, 1.1525179147720337, -0.15601298213005066, -2.1480650901794434, -0.6879501938819885, -3.996131658554077, -0.09832590818405151, -0.07204281538724899, 2.151677370071411, 2.274940013885498, 3.47648286819458, -0.19530726969242096, 1.267723798751831, -3.8651530742645264, -2.0972206592559814, 0.028839362785220146, 0.21725386381149292, -5.469930171966553, 2.6452813148498535, -0.8105440735816956, -0.7349321246147156, 1.0131189823150635, 1.9751296043395996, 0.08248192071914673, -5.357557773590088, 0.016665887087583542, -1.7957156896591187, -5.52216911315918, 1.0382336378097534, 0.18004432320594788, -0.012220376171171665, 3.026136636734009, 1.7038118839263916, -0.11426658928394318, -0.49950486421585083, -0.06503614038228989, 2.990793228149414, -0.12495012581348419, 1.07199227809906, -4.984532356262207, 1.0300884246826172, 4.816786289215088, 0.02544073946774006, 2.1438088417053223, -4.200148105621338, -0.04139145091176033, 0.050699472427368164, -4.103998184204102, 0.1013328954577446, -2.2449607849121094, -1.8728961944580078, 1.1235350370407104, 2.4901018142700195, 1.6868380308151245, -2.5853304862976074, 0.004413985181599855, 2.982051372528076, 0.4383423626422882, -6.286499977111816, 0.21721240878105164, 0.6031904220581055, 1.1734803915023804, 0.17818722128868103, 0.2107679694890976, 5.169820308685303, 2.3303706645965576, -0.032137852162122726, -3.1963772773742676, 1.9106178283691406, -0.7797701358795166, 5.035532474517822, 0.09124292433261871, 0.6396595239639282, 0.15028947591781616, -1.66343355178833, -2.20125675201416, 2.314427137374878, 0.3323681950569153, -0.10582172125577927, 0.15973550081253052, -0.11304358392953873, -0.2268097698688507, -4.231784820556641, 1.0765172243118286, 0.7157782912254333, 0.2944849729537964, 1.8747272491455078, 0.2894156873226166, -1.0568946599960327, -0.6251733899116516, -0.041967183351516724, -2.2376766204833984, -0.6298749446868896, -2.4845287799835205, -0.24964140355587006, 2.741123676300049, 0.05113013833761215, -3.0514650344848633, 2.8248870372772217, -4.469751358032227, 3.1497907638549805, 1.2759584188461304, 0.6182085871696472, -0.0626012533903122, -0.18477752804756165, 0.8953552842140198, -1.4530446529388428, -1.4725422859191895, 0.24150213599205017, 0.9392475485801697, 0.6376039981842041, 0.056227125227451324, 2.8862483501434326, 1.0065722465515137, -2.588386297225952, -2.7826125621795654, 0.48104363679885864, -0.513823926448822, -2.2327523231506348, 0.01350199244916439, -0.46398815512657166, 0.05942763015627861, -1.0178495645523071, -0.3401199281215668, 3.33496356010437, 0.06829196214675903, 0.016039080917835236, -0.6665300130844116, -1.1881122589111328, -0.17735250294208527, -1.884321689605713, -1.603354573249817, -2.3437020778656006, -0.17022757232189178, 0.38395968079566956, -0.17288249731063843, -1.16580331325531, -2.128258228302002, -0.04224463179707527, -0.826880931854248, -0.9597116112709045, 0.02327604591846466, 0.5783728361129761, -0.41233643889427185, 0.11246421188116074, 0.6758396029472351, -0.31195393204689026, -0.21188436448574066, 0.38676735758781433, -2.2758193016052246, 0.2656154930591583, 0.1361089050769806, 0.26475971937179565, 2.6458683013916016, -2.857909679412842, 0.28142648935317993, -0.4134536385536194, 0.271248996257782, 0.5697305202484131, -0.008796591311693192, 1.6966395378112793, 1.4317668676376343, -0.8462474942207336, -0.5019972920417786, -5.065088272094727, 1.8577313423156738, 1.543596863746643, -0.1092955693602562, -1.7559216022491455, -0.10499490797519684, 3.096978187561035, -0.8894954323768616, 1.6753852367401123, -0.012580594047904015, -0.025573519989848137, 3.9759085178375244, -1.5983752012252808, 0.036830876022577286, -1.1910947561264038, 0.5867365002632141, 0.40578389167785645, 0.03301367536187172, -0.05687005817890167, -2.8796193599700928, 1.5267728567123413, 1.155146837234497, 0.013657520525157452, -1.524006962776184, -5.5199079513549805, -0.18095067143440247, -2.7061960697174072, -0.5208054780960083, 0.06711097061634064, -2.4025659561157227, -0.9176952242851257, 1.5202195644378662, 3.1491897106170654, -0.7907665967941284, -0.7699095606803894, -0.022667843848466873, 3.3595688343048096, 2.7391910552978516, 0.23046454787254333, 3.1704976558685303, -1.4028655290603638, 1.6534472703933716, -5.309986591339111, -0.10769263654947281, 5.450189113616943, 2.0478134155273438, -7.993102073669434, -6.178544998168945, 5.158579349517822, -2.2210140228271484, 4.596807956695557, -0.0001394035789417103, -7.55928373336792, 0.09049902111291885, -1.3951410055160522, 0.7575036883354187, 1.3338580131530762, 0.15712222456932068, -0.007797681260854006, -4.926989555358887, 1.9480425119400024, 0.10407138615846634, -1.0826714038848877, -1.4051519632339478, 5.739086151123047, -0.05973096564412117, 0.01983840949833393, 0.8881590962409973, 1.910537600517273, 3.197819471359253, 0.05018923804163933, -0.10819116979837418, 2.5283331871032715, -1.70896577835083, -0.18477731943130493, 2.5120105743408203, 0.06316493451595306, -0.5577812194824219, 1.6919349431991577, -1.0364400148391724, -4.629744529724121, 7.326777458190918, 4.065504550933838, 0.03201884776353836, -1.8181885480880737, -0.8902432322502136, -6.1580963134765625, -3.478172540664673, 3.1930959224700928, 2.4809958934783936, 3.563791275024414, -0.08414095640182495, -5.848597049713135, -1.724662184715271, 0.2197638899087906, -1.9995933771133423, 5.363089561462402, -4.089809894561768, 2.097418785095215, -0.06141170859336853, -0.746435284614563, -0.01798124983906746, -5.459021091461182, 1.0454022884368896, -0.8625536561012268, 0.061427902430295944, -0.002848060568794608, -6.503533363342285, 2.695418119430542, -0.021193014457821846, 1.232422947883606, 1.175885558128357, -4.567014217376709, 0.26246726512908936, 0.5987434387207031, 2.3185620307922363, -4.866866588592529, -5.199570655822754, 0.019737299531698227, -4.947851181030273, 3.1593847274780273, 2.910656690597534, -0.3626338243484497, -0.6918632984161377, 0.12763305008411407, -0.5372231602668762, -0.6900399923324585, 1.6893047094345093, 1.04620361328125, -2.1221117973327637, 0.6529805064201355, -0.01478504203259945, -0.8840928077697754, 1.7214491367340088, -1.2197227478027344, 3.6348719596862793, -1.9412602186203003, -1.5274564027786255, -3.229715347290039, -0.21374967694282532, 1.3910554647445679, -1.3561326265335083, 0.1526411473751068, 2.1094014644622803, 8.520670890808105, -2.193495512008667, 4.2007317543029785, -0.06967192888259888, -0.5800930857658386, -0.058236151933670044, 2.742554187774658, 1.0532381534576416, 0.8820231556892395, 0.15193946659564972, -0.07924860715866089, -1.7917261123657227, 0.20158815383911133, 0.04791545495390892, 0.030479103326797485, -1.1195714473724365, -0.5167405605316162, 0.10527794063091278, 0.6645638942718506, -0.1955929696559906, -3.39320707321167, 2.492236375808716, -0.10721553862094879, 2.9181201457977295, -2.5931105613708496, -1.318203091621399, 1.3622254133224487, -7.384925365447998, -0.03333296999335289, -2.5326004028320312, 2.2579641342163086, -3.385296106338501, -1.9087542295455933, 4.119671821594238, 1.9318177700042725, -0.02462245151400566, -3.159452199935913, -3.1119415760040283, 2.2634899616241455, -5.272515773773193, -1.3703817129135132, -1.240869164466858, -0.9299128651618958, -0.22539092600345612, 4.283142566680908, -1.253780722618103, 3.182352304458618, -1.043214201927185, -0.4408382475376129, -7.487829208374023, -1.9521245956420898, -0.08375176042318344, 3.5767242908477783, -0.12908364832401276, -0.014827622100710869, -2.1818742752075195, -1.575416088104248, -0.012383729219436646, -0.07897715270519257, 0.3449746072292328, -1.2109235525131226, -0.3771568238735199, 4.539822578430176, 0.9658758044242859, -4.467350959777832, -0.1626800000667572, -2.75384521484375, -1.3712913990020752, 1.5189368724822998, 1.2824223041534424, -0.04885295778512955, -2.172008514404297, 0.0022216145880520344, 0.3719220757484436, -0.10678955912590027, -5.756398677825928, -0.0879269614815712, -4.309247016906738, -2.9920814037323, -1.326867938041687, -2.1656057834625244, 0.6161108016967773, -0.7133621573448181, 0.020998138934373856, 0.19349806010723114, -0.6409944891929626, -1.936142086982727, -0.3855137228965759, -0.8567630648612976, 0.09399683028459549, 0.7698843479156494, 0.2523627281188965, 2.0636157989501953, 1.361668586730957, 2.4896342754364014, -1.0531302690505981, 0.11985155940055847, -1.6136226654052734, 1.2208244800567627, 0.08085991442203522, -0.3785788118839264, 0.08825334906578064, -0.26211604475975037, -0.9482326507568359, 1.3515976667404175, -0.07042299211025238, 0.08829338848590851, 0.04317595064640045, 1.4600088596343994, -0.05586667358875275, -3.141493797302246, -1.5492907762527466, 0.4532243311405182, 0.10177715867757797, 0.8986265659332275, 3.9953341484069824, 1.7586718797683716, -0.13907290995121002, 0.0429539829492569, -0.2647692859172821, 1.0877223014831543, -1.9332770109176636, -0.3867807984352112, -0.7615054249763489, 0.04354244843125343, 1.409449815750122, -2.7616443634033203, -1.0645564794540405, 1.378463625907898, -2.4355690479278564, -2.047254800796509, 0.044167328625917435, -2.4183924198150635, -2.4489150047302246, -2.6359241008758545, 2.8334336280822754, 1.7812625169754028, 1.35865318775177, 2.9017066955566406, 0.03741588070988655, 0.49084028601646423, -2.5186805725097656, -1.4346922636032104, -2.239311695098877, 4.643014907836914, 0.3615764379501343, 3.973304033279419, 0.14461079239845276, -0.8271849155426025, 0.03012632019817829, -1.6978294849395752, -3.8197615146636963, -2.0825138092041016, 0.004713584203273058, -0.030241012573242188, -0.40281736850738525, -0.560642421245575, -0.061776649206876755, 0.4808129370212555, 1.3454012870788574, 3.8096420764923096, -0.019163062795996666, -0.9408285617828369, 4.344742298126221, -2.939882516860962, 2.5328102111816406, -0.11500509083271027, 2.1931939125061035, -0.6205936074256897, 0.7831225991249084, -1.3862941265106201, 0.9342438578605652, 0.13496164977550507, -2.2895073890686035, 0.052563298493623734, -0.11086244136095047, 0.07603089511394501, -0.47840070724487305, -1.4163169860839844, -0.05187438428401947, 0.6543878316879272, 0.15679989755153656, 1.24354088306427, 3.531862735748291, 1.5479438304901123, -1.1869728565216064, 1.430712103843689, 0.11256465315818787, -2.1958837509155273, -2.891753673553467, 1.4680994749069214, 3.273071765899658, -2.720843553543091, 3.0559136867523193, -0.6412718892097473, 0.04909709095954895, 1.162534236907959, -0.003498863661661744, -1.5583122968673706, -1.5010244846343994, -0.04903111606836319, 0.1423061192035675, -0.045049700886011124, 2.7761077880859375, -0.8272596597671509, -0.2304605096578598, -1.0459893941879272, 2.2724311351776123, 1.2141931056976318, -0.21054643392562866, 1.4932764768600464, -0.8627145290374756, -0.5604536533355713, -1.1263071298599243, -0.054703738540410995, 0.47119495272636414, -4.296170711517334, 1.064988136291504, -2.386648416519165, 1.890428066253662, 0.07117895036935806, 0.1840129941701889, -1.9451555013656616, 0.3785156309604645, 2.2209694385528564, -4.190173149108887, 2.5382025241851807, 0.015543549321591854, 2.031505584716797, -2.2157068252563477, 1.3534352779388428, -2.456087112426758, 0.3416191339492798, 4.158718585968018, 1.7367855310440063, -0.08919749408960342, -1.5158696174621582, -2.210662364959717, -6.4771809577941895, -0.3159714341163635, -1.0183972120285034, -2.528876543045044, 1.1546653509140015, -0.09123001247644424, 2.465571880340576, -0.030997011810541153, 0.6730623841285706, 0.9723045825958252, -3.8997559547424316, 0.0322456993162632, -0.09454281628131866, -2.787304639816284, -3.2717297077178955, -0.08399715274572372, 0.9506115317344666, -2.246121644973755, 5.823887825012207, -0.01728271134197712, -8.748309135437012, -4.812300682067871, -1.468274712562561, -1.3146235942840576, 0.053063616156578064, -2.1026995182037354, -0.5694113373756409, -3.998065710067749, 0.08035009354352951, 0.7756459712982178, -0.04466543719172478, -1.4434691667556763, -1.9145959615707397, 1.2463171482086182, -3.3357322216033936, 1.1241958141326904, -0.6638241410255432, 0.08354474604129791, 2.0702452659606934, -4.450270175933838, 0.5028814077377319, -4.057354927062988, 3.106619119644165, -3.422177314758301, -0.17539586126804352, 0.2426634430885315, 3.8189175128936768, -1.9464166164398193, 5.995410919189453, -2.177555799484253, 4.571408748626709, -2.393972873687744, 0.4099215567111969, -0.06254560500383377, -0.5252691507339478, -0.08382654935121536, 0.7388999462127686, -0.4068605303764343, 0.2027364820241928, -0.105523981153965, 0.1648290902376175, 1.1819599866867065, -0.9703559875488281, 0.09563574194908142, 0.05284831300377846, -0.27166247367858887, 0.684779167175293, 0.16601206362247467, 3.3334052562713623, -1.3003361225128174, 2.6698248386383057, -1.6569379568099976, 0.02153651975095272, -0.5889560580253601, -0.2608366012573242, -2.52720046043396, 2.5764334201812744, -2.552809000015259, -0.014382083900272846, -1.7712321281433105, 2.664971113204956, -4.215685844421387, -0.40497973561286926, 4.296165466308594, 0.10958193242549896, 0.012743806466460228, 2.2772748470306396, -2.1537716388702393, -3.6702284812927246, 1.4711319208145142, -1.836748719215393, -0.86611008644104, -2.2616894245147705, -0.1848224252462387, 4.866777420043945, 0.1004946157336235, -0.6087213754653931, 1.669930338859558, 1.3958325386047363, 0.8240327835083008, -0.3950285017490387, 0.022562015801668167, 4.3993449211120605, -0.03326771780848503, 1.8335856199264526, 2.8594391345977783, 0.7867823839187622, 0.17249025404453278, -0.09365251660346985, -1.4636245965957642, -2.2399966716766357, -0.1009116843342781, 4.361759185791016, -0.947211742401123, 0.09733600169420242, 0.08581820130348206, 0.9200912117958069, -2.6560091972351074, 0.6752596497535706, 3.63206148147583, -0.08982516825199127, 2.777801036834717, -0.4027698338031769, -2.1810739040374756, 0.7493650317192078, 2.68810772895813, 0.031596530228853226, -0.8611011505126953, 2.4742257595062256, -1.056147813796997, -2.4157023429870605, 4.262595176696777, 0.3801317811012268, 0.010284936986863613, -2.9669647216796875, 0.9687356948852539, 0.33577433228492737, -3.7056949138641357, 2.0496184825897217, -2.0840725898742676, 0.9753990173339844, -0.02392306923866272, 0.9382680058479309, -1.0570344924926758, -1.4173321723937988, 1.2606719732284546, -1.8813581466674805, 0.6022407412528992, -0.1926107108592987, 0.004021193832159042, 0.593806803226471, -0.0029907149728387594, -4.234373092651367, -3.679537057876587, -2.9082024097442627, -0.07593376934528351, -0.00011484757123980671, -0.4169538617134094, 0.6206843852996826, -0.037585046142339706, 3.173428535461426, -1.7021710872650146, 0.13058900833129883, -0.017995798960328102, -1.9377014636993408, -5.512299537658691, -2.6459014415740967, 0.810761034488678, -0.022873912006616592, -1.5572149753570557, 1.0337446928024292, 1.1057428121566772, 1.1242903470993042, 1.4729028940200806, -0.08566756546497345, 1.0460789203643799, 0.5059868097305298, 0.646859347820282, 1.3285386562347412, -3.0030364990234375, -1.3662865161895752, 0.09289436787366867, 3.660860538482666, -1.685875654220581, -1.8912924528121948, -1.2282382249832153, 1.36709463596344, 1.170294165611267, -3.239375114440918, 0.0038022291846573353, -0.8296948671340942, 4.935344696044922, -0.018158385530114174, -2.66998291015625, -10.138002395629883, -2.4878342151641846, -1.533777117729187, -0.06472515314817429, -0.13391950726509094, 0.06732532382011414, -1.2103241682052612, -3.903364658355713, 0.32928940653800964, 0.006564869545400143, 0.04862352833151817, -11.408317565917969, 5.197855472564697, -0.03518759459257126, -4.462743759155273, 2.033871650695801, -2.252943992614746, -0.04360240325331688, -1.2951582670211792, -3.2401211261749268, 1.0248887538909912, -5.3191046714782715, 0.1689014583826065, 4.104660511016846, 4.649784088134766, -1.1215406656265259, -1.5642637014389038, 2.1771481037139893, -0.017204364761710167, 0.7784083485603333, -2.48954439163208, -1.5730997323989868, -0.7773786783218384, -1.5230028629302979, 0.9953060746192932, 0.06024276837706566, -2.6014325618743896, -2.0717384815216064, 0.7641956210136414, 1.9397363662719727, -0.880460262298584, 1.6694353818893433, -3.5332839488983154, -0.12939907610416412, 1.3839598894119263, 2.7870075702667236, -0.8661317229270935, -0.2938946485519409, 0.18561476469039917, -0.35096076130867004, 0.1916462481021881, 0.17030352354049683, -1.3194260597229004, 0.07306663691997528, -2.9908902645111084, -0.9499951601028442, 0.4248339831829071, 0.20377853512763977, 0.106743223965168, -4.300235748291016, -1.3081591129302979, 0.006985064130276442, 1.2664786577224731, -1.1579806804656982, -6.442089557647705, 0.03427742421627045, -2.2052721977233887, 3.1595828533172607, -1.2208201885223389, 2.4833953380584717, -0.10030178725719452, 1.1825354099273682, -7.800046920776367, -0.599607527256012, -1.2459388971328735, -2.092376232147217, 0.1669429987668991, -3.897516965866089, 2.28373646736145, 0.6961708664894104, -1.199301838874817, -0.3032514154911041, 0.16464963555335999, 0.0713079422712326, -0.5740193128585815, -0.46542978286743164, -4.068954944610596, -8.218484878540039, 0.20564478635787964, 2.421637773513794, 0.19562172889709473, -0.046157702803611755, 1.0654958486557007, -2.8772668838500977, -0.6595554351806641, 3.308833360671997, 2.561160087585449, -2.831150770187378, 7.982522010803223, -0.01961667835712433, 0.559956431388855, -0.051996517926454544, -3.300518751144409, 0.8151386976242065, -0.7393534779548645, -0.06941305845975876, -0.002983382437378168, -4.678245544433594, 1.7271548509597778, -0.003252630587667227, 2.3746490478515625, -3.0943210124969482, 2.5424611568450928, 0.027562685310840607, -1.1930631399154663, 0.9406805038452148, -2.2149972915649414, 1.6321529150009155, 0.18624308705329895, 0.7303121089935303, -3.494060754776001, -0.7966008186340332, -3.902411460876465, 1.5236748456954956, 0.04147947207093239, 0.7892179489135742, -2.186565637588501, 0.059137456119060516, -2.6881182193756104, -1.9927183389663696, 0.7611878514289856, 0.3681272566318512, 2.0981392860412598, 0.5719228982925415, 0.6334011554718018, 0.13568219542503357, 1.9278966188430786, -1.1625133752822876, -2.1237545013427734, -0.13786104321479797, 0.04433067515492439, 1.0873396396636963, 0.15154114365577698, 1.6021498441696167, -3.428972005844116, 2.368666648864746, -0.0012374422512948513, -0.08489274233579636, -1.180303692817688, -0.012646986171603203, -0.8084961771965027, -0.6140503287315369, -1.7351738214492798, 0.139412984251976, 0.12733963131904602, 0.8882742524147034, 2.4971041679382324, 0.3423265516757965, -0.4603872001171112, -0.7756513953208923, 1.2354187965393066, 0.48126059770584106, -2.0315871238708496, 2.1464731693267822, -3.112283945083618, 3.4070518016815186, 0.19996511936187744, -1.2110389471054077, -0.9305663108825684, -1.3825851678848267, -1.269326090812683, 0.18605874478816986, 0.022756855934858322, 1.7559384107589722, 1.3109806776046753, 1.9079241752624512, 0.8152363300323486, -1.169554352760315, -1.1483166217803955, -0.011681719683110714, -0.7828959226608276, -2.053009510040283, 1.8117337226867676, 0.39144837856292725, 5.127986431121826, -1.1636770963668823, -1.691785454750061, 0.3811512291431427, 1.4014265537261963, 2.3961801528930664, -0.2641877233982086, 1.3832921981811523, 5.417419910430908, 2.9544479846954346, 3.394423484802246, 0.06963875889778137, 4.5395307540893555, 0.011285597458481789, -0.7913320660591125, 0.18562406301498413, -3.85593318939209, 0.024456359446048737, -0.07051645219326019, -3.5227699279785156, -1.232966661453247, -0.1827082633972168, -1.5671433210372925, -2.5609755516052246, -2.0151374340057373, -0.08177903294563293, 5.5532426834106445, 6.3002543449401855, -3.230018138885498, 1.116065263748169, -0.09986759722232819, 2.044043779373169, 1.1983181238174438, 1.0406770706176758, 2.309370994567871, -0.858965277671814, 0.17074339091777802, 2.2005298137664795, 2.1309947967529297, 4.142116546630859, 1.6426228284835815, -1.0949934720993042, 1.1771308183670044, -0.19398248195648193, -3.589902877807617, -0.9575501084327698, -0.975309431552887, -2.368852376937866, -1.9446951150894165, -2.0339150428771973, 0.22082655131816864, -0.4025297462940216, 0.9045073390007019, 1.0308935642242432, 2.4663405418395996, 2.7162177562713623, -3.9573256969451904, 4.619814872741699, 0.42632102966308594, -0.09511857479810715, 3.032773494720459, -0.07757214456796646, 3.4189863204956055, -0.8667117953300476, 0.9468081593513489, -0.10855883359909058, -0.07158132642507553, -1.0620170831680298, -6.501454830169678, -0.08184867352247238, -0.667109489440918, 1.440216302871704, 2.1004278659820557, -0.05033988505601883, 0.12331175059080124, -3.2602503299713135, 2.323660373687744, 6.344592094421387, 0.060652077198028564, 0.4244556427001953, -0.5326042175292969, -1.0090636014938354, -2.26381778717041, -2.907869338989258, -0.16915781795978546, -4.158269882202148, -1.6595845222473145, 0.6554980874061584, 0.5720410943031311, -2.791914939880371, -4.3346452713012695, 0.1281169056892395, -8.506726264953613, -1.807636022567749, 1.6312334537506104, -0.23509396612644196, 1.2620800733566284, 2.1498665809631348, 0.008177319541573524, -0.16977815330028534, 4.941214561462402, -0.370739609003067, 1.5863654613494873, 0.32249686121940613, 2.1104109287261963, 1.5803804397583008, 1.3305422067642212, 0.05261687561869621, 5.5902581214904785, -0.0998399406671524, -1.9479358196258545, 0.8946576714515686, 2.0504252910614014, 0.34398382902145386, 0.06861260533332825, -4.870218753814697, -0.5101220011711121, -0.021915888413786888, 4.137850284576416, -1.9239634275436401, -1.2334071397781372, 0.08771011233329773, 0.28254061937332153, 1.5003479719161987, -3.5276029109954834, 1.6618543863296509, 0.049223028123378754, 1.4267646074295044, -1.2466720342636108, -1.1630027294158936, -3.462763786315918, 0.7900078892707825, -0.05126670002937317, -0.5145241618156433, -1.4729403257369995, 2.3174233436584473, -0.44558051228523254, 2.2087314128875732, 4.208571434020996, -0.1712106466293335, 2.516378164291382, 1.900368571281433, 0.2169567048549652, -3.031870126724243, -0.34382906556129456, -1.0746666193008423, 1.5482802391052246, 0.49234625697135925, -1.305761694908142, -2.4544389247894287, -0.1972755342721939, 1.9852333068847656, 2.6414284706115723, -3.445626974105835, 0.3081892132759094, 0.06711647659540176, -5.5793232917785645, 0.058043450117111206, -2.0114152431488037, -1.258169412612915, -7.04848575592041, -0.39694875478744507, 0.1109015941619873, -5.855070114135742, 1.5456992387771606, -0.1688324511051178, -4.0178141593933105, 0.12612338364124298, 1.1719348430633545, -0.029481075704097748, -1.7790008783340454, -0.020923113450407982, 1.1732081174850464, -2.956524133682251, 0.017524775117635727, -3.247053861618042, 2.3766629695892334, -0.5085304975509644, -2.774580955505371, 2.0468225479125977, 0.06675097346305847, 0.9193437099456787, 2.9554550647735596, -4.463929653167725, -1.7066670656204224, -1.5930651426315308, -3.149390697479248, -0.01718848943710327, 0.05291396751999855, -1.9477907419204712, 3.4022018909454346, 1.512551188468933, 4.175896644592285, -5.2246832847595215, 6.925860404968262, -0.049708787351846695, -1.5295791625976562, -4.481500625610352, 3.4188201427459717, 0.028531910851597786, -4.648521900177002, -3.5586938858032227, -0.7512809038162231, -0.12571316957473755, 3.1903693675994873, -0.0984000414609909, 0.9305016994476318, -6.740063190460205, 0.7439751625061035, -0.08632778376340866, 0.008714350871741772, -2.5507826805114746, -2.8242790699005127, 0.1276346743106842, -2.0348644256591797, -4.14569616317749, -1.8171786069869995, 0.11036863178014755, -0.8394140601158142, -2.0315258502960205, -1.8426347970962524, 1.6806364059448242, 0.09415213018655777, 0.7999269962310791, 1.4427827596664429, -1.2136826515197754, 0.3626890778541565, -0.5297766327857971, 0.016270792111754417, -2.67294979095459, -0.7584536075592041, 0.592839777469635, -5.072548866271973, -4.11321496963501, -2.7658493518829346, -0.017207112163305283, 0.3589926064014435, -2.3533713817596436, -2.1283252239227295, 3.462435245513916, -0.892102062702179, 0.6008309721946716, -2.8643393516540527, -0.14630332589149475, 0.1856832355260849, -0.37134620547294617, 0.31331485509872437, 0.3431644141674042, -0.6104851961135864, -2.4928014278411865, -1.36147940158844, -0.013129946775734425, -2.734114408493042, -0.09248825162649155, -2.181455135345459, -1.3820199966430664, 2.5773394107818604, 0.15129195153713226, 0.012191850692033768, -1.646435022354126, 0.40972405672073364, -0.027752572670578957, 0.029346328228712082, -0.31933701038360596, 1.0703784227371216, -0.04930851235985756, 2.028587818145752, -1.202979564666748, 0.9435731768608093, -2.3635380268096924, 0.017636049538850784, 0.6371414065361023, 0.21140602231025696, -2.711601734161377, -1.3174787759780884, -0.05856005847454071, -0.11363206058740616, -0.1733325719833374, -2.7642905712127686, -4.609498023986816, 1.0052775144577026, 0.905315101146698, -3.3694679737091064, 0.04217737913131714, -0.1116088256239891, 3.1897149085998535, -2.9317564964294434, -0.4744214415550232, 0.916348934173584, 0.5655642747879028, -1.3449627161026, -0.014386694878339767, -2.1775548458099365, 3.6625747680664062, -1.2664157152175903, -5.1714348793029785, -2.5599396228790283, 4.8342509269714355, 2.8034491539001465, 0.017948316410183907, -2.266744613647461, 0.13819660246372223, 0.8829975128173828, 4.317358493804932, 5.356327056884766, 0.20773416757583618, -0.13119567930698395, -1.0119317770004272, -2.26702880859375, 0.013081526383757591, -7.488646030426025, 1.0296945571899414, 4.023189544677734, 0.004631576128304005, 4.435426235198975, 0.503375232219696, -6.26993465423584, 3.2600882053375244, -0.18297956883907318, 1.575223684310913, 0.7611223459243774, 0.9537346959114075, 1.4239455461502075, -1.555446743965149, -0.006304117850959301, 5.520087242126465, 3.897059202194214, -1.9762752056121826, 5.630068778991699, 3.30306339263916, 0.9694383144378662, 0.07008310407400131, -0.8777337670326233, 0.37419161200523376, -0.18718945980072021, 2.3976361751556396, 4.26613712310791, -2.68074107170105, 1.575433611869812, 0.12017711997032166, -1.4336210489273071, -1.187926173210144, 0.8978654146194458, -0.9191953539848328, -1.9749107360839844, 0.5263493657112122, 0.9847452640533447, 0.013455542735755444, -0.4817207157611847, -0.00848978292196989, -0.8836912512779236, 0.8565162420272827, 0.5188503265380859, 0.11576814949512482, -0.0783357098698616, -0.944669783115387, -0.30766499042510986, -0.0500023253262043, -3.047673463821411, 3.2957231998443604, -1.7621688842773438, 0.1457901895046234, 3.7834887504577637, 3.6828453540802, 1.1248700618743896, -0.3845421075820923, -9.230327123077586e-05, -0.8774869441986084, -2.1750094890594482, 2.2219607830047607, -1.027319073677063, 0.7783982753753662, 0.06802203506231308, -1.2128832340240479, 2.623530864715576, -2.2306127548217773, -2.314972400665283, -1.6521544456481934, -3.1692287921905518, -0.01994927041232586, -0.18865545094013214, 0.9321941137313843, -5.04926872253418, 2.84409236907959, 0.2217908501625061, 3.2489266395568848, 2.864931344985962, -0.02338639460504055, -2.294715404510498, -3.572016716003418, -0.7151912450790405, -1.9118058681488037, 2.590919017791748, -1.3347721099853516, 3.3145525455474854, -0.10456601530313492, -2.6546878814697266, -0.007228041533380747, -0.5702691674232483, -0.38834381103515625, 0.24043571949005127, -0.00420587370172143, 0.04680665582418442, -1.5647228956222534, -0.4515093266963959, 0.047017455101013184, -0.6142572164535522, -1.1508582830429077, 2.7915918827056885, 0.009686553850769997, -6.416418552398682, -1.2649786472320557, 2.6679015159606934, 3.609037399291992, -0.027628930285573006, 4.319638729095459, 3.279914379119873, -0.31086188554763794, 2.0725018978118896, -0.8190168738365173, -0.05643085390329361, -5.668331623077393, 1.1407109498977661, -3.047257661819458, -4.545082092285156, 2.3688623905181885, -0.1718292534351349, -0.12734955549240112, 0.22953933477401733, 2.3358750343322754, -0.3799140751361847, -2.9493584632873535, 2.5846543312072754, 0.9278714060783386, -1.2839316129684448, 0.3698871433734894, 1.6673505306243896, -1.11945641040802, -4.8934149742126465, 0.8205125331878662, 0.7824879288673401, -0.43724325299263, 3.499537944793701, -0.017702609300613403, -4.315046310424805, 0.0877893716096878, -1.1901285648345947, -2.591909170150757, -6.45930290222168, 0.025121087208390236, -0.0705527514219284, -0.8482286930084229, -0.48090559244155884, -0.16398121416568756, -2.135007381439209, -5.9899444580078125, 3.6219515800476074, -0.23224137723445892, -2.0672531127929688, -0.6979867815971375, -1.6510025262832642, 0.580676257610321, 0.2691076397895813, 0.651743471622467, -0.6337617635726929, -1.2603182792663574, 3.07834792137146, -0.6295738220214844, 0.1021970883011818, -0.5836058259010315, 6.069960117340088, -2.3146626949310303, 0.1897134631872177, -1.00272798538208, 0.718364417552948, -0.05645902082324028, -3.6749980449676514, 1.3255642652511597, 3.4419496059417725, -1.541727900505066, -1.8172491788864136, 0.644156277179718, -1.506985068321228, -0.06319279968738556, -9.313539505004883, 3.065264940261841, 0.6087183952331543, -3.9579124450683594, -0.41890233755111694, 1.576973557472229, 0.08454317599534988, 0.08026672154664993, -1.5950754880905151, 0.02307792380452156, -0.10040860623121262, 1.8656145334243774, 1.8791368007659912, 0.28416022658348083, -0.03322301805019379, -2.6978492736816406, -4.149999141693115, -0.06865357607603073, 0.06282151490449905, 0.09340111911296844, 0.26332515478134155, -0.017471034079790115, -0.3163065016269684, -0.38430076837539673, 3.1874237060546875, 0.2985483705997467, -0.010845039039850235, -2.3129138946533203, 0.5227640867233276, -3.1667966842651367, 0.29643625020980835, -4.452459812164307, 0.002907704096287489, -1.4399958848953247, -0.1663745641708374, 0.08307855576276779, 2.805375814437866, 3.873774290084839, 1.2954869270324707, 0.23244644701480865, 1.9853817224502563, -2.8133888244628906, 1.2430944442749023, -3.7740728855133057, -0.6431756615638733, -0.6435674428939819, 2.124006509780884, -0.5315248370170593, 0.6873230338096619, -2.715653419494629, -2.9218831062316895, 0.36576005816459656, -1.1331206560134888, -1.4488111734390259, -3.8165884017944336, 0.030812541022896767, 1.7340729236602783, 0.06517890840768814, -2.734316349029541, 2.683995008468628, -2.3123066425323486, 0.8555450439453125, 0.030666353181004524, -4.346899032592773, -0.06336091458797455, 0.14984126389026642, 3.1151812076568604, -0.8683435320854187, 1.7303701639175415, 0.05960914120078087, -1.310657262802124, -1.3402372598648071, 1.0758404731750488, 1.5850508213043213, 0.058806851506233215, 3.247119188308716, 0.8359516263008118, -1.7774208784103394, -8.125448226928711, -5.800222396850586, -0.11904716491699219, -4.401033878326416, -2.8468079566955566, 0.8540187478065491, -1.165995717048645, -1.2714130878448486, 0.9944639801979065, 0.007751066237688065, -0.17394697666168213, -1.562827467918396, -1.7294167280197144, 1.1931853294372559, -3.535348892211914, 2.7527804374694824, 0.4616152048110962, -0.16918964684009552, -3.5062661170959473, -2.9014086723327637, 1.2865792512893677, 3.6367745399475098, -5.5287370681762695, 0.15029136836528778, -3.7088842391967773, -0.10925021767616272, -0.1584901511669159, -0.06967511773109436, 3.4549431800842285, -0.07155106216669083, -2.038332223892212, -0.06602262705564499, 0.13739030063152313, 0.5283654928207397, 0.6026601791381836, 0.07006019353866577, 1.5981192588806152, 3.321423292160034, -2.326941967010498, 0.10801828652620316, 1.7661582231521606, -0.41043102741241455, 2.822747230529785, -1.421717643737793, -0.07492358982563019, -1.7914963960647583, 2.246148109436035, -0.29086562991142273, -3.08504319190979, -2.7003579139709473, 0.018822045996785164, -1.3529345989227295, -0.9640025496482849, 1.3578733205795288, 3.490302562713623, 3.107834815979004, 1.901423692703247, -0.15732237696647644, 0.9983463883399963, -1.5622395277023315, -2.1408286094665527, 5.052072048187256, -0.6929208636283875, -0.7853671312332153, 3.0059397220611572, 0.11699146032333374, 2.3525164127349854, 0.9256157279014587, -1.4442740678787231, 0.5241069197654724, -2.3769214153289795, -1.489805817604065, 0.8626587390899658, 0.05092715471982956, -2.8146069049835205, 0.07736331224441528, 1.1284092664718628, 2.16507887840271, 5.05535364151001, 0.023503566160798073, -0.09281273186206818, -1.1390316486358643, 0.5945790410041809, -0.16986343264579773, -3.136378288269043, -2.088400363922119, -0.7028197646141052, -0.07674913108348846, 3.8209075927734375, -3.892507553100586, 0.6494408845901489, -4.260927200317383, -0.11242696642875671, 2.820549726486206, 1.2393230199813843, 2.4390788078308105, 1.2410833835601807, -0.8793042898178101, 0.09572606533765793, 1.7370375394821167, -0.7906599044799805, 2.6017324924468994, 2.6118054389953613, -0.021853767335414886, 5.323757648468018, 0.018851423636078835, -0.38043734431266785, 3.417135000228882, 1.7514526844024658, 1.9412074089050293, 1.0024807453155518, -2.06723952293396, 2.505398988723755, 0.025803526863455772, 1.4743067026138306, -1.5047317743301392, 5.181725025177002, -1.751891016960144, -0.774209201335907, -1.638655424118042, 3.5122673511505127, 0.05023491010069847, 4.540952205657959, 0.0681866779923439, 0.4567270874977112, -2.169982671737671, 0.847312331199646, 0.07008674740791321, -0.06999818235635757, 3.2003581523895264, -1.2969913482666016, -0.028642160817980766, -3.661834716796875, 2.2382161617279053, -0.22698290646076202, -0.034793250262737274, -4.480922222137451, -3.3280766010284424, -1.2303287982940674, 1.913577914237976, -0.05706961452960968, -3.3437840938568115, -0.6213149428367615, -2.285438060760498, -0.537573516368866, -1.3311456441879272, 0.03278038278222084, 2.3362314701080322, 0.11626799404621124, 0.0400654561817646, 2.7747812271118164, -3.32883620262146, 1.004402756690979, -0.20111073553562164, 2.3589882850646973, -0.04258090257644653, -1.81443452835083, -2.9718990325927734, 0.6530433893203735, 0.42579469084739685, -3.8393752574920654, 0.6447558999061584, 3.3282341957092285, 1.87601637840271, -4.781261444091797, -1.9242092370986938, 2.499072313308716, -1.3261537551879883, 3.963994026184082, 0.03279004991054535, -7.608492374420166, 0.05540027469396591, -4.077548503875732, 3.7891438007354736, 1.268837809562683, -0.1324073076248169, -0.09254617989063263, -0.2513543665409088, -3.1074957847595215, -0.22055362164974213, -3.6941263675689697, -2.09141206741333, 0.32335883378982544, -0.030225863680243492, 2.1072795391082764, 1.7481783628463745, -2.350123882293701, -0.6486112475395203, -0.009638537652790546, -4.953976154327393, -1.9448606967926025, 0.772445797920227, 2.029888391494751, -0.5246468782424927, 0.09035758674144745, 3.6968464851379395, 2.666901111602783, -2.5076141357421875, 1.3571799993515015, 1.9520652294158936, 1.027885913848877, 0.001274820533581078, -6.239380836486816, -1.8432085514068604, 3.6843440532684326, 1.1141202449798584, 2.9079606533050537, 1.7592647075653076, 3.4525887966156006, 0.28800061345100403, -6.766392707824707, 0.6077315807342529, -1.7990937232971191, 0.2935293912887573, -1.4678142070770264, 3.198979616165161, -1.7783292531967163, 0.18596895039081573, 1.291672945022583, -0.04012469947338104, -4.5140380859375, 3.5524606704711914, -2.9113337993621826, -0.05510754883289337, 0.04102000594139099, -3.8081743717193604, -0.18391917645931244, 0.015514137223362923, -2.960052967071533, 1.56096351146698, 0.3999914228916168, 0.0444842092692852, -0.7791165113449097, -3.839020252227783, -1.653672456741333, 0.17479732632637024, 0.10142446309328079, -2.129725933074951, 1.9110976457595825, 2.9272704124450684, -1.0183051824569702, -0.3124393820762634, 0.22360721230506897, 1.3517080545425415, -0.7950662970542908, -1.036325454711914, 1.996394395828247, -2.614661931991577, -0.9891586899757385, -0.10601440072059631, 3.663086175918579, 3.7896549701690674, -2.9157588481903076, 1.7943212985992432, -0.7644777297973633, 0.3716810941696167, -0.13719308376312256, 0.19804804027080536, 1.0113914012908936, 1.1807262897491455, -2.9812989234924316, -1.1335535049438477, -1.1040898561477661, -0.8639007806777954, 3.53657603263855, 0.05987619608640671, -7.129336833953857, 0.14839568734169006, 0.5542593002319336, 0.7518091797828674, 0.17863062024116516, 0.031199244782328606, -0.007593364920467138, -1.9043680429458618, -1.3783249855041504, -0.14311081171035767, -2.736222982406616, -1.8127260208129883, 1.4936094284057617, -0.0667995810508728, 0.08473075926303864, 1.737634301185608, 1.2935402393341064, -2.409742593765259, -0.03857169300317764, -1.5988792181015015, 2.6581737995147705, 3.5491414070129395, -0.5505238771438599, 0.3494681119918823, 0.023339292034506798, 0.8072524070739746, -1.0450440645217896, -1.9519469738006592, 1.6514811515808105, -0.21483123302459717, -3.551497220993042, 0.2607980966567993, 2.1442718505859375, -1.5982704162597656, -6.112571716308594, -0.6367634534835815, -1.2593451738357544, -1.7905020713806152, 1.4969693422317505, -0.5246139764785767, 3.3866090774536133, -2.444892168045044, -4.908661365509033, 4.083600044250488, 4.956899642944336, -2.8352560997009277, -3.6976659297943115, -0.18950356543064117, -3.77353572845459, 0.14800971746444702, -1.0666409730911255, 2.205656051635742, 3.2538187503814697, 0.39844387769699097, 0.11236827075481415, -0.45654207468032837, 3.3556923866271973, 0.2897312343120575, 1.3754788637161255, 0.18110115826129913, 3.5883238315582275, -0.006980745121836662, 0.3466961085796356, -2.501962900161743, -1.6981979608535767, 2.023749351501465, -0.22814087569713593, 2.388451099395752, -1.4256988763809204, 0.01786695420742035, -0.07284528017044067, -0.3658258318901062, -0.19338053464889526, -2.4579203128814697, -0.8850042819976807, -4.821606159210205, -5.3488078117370605, 0.5116477012634277, 0.24905826151371002, 0.1334763616323471, 4.946027755737305, -3.192791223526001, 0.3899666666984558, -2.1742196083068848, 0.6257891654968262, -1.7677507400512695, 1.9380110502243042, -0.26016390323638916, 0.4409750998020172, -1.1220483779907227, -3.068981409072876, -2.638871192932129, 1.8157788515090942, 0.3250916302204132, 0.889201819896698, 0.060534410178661346, 5.542112350463867, 0.050855305045843124, 1.1266976594924927, -0.6851264238357544, 1.992440938949585, -0.10061142593622208, -0.19291472434997559, 2.4443271160125732, 1.693021297454834, 0.26337990164756775, 1.1801552772521973, -2.8355672359466553, -1.3093130588531494, 0.1366797685623169, 0.3320290744304657, -2.007766008377075, -3.2048797607421875, -0.2731502652168274, 0.13603192567825317, -2.418055295944214, 1.0515731573104858, 2.8972036838531494, 0.29513630270957947, 2.2458956241607666, -0.04473656788468361, -0.8076295852661133, -1.8300129175186157, 1.6176918745040894, -1.5056840181350708, 1.265345573425293, -10.273112297058105, -0.27815961837768555, 1.7558516263961792, -3.897367238998413, -5.358539581298828, 1.4676414728164673, 0.3089877963066101, 3.12390398979187, -4.066152095794678, -0.4165937900543213, 2.729846239089966, -0.896277129650116, -1.8237314224243164, -0.19756221771240234, 0.47882628440856934, -4.2226152420043945, -2.2687008380889893, -0.14099518954753876, -1.3582127094268799, -0.01768588274717331, -4.3746418952941895, -2.2720906734466553, 5.01673698425293, 0.45882532000541687, -0.1255238950252533, -2.300490617752075, 3.1812310218811035, -0.2632736563682556, 5.612861633300781, 0.03846278414130211, 2.219010591506958, -0.18694829940795898, 2.992666244506836, -6.075326442718506, -0.9904155135154724, 0.37855657935142517, -0.3695406913757324, -0.42800402641296387, -2.68507719039917, -1.017619252204895, -0.6629880666732788, 0.32275062799453735, 0.004619930405169725, -2.905167579650879, -2.4088408946990967, -4.722386837005615, -3.7735912799835205, 2.646104335784912, -3.80234694480896, 0.02108565717935562, 6.18608283996582, -1.0777003765106201, -3.933539867401123, 0.3696763217449188, -2.4489333629608154, -2.047994613647461, 3.6899285316467285, -0.18672892451286316, 1.2885615825653076, 2.2136847972869873, -1.6421014070510864, -3.73529052734375, 6.021411895751953, 0.05108286067843437, -0.18548649549484253, -0.14055462181568146, 2.7407548427581787, 0.01376375462859869, 1.7277663946151733, 0.7246687412261963, -2.918555974960327, -0.1280638426542282, 0.04070999100804329, 3.382244110107422, 4.169681072235107, 0.36457476019859314, 0.8148889541625977, -4.382102966308594, -1.0991778373718262, 0.22263912856578827, 1.8355611562728882, -3.445160388946533, -1.5087480545043945, -0.6160323023796082, 0.26351433992385864, -1.4596658945083618, 0.3968590497970581, 1.973665475845337, 0.5134884715080261, 0.7682450413703918, -0.31421321630477905, 0.9869057536125183, -1.7332792282104492, 5.200995445251465, -2.4701199531555176, 4.661105155944824, 1.0544639825820923, -0.5095273852348328, 1.9680527448654175, -0.5246506929397583, -0.9895070791244507, 2.996734380722046, 0.21584172546863556, 0.6143919825553894, -2.832477569580078, 0.31167399883270264, 1.69423246383667, -1.2581977844238281, 3.2655506134033203, -2.53387451171875, -1.1467005014419556, 4.548781394958496, 4.758175373077393, 0.27500608563423157, 0.8952298760414124, -0.09784077107906342, -6.711574077606201, -6.564990043640137, 2.8878767490386963, 0.13747918605804443, -0.6489092707633972, -0.2590116858482361, 1.9347293376922607, -1.4167035818099976, 6.9157586097717285, 4.352417469024658, -0.10203268378973007, -0.9959118366241455, 8.798840522766113, -1.4341020584106445, -0.26573580503463745, -2.454014778137207, -0.34362420439720154, 1.208264708518982, -1.071546196937561, -0.5207467079162598, -0.8555995225906372, -3.3888118267059326, 0.7444921731948853, -1.9910229444503784, 1.3264409303665161, 5.057821750640869, -1.1871203184127808, 0.2748588025569916, 1.2991641759872437, 0.062149908393621445, -0.7111790180206299, -2.154205799102783, -2.912363052368164, -1.4237853288650513, -3.2274258136749268, 0.8417810201644897, 5.142521381378174, -0.21903660893440247, 4.450338363647461, -2.283320188522339, -1.9116994142532349, -4.545477867126465, -8.419775009155273, -5.638721942901611, -0.5769538283348083, 0.029033944010734558, 0.4947190582752228, 0.030655698850750923, 1.9699562788009644, 0.603972315788269, -3.7349870204925537, 0.03409986197948456, -0.020994048565626144, 1.5718148946762085, -2.5368103981018066, -0.04840237647294998, -0.2631162703037262, -2.560551404953003, 2.370103359222412, 0.017707206308841705, 1.470847487449646, -7.140594959259033, -0.6042677760124207, -0.8914337754249573, -0.2270306497812271, -1.9744579792022705, 2.687716007232666, -1.0558515787124634, 0.9509329795837402, 1.4317522048950195, 0.04374704137444496, -2.260957717895508, -2.0116543769836426, -3.0424816608428955, -1.1568111181259155, -4.774958610534668, -1.229251742362976, -0.14737875759601593, 0.09789853543043137, -1.3617007732391357, -0.0398888997733593, -0.69793301820755, 3.9944770336151123, 0.24304857850074768, 5.250845909118652, -0.11105770617723465, -3.2394142150878906, 1.4831517934799194, -2.5042178630828857, 0.3828653395175934, -0.064162977039814, 3.9533660411834717, 0.5695085525512695, -0.013012092560529709, 1.4896080493927002, 0.006513030733913183, 1.9390515089035034, 3.341465950012207, 2.4098494052886963, 0.03362927585840225, -0.1313534379005432, 2.1194231510162354, -1.0446579456329346, -0.11709976941347122, -3.5009679794311523, -2.669715166091919, -0.09418828785419464, -0.1391744464635849, 2.397057056427002, 7.188523292541504, 1.5647189617156982, -0.648945689201355, -0.11578553915023804, -0.02872576005756855, 2.4531049728393555, 0.8826478123664856, 1.886365532875061, 2.805173397064209, 0.03578296676278114, 3.1663191318511963, 1.6636658906936646, 0.679966926574707, -1.052657127380371, 2.2970407009124756, 5.372776985168457, 0.19371528923511505, 0.24539580941200256, 2.3556289672851562, -0.02207321859896183, 2.1225128173828125, -0.2564728856086731, -0.16376374661922455, -1.9892514944076538, -0.08566994965076447, -0.09677320718765259, -1.2828917503356934, 0.7351389527320862, -4.103212833404541, 0.7578505277633667, -0.5248067378997803, 0.6154760122299194, 0.053182464092969894, 2.7820510864257812, -0.012664186768233776, -2.406708002090454, -2.150378942489624, 1.5088367462158203, -0.07142556458711624, -0.07693222165107727, 0.7194157242774963, -2.0757527351379395, 0.09642151743173599, -0.38809847831726074, 1.9067621231079102, -2.9531643390655518, -0.056800708174705505, 0.3190292716026306, -1.0728425979614258, -1.878880500793457, -0.5454751253128052, 0.040387626737356186, -1.7210805416107178, 0.3769725561141968, 0.43435966968536377, -1.0184186697006226, 1.246947169303894, 0.015594666823744774, -0.3287809491157532, 0.29145899415016174, -1.441818356513977, 2.8336522579193115, -1.9942084550857544, -0.9292758703231812, -0.01960112154483795, -0.6554474234580994, 1.3731085062026978, 0.7846405506134033, -3.8703856468200684, 2.4456233978271484, 2.9249629974365234, 2.4955787658691406, 0.4334815442562103, -2.3754491806030273, -0.2409045547246933, -1.9947757720947266, 3.5981264114379883, 1.1994693279266357, -1.0026272535324097, -0.4575418531894684, 0.1691322773694992, 3.3006155490875244, 0.01753869466483593, -0.5784605741500854, 1.890992283821106, 2.7142910957336426, 0.07352720946073532, 0.028710778802633286, -1.3620257377624512, -0.6327024102210999, 0.08246338367462158, -2.1236274242401123, 2.5227982997894287, -1.123550295829773, 0.12487801164388657, 0.4886453449726105, -2.175095796585083, 0.6371974349021912, 2.367046594619751, 0.02570526860654354, 3.0888993740081787, 0.9210028648376465, 2.528787136077881, 1.8428525924682617, 6.736907005310059, 0.3476306200027466, 4.32354211807251, 2.0097219944000244, -1.9903894662857056, -0.19231054186820984, -1.329919695854187, -2.4149086475372314, -0.015595703385770321, -0.6929181814193726, 2.179177761077881, -1.3554438352584839, 1.1438103914260864, -0.8596971035003662, -1.7816649675369263, 1.341851830482483, -0.16459007561206818, -0.8989621996879578, 1.0560222864151, -1.3415324687957764, -3.593094825744629, -1.7961031198501587, -0.4693300426006317, 0.13563773036003113, 0.03797287493944168, 0.7366514205932617, 0.010117383673787117, -2.165924549102783, -0.6825417876243591, -0.9476016759872437, -0.05497037246823311, 0.0825391486287117, 0.48905226588249207, -0.14251843094825745, 0.04814661294221878, 1.185261845588684, -0.46294334530830383, -1.9028929471969604, -0.115777887403965, -1.5194823741912842, -2.1591100692749023, -1.4389643669128418, -2.7437286376953125, 0.19755896925926208, -1.4024521112442017, 0.6903347969055176, -0.9839617013931274, -0.778033435344696, 1.5974334478378296, -0.13749025762081146, -1.6857056617736816, -0.10256689041852951, 0.15219494700431824, 0.5937355160713196, -1.2880254983901978, 1.7405833005905151, -0.0151372030377388, -2.803696870803833, -5.84360933303833, 0.9354367852210999, 1.4086954593658447, 0.7875730991363525, 2.347849130630493, 3.7687034606933594, 0.15849611163139343, 1.6162480115890503, 0.7390769124031067, 0.5244762301445007, 2.5198299884796143, 0.22948195040225983, 0.9697050452232361, 2.9479782581329346, 0.40112361311912537, 6.948645114898682, 0.07520599663257599, 2.8759889602661133, 1.5210678577423096, 2.357865810394287, 0.4707067310810089, -0.08443669974803925, 4.709550380706787, 1.7480287551879883, 0.4563518166542053, 4.043193340301514, 6.278387546539307, -0.796366274356842, -0.028941337019205093, -0.7166398763656616, -0.24017362296581268, -1.0298885107040405, 5.650832653045654, -0.25180649757385254, 2.536746025085449, 0.9110855460166931, 2.783226251602173, 2.34246826171875, 9.790159225463867, 0.2685849070549011, 0.23139183223247528, 4.5092878341674805, 1.6604478359222412, 4.208204746246338, 2.385174512863159, -1.7330929040908813, 0.021411076188087463, -0.5982869863510132, -1.550990104675293, -0.32793939113616943, -1.7020193338394165, 2.4332385063171387, 1.2103159427642822, 0.6547552943229675, -0.21178148686885834, -3.2725977897644043, 2.5017647743225098, -1.9630825519561768, 1.500037431716919, -2.900172472000122, -0.9736499786376953, -1.953478455543518, -0.13705405592918396, -1.1276936531066895, -0.060006432235240936, 3.0141994953155518, 1.0775971412658691, 0.16532614827156067, -0.027467764914035797, 0.062397267669439316, -2.6032118797302246, -1.0697146654129028, 0.11415314674377441, 3.045424461364746, -3.1412582397460938, 1.932861328125, 0.06323622912168503, 0.9225512146949768, -4.303685188293457, 0.2997470498085022, -2.0270938873291016, -0.059758465737104416, 2.6419546604156494, -1.4731504917144775, 1.9591610431671143, 2.406473159790039, 1.7500841617584229, -0.04170209541916847, -0.49891525506973267, -0.7745523452758789, 3.6385974884033203, -1.1128586530685425, 2.809161901473999, -3.411068916320801, 0.10475797206163406, -0.3761310577392578, -4.271842002868652, -0.7261376976966858, 1.7381829023361206, -6.293282508850098, -1.5923881530761719, -5.007732391357422, -0.19208978116512299, 1.2186838388442993, -1.6387895345687866, -1.1652508974075317, -0.5423474907875061, -3.329025983810425, 4.240293502807617, 1.1454983949661255, 0.04453129693865776, -0.6085798740386963, 0.12975198030471802, 0.07949226349592209, -2.5641355514526367, -1.2807338237762451, 0.06758936494588852, 0.1728093922138214, -2.4282493591308594, -1.0415741205215454, 0.16536323726177216, 3.509288787841797, -0.7546051740646362, 1.781929850578308, 0.20338158309459686, -2.8957712650299072, 0.5143997073173523, -0.20815514028072357, 1.4748939275741577, 0.2806667387485504, -1.0075188875198364, -3.0707406997680664, -1.0361616611480713, -1.2076315879821777, -0.7901985049247742, -0.06909780204296112, 0.3744330406188965, -0.3084314465522766, -0.3541138172149658, -1.2130035161972046, -1.327270746231079, 3.8371455669403076, -0.030664527788758278, -3.0185554027557373, 2.776834726333618, -0.24126967787742615, -0.8593189716339111, 4.326224327087402, -3.442457437515259, 1.150251030921936, 0.11869914829730988, -5.668567657470703, -1.0031877756118774, 2.109600305557251, 2.8500025272369385, 0.7644238471984863, 0.23854610323905945, -0.05226734280586243, -0.03941305726766586, -1.908172845840454, -0.14872126281261444, 1.4617180824279785, -1.0900425910949707, -0.5750181078910828, 0.007438626606017351, -0.05344120040535927, -1.0437500476837158, 0.8964906334877014, -0.11488330364227295, -1.4245264530181885, 1.6265336275100708, -3.197411060333252, -0.09709717333316803, 1.0703709125518799, -1.5311787128448486, -0.37162360548973083, -1.7497045993804932, 0.048745471984148026, -0.27111777663230896, 1.137222170829773, 0.9542253017425537, 2.07403302192688, 1.97777259349823, 0.07468613982200623, 2.123013734817505, 2.1747915744781494, 1.5962380170822144, 8.30682373046875, -2.7102158069610596, 1.5660992860794067, 0.07698295265436172, 2.1562540531158447, -0.8121792674064636, -0.2297063171863556, 1.711030125617981, -0.5615347027778625, -1.6816309690475464, -0.5567519664764404, -0.5375224351882935, 2.9324324131011963, 0.002536135958507657, -0.5880429744720459, 2.8734753131866455, 0.07558567821979523, 1.011204481124878, 2.8001441955566406, 0.09145967662334442, -0.28700295090675354, 0.06627297401428223, -0.26717305183410645, -0.22227154672145844, 3.938946485519409, -0.017365872859954834, 0.016469605267047882, -0.15134795010089874, -2.9152064323425293, 0.1295175999403, -5.43442440032959, -1.2922378778457642, -1.057011604309082, 0.17915472388267517, 4.11063289642334, -1.343056082725525, 2.019007682800293, 0.9442000985145569, 0.24189028143882751, 0.4473106563091278, -1.2323585748672485, -0.5883080959320068, -2.9680752754211426, 0.741422176361084, -0.12758877873420715, 5.187225341796875, -1.839288353919983, -1.067665934562683, -3.7023913860321045, -0.9794220924377441, -3.576993227005005, -0.11170732229948044, 4.4552507400512695, -0.7240224480628967, -2.5567774772644043, -2.0364458560943604, 0.1849014014005661, -0.9392971992492676, -1.6806199550628662, -0.061635591089725494, 3.62256121635437, -0.4209619462490082, -2.6152820587158203, 0.209202378988266, 2.6496567726135254, -2.1611337661743164, 1.4535869359970093, 0.20157228410243988, -2.991567373275757, -0.014386400580406189, -0.6042224764823914, 1.3412666320800781, 0.4414141774177551, 0.12116842716932297, -0.010921649634838104, -3.0740623474121094, 3.6478700637817383, -0.042615149170160294, -1.3248693943023682, 2.138770818710327, 1.1498476266860962, 0.0956745371222496, 1.2266627550125122, -1.7392863035202026, 1.9963122606277466, 2.390451192855835, -0.0579645037651062, 3.330706834793091, -2.2610559463500977, 1.0363941192626953, 0.3707837462425232, 0.5641367435455322, 0.09062337130308151, -1.8541642427444458, -1.2349767684936523, 2.5422091484069824, -0.10351072996854782, 5.7933669090271, 1.8437820672988892, -0.062075577676296234, -0.4425361156463623, 0.9179025888442993, 5.10442590713501, -0.9314148426055908, -1.2172646522521973, 2.091033935546875, 0.486703097820282, -0.017458388581871986, 2.403228759765625, -2.1702473163604736, 0.9499561190605164, 0.13527710735797882, -1.9999045133590698, -1.1507219076156616, 1.7888470888137817, 0.2023894041776657, 0.13063105940818787, 0.019884316250681877, -1.9336971044540405, 0.7568756341934204, -0.08160398155450821, 0.02254084125161171, -0.05300706624984741, -0.15982931852340698, -1.5684802532196045, -0.14781424403190613, 2.66652512550354, -0.2542271018028259, 2.4066238403320312, -0.15359309315681458, -3.9916155338287354, -2.4923548698425293, -0.7639386653900146, 1.2153280973434448, -0.028972886502742767, 1.4718444347381592, -0.017865968868136406, -1.693929672241211, -2.507984161376953, -0.4026308059692383, 0.05221902206540108, -2.0136098861694336, -3.5447349548339844, -0.6988023519515991, -3.9265458583831787, 1.3974682092666626, 1.8726632595062256, -0.08060339838266373, -2.990269184112549, -0.47890275716781616, -1.625921607017517, 0.9616184830665588, -2.3596320152282715, 5.710817337036133, 4.182582378387451, 0.04099065810441971, -1.2678853273391724, 7.159369468688965, -1.2187646627426147, 0.8879528045654297, -0.2364918440580368, 1.979866862297058, -1.874124526977539, 0.007645221892744303, 1.1970771551132202, 0.07727266103029251, 4.705414772033691, 1.2489665746688843, -1.8680546283721924, -0.132038876414299, 0.0026088047306984663, 5.967357158660889, 0.01367905642837286, -0.061653077602386475, 2.5071496963500977, -1.8100571632385254, 6.096134185791016, -0.12602998316287994, -3.0008904933929443, 0.9292829632759094, -2.460538148880005, 0.12120433151721954, -0.10905838012695312, -2.873089075088501, -5.547945499420166, -5.728764533996582, 1.3728599548339844, -2.994401693344116, 0.09153362363576889, 6.656148433685303, 1.2065097093582153, 0.5771353840827942, -2.318866729736328, -4.4425764083862305, 0.9079193472862244, -0.03180529177188873, -2.4776926040649414, -2.592731475830078, 0.32697024941444397, -0.07765424251556396, -5.365547180175781, -3.177109956741333, 1.2418149709701538, -0.11560648679733276, 1.837594985961914, -3.6691927909851074, 2.378811836242676, -1.6667685508728027, 2.4195876121520996, -1.244859218597412, -1.1006335020065308, -0.0962781235575676, 1.277675747871399, 0.2013816088438034, -3.8552489280700684, 1.733818531036377, -1.6386160850524902, -0.07873599976301193, -0.011109487153589725, -0.7525704503059387, -3.5193252563476562, -0.11809748411178589, 1.8977220058441162, -1.74258553981781, 2.4462826251983643, 0.05212580785155296, -4.235787868499756, -3.3585846424102783, 2.536224842071533, 0.1344052255153656, -0.0349494107067585, 2.172441005706787, -1.3975948095321655, 2.4779584407806396, 0.26071587204933167, -2.395420789718628, -0.04023994505405426, 1.6845152378082275, 2.627645969390869, 1.4791533946990967, -2.6700615882873535, 2.349670648574829, -0.35694780945777893, -0.0027912796940654516, -1.404872179031372, -4.140133380889893, -1.9616118669509888, -1.4450139999389648, 2.9032094478607178, -7.1192731857299805, 3.9097862243652344, -0.11140003055334091, -4.305642127990723, -2.530888795852661, 2.579359769821167, 1.6751614809036255, -0.9440661072731018, 1.9499104022979736, -2.3096275329589844, -0.03536441549658775, 4.953033447265625, -0.0755554586648941, -1.7103816270828247, -2.3961896896362305, -1.2820745706558228, 0.0873488038778305, 0.09845946729183197, -1.3952414989471436, 2.2992968559265137, -0.13351553678512573, 3.287965774536133, -3.822627544403076, -0.2551996409893036, -0.09613785892724991, 1.4844586849212646, 0.16715040802955627, -2.285905599594116, 6.599352836608887, 0.06567873060703278, 1.3526265621185303, -5.389368057250977, 0.9513712525367737, 2.221426248550415, -0.6664782762527466, -0.0779607743024826, 3.0772812366485596, 2.3420333862304688, -5.582483768463135, -2.3942551612854004, 2.6969356536865234, -2.0396511554718018, -0.05315126106142998, -4.633533000946045, 0.8839712142944336, -0.27399176359176636, 1.4463437795639038, -1.9685906171798706, -3.311126232147217, -5.367990016937256, -0.024946672841906548, 2.1815850734710693, -1.399888515472412, 2.768310070037842, 3.7869510650634766, -4.3509626388549805, -0.4845695197582245, 1.5963340997695923, 0.14116741716861725, -3.311758041381836, 0.048020899295806885, 3.118504762649536, 3.376049518585205, -1.1433398723602295, 0.8218257427215576, -0.0037034230772405863, -3.9563357830047607, -2.065321922302246, -0.09163304418325424, 2.314401626586914, 0.9810242056846619, -0.05290179327130318, -0.053332213312387466, -1.5691344738006592, 0.31469494104385376, 1.9963258504867554, 2.748157501220703, 0.047897011041641235, 0.072276271879673, -1.7922910451889038, 0.8377134799957275, 0.39234912395477295, 1.1176066398620605, 0.12959037721157074, -3.294691801071167, 0.08060871809720993, 1.2648341655731201, 3.728684663772583, -2.0295310020446777, -0.36677101254463196, -0.05303965136408806, -0.0968489721417427, 1.6390209197998047, 2.0762441158294678, -3.260728359222412, 1.8389997482299805, 2.5927226543426514, -3.0007376670837402, 0.07320568710565567, 2.454432964324951, 0.10564757883548737, 1.9484871625900269, -2.610617160797119, 2.432760238647461, -1.7594826221466064, -1.2707042694091797, 0.033646393567323685, -0.7297922968864441, -0.07447504997253418, 0.8566027879714966, -0.13614298403263092, -1.186254620552063, 0.30611860752105713, -0.037413377314805984, -0.23474226891994476, 1.3407273292541504, -0.32478511333465576, -0.4365556538105011, 3.0278115272521973, 5.002963542938232, -0.5567182302474976, 3.8873822689056396, -1.2243385314941406, 1.84600031375885, 0.30092933773994446, 0.0365731455385685, -1.0828019380569458, 4.762579917907715, 1.5541036128997803, -3.7081098556518555, -1.214307188987732, -0.01320553943514824, -0.9492334127426147, -3.2815377712249756, 2.2643496990203857, 1.2145283222198486, -1.5327028036117554, -0.24756872653961182, 0.08114563673734665, -0.6512824892997742, 3.001821517944336, -1.6796821355819702, -0.803702175617218, 6.711437702178955, 0.9860290288925171, 0.5193391442298889, 0.07266602665185928, -5.144927024841309, -0.7755697965621948, 0.3639931082725525, -2.2237954139709473, 3.9283323287963867, -0.5605351328849792, 0.5410575270652771, -0.14942672848701477, -2.554765462875366, 0.06623861938714981, 1.7764227390289307, -1.1847741603851318, -0.8200421333312988, 0.1719941645860672, -0.026030471548438072, -4.485690116882324, -0.4614773690700531, -0.1711297333240509, 1.2309608459472656, -0.903191089630127, -0.9487820267677307, -0.2870405614376068, -1.6038408279418945, -1.8233379125595093, 1.5511177778244019, 0.02930409274995327, -0.2658545672893524, 1.9654524326324463, 2.0107641220092773, -0.6460270285606384, 1.2843818664550781, -1.081129789352417, 0.20311293005943298, 2.05962872505188, 3.951470375061035, -1.3937005996704102, -1.2503749132156372, 0.1112474724650383, 1.740893840789795, 0.04462562873959541, 3.7364163398742676, -1.6225589513778687, 0.21308648586273193, -2.5597479343414307, -0.729688823223114, -1.5183218717575073, 0.9130741357803345, 0.03446238860487938, 2.0749268531799316, 0.01776970364153385, 0.7198117971420288, -3.576740026473999, 0.9957696795463562, -3.537229537963867, -0.12095597386360168, -0.035323068499565125, -1.4815460443496704, -0.0806548222899437, 0.41471824049949646, 1.3532183170318604, -1.9555177688598633, 0.03586211055517197, -0.07161058485507965, 1.8152832984924316, 1.3604806661605835, 0.0746346041560173, 1.6615606546401978, 2.3772947788238525, -2.000281572341919, 0.213741272687912, -4.630874156951904, 0.43552300333976746, -3.814499855041504, 2.2489094734191895, 0.1945352852344513, 2.7769734859466553, -0.3455106019973755, 2.1283133029937744, -0.4314679503440857, -0.8207256197929382, 0.08900438249111176, -2.163773536682129, 0.4808633327484131, -1.801505446434021, 0.010064153000712395, -2.0113320350646973, 0.8350495100021362, -0.20512227714061737, 2.99395751953125, 0.32843485474586487, 0.4497085213661194, 0.6631558537483215, 0.8596140742301941, 2.3733274936676025, 1.2729569673538208, 0.05145189166069031, -0.03252991661429405, 0.24016430974006653, 0.9414756298065186, -1.2158480882644653, -1.5662884712219238, 0.720928430557251, 1.2564557790756226, -0.08771220594644547, -1.1616724729537964, -0.09272751957178116, 0.35760557651519775, 1.1022014617919922, 1.4970309734344482, -0.07692880928516388, -0.03736957907676697, 2.063624143600464, -2.169447898864746, -0.12664127349853516, -0.6673802137374878, 0.9785447716712952, -4.008510112762451, 0.0325203463435173, 1.5142028331756592, 1.2911145687103271, -7.668595314025879, -1.855357050895691, 0.13728410005569458, 0.4355681240558624, 2.9459495544433594, 1.9268519878387451, -0.012535030953586102, 0.6217293739318848, -0.06061195954680443, -1.7465202808380127, -1.2147055864334106, 1.5047717094421387, 2.029935598373413, -2.047147035598755, -0.4032839834690094, 0.07422154396772385, -3.929306983947754, 2.114206075668335, 1.8302583694458008, -1.734150767326355, 1.2066282033920288, -2.082918405532837, 0.3154813349246979, -0.1590472161769867, 1.488975167274475, 4.0212836265563965, 1.6761070489883423, 2.233220338821411, 0.4989433288574219, 1.57166588306427, 0.7508867383003235, 0.08081261813640594, 1.8760911226272583, -0.03499720245599747, 4.654221057891846, -1.962441086769104, 2.452440023422241, -0.09931470453739166, 0.14856436848640442, 1.7288212776184082, -1.4127565622329712, -0.055470436811447144, -1.257418155670166, -0.8570719361305237, -3.206660509109497, 0.021494537591934204, -6.729715824127197, 0.3339805603027344, -1.4172859191894531, 1.2483879327774048, 0.049906909465789795, 1.9803204536437988, -0.1436854898929596, 3.6620006561279297, -1.6890507936477661, -0.32728177309036255, 0.02886706404387951, -2.4759716987609863, 0.6895430088043213, -0.5101072192192078, 0.7573017477989197, 4.42725133895874, -2.760007381439209, -0.028635431081056595, -2.418301820755005, 2.2005274295806885, -0.6999955177307129, 2.947570562362671, -5.676455974578857, -1.9848583936691284, 2.2410929203033447, -0.03482375293970108, -1.6526074409484863, 1.7152904272079468, -2.458125114440918, 3.305713415145874, 0.8962368369102478, -0.24169738590717316, 0.7769573926925659, 0.11139785498380661, -1.8469456434249878, 0.019402844831347466, 2.2385919094085693, -0.670648992061615, -0.04898595064878464, 0.2911468744277954, 0.026362311094999313, -0.3894122242927551, -0.7863571047782898, -0.0336792916059494, 1.1759378910064697, -5.086100101470947, 0.8340811729431152, 0.037328846752643585, -3.1346547603607178, -0.6034513115882874, -1.6543715000152588, 0.9912566542625427, -0.06117093563079834, -0.17133378982543945, 1.7678302526474, 1.4142183065414429, 2.8132903575897217, 1.05464506149292, 0.10682707279920578, -0.13002349436283112, -0.6404591202735901, -0.4966554045677185, 2.207961082458496, 3.731954336166382, -3.5296571254730225, 0.024751299992203712, -3.7206485271453857, 1.1961801052093506, 4.7893195152282715, -1.4200410842895508, -1.576697826385498, 1.8459488153457642, 4.22627067565918, -0.30369582772254944, -2.3174924850463867, -1.2835956811904907, 0.20136436820030212, 3.6898674964904785, 3.651157855987549, 3.086841344833374, 1.4838579893112183, -0.09746112674474716, 1.2102582454681396, -0.17920945584774017, -2.2023520469665527, 3.7907423973083496, 1.493833303451538, 0.15071167051792145, -0.05285394936800003, 0.308735191822052, 3.142810344696045, 0.16938237845897675, 0.09340045601129532, 2.392860174179077, 0.6855108737945557, 0.2618422508239746, -2.5207719802856445, 0.3908103108406067, 3.546778917312622, 2.6225833892822266, 0.1955701857805252, 2.572115182876587, -2.1891260147094727, -1.6051393747329712, 0.7071168422698975, 1.1223170757293701, -0.14583010971546173, 3.2680468559265137, -1.4880894422531128, 1.3492754697799683, -0.30723732709884644, 1.6509257555007935, -0.25117385387420654, 0.0879301205277443, -2.545279026031494, -0.8146542310714722, -3.115516424179077, 2.835136890411377, 2.6590747833251953, -1.856199026107788, -1.3922988176345825, -0.16988125443458557, 0.2704715430736542, 1.952192783355713, -2.426903009414673, -0.2484499216079712, -8.597291946411133, 4.926429271697998, -4.061375141143799, -0.02496621571481228, 0.41707396507263184, -0.06836998462677002, -2.4800026416778564, -2.1960573196411133, 1.341806411743164, -0.005556037649512291, 0.09452842175960541, -2.437751531600952, -5.145834922790527, -0.009139409288764, -0.4868732988834381, 1.6710855960845947, -0.8791165351867676, -0.0017814362654462457, -2.6290879249572754, 1.2906925678253174, 1.5253214836120605, -4.885939121246338, 0.040991898626089096, 0.06839052587747574, -6.098813056945801, 0.7308253049850464, 0.9203722476959229, 3.4066083431243896, -0.08691833913326263, 0.5086907148361206, 3.284792900085449, 1.1624802350997925, 6.250087738037109, 3.9100241661071777, 2.560918092727661, -0.11431119590997696, -0.2466314435005188, 1.3711199760437012, 7.949477195739746, 4.226477146148682, 2.913161277770996, -5.659972190856934, -3.2499983310699463, 0.14366678893566132, -1.7440518140792847, 1.233479380607605, -0.5845266580581665, 0.2195565104484558, 0.5130831599235535, -0.6282546520233154, -0.4294377863407135, 0.1904236376285553, 0.010329660028219223, 0.003869355423375964, 2.293236255645752, 4.491960048675537, 1.0385868549346924, -0.09340877830982208, -0.10053952783346176, 2.2217824459075928, -1.4288640022277832, -0.1037231832742691, -1.7375422716140747, 2.8105931282043457, -6.025752544403076, -0.056231528520584106, -0.4678506851196289, -5.922060489654541, 0.056935735046863556, 1.5563288927078247, -0.023362744599580765, 2.0707712173461914, -2.7794108390808105, -1.2473430633544922, -1.1430613994598389, 2.415142297744751, 0.1597544401884079, -0.7451645135879517, -0.6002713441848755, 1.8308920860290527, 4.907031059265137, 0.8032079339027405, 1.7438721656799316, 0.025488173589110374, 2.0465636253356934, -1.3899195194244385, -4.525275230407715, 1.4424009323120117, 1.996710181236267, -0.3937946856021881, -0.41085073351860046, 0.07871852815151215, -4.807936668395996, -1.4840953350067139, -0.4083993136882782, 2.707212209701538, -1.711909294128418, 2.6944403648376465, -0.9955148696899414, -0.11704419553279877, -3.2356085777282715, -0.06328827887773514, 3.140385150909424, 0.8175479769706726, -1.36762535572052, -0.01157846674323082, 0.1372908353805542, -4.952523231506348, 1.8669919967651367, 0.11509702354669571, -2.5235509872436523, -5.141376972198486, 0.5455596446990967, 0.0519106462597847, -1.1431407928466797, -2.2703378200531006, 1.3538036346435547, 0.5587364435195923, -0.05253211408853531, -2.1896791458129883, 2.3585314750671387, -0.10005120933055878, 0.023504137992858887, -1.061758279800415, -0.0974145233631134, 2.5917768478393555, -2.717837333679199, 2.529048204421997, -2.1051828861236572, 1.5223158597946167, 1.5108915567398071, 0.10101766884326935, 2.430560350418091, 1.614393711090088, -0.31883367896080017, -3.2308120727539062, 1.3886258602142334, 3.8486320972442627, -1.0164332389831543, 0.1622486114501953, 4.672586917877197, 2.6469767093658447, 2.4460527896881104, -1.2840713262557983, -2.1989049911499023, 3.479463815689087, 1.9250547885894775, 0.073154017329216, 0.8433722853660583, 0.05685655027627945, -0.7675779461860657, -1.3826347589492798, -1.1316070556640625, -0.05629609897732735, 0.04588044434785843, 3.3166472911834717, -1.2575007677078247, 0.030857523903250694, 1.3233758211135864, 0.376680850982666, 1.7182892560958862, -0.05328208953142166, -1.353689432144165, -1.6708202362060547, -3.2602412700653076, 0.6136297583580017, 0.1006915420293808, -2.455301523208618, -0.4824327826499939, 4.07574987411499, 1.4064860343933105, -2.063023090362549, 0.12050946056842804, 2.0248513221740723, 2.4884111881256104, -1.5629185438156128, 5.648245811462402, 2.301654815673828, -3.2328481674194336, 0.0031207844149321318, 7.610596179962158, 2.092977285385132, 6.197999477386475, 8.45344066619873, 1.5656468868255615, 0.6078400015830994, 4.934543609619141, -0.6597349643707275, 2.178210496902466, -3.611776113510132, -0.3751116991043091, 4.125053405761719, -0.2862071096897125, -0.07706182450056076, 6.14588737487793, -0.1484377384185791, -3.7654714584350586, -0.13932885229587555, 3.5130720138549805, -0.39504554867744446, 0.9095393419265747, -0.1481143981218338, 0.18201234936714172, -0.9262675046920776, 0.6932849287986755, 0.28668686747550964, 0.9559102058410645, -2.2224979400634766, 3.495131731033325, 0.35742586851119995, -4.29971981048584, 0.19386926293373108, -9.707633972167969, 1.253303050994873, 0.4970758557319641, 2.357434034347534, 0.07736280560493469, 0.004670713096857071, -0.8077343106269836, 1.4533377885818481, -0.18741926550865173, 0.43442243337631226, -10.370765686035156, 2.0784618854522705, 0.4154099225997925, 1.270613193511963, 2.90801739692688, -0.36284735798835754, -6.901317596435547, -2.2846198081970215, 1.221535086631775, -1.2877455949783325, 0.5286626815795898, -0.8363434076309204, -2.6618897914886475, 0.4056890606880188, 1.1137934923171997, -1.4864230155944824, -0.6994348764419556, -1.0829006433486938, 2.1596217155456543, -0.6880436539649963, 2.4185736179351807, -0.07371260225772858, -2.2991325855255127, -0.11297694593667984, -1.2020723819732666, 1.153930902481079, -0.5345320701599121, 0.15003415942192078, 0.0584804005920887, -5.001106262207031, -0.3960018754005432, -1.0919235944747925, -0.6756367683410645, 0.8803185224533081, 1.608107566833496, -0.5363874435424805, -0.3596721589565277, -1.16038179397583, 3.4693310260772705, 0.2815549373626709, -0.12962225079536438, 0.2225622981786728, -0.2390475571155548, 0.5455159544944763, 2.1868841648101807, -4.365700721740723, -0.10527481138706207, -1.5125813484191895, 1.368321418762207, -2.1196014881134033, 1.2313494682312012, 1.9291515350341797, -1.2533104419708252, -0.18058103322982788, 2.0161359310150146, -0.08454038202762604, 1.167484164237976, -0.2742323577404022, 0.05933813750743866, -1.5054333209991455, 3.036281108856201, 0.12351198494434357, 2.7970991134643555, -4.6706719398498535, 1.858704686164856, -7.084726810455322, -3.7876439094543457, -6.60900354385376, -3.5472214221954346, -0.02982754446566105, -3.9106311798095703, -0.00394528778269887, -4.661346435546875, -2.5540595054626465, -0.047915805131196976, -0.0017317963065579534, -0.07746759057044983, -2.0736608505249023, -2.1193864345550537, -0.11369535326957703, 1.2753667831420898, -0.2005874663591385, -1.4323042631149292, -0.15348365902900696, -4.2228217124938965, 0.12539072334766388, 3.1077916622161865, -3.4465060234069824, -0.1402803510427475, 0.8305402398109436, 2.281116247177124, -3.751483917236328, 1.017283320426941, -0.7591050863265991, 0.03357350453734398, 6.8040032386779785, 1.8340190649032593, -4.498510360717773, -0.756096601486206, -2.9410958290100098, -1.2153759002685547, 0.0412403866648674, -3.936283826828003, 1.6586971282958984, -3.358764410018921, -0.4650522768497467, -0.39236196875572205, -0.37804991006851196, 0.4162604808807373, -0.30482012033462524, -1.1113396883010864, -0.4732557535171509, -3.6667375564575195, -0.12366660684347153, -3.331179141998291, 0.11438006162643433, -1.517181634902954, -0.09533529728651047, -2.3471438884735107, -0.02832661010324955, -5.383417129516602, -2.430558204650879, 3.2627370357513428, -0.08541318774223328, -0.0317264050245285, 2.63122820854187, 2.1074485778808594, -0.044414304196834564, -0.836729884147644, -3.608673334121704, -3.1454720497131348, 0.14453092217445374, -5.882719039916992, -0.9285299181938171, -1.5647406578063965, 2.42793869972229, 0.025161417201161385, -2.441704034805298, 2.3939428329467773, 1.1882654428482056, -1.481124997138977, -2.184077739715576, -0.2804117500782013, -6.808955669403076, 0.5369423031806946, 1.056702733039856, -2.3934457302093506, -1.1914793252944946, -0.38048478960990906, -0.07027770578861237, -0.8312368392944336, -0.3427583575248718, 0.9023467898368835, 1.0760513544082642, 4.7958083152771, 0.18886414170265198, 0.3917345106601715, 0.27520623803138733, -6.093834400177002, 2.3292076587677, -0.6438619494438171, -5.648359775543213, -0.9408880472183228, 3.612360715866089, 2.1511852741241455, 0.11699041724205017, -2.886929750442505, -0.06890781223773956, -2.651519775390625, -2.7178053855895996, 1.1129664182662964, 0.03287370502948761, -0.06283538043498993, -4.301717758178711, -2.1001312732696533, -0.14920878410339355, -0.8900750875473022, -2.5046768188476562, -0.05804956704378128, -0.0863809883594513, -1.3297404050827026, 0.8558530807495117, 4.166685581207275, 0.5586144328117371, -0.1384204775094986, 3.563937187194824, -0.6740258932113647, 2.3246331214904785, 0.34943607449531555, -0.6124614477157593, -0.005044953431934118, 3.547412633895874, 0.8473552465438843, 1.9279457330703735, 0.7373843789100647, -0.07954198122024536, 3.1455907821655273, 0.11599690467119217, -1.962925672531128, 4.8235673904418945, 2.6279873847961426, 4.489863872528076, 0.014071797952055931, -4.9826250076293945, -4.025807857513428, -0.2098262757062912, 0.5243171453475952, -4.295562744140625, -2.8358092308044434, 4.265208721160889, -1.8387465476989746, 0.6268648505210876, 0.5335091948509216, 0.04045528173446655, 3.78020977973938, 0.008154068142175674, 0.8220256567001343, 2.08660626411438, 5.166813850402832, 0.04241238534450531, -0.07113572210073471, 0.10189399868249893, -1.5385582447052002, 0.03708751127123833, -3.1610195636749268, -4.986730575561523, -0.5891693234443665, 0.029906505718827248, 1.0815037488937378, -2.8683338165283203, -1.5285429954528809, 1.4868190288543701, 0.1772272139787674, 0.551450252532959, -6.806221961975098, -0.21712112426757812, -1.7591418027877808, -0.8168476819992065, -0.026342380791902542, -0.95657879114151, -1.2602344751358032, 2.08388614654541, -0.13179413974285126, -1.3058505058288574, 1.0284390449523926, -0.11987902224063873, 3.8781473636627197, 1.1393749713897705, -1.004086971282959, 3.710548162460327, 0.19240593910217285, 2.653733968734741, -0.5174190998077393, 0.10475978255271912, -2.5625104904174805, -0.7054210901260376, -0.20333436131477356, -1.7639871835708618, -1.3736021518707275, 0.2964576780796051, -2.7888433933258057, 0.07289893180131912, -3.1084649562835693, 0.0956304594874382, -1.744787573814392, -0.004470364190638065, -1.9303213357925415, -0.036098662763834, -0.1419817954301834, -0.02287333458662033, -2.9618442058563232, -0.15381985902786255, -1.5498485565185547, -0.4818379282951355, 0.09694243967533112, -0.24563132226467133, 1.4806607961654663, 1.8855617046356201, 0.5307120084762573, 0.6576405167579651, -0.3189844489097595, 1.1648343801498413, 1.1378915309906006, -2.374392509460449, 2.313049077987671, 0.2429264485836029, -0.04332754388451576, 0.5682051181793213, 2.3217878341674805, 3.15861177444458, 2.5254299640655518, -0.08918612450361252, 3.3796517848968506, 0.09253764152526855, -0.10838757455348969, 0.145481675863266, 0.1037931889295578, 1.4518063068389893, 0.27984142303466797, -0.9854393005371094, 3.4636166095733643, -0.10543611645698547, -4.099171161651611, 0.1363535374403, 2.078467845916748, -2.4401333332061768, -2.774594306945801, -0.2816352844238281, 3.138148307800293, -0.04342907667160034, -3.8169682025909424, -0.03855057433247566, 2.227302074432373, 0.1864861398935318, 3.157867193222046, -0.02858763188123703, 0.06810882687568665, 5.345678329467773, 0.016348324716091156, 0.033898018300533295, -1.2281575202941895, -0.6536319851875305, -1.3176409006118774, -0.005072308704257011, 2.8415465354919434, 2.02650785446167, -1.0152559280395508, 2.242260217666626, -0.009640546515583992, -0.279951274394989, -1.9978246688842773, 0.1128436028957367, 3.708286762237549, -2.1328353881835938, -0.04918944463133812, -4.451488494873047, 0.5707268714904785, 1.5288410186767578, -1.1586041450500488, 1.1496267318725586, -3.1221799850463867, 0.00029722758335992694, 1.8006834983825684, 0.666857123374939, -2.013617992401123, -0.9675464630126953, 1.2688206434249878, -1.934136152267456, -2.8944661617279053, -0.28313973546028137, 2.2732632160186768, -1.144106388092041, -2.8028786182403564, -0.42451587319374084, -0.28511562943458557, 0.4847410023212433, 0.43051910400390625, -0.11065030097961426, 3.2292251586914062, 0.03962445631623268, 6.235787391662598, -0.20386314392089844, 0.2741491198539734, 0.17339827120304108, -0.09563464671373367, 3.90458607673645, -1.375822901725769, -0.14983855187892914, 2.767679452896118, 2.4045138359069824, 2.2361505031585693, 0.028871286660432816, 0.8174272179603577, -3.2553844451904297, -1.5375677347183228, -1.3591792583465576, -0.00863531045615673, -0.646695077419281, -1.1608742475509644, 0.311710000038147, -0.37593767046928406, -1.7697486877441406, -0.2221226692199707, 1.9428104162216187, 1.3389344215393066, 2.2974038124084473, -0.0846833735704422, 3.5192148685455322, 1.3110486268997192, -0.14712126553058624, -0.3610753118991852, -1.9905719757080078, -2.7931134700775146, -3.266903877258301, 0.5167934894561768, -1.1881539821624756, -1.2631632089614868, -0.004949182737618685, 0.8586333990097046, -1.16501784324646, 1.884028673171997, 1.985892415046692, -3.463912010192871, 2.0801422595977783, -0.9575970768928528, 0.1694989949464798, 0.4492667317390442, 0.012498602271080017, -2.8552815914154053, 0.20553313195705414, 0.4845595359802246, 0.03806515783071518, -0.07820161432027817, -0.2959093153476715, 1.9014707803726196, -0.14363762736320496, 0.32939305901527405, 2.097869396209717, -2.1284615993499756, -0.06876489520072937, 1.6262495517730713, 0.9805716276168823, 2.4690542221069336, 1.1739271879196167, -0.07239171117544174, -2.2868478298187256, -0.8104134202003479, 1.697904348373413, 0.27533701062202454, 2.120579957962036, -0.01697615347802639, 0.8397759795188904, 3.847557544708252, -2.2298829555511475, 1.3505576848983765, -0.9401597380638123, 3.7281689643859863, 0.1916489601135254, -0.6389217972755432, -1.4790905714035034, -9.315264701843262, -4.846436023712158, -3.418562650680542, 1.6849961280822754, -1.0624920129776, 0.017613310366868973, -1.1988953351974487, 2.8517379760742188, 2.6574764251708984, 1.2159879207611084, -0.34619519114494324, 0.7901318669319153, 2.3015549182891846, -0.0007733191596344113, -1.1980949640274048, 0.01856437511742115, -2.045027017593384, 4.958607196807861, -4.292745590209961, -0.17577409744262695, 0.05179823935031891, -0.5972775816917419, -0.08899758756160736, 0.061778608709573746, -1.4324456453323364, 1.6167700290679932, 3.309373617172241, 0.32202044129371643, 1.7609339952468872, 0.601071298122406, 3.4327423572540283, -2.075868844985962, 0.015386063605546951, 1.1369410753250122, -2.3791983127593994, -0.5371557474136353, -0.91550612449646, -1.456585168838501, -0.09147350490093231, -1.5040405988693237, 0.03644309937953949, 2.126347541809082, -3.4947147369384766, -9.646352767944336, 1.9825115203857422, -0.0944051444530487, 3.276315689086914, 2.3794097900390625, -1.0605393648147583, -0.6056521534919739, -0.979192316532135, -2.9760425090789795, -1.3489803075790405, 0.20458000898361206, 2.1209492683410645, -1.5953600406646729, 2.8505465984344482, -7.75981330871582, -0.8577229976654053, -3.329232931137085, -3.8976657390594482, -0.1223408430814743, 2.7286272048950195, -0.054162055253982544, -2.1076149940490723, -2.691455125808716, -2.488801956176758, 0.1689278930425644, -0.09579769521951675, 2.251957654953003, 0.5132837295532227, 0.08212495595216751, 2.6791458129882812, -0.9147846102714539, -2.772989273071289, 0.14004021883010864, 4.144497871398926, -1.2337422370910645, -1.5452195405960083, -2.017993927001953, 0.12509626150131226, -6.434247016906738, -1.5318788290023804, 0.5388149619102478, -1.4809404611587524, 1.684851050376892, 0.1989038586616516, 1.6107828617095947, 2.3874731063842773, -0.2216777503490448, 0.6305297017097473, -4.476848602294922, 4.712795257568359, -0.21361570060253143, 0.29657378792762756, 0.36248084902763367, 0.8282714486122131, 2.905672550201416, -3.3502819538116455, -1.5947539806365967, -4.36759614944458, 0.3849015533924103, -1.0018104314804077, 0.6633279919624329, 1.1288745403289795, -1.1628369092941284, 1.16316556930542, 2.956742763519287, 4.524953842163086, 0.30912986397743225, -4.02204704284668, 0.053663887083530426, 0.5233938097953796, -2.1321418285369873, 0.18457700312137604, 0.10717521607875824, 0.13115796446800232, 0.5762893557548523, 0.15281909704208374, -0.11595728248357773, 4.267631530761719, 3.137524127960205, 1.9836409091949463, -0.1943272203207016, 2.5526533126831055, 2.47448468208313, 3.640089273452759, -3.257826805114746, -0.25535398721694946, -1.963805913925171, 2.3340682983398438, 1.1217539310455322, 2.8921616077423096, -1.5981112718582153, 0.25306379795074463, 1.9553500413894653, 4.307641506195068, -0.4076516330242157, 1.3207025527954102, 2.24668550491333, 1.5195860862731934, -0.08427952975034714, 0.035359714180231094, -1.3188118934631348, 3.3256521224975586, 4.253867149353027, -2.294501543045044, 5.688888072967529, 1.5785824060440063, -0.028632881119847298, 0.3144747018814087, 0.6725706458091736, 1.5084092617034912, -4.989666938781738, 0.26915016770362854, -3.3260695934295654, -4.662602424621582, -0.0062315757386386395, -0.971659779548645, 0.01828770898282528, 1.2555538415908813, 1.237073540687561, 0.4576200544834137, -0.07560498267412186, 0.013874203898012638, 4.938130855560303, -1.8601133823394775, 0.0006678039208054543, -4.95682430267334, -3.596036672592163, 2.2789008617401123, 0.07690946757793427, 1.609706997871399, -0.16827590763568878, -3.399538516998291, -2.4852423667907715, 0.022820429876446724, 0.6039232611656189, 2.486114501953125, -3.161728858947754, -0.7296576499938965, -1.5720305442810059, -0.0720384493470192, 2.2812232971191406, -3.855889081954956, -1.0714775323867798, -0.406334787607193, 0.13046932220458984, -1.2951395511627197, 0.02522096037864685, -0.6156442761421204, -3.8512256145477295, -0.5509639382362366, -0.05286670848727226, -1.864163875579834, 1.496401071548462, 0.4503466784954071, -0.14461809396743774, 0.7163192629814148, -0.042398031800985336, -1.1831872463226318, -0.42526888847351074, -2.4129984378814697, -2.6916768550872803, 2.9608116149902344, 0.01064735371619463, -3.742497444152832, 0.005145182367414236, -3.3751556873321533, 4.638361930847168, -1.5341911315917969, -0.15816368162631989, -0.008830864913761616, -5.123333930969238, -0.9530930519104004, 0.14698438346385956, -1.9251705408096313, -2.2769174575805664, -0.35037940740585327, 0.05469699203968048, 2.5728302001953125, -4.968483924865723, -1.7933681011199951, -1.0991885662078857, 0.07496815919876099, -1.4706811904907227, -1.8264764547348022, 2.6889052391052246, -2.316375970840454, 0.38433581590652466, -0.020821621641516685, 3.9203803539276123, -6.9119462966918945, 3.2416486740112305, -3.4882848262786865, -0.23573648929595947, -4.875560760498047, -0.005790617782622576, -1.1441797018051147, 1.3559437990188599, -1.0238027572631836, -1.6740124225616455, -2.818969488143921, 1.602574348449707, -0.9711731672286987, -0.040037237107753754, 0.8880306482315063, -1.7775214910507202, -4.856703281402588, 3.086820602416992, -3.6222357749938965, 0.2725304067134857, -2.1257362365722656, 0.01615813747048378, 0.3175293207168579, 0.030436018481850624, -2.1802730560302734, -0.9631936550140381, -1.777703046798706, 0.16459320485591888, 0.06917754560709, -1.1303350925445557, -0.011330685578286648, -0.10366689413785934, 1.6536086797714233, -4.005305290222168, 3.2101125717163086, -0.12559041380882263, -1.5958267450332642, -2.816124439239502, 0.5748276114463806, 0.44478732347488403, -0.02703551948070526, -0.7999024987220764, 8.060102462768555, -2.1514389514923096, -0.192982017993927, -0.39316537976264954, 0.017283041030168533, -1.5049350261688232, 0.3716965615749359, 3.199505090713501, -2.1509928703308105, -0.5104468464851379, -5.519147872924805, 0.01485501416027546, 0.2896418869495392, 1.0569642782211304, -3.1875576972961426, 1.1784230470657349, -1.1975195407867432, -3.7418315410614014, 1.954344630241394, 0.03559262678027153, -2.6280946731567383, 0.9758530259132385, -5.415521621704102, -0.32788240909576416, 3.071467161178589, -2.8548855781555176, -1.1763272285461426, 0.023816091939806938, -2.4422473907470703, -0.0007829769747331738, -2.4641287326812744, 0.858092188835144, 1.1004377603530884, -0.05992668867111206, 0.15425899624824524, 0.1427912712097168, 0.14288997650146484, 0.08174729347229004, 1.4983549118041992, -4.7027788162231445, -3.226459503173828, 0.03595348447561264, -1.9875966310501099, -0.579866349697113, 2.0385684967041016, -1.0183460712432861, 0.020733455196022987, 1.4170418977737427, 4.1259965896606445, -0.7485345005989075, -1.8697186708450317, -0.6731920838356018, -0.06073690205812454, 2.1359565258026123, 0.07342230528593063, -5.042796611785889, -1.1893869638442993, -1.0412989854812622, 1.0684369802474976, 0.043365344405174255, -0.9112095236778259, 2.67529296875, 1.6036698818206787, 0.4088691473007202, -1.413026213645935, -2.5876007080078125, 0.7585360407829285, 0.024771496653556824, -0.8000384569168091, 0.08565931767225266, -0.7321412563323975, 0.14875727891921997, 1.5764273405075073, -0.5016319155693054, -0.09741663932800293, -0.13036279380321503, -2.3344664573669434, -0.08927813172340393, 0.7439464330673218, 2.6852571964263916, 1.644744634628296, -0.19534584879875183, -0.06456661969423294, 1.5104094743728638, 0.1346711963415146, 0.014206998981535435, 2.608391046524048, 2.0212631225585938, 1.926350474357605, 0.0146718081086874, -1.040417194366455, -3.1164820194244385, 1.7104556560516357, 1.0955146551132202, -0.05607965588569641, -0.7377210855484009, -0.512785017490387, -0.5016641616821289, 0.980443000793457, -0.17706255614757538, -0.09963832795619965, 1.4379470348358154, 2.1464426517486572, -0.12741537392139435, -1.168947458267212, 1.6387537717819214, 0.6567587852478027, -0.12009315192699432, -1.4740314483642578, -0.37620189785957336, -1.0613750219345093, -2.071002721786499, 1.0935823917388916, -1.9464727640151978, -2.632615327835083, -0.24298925697803497, -7.148265361785889, -1.3067882061004639, 1.7815334796905518, 1.166785717010498, 0.806632936000824, 1.0787562131881714, 3.680251359939575, 0.0674334242939949, -0.760689914226532, 0.002784803044050932, 1.5191279649734497, -1.8027113676071167, 1.2882198095321655, 0.23013675212860107, 0.03180675581097603, 0.13510891795158386, -0.9884028434753418, -0.46465620398521423, -0.6461549401283264, -0.9048771858215332, -2.555058717727661, 0.2040480375289917, 1.512746810913086, 0.4341699182987213, 2.8839340209960938, 2.8249776363372803, -0.10344935953617096, -0.424490749835968, 2.557957410812378, 1.4573097229003906, -2.136643409729004, -4.071677207946777, -0.2436380237340927, 0.4143925607204437, 5.013895034790039, -1.9909043312072754, 1.0768135786056519, 0.8283819556236267, -1.6568983793258667, -0.18416190147399902, 2.105985641479492, 0.2635587453842163, -1.4980926513671875, -1.3887145519256592, 0.5042710304260254, -2.9422175884246826, -2.313721179962158, 0.1946861445903778, -0.10586444288492203, -0.607559859752655, 0.9480091333389282, -1.1790224313735962, -1.8028372526168823, -0.9750637412071228, 1.384844183921814, 0.12959174811840057, -7.076594352722168, -0.03851994127035141, -3.534653425216675, 1.5422477722167969, 2.315166473388672, 0.5152089595794678, -0.058711446821689606, -3.6806671619415283, 2.36448335647583, -0.2426706701517105, -4.65576171875, 4.052557945251465, -1.9621914625167847, -0.2720986008644104, -1.8863766193389893, -1.0099546909332275, 1.6152653694152832, -2.826624870300293, -0.6110230088233948, -2.3702878952026367, 1.0818936824798584, 3.188600540161133, 1.316714882850647, 0.8773390054702759, 0.04978031665086746, 0.5590532422065735, 6.1173224449157715, 2.401616334915161, -1.4137675762176514, -2.802347183227539, -2.3491272926330566, -0.009799793362617493, -1.5957013368606567, 1.1704720258712769, -1.2559635639190674, -3.3407528400421143, 5.912725925445557, 3.4338369369506836, -1.0330437421798706, 0.49894142150878906, 1.1663511991500854, -0.44335320591926575, 2.828644037246704, -1.2517439126968384, -2.160733699798584, 0.8945190906524658, 1.4070695638656616, 0.10708539187908173, 0.017344582825899124, 0.09839356690645218, -4.833607196807861, 2.566187620162964, 0.23945413529872894, -0.10184561461210251, -0.09349530190229416, -2.814438581466675, -2.037774085998535, -0.09874511510133743, -3.490217685699463, 2.6717286109924316, -3.247321367263794, 0.08356185257434845, 1.7900208234786987, -0.11834301799535751, -2.4592385292053223, -7.580463409423828, -0.11607532203197479, -3.6163716316223145, 1.207465410232544, -0.9408506751060486, -0.48491424322128296, 0.8398515582084656, 0.22441597282886505, 0.19944354891777039, 0.268906831741333, -1.6540117263793945, 3.673685073852539, -2.4082348346710205, -0.5599909424781799, -0.016080308705568314, 2.855839729309082, -0.14009277522563934, 0.874338686466217, 1.2845596075057983, -0.3011428117752075, 0.09381546825170517, -1.0626651048660278, -0.3241707384586334, 1.932813286781311, 1.7471907138824463, 1.475307822227478, 2.253209352493286, 2.674382209777832, -0.10943096876144409, 2.7404284477233887, -0.07822947949171066, -1.556619644165039, -0.07095889002084732, -2.7543301582336426, -0.9464889764785767, 1.616231918334961, 0.04132796451449394, 0.018361791968345642, -1.4419595003128052, -1.6019831895828247, -0.13329455256462097, 2.0933406352996826, 0.012261667288839817, 0.3467017412185669, 0.06853015720844269, -5.877660274505615, 0.7420125007629395, -2.910939931869507, 1.257145643234253, 0.10258977115154266, 3.064541816711426, 1.1846481561660767, 1.6602975130081177, -2.9115095138549805, 0.4991965889930725, -0.12341845780611038, -3.138871431350708, -5.007197380065918, 2.188430070877075, -0.9615693092346191, -2.3798131942749023, 2.606743335723877, 0.0034404490143060684, 6.04191780090332, 0.7893330454826355, -0.5229858756065369, 1.2462403774261475, -2.4548544883728027, -1.17717444896698, -0.40530329942703247, 0.1935195028781891, -2.1891586780548096, -1.5612303018569946, 2.6879429817199707, 2.08634877204895, -1.4773050546646118, 0.5182549953460693, -0.5532431602478027, 0.13265976309776306, 7.430789470672607, -0.011305702850222588, 3.495161294937134, -1.1819034814834595, 3.3979036808013916, -0.06035296618938446, -0.13659769296646118, 1.1190725564956665, -1.7587707042694092, -0.15348996222019196, 8.025623321533203, 2.614204168319702, -5.030857086181641, -0.01736014150083065, -0.9794750213623047, -0.7549756169319153, -4.12237548828125, 1.8174500465393066, -0.03476771339774132, -3.0410513877868652, -1.3193684816360474, -2.631594181060791, 0.30686047673225403, -1.3466105461120605, 0.12321247160434723, 1.994665265083313, 2.7293286323547363, -0.8612804412841797, 1.8086366653442383, -3.345223903656006, 0.007352143060415983, -0.02191200852394104, 2.5479328632354736, -0.8117945194244385, 2.156320571899414, -3.643601894378662, 0.7561952471733093, -2.1602985858917236, -0.39804887771606445, -0.21415163576602936, 1.7257343530654907, -3.6739282608032227, 1.7117372751235962, 3.0352442264556885, -2.1516518592834473, -0.2204015702009201, -5.4651970863342285, -0.11376204341650009, -0.5558093786239624, 0.04520668461918831, -0.6593482494354248, 1.790741205215454, -2.4956908226013184, 0.042335133999586105, 0.0421537309885025, 1.110561728477478, 2.2901360988616943, 0.05114080011844635, 0.2898990511894226, 1.0138336420059204, 2.2290313243865967, 0.11185150593519211, 0.5979821681976318, -2.9351773262023926, 2.295599937438965, 2.511969804763794, 0.10356412827968597, 3.1960129737854004, 2.959651231765747, -0.027687713503837585, -8.037050247192383, -3.9187004566192627, -0.10104964673519135, -1.787363886833191, -6.72782564163208, -0.3275142014026642, 1.3313349485397339, -1.4606157541275024, 3.863715410232544, 0.026252903044223785, -1.1645183563232422, 0.8788906335830688, 2.2175257205963135, 2.631922960281372, -0.08755636215209961, -4.214880466461182, 3.327232837677002, 0.1799905151128769, 2.619128942489624, 1.4546436071395874, -2.12339186668396, 2.2440414428710938, -2.5452051162719727, 1.3274697065353394, 2.163437604904175, 0.04323720186948776, 0.2011164128780365, -0.009272717870771885, -0.5710384845733643, 5.135499954223633, 1.6725618839263916, -0.05108294263482094, -0.06333259493112564, 3.4357709884643555, 0.4712997376918793, -0.024148166179656982, -1.981796145439148, 3.053438425064087, -0.0701889917254448, -0.06550592929124832, -0.6709268689155579, 1.1581918001174927, -1.7145881652832031, 0.13849887251853943, -0.11052446812391281, -1.2392971515655518, 4.72428560256958, -1.663024663925171, 0.04615131393074989, 1.9742169380187988, 0.09731142222881317, 0.09723752737045288, 1.4459254741668701, -4.268629550933838, 0.6863512396812439, -3.4848549365997314, 0.5205256938934326, -0.17781706154346466, -2.336042642593384, -0.9191973805427551, -0.9443143010139465, -0.7282117009162903, 3.215813159942627, 2.7237327098846436, -6.898298740386963, -0.07819674909114838, -7.106442451477051, 5.416211128234863, -5.40216064453125, -4.707513809204102, 0.2524366080760956, 4.869349479675293, 0.39178645610809326, 0.15166334807872772, -5.559276580810547, 0.1337956190109253, -2.199979305267334, 4.254327297210693, 4.76420783996582, -0.003848928026854992, -0.12293355911970139, -8.6848726272583, -0.021274538710713387, -0.1617487370967865, -2.4195146560668945, 2.124002695083618, -2.6290605068206787, -0.11196786910295486, 0.6754742860794067, 0.03831387683749199, 2.516162157058716, -2.265439987182617, -0.14499223232269287, 3.8410098552703857, -1.233885407447815, 1.979741096496582, 2.2469561100006104, -5.189523220062256, 0.07809112221002579, 5.624489784240723, 0.3173421025276184, 1.307512640953064, 2.7936832904815674, -6.30056095123291, -2.4018003940582275, 0.0010841891635209322, 2.467883348464966, 1.7323787212371826, -1.7127588987350464, -1.2844722270965576, -1.5757768154144287, 0.377122700214386, -0.10079894959926605, 0.21269021928310394, 1.4847794771194458, -0.4711647927761078, 2.3386526107788086, -5.037200927734375, 1.4893122911453247, -3.9823498725891113, -1.9016895294189453, -0.16474494338035583, 4.325374126434326, 0.03409063443541527, -3.1388351917266846, 0.7195097804069519, 1.1717947721481323, -0.01819774881005287, -0.014920421876013279, 1.5721386671066284, -0.6824911832809448, -0.2160027176141739, 4.3518853187561035, -0.4061848819255829, -0.7856541275978088, 0.18533271551132202, -3.192699909210205, 1.09623384475708, -7.75510835647583, 1.2391434907913208, 0.12161999195814133, -3.3751773834228516, -1.9502859115600586, -1.732288122177124, -0.33617672324180603, -1.1744070053100586, 0.020476659759879112, 2.055960178375244, -5.436503887176514, -0.7713080644607544, -1.7068731784820557, -1.6103218793869019, 0.4214881956577301, 0.06047296151518822, 1.629638910293579, -3.6773014068603516, 1.9684573411941528, 0.8440778255462646, 0.8626803755760193, -0.2256041169166565, -5.836423397064209, -0.18164454400539398, 0.7013887166976929, -1.3644202947616577, -5.358011245727539, 2.9918570518493652, 2.5963618755340576, -3.368224859237671, 1.1032278537750244, 0.016893703490495682, -6.029942989349365, 0.09075230360031128, -0.7246504426002502, -3.8617844581604004, 3.148223876953125, 0.04372880235314369, 0.024774368852376938, -7.961233139038086, 3.338451623916626, -0.011638989672064781, 0.3914971947669983, 0.3094101548194885, -2.3299427032470703, 0.05400577932596207, 1.4398590326309204, 1.8758314847946167, -3.2081329822540283, -3.739577531814575, 0.10666212439537048, -1.4618183374404907, 3.2699997425079346, -1.7570724487304688, -2.290006160736084, -5.494075298309326, -0.13147133588790894, -1.6288721561431885, 0.7308896780014038, 6.3842668533325195, 1.5136269330978394, 2.9485409259796143, 1.5708132982254028, 0.10689056664705276, -7.910527229309082, -1.3002305030822754, -1.5993130207061768, -0.9013530611991882, -2.332902193069458, -3.910804510116577, 3.1689298152923584, 0.07286771386861801, -5.944806098937988, 1.8568471670150757, -4.682114601135254, 1.3773761987686157, -2.977731943130493, -2.3380987644195557, -1.9110150337219238, 0.032929107546806335, -6.136614799499512, -0.0321730375289917, -1.4989986419677734, -5.268599033355713, -3.000035047531128, -0.11550192534923553, -0.08781372755765915, 1.6934441328048706, -4.1057047843933105, 0.19057665765285492, 3.2104878425598145, 2.176257371902466, -1.9761548042297363, 0.04295792803168297, -2.722022771835327, 2.6349270343780518, -7.853550910949707, -1.8307836055755615, -0.22127147018909454, 1.7198551893234253, 1.610214352607727, -0.05300527438521385, 0.9689440131187439, -1.5908311605453491, -0.03906219080090523, -0.9110410213470459, 1.9955804347991943, -1.1081339120864868, -1.3586905002593994, 0.6512676477432251, -2.517029285430908, -0.05406142771244049, 1.9838173389434814, 2.5095951557159424, 3.088026762008667, 0.42451584339141846, 0.16840147972106934, 3.41282057762146, -6.338742733001709, 0.07445025444030762, -2.1252803802490234, -0.3791116178035736, -0.6937616467475891, -1.0432507991790771, -1.3109573125839233, -1.1588842868804932, 1.564778208732605, 0.12964698672294617, 1.477329134941101, 0.08700621873140335, 1.943161964416504, -8.205673217773438, -2.1708297729492188, 0.12232013046741486, -0.038788020610809326, 0.6307596564292908, 0.06729859113693237, -0.033473290503025055, 2.5712742805480957, -0.2371995449066162, 4.77039909362793, 0.013856337405741215, 3.3199257850646973, 1.2514187097549438, -3.799278497695923, 5.14570951461792, -0.12082989513874054, 0.866117000579834, -3.8201699256896973, -2.4162087440490723, 0.3464391827583313, -2.509639263153076, 0.09270753711462021, -1.256524682044983, -1.9491314888000488, -1.330075740814209, -2.305523633956909, 0.31630340218544006, -3.1142125129699707, -0.035562675446271896, 2.876128673553467, 0.9950928688049316, -0.9461064338684082, 1.3197914361953735, 0.8201075196266174, 0.43664035201072693, 0.5754079818725586, 0.08361895382404327, 3.4028031826019287, 1.6388578414916992, -0.2539438009262085, 0.9397935271263123, 1.5376924276351929, -2.9607436656951904, 4.037444591522217, 0.09565811604261398, 3.661743640899658, 0.059065792709589005, -2.4166204929351807, -0.519807755947113, 2.3109138011932373, -0.15263479948043823, -0.015041869133710861, 1.0916879177093506, -0.24373453855514526, -0.2069755345582962, -4.043403625488281, 0.1279670149087906, -2.29927659034729, 0.04725313559174538, 2.6348044872283936, -1.806053638458252, 0.5689806342124939, -1.3086128234863281, -0.0667949840426445, -2.4497344493865967, -1.370267391204834, -2.389854669570923, -2.2431223392486572, 5.103351593017578, -0.05174616724252701, 0.804914116859436, 0.31522461771965027, -6.687567234039307, 1.072224497795105, -1.0198416709899902, 2.7879865169525146, 0.07604461908340454, 1.5878372192382812, -0.5882779955863953, 0.10968786478042603, 1.2618006467819214, 0.22777149081230164, 2.3418099880218506, -0.26047322154045105, 0.10955619066953659, 2.367316484451294, 0.6583755016326904, -1.558000922203064, 1.5646708011627197, -1.006105661392212, -1.1257168054580688, 3.90161395072937, 0.03869399428367615, 2.188854694366455, 0.00488642044365406, -0.745027482509613, 0.17707684636116028, 3.44039249420166, 0.04332354664802551, -0.06654080748558044, 3.5501492023468018, 0.7189320921897888, -0.11509877443313599, -4.727097511291504, -2.9254395961761475, 0.12533161044120789, -0.17833712697029114, 0.11058349907398224, -2.88529634475708, -0.7175551056861877, -2.0096676349639893, 0.0056084818206727505, 0.5929951667785645, -1.4468472003936768, -3.639636278152466, -1.195987582206726, 1.0756853818893433, 0.1251913160085678, 2.23730731010437, -3.625007152557373, -1.376233696937561, 2.348698616027832, -2.078389883041382, 0.0658438578248024, -0.0007991315214894712, 1.4638839960098267, -0.17190863192081451, -8.813325881958008, -3.6019201278686523, -2.884305238723755, 2.3643181324005127, -0.42406588792800903, -0.006040004547685385, 3.0640218257904053, 2.293703556060791, 1.6696199178695679, 0.07239335775375366, -2.6971116065979004, 0.10242336243391037, -1.3024448156356812, 0.04219399392604828, -2.791255235671997, -0.07712425291538239, 1.9306985139846802, 1.165041446685791, -0.7468883395195007, 0.04995410144329071, 0.08029308170080185, 2.025751829147339, -1.9607101678848267, 0.02186332456767559, 0.7928467988967896, -1.6295158863067627, 2.4382164478302, -0.015865707769989967, -1.361348271369934, 0.722649335861206, 0.3406020700931549, -3.6473515033721924, -0.11153184622526169, 2.876903533935547, -4.165209770202637, -1.9112893342971802, 2.230379819869995, -1.0715324878692627, -0.05051432549953461, -5.002755165100098, 2.990281581878662, -0.017475638538599014, -1.9846128225326538, -0.19806018471717834, 0.4972408711910248, -0.07668951153755188, 3.7345046997070312, 0.766971230506897, 2.0224194526672363, -0.12751150131225586, -0.2187764048576355, 4.532192230224609, 0.5646398067474365, -0.3482423424720764, 0.4318518042564392, 1.7022311687469482, -7.072227478027344, 1.1296504735946655, 3.36710262298584, -1.7332106828689575, 5.9195990562438965, -0.09514722228050232, 2.3958215713500977, 0.02810782752931118, 4.947749614715576, -3.4594790935516357, -0.7195898294448853, 0.06074729189276695, 0.12239741533994675, -1.410065770149231, -1.1112117767333984, 0.15016807615756989, 0.20014981925487518, -4.7505669593811035, 1.9151861667633057, 0.04822841286659241, 0.19694453477859497, -2.1775009632110596, -1.4496324062347412, 3.862926483154297, 0.06952623277902603, 4.0756964683532715, -4.917351722717285, -0.8606307506561279, -0.6104413270950317, 0.9390640258789062, -0.05241338908672333, 2.3241524696350098, -8.345709800720215, -2.2065536975860596, -3.2089362144470215, 6.557732582092285, -0.19209128618240356, -0.13213729858398438, -2.390698194503784, -1.0480296611785889, -6.6428022384643555, -2.362830400466919, 0.7183130383491516, -4.9542388916015625, 3.032898426055908, 0.11657511442899704, -4.740502834320068, -2.540517807006836, -4.938239097595215, 1.0094354152679443, 4.030838966369629, -2.7203407287597656, -1.0221619606018066, -0.044597744941711426, 3.5213677883148193, 0.022306982427835464, -3.968160629272461, -0.6528433561325073, 0.9468640685081482, 0.37766939401626587, -0.11021166294813156, -6.371128559112549, 0.5753093361854553, -0.12416262924671173, 0.1805715709924698, -0.15012086927890778, -0.9604199528694153, 0.05634216591715813, 3.7482149600982666, 0.1685177981853485, 2.019477128982544, 1.1774646043777466, 0.04095351696014404, -1.6388075351715088, 1.8599944114685059, 1.0245367288589478, 2.1231582164764404, 1.4909679889678955, -0.03969679772853851, 0.5616670846939087, 1.1013439893722534, -2.434504747390747, -0.812309980392456, 4.770296573638916, 1.8422420024871826, 0.07920835167169571, -1.3324450254440308, -0.5997610092163086, 0.4338023066520691, 0.7980188727378845, -1.6547889709472656, -0.02693415805697441, 5.659226894378662, -0.09732437133789062, -2.9023349285125732, -1.9304893016815186, -5.28957986831665, 5.664874076843262, -2.977858781814575, 3.656623601913452, 0.30786335468292236, -0.15794247388839722, 5.48841667175293, -0.056695785373449326, -0.3341238498687744, 0.3658595383167267, -1.8058580160140991, 0.14354024827480316, -0.09441547095775604, 1.4851659536361694, -3.9448161125183105, 0.14086508750915527, -3.969224691390991, -3.396110773086548, 2.628448724746704, 0.031831901520490646, 3.2641146183013916, 0.09922187775373459, 4.014956474304199, 3.8171567916870117, 0.05149482190608978, 1.1418105363845825, -0.365292489528656, -1.7432435750961304, 0.7075228095054626, -1.7665050029754639, -0.11282426118850708, -0.7974623441696167, 0.7182979583740234, 0.21104754507541656, -0.6836912035942078, 0.1903882622718811, 0.576769232749939, -0.02794661745429039, -0.3083783686161041, -1.1343390941619873, -1.7269023656845093, -7.8218183517456055, -1.853895664215088, 1.6574726104736328, -1.9108272790908813, -0.21166764199733734, -0.6278058290481567, -0.09789778292179108, -0.03903970494866371, 2.8877246379852295, 1.2806202173233032, 0.14628614485263824, -2.3253426551818848, -0.03416934609413147, 5.8484954833984375, -0.05251723900437355, -1.8128546476364136, -1.5934702157974243, -1.075408697128296, 0.038980960845947266, -0.21263058483600616, 2.1840505599975586, -2.2186973094940186, -0.3276077210903168, -3.761960029602051, 0.24926725029945374, 2.7800135612487793, -0.12919041514396667, -1.1880265474319458, -3.144463300704956, -0.8292468786239624, 0.7894527316093445, -0.14059045910835266, 1.1759724617004395, 2.531642198562622, -3.5424716472625732, -0.6867946982383728, -4.592396259307861, -0.0895015299320221, -0.5955055356025696, -5.639296531677246, -0.056952133774757385, -3.0581085681915283, -1.9046063423156738, 0.19084013998508453, 0.035048775374889374, 1.2372677326202393, -0.0027386914007365704, 2.778142213821411, -2.636564254760742, 3.880922794342041, 2.9641027450561523, 0.11125192046165466, 0.33378949761390686, -2.056846857070923, 2.061753749847412, 0.8224738836288452, 0.17148150503635406, 2.548816442489624, 0.6347301602363586, 3.1802568435668945, 0.03725293278694153, -0.0874754935503006, 0.06617296487092972, 1.0804029703140259, -0.28665000200271606, 0.459010511636734, 0.15888316929340363, 0.05750652775168419, 0.5339511632919312, 0.5209954977035522, 0.08893650025129318, -3.1224570274353027, -2.106881856918335, -1.6079366207122803, -0.1463865339756012, 1.1068644523620605, 3.42132306098938, -0.13852214813232422, -0.291751503944397, 0.07853018492460251, -1.3233420848846436, -4.433976650238037, -0.9586762189865112, 0.8219223022460938, 1.9011682271957397, 0.12678681313991547, 3.764017105102539, 0.04428243264555931, -2.183823347091675, 3.070662260055542, -1.4263033866882324, -1.132694959640503, 0.041844140738248825, 5.866323471069336, 0.17071174085140228, -2.5155937671661377, -1.8741523027420044, 1.860221266746521, -0.5186464190483093, 0.7001054883003235, -0.08612428605556488, 2.291916608810425, 0.7163698077201843, -0.7787995338439941, -0.15537963807582855, -2.411139726638794, 3.470479965209961, -0.3112247586250305, 0.1544329971075058, 2.846674680709839, 0.10656994581222534, -3.2633416652679443, -2.3101322650909424, -1.9016950130462646, 0.10567817836999893, 0.025494107976555824, 0.5947247743606567, -2.762237071990967, 0.022020980715751648, -1.23112952709198, -4.348002910614014, -0.5597979426383972, -0.06284340471029282, -7.762843132019043, 3.922339677810669, -4.949917793273926, 2.0596399307250977, -0.003198424819856882, 1.6706396341323853, -3.2634637355804443, 4.012081146240234, 1.4907540082931519, 1.2222996950149536, -0.003675928572192788, -5.297242641448975, 1.3662017583847046, -0.23573581874370575, 0.42070746421813965, -5.49013090133667, 1.16483736038208, 0.03496314212679863, 2.701211929321289, -2.5236053466796875, 2.834580183029175, 0.5534790754318237, -3.1263675689697266, -2.9377732276916504, -3.47078275680542, 0.28346893191337585, -7.093752861022949, 1.7276078462600708, -2.0333518981933594, 0.7440398335456848, -4.7752580642700195, 2.4039013385772705, -1.2468295097351074, 0.004339312668889761, -1.1203584671020508, 0.011201474815607071, -5.8606181144714355, -4.301192283630371, -2.9035398960113525, 0.1231360211968422, -0.15641961991786957, -0.8630508184432983, -0.5379035472869873, -0.08501255512237549, -3.3144049644470215, 2.6898460388183594, -2.1894912719726562, 0.0142762316390872, 2.7674670219421387, 3.212261199951172, -1.8968172073364258, 1.0584841966629028, -0.02494208700954914, -7.7976789474487305, -1.2890790700912476, -0.8631969690322876, -0.7818617224693298, -0.7817401885986328, -0.022266142070293427, 4.499436855316162, 0.861246645450592, 1.3296986818313599, 2.658579111099243, -5.630715847015381, 1.9992375373840332, 0.01944279856979847, -0.6314171552658081, -4.659882068634033, -1.4914463758468628, -6.891305923461914, -2.1349241733551025, 5.5623602867126465, 0.35955357551574707, -0.1277322620153427, -3.370576858520508, -1.4988347291946411, -3.0510807037353516, 2.901588201522827, -1.683363437652588, -4.447456359863281, 4.1356658935546875, -0.04695693776011467, -1.5424234867095947, -0.11061124503612518, -0.47366422414779663, -0.33477848768234253, 0.3347542881965637, -0.15212282538414001, -0.12544797360897064, -1.6828616857528687, -1.2022064924240112, 0.017538487911224365, 4.839621067047119, -1.8873510360717773, 0.39207231998443604, 0.07307367026805878, -7.80722713470459, -2.1447253227233887, 1.2381142377853394, -4.530808925628662, -0.07503099739551544, 4.378390312194824, 3.2656328678131104, -3.0549087524414062, 0.07064549624919891, -6.563168525695801, -0.06350869685411453, -2.2177186012268066, -3.9196393489837646, 0.2592308819293976, -1.951173186302185, 2.0364041328430176, -9.258886337280273, 0.2498437762260437, 1.4352368116378784, -9.41273307800293, 0.15011683106422424, -7.185240745544434, -4.093502521514893, 2.5990679264068604, -0.5809441804885864, -0.08149410039186478, 1.1419938802719116, -7.086683750152588, -2.2901124954223633, 5.184892654418945, 4.358811378479004, -2.52077579498291, -0.5080710649490356, -0.1030808612704277, 1.0448434352874756, -0.13075803220272064, 1.1409393548965454, -4.1184163093566895, 1.3681116104125977, -0.14077013731002808, 0.10724705457687378, -1.39501953125, 0.27848073840141296, 0.004479504656046629, -0.7960776090621948, -6.086483955383301, 1.3372879028320312, 0.004215312656015158, -6.22410249710083, -0.6458358764648438, -4.8960137367248535, 0.45334017276763916, -0.013044124469161034, 3.8827638626098633, -2.3805899620056152, -3.287470817565918, 0.5292111039161682, -4.904093265533447, 0.05086597055196762, 0.34963205456733704, -3.9396209716796875, -5.579169273376465, -1.5329619646072388, -0.687415361404419, -6.458079814910889, 0.2743622958660126, -0.029686495661735535, -2.7010438442230225, -1.3502883911132812, 1.6891230344772339, -0.7173057794570923, -1.6660358905792236, 2.156661033630371, -0.23156800866127014, 1.9716392755508423, -0.9045571684837341, -1.148017168045044, -0.13395458459854126, -5.210177898406982, -0.021682260558009148, -1.6040115356445312, -0.10233723372220993, 3.3238766193389893, 0.05305076763033867, -2.4249746799468994, 1.4661316871643066, -0.4627269208431244, 0.2617948055267334, 0.017592402175068855, -1.2095279693603516, -4.9643235206604, 0.19242359697818756, 6.473211288452148, -6.509950637817383, 2.6210925579071045, -0.014964940957725048, 0.2465868443250656, 3.5429422855377197, -1.127487301826477, 4.2928972244262695, 0.06144589185714722, -1.4680324792861938, -3.7541704177856445, -2.1564719676971436, 0.8021753430366516, -0.9515708088874817, -0.1901622861623764, -5.169354438781738, 0.2337612509727478, 1.1354504823684692, -5.51647424697876, -1.651357650756836, -2.4892563819885254, 0.041437309235334396, -3.3936972618103027, -3.41916561126709, -2.120303153991699, -1.6596565246582031, 1.2226357460021973, 4.428606033325195, -2.4081027507781982, -0.015674317255616188, 0.24776704609394073, -0.11444900929927826, 0.26688462495803833, -0.7555367946624756, 5.034494876861572, -0.6431292295455933, 0.6734719276428223, -0.034593552350997925, -4.140488147735596, -0.0010516478214412928, 1.9384948015213013, 0.50042724609375, -2.1319518089294434, -0.06812163442373276, 0.0636536031961441, -1.140701413154602, 1.9691492319107056, -0.10738851130008698, -3.680760383605957, -4.9033589363098145, -3.02980637550354, 0.10020451992750168, -7.21195650100708, -1.1773853302001953, -0.03977940231561661, 0.9416161179542542, 0.021831484511494637, -1.628347635269165, -2.5121710300445557, -1.4808906316757202, 0.6273363828659058, -2.206083297729492, -0.09814557433128357, -3.2831826210021973, 0.3231291174888611, -2.783665657043457, 1.241545557975769, 0.24972063302993774, 0.07023057341575623, 0.11144542694091797, 0.569539487361908, -2.032515287399292, -1.5100290775299072, -2.031780242919922, 4.511899948120117, 4.268017292022705, -2.3784587383270264, 0.044670138508081436, 2.3030447959899902, 2.632195234298706, 2.5007736682891846, 1.6811089515686035, 5.0157999992370605, 0.8484468460083008, 2.719562292098999, -0.13263247907161713, -4.961356163024902, -0.07585803419351578, -0.6999746561050415, -0.9216915965080261, 1.1179958581924438, 0.01600533165037632, 0.0014129900373518467, -9.144949913024902, 2.146970748901367, 0.08329422026872635, -3.8853185176849365, 1.6480635404586792, -2.192566156387329, 0.08765255659818649, 0.9165090322494507, -0.69729083776474, 1.5485644340515137, -4.82513952255249, 0.0429217591881752, 0.07943032681941986, 4.7983598709106445, -4.25532341003418, 1.9407154321670532, 2.718670129776001, -0.018333759158849716, 0.4642009139060974, -0.2010745108127594, -2.1299824714660645, 4.247329235076904, 1.0933603048324585, -1.375279188156128, 0.15064510703086853, -1.1274760961532593, 0.6073575615882874, -7.136147975921631, 0.4035641849040985, 1.6588469743728638, -2.396467447280884, -2.2448599338531494, -0.2793886065483093, 1.9093921184539795, -2.234048843383789, -1.993201494216919, -0.6339353322982788, -5.309067726135254, 0.8038176894187927, 0.1440780907869339, 0.0138855604454875, 0.40208056569099426, 0.019630067050457, -0.8065463304519653, -3.162374496459961, 2.1554830074310303, 0.21312227845191956, 0.1568397879600525, -1.7304742336273193, -6.464747905731201, 0.33120980858802795, 1.4662100076675415, -3.488215923309326, -5.611055850982666, 0.10656533390283585, -3.430490255355835, -1.9437892436981201, 2.202087640762329, 1.9339604377746582, 0.07058288156986237, -5.016594886779785, -1.2002193927764893, -1.4835915565490723, 0.49670255184173584, 0.8438011407852173, -0.08853106200695038, -0.365945428609848, 7.578100681304932, -1.202109456062317, -2.5787434577941895, -1.2527811527252197, 2.9056990146636963, -0.042365118861198425, -2.623229742050171, -1.5967540740966797, -0.16200894117355347, 2.1039228439331055, 3.7033705711364746, 1.0517940521240234, -2.4991865158081055, -0.10613127052783966, 1.733811616897583, -2.0690433979034424, -1.613328456878662, 5.09927225112915, 7.113919258117676, -1.0656100511550903, 3.728586196899414, -0.1283416897058487, 5.837775230407715, -0.03465091064572334, -1.3373197317123413, -2.5781404972076416, -3.104079484939575, 0.010326694697141647, -0.012551441788673401, -5.19889497756958, 2.4152748584747314, -0.02883147820830345, -2.1092050075531006, -4.971522808074951, 0.9920967221260071, 0.024600688368082047, 3.0222716331481934, -0.9539337158203125, 2.0188143253326416, 2.171807050704956, 0.060843080282211304, 2.594057559967041, -3.377591609954834, -4.14834451675415, -3.022353410720825, -1.335282802581787, -0.019903937354683876, -1.2363654375076294, -3.3469061851501465, 1.241229772567749, -1.735487461090088, -1.1381419897079468, -1.5418462753295898, 0.21167883276939392, 2.880671977996826, 1.9475749731063843, 1.6278715133666992, -3.3412556648254395, -4.96499490737915, -0.6563568115234375, -2.2719032764434814, -0.64226233959198, 0.6285625100135803, 2.8455276489257812, 1.7255795001983643, 5.314692497253418, 0.07274730503559113, 0.9798237085342407, 0.3519124984741211, -0.2048768550157547, 0.06798027455806732, -0.04137163609266281, 2.0549566745758057, -2.581545114517212, -2.2164433002471924, 0.16907303035259247, 0.330658882856369, 1.8759007453918457, 1.9349888563156128, 0.2993898391723633, 0.8634982705116272, -4.4026408195495605, -0.5326055884361267, 0.22592167556285858, -6.124101161956787, -0.19372022151947021, -1.5462758541107178, 1.6397794485092163, 0.28038087487220764, -1.3505443334579468, 0.6719112396240234, -2.042280435562134, -0.725985050201416, 1.9001516103744507, -0.14816132187843323, -1.27527916431427, 0.772648274898529, 1.5193997621536255, 3.319718837738037, 1.3340955972671509, 0.8560751676559448, -0.005396319553256035, 0.9036476612091064, -1.5472588539123535, 0.41054800152778625, 0.879244327545166, 2.8042967319488525, -1.631370186805725, -0.7985601425170898, 0.049269579350948334, -0.08776213228702545, 5.551328659057617, 2.4863622188568115, 2.2051777839660645, 2.478482484817505, -0.4275617301464081, 3.7808780670166016, -0.0023747561499476433, 3.8991353511810303, 0.08330278098583221, -1.3085062503814697, -3.890597343444824, -3.1147255897521973, -0.08330196142196655, -0.06027335673570633, 1.076684594154358, -3.4897634983062744, -0.08684641867876053, -7.362091541290283, 0.8310232758522034, 0.30779173970222473, 0.027672454714775085, 3.930540084838867, -1.497660756111145, -6.84014368057251, 0.981146514415741, -0.07374826073646545, -6.902657508850098, -4.25339412689209, -0.16060763597488403, 2.4939627647399902, 1.830191731452942, 0.057113535702228546, 0.7771075367927551, -2.15144944190979, -0.2166791707277298, -1.1241710186004639, -8.20902156829834, -5.638478755950928, -0.08177120238542557, 0.35319527983665466, 0.5471138954162598, 2.786349058151245, -4.410032749176025, 0.8447152972221375, -3.3530044555664062, -4.091733932495117, -0.2351081669330597, 2.181684732437134, -0.8773871660232544, 4.051257610321045, 5.644778728485107, 0.31670311093330383, 2.75099778175354, -1.0941376686096191, -0.029099464416503906, 3.5627307891845703, -0.08108741790056229, 1.7570664882659912, 3.0205440521240234, 4.291368007659912, -0.011773860082030296, -0.14626048505306244, -3.603060245513916, -3.693269968032837, 0.06444856524467468, 0.5968198776245117, 0.8954663872718811, -3.5238301753997803, -0.03310162574052811, 2.9325053691864014, 2.9953300952911377, 4.180627346038818, 3.9282066822052, 0.0152796795591712, -0.02343601919710636, 4.010297775268555, -1.33359956741333, -3.648796319961548, -2.466087818145752, -0.003109796205535531, -2.3222928047180176, 2.568685293197632, 1.262931227684021, -0.7962526679039001, -0.6853244304656982, 2.996095895767212, -0.008079198189079762, 2.7159788608551025, 2.747271776199341, -2.73580002784729, 4.072689533233643, 3.4103078842163086, -1.284912347793579, -2.670279026031494, -0.17424523830413818, 0.030368627980351448, 0.36502230167388916, 0.23276378214359283, -0.47345414757728577, -2.1836776733398438, 1.9353481531143188, -4.122052192687988, -0.07566741853952408, 2.6598596572875977, 0.13946379721164703, -3.2253925800323486, -0.4496687948703766, 3.322608709335327, 0.3589843809604645, 0.13291774690151215, -3.306821584701538, 0.04249420762062073, 0.10841809213161469, -1.1661090850830078, -1.7990350723266602, -3.55159592628479, 0.006328074261546135, 1.8069895505905151, 0.24647748470306396, -2.680260181427002, -0.8297770023345947, 0.12005842477083206, 2.466732978820801, 2.353182554244995, -0.9001300930976868, 0.9448865056037903, 1.6208170652389526, -0.11970680207014084, -2.9756293296813965, -1.7436836957931519, 1.2406045198440552, -1.3133394718170166, -1.4307427406311035, 2.7058210372924805, -0.009374119341373444, -0.14137358963489532, -1.5632153749465942, 3.712185859680176, -7.779796123504639, -0.7074763178825378, 2.9067654609680176, -2.9025304317474365, 0.3429696261882782, -4.139315128326416, 1.2175887823104858, 2.0759692192077637, -0.4315226674079895, 4.917795181274414, 3.4686598777770996, 2.833695650100708, 0.09346926957368851, -5.059529781341553, -0.10207884013652802, -1.5915311574935913, -6.051417350769043, -2.8611927032470703, -0.19763155281543732, 0.009796073660254478, 1.3619943857192993, 3.3311829566955566, -0.1792067587375641, -4.957269191741943, -0.36484265327453613, 3.20538330078125, -0.062735415995121, -2.1177866458892822, -2.6815826892852783, -3.2822699546813965, 0.689468264579773, -0.038075461983680725, -5.595402240753174, -3.0595109462738037, 1.53804612159729, -1.3780059814453125, 2.5126774311065674, 0.14854969084262848, 0.7213596105575562, -4.250541687011719, 0.8016674518585205, 1.5630078315734863, -3.003751277923584, 4.722689151763916, 0.010288454592227936, 2.4936037063598633, -0.051931895315647125, -0.48781442642211914, 2.258877754211426, 6.530489921569824, -1.4955637454986572, 3.013336420059204, -0.049599017947912216, 0.5989176034927368, -4.716866970062256, -3.263718366622925, 2.1011741161346436, 4.0404229164123535, -1.8366985321044922, -0.5774388313293457, -0.04550889506936073, -2.1067821979522705, -4.146611172473058e-05, -0.5258255004882812, -3.888678550720215, 0.08060672879219055, -0.10733423382043839, 0.05560591071844101, -1.2586464881896973, 1.7591888904571533, 0.09928473085165024, -0.4947895109653473, -1.2605133056640625, -1.391918659210205, -0.007764264941215515, 4.079288959503174, -1.5194941759109497, -0.17006978392601013, -4.162640571594238, -0.02820700779557228, 3.3776025772094727, 4.448774337768555, -1.0659734010696411, -2.4797019958496094, -2.2699673175811768, -0.009709031321108341, 2.2140004634857178, -3.5093648433685303, -0.5077739953994751, -6.038840293884277, -0.06973449140787125, 0.4419313073158264, 0.010330154560506344, -1.337506651878357, -1.4167561531066895, -1.9228134155273438, 2.0641720294952393, 0.06850932538509369, -1.1687664985656738, -1.867121696472168, -0.17385268211364746, -0.8180552124977112, -0.5140166282653809, -0.2981545329093933, 0.4534298777580261, 2.721813917160034, 1.420470118522644, -0.1346694827079773, -0.07310232520103455, -0.4778358042240143, -0.036510176956653595, 0.7092116475105286, -1.398545503616333, 3.3471498489379883, -0.03676581382751465, 0.053543802350759506, -0.6465326547622681, -0.04673769697546959, -0.034824807196855545, -2.7692155838012695, -1.4658749103546143, -0.5744917392730713, -0.03963913023471832, 1.6270471811294556, 0.6513210535049438, 2.3631203174591064, -0.032508157193660736, 0.1100727915763855, -0.3010505139827728, -1.5193287134170532, -3.525876998901367, -2.375464916229248, -0.8764085173606873, -0.016014644876122475, 0.6194609999656677, 0.11070581525564194, -6.12931489944458, -1.4942337274551392, 1.9006397724151611, -4.032404899597168, 0.0446658730506897, 1.0930969715118408, 6.713932037353516, 2.813690662384033, -2.4104249477386475, -5.312602996826172, 6.152130603790283, -0.42623674869537354, 0.011154493317008018, 2.779280424118042, 4.6333417892456055, -0.9245423674583435, 3.3480827808380127, -3.0632786750793457, 4.493560314178467, 2.8881382942199707, 0.14234314858913422, -2.0415616035461426, 0.08325705677270889, 1.5162054300308228, 4.396716594696045, 3.0074310302734375, 0.16241109371185303, -0.10142092406749725, 0.9537838101387024, -1.563196063041687, 0.1281479299068451, -5.677127838134766, 3.758040189743042, 1.9099903106689453, -0.03499826788902283, -0.7449947595596313, -2.197857618331909, 3.0855443477630615, 1.0260930061340332, -0.1035478413105011, 4.13970422744751, -2.989537477493286, -5.18521785736084, 1.820273518562317, 4.367412090301514, 0.022950511425733566, -4.012570381164551, 2.5421979427337646, -7.830226898193359, -0.028589913621544838, 3.4100382328033447, -5.265799522399902, -0.012818239629268646, 0.1923181712627411, 2.2630670070648193, 0.5617977380752563, 1.898374080657959, 1.042862892150879, -2.166689157485962, -2.346587657928467, -0.10486053675413132, -3.8843657970428467, -0.5461097359657288, 1.1063939332962036, 3.091416597366333, -9.773921012878418, 4.7723708152771, 2.616225481033325, 0.12243135273456573, 1.1036858558654785, -0.012485694140195847, 0.17505088448524475, 1.1288783550262451, 0.43619418144226074, 0.03913833200931549, -0.015320396982133389, -3.1786255836486816, -1.8454934358596802, 0.002472017193213105, -0.7802361845970154, 1.1197749376296997, 2.721320629119873, -0.08930918574333191, 3.710934638977051, -1.117964506149292, -0.5130331516265869, 1.3346279859542847, -0.04120469465851784, -0.7426099181175232, 1.677435278892517, 2.698645830154419, 1.6016894578933716, -0.5517566800117493, -0.03593781590461731, -1.6174935102462769, 2.4137260913848877, 0.2917010486125946, 0.10361819714307785, -1.8472931385040283, 0.7580718994140625, 0.01268346793949604, 0.7422425746917725, -0.7840939164161682, 1.1404653787612915, -0.5545849204063416, 2.492377281188965, 1.0062060356140137, 1.828228235244751, -0.00101536198053509, -3.0771472454071045, -1.8686633110046387, 0.41132304072380066, 1.7587581872940063, 0.19077888131141663, 3.2580111026763916, 3.630882978439331, -0.11419199407100677, -0.7070483565330505, 0.013466468080878258, -0.40730419754981995, -3.9109737873077393, 2.768911838531494, 0.0369325652718544, 0.12503769993782043, -0.32379788160324097, 1.237291932106018, 0.11248046904802322, -2.909766435623169, 1.8481323719024658, -0.880140483379364, 0.012066751718521118, -3.9105358123779297, 7.44352388381958, -2.412781000137329, 4.804248809814453, -0.008319863118231297, 2.782097578048706, 2.8214619159698486, 1.7063201665878296, 2.1179418563842773, -1.3700850009918213, -0.009924513287842274, -3.959528684616089, -0.32825767993927, 0.6693693995475769, -2.6672921180725098, 1.3273026943206787, -5.245323181152344, 0.010697327554225922, -3.425295829772949, 1.4384386539459229, -2.4765398502349854, 0.912682056427002, -3.549537420272827, 3.8779640197753906, -2.2112765312194824, -0.10912038385868073, 0.35084661841392517, -0.9294228553771973, -5.8968186378479, 1.915818452835083, -2.310478925704956, 0.059942059218883514, 0.8994139432907104, -0.004005350638180971, -1.8432029485702515, -0.06475836783647537, -1.7325259447097778, 0.7090895175933838, 3.6530404090881348, 0.027153469622135162, 0.0007115889457054436, 1.6608991622924805, 1.0295554399490356, -0.10743460059165955, 1.5794126987457275, -4.300365924835205, 0.16226868331432343, -0.1720784455537796, -4.2615227699279785, -0.4315979778766632, -8.197335243225098, -2.3411054611206055, 0.24596060812473297, 0.1881350576877594, -1.8875435590744019, -0.17923861742019653, 1.0565495491027832, 1.7198216915130615, 0.09096922725439072, -3.7050154209136963, -4.287904739379883, -2.897798776626587, -1.3804398775100708, -0.8660703897476196, -0.05106617137789726, -0.1093577891588211, 0.8196423649787903, -1.3696128129959106, 1.3354159593582153, 2.741203784942627, -0.39514243602752686, 2.223510265350342, 1.5985183715820312, 0.06275369226932526, -2.5450000762939453, -0.6954259872436523, 1.7785815000534058, -0.6603642106056213, -0.40149402618408203, 1.6323456764221191, -4.141947269439697, -0.02432899735867977, -0.24208423495292664, 0.11387050896883011, 2.249870538711548, -1.4189400672912598, 1.1982090473175049, 0.29763221740722656, 0.02687177248299122, -4.033823490142822, -1.2938464879989624, -0.07421884685754776, 4.985098838806152, -0.793992817401886, 0.2052202969789505, -0.006691725924611092, 0.808066725730896, -1.6617618799209595, 5.150748252868652, -1.4367396831512451, -0.16065390408039093, 0.5933685302734375, 0.3868675231933594, -0.4512917101383209, 0.6461544036865234, -6.784264087677002, 0.01585671678185463, 1.1921883821487427, 3.459376096725464, 0.7924738526344299, -1.4584342241287231, 3.7369277477264404, -5.380896091461182, 0.20368057489395142, 2.49581241607666, -1.1233882904052734, 1.0063352584838867, -5.213716506958008, -1.6087467670440674, -1.8934814929962158, 2.6273062229156494, -0.7726539373397827, 1.8341331481933594, -0.598607063293457, 3.3764235973358154, 1.8100221157073975, -2.677185297012329, 0.2874486744403839, -1.924865961074829, -0.08543219417333603, 0.3162406086921692, -0.1633281111717224, -2.092271327972412, 6.369269371032715, 1.5175293684005737, 0.10028918087482452, 0.0906141847372055, -2.6420183181762695, 0.35194331407546997, 0.3434569835662842, 0.4597950875759125, -0.11775222420692444, 1.4661306142807007, 0.4709113538265228, -3.9216794967651367, 4.798381805419922, 0.5707695484161377, 2.6828064918518066, 0.3213557302951813, 0.007181260269135237, 0.7239003777503967, -1.6558784246444702, -11.808528900146484, -2.3590450286865234, -0.22030134499073029, -0.45217469334602356, -8.245649337768555, 1.8202627897262573, 0.028139891102910042, -1.8153622150421143, -0.017024923115968704, -0.23042342066764832, -3.5718913078308105, -0.5903617143630981, -2.9115447998046875, 0.7000030279159546, -0.06243829429149628, -1.5406485795974731, 0.31034404039382935, 0.05643419548869133, -6.521762371063232, -4.749016284942627, 1.1962369680404663, 0.06014460325241089, -0.14376415312290192, -0.2710838317871094, -3.547154188156128, -0.012495193630456924, -1.0138850212097168, 0.11496216058731079, -1.2629923820495605, -1.658414602279663, 0.1411854773759842, 0.4073643684387207, -0.16262158751487732, -3.349458932876587, -0.2948741316795349, -0.47378236055374146, 2.90570330619812, 0.08941376954317093, -2.7598845958709717, -0.1491524875164032, -0.14556744694709778, 0.6613685488700867, 2.040555953979492, 1.3925567865371704, -0.07396109402179718, -2.426476001739502, 0.43018922209739685, 1.084741234779358, 0.40846535563468933, -2.6892473697662354, 0.03990048170089722, -1.134893536567688, 4.351428985595703, 0.5837851166725159, 2.3685948848724365, 3.078566312789917, 1.0369417667388916, -0.09370291978120804, 5.397017478942871, 2.02327823638916, 1.345296859741211, 3.3471360206604004, -3.1565895080566406, 1.1571629047393799, -6.952730178833008, -0.023011932149529457, 1.0236016511917114, -0.5600235462188721, 2.804067373275757, -0.9274179339408875, -3.23770809173584, -1.6003819704055786, 2.021894693374634, 0.157277449965477, -5.064986228942871, 0.19434405863285065, -0.0855071097612381, 1.3782532215118408, 0.5903090834617615, 0.03200043737888336, -0.02934388257563114, 1.0819485187530518, -1.9853845834732056, -0.15994508564472198, 1.1862802505493164, -1.6382174491882324, 3.1978421211242676, -0.0797111839056015, 0.6939103603363037, -1.296824336051941, 0.7503740787506104, 1.1355966329574585, 0.010151409544050694, -0.4471210241317749, -4.421196937561035, -4.6117963790893555, 0.16633637249469757, -3.5474467277526855, 0.11761634051799774, 0.2915976047515869, 0.20813600718975067, 0.5177386999130249, -2.2055470943450928, 0.32081338763237, 5.3009419441223145, -0.06680075824260712, 1.5452121496200562, -2.3185007572174072, 2.2177493572235107, 1.4885491132736206, -2.2978410720825195, 1.01470148563385, 1.5378676652908325, -0.006219595670700073, 2.5729284286499023, 3.2259814739227295, 3.868199110031128, 0.7168442606925964, 0.05404313653707504, 0.2306680679321289, 2.957623243331909, 0.13627661764621735, -1.067897915840149, 0.07941287755966187, -0.48516446352005005, -0.08666437119245529, -1.277906894683838, -0.059715691953897476, -0.14676214754581451, 2.6729326248168945, -0.13954158127307892, -0.11218832433223724, -1.3527765274047852, 0.9356046915054321, 0.5298882722854614, -0.008982805535197258, -3.9935905933380127, -1.1054530143737793, 2.0903468132019043, 3.6085307598114014, -0.025401709601283073, -0.839235246181488, -5.283775806427002, -3.0916788578033447, -3.856142282485962, 0.5391008853912354, 0.030854953452944756, 0.5502102971076965, 0.838544487953186, -3.349384307861328, 1.5867465734481812, -6.344179153442383, -1.4221140146255493, -0.053071241825819016, 0.6240304112434387, 3.3034162521362305, -2.5738637447357178, -3.6765992641448975, 0.6089881658554077, 2.5558547973632812, 2.014031171798706, -0.03988351672887802, -3.5037927627563477, 3.296536922454834, -4.3016581535339355, 0.8639202117919922, -6.410344123840332, 1.3647509813308716, 4.430093288421631, -0.09174258261919022, 2.4633100032806396, 0.05093781650066376, 3.5041518211364746, -2.0698511600494385, 0.7450231909751892, -0.23354217410087585, 0.017358586192131042, 4.569677352905273, -2.106234550476074, 0.07163690030574799, -4.0278449058532715, -1.2520694732666016, 3.014468193054199, 0.12288348376750946, -1.1700496673583984, 1.4509230852127075, -1.597983717918396, -1.595389485359192, 0.00923982635140419, -2.7308361530303955, -4.875006675720215, -0.29065319895744324, 1.6968744993209839, 1.6884057521820068, 0.16818489134311676, 0.15547797083854675, -3.167426824569702, -2.7959470748901367, 1.9891618490219116, -0.4859101176261902, -0.3164173662662506, -0.19202150404453278, 2.190305471420288, -2.0566565990448, 6.848890781402588, 2.438066005706787, -0.1181582361459732, -0.6429003477096558, 0.2830699682235718, 0.12766917049884796, -2.0129358768463135, -2.3803064823150635, 0.37612444162368774, 2.6084659099578857, -0.816573441028595, -2.348879337310791, -0.8271192908287048, 0.14251945912837982, -2.6719181537628174, 0.1689389944076538, -6.773112773895264, 2.161851167678833, -4.918522357940674, 0.15240216255187988, -0.09107071161270142, -0.432953804731369, 1.2182729244232178, -0.3841482102870941, -1.5792243480682373, -0.3438543975353241, 0.2562706768512726, -0.29621031880378723, 0.07210215926170349, -0.9905654788017273, 2.295012950897217, -0.41094493865966797, 0.0005056745139881968, -5.276442527770996, 2.115311622619629, -0.3735261559486389, 0.9410412907600403, 2.8594768047332764, 0.006739130709320307, -3.7253851890563965, 1.3958368301391602, -0.5566890835762024, 0.9427188634872437, 0.6552215218544006, 0.27192842960357666, 0.06395502388477325, 1.2530031204223633, 2.191830635070801, -2.104685068130493, -3.105269432067871, -1.4909898042678833, 2.0552687644958496, 0.12307827919721603, 0.12099738419055939, -0.7279651761054993, -0.01531829684972763, -1.2052215337753296, -1.7870285511016846, -3.9697163105010986, 1.4140321016311646, 0.9315012097358704, 0.09522809833288193, -3.0306003093719482, 0.11622444540262222, 4.576771259307861, 0.00828040111809969, 1.4776084423065186, -0.020697908475995064, -0.027336325496435165, 0.9733123779296875, -1.0194554328918457, 0.10237529873847961, -2.277509927749634, -0.11989692598581314, -1.673060655593872, 0.029003817588090897, -2.783416748046875, 1.1500763893127441, 0.04503028094768524, -0.3380005955696106, 0.2578040659427643, -2.7039928436279297, -1.1009095907211304, -0.34865638613700867, -0.5162318348884583, 2.1844427585601807, 0.1705830693244934, -0.20485597848892212, -0.0620051734149456, -2.13960337638855, 5.034948825836182, 1.999824047088623, -1.7399592399597168, 0.25904616713523865, -2.770869493484497, -7.892831325531006, -1.712733507156372, 2.674332618713379, 0.293191522359848, 0.8326516151428223, 0.5078970789909363, -0.8839577436447144, -0.7636138796806335, 4.808205604553223, -2.6919920444488525, 6.028557300567627, -0.5806968808174133, 2.177060127258301, 2.3404691219329834, -0.15831121802330017, -3.3496954441070557, 0.1709345281124115, 4.8752827644348145, 1.6657147407531738, 0.23211567103862762, 0.578142523765564, 0.09744174778461456, -1.563313603401184, 3.248918294906616, 0.35610201954841614, 1.9169260263442993, -2.4260478019714355, 5.923005104064941, -0.21468134224414825, -0.7645043730735779, -1.6942341327667236, 5.170801162719727, 3.546699047088623, -0.03829261288046837, 2.209914207458496, -1.8539433479309082, -0.3960719704627991, 0.7917850613594055, 0.8194605708122253, -0.4346703290939331, -7.770846843719482, -1.6020245552062988, -2.8723034858703613, -2.494216203689575, -2.4122512340545654, 0.11989492923021317, 0.1717735230922699, 3.766838788986206, 0.4998055398464203, 0.9398497343063354, 5.51544713973999, 1.4565181732177734, -0.5347335934638977, 3.8328237533569336, -0.1305485963821411, -1.3489824533462524, -1.3274266719818115, -1.4329659938812256, 0.9180402755737305, -0.8940841555595398, -1.8202006816864014, -0.5897354483604431, 0.03455330803990364, 2.3201587200164795, 0.010095898061990738, 3.2124412059783936, -2.5096383094787598, 1.7205400466918945, 0.014008143916726112, -0.2051667422056198, 3.886183261871338, 1.872705101966858, 0.17495296895503998, -2.732238292694092, -1.065281867980957, 0.3046513795852661, 0.044236887246370316, -0.38163694739341736, 3.2512452602386475, 1.2042165994644165, 3.2157859802246094, -0.03448059409856796, 1.3434242010116577, -2.9874444007873535, 2.133925199508667, 0.21464183926582336, 2.1720433235168457, 0.01865197718143463, 1.2041478157043457, -0.7866553664207458, -2.425060510635376, -1.4312670230865479, -0.9657095670700073, -6.438286781311035, -0.1371605545282364, -3.009058713912964, -4.371433734893799, -2.345998525619507, 8.14012336730957, -3.2296619415283203, 0.529364287853241, -0.5603129863739014, -0.36379319429397583, 1.2131255865097046, 3.7027595043182373, 0.604155421257019, 3.3154714107513428, -2.3476955890655518, 1.4671152830123901, 3.647608757019043, -0.06944436579942703, -2.3255298137664795, 0.0347149558365345, -1.0533676147460938, 2.0719680786132812, 0.5448226928710938, 0.579769492149353, -0.002004407811909914, -2.19735050201416, 3.920042037963867, 0.03935904800891876, 0.7810858488082886, -1.659892201423645, 5.211010456085205, -0.19748421013355255, 2.353480815887451, 4.629940032958984, 3.4144670963287354, 3.048382520675659, -0.12460833787918091, 0.22131817042827606, -5.086719989776611, -2.0558972358703613, 0.6010245084762573, 1.1777253150939941, -0.2542092204093933, -5.223523139953613, -1.8292559385299683, -6.7726006507873535, -0.9242885112762451, -0.586524486541748, -1.9740737676620483, 0.11664826422929764, 5.39445161819458, -0.18936164677143097, -1.69539213180542, 4.4707865715026855, -1.1849043369293213, -1.1696325540542603, 2.2451720237731934, 0.0941137820482254, -5.185093879699707, 1.9116499423980713, 3.379873037338257, -2.7558133602142334, -0.322359174489975, -0.5517531633377075, -0.9248892664909363, 0.07590072602033615, 1.706447720527649, -0.04067506641149521, 2.0669960975646973, -1.790750503540039, 0.006553222890943289, -0.04512744024395943, 0.03338507190346718, 5.853485584259033, 0.9121772050857544, 0.21512460708618164, 3.0405282974243164, -1.883785367012024, -1.5166670083999634, -0.05999607592821121, 3.2209925651550293, -1.8100823163986206, 1.1981258392333984, 3.45660662651062, 0.005802301689982414, -1.6160987615585327, -2.715182065963745, 1.8464430570602417, 0.4644816517829895, 1.041093349456787, -0.04549695551395416, 0.14552350342273712, -1.3072580099105835, 3.9463696479797363, -0.21687479317188263, 0.19913165271282196, 3.3762259483337402, -0.3680379390716553, -3.7452356815338135, 0.3196016252040863, 1.3279169797897339, 1.6873254776000977, -3.4294378757476807, -0.9117324948310852, -1.0695956945419312, 0.25744131207466125, 0.7296188473701477, 2.7725942134857178, 6.473392009735107, 3.0447909832000732, -1.0459537506103516, 7.699429988861084, 2.7632408142089844, 0.20190711319446564, 3.025486469268799, -0.04479923099279404, -0.5414404273033142, -0.5816597938537598, 0.0645405724644661, -0.21581138670444489, -0.10226278007030487, 3.867091417312622, 3.492649555206299, -0.7368619441986084, -1.3225007057189941, 5.058305740356445, 5.537395477294922, -0.7646907567977905, -6.307140350341797, -2.3061604499816895, -3.513955593109131, 1.0444194078445435, 0.22108544409275055, -1.0251091718673706, -3.712860107421875, 1.633495807647705, -0.5902100801467896, -8.021271705627441, 0.5378135442733765, -0.4978465437889099, 0.009692473337054253, 4.741084575653076, 1.3546453714370728, 2.2371702194213867, 0.577576220035553, 0.12629874050617218, 3.1011600494384766, -2.0381674766540527, -4.098949432373047, 2.013174295425415, -8.68912410736084, -0.23639705777168274, 3.044978618621826, -0.20639285445213318, 10.850301742553711, 1.530776858329773, 4.346762180328369, -3.7492592334747314, 6.730723857879639, -1.4594489336013794, 0.4311678409576416, 0.039523009210824966, 3.3286943435668945, -0.12683288753032684, 3.138092517852783, 3.2008755207061768, -5.660579681396484, -0.01971273310482502, 0.08677351474761963, 5.0139994621276855, 3.7866110801696777, 0.28099367022514343, 5.28648042678833, 1.1485172510147095, 5.399866104125977, 0.12845514714717865, 0.2942831814289093, -6.00773811340332, -2.7836036682128906, 1.3903876543045044, 0.20162566006183624, -3.1172049045562744, 2.857196092605591, 0.01584789529442787, 0.558376133441925, -3.6075568199157715, 0.045295193791389465, -0.20684733986854553, 2.5373566150665283, -4.715755939483643, 0.7078050971031189, -1.3733372688293457, -1.245954155921936, -0.177856907248497, 0.03294902667403221, -1.341243028640747, -0.11895892769098282, -0.6954526305198669, 3.9902210235595703, 0.2353951781988144, 5.377131462097168, -0.11887338012456894, -3.201179027557373, 1.4307180643081665, -2.5278117656707764, 0.3208710253238678, -0.11148306727409363, 3.875669002532959, 0.5200403928756714, -0.12818112969398499, 1.4926667213439941, 0.006088010501116514, 2.0683093070983887, 3.3615517616271973, 2.468579053878784, -0.045157983899116516, -0.1782381385564804, 2.0675461292266846, -0.9117372632026672, -0.18477730453014374, -3.39499568939209, -2.6806867122650146, -0.0001903492957353592, -0.15430770814418793, 2.3998637199401855, 7.20535945892334, 1.699253797531128, -0.6124043464660645, -0.09204722940921783, 0.005380728747695684, 2.3678698539733887, 0.7830057740211487, 1.9011348485946655, 2.839540481567383, -0.07243705540895462, 3.0821750164031982, 1.7278095483779907, 0.7612553834915161, -1.1669611930847168, 2.2049992084503174, 5.460354804992676, 0.08580373227596283, 0.24157805740833282, 2.289660930633545, 0.018089832738041878, 2.219681739807129, -0.29179033637046814, -0.22770331799983978, -1.9190267324447632, -0.16075651347637177, -0.13358964025974274, -1.266451358795166, 0.6901413798332214, -4.179941654205322, 0.8373733758926392, -0.48506030440330505, 0.6115549802780151, 0.07892502844333649, 2.771880626678467, -0.045932330191135406, -2.5227205753326416, -2.140878438949585, 1.5806255340576172, -0.0077714198268949986, -0.09688885509967804, 0.5754621624946594, -2.052093982696533, 0.13261756300926208, -0.30674314498901367, 1.953561544418335, -3.0099003314971924, -0.07196049392223358, 0.36370784044265747, -1.0741727352142334, -1.9853929281234741, -0.5926738977432251, 0.06355884671211243, -1.563063383102417, 0.2983681559562683, 0.4076545834541321, -1.0040048360824585, 1.272276520729065, 0.052316535264253616, -0.2982238531112671, 0.2699556052684784, -1.409101128578186, 2.889622449874878, -1.9925602674484253, -0.8993579149246216, 0.06879845261573792, -0.5775733590126038, 1.3488637208938599, 0.6708985567092896, -3.8858628273010254, 2.4547019004821777, 2.928530693054199, 2.471451759338379, 0.3551763594150543, -2.5044307708740234, -0.2756885886192322, -1.9212396144866943, 3.5691404342651367, 1.1652514934539795, -1.0584253072738647, -0.33716529607772827, 0.24449245631694794, 3.2605059146881104, 0.09339451044797897, -0.49146774411201477, 1.9141336679458618, 2.658583164215088, 0.07361132651567459, -0.08973915874958038, -1.3949353694915771, -0.6488617062568665, 0.005907985847443342, -2.0376930236816406, 2.4814798831939697, -1.2340713739395142, 0.11562013626098633, 0.5076920390129089, -2.1908748149871826, 0.6532824635505676, 2.3313486576080322, -0.07103528827428818, 3.1474316120147705, 0.8814363479614258, 2.5212955474853516, 1.9073100090026855, 6.724082946777344, 0.24141032993793488, 4.253359794616699, 2.0913336277008057, -2.066105604171753, -0.1368694305419922, -1.35857355594635, -2.4787838459014893, -0.025718508288264275, -0.7295365333557129, 2.0593318939208984, -1.2983144521713257, 1.2563625574111938, -0.8250068426132202, -1.7784265279769897, 1.3371678590774536, -0.20845840871334076, -0.8231189846992493, 0.9830964207649231, -1.4203572273254395, -3.7001452445983887, -1.809881329536438, -0.4703429043292999, 0.11156394332647324, 0.0038045451510697603, 0.6376363039016724, -0.13086163997650146, -2.0390682220458984, -0.7636879086494446, -0.805881142616272, 0.03916997089982033, 0.05545593425631523, 0.47446632385253906, -0.05939961597323418, 0.034777507185935974, 1.2206782102584839, -0.5824529528617859, -1.907821774482727, -0.10357492417097092, -1.5213537216186523, -2.207439661026001, -1.4205408096313477, -2.7324047088623047, 0.11234322190284729, -1.4450758695602417, 0.6682080030441284, -0.8936862945556641, -0.7811750769615173, 1.681515097618103, -0.1560506373643875, -1.686183214187622, -0.13037660717964172, 0.15356330573558807, 0.5238441824913025, -1.1992918252944946, 1.7972723245620728, -0.02433527447283268, -2.7579381465911865, -5.7672295570373535, 0.944369375705719, 1.5021851062774658, 0.762312114238739, 2.3195416927337646, 3.895623207092285, 0.1581299602985382, 1.5544081926345825, 0.7166864275932312, 0.4848296046257019, 2.4480650424957275, 0.10155224055051804, 0.9363608956336975, 3.085395574569702, 0.327008455991745, 6.9405341148376465, 0.07932493090629578, 2.9523143768310547, 1.508298397064209, 2.291581630706787, 0.40730348229408264, -0.018757013604044914, 4.706217288970947, 1.7572290897369385, 0.44989264011383057, 4.014379501342773, 6.197298526763916, -0.8314571976661682, -0.011925050057470798, -0.679983377456665, -0.18827655911445618, -1.0907235145568848, 5.589552402496338, -0.23117968440055847, 2.4488120079040527, 1.043816328048706, 2.7015106678009033, 2.316403865814209, 9.742210388183594, 0.2907988429069519, 0.2727951109409332, 4.560945510864258, 1.5674693584442139, 4.251296520233154, 2.401484727859497, -1.8044034242630005, -0.034580543637275696, -0.6838911771774292, -1.4233801364898682, -0.31262195110321045, -1.6134837865829468, 2.5690665245056152, 1.2395853996276855, 0.6785388588905334, -0.1301492303609848, -3.2256388664245605, 2.552579879760742, -1.9996592998504639, 1.6151299476623535, -2.9301140308380127, -0.991223156452179, -2.056704044342041, -0.12989625334739685, -1.0811216831207275, -0.06612692028284073, 2.8694369792938232, 1.1220252513885498, 0.06001640483736992, -0.03272325545549393, 0.03794975206255913, -2.570796489715576, -1.0666660070419312, -0.037954073399305344, 3.04365873336792, -3.056061267852783, 2.0126454830169678, -0.06840983778238297, 0.8796886801719666, -4.369646072387695, 0.2989388704299927, -1.987243413925171, -0.07108356058597565, 2.699786424636841, -1.4923198223114014, 2.065830707550049, 2.340385913848877, 1.6779885292053223, -0.1255630999803543, -0.407593309879303, -0.806573748588562, 3.68544340133667, -1.126780390739441, 2.842989683151245, -0.19089950621128082, -0.25725340843200684, -0.8870454430580139, -1.6602264642715454, 0.3778441846370697, 3.1078884601593018, 0.84658282995224, 1.5626823902130127, -2.4455223083496094, 0.2123555839061737, -1.1858853101730347, 2.2712888717651367, -0.48022258281707764, 1.5650163888931274, -6.559406280517578, 0.9081494212150574, -0.61480313539505, 0.11322112381458282, -3.463550329208374, 0.08231496810913086, -0.5312879085540771, 1.1774914264678955, 2.640495538711548, 0.3790220022201538, -0.04985179752111435, -4.998208999633789, -2.528756856918335, -0.20348580181598663, 0.848842203617096, 0.5486486554145813, 2.9307610988616943, -0.3657401204109192, 2.0100350379943848, 1.2482813596725464, 3.585508346557617, 4.169516086578369, -0.17435725033283234, 1.2288312911987305, -1.2211114168167114, 4.611800193786621, 1.351747989654541, -0.6817798018455505, 0.032711949199438095, 2.6528992652893066, 2.6599087715148926, 1.9908543825149536, 1.3585737943649292, 0.04945997893810272, 3.6905229091644287, 0.0856943354010582, -2.972717046737671, 2.845123052597046, -0.24235132336616516, -0.8866772651672363, 4.318078994750977, -3.4451792240142822, 1.184935212135315, 0.09227713942527771, -5.590299606323242, -0.8950724601745605, 2.192711114883423, 2.822986364364624, 0.6563922166824341, 0.25683778524398804, -0.04371712729334831, 0.02803749218583107, -2.0420451164245605, -0.12310311198234558, 1.3900542259216309, -1.1693923473358154, -0.5661830306053162, -0.003688803408294916, -0.01426311582326889, -1.13994562625885, 0.8822429776191711, -0.1321605145931244, -1.459101915359497, 1.6043540239334106, -3.2134809494018555, -0.14900866150856018, 1.1576511859893799, -1.6528503894805908, -0.27859124541282654, -1.7495496273040771, -0.02159648761153221, -0.3555159270763397, 1.1755810976028442, 0.8907245397567749, 2.151069402694702, 1.950928807258606, -0.04239993542432785, 2.1068975925445557, 2.2297699451446533, 1.671411156654358, 8.437240600585938, -2.7477171421051025, -1.3596253395080566, 0.25193387269973755, 2.977900266647339, -3.2234575748443604, 2.49355411529541, 2.1839723587036133, -4.653359413146973, 0.4031990170478821, 6.597329616546631, -0.5173014402389526, -3.0548017024993896, -4.292468547821045, -0.33088818192481995, -4.245560169219971, 2.4107868671417236, 4.5951948165893555, 5.131580829620361, -0.322750061750412, 0.4812161326408386, -0.1659550964832306, 1.1017554998397827, 2.8379671573638916, -3.206216812133789, 0.03793812543153763, 0.16064628958702087, -0.58540940284729, 5.672915935516357, 0.23434436321258545, -1.5611763000488281, -1.6807737350463867, -2.426328182220459, 0.6493089199066162, -1.7564644813537598, -0.4316502809524536, -0.6136084794998169, -0.7201025485992432, 0.6985474824905396, -3.7328884601593018, 5.113903999328613, -6.139548301696777, -5.208695888519287, 0.804928183555603, -0.31746140122413635, -3.0032427310943604, -5.45162296295166, -1.2438867092132568, -1.0084677934646606, 0.6326408982276917, 4.603661060333252, -0.024546487256884575, -0.9673159122467041, 0.23326104879379272, 0.2578560709953308, -1.9447323083877563, -0.7709848880767822, 5.383275032043457, -5.436290264129639, 0.006666273344308138, 2.670102834701538, 4.662750244140625, -1.557573914527893, 1.1804348230361938, 6.063154697418213, 1.3527324199676514, 3.052396535873413, 0.034285563975572586, -4.440293788909912, 0.002879530657082796, -0.022294210270047188, 1.2119126319885254, 3.9984490871429443, 0.061903007328510284, -0.0727798268198967, -0.8834741711616516, 3.5757858753204346, -0.02899216115474701, -5.425065040588379, 0.8257957696914673, 4.56547212600708, -0.03660787269473076, 2.192256450653076, -1.1857951879501343, -1.9675166606903076, 0.6282206177711487, 0.055899910628795624, 0.4589769244194031, 6.404542446136475, 2.9670801162719727, 0.805566132068634, 1.392080545425415, 0.04347370192408562, 2.463559627532959, 1.0203083753585815, 3.8151729106903076, 0.07487232983112335, 0.16318444907665253, 0.5046510100364685, 0.08953769505023956, 0.809888482093811, -12.14792537689209, 0.2504476308822632, 1.3717678785324097, -1.3765809535980225, -2.338339328765869, 1.8685781955718994, -0.36799317598342896, -1.6143653392791748, -5.448566913604736, 1.0529714822769165, -1.6779389381408691, 3.551503896713257, 1.3816115856170654, 1.128535509109497, -0.22670632600784302, 0.6517217755317688, -0.02973133884370327, 2.376538038253784, -0.10945791006088257, -12.439607620239258, -0.2807997167110443, 0.0861656591296196, -0.860180675983429, 1.2249594926834106, 0.13174986839294434, 2.39068341255188, -2.22208309173584, -0.2964368462562561, 0.2562924027442932, -0.6041937470436096, -2.8592405319213867, -4.484716415405273, -6.318098545074463, 0.05819685757160187, 3.09982967376709, 2.5595078468322754, -1.5534087419509888, -1.6567903757095337, -2.5960774421691895, -0.18824544548988342, -7.404321193695068, -7.540885925292969, 1.4821972846984863, -4.615591526031494, 1.3136534690856934, 0.8491408824920654, -0.15646982192993164, 0.6989346146583557, -3.748697519302368, 5.743992328643799, 1.4381729364395142, -2.450953722000122, 2.7069902420043945, 2.9490885734558105, 0.013398188166320324, -2.097721815109253, 0.03317297622561455, -0.7174809575080872, -4.1648149490356445, -0.285566121339798, 0.24155765771865845, -0.10346785187721252, -0.008963769301772118, 1.59340238571167, 0.006692848633974791, 2.899796724319458, 0.14206618070602417, -2.5700294971466064, -0.09372437000274658, 0.06015723571181297, -1.5029370784759521, -0.5156488418579102, -0.24098266661167145, 0.0020765899680554867, -1.8627160787582397, 0.15648724138736725, -0.28734415769577026, -0.5706825852394104, 0.5860708355903625, -3.7999372482299805, -2.627258062362671, -0.05410544201731682, -3.935336112976074, 2.881643295288086, -2.444126844406128, 0.8560026288032532, 2.5868983268737793, -0.06182941794395447, 1.0749659538269043, -0.8437212705612183, 0.21605348587036133, -0.5592366456985474, 1.1825919151306152, 5.191653251647949, -0.028902659192681313, -0.022308986634016037, 0.40306520462036133, 1.5464969873428345, -1.7666239738464355, -6.3067307472229, -1.399167537689209, -3.162541389465332, 0.09425539523363113, -4.735590934753418, 5.48831033706665, 2.857602834701538, 0.9056659936904907, 0.8850030899047852, 7.675265789031982, 2.9811348915100098, -0.046107206493616104, 1.8184268474578857, 0.10010036081075668, -2.6629223823547363, 4.70116662979126, 4.546513080596924, 0.12352006137371063, -0.1130671501159668, -3.434390068054199, 4.496981143951416, -0.09412688761949539, -6.587456703186035, -6.267263889312744, 1.5916438102722168, -0.028093945235013962, 3.104506492614746, 4.525014877319336, 0.48487716913223267, 2.6359291076660156, -0.08032863587141037, -2.5160911083221436, 3.808494806289673, -0.42002439498901367, -0.2420702576637268, -5.425363540649414, -0.0002712836139835417, -3.862579822540283, 4.504904270172119, 6.0013427734375, 0.3474871516227722, 3.438091993331909, -0.27121424674987793, 0.0535724051296711, -3.7615303993225098, -9.638157844543457, -1.9506436586380005, 2.6476027965545654, -3.8822126388549805, -6.434439182281494, -3.7807741165161133, 0.01567653939127922, 2.7045180797576904, 0.963034987449646, 2.308619737625122, -0.9697446227073669, -2.29970645904541, -2.8844947814941406, -5.992679595947266, -0.05897696316242218, -1.0229949951171875, -0.015398656018078327, 1.4179191589355469, -4.979504585266113, -4.878525257110596, 0.08708220720291138, 0.021831423044204712, -1.4292848110198975, -2.3978378772735596, -0.17875784635543823, 4.819258689880371, -2.1797587871551514, 0.349531888961792, -0.1473853439092636, -2.9528677463531494, 1.1869921684265137, -2.1816816329956055, -1.6086344718933105, -0.0479283332824707, 0.5668744444847107, -1.3034638166427612, -2.8738205432891846, 1.043680191040039, -3.038780689239502, 0.04565193131566048, -0.5247714519500732, 2.2565560340881348, -3.948458194732666, 2.5355589389801025, -3.17136812210083, 0.7594040632247925, -0.04829156771302223, 0.36298874020576477, 2.390624523162842, 1.1744999885559082, -1.1062949895858765, -0.09047823399305344, 2.426983118057251, 1.1323291063308716, 0.11360018700361252, 1.1917434930801392, 1.247687816619873, -1.8664295673370361, 3.452207565307617, -0.06804510951042175, 2.589970827102661, 1.4485923051834106, 0.045061562210321426, -1.0204616785049438, -0.003860233584418893, 1.3735005855560303, -1.9565752744674683, -2.093146800994873, 0.18407738208770752, 0.07433142513036728, 1.3271539211273193, 0.5777300000190735, 0.006583983078598976, -2.0277059078216553, -0.8537800908088684, 4.2842512130737305, 0.08391314744949341, 0.9396159648895264, 2.140120029449463, 2.0572240352630615, -0.12071342766284943, 0.13317695260047913, 2.000861644744873, -1.9727438688278198, 2.675445318222046, -0.49767959117889404, -1.878830075263977, 0.06775275617837906, 0.20007212460041046, 1.4743365049362183, 4.551495552062988, -0.854210376739502, 0.9940304160118103, 4.906447410583496, 0.037714794278144836, 0.6157669425010681, 4.386839389801025, 3.0369579792022705, -1.3813531398773193, -1.4278380870819092, -3.0720458030700684, 0.9447232484817505, 0.16172152757644653, -1.5183172225952148, -0.638033390045166, -0.036218684166669846, 2.014641523361206, 1.4458671808242798, 1.0162744522094727, 2.880992889404297, 0.02727532759308815, -2.8596508502960205, -0.014483408071100712, -1.6592973470687866, -6.625691890716553, -1.7755699157714844, 0.22380176186561584, -0.15926633775234222, 1.286482810974121, -0.6278731226921082, -0.17595314979553223, -0.4722946286201477, 0.08657537400722504, 1.9345455169677734, -0.02286277897655964, 1.0916029214859009, -0.9620410799980164, 0.09191712737083435, 2.615978956222534, -0.19815710186958313, 1.5846120119094849, 3.041090726852417, 1.439100742340088, -1.5208346843719482, 0.14235232770442963, 0.07734550535678864, 5.950122356414795, -0.1260128617286682, 2.2342045307159424, -0.5683332085609436, -2.592411756515503, -0.30540668964385986, -0.1095167025923729, 0.15558578073978424, -5.442982196807861, 0.9758696556091309, -4.716818809509277, 5.482919216156006, -2.070716619491577, -2.942775011062622, 0.09947668015956879, -0.5842612385749817, 2.291607618331909, -3.0449845790863037, 2.812549352645874, 0.15466096997261047, 1.480055809020996, 3.706573247909546, -0.037750981748104095, 2.510495185852051, 0.04439866170287132, 3.10111403465271, -1.963426947593689, 1.465963363647461, 0.023086408153176308, -0.0731521025300026, 1.9839833974838257, 5.477811813354492, -0.09142185747623444, -3.5313985347747803, -3.907053232192993, -4.980278968811035, -0.035338107496500015, 1.1622188091278076, 5.687849521636963, -1.1607434749603271, -3.292187213897705, -0.2030210644006729, 3.949521780014038, -0.48308849334716797, 0.1074536070227623, 2.709824562072754, 1.5693668127059937, -0.035401757806539536, -0.28472357988357544, -1.5678868293762207, -2.879392385482788, 0.6876709461212158, 1.560085654258728, 1.6790311336517334, 0.3417305052280426, 2.6173839569091797, -2.52751088142395, 6.2290802001953125, -0.6535274386405945, -3.948453903198242, -0.5541263818740845, -2.8639559745788574, -0.17131879925727844, 7.773674488067627, 0.32595202326774597, -2.6602859497070312, -0.021674184128642082, 4.886375904083252, 5.965218544006348, 9.66270637512207, -0.1496846079826355, 2.1684188842773438, -0.11849861592054367, 3.8940823078155518, 5.988107681274414, 0.4004876911640167, -0.13468888401985168, 0.10764510184526443, 4.388129711151123, 3.8212313652038574, 0.5898432731628418, 4.674245357513428, 2.6274752616882324, -2.130460262298584, 0.31417572498321533, -0.841681182384491, 2.2646260261535645, -0.26759299635887146, 5.843106746673584, 0.262604683637619, 2.3369357585906982, 6.972240924835205, -0.6841750144958496, -0.4527118504047394, -0.7807518839836121, -0.15353447198867798, -2.9184577465057373, 1.9765528440475464, 1.4126709699630737, 2.5707383155822754, 5.010195255279541, 3.21993350982666, -0.022198567166924477, 1.1563054323196411, -3.627922773361206, -1.0121452808380127, 4.055544376373291, -5.815192222595215, -9.67245101928711, 3.6802940368652344, 0.13024650514125824, -3.117314577102661, -8.858808517456055, 6.786839962005615, -11.106314659118652, 0.9719091057777405, 3.9397878646850586, 5.899941921234131, 0.05060610920190811, 0.953874409198761, 0.014211490750312805, 1.6360539197921753, 4.738976001739502, -7.776487350463867, 0.014514385722577572, -0.022601865231990814, 1.1345088481903076, 5.0008955001831055, -0.10528526455163956, 3.306641101837158, 0.5403022766113281, -7.351863384246826, -0.13223038613796234, 0.16847212612628937, -3.009131669998169, -0.8867659568786621, -6.000338554382324, 0.11535345017910004, 0.0641530230641365, 0.19073700904846191, -8.488829612731934, -1.5196467638015747, -1.275594711303711, 0.012854277156293392, 0.7793299555778503, -2.2900073528289795, -3.2905983924865723, -1.6190705299377441, -0.24647197127342224, 1.062241792678833, 0.04719122126698494, 0.16025248169898987, -6.957131385803223, -2.2603955268859863, 0.14393828809261322, -1.261762261390686, -7.223358154296875, 3.150601863861084, 0.15267376601696014, -0.28446927666664124, -1.5532968044281006, 2.294600009918213, -2.6709530353546143, 2.158644199371338, 3.809849500656128, 4.1242804527282715, -0.024192478507757187, 2.2571916580200195, -0.04302581772208214, 3.269376516342163, 1.2528547048568726, -6.2841901779174805, -0.15276607871055603, 0.14828871190547943, 1.6617317199707031, 3.3587961196899414, 0.24250830709934235, -0.6420153975486755, 1.2604069709777832, -0.38007158041000366, 0.15591299533843994, -1.1109619140625, 1.214661717414856, 4.765172481536865, -4.370914459228516, 0.3614218533039093, 0.11036357283592224, 3.98586106300354, -1.9397175312042236, -3.4572834968566895, -1.000708818435669, 0.0004908597911708057, -0.7277777791023254, -1.4470160007476807, -2.6623997688293457, -1.013685703277588, 2.5050699710845947, 1.6838167905807495, -0.14859627187252045, -1.765847086906433, 0.7391122579574585, 3.850036382675171, 0.05899106338620186, -8.941128730773926, 2.538022041320801, 4.732792377471924, 0.09194744378328323, -2.4556264877319336, 2.608917474746704, 3.022806406021118, 1.0039085149765015, -0.7101309299468994, 2.1104278564453125, -0.22408203780651093, 0.06006816402077675, 0.9428489208221436, 0.01007293164730072, 0.8767018914222717, 1.0296010971069336, -0.749596118927002, 0.03718090429902077, -0.0011766094248741865, -0.04189092665910721, -4.162787914276123, 0.04182308912277222, -2.6089134216308594, 3.606506824493408, 0.23991410434246063, 0.05120032653212547, -0.439785897731781, -9.680910110473633, 2.8885109424591064, -2.8368523120880127, -0.007856589742004871, 1.220353603363037, -1.065367341041565, 0.9700284004211426, -0.3916553556919098, -2.7396771907806396, 0.10509709268808365, 0.02998127043247223, -1.969111680984497, -3.3751168251037598, -0.17039421200752258, 0.483423113822937, -1.8015917539596558, -0.020027708262205124, -0.13145968317985535, -4.868860721588135, -0.30819398164749146, 4.966947078704834, -0.29585951566696167, 1.3574544191360474, -3.2567954063415527, -0.32014378905296326, -1.505285620689392, -0.06766799092292786, 6.3326191902160645, -1.2099496126174927, 0.37507984042167664, -3.2028415203094482, -0.6760252118110657, -0.04138128459453583, -4.177330017089844, 0.000607547233812511, 0.9682759046554565, -7.2989182472229, 3.852369785308838, 0.2286752313375473, -0.2832399308681488, 0.18802405893802643, -4.477610111236572, -0.2705308198928833, 1.6234118938446045, 0.1830078363418579, -3.93993878364563, -0.3071059286594391, -4.299197673797607, -2.9591660499572754, -0.630291223526001, 0.06592107564210892, -0.09361150115728378, 0.5409469604492188, -5.587300777435303, -1.7131496667861938, -2.018699884414673, 1.3721727132797241, -0.071226567029953, -5.478789329528809, -2.7082393169403076, -3.0532381534576416, -2.3876309394836426, -1.9466910362243652, 3.093824863433838, -0.07812249660491943, 3.579566717147827, 0.8639593124389648, 3.4443674087524414, 4.636983394622803, 3.0745351314544678, 3.6778101921081543, -0.8026285171508789, -0.18628467619419098, -3.8294320106506348, 2.3671159744262695, -3.1556835174560547, -1.9212132692337036, -2.142432451248169, 1.9883646965026855, 1.1761049032211304, -0.020306134596467018, -4.121333599090576, -0.09703021496534348, 0.33833563327789307, 5.131417751312256, 1.8066692352294922, 0.032565709203481674, 0.039016757160425186, -4.44699764251709, 0.0948447734117508, 0.07086830586194992, 2.8327956199645996, 3.7345693111419678, -1.8974854946136475, 0.05088911950588226, 0.14603058993816376, 0.021336782723665237, 2.31941819190979, -2.6527585983276367, 0.08593589812517166, 2.539726734161377, 0.7895827889442444, -1.8166437149047852, 1.551327109336853, 3.9106216430664062, -0.10367189347743988, 2.591252326965332, 2.0368330478668213, -5.085062503814697, 5.278052806854248, -0.3068697452545166, -4.888176918029785, -0.4212484359741211, -2.6153764724731445, -4.736428737640381, 6.304532051086426, 0.5848880410194397, 0.5899490714073181, -0.9689048528671265, -6.437244415283203, -0.0930171012878418, 2.370007038116455, 1.8163551092147827, -7.907812595367432, 0.9513473510742188, -4.274738788604736, 0.5476990938186646, 1.9198806285858154, 0.19176870584487915, -3.8248980045318604, 0.13500112295150757, -5.912820339202881, -4.9279608726501465, 0.7333306074142456, -0.10302384197711945, -0.21579831838607788, -0.028362194076180458, -2.105639934539795, -0.8992226123809814, -0.9136312007904053, 0.3173168897628784, 0.32903894782066345, -0.7990412712097168, -3.970036268234253, -1.101089596748352, -5.462295055389404, -0.5243242979049683, -0.4407181739807129, -2.093921184539795, -1.8889621496200562, 0.9383747577667236, 3.114384174346924, 0.8347734808921814, -0.007200891152024269, -5.629345417022705, 1.9921958446502686, -8.078392028808594, 0.2357093095779419, -5.612156391143799, 1.8137010335922241, 0.1552274078130722, -0.05070657655596733, 0.7136150002479553, -0.025920050218701363, -0.8172695636749268, 3.0032339096069336, -1.448183536529541, -7.975319862365723, 0.06195014342665672, -3.2360453605651855, -1.520599126815796, -4.5088276863098145, 2.922017812728882, 0.5768126249313354, -6.016442775726318, -8.727856636047363, -0.05804772675037384, 2.3903274536132812, -0.0044355387799441814, 3.531599760055542, -2.159353733062744, -1.8868581056594849, -0.017976192757487297, 0.08836252242326736, -2.5868053436279297, -0.937127411365509, 0.06904717534780502, -1.582983136177063, -1.2769579887390137, 2.487020492553711, 0.12321893870830536, 0.3592407703399658, 1.4363168478012085, 4.873290538787842, 2.34495210647583, -0.004887038841843605, 5.685837268829346, -0.5538934469223022, -2.7406320571899414, 1.1544407606124878, -3.14829158782959, 0.02273670770227909, -0.06542494893074036, -0.9889736175537109, 1.6873372793197632, -3.4318108558654785, 0.8404943346977234, -0.6266282796859741, -0.12847688794136047, -1.212296485900879, -0.08013501763343811, 1.6898927688598633, -1.8069649934768677, -1.0096466541290283, -4.071772575378418, 1.1899594068527222, 0.0050132134929299355, -3.8380439281463623, -3.14080548286438, 0.9359398484230042, -1.661545991897583, 1.3575245141983032, -0.6405215859413147, -4.4294610023498535, 0.09618031978607178, -0.6935797929763794, 0.1361950784921646, -0.6131385564804077, -6.589174270629883, -0.8044908046722412, 0.1507541686296463, -0.02188883349299431, -0.4458104074001312, -1.2201727628707886, -0.26657530665397644, 0.5378478169441223, -2.2726454734802246, -2.0231008529663086, -0.2339983582496643, -6.748072147369385, 1.8300856351852417, -3.897392988204956, 2.1312544345855713, -0.04431155323982239, -1.9133925437927246, 3.8800013065338135, 5.021379470825195, 1.8774418830871582, -4.800137996673584, 0.1404852718114853, -2.699068069458008, 2.015016555786133, 1.7205228805541992, 0.9201714992523193, 1.3484323024749756, -1.8188732862472534, 0.042355190962553024, 3.933382511138916, 1.5211398601531982, -5.202718734741211, 1.1359862089157104, -3.836503267288208, 3.3380753993988037, 3.9052178859710693, 0.019788213074207306, 2.1899285316467285, 0.23047690093517303, 1.357679009437561, 0.5485003590583801, 3.2733211517333984, -0.23386208713054657, 3.2386012077331543, -0.08091725409030914, 2.03540301322937, -0.05105181038379669, 3.7773914337158203, 4.493800640106201, 0.7490077614784241, -0.026102591305971146, 0.09952539950609207, 2.6340694427490234, 2.5124571323394775, 0.26790106296539307, 2.1850662231445312, -2.3493988513946533, 4.36632776260376, 0.1120123639702797, 2.984687328338623, 2.6084768772125244, 3.1757683753967285, -1.9978902339935303, 0.14692473411560059, -3.3521194458007812, -1.5715243816375732, -2.838843584060669, -0.3450390696525574, -3.195039987564087, -0.10174248367547989, 0.30205151438713074, 3.0227582454681396, 1.5661098957061768, 2.865088939666748, 3.960298538208008, -11.668081283569336, -0.1856270730495453, -0.3697027266025543, 0.8343691229820251, 2.426656484603882, -0.6702706217765808, -0.675098180770874, -1.589028000831604, 2.7676427364349365, 0.0322478748857975, -1.0761148929595947, 2.430529832839966, 0.5465711951255798, 1.3430184125900269, -2.509253740310669, 0.649993896484375, 2.1616098880767822, 0.13689130544662476, 3.097468376159668, 0.16986235976219177, -2.6343541145324707, 1.2329208850860596, -2.698753833770752, 0.1978214830160141, 0.00043050837120972574, -0.8282052874565125, -1.5560593605041504, -0.29098764061927795, -0.3144263029098511, 2.28389048576355, 1.5247825384140015, -0.10344937443733215, 1.510485291481018, 0.9661603569984436, -1.7127476930618286, 2.2596983909606934, -0.21323376893997192, -2.660348653793335, 3.1970787048339844, -0.5850533246994019, 3.0243663787841797, 0.7919961214065552, 0.05187279358506203, -2.4797182083129883, 0.23588873445987701, -4.780600547790527, 3.3296735286712646, 3.525876045227051, -0.8843210935592651, -0.09158541262149811, 1.3673993349075317, 1.5458413362503052, -6.0966477394104, -3.5134761333465576, -1.4035048484802246, 3.1171464920043945, -4.533090114593506, 0.04788881167769432, -0.07704712450504303, 3.0568735599517822, -5.179250717163086, 3.108208179473877, 0.279109388589859, 3.8999996185302734, 4.652707099914551, 0.09966900199651718, 0.9437170624732971, 0.02555950917303562, 3.766251802444458, -4.158563137054443, 1.7954394817352295, -0.024654174223542213, -0.1046806201338768, 6.1791558265686035, 3.2265071868896484, -0.10826192796230316, -3.6520586013793945, -3.319990396499634, 2.6042137145996094, -0.11896058917045593, -1.27165687084198, -8.316781997680664, 0.49219760298728943, 0.15823352336883545, -0.1418209969997406, -5.68612813949585, 0.25576600432395935, 2.212764263153076, -1.6594483852386475, -2.9305031299591064, 0.14117304980754852, 2.9172558784484863, 1.3725042343139648, -5.1131744384765625, 0.635774552822113, -1.624543309211731, 0.9754560589790344, 0.1329892873764038, -1.8765876293182373, 0.5700340270996094, -3.0353357791900635, -0.37180501222610474, 0.010524852201342583, -0.6756118535995483, -0.41133633255958557, -0.277990460395813, -1.5829217433929443, -2.4592108726501465, -0.7797892689704895, 0.9056149125099182, -6.044411659240723, -0.29081910848617554, -0.9952482581138611, -0.21703432500362396, 1.640791416168213, 0.01924886740744114, -6.820629119873047, 1.7422466278076172, 0.6536389589309692, -0.3236325979232788, 0.05057474225759506, 2.660149097442627, -4.52678108215332, -0.15165477991104126, -5.108271598815918, -9.177640914916992, -0.6012169122695923, 0.12938907742500305, 2.5251917839050293, -1.2200617790222168, -0.9634504914283752, -2.399109363555908, 0.27263566851615906, -3.9025301933288574, -1.6996667385101318, -3.1999876499176025, -2.340576171875, -4.568415641784668, -0.23099583387374878, -1.2013839483261108, 1.116409182548523, 3.2708024978637695, -4.049473285675049, -3.417459726333618, -0.9190714359283447, -0.07480758428573608, 4.770224094390869, -5.901797771453857, 0.43147605657577515, 1.5687724351882935, 0.06239357963204384, -0.05861446261405945, 1.8882404565811157, 0.12549877166748047, -1.3731350898742676, 4.364986419677734, 1.7590025663375854, 1.1300950050354004, 0.7049812078475952, 0.9584538340568542, -1.070548176765442, 0.08804412186145782, 5.843606948852539, 0.015388578176498413, -0.8841859102249146, 1.0885250568389893, 3.5542471408843994, -0.0028817125130444765, -0.008937910199165344, 3.7412800788879395, 2.0347182750701904, 0.033314645290374756, 2.325075626373291, -1.4356400966644287, 2.771562337875366, -0.0042253718711435795, -1.0839762687683105, 3.8537209033966064, -0.8786762952804565, 1.529935359954834, -0.018203038722276688, -0.6438120007514954, 0.9389423727989197, -0.36838239431381226, 1.1429167985916138, -3.950254440307617, 0.05176340416073799, -11.071990013122559, 0.9770814776420593, -0.22859589755535126, 0.5220957398414612, 2.329690933227539, -0.45938798785209656, -0.007089272607117891, -5.27935791015625, 3.440106153488159, 6.852997779846191, 3.314009189605713, 0.382481187582016, 0.3720099627971649, -2.0233333110809326, -0.20238231122493744, 0.40309298038482666, 0.1434449702501297, -5.549065589904785, -1.496794581413269, -0.768982470035553, 4.566510200500488, -2.161620855331421, -0.05359150096774101, 1.255484700202942, -0.0682738870382309, -3.3184974193573, 1.0297209024429321, 1.2803374528884888, -0.05994080752134323, -0.07246284186840057, -0.5321757197380066, -1.9149893522262573, 0.12924998998641968, 1.8497936725616455, -8.588167190551758, -3.2466988563537598, -0.02003350667655468, -1.6223043203353882, 0.8382741212844849, -1.820504903793335, -5.214773654937744, 0.020390108227729797, 1.2002413272857666, 3.0764572620391846, 0.2595207095146179, -2.8037667274475098, -1.7757219076156616, -0.000818019500002265, -1.018812894821167, -1.8877593278884888, -1.3268300294876099, -0.4606645405292511, -2.2460477352142334, 3.489123582839966, -0.23551902174949646, 0.7852570414543152, 0.6726101040840149, 2.081991672515869, 4.503339767456055, 3.099423885345459, 2.379171133041382, 4.533228397369385, 0.023423824459314346, -0.47238215804100037, 5.518701076507568, 0.04316535219550133, -0.3197692930698395, -3.33280348777771, -4.222848415374756, -4.300146579742432, -0.06197309121489525, 0.597962498664856, 0.013844802044332027, 5.357210159301758, -1.0465295314788818, 5.401844501495361, -0.09820004552602768, -0.2705947756767273, -0.6091271638870239, -2.934464693069458, -0.4624900221824646, -2.025627851486206, 0.2637050747871399, 0.4130203425884247, -0.6306504607200623, -2.082304000854492, 0.743779182434082, -2.8303444385528564, 4.215340614318848, -0.4135029911994934, 0.38761234283447266, 0.7732115983963013, 5.589827060699463, 5.759151935577393, -0.3660866618156433, 0.03936970606446266, 0.5709255933761597, 4.265531539916992, -1.9020030498504639, 3.4317924976348877, -0.14800091087818146, 2.5204269886016846, -0.1373937875032425, -13.119674682617188, -0.7405000329017639, 1.0426373481750488, 1.547245979309082, -1.1486772298812866, 2.382497787475586, -2.813105821609497, -0.04339484125375748, -1.702232837677002, 2.693084716796875, 2.1550893783569336, -2.68550181388855, 2.1719253063201904, -4.015599727630615, -9.14925479888916, 0.03885683789849281, -2.1297976970672607, 0.01782602071762085, 2.1429522037506104, 4.159118175506592, 1.8534491062164307, -0.0016379798762500286, -0.1751491129398346, 2.0634570121765137, 2.5753097534179688, -0.6527408957481384, -5.132364749908447, -4.599549770355225, 2.1589667797088623, -0.6588975191116333, -2.0753366947174072, 3.3181371688842773, -0.30120301246643066, 3.8906917572021484, -0.13576863706111908, -1.7662789821624756, 1.9715518951416016, -1.142661213874817, -1.4951868057250977, -1.2338519096374512, -0.05698205530643463, 2.1664295196533203, -5.878012657165527, 0.8112998604774475, -2.8609578609466553, 0.10797236114740372, 0.4398115277290344, -0.1276671141386032, 3.272737741470337, -3.4288461208343506, -0.7461555600166321, 1.0035356283187866, 1.6294499635696411, 0.3194328546524048, -3.6254496574401855, -0.12485664337873459, 2.2495205402374268, 4.917608261108398, -1.1375542879104614, 4.229790687561035, 0.480874627828598, 5.827401161193848, -1.0533387660980225, -0.0351492278277874, 1.2217391729354858, 0.04248509928584099, 0.6690307855606079, -2.91204571723938, -1.585402011871338, 0.12715156376361847, -0.06991895288228989, 2.6971356868743896, -7.306049346923828, -0.22161677479743958, 4.314328193664551, 0.34303155541419983, 3.697446346282959, -0.18857638537883759, 0.3193403482437134, 7.326066970825195, 1.1640877723693848, 0.4176519215106964, -0.17033182084560394, -0.7678954601287842, -7.529722213745117, 0.6042211651802063, 0.9296951293945312, 3.2953076362609863, -0.1382167637348175, 1.6286712884902954, 3.415754795074463, 1.2573596239089966, -1.7373390197753906, 3.937382936477661, -2.085461378097534, -0.0347762405872345, 1.579624056816101, -3.217362642288208, -6.586690902709961, -1.5513105392456055, -1.7301592826843262, -3.149066925048828, 0.265816330909729, 0.021982308477163315, -1.478304386138916, -3.0376274585723877, -1.3354817628860474, -1.3826810121536255, -1.0766663551330566, 4.973628997802734, 1.087093710899353, -0.0046052816323935986, 1.8304672241210938, -0.009042770601809025, 1.3622239828109741, -0.5780029296875, -1.7333582639694214, -0.0978594645857811, 0.15755346417427063, 1.686434030532837, 3.9779632091522217, 0.18093684315681458, -0.9498547911643982, 1.1222329139709473, -0.885402500629425, 0.07103928923606873, 5.014801502227783, 0.2651079297065735, 1.3575483560562134, -0.7374594211578369, 0.06363598257303238, -4.675511837005615, 3.0328125953674316, -4.515084266662598, -1.3057093620300293, 0.6898881793022156, 0.05889191851019859, 4.084346771240234, -1.281612515449524, -2.7181289196014404, -0.28094497323036194, 0.029317021369934082, 2.18713116645813, 0.2729971706867218, -1.3386093378067017, 1.6827049255371094, -5.37664794921875, 1.6601028442382812, -0.4791545569896698, -7.341758728027344, -3.105985403060913, -0.49517643451690674, 2.377772092819214, 0.04404080659151077, 2.5838935375213623, -3.0377354621887207, -1.2894352674484253, -0.27564653754234314, 2.2013938426971436, -0.11798813194036484, 2.466076612472534, -0.12480161339044571, 0.20424988865852356, -2.1325414180755615, 1.5861897468566895, -0.3377467393875122, 0.07607875019311905, 4.7459564208984375, -2.105802297592163, 0.030266713351011276, -1.7731517553329468, 2.626734495162964, -0.34073081612586975, 0.20345120131969452, -3.5550575256347656, -9.60643482208252, -4.6296706199646, 3.969975233078003, 0.07950533926486969, -0.24688753485679626, -6.058343887329102, -1.8351528644561768, -0.1584922969341278, 2.266850709915161, -0.10260237753391266, -5.617547988891602, -0.6128420829772949, 1.8897731304168701, -1.829106092453003, -8.824222564697266, 3.611790180206299, 0.1309458613395691, 3.5278635025024414, 4.4787421226501465, -2.2518327236175537, -1.2660870552062988, -0.4512116611003876, -6.203185081481934, 0.23199205100536346, 0.1912662386894226, -1.7608733177185059, -2.8869850635528564, -11.502701759338379, -0.8831698894500732, 3.704785108566284, 2.2276723384857178, 2.321514844894409, -0.07372608780860901, -3.0611398220062256, -0.07202838361263275, 0.2902858853340149, -3.172093391418457, 3.0036354064941406, 0.18734034895896912, -0.0637488141655922, -0.518584132194519, 2.7436530590057373, 0.3206520974636078, -3.7612686157226562, -1.858648419380188, -5.600931644439697, 0.40234851837158203, 2.233132839202881, -2.885197877883911, 0.4157107472419739, -2.7706358432769775, 0.12178225070238113, -4.2065205574035645, 4.554572582244873, 1.6142264604568481, 2.905975103378296, 2.1674365997314453, -0.05663050338625908, 5.262210369110107, 4.254859447479248, -0.0013809084193781018, 2.642683744430542, 6.111178398132324, 6.104946613311768, -0.3236798644065857, -3.7105860710144043, 2.023630142211914, 0.650505006313324, 1.0229084491729736, -3.6032063961029053, 3.917358160018921, 0.7393299341201782, 0.38003310561180115, -5.085361480712891, -0.04874109476804733, 0.9830166101455688, 4.482486248016357, -5.829887866973877, -1.6449382305145264, -5.280597686767578, 0.2045009732246399, -2.9216787815093994, -0.054636482149362564, 3.06386137008667, -10.329514503479004, 2.7494089603424072, 0.08281849324703217, 0.10896383225917816, -2.1291255950927734, 0.39132508635520935, -0.4073280096054077, 3.3557419776916504, 5.074375152587891, 1.7868231534957886, -0.4546067714691162, 1.5779422521591187, -1.377642273902893, 0.26578420400619507, 2.4851889610290527, -0.38247519731521606, 2.4165103435516357, 4.617551803588867, 1.8605496883392334, 1.7535890340805054, 2.1084563732147217, 0.38066619634628296, 2.937946081161499, -0.24089330434799194, -0.6177690029144287, 0.5262852907180786, -2.229879856109619, -1.0090243816375732, -0.03369123861193657, -1.6194775104522705, -2.939847946166992, 5.303919792175293, 3.3366262912750244, 1.1821303367614746, 2.2126572132110596, 0.713969886302948, -0.001772268326021731, 3.018073558807373, -0.03894713148474693, 1.5657891035079956, -3.4640071392059326, 0.1453157365322113, -1.083132028579712, 0.6397473216056824, -0.07152474671602249, 0.03354842588305473, 0.04850629344582558, 0.9994615316390991, -3.102735996246338, -2.0695888996124268, -0.1278287172317505, -0.017423128709197044, 5.002030849456787, -5.694902420043945, -0.061902862042188644, -2.7278058528900146, 0.8679456114768982, 1.2555248737335205, -0.04822630062699318, 1.7498849630355835, 4.008297920227051, -2.744525671005249, 2.200101137161255, -0.14140237867832184, 5.684519290924072, 5.853479385375977, -0.59233558177948, -3.481102228164673, 0.3042566478252411, -0.0820259228348732, 3.0631237030029297, -3.259974718093872, -1.8333888053894043, -1.1076829433441162, -3.847498893737793, -1.574853539466858, 0.2849605977535248, 1.3260066509246826, -1.6199212074279785, -0.0429452508687973, -4.606577396392822, 2.0640764236450195, 2.0323312282562256, 2.7385871410369873, -0.14299914240837097, 2.035512924194336, -2.7310032844543457, -1.7424299716949463, -0.1351175606250763, 4.920255184173584, 1.255383849143982, 0.7021130323410034, -0.18488836288452148, 3.8084893226623535, -0.21832524240016937, 2.460625410079956, 0.848105788230896, 3.148623466491699, -0.1888749748468399, 0.19162987172603607, -2.5596835613250732, 0.806617796421051, 0.6102063655853271, -1.0800758600234985, -2.4464755058288574, 1.9093945026397705, 0.5658931136131287, -0.6331438422203064, -1.9027214050292969, 1.217396855354309, -1.8340649604797363, 0.7878456115722656, -4.159628391265869, -0.303538978099823, 1.6700271368026733, -2.1076302528381348, -6.760119438171387, -0.16568349301815033, -4.075429916381836, 1.8466485738754272, 2.344745635986328, -0.4775017499923706, 0.4573623239994049, -1.7622982263565063, -0.039587169885635376, -2.7782726287841797, -0.9184461236000061, 0.9326144456863403, -1.0968457460403442, -2.2144265174865723, -4.881392478942871, -1.3363555669784546, -0.027932893484830856, 0.7146527171134949, 0.7750961780548096, 1.2843239307403564, 4.974412441253662, -1.6713932752609253, 3.0923824310302734, -1.4263917207717896, 0.04936496913433075, 1.5779937505722046, 0.16981297731399536, -2.868333578109741, -7.988487720489502, -0.1436035931110382, 0.11785881221294403, 0.04222454875707626, -2.5171399116516113, -0.06211985647678375, -0.12911275029182434, -1.864991307258606, -0.7099514603614807, 5.740021705627441, -0.1564674824476242, 3.982304573059082, 2.532778263092041, 1.6488102674484253, 5.667305946350098, -0.05210333317518234, 4.478826999664307, 7.224128246307373, 2.352280378341675, -0.608673095703125, -7.366272926330566, -0.0255355816334486, 3.641939878463745, 2.9966461658477783, 3.5859901905059814, -1.2258687019348145, -4.621278285980225, -0.632088303565979, -0.08198565989732742, -1.8456171751022339, -0.7308169007301331, -0.5182929635047913, 1.765885829925537, -3.612391710281372, -6.324573516845703, -0.5288795828819275, 0.04121192917227745, -4.065898418426514, 4.284286022186279, 6.825935363769531, -2.8987202644348145, 1.3651171922683716, -2.296359062194824, -0.07334533333778381, 0.06833786517381668, -1.1220952272415161, -0.09488040208816528, -5.740963935852051, -5.660776138305664, 0.7518321871757507, -0.045362647622823715, -0.03316021338105202, 3.136823892593384, -0.6189701557159424, 0.11915801465511322, 1.2262307405471802, -0.5213832259178162, -3.6931824684143066, -0.04995957762002945, 1.4848898649215698, -0.0990951657295227, -0.906112790107727, 0.7441682815551758, -0.016977615654468536, -2.3450722694396973, -1.1321314573287964, -7.5843424797058105, -4.200463771820068, 1.5069183111190796, -0.009734617546200752, -1.9467363357543945, -0.3998781144618988, -6.231813430786133, -4.176900863647461, -3.08160138130188, 0.7887240052223206, 0.2414361536502838, 0.3070402443408966, 3.7993311882019043, -1.302303671836853, 0.515903651714325, -2.7136850357055664, -8.02059555053711, 2.3940515518188477, -0.4659305214881897, -2.052122116088867, -2.3615520000457764, 2.5782313346862793, -3.1809022426605225, 2.577523946762085, 2.4996907711029053, -5.155914306640625, -0.38593578338623047, -0.8639667630195618, -0.23465695977210999, 0.053834982216358185, -2.9635634422302246, -5.057260990142822, -0.045370183885097504, 0.039779480546712875, 1.5587748289108276, 0.6258293390274048, -0.0791274905204773, 2.2226781845092773, -0.6035675406455994, 1.892566204071045, -0.04022001475095749, 3.8291053771972656, -0.5321515798568726, 0.30878499150276184, 1.6483700275421143, -0.19976307451725006, -1.7753187417984009, 0.05672586336731911, -3.099686622619629, -1.4928654432296753, 3.7175121307373047, -0.3132364749908447, -0.28650715947151184, -4.90535831451416, 2.1180500984191895, -1.3100368976593018, -0.42562437057495117, 6.963090419769287, 0.2785126268863678, -2.80256724357605, 0.2119201123714447, -3.161522388458252, 0.6728847622871399, -0.6614684462547302, -2.602919101715088, 0.9525521397590637, 0.15340450406074524, -7.066783428192139, -1.1284716129302979, 2.539008140563965, -1.0151749849319458, 2.9719011783599854, 2.5107226371765137, 1.0466934442520142, -0.0757468193769455, 2.495360851287842, -0.30799368023872375, -1.4292443990707397, 2.2463290691375732, -4.634665012359619, 0.13862819969654083, 0.24278433620929718, 2.7115955352783203, 0.7226410508155823, 0.31674137711524963, -2.2859201431274414, 2.1955554485321045, 0.4516974687576294, 0.45105910301208496, -0.5478261113166809, -1.5674999952316284, -1.74393630027771, 1.7958323955535889, 0.11076178401708603, -1.7965781688690186, 2.6196370124816895, 3.431209087371826, -0.9675827026367188, -7.782235145568848, -0.08272497355937958, 2.169971466064453, 2.9417293071746826, 5.747093677520752, 0.7621805667877197, 3.087254524230957, -3.077585458755493, 0.10668310523033142, -3.4429521560668945, -16.941383361816406, -3.539130449295044, 0.9553971290588379, -7.212639331817627, -2.910187244415283, -3.0672597885131836, -0.5315828323364258, -4.5422587394714355, -4.688512802124023, -3.018833637237549, -1.4787787199020386, 1.2814443111419678, 1.4395480155944824, -1.6988762617111206, -0.30733776092529297, -5.83880090713501, -0.07327783852815628, -2.644881010055542, -0.660574734210968, -12.053170204162598, -0.16413989663124084, 0.12769299745559692, -1.0954115390777588, -1.3173860311508179, -0.33347615599632263, -1.095953345298767, -4.6909613609313965, 0.45955854654312134, 0.07985066622495651, -1.0278128385543823, -3.7696263790130615, 1.168246865272522, -5.6542816162109375, -0.20515435934066772, -0.095992811024189, -1.2379390001296997, -10.83310604095459, -0.9193831086158752, -2.80845046043396, -0.6601112484931946, -0.6865300536155701, -6.865025520324707, -13.125093460083008, -16.746936798095703, -3.806410312652588, 0.1351623833179474, -0.07690505683422089, -0.852695882320404, 1.2936166524887085, -2.417325973510742, -4.817633628845215, 3.565534830093384, -4.2098822593688965, -1.2473810911178589, 0.1012023538351059, -5.344023704528809, -2.5843582153320312, -1.1404142379760742, 1.19551420211792, 3.7748982906341553, 4.823408126831055, 1.761875867843628, 0.13571582734584808, 0.5715380907058716, 0.09205429255962372, -5.148107051849365, 5.972928047180176, -2.0890443325042725, -0.02197047509253025, 0.07902621477842331, 3.2561964988708496, 3.0002083778381348, -0.06109142675995827, -4.409750461578369, 3.9219648838043213, -12.625521659851074, 0.06106305122375488, 0.23553869128227234, -6.84437894821167, -2.0704407691955566, -3.3846609592437744, -0.06506191939115524, -2.8358242511749268, 6.294227123260498, 2.2995753288269043, 1.9525660276412964, 1.0585882663726807, -0.0225119199603796, 1.305676817893982, 3.559952974319458, 2.698031425476074, 5.252843856811523, -4.314582824707031, -3.244936466217041, 0.05548224598169327, -1.6597691774368286, -4.2423176765441895, -0.08501733839511871, -0.17663633823394775, -0.7625795006752014, -0.8819862008094788, -0.6373338103294373, -0.14791810512542725, -1.076088547706604, -1.2427475452423096, 1.9551341533660889, -2.059614419937134, 1.2348613739013672, 3.9929182529449463, 2.594231367111206, -0.3453032374382019, 0.5090500712394714, -0.3383888602256775, -0.9590962529182434, 1.5884243249893188, -10.774118423461914, -0.15499825775623322, 0.3173272907733917, -1.41995108127594, 0.5027868747711182, 0.2982504367828369, 0.8704438805580139, 0.7319567203521729, 0.3327876329421997, 0.16697360575199127, -2.029965877532959, -0.344738632440567, 1.4059009552001953, -5.919809818267822, 0.18692272901535034, 3.253095865249634, 2.812624931335449, -1.2291700839996338, 1.3511381149291992, 2.5001068115234375, -0.204343780875206, 1.5937855243682861, -2.968528985977173, -0.8335058093070984, -0.7492798566818237, 0.9620561599731445, -0.5794994235038757, -0.10856109857559204, 3.1439030170440674, 0.8804662823677063, 0.9418134689331055, 0.9612088799476624, 4.259368896484375, 1.5414259433746338, -3.216672897338867, 0.16914227604866028, -0.18645282089710236, -1.907025694847107, -4.670655250549316, 2.9189414978027344, 6.775650501251221, -0.8569491505622864, -0.8595876693725586, -0.06811480969190598, 7.32958459854126, -0.07175405323505402, 3.0903093814849854, 2.1447818279266357, -2.7213947772979736, -0.10313510149717331, -0.02968478947877884, 5.451114177703857, 3.526191234588623, 0.021547580137848854, -1.1218336820602417, -1.3695714473724365, -3.1839511394500732, 0.038462601602077484, -6.05803918838501, -4.477617263793945, -1.2198996543884277, 1.9086406230926514, -0.051961131393909454, 2.7188780307769775, -0.015464681200683117, 0.8288908004760742, 3.005242109298706, -2.107191562652588, 0.060365770012140274, 1.2341394424438477, 1.158305048942566, -4.1369452476501465, 3.1388020515441895, 0.745370626449585, 1.0409916639328003, 0.20346404612064362, 2.653982639312744, 3.1584722995758057, -4.441545486450195, -1.683402180671692, -5.648749828338623, 1.248223066329956, 4.161047458648682, 0.021592875942587852, -1.2300440073013306, -3.0554311275482178, -0.4948561191558838, 2.735567569732666, 0.7338672876358032, -2.405468463897705, 2.966761827468872, 0.006612536031752825, -3.4992740154266357, -0.03699389845132828, -3.873253583908081, 2.4106638431549072, 1.1287455558776855, 0.26781028509140015, 0.08012031018733978, -0.5313632488250732, 1.1679290533065796, 0.22837476432323456, -1.6408878564834595, 0.6401007175445557, 1.1994013786315918, 0.34281325340270996, 0.1844622939825058, 0.3855555057525635, 2.9982001781463623, 2.9764034748077393, 0.10616571456193924, -1.446393370628357, 1.1169257164001465, -3.157998561859131, 1.315654993057251, -2.5231451988220215, 0.013768047094345093, -1.0061677694320679, -1.0498647689819336, 2.393731117248535, 1.1144174337387085, -4.474514484405518, -1.3696391582489014, -0.06564345955848694, 2.1998302936553955, 1.9831750392913818, -2.537343740463257, 3.9512410163879395, 3.8211166858673096, -1.5320481061935425, 5.926705360412598, 0.18067482113838196, 0.562911868095398, -1.6376246213912964, 4.0751261711120605, 3.329195261001587, 12.593231201171875, -1.6026970148086548, 4.856875419616699, 0.087371826171875, -0.4671861231327057, -0.011624922975897789, 0.0645158663392067, -1.0765389204025269, 1.1041380167007446, 0.05165131390094757, -0.18368081748485565, -3.0759806632995605, 3.592942714691162, -0.0555666908621788, -2.615781307220459, 0.6480397582054138, -4.660909652709961, -0.07750829309225082, -5.015176773071289, 4.405340671539307, 0.18940989673137665, 2.551980972290039, -0.056336428970098495, 4.469818115234375, 3.787076234817505, 2.225919008255005, 4.4054460525512695, -1.0852463245391846, 0.002215474145486951, -3.3059582710266113, 3.56974720954895, 0.1985742598772049, -0.6568000912666321, 1.90740966796875, 0.08367530256509781, -0.020932048559188843, -9.486043930053711, -0.6030938029289246, 2.790205240249634, -0.22975896298885345, 2.4612460136413574, 3.2711613178253174, -0.9045157432556152, -0.04573427513241768, -9.255645751953125, 7.65460205078125, -0.6724141240119934, -5.101094722747803, -0.20618820190429688, 7.395529270172119, 0.6114962697029114, -0.13563570380210876, 1.257033348083496, -0.024376070126891136, -0.3050772249698639, 1.7115362882614136, 3.045996904373169, -0.17365747690200806, 0.05172816663980484, -7.914053916931152, 0.013585482724010944, -0.17059719562530518, 1.5601884126663208, -2.004103899002075, 2.2737207412719727, -0.024011710658669472, 1.0416563749313354, 3.9550909996032715, -4.028348445892334, 2.339604377746582, -0.013356835581362247, 2.6851871013641357, -1.3761683702468872, -0.07697610557079315, 0.14046259224414825, -1.8655320405960083, -0.07008672505617142, -4.406627178192139, 0.610611617565155, 2.185927152633667, -1.9143908023834229, -2.072969675064087, -2.6599388122558594, 0.564579963684082, -1.6412750482559204, -1.8561159372329712, -0.272543340921402, -0.49050667881965637, -0.325597882270813, 2.5012598037719727, 0.43295928835868835, -0.20728716254234314, 0.5306782126426697, -3.8268251419067383, -2.5156219005584717, -2.902679681777954, -0.7822132706642151, 2.166890859603882, 1.9367910623550415, -0.2700693905353546, 0.15191806852817535, -0.2260991781949997, 0.4957793951034546, 0.13795123994350433, -5.322851657867432, -0.16657881438732147, 0.15984472632408142, -2.159156084060669, 0.8631325960159302, 0.6391221880912781, 0.2937430441379547, -6.3859710693359375, -2.6186697483062744, 0.435414582490921, 2.5781090259552, -0.9634621739387512, 6.702130317687988, -2.2965831756591797, 0.06853941082954407, 0.9298540949821472, 2.885711908340454, -3.2388811111450195, 2.9140803813934326, 1.7775490283966064, -0.21452444791793823, 1.1781941652297974, -2.625880002975464, -2.0716617107391357, -0.3187048137187958, 1.0439447164535522, 0.8811503648757935, 0.053575318306684494, 0.898496150970459, 2.837675094604492, -2.249138116836548, -1.840440273284912, -1.1342910528182983, -2.0360453128814697, 3.4559545516967773, -0.04633304849267006, 0.07216480374336243, 2.739978790283203, -2.424050807952881, -0.6507611274719238, -4.1000800132751465, 1.7254124879837036, 3.4391183853149414, 0.011941156350076199, 1.869301676750183, -0.10588989406824112, 2.8818819522857666, -4.787811756134033, 0.2803800702095032, 0.046222589910030365, 0.14071646332740784, -2.3304567337036133, 5.421003818511963, 0.10794378817081451, 1.6525248289108276, 2.5247533321380615, 1.1062977313995361, 0.17455719411373138, -0.2101898491382599, 2.2206828594207764, 1.6220062971115112, 2.1877243518829346, 0.08895152062177658, 2.2588632106781006, -6.469130992889404, -0.3391156792640686, -0.4713852107524872, -9.631369590759277, 0.0761825367808342, -1.6446926593780518, 1.6098994016647339, 1.1910960674285889, -1.605043649673462, -0.4804048240184784, -0.6098291873931885, -0.20176728069782257, 1.819359540939331, -6.218647480010986, -1.3310716152191162, -2.493157386779785, 5.001690864562988, 0.34432363510131836, 5.509208679199219, -0.12564337253570557, -0.9671116471290588, -2.763953447341919, 3.3976380825042725, 3.8139638900756836, -0.8427321314811707, 1.8810702562332153, 1.5489879846572876, -0.05911729857325554, 0.5961909294128418, -0.032468196004629135, -3.217454671859741, -4.614513397216797, 2.7369766235351562, -0.03144984692335129, -0.05285719409584999, 0.08229529112577438, 0.2259325385093689, -0.14359743893146515, -1.491001009941101, 1.624311089515686, 0.005571904592216015, -0.07486582547426224, 1.987972617149353, -3.189673662185669, 0.6041777729988098, -1.000714659690857, 0.0003094753192272037, 1.2006003856658936, -2.4281444549560547, 4.226751804351807, -1.7416120767593384, 0.9575124382972717, -0.0902721956372261, -1.1670153141021729, -2.162564516067505, 2.8476369380950928, -2.5499939918518066, -1.9739289283752441, -3.981336832046509, -0.07413958758115768, 0.9391681551933289, 2.372096538543701, 1.3089791536331177, 1.1818565130233765, -1.515415906906128, -0.9203318357467651, 0.5406377911567688, 0.03757750988006592, -2.190333366394043, -1.6119272708892822, -4.571638107299805, 2.610110282897949, -1.4398505687713623, -0.6338419914245605, -0.8982157111167908, -0.07373016327619553, 1.4949098825454712, -0.10278468579053879, -1.1650257110595703, -4.051527976989746, -3.245100975036621, -0.218410462141037, -0.02325783297419548, -0.4581773579120636, 2.459726095199585, 0.11665824800729752, -5.43980598449707, -2.9501590728759766, -4.210207462310791, 0.07670378684997559, 4.744523525238037, 3.5187389850616455, -3.0736184120178223, -0.27897751331329346, -0.024622710421681404, -2.146074056625366, 3.6506905555725098, 0.3828224241733551, -0.3395366370677948, 4.389728546142578, -0.035052165389060974, 3.613990068435669, -5.081174850463867, -0.9232062101364136, 4.134605884552002, 1.3192477226257324, -0.746764600276947, 0.12248976528644562, -3.2583377361297607, -4.351474761962891, -0.06944933533668518, -0.8656011819839478, -0.6696388721466064, -1.1416418552398682, 1.6081767082214355, -0.1482078731060028, -2.840043067932129, 1.0192514657974243, -2.1758906841278076, 0.9997464418411255, -1.2902681827545166, 5.9606709480285645, 2.0001931190490723, -0.5700160264968872, 0.6084370017051697, -0.39215174317359924, 0.758994996547699, -1.662033200263977, -1.8821437358856201, -0.39151695370674133, 0.39223355054855347, 1.1114485263824463, 2.3267643451690674, 0.2840866446495056, -2.849229335784912, -0.13206467032432556, -1.8022581338882446, 0.3036479949951172, -5.651963233947754, -3.7518250942230225, -5.3303375244140625, -2.2636938095092773, 0.36919233202934265, -0.646253764629364, 3.914933443069458, 0.07186787575483322, 2.251640796661377, 2.201113700866699, -0.2916087210178375, 0.7777297496795654, -0.5148402452468872, -10.032621383666992, 2.025113344192505, -0.6079502701759338, 2.5477261543273926, 0.17044517397880554, 1.5424634218215942, 6.890702247619629, 4.097946643829346, 7.109635829925537, -3.8741402626037598, -2.2680704593658447, 8.992412567138672, 0.33181795477867126, 2.201197385787964, -4.466890335083008, 0.4433136284351349, -7.027128219604492, 1.1296584606170654, -0.6357333660125732, -2.207662582397461, -0.19746603071689606, 4.555868625640869, -0.03752867504954338, 4.27836799621582, 3.7582173347473145, -0.0712553933262825, 0.05589190870523453, -0.05238416790962219, 4.5361504554748535, 0.14976906776428223, 0.37900280952453613, 0.2119174301624298, 0.8996021747589111, -7.038992881774902, 0.39887526631355286, 4.746273040771484, 4.765325546264648, 2.9718029499053955, -5.252937316894531, 0.2928723394870758, -0.10097356885671616, 3.3870651721954346, -8.134218215942383, 1.450118064880371, 5.984032154083252, -0.06411241739988327, 2.4929332733154297, -3.488586664199829, -3.906961441040039, 1.6912646293640137, 3.099853754043579, 0.11291301250457764, 0.01116028893738985, -0.4780401885509491, -5.5634613037109375, 2.2851295471191406, 1.360148310661316, -1.0014128684997559, 1.1555894613265991, -1.4022074937820435, -0.08568107336759567, -0.19101297855377197, -3.2481942176818848, 3.722865343093872, -3.1661102771759033, -3.5136873722076416, 1.4880762100219727, -2.901703357696533, -0.17410233616828918, 0.7719078660011292, 0.04528273269534111, 1.3097445964813232, -4.279759883880615, 0.9320976138114929, -0.17432555556297302, -0.1279747039079666, -1.2522691488265991, 0.27858975529670715, -0.25165966153144836, -2.218416213989258, -1.0568269491195679, 1.1289266347885132, -0.22306275367736816, -0.15039248764514923, -3.161783456802368, -2.855720281600952, 3.3160524368286133, -0.15158991515636444, 3.978618860244751, 1.6127105951309204, 2.735917568206787, 0.9420295357704163, 0.9937320351600647, -0.058576736599206924, 5.1752543449401855, -3.237287759780884, -9.694987297058105, -1.5460951328277588, 3.031341552734375, -1.5479683876037598, -0.04595526307821274, -0.4414125084877014, 4.452214241027832, 3.932004928588867, -0.44550296664237976, -2.7851948738098145, 5.5535712242126465, 4.196846008300781, 0.17444217205047607, 1.658649206161499, 3.641371250152588, -3.848524332046509, 0.1950686126947403, -1.062515139579773, 3.4413580894470215, 0.9743436574935913, -0.006026179529726505, 6.479097843170166, -0.051027487963438034, 1.2469459772109985, 0.9277520775794983, 2.2698469161987305, -0.15192420780658722, 0.0860140323638916, 4.6079864501953125, -3.2953054904937744, 0.05642280727624893, 2.5329248905181885, -1.2770719528198242, 2.7509567737579346, 0.03843057528138161, 1.6896758079528809, 3.62697434425354, 0.7402206659317017, -0.3212052583694458, 0.03871268406510353, -6.71339750289917, -1.2983312606811523, -4.924429416656494, -5.515443325042725, 0.857456624507904, 0.03478258103132248, -0.9334312677383423, 1.1894638538360596, 1.9738956689834595, 2.0002481937408447, 3.7646844387054443, 0.24196948111057281, -0.8278170228004456, 1.0955660343170166, -2.749424457550049, -2.727818250656128, -6.773736000061035, 0.5152848958969116, 0.956689178943634, -3.659508228302002, -0.04130254685878754, -4.664867877960205, 2.045531749725342, -2.668731927871704, 2.31711745262146, 0.28154057264328003, 1.544869303703308, -0.1226855143904686, 0.09263472259044647, 0.6443378329277039, 0.10528898984193802, -5.774631977081299, -4.761174201965332, 1.5540255308151245, -0.014804449863731861, -0.4448781907558441, -4.088979244232178, -7.04021692276001, -1.0447535514831543, -0.9780343174934387, -1.0887728929519653, 2.1565723419189453, -1.1082075834274292, -0.9761314392089844, 0.4910969138145447, 1.7154650688171387, 1.4291882514953613, -0.38048771023750305, -3.91288161277771, -0.8406187295913696, -1.0290682315826416, 0.15951760113239288, 0.06938135623931885, 0.11607979238033295, 1.28330659866333, -0.03567945584654808, -0.2634618878364563, -2.6919820308685303, -3.3000199794769287, 3.421818733215332, -0.1956438571214676, -5.336533546447754, 0.09114993363618851, 6.874500751495361, 0.665622353553772, -2.7213151454925537, 2.2826480865478516, 6.4606451988220215, -0.03771049156785011, -0.8272141218185425, 1.3109909296035767, 0.7368625998497009, -2.111633062362671, 4.307089328765869, -0.4942200779914856, -5.737144470214844, 0.08349931240081787, 5.179169178009033, 0.06418779492378235, -0.5331003665924072, 2.7162466049194336, -1.8692494630813599, -0.04656124860048294, -0.21323059499263763, 2.162109375, -1.3341591358184814, -0.2685103416442871, -4.575526714324951, -0.31644272804260254, 0.9642438292503357, -0.26972275972366333, -2.8671586513519287, -0.9271512031555176, 3.094980001449585, 4.913134574890137, -0.05233015492558479, -1.5266876220703125, 2.1568102836608887, -0.7647333145141602, -3.893634080886841, -2.582463026046753, 0.00854048877954483, 4.728973865509033, -1.7534040212631226, 2.3786299228668213, 1.1516584157943726, -2.2042243480682373, -1.9272924661636353, 0.11710536479949951, 3.2709572315216064, -5.764086723327637, -0.5580337047576904, -3.3744876384735107, -6.93762731552124, -2.130620241165161, -8.011651992797852, -0.16297413408756256, 2.374504804611206, -9.718910217285156, -3.6307270526885986, -2.8195135593414307, -0.8747715950012207, -3.0664069652557373, -3.068527936935425, -0.06575176864862442, -0.6471434235572815, -0.08672212809324265, -0.3972123861312866, -3.6144256591796875, -4.679846286773682, -0.13096509873867035, 0.1366267055273056, 0.830878734588623, -3.765141487121582, -0.26363810896873474, 2.7326340675354004, -5.373160362243652, -4.558681964874268, -0.05797114223241806, -3.1551263332366943, -2.6012449264526367, -1.8205065727233887, 1.8323825597763062, -0.19445227086544037, -1.0568615198135376, -7.9193010330200195, -5.723394393920898, 0.96261066198349, -2.3274433612823486, -0.19756059348583221, -3.851358652114868, -6.657203674316406, -7.957364559173584, -7.947787761688232, -4.546170234680176, 2.8099231719970703, 0.32390907406806946, 2.5015432834625244, 3.3759593963623047, 2.322777509689331, 2.0486650466918945, -6.557384490966797, -6.494905948638916, 3.6433937549591064, 0.36464551091194153, 1.2261605262756348, -3.7104642391204834, -2.1205923557281494, -4.552719593048096, 4.307837009429932, -1.4301093816757202, 0.3941495418548584, -0.1150401309132576, 5.690764427185059, 0.027877064421772957, 4.579983234405518, 0.9488969445228577, -6.3889594078063965, -0.010725314728915691, 0.2959637939929962, 6.003152370452881, 0.22364597022533417, 0.731619119644165, 1.1447452306747437, 1.738019585609436, -7.179049491882324, 0.26254716515541077, 0.9499326348304749, 2.3111019134521484, 2.5445492267608643, -7.251371383666992, 0.22909905016422272, -2.699382781982422, 5.1624603271484375, -6.739559173583984, -1.571326494216919, 4.689728260040283, 0.059195831418037415, 7.541192054748535, -3.2638587951660156, 4.732755184173584, 3.8938004970550537, 6.10585880279541, -2.596297025680542, -0.004451406188309193, -1.114248275756836, 4.037858009338379, -2.581279993057251, -2.0232982635498047, -4.092883110046387, 1.1071549654006958, -0.45127537846565247, -0.10821204632520676, 2.2015774250030518, -1.9859342575073242, -2.685447931289673, 4.447447299957275, -1.9956222772598267, 1.7859586477279663, 2.9982194900512695, 0.039110444486141205, -2.9875006675720215, 0.07798296958208084, -0.47467008233070374, -0.09788042306900024, -0.02034585364162922, -0.003616534173488617, -0.1702020913362503, 1.366049885749817, -3.527580976486206, -0.18930132687091827, 2.0709497928619385, -3.2834930419921875, 3.841773509979248, -0.09845880419015884, -4.884899139404297, -3.7757952213287354, -1.932645320892334, 2.988584280014038, -0.10321369767189026, 0.2132105976343155, 2.015453338623047, -1.2537505626678467, -1.3074524402618408, -4.69914436340332, -0.03480346128344536, -1.026377558708191, 2.3599905967712402, -2.2772231101989746, 1.524216651916504, -0.9351388812065125, -7.464171886444092, 0.8103353381156921, -2.3468244075775146, -5.908364295959473, 2.0072097778320312, 2.3163063526153564, -1.8795558214187622, -3.3272173404693604, 2.067610025405884, -0.12428688257932663, -8.191726684570312, -2.340357780456543, -8.4597749710083, -7.5931830406188965, -2.029118299484253, -4.640335559844971, -3.747148275375366, -0.24743153154850006, 0.09436067938804626, -0.28172552585601807, -2.761455774307251, -0.674536406993866, 1.2427557706832886, 0.06552433222532272, 0.599725067615509, -1.819482445716858, -1.1815381050109863, 1.0465770959854126, -4.308923244476318, -4.8775506019592285, -3.456653356552124, 1.0157541036605835, -4.994466304779053, -1.5552864074707031, -1.8085856437683105, 0.035439684987068176, 0.727091908454895, 1.6628119945526123, -1.165160894393921, -3.9420113563537598, 2.8530101776123047, -3.1610257625579834, -0.095705047249794, -4.720854759216309, -5.124478340148926, -8.85948371887207, -7.837122440338135, 0.00946489255875349, 6.136401176452637, 0.14493264257907867, -0.44325900077819824, 0.49795809388160706, -1.3684989213943481, -3.1300008296966553, -4.0244550704956055, -4.934101581573486, -4.59295654296875, 0.0072536226361989975, -2.676440715789795, -1.78830087184906, 1.3189691305160522, -4.659539699554443, 1.7111304998397827, -5.761833190917969, -3.0846097469329834, -0.07386579364538193, -1.6079024076461792, -0.028087681159377098, -1.5622376203536987, -3.5632283687591553, 0.6636515259742737, -0.19955185055732727, -0.0042232549749314785, -0.2500353753566742, 0.37776461243629456, -0.21996286511421204, -1.7701075077056885, -3.6308481693267822, -3.0189568996429443, -0.04018670320510864, -3.3515398502349854, 2.692410707473755, 1.1297866106033325, -0.8435395956039429, 0.05758526921272278, 3.7878129482269287, -3.480039358139038, -3.6788716316223145, 0.3495500385761261, -6.446356296539307, -0.06727714836597443, 2.6598141193389893, -6.762829303741455, 1.0410484075546265, -1.1025155782699585, -0.6312946081161499, -2.4769110679626465, 0.029678547754883766, 0.5310704112052917, -0.9981884956359863, 3.359278917312622, 4.1816816329956055, -6.020621299743652, -0.23531478643417358, -1.87454354763031, 0.21854358911514282, 2.3859307765960693, 3.873944044113159, 0.7475225329399109, -1.0347511768341064, 5.236093997955322, -2.06805419921875, 2.2579708099365234, -0.02366042695939541, -0.9618152379989624, -0.006484383251518011, 1.631273865699768, -0.03636768460273743, 3.769996404647827, -0.11985896527767181, -0.06339874118566513, 1.801495909690857, -1.0487806797027588, 0.057349443435668945, -1.7549201250076294, -4.526706695556641, 1.0735704898834229, 0.05908652022480965, 3.2066843509674072, -2.013089656829834, 4.319317817687988, 1.1371675729751587, 0.1620098054409027, -3.322138547897339, -5.141439437866211, -3.958392858505249, -2.7249014377593994, -5.330138683319092, 0.07129499316215515, -1.2126994132995605, -3.9998276233673096, 1.9443135261535645, 1.393357515335083, -4.196202754974365, -2.8846023082733154, -0.023539403453469276, 3.813331365585327, 0.5052290558815002, -6.3422064781188965, 0.5365497469902039, -1.2936084270477295, 3.24676513671875, -0.5969496369361877, -0.21846123039722443, 3.6057474613189697, -2.7659268379211426, -1.0452319383621216, 0.34692099690437317, -2.978198528289795, -0.20839230716228485, -3.567863702774048, 0.08355224132537842, -1.1773457527160645, -0.02742236852645874, 1.6821924448013306, -2.9151217937469482, -0.4174509644508362, 0.006659352220594883, 0.0006021442823112011, -2.6803739070892334, -4.617506504058838, -0.15171034634113312, 2.7889785766601562, -0.5082376003265381, -0.33492979407310486, -0.1755325347185135, 1.2980014085769653, -4.3255791664123535, 0.25733086466789246, 1.1950993537902832, 0.061269499361515045, 0.2562562823295593, 0.2470255047082901, -3.0899970531463623, 1.5813930034637451, -1.3271394968032837, -0.04435453191399574, 1.1955375671386719, -0.4249904453754425, -8.983580589294434, -1.4629881381988525, 1.6150532960891724, -0.2753443717956543, 0.050531934946775436, -0.2173214554786682, -1.6126759052276611, -5.358029365539551, -2.3199210166931152, -1.90937077999115, -7.1622419357299805, -8.621112823486328, -0.11705029755830765, 0.4714202880859375, -9.134832382202148, 1.5192610025405884, -5.283143520355225, -3.1040103435516357, -16.45257568359375, -11.089492797851562, -0.07868830859661102, -0.45047110319137573, -0.05137970671057701, -3.118804931640625, -4.102325916290283, -4.177120208740234, -0.16878847777843475, 0.0977787896990776, 0.39322224259376526, -14.49691390991211, -0.2183934599161148, -0.10802149772644043, -3.525481939315796, -10.431974411010742, 0.07124228030443192, -4.500150680541992, -2.8080735206604004, 2.77590012550354, -4.412131309509277, 0.014611372724175453, -2.9694011211395264, -10.380730628967285, -8.618935585021973, 2.2318201065063477, 0.9959608316421509, -0.008582843467593193, -3.2699201107025146, -7.8377461433410645, -3.365109920501709, -6.601215839385986, -2.150491237640381, 0.8632146120071411, 0.09754490852355957, -4.776937484741211, 2.8451621532440186, 2.354189872741699, -1.0095629692077637, 2.018693208694458, -1.0986597537994385, 4.353679656982422, 0.09871173650026321, -3.8032472133636475, 2.9613401889801025, -3.9324951171875, 1.0392858982086182, -1.5490705966949463, 2.8640213012695312, 1.2935993671417236, -0.04417779669165611, 1.9989218711853027, 0.023647520691156387, -1.5363205671310425, 0.7929430603981018, 3.117763042449951, 0.052881646901369095, 0.02153504453599453, -0.8809667825698853, -3.1491143703460693, 0.167430117726326, -2.891841173171997, -2.514352560043335, 0.15222486853599548, 0.1930849850177765, -0.5832241177558899, -0.04531557485461235, 0.9759346842765808, 2.603283405303955, 0.016656409949064255, -0.08707036823034286, -0.21249854564666748, 1.546362280845642, 0.8015639781951904, 3.35562801361084, 0.24916161596775055, -2.5206387042999268, -1.7353925704956055, -1.803265929222107, -0.5202377438545227, -0.24323545396327972, -2.1047134399414062, 0.016393976286053658, 3.123058319091797, -1.8287135362625122, 0.6265685558319092, 1.1933846473693848, -1.0472642183303833, 4.95552396774292, 2.170199394226074, -0.0006163263460621238, 3.261756181716919, 2.8602538108825684, -0.7828335165977478, -2.7445268630981445, -1.5149370431900024, 0.8826408982276917, -0.605527400970459, 0.07535305619239807, -2.7898480892181396, 0.13840137422084808, 0.719214916229248, 2.8569557666778564, 2.465550422668457, -0.036626141518354416, -0.05478248372673988, -3.473766803741455, -1.154829978942871, -0.11718706786632538, 0.6886734366416931, -5.3048810958862305, 0.6919796466827393, -0.09234325587749481, 3.981299638748169, -4.842940807342529, -1.0416728258132935, -0.19551965594291687, -0.13664214313030243, -3.8806731700897217, 1.4721312522888184, 0.8068228960037231, -1.3534494638442993, 3.75828218460083, 0.12195604294538498, 0.8067489266395569, 0.0575409010052681, -3.8009276390075684, -0.04609738662838936, 3.05326509475708, 3.014166831970215, -0.19950301945209503, -2.005664348602295, 2.4953532218933105, -1.41386878490448, 1.226008653640747, -1.111717700958252, 3.6577985286712646, -4.743765830993652, -0.030187591910362244, -0.47411826252937317, -4.319180011749268, 1.4472131729125977, -3.181391954421997, 2.9981985092163086, -1.9633718729019165, -4.6171770095825195, 0.13412219285964966, 3.8428609371185303, 0.1451621651649475, -4.732290267944336, -7.682894229888916, -2.635409355163574, -0.15429294109344482, -0.003969920799136162, -7.119968891143799, -2.933972120285034, -0.34874433279037476, -1.3232276439666748, -0.9997914433479309, -2.145080327987671, -0.056377824395895004, -4.531260013580322, 1.0270506143569946, 0.6334827542304993, 2.7426953315734863, -0.04533296823501587, -0.9862387180328369, 2.930391550064087, -0.2032138556241989, -2.453110933303833, 0.8688405752182007, 0.05630144476890564, 2.593405246734619, -0.7212269902229309, -5.860268592834473, -1.21798837184906, 2.5785627365112305, 1.9995603561401367, 0.16246242821216583, -1.9526742696762085, 4.683629035949707, 0.4417228400707245, 2.49709415435791, -12.673255920410156, 0.10835160315036774, -0.5004979372024536, 0.16560176014900208, -1.0971397161483765, -1.4074174165725708, 2.096264600753784, -2.4554781913757324, 0.37709736824035645, -6.5451979637146, -1.6149004697799683, 0.09659038484096527, 3.0384774208068848, -0.23443984985351562, 0.3259769678115845, -0.2247025966644287, -4.353834629058838, 0.14906354248523712, 0.06170877814292908, 1.322483777999878, -9.276324272155762, -0.11172347515821457, 2.877995252609253, 2.153989791870117, -2.8350770473480225, -0.08491344749927521, -2.8264682292938232, -2.160224199295044, 5.423727989196777, 0.11543499678373337, 0.2722795605659485, 0.17378906905651093, 3.9866323471069336, -10.146550178527832, -1.1873791217803955, -0.6165834665298462, -0.03854546323418617, 3.2214839458465576, -0.7059922218322754, -0.6778822541236877, 1.3634713888168335, 2.4847333431243896, 0.35935357213020325, 0.26810240745544434, 3.1695544719696045, 1.4570870399475098, -0.9006341695785522, 2.079408645629883, 4.125727653503418, 4.687075614929199, -0.5034445524215698, -0.0988563820719719, -0.17169980704784393, -7.970934867858887, -4.333436965942383, -0.8459766507148743, -1.330186128616333, -1.994079351425171, 0.4399496614933014, -0.16226822137832642, -0.5903342962265015, -0.061257254332304, -1.630301833152771, -2.816438913345337, -0.7307514548301697, 0.025079594925045967, 0.20532070100307465, 3.1413164138793945, 0.29198917746543884, 0.3515722155570984, 2.5239460468292236, 0.3996328115463257, 0.8079792857170105, 0.09254644811153412, -4.5898213386535645, -4.852162837982178, 3.67966890335083, -2.9141552448272705, -0.029276639223098755, -4.376437187194824, -1.1203569173812866, -2.917008638381958, 2.465725898742676, -1.6456828117370605, -0.09485682100057602, -3.591369390487671, -0.6882885098457336, -4.576412677764893, 1.73689866065979, 3.645872116088867, -0.9878091812133789, -0.1063525453209877, 1.8062593936920166, 2.566434860229492, 1.0985478162765503, -6.195006847381592, 5.945971965789795, 0.9227563142776489, -10.045295715332031, 0.6050710082054138, -0.09325597435235977, 1.4420642852783203, 1.6300631761550903, -3.895240068435669, 0.3744104206562042, 7.972105979919434, 6.657341957092285, 0.1287311166524887, 0.8325271606445312, 0.001988403033465147, -0.4665645658969879, 7.542702674865723, -3.58390736579895, -0.15698976814746857, -0.10759589821100235, -4.374069690704346, -5.818356037139893, -0.22776509821414948, -0.11434637755155563, 2.1368377208709717, -7.963107109069824, -0.15717649459838867, 3.485321044921875, 3.732548475265503, -6.3711442947387695, -6.8590216636657715, 0.1924559324979782, 0.19448816776275635, 1.9069170951843262, 7.351796627044678, -1.473757266998291, 1.483379602432251, 0.43286266922950745, 2.461168050765991, 4.914443492889404, 4.777440547943115, 1.418929100036621, 6.597076892852783, -3.571153163909912, 0.06894844770431519, 4.1602091789245605, 1.0718231201171875, -0.3623114824295044, 3.6368448734283447, -3.550724744796753, 2.579643964767456, 1.1399322748184204, -0.17447839677333832, 0.5791974067687988, -0.18763794004917145, 1.8094804286956787, -2.3197176456451416, -2.36887264251709, 0.3243950605392456, 2.3608126640319824, -0.04224314168095589, -0.6137388944625854, -0.05727366358041763, -3.309804916381836, 2.596933603286743, 0.19211071729660034, 0.005077301990240812, -0.07422441989183426, -0.700709879398346, -9.810980796813965, -0.04639097675681114, -3.183684825897217, -1.2983826398849487, 4.249030113220215, 0.017120644450187683, 1.235581398010254, 2.184587240219116, 0.21279507875442505, -2.5839343070983887, 0.09667973220348358, -3.6599745750427246, 1.2253642082214355, -3.7067441940307617, -1.828671932220459, 2.354649066925049, -0.1656479388475418, 0.5771463513374329, -1.2024863958358765, -1.4792227745056152, -0.483910471200943, -0.8291275501251221, 0.3334699869155884, -0.011376970447599888, -1.27437162399292, -10.658934593200684, 1.8344975709915161, -8.697585105895996, 0.50957852602005, -3.7801055908203125, -3.8428733348846436, 0.06220948323607445, -2.6390938758850098, -3.5076591968536377, -2.0413923263549805, -1.0249202251434326, -1.9483864307403564, 2.4277141094207764, -4.4483160972595215, -0.16122184693813324, 4.20986795425415, -0.03275622799992561, 0.7743423581123352, -6.6713738441467285, -1.0103107690811157, -0.12486916035413742, 0.06872856616973877, 2.0211009979248047, 0.8986161947250366, -0.15795132517814636, -1.3634103536605835, 1.099852204322815, -3.0319526195526123, 0.018085084855556488, -2.0286221504211426, -1.6209534406661987, -1.2253172397613525, -3.6067981719970703, 0.02740447409451008, -2.5301525592803955, 0.9221050143241882, 4.735153675079346, 0.6448197960853577, -1.7585487365722656, -0.04420095309615135, 0.2538100481033325, 4.961503505706787, -5.381588935852051, -0.08583206683397293, 7.087863922119141, 3.6527204513549805, 0.04619147628545761, 2.794267416000366, 6.199954986572266, -0.9989716410636902, 1.4575996398925781, 0.005003602709621191, 1.0972057580947876, -8.124838829040527, 0.1273380070924759, -3.6275649070739746, 0.3823269009590149, -3.468716859817505, -0.12663622200489044, 0.18103627860546112, -4.159667015075684, -6.637310981750488, -0.11748302727937698, -0.09155996888875961, -0.018277689814567566, 0.29983025789260864, 0.48999449610710144, 2.2222893238067627, -0.020133035257458687, 0.020541777834296227, -1.4720046520233154, 3.471515417098999, -0.18129321932792664, -2.542772054672241, -1.9408237934112549, -7.481551647186279, -0.027239132672548294, 3.7996294498443604, 2.63944673538208, 3.514387369155884, -1.1351486444473267, -0.019702069461345673, 0.5293532013893127, -8.417176246643066, -0.8397920727729797, -3.417645215988159, -1.963565468788147, 0.06188623607158661, 0.05478961765766144, -0.2702081799507141, -0.031106282025575638, -2.205958127975464, -7.33568000793457, -1.1381621360778809, 0.07184773683547974, -2.108241319656372, -0.7702200412750244, 1.2379674911499023, -0.11817588657140732, -4.07229471206665, -0.9608210325241089, 0.5992916822433472, -0.07866355031728745, 0.36052748560905457, -2.881437301635742, -2.358762741088867, -1.6024836301803589, -1.0684677362442017, 0.6284804344177246, -0.16753272712230682, -0.22926396131515503, -0.4973437488079071, -0.12449140101671219, -0.6453909873962402, -0.031026244163513184, -1.3953046798706055, -0.02659408375620842, 0.17655780911445618, -1.2450898885726929, -0.38193485140800476, -0.03631729632616043, -0.4678272306919098, 1.3327263593673706, -1.5809913873672485, 0.02362363412976265, -0.47703179717063904, 2.6337826251983643, 1.5182949304580688, 1.4504368305206299, 0.1614348143339157, 1.3748221397399902, 1.350132942199707, -5.864274024963379, 0.029010366648435593, -0.3390200436115265, -0.1346270591020584, -2.5694174766540527, -1.3820053339004517, -0.2180425524711609, -0.23871855437755585, -1.8451060056686401, -1.152975082397461, 0.09211131930351257, 0.5158959031105042, -5.320563316345215, 2.39521861076355, -2.6257030963897705, -4.007320880889893, 2.6381912231445312, -0.314584344625473, 0.07765255868434906, -0.5451377034187317, -1.2883986234664917, -2.558518171310425, 0.29204657673835754, 0.32537227869033813, -0.03172633796930313, 0.5815860629081726, -0.12848928570747375, -1.4215980768203735, -0.005593220237642527, -0.4701318144798279, -2.388272762298584, -0.19178728759288788, -0.1320008933544159, -0.080535888671875, 2.167685031890869, 1.2532399892807007, 0.0005718162865377963, -1.1535882949829102, -0.9315550923347473, 1.0869200229644775, -0.11579331755638123, -0.6515479683876038, 0.23968791961669922, 2.427398920059204, 2.6731138229370117, -0.018562475219368935, 0.1739197075366974, 0.09112493693828583, -6.204639434814453, -0.5181474685668945, 0.29149213433265686, 0.06135932356119156, 0.5486592650413513, -1.3987990617752075, -5.0381083488464355, -1.0565407276153564, 0.871477484703064, -4.214369773864746, -0.005772888660430908, 1.2637425661087036, -2.0263051986694336, -0.43293920159339905, -2.94184947013855, -7.414730072021484, 6.598287582397461, 0.236138254404068, 0.06423940509557724, -2.5372326374053955, 4.507851600646973, 0.8287147879600525, 1.4944310188293457, -0.07957455515861511, 5.251051425933838, 2.0971977710723877, 0.0911720022559166, -1.5119255781173706, 0.07679343223571777, -0.4513876736164093, -0.21664303541183472, 4.502177715301514, -0.009133626706898212, -0.12853819131851196, -4.821015357971191, -1.7017771005630493, -0.03127378225326538, 0.015214712359011173, -1.0079174041748047, 3.7920382022857666, -0.07634611427783966, 2.554798126220703, -0.7930277585983276, 0.9105634093284607, 2.337514638900757, -0.17163735628128052, -4.169159889221191, 2.575570821762085, -3.0272769927978516, 1.3907359838485718, -0.6444264054298401, 0.03874766081571579, 1.5147634744644165, 2.8992576599121094, -2.6459498405456543, 2.773212194442749, 0.3463943302631378, 4.542061805725098, -0.050635095685720444, -2.231400966644287, -4.147606372833252, -0.356794536113739, -1.043501615524292, -6.470391750335693, -0.4085763692855835, 0.746884822845459, -0.17250967025756836, -0.7283810377120972, -5.444967746734619, 0.5500383973121643, -0.20794625580310822, 1.4157476425170898, -1.890893578529358, 4.659144401550293, -0.161434143781662, -0.6510823965072632, 0.041253913193941116, 3.3951022624969482, -3.981499195098877, -0.27794817090034485, -0.26002728939056396, -0.03668350726366043, 0.9136617183685303, 1.8220912218093872, -0.2648451030254364, -5.068913459777832, -3.471891403198242, -0.37704184651374817, -0.3945814073085785, 5.044963836669922, -1.1859123706817627, -3.4960389137268066, 3.9885106086730957, -0.18127237260341644, -0.13739274442195892, -3.224989175796509, -2.262036085128784, 0.5265157222747803, 2.357065439224243, -0.04615334793925285, 3.610935926437378, -1.1687357425689697, -3.2264392375946045, -1.3420404195785522, -0.27909576892852783, -5.5106072425842285, 0.4603443443775177, -4.215680122375488, -8.002242088317871, -5.792290210723877, 1.422624945640564, -5.574273586273193, -3.1942977905273438, -5.019711017608643, 0.27749210596084595, 1.7087818384170532, -7.044138431549072, 2.290070056915283, -3.767550468444824, -1.8601016998291016, 0.3647449016571045, -4.027726650238037, -0.23782098293304443, -4.256480693817139, -0.10033846646547318, -0.44386741518974304, -4.895785808563232, -4.8755903244018555, -0.2332308143377304, 0.016774507239460945, 0.7645087838172913, -5.286632537841797, 0.1470925658941269, 0.908370316028595, -2.8657896518707275, -2.291663408279419, 0.08874306827783585, 5.995213985443115, 1.5508633852005005, 4.110163688659668, -10.269673347473145, 0.46535345911979675, 1.5602489709854126, -2.7664666175842285, -15.717772483825684, -2.300727367401123, -1.3491562604904175, -0.22057604789733887, 1.2684235572814941, -10.460841178894043, -8.327134132385254, -6.156457901000977, -3.133575439453125, -4.676100254058838, -0.12549620866775513, 0.3160305619239807, 3.396545648574829, 3.882173538208008, -0.2570129334926605, 2.5473554134368896, 1.822536826133728, 2.8899714946746826, 0.03525229170918465, -0.7657156586647034, 3.357954740524292, 1.9820853471755981, -1.739871859550476, 0.9652913212776184, 3.71612286567688, 2.7215936183929443, 0.1587149202823639, -4.884548664093018, 0.0343245193362236, 0.402968168258667, 0.5874830484390259, 5.351171970367432, -0.005757313687354326, -0.22917678952217102, -0.3781692087650299, 0.10898624360561371, -0.4115517735481262, -5.451114177703857, 1.6721177101135254, -2.9425885677337646, -0.22497384250164032, -2.021726131439209, 1.1103236675262451, -7.821601867675781, 2.2875282764434814, -0.10010460019111633, -0.4717097878456116, -6.671937942504883, 2.5007522106170654, -0.30826038122177124, -5.225841999053955, -0.01341359131038189, -2.728008508682251, 1.2245888710021973, 1.6843276023864746, -1.6528970003128052, 1.8181145191192627, 0.755774974822998, 0.06700767576694489, 2.102919816970825, -13.982420921325684, 2.4685747623443604, -1.7460048198699951, -2.622887134552002, 1.6137553453445435, 4.369576930999756, 0.17017683386802673, 1.3260148763656616, -6.263584136962891, 2.5343682765960693, -3.5773847103118896, 3.2110161781311035, -0.8378152251243591, 0.9395492672920227, -0.0400400310754776, -1.5018075704574585, -0.18367280066013336, -0.2371671497821808, 5.517040729522705, 2.1941421031951904, 0.001666127354837954, 0.11190833151340485, -1.2366572618484497, -2.1498093605041504, 0.08677827566862106, -2.051095962524414, 0.7454618811607361, 1.319216012954712, 0.1786927431821823, 3.557508945465088, -0.36463600397109985, 1.2810158729553223, -0.027866605669260025, 0.15517333149909973, -2.1090753078460693, -3.063837766647339, -0.346371054649353, -1.832133173942566, -1.9191102981567383, -0.06614354252815247, 0.868209958076477, 2.801253080368042, -0.7368804812431335, 2.442996025085449, -2.290485143661499, 1.6419575214385986, -0.6001573204994202, -6.869707107543945, -0.5782522559165955, 1.5629842281341553, 1.4393255710601807, 2.0150845050811768, 3.3204169273376465, -4.497623443603516, 0.3841407299041748, -5.319708347320557, 2.416978359222412, -2.576835870742798, 2.932096481323242, -2.528984308242798, 4.815397262573242, 4.202317714691162, 0.4258224070072174, -2.718099594116211, 0.28701427578926086, -2.5809247493743896, 3.7994637489318848, 0.19597750902175903, 0.10977225005626678, -0.5799074769020081, -5.758650779724121, -8.72981071472168, -1.28278386592865, 0.23103448748588562, 0.4924592077732086, 1.137247920036316, -0.9423611760139465, -3.407975435256958, 2.5396783351898193, -5.687837600708008, 1.5503431558609009, -0.30586960911750793, 3.6358892917633057, -0.9809292554855347, 1.2485078573226929, -0.835067093372345, -4.923081874847412, 0.35792890191078186, -1.4622467756271362, 1.806803822517395, -0.2345883697271347, 2.6986494064331055, 2.1782643795013428, -1.599096417427063, -0.15213844180107117, 4.056347370147705, 3.14007568359375, -5.252041816711426, 1.2629941701889038, 0.9821639060974121, 1.6979418992996216, 0.629517674446106, 0.058867987245321274, 2.5177042484283447, 0.3360469341278076, -5.889199733734131, -0.7060466408729553, -4.031594276428223, -1.51209557056427, 6.887402534484863, 0.16548940539360046, 1.0657964944839478, 0.10416655987501144, 7.440395832061768, -2.9681172370910645, -1.9248473644256592, 0.060888975858688354, -0.10379847139120102, 5.7596354484558105, -5.0815043449401855, -0.08480573445558548, 5.83327579498291, -5.479448318481445, -0.1537644863128662, -0.17315444350242615, -1.6410763263702393, 4.597991943359375, 0.6269710659980774, 0.061733514070510864, -0.0015611591516062617, -4.181694030761719, -2.9137258529663086, -0.47519630193710327, 0.592863142490387, 3.5884270668029785, 0.0760715901851654, 2.882023572921753, 1.1506121158599854, -0.2575376033782959, -3.8292794227600098, 3.653442859649658, 5.006528854370117, -0.032300036400556564, -0.7227501273155212, 0.937765896320343, 2.382385730743408, 0.16655293107032776, 2.033949613571167, 0.9924159049987793, 4.4632887840271, 0.03328836336731911, -1.4802680015563965, -1.062992811203003, 2.479429006576538, -4.946413993835449, 1.0678457021713257, 4.38070011138916, 5.372768402099609, -0.14804524183273315, -0.38453540205955505, -0.011406393721699715, 0.8559920191764832, 3.391043186187744, -4.239828586578369, 0.17356374859809875, 0.021318307146430016, 2.491048574447632, 5.770295143127441, 0.674536943435669, 4.279922008514404, 0.09238383919000626, -1.2747361660003662, 0.1339806467294693, 1.6535321474075317, -2.1395692825317383, 2.6539387702941895, -2.105330467224121, 0.0861576646566391, 3.0633788108825684, -1.1220612525939941, -0.3118765950202942, 0.24690161645412445, -1.1859798431396484, -0.11210279166698456, -1.6450045108795166, 2.152843475341797, 2.42716908454895, -5.1713666915893555, 4.410356044769287, -5.091001510620117, 0.03795774281024933, 4.878399848937988, 2.1411516666412354, 1.4320857524871826, 0.8423053622245789, 2.4828732013702393, 3.786410331726074, -2.220034122467041, -0.11732549965381622, 2.0891482830047607, -8.660961151123047, -0.1926995813846588, -4.8950300216674805, -3.1386215686798096, 2.980733633041382, -2.437100648880005, -0.04283700883388519, 1.1078137159347534, -0.08262472599744797, 2.6759555339813232, -1.7036933898925781, 3.888486385345459, -0.07659486681222916, 0.02014777995646, 5.404706001281738, -0.274912029504776, 0.08759447932243347, -5.325889587402344, -1.5124083757400513, -7.537592887878418, 0.13547560572624207, 2.6194846630096436, -1.4553028345108032, -0.2911679744720459, -6.453657627105713, 0.17631928622722626, 1.293292760848999, 0.5694493651390076, -9.272740364074707, -0.23240475356578827, 7.164352893829346, -0.13454113900661469, 0.45963728427886963, -5.902388572692871, -0.8879798650741577, 0.9335682988166809, -7.479795455932617, -2.9922921657562256, -0.23119394481182098, -1.908963680267334, -1.7286466360092163, -2.815063714981079, 0.8308794498443604, -1.0342261791229248, -0.6414324045181274, 0.44676774740219116, 0.2002813071012497, -2.8720078468322754, 2.5764830112457275, 3.103534698486328, 3.1891279220581055, -2.4946353435516357, 3.0184051990509033, 3.1671838760375977, 0.11471699178218842, -4.022306442260742, 0.2241470217704773, -2.488900661468506, -3.879523277282715, 2.5115368366241455, 0.10048364847898483, -0.06576098501682281, -0.34247368574142456, -2.552827835083008, -0.4124191403388977, 2.2294607162475586, -3.8113181591033936, 2.565369129180908, -0.22787126898765564, -3.6198110580444336, -0.13455405831336975, -1.137536883354187, -1.115068793296814, -0.10447683185338974, -1.9781304597854614, 1.4714242219924927, 0.681660532951355, 0.6125291585922241, -2.7568564414978027, 0.05959590896964073, 0.717265248298645, 0.36191946268081665, -3.5857338905334473, -0.5959336757659912, -2.625901222229004, 4.60280704498291, -0.006927052047103643, 2.8942208290100098, 0.22998864948749542, -1.7901355028152466, -0.1771201640367508, -1.9545061588287354, 2.4934496879577637, -0.8613460063934326, 0.004067486617714167, 3.6292648315429688, 1.4323655366897583, 0.6913999319076538, 0.9400139451026917, 4.019010543823242, 2.671424150466919, 4.911324977874756, -0.0022794813849031925, 3.4263107776641846, 0.11141116917133331, 5.0812249183654785, 0.8119937777519226, -2.699272394180298, 0.06937731057405472, -0.0007166198338381946, 6.894008636474609, 2.487982988357544, 0.06290389597415924, -5.9098968505859375, 4.960141181945801, 1.6192820072174072, 0.08251626044511795, -1.5243656635284424, 2.33304762840271, 6.106518745422363, 5.086971282958984, 0.08724850416183472, -4.000929355621338, 7.341439247131348, -4.66488790512085, 0.4273093640804291, 2.3047964572906494, 0.08475391566753387, 2.9017739295959473, 1.0881918668746948, 3.7035858631134033, 6.718323707580566, 1.6780556440353394, -1.4019945859909058, -0.018213657662272453, -1.0501203536987305, -6.286179065704346, -0.4655499756336212, -1.3396810293197632, 2.105497360229492, 3.8130362033843994, -3.6679484844207764, 0.02122318744659424, 3.6395437717437744, 4.064609050750732, -2.139475107192993, 3.2016918659210205, -1.9891185760498047, -3.968313455581665, 1.0301064252853394, 0.1499844789505005, -4.153365612030029, 0.13573022186756134, 3.9760494232177734, 0.9916086792945862, 3.835057020187378, 0.17086394131183624, -0.030872123315930367, 0.5890581607818604, -0.16005876660346985, -0.0802416205406189, 1.6917108297348022, -1.3753764629364014, 7.177736282348633, -0.16507744789123535, -0.664749026298523, -9.336540222167969, 4.879775047302246, 4.650689125061035, -0.08331358432769775, 0.3919309973716736, -2.041774272918701, 2.2026312351226807, -0.14413610100746155, -0.856475830078125, 0.04334558919072151, 0.17100179195404053, 0.12473686039447784, -7.000217914581299, 1.3565568923950195, -0.7256040573120117, -4.021155834197998, -0.20313440263271332, -4.406590938568115, -1.0245335102081299, 1.5384113788604736, 7.00831413269043, 4.869189262390137, 4.205776691436768, -5.472038745880127, -0.1413615494966507, -2.6293158531188965, 0.26853159070014954, 3.515613555908203, 0.6642095446586609, -7.476931571960449, -9.292255401611328, -5.516019344329834, 0.16204804182052612, -3.1121888160705566, 0.037749484181404114, -0.1357364058494568, -3.042022705078125, 3.6599109172821045, 0.10495211184024811, -0.3097735643386841, 1.4920997619628906, -4.831275939941406, -0.21978071331977844, 4.088676929473877, 0.8711965084075928, 4.729173183441162, -0.6234236359596252, 2.040846824645996, 2.6632049083709717, 3.7541415691375732, 4.194757461547852, -0.39402276277542114, -0.17829857766628265, -6.257874965667725, 6.9644083976745605, 1.81768000125885, 2.113516092300415, 0.08513550460338593, -3.76511812210083, 0.7850171327590942, -1.335510015487671, 1.393889307975769, 0.80088210105896, -1.7140685319900513, -0.13672354817390442, 0.05886343866586685, -4.117690086364746, 0.7181277275085449, 1.2131158113479614, -1.6893515586853027, 3.107496976852417, -2.411027193069458, 0.09770265221595764, 2.0520238876342773, 1.1269928216934204, -0.9251477718353271, 0.559762179851532, -4.905787944793701, 0.5887741446495056, 2.0328595638275146, 0.08777652680873871, -1.8240578174591064, 0.11840600520372391, 0.055096179246902466, 3.713517665863037, 2.3217597007751465, 0.20554973185062408, -0.11685202270746231, 0.1116841658949852, 1.3325177431106567, -0.021506452932953835, 1.911743402481079, 1.484221339225769, 4.338659286499023, -0.0008731925627216697, 1.4485665559768677, -3.944150924682617, 6.789235591888428, 3.535973072052002, -0.16102388501167297, -1.9171981811523438, -1.495758056640625, 1.11493718624115, -0.9672287106513977, -1.3890018463134766, 0.11973299831151962, -3.234626054763794, 1.1277183294296265, -6.2950310707092285, 1.8299901485443115, 3.519686460494995, -4.14454460144043, -0.22397629916667938, -7.716325283050537, 3.936732769012451, -2.800570011138916, 4.444456100463867, 2.4304471015930176, 3.144045114517212, -5.129179954528809, 0.06391774117946625, -2.0405805110931396, -1.4913276433944702, 3.0301413536071777, -2.9015183448791504, -6.768287658691406, -10.257246017456055, -8.572165489196777, 0.19789151847362518, -4.538311004638672, 0.05632159858942032, -0.7400622367858887, -3.8680002689361572, 4.756885528564453, 0.044173333793878555, -0.02096967026591301, 4.773233890533447, -2.2203667163848877, -0.2609739303588867, 7.396039962768555, 2.5000483989715576, -0.21601110696792603, -0.22150184214115143, 2.385831356048584, -9.334978103637695, 4.804110050201416, 4.062947750091553, -0.3088771402835846, -1.331235647201538, -5.394753932952881, 5.911604881286621, 2.3228182792663574, 1.2284046411514282, 0.198367178440094, 0.6114373803138733, 2.193810224533081, 0.14768019318580627, -0.8867908120155334, -2.141552686691284, 1.8921582698822021, -0.08959322422742844, -0.025737406685948372, -0.9913038611412048, -2.7920327186584473, 1.3840385675430298, -4.926934719085693, 4.384166240692139, -2.043828010559082, 0.020951872691512108, 1.5650184154510498, -1.7146137952804565, 7.290378570556641, 4.4010138511657715, -4.188971519470215, 3.6583266258239746, 0.33102947473526, 0.18281976878643036, -1.2830168008804321, 0.014098415151238441, -2.173048257827759, -0.323294997215271, -0.02268730103969574, 0.049195870757102966, -0.0797908678650856, 0.25286149978637695, -1.9952231645584106, 0.009975681081414223, 0.014090822078287601, 2.849766492843628, 9.661266326904297, -0.12724515795707703, -0.06169314309954643, -7.422488689422607, 3.919337511062622, 6.407935619354248, -0.10902556777000427, 0.010066632181406021, -1.8645721673965454, 2.5701115131378174, 0.2773328721523285, -2.9982619285583496, 0.09170231223106384, -1.6842560768127441, -1.8587106466293335, -0.4417060911655426, 2.0385563373565674, 4.399020671844482, 7.277252674102783, -0.13956867158412933, -7.811924934387207, 0.24064017832279205, 3.7531003952026367, 1.9248135089874268, 3.1262848377227783, 0.19417348504066467, 5.807436466217041, 0.10846449434757233, 5.775678634643555, 8.614171981811523, 1.5006016492843628, 4.48344612121582, 1.5151413679122925, -5.74345588684082, -4.209922790527344, 0.3520629107952118, 0.3941587507724762, -0.016175704076886177, 4.6542744636535645, 2.675723075866699, 4.44948673248291, 0.17694149911403656, -0.13186301290988922, 0.1858699768781662, 0.0009467791533097625, -0.07069047540426254, -5.150076389312744, 5.140536308288574, 6.167998313903809, -0.5208279490470886, 1.092719554901123, 0.7075920701026917, -2.145700454711914, 10.185296058654785, -0.11628292500972748, -0.5203757882118225, -1.2891782522201538, 8.041703224182129, 1.5721231698989868, -4.685482501983643, 0.11735884100198746, 6.546194553375244, 7.885244846343994, 1.7250182628631592, 5.74072790145874, -3.8472604751586914, -1.1655656099319458, -0.06202274188399315, 0.024212513118982315, -1.3799867630004883, -0.11849472671747208, -0.5412500500679016, 3.9570093154907227, 0.2549647092819214, 5.38607120513916, -0.06352796405553818, -3.2126107215881348, 1.3458284139633179, -2.599294424057007, 0.2510203719139099, -0.1744527518749237, 4.006478786468506, 0.5378003120422363, -0.13303154706954956, 1.460904598236084, -0.029862551018595695, 2.081719398498535, 3.2575645446777344, 2.408775568008423, 0.014528931118547916, -0.11749394237995148, 2.052809000015259, -0.9231343865394592, -0.16425390541553497, -3.5004796981811523, -2.7003443241119385, -0.015164333395659924, -0.05132964998483658, 2.398838520050049, 7.201253890991211, 1.5760362148284912, -0.6188175678253174, -0.13536666333675385, -0.01857789233326912, 2.3666911125183105, 0.86265629529953, 1.801005482673645, 2.9182634353637695, -0.07649960368871689, 3.099622964859009, 1.6416829824447632, 0.8272577524185181, -1.1255805492401123, 2.3450658321380615, 5.443535804748535, 0.13784362375736237, 0.235611692070961, 2.3245720863342285, -0.009063193574547768, 2.182126045227051, -0.21383872628211975, -0.2674903869628906, -1.9387637376785278, -0.07319994270801544, -0.06077883392572403, -1.3056097030639648, 0.6683668494224548, -4.208218097686768, 0.7829886674880981, -0.4839097559452057, 0.606878399848938, 0.14345967769622803, 2.7245030403137207, 0.05184879153966904, -2.5317060947418213, -2.0492849349975586, 1.5526955127716064, -0.04276260733604431, -0.08820375800132751, 0.5897231698036194, -2.0916337966918945, 0.061246924102306366, -0.3585035800933838, 1.8337640762329102, -2.9779717922210693, 0.004492920823395252, 0.42022156715393066, -1.0353589057922363, -1.9953422546386719, -0.5796440839767456, -0.0022605303674936295, -1.5686030387878418, 0.40831637382507324, 0.4924856126308441, -0.9436734914779663, 1.2099357843399048, 0.08558132499456406, -0.36393624544143677, 0.26682764291763306, -1.5176724195480347, 2.9772450923919678, -2.0413265228271484, -0.8143264055252075, -0.03009278140962124, -0.5100718140602112, 1.3693500757217407, 0.7952243089675903, -3.958939552307129, 2.397826671600342, 2.912086009979248, 2.4326915740966797, 0.39344164729118347, -2.4966821670532227, -0.2598118484020233, -2.036534309387207, 3.504894733428955, 1.101214051246643, -0.95640629529953, -0.4595450758934021, 0.20150135457515717, 3.3062942028045654, 0.07409027963876724, -0.4807685315608978, 1.8942179679870605, 2.7241744995117188, 0.021570557728409767, 0.021430999040603638, -1.354440689086914, -0.6720964312553406, -0.034917689859867096, -2.0275330543518066, 2.5984647274017334, -1.1258288621902466, 0.21300269663333893, 0.3884420692920685, -2.1930363178253174, 0.6697141528129578, 2.3623368740081787, 0.07717999070882797, 3.2361676692962646, 0.9177823066711426, 2.601639747619629, 1.8117072582244873, 6.807729721069336, 0.19790776073932648, 4.3513946533203125, 2.039032459259033, -2.0556328296661377, -0.209224134683609, -1.3344229459762573, -2.5293638706207275, 0.009879535995423794, -0.7250173091888428, 2.0852675437927246, -1.3464275598526, 1.2611361742019653, -0.846967339515686, -1.7610594034194946, 1.3539282083511353, -0.1874086707830429, -0.9394758343696594, 1.1007590293884277, -1.4246432781219482, -3.5982327461242676, -1.832738995552063, -0.34696605801582336, 0.1706777811050415, -0.004702518694102764, 0.7368545532226562, -0.09755709767341614, -2.130321979522705, -0.7225376963615417, -0.9448741674423218, -0.04951174184679985, 0.13198867440223694, 0.5156407356262207, -0.0908222422003746, 0.13351202011108398, 1.2260478734970093, -0.44689199328422546, -1.8662723302841187, -0.08594074100255966, -1.597977876663208, -2.10992169380188, -1.3944296836853027, -2.729278087615967, 0.1178976446390152, -1.453835368156433, 0.6315770149230957, -0.9487332701683044, -0.711376965045929, 1.609423279762268, -0.1944664865732193, -1.6771280765533447, -0.14588339626789093, 0.15297935903072357, 0.453777551651001, -1.319640040397644, 1.8151711225509644, 0.022300010547041893, -2.8430144786834717, -5.740650653839111, 0.9396584630012512, 1.4206655025482178, 0.7808511853218079, 2.3444693088531494, 3.867480993270874, 0.23273572325706482, 1.469192624092102, 0.7258190512657166, 0.4503685534000397, 2.511017084121704, 0.16533628106117249, 0.9181950688362122, 3.0375797748565674, 0.3303315341472626, 6.99692964553833, 0.09686791896820068, 2.914548873901367, 1.5746517181396484, 2.3434691429138184, 0.45357951521873474, -0.04862074553966522, 4.683986186981201, 1.7589731216430664, 0.4493311047554016, 4.086137771606445, 6.1668782234191895, -0.6944587826728821, -0.04503939300775528, -0.7107114791870117, -0.22862836718559265, -1.111109972000122, 5.583571910858154, -0.14783641695976257, 2.5629334449768066, 0.9606163501739502, 2.7941410541534424, 2.3141064643859863, 9.885202407836914, 0.36493468284606934, 0.2177552580833435, 4.624818325042725, 1.5814003944396973, 4.192525386810303, 2.4186604022979736, -1.7308217287063599, 0.010770848020911217, -0.6284662485122681, -1.4802355766296387, -0.2953603267669678, -1.579299807548523, 2.439746379852295, 1.2352547645568848, 0.6067243218421936, -0.16040362417697906, -3.2869110107421875, 2.5919322967529297, -1.8843482732772827, 1.6258320808410645, -2.914689779281616, -1.002976655960083, -2.0732336044311523, -0.03214264661073685, -1.0099798440933228, -0.10366278141736984, 2.8620359897613525, 1.068374752998352, 0.09693124890327454, -0.0793360099196434, 0.0845930427312851, -2.544865131378174, -1.0280590057373047, -0.006428449880331755, 3.02899169921875, -3.137531280517578, 1.8768374919891357, -0.04348990321159363, 0.8751490712165833, -4.365596771240234, 0.29723095893859863, -1.9721417427062988, -0.021956641227006912, 2.7013909816741943, -1.454050064086914, 2.038407564163208, 2.3606863021850586, 1.6797277927398682, -0.015605407766997814, -0.35707569122314453, -0.8957096338272095, 3.6798243522644043, -1.0743300914764404, 2.8710858821868896, -1.3852016925811768, -0.10152959078550339, 1.3960500955581665, -1.6005783081054688, -0.038186103105545044, 0.35399913787841797, -2.322362184524536, 1.2617242336273193, -0.6241387128829956, 0.003859465941786766, 3.2018885612487793, 0.6065586805343628, -0.7311289310455322, -1.1273469924926758, -0.31774479150772095, -0.15546268224716187, 0.08573517948389053, 0.008479123003780842, 0.8280283212661743, 0.0904575064778328, -0.6181556582450867, 0.36990591883659363, 0.21457386016845703, 0.03601967915892601, -0.06069619581103325, 0.7722402215003967, -0.37451183795928955, 0.07446835190057755, 0.7268497943878174, -0.4499869644641876, 1.192131757736206, 0.025865377858281136, -0.6125579476356506, 0.9387828707695007, 0.33089011907577515, 0.6324613690376282, 0.05090288817882538, -0.2355613112449646, -0.7425572276115417, -0.6136990785598755, -0.597651481628418, -0.8251640796661377, 0.0544111542403698, -1.054972529411316, -0.8642910718917847, -0.8820368051528931, -3.1523783206939697, 1.1821318864822388, 3.7953379154205322, 0.047985877841711044, -3.0200703144073486, 2.7885706424713135, -0.31904077529907227, -0.8974367380142212, 4.231585502624512, -3.410598039627075, 1.243186354637146, 0.0772455483675003, -5.626148223876953, -0.9948735237121582, 2.1517584323883057, 2.7770321369171143, 0.73595130443573, 0.23415163159370422, 0.001573161338455975, 0.030592620372772217, -1.9323773384094238, -0.11520032584667206, 1.4356954097747803, -1.0322297811508179, -0.6802862286567688, -0.09274734556674957, -0.05306131765246391, -1.122788667678833, 0.9960135221481323, -0.01059576217085123, -1.4158148765563965, 1.626191258430481, -3.137237071990967, -0.09791500866413116, 1.1946947574615479, -1.623603343963623, -0.28033778071403503, -1.7802085876464844, -0.07439462095499039, -0.25061777234077454, 1.1689387559890747, 1.0405796766281128, 2.032823324203491, 2.03342866897583, 0.04062456637620926, 2.2107737064361572, 2.077432632446289, 1.5862234830856323, 8.327787399291992, -2.7220752239227295], "roundsDim": 6, "className": "finception", "scaleFactor": 3, "typesDim": 3, "bnVarianceA": [2350.708251953125, 3866.79443359375, 2728.903564453125, 4370.48193359375, 5159.962890625, 1913.3447265625, 2421.771484375, 2166.490234375, 3575.032958984375, 1438.2325439453125, 2786.5341796875, 1881.4783935546875, 5214.72314453125, 5700.30322265625, 3387.0615234375, 1922.5244140625, 2796.704833984375, 4420.94580078125, 2592.9462890625, 6932.45751953125, 2479.316650390625, 2550.406494140625, 2632.24365234375, 2288.66845703125, 3541.487548828125, 3007.86083984375, 2977.505859375, 1569.75537109375, 3474.436767578125, 2513.412841796875, 2631.4150390625, 2533.11328125, 2814.770751953125, 2461.473388671875, 1540.25341796875, 598.0772094726562, 2163.76904296875, 2290.6865234375, 1805.5010986328125, 5254.67724609375, 1676.517578125, 2064.541015625, 2996.190673828125, 1868.9619140625, 3330.890869140625, 7222.4853515625, 2957.33642578125, 3933.26025390625], "convBiasA": [-2.835256964317523e-05, 0.00011284211359452456, 3.165104863001034e-05, 1.3408677659754176e-05, 5.059310933575034e-05, -7.112147613952402e-06, 9.830613998929039e-05, -6.820053386036307e-05, 0.00011781560897361487, -1.599004644958768e-05, 6.601776476600207e-06, -1.2109963790862821e-05, 0.00011190323129994795, -9.457241685595363e-05, -3.049358019779902e-05, 4.7124220145633444e-05, 5.8353820350021124e-05, -1.3436957488011103e-05, -1.8532315152697265e-05, 6.478441355284303e-05, 6.205890531418845e-05, 9.914985275827348e-05, -2.013431912928354e-05, -2.5475401344010606e-05, -3.7583336961688474e-05, 1.2001071809208952e-05, -3.279707016190514e-06, 0.0001039675044012256, -9.381818017573096e-06, 2.5371762603754178e-05, 0.00011129730410175398, -1.088324461306911e-05, 2.455678077240009e-05, 1.1067189007007983e-05, 6.096871857153019e-06, -1.3886546184949111e-05, 3.4370270441286266e-05, 4.403874481795356e-05, 0.00012148548557888716, -2.1810585167258978e-05, -3.8793721614638343e-05, -1.5964182239258662e-05, -9.346348815597594e-05, -8.677843288751319e-05, 0.00014180236030369997, -0.00021367950830608606, 1.2889693607576191e-05, -9.955288987839594e-05], "bnGammaB": [3.9918196201324463, -8.903522257242003e-07, 4.519939422607422, 5.262622833251953, 3.8064322471618652, 4.430677890777588, 5.176347732543945, 4.265767574310303, 4.294581890106201, -2.797592287606676e-06, 5.013461112976074, 5.728908061981201, 4.38472843170166, 5.3666205406188965, 4.685817718505859, 6.148890972137451, 4.943309783935547, -1.2444858157323324e-06, 4.249730587005615, -1.8205362266598968e-06, 4.071180820465088, 3.64314341545105, 5.436672687530518, -1.5711863170508877e-06, -3.3492921147626475e-07, 4.990469932556152, 4.346190452575684, 2.1298526462487644e-06, 4.26693868637085, 4.569401741027832, 5.040346622467041, -1.2022196642647032e-06, 4.861332893371582, 4.581594944000244, 4.558888912200928, 4.944806098937988, 2.7298146960674785e-06, 3.6247074604034424, 4.868381977081299, 6.182570457458496, 1.4208102226257324, 4.4690470695495605, 8.420053632107738e-07, 4.637871265411377, 4.672476768493652, 5.573437690734863, 4.908189296722412, 4.098270416259766], "bnMeanA": [-9.866816520690918, 22.45903968811035, 67.52068328857422, 13.499836921691895, 65.01007843017578, -32.1089973449707, 41.27716827392578, -18.38129997253418, 29.874696731567383, -56.635108947753906, 32.10335922241211, 5.853738307952881, 8.510597229003906, -9.793132781982422, -0.9608150124549866, 16.18283462524414, -23.61587905883789, -23.81968116760254, 40.31053161621094, -23.063247680664062, -0.2902112305164337, 54.39611053466797, 68.45257568359375, 54.39504623413086, -26.06568717956543, 38.651878356933594, -5.131652355194092, -14.433631896972656, -19.18389320373535, 19.862714767456055, 49.09310531616211, 38.561885833740234, -38.97813415527344, -5.498832702636719, 0.7841755747795105, -40.77391052246094, 23.776613235473633, 11.678739547729492, 51.59120178222656, -11.565714836120605, -8.530379295349121, -12.341336250305176, 3.4653797149658203, 48.61652755737305, 128.9365234375, 47.47321319580078, 55.70798873901367, 49.5374870300293], "masterInputChannelsDim": 14, "bnBetaB": [-8.446798324584961, -1.499153971672058, -4.172099590301514, -7.726500034332275, -6.40066385269165, -5.997476100921631, -0.4840744733810425, -2.7696030139923096, -4.71433687210083, -2.354201316833496, -4.021846294403076, -0.8135225176811218, -6.58103084564209, -1.7591866254806519, -5.802432060241699, -3.3891310691833496, -2.907589912414551, -1.241300106048584, -5.118416786193848, -1.2832753658294678, -6.115320205688477, -7.460215091705322, -3.524082899093628, -1.6838531494140625, -1.2314735651016235, -4.273777008056641, -2.858936309814453, -1.7364866733551025, -4.727774143218994, -3.807155132293701, -2.9457738399505615, -2.003690481185913, -6.216358661651611, -5.092379093170166, -3.8400449752807617, -5.0185933113098145, -1.3417714834213257, -3.759514093399048, -5.301155090332031, -1.1036051511764526, 1.399851679801941, -5.255108833312988, -1.6532100439071655, -4.2536468505859375, -0.9623834490776062, -6.8808369636535645, -3.3504016399383545, -7.667778015136719], "bnMeanB": [111.39913940429688, -5.761934757232666, 35.43315505981445, 41.47417068481445, 33.83251190185547, 99.46539306640625, -102.27608489990234, -40.99091339111328, 64.08917236328125, 9.189387321472168, -49.01611328125, 13.632354736328125, -42.09648132324219, -10.535998344421387, 53.59754943847656, 58.27389144897461, 93.5901107788086, -2.0480313301086426, 28.286846160888672, 2.813502073287964, 83.51522827148438, 48.94870376586914, -21.067424774169922, -4.886355400085449, -2.9487223625183105, 167.49281311035156, 1.128780484199524, 2.2622783184051514, 48.044315338134766, 86.65779113769531, -126.2627944946289, -8.484768867492676, 155.13807678222656, 106.84656524658203, -60.40857696533203, -124.2826919555664, -0.2959713637828827, -36.985267639160156, 120.95170593261719, 109.69342803955078, 138.2917022705078, 273.3520202636719, 1.0930825471878052, 220.68063354492188, -49.7647705078125, 37.55432891845703, 190.16629028320312, -93.8811264038086], "bnBetaA": [-6.0989580154418945, -6.515989780426025, -3.1915667057037354, -0.9258686900138855, -4.2137322425842285, -9.676623344421387, -3.2317121028900146, -6.034845352172852, -1.9906724691390991, -6.591026782989502, -3.041652202606201, -4.092621326446533, -3.954652786254883, 2.6631791591644287, -4.248159885406494, -5.683871269226074, -2.4901840686798096, -2.7113564014434814, -4.84323263168335, 4.296640396118164, -5.498809337615967, -4.680112838745117, -4.598517417907715, -4.016707897186279, -3.818864583969116, -6.651663780212402, -4.2296953201293945, -5.366194248199463, -4.287896156311035, -2.493105411529541, -4.3958539962768555, -3.4533302783966064, -6.435528755187988, -4.7347493171691895, -4.93704891204834, -5.689212799072266, -7.156452655792236, -4.13338565826416, -5.279481410980225, -2.1051623821258545, -3.9928104877471924, -7.41691255569458, -1.7269704341888428, -5.90245246887207, -4.7055206298828125, 1.274330973625183, -2.7046194076538086, -0.08780713379383087], "inputChannelsDim": 36}, {"bnMean": [4.705782890319824], "bnGamma": [0.1049446165561676], "bnBeta": [0.25064000487327576], "kernelTypesDim": 1, "kernelRoundsDim": 1, "roundsDim": 1, "className": "ception", "upsamplingRoundsDimFactor": 1, "typesDim": 3, "channelsDim": 1, "upsamplingTypesDimFactor": 1, "bnVariance": [2264.402099609375], "convKernel": [-8.116558074951172, -6.802019356655364e-07, 2.2340102195739746, -7.314045429229736, -3.6483936309814453, -3.6777777671813965, -1.8631572723388672, -1.9168822765350342, 3.0778214931488037, 6.694260264339391e-06, 2.23938250541687, -2.0739073753356934, -3.8040192127227783, -2.041896343231201, 3.627310276031494, 3.9587764739990234, 2.2921481132507324, -2.5660744995548157e-06, 3.2207019329071045, -3.0970088573667454e-06, 4.0756754875183105, 6.531923294067383, -2.1724705696105957, -1.8849364096240606e-06, -2.5997007924161153e-06, 2.5282742977142334, 2.0520527362823486, 2.7710766516975127e-06, -2.299830913543701, -1.7651331424713135, -2.092592477798462, -3.996133273176383e-06, -4.606142520904541, -3.6924893856048584, -2.3142523765563965, -2.227710485458374, -6.695784122712212e-07, -1.7703182697296143, 3.494624614715576, -2.2671451568603516, -1.189085602760315, -3.7198119163513184, 7.647146958333906e-06, -2.603421449661255, -1.2531954050064087, -4.371756553649902, -1.8460506200790405, 5.171140670776367], "convBias": [0.001849980209954083], "inputChannelsDim": 48}]