[{"roundsDim": 6, "typesDim": 3, "typeRoundChannelsDim": 2, "typeChannelsDim": 2, "singleChannelsDim": 1, "className": "hyception", "roundChannelsDim": 1}, {"upsamplingRoundsDimFactor": 1, "roundsDim": 6, "convBias": [0.001818219549022615, 0.04956183210015297, 0.0035280357114970684, -0.013640458695590496, -0.004180879332125187, 0.003993005957454443, 0.009192302823066711, -0.017748290672898293, -0.012363486923277378, 0.0025293256621807814, 0.0061339023523032665, -0.014912416227161884, -0.018913520500063896, 0.004910802002996206, -5.2417082770261914e-05, 0.008420280180871487, -0.004174677189439535, -0.006173058412969112, -0.0028325750026851892, -0.006158559117466211, 0.021017450839281082, 0.008888592943549156, 0.005100947339087725, 0.0009435400716029108], "kernelTypesDim": 1, "convKernel": [0.5171597003936768, 0.04740191996097565, -0.3560537099838257, -0.27652809023857117, 0.5246841907501221, -0.18663205206394196, -0.020589390769600868, -0.0459572933614254, 0.16857799887657166, -0.26592370867729187, -0.23065315186977386, 0.11347150802612305, -0.3770679235458374, -0.14469566941261292, 0.002873130841180682, 0.3046105206012726, 0.14867477118968964, 0.28806787729263306, -0.22534334659576416, 0.10556937754154205, 0.43084126710891724, -0.1462710201740265, 0.5777402520179749, -1.2496190071105957, -0.6099516749382019, 0.031261835247278214, -0.49243780970573425, -0.41486868262290955, -0.27888795733451843, -0.2750592529773712, -0.5631605982780457, -0.14375869929790497, -0.2678987979888916, 0.1834482103586197, -0.16697533428668976, 0.025818364694714546, 0.2761780619621277, 0.6406668424606323, 0.19627903401851654, -0.1350797414779663, -0.25187060236930847, 0.22588896751403809, -0.2919309735298157, -0.4237395226955414, -0.010760671459138393, -0.02467997372150421, -0.49069204926490784, -0.24385808408260345, -0.4364112913608551, -0.13993534445762634, -0.06598607450723648, -0.350512832403183, 0.1408429741859436, -0.07895208895206451, -0.01030876487493515, -0.7561704516410828, 0.007712028454989195, -0.4994067847728729, 0.6393256783485413, -0.047906942665576935, 0.1697816699743271, 0.16833458840847015, 0.25732192397117615, -0.37228357791900635, 0.21070563793182373, 0.33042946457862854, 0.6830452084541321, 0.20649203658103943, 0.19191128015518188, -1.184393048286438, -0.2692950367927551, 0.42820048332214355, 0.3690231740474701, 0.04004933312535286, -0.14317552745342255, -0.03338000550866127, -0.3771306574344635, -0.2586064338684082, 0.43181365728378296, 0.15518808364868164, -0.6937714219093323, -0.49263301491737366, -0.08095210045576096, 0.5481756329536438, 0.31516218185424805, -0.1733657270669937, -0.00866652186959982, -0.02456233650445938, 0.13553491234779358, -0.06358470022678375, 0.2675495147705078, -0.12542931735515594, -0.28898119926452637, -0.046444136649370193, 0.21062541007995605, -0.10324975848197937, -0.20619332790374756, 0.7119971513748169, -0.018658051267266273, -0.1443413943052292, 0.37506556510925293, -0.026834219694137573, 0.006800354924052954, 0.5565703511238098, 0.11302593350410461, -0.2045178860425949, -0.08531088382005692, 0.047796089202165604, -0.18314234912395477, 0.011970637366175652, -0.09398308396339417, -0.1292470246553421, -0.3073934316635132, -0.0013369359076023102, -0.128168523311615, -0.10789939016103745, -0.591766357421875, -0.7057068943977356, 0.2820951044559479, -0.04801473021507263, 0.15627864003181458, 0.16754555702209473, 0.15421608090400696, -0.008394748903810978, 0.21464723348617554, -0.2396332323551178, -0.30479955673217773, 0.37667596340179443, -0.105994313955307, -0.12318595498800278, -0.13261261582374573, -0.12185920774936676, 0.03256699815392494, -0.15037530660629272, 0.012116173282265663, -0.003155805403366685, -0.4351522624492645, 0.4956842362880707, -0.10079903155565262, 0.06934547424316406, 0.29607093334198, 0.017761124297976494, -0.16408655047416687, 0.16846756637096405, -0.1829340159893036, -0.2619903087615967, 0.7603902816772461, -0.17882302403450012, 0.1658831685781479, 0.11834930628538132, -0.4965938925743103, -0.15936997532844543, 0.045146774500608444, -0.22121015191078186, -0.06398539245128632, -0.011821840889751911, -0.5549803376197815, 0.07352323085069656, -1.6839838027954102, -0.5979698300361633, 0.6883714199066162, 0.7120621800422668, 0.2637934982776642, -0.38141974806785583, -0.3679159879684448, 0.0018804181599989533, -0.03761135786771774, 0.1161675900220871, 0.238548144698143, -0.03042040765285492, 0.0041527352295815945, 0.13494175672531128, 0.05096486210823059, 0.0965561643242836, 0.3260357677936554, 0.221073716878891, 0.3294049799442291, 0.22771498560905457, 0.18306484818458557, -0.05643629655241966, 0.03921595588326454, -0.47803646326065063, 0.23370426893234253, 0.12521959841251373, 0.3530500829219818, 0.09939374029636383, 0.4860891103744507, 0.11813328415155411, -0.21909189224243164, 0.04335733875632286, -0.0915614515542984, 0.05951836332678795, -0.06096416711807251, -0.24795597791671753, -0.23015007376670837, -0.39314574003219604, -0.44728386402130127, 0.1172938272356987, -0.20936207473278046, 0.1605566293001175, 0.03507025167346001, 0.15451817214488983, 0.1606161892414093, 0.06938871741294861, 0.3770218789577484, -0.07034908980131149, 0.12437205761671066, 0.07807173579931259, -0.6231442093849182, -0.47776904702186584, -0.34377071261405945, 0.1929580271244049, 0.3297303318977356, 0.005257069133222103, 0.0248564463108778, 0.02900725044310093, -0.02557235397398472, 0.1770557016134262, -0.10017718374729156, 0.38887637853622437, -0.17523707449436188, 0.5956094264984131, 0.022313393652439117, -0.29357269406318665, 0.2702445387840271, -0.11701106280088425, -0.41893520951271057, -0.5294472575187683, -0.3921566307544708, -0.042418092489242554, 0.012241476215422153, 0.1415729969739914, 0.13095910847187042, 0.11073929071426392, -0.25301480293273926, -0.1723763793706894, 0.17911671102046967, 0.12631170451641083, 0.06514681875705719, -0.2182934731245041, 0.08544742316007614, 0.193828284740448, 0.25674742460250854, 0.5449594259262085, 0.1654461920261383, -0.26225724816322327, 0.34400641918182373, -0.16767634451389313, -0.2747116982936859, -0.03899069502949715, -0.17599362134933472, -0.025038396939635277, -0.32581648230552673, -0.00483583752065897, 0.3528076708316803, -0.08553516864776611, 0.4978333115577698, 0.07751626521348953, 0.04720178246498108, -0.1486368179321289, -0.14454518258571625, -0.0026188192423433065, -0.06195204704999924, -0.03849870711565018, -0.035150449723005295, -0.1917598843574524, -0.1071476936340332, 0.12009360641241074, 0.08565456420183182, 0.46724051237106323, -0.14581456780433655, -0.3663072884082794, -0.024084357544779778, 0.25842371582984924, -0.05276862159371376, 0.08645185828208923, 0.02761908248066902, -0.03694396838545799, 0.20538471639156342, 0.010937889106571674, 0.1794203668832779, 0.3675612509250641, -0.1566299945116043, 0.09574761986732483, 0.09785383939743042, 0.06005167216062546, -0.0017382133519276977, 0.19663868844509125, 0.25435832142829895, 0.6061509847640991, 0.2525478005409241, -0.007128673605620861, -0.26975905895233154, 0.10303933173418045, 0.3915955424308777, -0.5985337495803833, 0.27101871371269226, -0.13713078200817108, 0.04016090929508209, -0.02155698463320732, 0.33112993836402893, -0.08570549637079239, -0.08385691791772842, 0.6518632769584656, 0.23877637088298798, 0.22924867272377014, 0.03616839647293091, 0.3035013675689697, 0.18156744539737701, -0.15499848127365112, -0.006361569743603468, -0.4506661295890808, 0.039772097021341324, 0.07140924036502838, -0.19519536197185516, -0.058670394122600555, -0.16653603315353394, -0.07911836355924606, 0.02341325953602791, 0.18790759146213531, -0.21817433834075928, 0.17067202925682068, -0.03016950748860836, -0.013230353593826294, -0.11243398487567902, 0.0008043497800827026, 0.03213127329945564, -0.12947699427604675, -0.13241027295589447, 0.006247925106436014, -0.002532482147216797, 0.5155876874923706, 0.0316113717854023, -0.10879872739315033, 0.013563509099185467, 0.05794494226574898], "kernelRoundsDim": 1, "inputChannelsDim": 14, "className": "ception", "bnMean": [0.21476531028747559, 0.3761093020439148, -0.5015103816986084, 0.13499410450458527, -0.7716382145881653, 0.3563370704650879, 0.2598635256290436, -0.2751900255680084, -0.3708171248435974, -0.3853442370891571, -0.5283358097076416, -0.13551102578639984, 9.621487697586417e-05, -0.25477373600006104, 0.2144276201725006, 0.12356562167406082, 0.28921976685523987, 0.6105833053588867, 0.07448513060808182, -0.014480316080152988, 0.029775764793157578, -0.20761461555957794, -0.019685933366417885, -0.4266720116138458], "bnVariance": [0.057095807045698166, 0.06401022523641586, 0.0637851282954216, 0.04477588087320328, 0.08176904171705246, 0.04369570314884186, 0.06649186462163925, 0.11502380669116974, 0.10720609873533249, 0.13272352516651154, 0.06188395991921425, 0.03242221847176552, 0.035289183259010315, 0.025221506133675575, 0.05396616458892822, 0.041343867778778076, 0.04844096675515175, 0.09388945251703262, 0.03980928659439087, 0.10831295698881149, 0.04029536619782448, 0.16571460664272308, 0.043730977922677994, 0.07858484983444214], "bnBeta": [-0.09117676317691803, -0.17124706506729126, -0.49792003631591797, -0.6016983389854431, 0.38958126306533813, -0.32668811082839966, 0.19423478841781616, -0.26885199546813965, -0.36692118644714355, -0.13900375366210938, -0.04991528391838074, -0.5733088254928589, -0.0633847713470459, -0.23262353241443634, 0.2566702961921692, 0.49219194054603577, 0.05632924288511276, 1.1242225170135498, 0.42210784554481506, 0.00613816361874342, 0.023943111300468445, -0.348207026720047, -0.11577390134334564, -0.3253012001514435], "typesDim": 3, "bnGamma": [1.3334500789642334, 0.8819647431373596, 0.8636946678161621, 0.92994624376297, 0.7213444709777832, 0.7567548751831055, 1.1787680387496948, 0.9433030486106873, 0.9360635280609131, 1.0033519268035889, 1.1144732236862183, 1.4757944345474243, 0.8305714130401611, 1.3673843145370483, 0.7751487493515015, 1.0242747068405151, 0.7429504990577698, 0.8166630864143372, 0.8235419392585754, 0.976472020149231, 0.9654052257537842, 1.6473137140274048, 1.155957818031311, 1.0744987726211548], "upsamplingTypesDimFactor": 1, "channelsDim": 24}, {"bnGammaD": [0.9745341539382935, 1.1206375360488892, 0.9364199638366699, 0.9035444259643555, 1.160022497177124, 0.6516505479812622, 0.837388813495636, 0.8127791881561279, 1.0689607858657837, 0.7406483292579651, 0.7896641492843628, 0.8734090328216553, 1.1605952978134155, 0.7788838744163513, 1.0664926767349243, 1.063912034034729], "convKernelD": [-0.07873614132404327, 0.17954356968402863, -0.06562036275863647, -0.565682053565979, 0.19520707428455353, 0.17861802875995636, 0.38659393787384033, -0.06059865653514862, 0.3105587959289551, -0.4156523644924164, -0.2972888946533203, 0.1505526900291443, -0.4040904641151428, 0.04227470979094505, 0.6095245480537415, 0.13557526469230652, -0.193593829870224, 0.255880206823349, 0.26203107833862305, 0.4229965806007385, 0.20539434254169464, -0.3619803488254547, -0.34154245257377625, -0.006758924573659897, -0.5372180938720703, -0.4130135476589203, 0.01617562398314476, 0.2372741550207138, 0.13152749836444855, 0.1339026242494583, -0.22253023087978363, 0.27899646759033203, 0.14648272097110748, 0.05568474903702736, 0.06465478986501694, 0.33875393867492676, -0.17550607025623322, -0.12103763222694397, -0.28379467129707336, 0.4979747533798218, -0.3661329746246338, -0.17712289094924927, -0.15610545873641968, 0.4679655432701111, 0.17526528239250183, -0.16694790124893188, -0.2152637243270874, 0.22290706634521484, -0.17842814326286316, -0.4609384834766388, 0.1137470230460167, -0.07892382144927979, 0.30044832825660706, -0.5609946846961975, -0.23681341111660004, -0.3288780152797699, 0.38581523299217224, -0.539157509803772, 0.12859299778938293, -0.33083781599998474, 0.4700460433959961, 0.16639915108680725, 0.12595461308956146, 0.07553786784410477, 0.0197885874658823, 0.19495348632335663, 0.22362565994262695, 0.5811466574668884, 0.017111269757151604, -0.6616366505622864, -0.4700816869735718, 0.09989310801029205, -0.16407771408557892, 0.3848358392715454, -0.07606115192174911, 0.15331751108169556, -0.34824711084365845, 0.29425960779190063, -0.3465000092983246, 0.29813969135284424, -0.7068455219268799, 0.11892395466566086, 0.46690288186073303, 0.06955089420080185, 0.22072462737560272, 0.28182414174079895, 0.3481108546257019, 0.1328100711107254, 0.1725851148366928, -0.18158958852291107, 0.01147100143134594, 0.2901730537414551, 0.03605816885828972, -0.23050399124622345, 0.18973049521446228, -0.28671979904174805, 0.6406099200248718, 0.5851532816886902, 0.10418679565191269, -0.4222143590450287, -0.1750861257314682, -0.22317573428153992, -0.2422436624765396, -0.42166003584861755, 0.20724542438983917, 0.27053821086883545, -0.42551273107528687, -0.42813727259635925, -0.014746276661753654, 0.21239084005355835, 0.7410290241241455, -0.3590098023414612, -0.49114465713500977, 0.04662727564573288, -0.5260440111160278, 0.17616288363933563, -0.4159027338027954, 0.42140844464302063, 0.14313185214996338, -0.08670862764120102, 0.05510985478758812, 0.012562945485115051, -0.23916484415531158, -0.18685179948806763, -0.07355983555316925, -0.2607506811618805, 0.5054796934127808, 0.14997097849845886, 0.22427113354206085, 0.4749898314476013, 0.3229745626449585, -0.048166051506996155, -0.015825331211090088, 0.20145712792873383, -0.12350156903266907, -0.23625175654888153, 0.19221939146518707, -0.14589355885982513, -0.30541250109672546, -0.141520693898201, -0.03184055536985397, -0.10293370485305786, 0.29042232036590576, -0.09556300938129425, 0.012531580403447151, -0.2452591508626938, 0.021940000355243683, -0.06693173199892044, 0.019941296428442, -0.08664312958717346, 0.028182609006762505, 0.02237715758383274, -0.07720070332288742, -0.07007033377885818, 0.007839728146791458, -0.017814792692661285, 0.024757646024227142, 0.045957230031490326, 0.07211039215326309, 0.08440124243497849, -0.026522893458604813, 0.103551484644413, -0.03890320658683777, -0.011588427238166332, 0.043650396168231964, -0.1540512889623642, -0.046414218842983246, 0.08640801906585693, 0.016270531341433525, 0.1286577582359314, -0.22190739214420319, -0.062053974717855453, -0.1013534814119339, -0.05023323744535446, -0.11420467495918274, -0.05790010839700699, -0.02561519481241703, -0.427383691072464, 0.2702206075191498, -0.1989375501871109, 0.20416325330734253, -0.3133324682712555, -0.024021297693252563, -0.166249081492424, -0.2386682778596878, -0.31052279472351074, 0.01201466005295515, -0.11461716145277023, -0.08521472662687302, 0.059086039662361145, -0.07338880002498627, 0.2488306760787964, -0.14783674478530884, -0.3592209219932556, 0.20680713653564453, -0.05048275738954544, -0.204149067401886, -0.14527222514152527, 0.2860393524169922, 0.19995252788066864, 0.016406210139393806, -0.41113439202308655, 0.02263782173395157, 0.32215818762779236, 0.1885681450366974, 0.187687948346138, -0.16392271220684052, -0.0800592303276062, 0.04940950125455856, -0.058904606848955154, -0.058747291564941406, -0.08315795660018921, 0.05073731392621994, -0.06118407100439072, -0.17860658466815948, -0.15757523477077484, 0.07916714996099472, 0.1515948325395584, -0.17227903008460999, 0.04901495948433876, -0.028644565492868423, -0.024549346417188644, 0.05675471946597099, -0.09665386378765106, -0.07205527275800705, 0.20282484591007233, 0.2500103712081909, -0.046168580651283264, -0.14617666602134705, -0.030659854412078857, 0.08229846507310867, 0.08165182173252106, -0.05837080627679825, -0.41854652762413025, 0.16783380508422852, 0.24400876462459564, 0.08435346186161041, 0.11386504024267197, 0.19739188253879547, -0.08295819163322449, -0.43730437755584717, -0.16856764256954193, 0.030908986926078796, 0.19048228859901428, 0.04638383910059929, 0.34630048274993896, 0.2349143773317337, 0.10621633380651474, 0.07065491378307343, -0.20479440689086914, 0.289188414812088, 0.3206118643283844, 0.12574727833271027, 0.23293642699718475, 0.04199199005961418, -0.32389697432518005, -0.025608059018850327, -0.06629031151533127, 0.3339414596557617, 0.06997298449277878, 0.025763027369976044, -0.2405519187450409, -0.03790771961212158, -0.010556071065366268, 0.03939845785498619, 0.08879126608371735, 0.06039794534444809, -0.0035220938734710217, 0.03529409319162369, 0.1765325367450714, 0.11897319555282593, 0.18676809966564178, -0.05843177065253258, -0.19620655477046967, 0.18536131083965302, -0.15297861397266388, -0.18774431943893433, 0.06900735944509506, 0.32860925793647766, -0.09553644806146622, 0.11182145029306412, 0.03762553632259369, 0.06716366112232208, -0.24260839819908142, -0.1234617531299591, -0.09501198679208755, 0.12637338042259216, -0.39767876267433167, 0.040513038635253906, -0.18306687474250793, 0.08586092293262482, -0.2770780622959137, 0.028359446674585342, 0.07006227225065231, 0.073440782725811, -0.0008274263236671686, -0.02315330132842064, -0.12936238944530487, -0.18779343366622925, 0.032900597900152206, 0.05706239491701126, 0.2943541705608368, -0.17905506491661072, -0.06706684082746506, -0.004969174042344093, 0.07439833879470825, -0.05999403074383736, -0.15009723603725433, -0.024807292968034744, -0.2767893373966217, 0.035587262362241745, -0.17982254922389984, -0.01749517396092415, 0.10249104350805283, 0.27783435583114624, 0.040007010102272034, -0.09978844970464706, 0.060392312705516815, 0.0975489392876625, 0.17933514714241028, -0.06960507482290268, -0.036252569407224655, -0.026415780186653137, -0.2171773463487625, 0.11004647612571716, -0.1789204180240631, 0.008577005937695503, 0.1487274020910263, 0.05771641433238983, 0.045823510736227036, 0.0755324736237526, -0.023266835138201714, 0.05221661552786827, -0.08789333701133728, 0.0015875485260039568, -0.18720075488090515, -0.0733095183968544, -0.022552156820893288, -0.04963737726211548, -0.03374387323856354, -0.09550860524177551, 0.1955665796995163, -0.025998732075095177, -0.0006959608290344477, 0.07008076459169388, -0.02336779609322548, -0.07153335958719254, 0.0005078284884802997, -0.02105947583913803, -0.007068288512527943, -0.1187334731221199, 0.21049299836158752, -0.042537182569503784, -0.16301347315311432, 0.003267332212999463, 0.004533844999969006, -0.00950370542705059, -0.011232297867536545, -0.01251403521746397, 0.06740337610244751, 0.0754472091794014, -0.060141097754240036, 0.14132601022720337, 0.012568803504109383, 0.08399739861488342, 0.11970076709985733, 0.0395343080163002, -0.10258126258850098, 0.12021003663539886, -0.13951244950294495, -0.035975418984889984, 0.0975324884057045, 0.01812206581234932, 0.06267815828323364, -0.3649680018424988, -0.10778923332691193, 0.02016056329011917, -0.2937670648097992, -0.006044017616659403, -0.007066745776683092, 0.23643553256988525, 0.07338029146194458, 0.03030623123049736, -0.08784219622612, 0.11163052171468735, -0.16609609127044678, 0.21129891276359558, 0.08669742941856384, 0.08788222074508667, 0.018833357840776443, -0.20391882956027985, -0.18934135138988495, 0.11350107938051224, 0.24575814604759216, 0.11683967709541321, -0.04976294934749603, -0.004047230817377567, 0.08390440046787262, 0.09513843059539795, 0.0996122807264328, -0.055538956075906754, -0.10040170699357986, 0.09141179919242859, -0.03186971694231033, -0.1551358550786972, 0.03592228144407272, 0.13066796958446503, 0.09481722861528397, -0.016892893239855766, 0.1980070173740387, 0.13096113502979279, -0.10272128134965897, -0.06717371940612793, -0.11675489693880081, 0.05397539585828781, -0.2501904368400574, 0.1130480170249939, 0.029041064903140068, 0.09764937311410904, -0.2553233206272125, 0.22803626954555511, 0.21681706607341766, 0.08614907413721085, -0.07684215903282166, 0.0920548215508461, -0.19692334532737732, -0.14189141988754272, 0.11721623688936234, 0.11824513971805573, 0.2964872121810913, -0.1010163277387619, -0.10383745282888412, 0.15744152665138245, 0.008675135672092438, -0.18039041757583618, -0.07733127474784851, 0.07662148773670197, -0.07718778401613235, -0.005682975519448519, -0.031052637845277786, -0.04404638335108757, 0.03396905958652496, 0.268176406621933, 0.0838092491030693, -0.033630624413490295, 0.0954454317688942, 0.05296371504664421, -0.033819425851106644, -0.1513841152191162, -0.05159219354391098, 0.11554711312055588, -0.23570366203784943, 0.09077852219343185, -0.18082113564014435, 0.1626797616481781, -0.028829416260123253, 0.11402356624603271, -0.0824255421757698, -0.07470560818910599, -0.011481959372758865, 0.038962870836257935, -0.015459777787327766, 0.051853347569704056, -0.1169402226805687, 0.016233621165156364, -0.1573602557182312, -0.11130532622337341, -0.003353746375069022, -0.17492808401584625, 0.14416852593421936, -0.0840773954987526, -0.04594779014587402, 0.11265605688095093, 0.057555191218853, -0.041605591773986816, 0.06694015115499496, -0.07548323273658752, 0.015553188510239124, 0.01448298804461956, 0.28810885548591614, -0.05659810081124306, 0.014728552661836147, 0.0426844023168087, 0.1149178072810173, 0.13835673034191132, -0.10649021714925766, 0.10631583631038666, -0.03896879404783249, 0.01381320133805275, -0.007010920904576778, 0.04273965209722519, -0.05689409747719765, 0.05668024718761444, 0.1346244513988495, 0.06895922869443893, -0.014696932397782803, -0.05767178162932396, -0.1243315264582634, 0.04878126084804535, 0.06784262508153915, 0.05358188971877098, -0.30771350860595703, -0.13192270696163177, -0.13783884048461914, -0.12939190864562988, -0.10291069746017456, -0.22954440116882324, -0.03510671481490135, 0.07437724620103836, -0.09144176542758942, 0.008624456822872162, 0.012688853777945042, 0.07673615217208862, -0.26728931069374084, 0.10045717656612396, 0.09696841984987259, 0.10221659392118454, -0.06095496937632561, -0.19356124103069305, -0.09302228689193726, 0.03748079761862755, 0.14897917211055756, 0.10410667210817337, -0.016839010640978813, -0.0011974561493843794, -0.09027647227048874, 0.133612260222435, 0.03369872272014618, -0.05851120501756668, -0.15160439908504486, -0.00025178524083457887, 0.0022902071941643953, -0.059643279761075974, -0.1323404461145401, 0.09811042249202728, 0.0489804670214653, -0.1424204707145691, 0.12861277163028717, 0.09069177508354187, -0.1204385757446289, -0.04188341647386551, -0.061324164271354675, -0.055697329342365265, -0.3523707687854767, -0.04558521509170532, -0.05548945441842079, -0.0389973446726799, -0.19351822137832642, 0.12250931560993195, 0.15363459289073944, 0.12709788978099823, 0.002009081654250622, 0.03397505730390549, 0.038747940212488174, -0.17825034260749817, 0.10776215046644211, 0.07639443129301071, 0.2886612117290497, -0.07743527740240097, -0.03835530951619148, 0.09167119860649109, 0.062276825308799744, -0.3169366717338562, 0.10035134106874466, -0.036084309220314026, -0.08011211454868317, 0.019321227446198463, -0.024308202788233757, -0.16218392550945282, 0.05421293526887894, 0.3116057515144348, 0.1812194436788559, -0.09304624795913696, 0.12971892952919006, -0.04131118208169937, -0.013156512752175331, -0.04577133432030678, 0.027269305661320686, 0.0944923534989357, -0.15266753733158112, 0.12785543501377106, -0.054044920951128006, 0.28499844670295715, -0.03068632073700428, 0.01988646388053894, -0.13066045939922333, -0.017184428870677948, 0.006053751800209284, 0.0521942637860775, -0.05064549297094345, 0.14282630383968353, -0.06659550964832306, 0.015979621559381485, -0.23475272953510284, -0.07557147741317749, -0.03179587796330452, -0.10980208963155746, 0.05226926505565643, -0.17389005422592163, 0.019161460921168327, 0.05145304650068283, 0.0698995292186737, -0.0315968319773674, -0.01669885218143463, -0.005092679522931576, -0.09946020692586899, 0.06843757629394531, 0.05890869349241257, -0.028305599465966225, 0.1116839125752449, -0.1170402392745018, 0.027900997549295425, 0.08444821834564209, -0.0710809975862503, 0.17069578170776367, 0.13940009474754333, 0.07445498555898666, -0.05482122302055359, -0.0006095478311181068, -0.11301382631063461, 0.04250737279653549, 0.13628651201725006, -0.030679719522595406, -0.03469718247652054, -0.07253606617450714, -0.1210797056555748, 0.01183830015361309, -0.14904436469078064, -0.015857066959142685, -0.23914271593093872, 0.07071097195148468, 0.20650330185890198, 0.07776675373315811, 0.09911076724529266, -0.29513680934906006, -0.07704100757837296, -0.018167531117796898, -0.005834201816469431, 0.05502914637327194, -0.08089672029018402, 0.006881412118673325, -0.20560643076896667, -0.2108975350856781, -0.027172187343239784, 0.28519967198371887, -0.31936630606651306, 0.15830068290233612, -0.29627498984336853, -0.5658180713653564, 0.0778375044465065, 0.07513228058815002, 0.3387066721916199, -0.05605615675449371, 0.1345755159854889, -0.3376695513725281, 0.04590552672743797, -0.15208083391189575, -0.012014895677566528, 0.0897827297449112, 0.11339863389730453, -0.0548875629901886, -0.22491268813610077, 0.038905851542949677, 0.2693455219268799, -0.12430739402770996, -0.010384785011410713, -0.11626426875591278, -0.30739691853523254, 0.6060128808021545, 0.3585759401321411, -0.1365237981081009, -0.27824899554252625, -0.03032011166214943, -0.010655438527464867, -0.304909348487854, -0.055179886519908905, -0.04568113014101982, -0.10506627708673477, -0.35981833934783936, -0.1615331619977951, 0.13344807922840118, 0.03460494801402092, -0.3787345886230469, 0.06636322289705276, 0.2573903203010559, 0.6195220351219177, -0.2272443324327469, -0.14739525318145752, 0.02513904497027397, -0.031552888453006744, -0.16298070549964905, 0.0854349136352539, -0.4160133898258209, -0.05026664584875107, -0.14345169067382812, 0.04823813959956169, 0.0544714480638504, 0.053728535771369934, 0.1019756868481636, 0.3100932538509369, 0.20258088409900665, 0.020455138757824898, 0.11045932024717331, -0.11362946033477783, -0.05011583864688873, -0.17222309112548828, -0.31963425874710083, -0.2710671126842499, -0.10463859140872955, 0.16120794415473938, -0.012937811203300953, 0.37040919065475464, 0.17945373058319092, -0.2510569989681244, 0.23172253370285034, -0.26765725016593933, -0.16846010088920593, 0.12618517875671387, 0.13278265297412872, -0.392959862947464, 0.14450639486312866, -0.2843300998210907, -0.04543310031294823, 0.046565309166908264, -0.3255101144313812, -0.168950617313385, -0.1052837148308754, -0.0893910676240921, -0.601213812828064, -0.19878868758678436, 0.11052100360393524, -0.30382588505744934, 0.9448667764663696, -0.34059152007102966, 0.36380133032798767, 0.13909591734409332, -0.14789940416812897, 0.05961684510111809, -0.28361067175865173, 0.10026440769433975, 0.3772292137145996, -0.1761755645275116, 0.059808649122714996, 0.488452672958374, 0.12160656601190567, -0.05955672264099121, -0.2624817490577698, 0.0629243403673172, 0.1239975094795227, 0.17973054945468903, -0.09710507839918137, -0.024990221485495567, 0.044155895709991455, 0.09307009726762772, -0.16100727021694183, -0.15374219417572021, -0.3148490786552429, -0.04931795224547386, -0.12445402145385742, 0.02754044532775879, -0.13171005249023438, 0.04035237431526184, -0.014926846139132977, -0.21209841966629028, 0.021984193474054337, 0.1173417866230011, -0.09316188842058182, -0.09488024562597275], "convKernelA": [-0.040911588817834854, 0.25152990221977234, 0.0457928404211998, -0.16868554055690765, 0.17375785112380981, -0.40278008580207825, 0.2672617733478546, -0.3735138177871704, 0.2932228446006775, -0.2947266399860382, -0.10396536439657211, 0.2350718230009079, -0.23316794633865356, 0.2509945034980774, -0.17693933844566345, -0.0989035964012146, 0.2294243723154068, 0.0697953999042511, 0.14425387978553772, 0.2916671335697174, -0.23132388293743134, 0.032273899763822556, 0.05438714474439621, 0.20972634851932526, -0.7354425191879272, 0.16373948752880096, -0.03757493942975998, -0.19145500659942627, -0.02592611312866211, -0.10721318423748016, 0.20279300212860107, 0.13982811570167542, -0.2546415328979492, -0.17529839277267456, -0.943019688129425, -0.13746652007102966, 0.1585463136434555, -0.04329250752925873, -0.30047693848609924, 0.5047346949577332, 0.315216600894928, -0.27344343066215515, -0.10313185304403305, 0.24370917677879333, -0.33920320868492126, 0.1367228925228119, -0.21315623819828033, -0.5159599781036377, -0.05538347736001015, -0.6198104023933411, -0.2322569489479065, -0.11838503926992416, 0.018469344824552536, -0.2907073199748993, 0.17925384640693665, 0.041236091405153275, 0.26448991894721985, -0.5497278571128845, -0.28936275839805603, -1.004935622215271, -0.446189284324646, 0.15869168937206268, 0.2902728319168091, -0.13406550884246826, -0.11704433709383011, 0.31134700775146484, -0.5377482175827026, 0.11725333333015442, 0.35869282484054565, 0.4632485508918762, 0.37271660566329956, -0.05351812019944191, -0.47705280780792236, 0.1020536720752716, 0.7150639891624451, -0.35651177167892456, -0.024663465097546577, 0.4939265847206116, 0.5640144944190979, -0.765049934387207, -0.191880464553833, -0.10607298463582993, -0.3284178376197815, 0.1743709295988083, -0.31511181592941284, 0.1369776874780655, -0.3585706651210785, -0.06751027703285217, -0.45355480909347534, -0.19244202971458435, -0.41431573033332825, -0.04293748736381531, 1.084558367729187, -0.41557279229164124, 0.8553408980369568, -0.20874321460723877, 0.00038575849612243474, 0.2502205967903137, -0.17630018293857574, 0.12579186260700226, 0.4447104334831238, -0.7202730774879456, 0.2039530724287033, 0.30875909328460693, 0.026341313496232033, -0.0755426362156868, -0.020236710086464882, -0.4201734662055969, 0.3325663208961487, -0.09685162454843521, -0.2139747142791748, -0.33725473284721375, -0.02960118278861046, 0.30990472435951233, -0.08608678728342056, -0.17670074105262756, 0.005868186242878437, 0.36221712827682495, -0.19629280269145966, 0.15382832288742065, -0.13576751947402954, -0.48686063289642334, 0.21469749510288239, -0.11024872958660126, -0.27084773778915405, 0.25188592076301575, 0.016226792708039284, -0.16245920956134796, -0.36231333017349243, -0.07149352878332138, -0.3690173327922821, 0.2421555072069168, -0.232493594288826, -0.14062419533729553, -0.03097253106534481, 0.23850207030773163, -0.14508506655693054, -0.10081858932971954, -0.323844313621521, 0.1983260065317154, -0.019789397716522217, -0.46992015838623047, 0.0011636284179985523, 0.0252399705350399, -0.4190210700035095, 0.06562025099992752, -0.257158100605011, 0.12399452179670334, 0.006667177192866802, -0.3119138479232788, -0.14680062234401703, 0.039563849568367004, -0.07294057309627533, 0.2725750505924225, 0.32039234042167664, -0.22860676050186157, 0.28850409388542175, -0.14030621945858002, 0.1467912793159485, 0.31818631291389465, -0.521843433380127, -0.03777338191866875, -0.3039965033531189, 0.6140385270118713, -0.40367361903190613, 0.24254430830478668, -0.24305082857608795, -0.5614684224128723, 0.0845848023891449, -0.5717119574546814, 0.3184069097042084, -0.1099778488278389, 0.13177062571048737, 0.3824838697910309, -0.06218872219324112, 0.4968126118183136, 0.5143409967422485, 0.30867859721183777, 0.17556792497634888, 0.373178094625473, 0.12293431162834167, 0.14503130316734314, -0.18673869967460632, -0.06290698051452637, -0.29948270320892334, 0.18163682520389557, -0.2675669491291046, -0.22168034315109253, 0.10884393006563187, 0.04400857165455818, 0.0793098658323288, -0.21110695600509644], "bnVarianceC": [0.5900653004646301, 0.387257844209671, 0.34585121273994446, 1.4936869144439697, 0.7701025605201721, 0.878587543964386, 0.7007436752319336, 1.2616204023361206], "bnBetaC": [-0.16326084733009338, 0.053788039833307266, -0.7571175694465637, -0.19079239666461945, -0.2203083038330078, -0.2172744870185852, -0.3378241956233978, 0.25008293986320496], "bnGammaB": [1.1425633430480957, 1.006575345993042, 0.7523093819618225, 0.8244433999061584, 0.8656949400901794, 0.9711740612983704, 0.8125717639923096, 0.853680431842804, 0.7308053970336914, 0.8481581807136536, 0.6102330684661865, 0.9202435612678528, 1.0177654027938843, 0.5158241987228394, 0.9287282824516296, 0.9753517508506775], "bnGammaC": [0.9744541049003601, 0.7661486268043518, 0.8557939529418945, 0.9076456427574158, 1.0265204906463623, 0.833579957485199, 0.9303998351097107, 0.9685465097427368], "bnBetaA": [-0.7666419744491577, -0.5278146266937256, -0.3739609718322754, -0.16353294253349304, -0.2693418264389038, -0.8187279105186462, -0.02203661948442459, 0.4271089434623718], "bnMeanB": [0.33544182777404785, -0.27984529733657837, -0.4567353427410126, 0.03420865163207054, -0.7189600467681885, 1.0629150867462158, 0.2295525223016739, -0.6645872592926025, -0.27411338686943054, 1.074721336364746, 0.3752948045730591, -0.366424024105072, 0.4131823778152466, -0.0017077196389436722, -0.29190683364868164, 0.2301425188779831], "scaleFactor": 1, "bnBetaB": [-0.29928386211395264, -1.0057452917099, 0.05287482589483261, -0.040226470679044724, -0.13301703333854675, -0.021025637164711952, -0.0016054508741945028, 0.007994689978659153, -0.34437212347984314, 0.2819712162017822, -0.33519044518470764, -0.24559366703033447, -0.16682814061641693, 0.045855335891246796, -0.49946725368499756, -0.154645174741745], "bnBetaD": [-0.9063472747802734, -0.2279336005449295, 0.3251552879810333, 0.0022489288821816444, -0.674251914024353, 0.07847478240728378, -0.39404648542404175, 0.3333154320716858, -0.6008499264717102, -0.03651924058794975, 0.7787026166915894, -0.35865867137908936, -0.6258893609046936, 0.1959354430437088, -0.22193673253059387, -0.5345229506492615], "bnMeanC": [0.32274580001831055, 0.13178226351737976, -0.8441030383110046, 0.7436451315879822, -0.21037296950817108, -0.04094953462481499, 0.5000712871551514, 0.22960446774959564], "roundsDim": 6, "convBiasB": [-0.009497897699475288, -0.014655151404440403, 0.0428801104426384, -0.040054552257061005, 0.016250187531113625, 0.006169165018945932, 0.004803824238479137, -0.018435601145029068, -0.06056821718811989, -0.00027767496067099273, -0.020235946401953697, -0.00035368005046620965, -0.036655575037002563, -0.003137685591354966, 0.0011547222966328263, -0.03259069845080376], "convBiasD": [-0.025856228545308113, -0.0018688519485294819, -0.023518212139606476, -0.008951690047979355, -0.004025427624583244, 0.062357742339372635, -0.004616204649209976, 0.016930367797613144, 0.03349769860506058, -0.016650712117552757, 0.023084742948412895, -0.014524555765092373, -0.028635229915380478, 0.00860467366874218, 0.01133999228477478, -0.021037885919213295], "bnGammaA": [1.1737697124481201, 0.828271746635437, 1.081287145614624, 0.8132302165031433, 1.0811378955841064, 1.0026931762695312, 1.1159640550613403, 0.6107718348503113], "convKernelB": [-0.3205619752407074, -0.1536201536655426, 0.07129620760679245, 0.09879077225923538, 0.3522387444972992, -0.15874046087265015, 0.19270575046539307, 0.3952406346797943, 0.21318283677101135, -0.11434958130121231, -0.05772871524095535, 0.1849699467420578, -0.29724690318107605, -0.1936841756105423, 0.2076159119606018, 0.2121947854757309, 0.0003924239135812968, -0.002849765820428729, -0.10077087581157684, -0.15055127441883087, 0.1291041225194931, 0.11939547955989838, 0.0032417161855846643, 0.0010527935810387135, -0.08229540288448334, -0.6153922080993652, 0.3468785285949707, 0.1074969470500946, -0.1261291354894638, 0.3020733594894409, 0.06510788947343826, 0.2427186518907547, -0.24556194245815277, 0.41414377093315125, -0.2395201176404953, -0.32237327098846436, 0.057955414056777954, -0.06761203706264496, 0.3967381715774536, -0.007094011642038822, -0.24735303223133087, 0.3004601299762726, -0.09378572553396225, -0.4147820472717285, 0.2049231082201004, 0.06778610497713089, -0.11622808873653412, -0.15413634479045868, 0.1368526816368103, 0.26033541560173035, -0.050702355802059174, 0.036749571561813354, 0.06079035624861717, -0.1618192344903946, 0.2765142619609833, 0.12438801676034927, -0.0815056562423706, -0.14684338867664337, 0.14514338970184326, 0.3447323441505432, -0.17461958527565002, 0.289020836353302, 0.39887505769729614, -0.03299115598201752, -0.1326276808977127, 0.15912361443042755, -0.5443622469902039, 0.34133604168891907, 0.3283342719078064, 0.12147551029920578, 0.12368882447481155, -0.17418032884597778, 0.32934659719467163, -0.1079850047826767, 0.19142501056194305, -0.11635171622037888, -0.5414764881134033, -0.08646026998758316, 0.009222137741744518, -0.23070336878299713, 0.339912474155426, 0.25155186653137207, -0.1489902138710022, 0.1564594954252243, 0.2745687961578369, -0.29122474789619446, -0.18434947729110718, 0.35966160893440247, 0.16499093174934387, -0.21354447305202484, -0.0892026424407959, -0.022946255281567574, 0.0902172327041626, 0.09652556478977203, -0.24473315477371216, -0.5280530452728271, 0.0933004841208458, -0.20468385517597198, -0.2766360938549042, 0.10335297882556915, -0.2033713161945343, 0.03212130442261696, -0.21824489533901215, -0.017974847927689552, -0.5269609689712524, 0.1786273568868637, -0.09799931198358536, -0.023383082821965218, 0.16333942115306854, 0.3551936447620392, 0.20194287598133087, -0.09336952865123749, 0.1741483360528946, 0.058868974447250366, -0.22653217613697052, -0.0025662891566753387, 0.03624141588807106, 0.5247723460197449, 0.32085782289505005, 0.070323146879673, 0.10298099368810654, 0.14643841981887817, 0.3163817822933197, -0.22818994522094727, 0.05665591359138489, -0.08334837853908539, -0.2713398039340973, 0.03153667598962784, -0.3074864149093628, -0.1528628021478653, 0.0782407894730568, 0.07889637351036072, 0.36266714334487915, -0.15054035186767578, 0.20180515944957733, 0.39131638407707214, 0.20923376083374023, -0.11888283491134644, -0.05563420057296753, 0.19149291515350342, -0.2994268238544464, -0.19158677756786346, 0.20918960869312286, 0.21871767938137054, -0.00040148376137949526, -0.008208957500755787, -0.10712305456399918, -0.14839859306812286, 0.12567661702632904, 0.12365897744894028, 0.00659279664978385, 0.003191273659467697, -0.07709645479917526, -0.6172277331352234, 0.32665809988975525, 0.14423498511314392, -0.1260242462158203, 0.30331119894981384, 0.07093705981969833, 0.2548743486404419, -0.2384151667356491, 0.4212394952774048, -0.22331568598747253, -0.3134832978248596, 0.0430845282971859, -0.09769114851951599, 0.3981158137321472, -0.012621666304767132, -0.26111623644828796, 0.27371618151664734, -0.07727141678333282, -0.43678703904151917, 0.21505162119865417, 0.07584953308105469, -0.1052292063832283, -0.15592017769813538, 0.1332671195268631, 0.26190266013145447, -0.029924500733613968, 0.01675412617623806, 0.06608084589242935, -0.14852695167064667, 0.2656610608100891, 0.11734963208436966, -0.06793627142906189, -0.16060686111450195, 0.1524612456560135, 0.3993335962295532, -0.16080456972122192, 0.2839791178703308, 0.3795818090438843, -0.007304509170353413, -0.11873839795589447, 0.16092704236507416, -0.5375339388847351, 0.33086660504341125, 0.32616156339645386, 0.1365242600440979, 0.11468072980642319, -0.16881538927555084, 0.30848202109336853, -0.12362542748451233, 0.18422819674015045, -0.0919928178191185, -0.5422753095626831, -0.08082728087902069, -0.004695936571806669, -0.22834640741348267, 0.33997711539268494, 0.25269627571105957, -0.118367500603199, 0.15637396275997162, 0.29541873931884766, -0.2868695557117462, -0.171428844332695, 0.3564507067203522, 0.1821371465921402, -0.20865216851234436, -0.08662283420562744, 0.010464619845151901, 0.07121827453374863, 0.10451830923557281, -0.2588176131248474, -0.5180262923240662, 0.08693397045135498, -0.20859168469905853, -0.2602401673793793, 0.09425844252109528, -0.21327410638332367, 0.0402083620429039, -0.2087329775094986, -0.020139645785093307, -0.5207196474075317, 0.17205366492271423, -0.0950293093919754, 0.01458906289190054, 0.1615390181541443, 0.37372100353240967, 0.17325055599212646, -0.09147222340106964, 0.1656404435634613, 0.06530973315238953, -0.2110566645860672, -0.0062890322878956795, 0.04446906968951225, 0.5293644070625305, 0.33044612407684326, 0.05324230715632439, 0.0627414882183075, 0.13138943910598755, 0.3301665782928467, -0.2152264267206192, 0.050277456641197205, -0.06343812495470047, -0.28561827540397644, 0.03883230686187744, -0.3157986104488373, -0.15213042497634888, 0.055870529264211655, 0.09297888725996017, 0.3538563549518585, -0.14743918180465698, 0.19398269057273865, 0.3998325765132904, 0.19680701196193695, -0.11984580755233765, -0.05442412942647934, 0.1888178586959839, -0.2902274429798126, -0.21218714118003845, 0.2186121642589569, 0.22239996492862701, 0.0050213695503771305, -0.008107306435704231, -0.15152166783809662, -0.14973102509975433, 0.11119711399078369, 0.14123651385307312, -0.003830133005976677, 0.015180697664618492, -0.055831704288721085, -0.5608991384506226, 0.32655662298202515, 0.1270274668931961, -0.097150057554245, 0.27212244272232056, 0.08469723165035248, 0.23365111649036407, -0.2677602767944336, 0.42127177119255066, -0.09964302182197571, -0.3234061896800995, 0.08008600771427155, -0.09158772975206375, 0.4207416772842407, -0.0034407407511025667, -0.19594644010066986, 0.22551658749580383, -0.10735536366701126, -0.40803298354148865, 0.1978173702955246, 0.15980687737464905, -0.13786660134792328, -0.13973776996135712, 0.14250443875789642, 0.24996554851531982, -0.12615914642810822, 0.034215085208415985, 0.04533801227807999, -0.1282999962568283, 0.26797252893447876, 0.14604124426841736, -0.08231421560049057, -0.10460251569747925, 0.14581333100795746, 0.3671412169933319, -0.15241600573062897, 0.21230807900428772, 0.4197894036769867, -0.03198201581835747, -0.12166458368301392, 0.15943282842636108, -0.5876032114028931, 0.3492496609687805, 0.30563288927078247, 0.1479896903038025, 0.13039322197437286, -0.1809053272008896, 0.2849430739879608, -0.10214591771364212, 0.20251306891441345, -0.11383853107690811, -0.5232714414596558, -0.11501125246286392, 0.0026488841976970434, -0.2174944132566452, 0.35259607434272766, 0.25758087635040283, -0.19681353867053986, 0.15843261778354645, 0.27951833605766296, -0.28762879967689514, -0.17346327006816864, 0.3622771203517914, 0.1684524118900299, -0.17365001142024994, -0.08051721006631851, -0.008128463290631771, 0.0836203321814537, 0.05140655115246773, -0.22792848944664001, -0.5442630648612976, 0.09377070516347885, -0.21030494570732117, -0.3204564154148102, 0.10355531424283981, -0.20792339742183685, 0.056248780339956284, -0.21945741772651672, -0.01220119558274746, -0.46583932638168335, 0.22338320314884186, -0.1036035493016243, 0.007847667671740055, 0.1791301667690277, 0.3201545774936676, 0.21730153262615204, -0.10726462304592133, 0.18055829405784607, 0.06471720337867737, -0.23434984683990479, -0.00826331228017807, 0.039770860224962234, 0.525381326675415, 0.3452202379703522, 0.06333128362894058, 0.1145644411444664, 0.15127022564411163, 0.3243780732154846, -0.21927964687347412, 0.04847116395831108, -0.07466857135295868, -0.25832122564315796, 0.0035024622920900583], "bnMeanD": [0.5259367823600769, 0.4147737920284271, -0.5411578416824341, -0.4960753619670868, -1.0509313344955444, 0.43645474314689636, 0.23688551783561707, 0.5815130472183228, -0.008489487692713737, 0.47646600008010864, 0.09725955128669739, -1.1369270086288452, 0.3650362193584442, -0.9041540026664734, 0.9550203084945679, -0.7711623907089233], "inputChannelsDim": 24, "convKernelC": [-0.20670905709266663, -0.36400702595710754, -0.32469087839126587, 0.1351776123046875, 0.0741044357419014, -0.575175404548645, -0.46151071786880493, 0.1008915975689888, -0.28026705980300903, -0.43902528285980225, -0.06586853414773941, 0.12479034811258316, -0.47679078578948975, 0.3250575661659241, 0.268521249294281, 0.5062799453735352, -0.25938692688941956, -0.315479576587677, -0.26717671751976013, 0.1916363388299942, 0.09861256182193756, -0.14907626807689667, 0.33928611874580383, 0.16169147193431854, -0.18135634064674377, 0.20883546769618988, 0.38229361176490784, -0.659091055393219, -0.04420280084013939, -0.1818954050540924, -0.30230700969696045, -0.04793298617005348, 0.0014730957336723804, 0.30368438363075256, -0.14450064301490784, 0.004809695761650801, 0.16662247478961945, 0.25859013199806213, -0.06526505202054977, -0.4624766707420349, 0.10310164093971252, -0.2966240346431732, 0.013414264656603336, -0.26270055770874023, 0.3728582262992859, 0.00822481419891119, -0.15508660674095154, 0.17212450504302979, -0.13842077553272247, -0.04715530201792717, -0.5963212251663208, -0.14988327026367188, -0.15825331211090088, 0.39585307240486145, 0.37285009026527405, -0.14518281817436218, 0.29847726225852966, 0.011907294392585754, -0.20671772956848145, -0.3346015214920044, -0.25829142332077026, 0.358762264251709, 0.07568248361349106, -0.1413934826850891, -0.4376636743545532, 0.32301223278045654, 0.3483829200267792, -0.17176519334316254, 0.14126889407634735, 0.4307805597782135, -0.23590445518493652, 0.2642955183982849, -0.02160281129181385, -0.1109965518116951, 0.01399964839220047, 0.3581831753253937, -0.1763385832309723, 0.0061043743044137955, -0.17884506285190582, 0.22789347171783447, 0.27366822957992554, 0.3597494959831238, 0.007387402001768351, -0.3561391234397888, 0.15055997669696808, 0.3115377426147461, -0.18943646550178528, 0.5294080972671509, -0.5954956412315369, -0.2966630160808563, -0.021534869447350502, -0.4478769600391388, -0.20564667880535126, -0.25842422246932983, 1.039718508720398, -0.45862799882888794, 0.04020678624510765, -0.2414865493774414, -0.4221135973930359, -0.2810298204421997, -0.2871800661087036, 0.14814017713069916, 0.12080689519643784, -0.05984080582857132, -0.2662173807621002, -0.5516116619110107, -0.5813698172569275, 0.4370875954627991, -0.3740519881248474, 0.31646305322647095, 0.5205929279327393, -0.3634188175201416, 0.1934412717819214, 0.07818077504634857, -0.22733142971992493, 0.3129587173461914, 0.20695076882839203, 0.028592165559530258, 0.2715214788913727, 0.4993854761123657, 0.5644937753677368, -0.12349347025156021, 0.07451910525560379, -0.2747330963611603, -0.3177150785923004, -0.06039625406265259, -0.07417234778404236, 0.39048781991004944, -0.08301575481891632, 0.12467300146818161, 0.3464418351650238, -0.08107219636440277, -0.16933573782444, 0.060617536306381226, -0.14112040400505066, 0.16097183525562286, -0.11577417701482773, 0.12101263552904129, -0.42867544293403625, 0.3024802505970001, -0.14437034726142883, -0.2012842744588852, 0.22979843616485596, 0.2728264331817627, -0.1908387690782547, -0.08334513008594513, 0.27665093541145325, 0.3220265805721283, 0.33175423741340637, -0.4867088496685028, 0.1698107123374939, -0.24329648911952972, 0.24825851619243622, 0.48514556884765625, 0.11847557127475739, 0.47093334794044495, -0.13888846337795258, 0.08347255736589432, 0.3382885158061981, -0.22234633564949036, -0.24547944962978363, -0.26883864402770996, -0.2813393473625183, 0.13227792084217072, 0.14392292499542236, 0.4618665277957916, 0.3654393255710602, -0.16569997370243073, 0.5304011702537537, -0.1514054536819458, -0.027028564363718033, -0.2431614100933075, -0.5966712236404419, 0.22349587082862854, -0.0026917317882180214, -0.08760863542556763, 0.3849108815193176, -0.06705327332019806, 0.15915845334529877, 0.3804161548614502, 0.37309443950653076, -0.11770784109830856, -0.030608829110860825, -0.11700389534235, -0.007459235843271017, -0.31572461128234863, 0.44906407594680786, -0.6086481213569641, -0.052282191812992096, 0.226725235581398, -0.35263869166374207, -0.3200053870677948], "className": "reception", "convBiasA": [0.0010494376765564084, -0.0024259157944470644, 0.01182576548308134, -0.016846250742673874, -0.031344588845968246, -0.03159597888588905, -0.03385353460907936, -0.02713593654334545], "typesDim": 3, "bnMeanA": [-0.46737775206565857, -0.598003625869751, -0.821517825126648, 0.14237277209758759, -0.11825811117887497, -0.538837194442749, -0.3204861581325531, 0.24353039264678955], "bnVarianceD": [0.22396314144134521, 0.4858219623565674, 0.8508673310279846, 0.4732060432434082, 0.5562775135040283, 0.6556115746498108, 0.4098711609840393, 1.090230941772461, 0.35496455430984497, 0.22880610823631287, 0.5009051561355591, 0.5081170797348022, 1.1472501754760742, 0.4588831663131714, 0.9421192407608032, 0.8575738668441772], "bnVarianceB": [0.7275264859199524, 0.21535736322402954, 2.9746620655059814, 0.3937686085700989, 0.24434706568717957, 1.4786633253097534, 0.5120397806167603, 0.5541456937789917, 0.6970009803771973, 2.0993781089782715, 0.5856611728668213, 1.6130787134170532, 0.7362766861915588, 0.2337329089641571, 0.48421230912208557, 0.7864116430282593], "convBiasC": [-0.015117939561605453, 0.0506184846162796, -0.024542873725295067, 0.013807670213282108, 0.04708624631166458, 0.007325933780521154, -0.005990100093185902, 0.03972121328115463], "bnVarianceA": [0.5157193541526794, 0.4103087782859802, 2.1687381267547607, 2.855741024017334, 0.9896048307418823, 1.1732261180877686, 1.1107981204986572, 0.5396125912666321]}, {"upsamplingRoundsDimFactor": 1, "roundsDim": 6, "convBias": [-0.03320292383432388, -0.004821550566703081, -0.004875549115240574, -0.02680261805653572, -0.05276603624224663, -0.01734188199043274, 0.002296311780810356, 0.004317995626479387, 0.0013775764964520931, -0.0010810588719323277, 0.00392373139038682, -0.0049318308010697365, -0.011067191138863564, 0.020502902567386627, 0.03095010481774807, 0.022559713572263718, 0.003904239274561405, 0.0041119433008134365, 0.002312024822458625, -0.02909865230321884, -0.009942038916051388, 0.01331277471035719, -0.0061776963993906975, -0.01559715997427702], "kernelTypesDim": 1, "convKernel": [-0.1632538139820099, 0.09954403340816498, -0.058003008365631104, -0.05384819954633713, -0.4953586459159851, -0.06776142865419388, -0.1670161485671997, -0.6944974660873413, 0.01775760017335415, 0.05609072744846344, -0.25091663002967834, -0.0997338816523552, 0.20922152698040009, 0.06637398898601532, 0.47224190831184387, -0.21856772899627686, -0.32465940713882446, 0.054687537252902985, 0.05168965086340904, 0.04005890339612961, -0.007119941990822554, -0.003016977570950985, -0.23988290131092072, 0.1263415515422821, 0.6245366334915161, 0.1775466650724411, -0.15621285140514374, 0.18762314319610596, 0.1012306660413742, 0.05701706185936928, 0.0099368030205369, -0.1538599729537964, 0.014758805744349957, 0.2422141432762146, -0.03216728940606117, -0.2032448798418045, 0.10144682228565216, -0.2601284682750702, -0.009148983284831047, -0.26682472229003906, -0.22005225718021393, -0.14129114151000977, -0.2216579169034958, -0.2715454697608948, 0.07215776294469833, -0.0676659345626831, -0.3158329427242279, -0.2111508548259735, 0.11379685252904892, 0.05495109036564827, 0.4874444007873535, 0.08486591279506683, 0.19273591041564941, -0.10835786163806915, 0.09458877146244049, -0.3126528859138489, 0.19867528975009918, 0.12142900377511978, 0.06546571850776672, 0.24449606239795685, 0.10437130928039551, 0.34589701890945435, 0.3409872055053711, 0.08609955757856369, -0.14214469492435455, -0.46455979347229004, -0.04485713317990303, 0.2509193420410156, 0.23803280293941498, 0.14795424044132233, -0.38741135597229004, -0.45574644207954407, 0.19562241435050964, -0.42767396569252014, 0.1319776177406311, -0.07183676213026047, -0.18287229537963867, -0.2147265523672104, 0.29004496335983276, 0.03551109507679939, 0.1887819468975067, -0.24306783080101013, 0.08511345833539963, -0.3655966520309448, 0.10619698464870453, -0.1332145631313324, -0.3510677218437195, -0.17410455644130707, 0.0255381241440773, -0.1096658781170845, 0.1782836616039276, 0.20134878158569336, -0.10465610772371292, -0.07205729931592941, -0.12894397974014282, 0.19958876073360443, -0.017682479694485664, -0.10392523556947708, 0.3462573289871216, 0.12850822508335114, 0.07019668817520142, 0.046336885541677475, 0.11928873509168625, -0.19412162899971008, 0.014315970242023468, 0.30973562598228455, 0.18710541725158691, 0.27111807465553284, -0.08296404033899307, -0.2830958068370819, -0.11275159567594528, -0.1870461106300354, -0.30409204959869385, -0.037648119032382965, 0.31250643730163574, 0.08311352133750916, -0.14380739629268646, 0.2580009400844574, 0.11343597620725632, 0.008353900164365768, -0.21375420689582825, 0.06766674667596817, 0.0676320269703865, -0.4500509798526764, 0.2185056060552597, -0.027363669127225876, 0.015555188059806824, -0.006804356817156076, -0.0068941195495426655, -0.2298741340637207, 0.28674739599227905, 0.3005372881889343, 0.3415641486644745, -0.345142662525177, -0.03459112346172333, -0.006088852416723967, -0.3695066273212433, 0.015254925936460495, 0.045463867485523224, 0.24867184460163116, -0.10339412838220596, 0.08168516308069229, -0.11168013513088226, -0.03279627114534378, -0.006609475705772638, -0.10284155607223511, 0.3299463987350464, -0.2505037784576416, 0.1803155243396759, -0.002576295053586364, 0.14785362780094147, -0.04122328385710716, 0.22965121269226074, 0.014962011016905308, 0.03256978094577789, 0.123693086206913, 0.053404055535793304, -0.005341607145965099, -0.15849745273590088, 0.31442439556121826, -0.3206847906112671, -0.03108779527246952, 0.10628916323184967, -0.18079562485218048, 0.1985657811164856, -0.192027285695076, -0.4302559494972229, -0.1268153041601181, 0.08497625589370728, -0.19529010355472565, 0.061167702078819275, 0.03693617880344391, -0.075956329703331, 0.07751118391752243, -0.04326973855495453, -0.3907151222229004, 0.02589552477002144, -0.36367398500442505, -0.1979798823595047, -0.3526398837566376, 0.22792451083660126, -0.1509229838848114, 0.11206881701946259, -0.026751328259706497, -0.17438742518424988, -0.018689105287194252, -0.2982231080532074, 0.12509258091449738, 0.20016005635261536, 0.44370654225349426, -0.11312659084796906, 0.3425596058368683, 0.007353076245635748, 0.011064408347010612, -0.08580031245946884, -0.013234755955636501, 0.3035276532173157, 0.059081148356199265, 0.12433461844921112, 0.06428419798612595, 0.1946956068277359, -0.14900390803813934, 0.19091370701789856, -0.013804077170789242, -0.2942458689212799, 0.2035357505083084, -0.035042017698287964, 0.027416445314884186, 0.02353697270154953, 0.16509054601192474, -0.15630634129047394, -0.054035890847444534, -0.5169656276702881, 0.5352892279624939, 0.32414621114730835, 0.056072283536195755, -0.06411624699831009, 0.11297159641981125, -0.2479834407567978, -0.022771785035729408, -0.1912563294172287, 0.3083094358444214, -0.27012425661087036, 0.07959090173244476, -0.33361804485321045, -0.03176508843898773, 0.17301802337169647, 0.00992736965417862, -0.08760813623666763, -0.16587883234024048, 0.3166254758834839, -0.28493621945381165, -0.020191682502627373, -0.14515544474124908, -0.22932890057563782, -0.32306480407714844, -0.2493506520986557, 0.17686130106449127, 0.00011783566878875718, 0.07250909507274628, 0.24213716387748718, -0.3151102066040039, 0.22757650911808014, 0.1367376744747162, 0.22333930432796478, -0.26434752345085144, -0.16618888080120087, -0.05915885046124458, 0.41892263293266296, -0.026842905208468437, 0.40246903896331787, -0.1505270153284073, 0.14834627509117126, -0.38062968850135803, -0.03665546327829361, 0.3500503897666931, 0.03422806039452553, 0.22263213992118835, 0.34049299359321594, 0.4771876335144043, 0.03443553298711777, -0.34194517135620117, -0.27410656213760376, -0.028895901516079903, -0.18749821186065674, -0.20082661509513855, 0.32461613416671753, 0.39984944462776184, 0.23221050202846527, 0.025412699207663536, -0.18688468635082245, 0.1510017216205597, -0.05361563339829445, 0.021713702008128166, 0.5549381375312805, -0.29067692160606384, -0.4419457018375397, 0.2949008345603943, -0.053086671978235245, -0.03569484502077103, 0.345876008272171, -0.19982360303401947, 0.09365726262331009, 0.3114047050476074, -0.019429773092269897, -0.32900547981262207, 0.06301040202379227, -0.1626678854227066, -0.03732597827911377, -0.3447117805480957, 0.5749881267547607, 0.07413358241319656, -0.09634775668382645, -0.2618972957134247, 0.6465398073196411, -0.27142104506492615, 0.14379091560840607, -0.44155144691467285, -0.25513654947280884, 0.36859771609306335, 0.3079394996166229, 0.14911001920700073, -0.24215258657932281, -0.3579242527484894, -0.25643932819366455, -0.2720893323421478, -0.043609194457530975, 0.11739910393953323, 0.08343871682882309, 0.03793691471219063, -0.1576736718416214, -0.6196796894073486, 0.09053025394678116, 0.26640889048576355, -0.7489311099052429, -0.24574950337409973, 0.018642673268914223, 0.2935756742954254, 0.3502539396286011, -0.04246329516172409, 0.14752401411533356, 0.022012820467352867, 0.20467233657836914, 0.19032305479049683, 0.266879677772522, 0.3038216233253479, 0.132961705327034, 0.25051823258399963, -0.07156822830438614, 0.15670834481716156, 0.19467075169086456, -0.30985599756240845, -0.07959188520908356, -0.23910994827747345, -0.1318041831254959, 0.15268494188785553, -0.2755502760410309, -0.08668389171361923, 0.018230415880680084, -0.10553576797246933, 0.01631532609462738, -0.3284098505973816, -0.26930227875709534, -0.044997941702604294, 0.33887988328933716, 0.13436661660671234, 0.1398235708475113, 0.23182719945907593, 0.3744497001171112, -0.14420375227928162, -0.11727675050497055, 0.24800097942352295, -0.40542638301849365, -0.41117164492607117, 0.2351408153772354, -0.18008548021316528, 0.18117141723632812, -0.4783669412136078, -0.017953427508473396, 0.30584633350372314, -0.265158087015152, 0.013934389688074589, 0.09092170745134354, 0.24001334607601166, 0.4017593562602997, 0.24797764420509338, -0.02533736638724804, -0.15572507679462433, -0.35285285115242004, -0.223276749253273, -0.10085456818342209, 0.08603577315807343, 0.5405020117759705, 0.144354447722435, -0.11858620494604111, 0.08781807869672775, -0.2015451192855835, -0.4438537061214447, -0.27970635890960693, -0.18943434953689575, 0.2611254155635834, -0.027452530339360237, -0.192630335688591, -0.5972203612327576, 0.05499522015452385, 0.10082071274518967, -0.09647750854492188, 0.13088291883468628, -0.03071415424346924, 0.17338120937347412, 0.09564624726772308, 0.02671283669769764, -0.26598408818244934, 0.17577305436134338, -0.31138327717781067, 0.06973601132631302, -0.3182149827480316, -0.07421258836984634, 0.31344449520111084, -0.28215476870536804, 0.07925769686698914, 0.4566263258457184, -0.1420273780822754, 0.12384432554244995, -0.07782027125358582, 0.3205650746822357, -0.20726674795150757, 0.08297108113765717, -0.18444567918777466, -0.041438885033130646, 0.03277271240949631, -0.0413459837436676, 0.1633920669555664, 0.19722284376621246, -0.12455308437347412, 0.25388777256011963, 0.41157829761505127, -0.055322710424661636, 0.025340499356389046, -0.08336617052555084, -0.3233298659324646, -0.3892671465873718, 0.17927782237529755, -0.05899183452129364, 0.023429587483406067, 0.542787492275238, -0.2198137789964676, 0.051788706332445145, -0.18143466114997864, -0.21195662021636963, -0.4806674122810364, -0.054874781519174576, 0.23053304851055145, 0.32321467995643616, 0.05856848880648613, -0.2811298668384552, -0.18400201201438904, -0.14596988260746002, 0.09127774834632874, -0.22395725548267365, 0.3285503089427948, -0.17222663760185242, -0.10957951843738556, -0.2912987172603607, 0.01611255668103695, -0.13530439138412476, 0.05517205595970154, -0.23666374385356903, -0.11066627502441406, 0.18494439125061035, 0.09270191937685013, 0.311288446187973, -0.15554751455783844, 0.1857534646987915, -0.24271979928016663, -0.1988167017698288, 0.12061213701963425, 0.24817198514938354, 0.3004085421562195, 0.1394750326871872, 0.2447795569896698, -0.4498644173145294, -0.46222928166389465, -0.21573668718338013, 0.3646809458732605, 0.26028090715408325, 0.3617784380912781, 0.3036825656890869, 0.26831933856010437, 0.1536693274974823, 0.21716928482055664, 0.19766204059123993, 0.3171890676021576, -0.12563715875148773, 0.12097802013158798, -0.015856217592954636, 0.07020490616559982, 0.13482293486595154, 0.05828456953167915, -0.19500775635242462, -0.19803749024868011, 0.4974963068962097, -0.06091824173927307, -0.11180479824542999, 0.161491259932518, 0.38814252614974976, -0.03030252456665039, -0.10602924972772598, -0.003217678749933839, -0.0037568367552012205, 0.21514004468917847, -0.15214957296848297, 0.10459527373313904, -0.001736595295369625, -0.07575058937072754, 0.02575598657131195, 0.15566077828407288, 0.07976684719324112, 0.11111532151699066, -0.36701974272727966, 0.49207639694213867, -0.1549597680568695, -0.35992422699928284, -0.28979575634002686, -0.27186501026153564, -0.0883457213640213, 0.10601147264242172, 0.28132668137550354, -0.05394278094172478, 0.43167322874069214, 0.40341827273368835, -0.4989139437675476, -0.5081590414047241, -0.06081172823905945, -0.14675849676132202, 0.09632869064807892, 0.16546179354190826, -0.08800332993268967, -0.2306343913078308, -0.47783154249191284, -0.5290841460227966, 0.011085928417742252, -0.028238173574209213, -0.04671920835971832, -0.010610852390527725, 0.22291672229766846, 0.45670756697654724, 0.003523114137351513, 0.17797903716564178, 0.028255553916096687, 0.2708040177822113, 0.08190937340259552, -0.9159737825393677, 0.27996429800987244, 0.1570967584848404, -0.5244629979133606, -0.2588489353656769, 0.12488845735788345, -0.2699224650859833, 0.10171622782945633, 0.11601721495389938, -0.07890056818723679, 0.10146253556013107, -0.12022610008716583, 0.15630888938903809, -0.00828084908425808, -0.16933543980121613, 0.19234180450439453, 0.10537876188755035, -0.18467645347118378, 0.2577860951423645, -0.24890440702438354, 0.24410958588123322, 0.3821413815021515, 0.15561674535274506, -0.3686608374118805, -0.20081810653209686, -0.3675394654273987, 0.11629702150821686, -0.2310297191143036, -0.1265745908021927, -0.015529225580394268, 0.4540257453918457, -0.41665589809417725, 0.1465817391872406, 0.08853471279144287, 0.17953360080718994, 0.14891758561134338, 0.31788361072540283, -0.313795804977417, 0.5119652152061462, 0.6200470328330994, -0.1218365728855133, 0.005930041894316673, 0.18528151512145996, -0.09905161708593369, -0.003690253710374236, -0.34868237376213074, -0.22562594711780548, 0.03393096104264259, 0.07742220908403397, -0.09289667755365372, 0.1338917315006256, -0.34498095512390137, 0.0518195740878582, 0.2875051200389862, 0.47140759229660034, 0.27539584040641785, 0.19666437804698944, -0.0162301454693079, 0.04373617842793465, 0.26927030086517334, -0.01207045465707779, 0.006142108701169491, -0.2810612916946411, 0.18897917866706848, 0.020238859578967094, -0.1314355432987213, 0.055642712861299515, 0.14623378217220306, 0.16261129081249237, 0.07259126007556915, 0.2983972728252411, -0.22511529922485352, 0.14768028259277344, 0.0008042907575145364, 0.0712246298789978, 0.4342372417449951, -0.2721098065376282, -0.36213111877441406, -0.04412302002310753, 0.24456122517585754, 0.018640903756022453, -0.18127143383026123, 0.05745117738842964, 0.27824971079826355, -0.15572677552700043, 0.21076934039592743, 0.3850426971912384, 0.05680813640356064, 0.2163759171962738, 0.1007707342505455, 0.3516935110092163, -0.22854232788085938, -0.2609114646911621, -0.564709484577179, -0.05759270861744881, 0.06591463088989258, -0.19743496179580688, 0.14754602313041687, -0.17193050682544708, -0.05283308029174805, 0.19580300152301788, -0.16482038795948029, -0.15747839212417603, -0.08284946531057358, -0.15737858414649963, 0.2036275416612625, -0.05252277851104736, 0.012827515602111816, 0.4465060532093048, 0.12481579929590225, 0.024513890966773033, 0.1567355841398239, -0.19167059659957886, -0.06608359515666962, -0.14340569078922272, 0.011740057729184628, -0.20763130486011505, -0.36334261298179626, 0.11086756736040115, 0.33322158455848694, -0.06243894621729851, -0.13700971007347107, 0.17157678306102753, -0.012929808348417282, -0.21264052391052246, 0.03569307178258896, -0.12483078986406326, 0.1436360776424408, -0.012244985438883305, 0.04220007732510567, 0.15303799510002136, 0.17490462958812714, -0.08087650686502457, -0.07780374586582184, 0.2925610840320587, -0.32123205065727234, -0.09097625315189362, -0.1228136345744133, -0.16731472313404083, 0.04706227779388428, -0.12929782271385193, 0.03200407698750496, -0.04535597935318947, 0.1978243887424469, 0.14300933480262756, -0.4267156422138214, -0.1714015007019043, -0.07167822867631912, 0.16368655860424042, -0.19261641800403595, -0.1412292718887329, 0.023556148633360863, 0.3762972056865692, 0.05631491541862488, -0.022122211754322052, 0.14082515239715576, -0.0874313935637474, 0.19473928213119507, 0.21823975443840027, -0.163533017039299, -0.0036591384559869766, 0.11879295110702515, 0.12283918261528015, 0.04241350293159485, 0.2261303812265396, -0.003077913774177432, 0.051909204572439194, -0.1755133420228958, 0.338369756937027, -0.0871797502040863, -0.043399833142757416, -0.03270195052027702, 0.005264673847705126, 0.03900069370865822, -0.08621080964803696, 0.251740962266922, -0.19011268019676208, -0.2342572659254074, -0.22284233570098877, 0.2657018303871155, 0.23876214027404785, 0.27141278982162476, -0.06677637994289398, -0.42226171493530273, -0.17795881628990173, -0.008626027964055538, -0.08739105612039566, 0.12045931816101074, 0.14967574179172516, 0.08091118931770325, -0.2509271800518036, -0.026449501514434814, 0.2427360713481903, 0.04051332175731659, 0.1677349954843521, 0.038746003061532974, -0.13051781058311462, -0.06663991510868073, 0.2619067430496216, -0.07737936824560165, 0.13471440970897675, -0.17712458968162537, -0.09590188413858414, 0.12728732824325562, 0.429378867149353, -0.13611683249473572, 0.12589578330516815, 0.06436105072498322, -0.25183922052383423, -0.3257392346858978, -0.04151061549782753, -0.21747568249702454, 0.0413544699549675, 0.05409301817417145, 0.13469363749027252, 0.12684530019760132, 0.2052920013666153, -0.01428299956023693, 0.005074241664260626, 0.25340643525123596, -0.02157767303287983, -0.1953481137752533, -0.024316057562828064, 0.18387597799301147, -0.18443983793258667, -0.14039486646652222, 0.27808836102485657, -0.41520002484321594, 0.15821057558059692, -0.05941726639866829, -0.19591324031352997, 0.0757356584072113, 0.25026923418045044, 0.33272671699523926, 0.18226270377635956, -0.014019009657204151, 0.042786698788404465, -0.04652455821633339, -0.029593493789434433, -0.02075081691145897, 0.12028133869171143, 0.34011268615722656, 0.04861694946885109, 0.03463304787874222, -0.022379012778401375, 0.10227683931589127, 0.02354566939175129, 0.07339365780353546, 0.14355051517486572, -0.06600687652826309, -0.1631941795349121, 0.07944662868976593, -0.2720867395401001, -0.000815227220300585, 0.09693147987127304, 0.05191608890891075, -0.17474724352359772, -0.04127122089266777, 0.06909118592739105, 0.08306452631950378, -0.02217409573495388, 0.04543789476156235, 0.12158258259296417, -0.05992737039923668, -0.26641765236854553, -0.14830999076366425, 0.18085339665412903, -0.2583678364753723, 0.12129691988229752, 0.06687696278095245, 0.09233599156141281, 0.026991266757249832, 0.24201589822769165, 0.26227226853370667, 0.23444300889968872, -0.042380671948194504, -0.024000652134418488, 0.0809931680560112, 0.28837475180625916, 0.2660856246948242, 0.09322849661111832, -0.34194251894950867, -0.18398234248161316, 0.05480102449655533, -0.034466538578271866, -0.036144401878118515, -0.10432875156402588, -0.05869395658373833, 0.22246602177619934, -0.01554989442229271, -0.06320934742689133, 0.23278528451919556, 0.09195246547460556, 0.292971134185791, 0.018852652981877327, 0.017051611095666885, 0.15388187766075134, -0.21996863186359406, -0.4329932630062103, 0.019287312403321266, 0.08606985211372375, 0.2582237422466278, 0.2997976541519165, 0.05275033414363861, -0.009044182486832142, 0.033881768584251404, 0.053154341876506805, -0.0340874008834362, -0.03922270983457565, -0.45839181542396545, -0.058746859431266785, 0.3255273401737213, -0.20068922638893127, -0.21387571096420288, 0.14529186487197876, -0.10976112633943558, -0.06476860493421555, 0.22069767117500305, 0.1576472520828247, 0.15012431144714355, 0.15210944414138794, -0.19413818418979645, 0.08200320601463318, -0.1595173180103302, 0.08903712779283524, -0.197974294424057, 0.09063649922609329, 0.20156434178352356, -0.13295882940292358, 0.015567714348435402, -0.045243535190820694, -0.10353521257638931, -0.14721538126468658, 0.15054430067539215, -0.07533951848745346, 0.015127245336771011, 0.06306161731481552, -0.025717342272400856, -0.20966744422912598, -0.006798058748245239, -0.2680199444293976, -0.1715608686208725, 0.13266783952713013, -0.08143430203199387, -0.19637943804264069, -0.1169588640332222, 0.20872530341148376, -0.12938886880874634, 0.12005191296339035, 0.31748226284980774, -0.14929325878620148, -0.12572894990444183, 0.5202652215957642, -0.3078056275844574, -0.0025377755519002676, -0.008040638640522957, -0.03184257447719574, 0.17928659915924072, 0.04686133936047554, -0.00554317981004715, -0.07537032663822174, -0.1779380738735199, 0.08852038532495499, -0.06146904081106186, -0.11433178186416626, 0.21862797439098358, 0.10428536683320999, 0.2952114939689636, 0.027519110590219498, -0.029373355209827423, 0.14424879848957062, -0.07246425002813339, -0.1801019012928009, 0.06353139132261276, 0.04007825627923012, -0.10300073027610779, 0.22001023590564728, -0.08806667476892471, 0.011490271426737309, 0.007055104710161686, -0.21391132473945618, -0.26274392008781433, -0.18384523689746857, 0.2683531641960144, -0.04675723984837532, -0.2952429950237274, 0.0866609513759613, -0.22051484882831573, 0.18678604066371918, 0.10639864951372147, 0.057496603578329086, 0.2787749171257019, 0.05631162226200104, -0.010518904775381088, -0.19892144203186035, 0.14389048516750336, -0.00970520731061697, -0.07054927200078964, 0.268716961145401, -0.10849002748727798, -0.2450161725282669, 0.09726154804229736, 0.06475681811571121, -0.30073899030685425, -0.1857702136039734, 0.17725597321987152, 0.01718406192958355, 0.0290242750197649, -0.23279152810573578, 0.07853817194700241, -0.11268624663352966, -0.014744552783668041, 0.15901482105255127, -0.023748885840177536, 0.17912234365940094, 0.19112175703048706, -0.19304199516773224, 0.05144109949469566, -0.23452605307102203, 0.029453884810209274, -0.17008505761623383, -0.04660775884985924, 0.23171880841255188, 0.25402671098709106, 0.053335465490818024, -0.1133689284324646, 0.26975202560424805, -0.13361725211143494, 0.23332178592681885, 0.07499651610851288, 0.326729416847229, 0.1279798001050949, 0.186737060546875, 0.41969242691993713, 0.1291595846414566, 0.2325860559940338, 0.21176493167877197, -0.3158200681209564, -0.3299563229084015, -0.06418576836585999, 0.10882967710494995, 0.2671385705471039, 0.361245334148407, -0.10449914634227753, -0.014863958582282066, -0.12650541961193085, 0.05099192634224892, 0.12905070185661316, 0.13983511924743652, 0.28944140672683716, 0.17993956804275513, -0.08238726854324341, 0.1908055990934372, 0.0947401225566864, 0.16600607335567474, -0.17670460045337677, 0.23478291928768158, -0.1702345758676529, -0.1384742259979248, 0.10197648406028748, 0.03119240142405033, -0.1509205847978592, 0.006055511999875307, 0.01964464969933033, 0.1318158060312271, 0.4943515956401825, -0.2750018835067749, 0.22835619747638702, -0.14466238021850586, -0.06547467410564423, -0.22953331470489502, 0.015652507543563843, -0.19956569373607635, 0.09996093064546585, 0.31072288751602173, 0.2859174311161041, -0.35268309712409973, 0.004951621405780315, -0.022362936288118362, 0.09927161037921906, 0.002204424934461713, 0.11462271958589554, 0.1351814568042755, 0.14405222237110138, -0.018763093277812004, -0.014082185924053192, -0.034827835857868195, 0.3969705104827881, -0.34008899331092834, 0.14320699870586395, 0.17081502079963684, 0.03401694819331169, 0.1880282610654831, -0.08728621155023575, -0.09050387889146805, -0.14311248064041138, 0.18573802709579468, -0.18180124461650848, -0.34086528420448303, -0.05681425333023071, -0.02602122351527214, -0.16139888763427734, 0.01827489398419857, -0.09657862782478333, 0.03219195082783699, -0.34183064103126526, -0.07495984435081482, 0.12309937924146652, 0.008274962194263935, 0.14495988190174103, 0.07191651314496994, 0.2753639817237854, 0.02125280536711216, -0.018189821392297745, 0.104759082198143, -0.18446452915668488, 0.12744826078414917, 0.08020895719528198, 0.3434818685054779, -0.00969681330025196, 0.406403124332428, -0.3332382142543793, -0.30615171790122986, 0.005866991821676493, -0.13762663304805756, -0.3329628109931946, -0.25973910093307495, 0.49599504470825195, 0.09566576778888702, -0.27928102016448975, 0.04745035618543625, 0.10763546824455261, 0.006481777410954237, 0.36273300647735596, 0.02682887203991413, -0.19918480515480042, -0.05460774526000023, 0.04111577197909355, 0.13386063277721405, -0.30359408259391785, 0.1691991686820984, -0.3851281702518463, 0.15952470898628235, 0.10584262013435364, 0.4221981465816498, 0.20749589800834656, -0.1858232617378235, 0.17926229536533356, 0.1038486585021019, -0.11233481019735336, 0.023457564413547516, -0.0915464386343956, -0.2389196753501892, 0.3446621298789978, -0.22854748368263245, -0.06021744757890701, 0.08358169347047806, 0.323862224817276, 0.4545034170150757, 0.0065740179270505905, 0.20548726618289948, -0.3998737335205078, 0.05455702543258667, -0.04117971286177635, -0.0495297908782959, -0.022657224908471107, 0.06655075401067734, 0.275732159614563, -0.34521129727363586, -0.025981176644563675, -0.15322618186473846, -0.016039369627833366, 0.12464705109596252, 0.30471089482307434, 0.03351730853319168, 0.38375124335289, -0.03791872039437294, 0.061371609568595886, 0.07840651273727417, -0.04314698651432991, -0.2499469816684723, -0.010440041311085224, 0.385774701833725, 0.14280688762664795, 0.08121198415756226, -0.15837237238883972, 0.07858730852603912, 0.2322908639907837, -0.27376335859298706, -0.10089525580406189, -0.08958378434181213, -0.5042867660522461, -0.14446698129177094, 0.07003556936979294, -0.07603436708450317, 0.24747419357299805, -0.1853751689195633, -0.06490819156169891, 0.18564429879188538, -0.05355510860681534, 0.10053122788667679, 0.04644601047039032, -0.08210771530866623, 0.2792636454105377, -0.18511174619197845, 0.11138662695884705, -0.3839314579963684, 0.1335276961326599, 0.1564946174621582, -0.2908870279788971, 0.09200385957956314, -0.10396931320428848, -0.22158268094062805, -0.16447396576404572, -0.46232596039772034, -0.23607778549194336, -0.08014077693223953, 0.2856734097003937, -0.06075002998113632, 0.13195888698101044, 0.2075951099395752, -0.06787494570016861, -0.06498324871063232, 0.30184271931648254, 0.04419487342238426, 0.00997831765562296, -0.36008670926094055, -0.07112441956996918, 0.11472894251346588, 0.3634107708930969, -0.18297430872917175, -0.2550095319747925, 0.18819913268089294, 0.3760624825954437, 0.21315722167491913, 0.3869900405406952, -0.04706510156393051, 0.0966741070151329, 0.16922326385974884, 0.08609969168901443, -0.1914311796426773, 0.48703092336654663, -0.1514984518289566, 0.21770882606506348, 0.14082331955432892, 0.08345048874616623, -0.16737893223762512, -0.2441415637731552, 0.25037744641304016, -0.1364186555147171, -0.04401133581995964, 0.07028663158416748, 0.21583321690559387, -0.2637777626514435, -0.2949516773223877, -0.004197617992758751, -0.23258961737155914, 0.04590955376625061, -0.059305910021066666, 0.2960587739944458, 0.07375266402959824, -0.07297056913375854, -0.12283661216497421, 0.018671110272407532, 0.09838343411684036, -0.2531498074531555, -0.027101658284664154, -0.06474004685878754, -0.21527859568595886, 0.030484486371278763, 0.030679600313305855, 0.24389302730560303, -0.1374209225177765, -0.3287719786167145, -0.46446314454078674, 0.13728339970111847, -0.4665531516075134, -0.198275625705719, 0.3719761073589325, 0.04016216844320297, -0.060404688119888306, 0.025504354387521744, -0.009161461144685745, -0.02597304992377758, -0.17698246240615845, 0.2022593915462494, -0.03236136958003044, -0.18961398303508759, 0.0668252632021904, 0.10320395231246948, 0.052402593195438385, -0.17030633985996246, -0.3631626069545746, 0.13228340446949005, 0.12139993160963058, 0.11127987504005432, 0.24410903453826904, 0.05315181985497475, -0.24024568498134613, -0.08641324937343597, -0.06770401448011398, -0.24161994457244873, 0.1256038248538971, -0.051665980368852615, -0.017373288050293922, 0.3549113869667053, -0.4488372206687927, -0.10587409883737564, -0.19555431604385376, -0.04100170359015465, -0.21260057389736176, -0.15214888751506805, 0.3830183446407318, -0.45236653089523315, -0.3015913665294647, 0.11256226897239685, 0.02945956028997898, 0.08482969552278519, -0.006223552860319614, 0.05411135405302048, 0.5394814014434814, -0.029966391623020172, 0.27396923303604126, -0.013211006298661232, -0.09140276908874512, -0.3393750786781311, 0.1871519833803177, -0.30864647030830383, -0.35449638962745667, -0.09926646947860718, 0.4722653329372406, -0.10315573960542679, 0.06951109319925308, 0.04956788569688797, 0.249050110578537, -0.25238141417503357, -0.17346540093421936, -0.06386574357748032, -0.11134764552116394, 0.016440220177173615, -0.11799120157957077, -0.035273369401693344, -0.07372166961431503, 0.11079814285039902, 0.1860274225473404, -0.27773725986480713, -0.3287264108657837, -0.3188714385032654, 0.12095505744218826, -0.1652141958475113, -0.1880902349948883, 0.21347656846046448, 0.14136084914207458, -0.03681954741477966, -0.05454586073756218, 0.3044113516807556, 0.22523385286331177, -0.09983071684837341, 0.06472929567098618, -0.2458696812391281, 0.3708687126636505, 0.15282684564590454, -0.1468466818332672, 0.013778571970760822, 0.3925492763519287, -0.03509635850787163, 0.18024098873138428, -0.06713934242725372, 0.010098305530846119, -0.26859405636787415, -0.03709731996059418, -0.16923123598098755, 0.08287307620048523, 0.30072084069252014, -0.16887789964675903, -0.3518114387989044, 0.33854803442955017, 0.02129833586513996, 0.4260311722755432, 0.007566767279058695, -0.2783046364784241, -0.1860506683588028, 0.11008516699075699, -0.03282221034169197, -0.09135700017213821, -0.11181630194187164, 0.152936652302742, 0.15041951835155487, -0.2616831958293915, -0.08742159605026245, -0.1656726598739624, -0.2964564561843872, -0.22760167717933655, 0.02612110786139965, 0.38895291090011597, 0.3384263813495636, 0.2611106038093567, -0.11169977486133575, -0.2842729687690735, -0.0013452681014314294, -0.04171888902783394, 0.21488802134990692, 0.1517065316438675, 0.2696325480937958, -0.33997732400894165, 0.20571276545524597, -0.021001754328608513, 0.2218792885541916, -0.16719907522201538, 0.18853779137134552, -0.27612513303756714, 0.2957581579685211], "kernelRoundsDim": 1, "inputChannelsDim": 56, "className": "ception", "bnMean": [-0.8208518028259277, 0.18543314933776855, 0.2222478687763214, -0.05806081369519234, 0.010690717026591301, -0.02692079171538353, -0.7651813626289368, -0.4732903838157654, 0.18849201500415802, 0.029664142057299614, 0.12870489060878754, 0.5504570603370667, 0.010197315365076065, -0.7945942878723145, 0.09722071141004562, -0.25169283151626587, -0.3172777593135834, 0.5734413266181946, -0.6064106225967407, -0.4052245616912842, 0.2663379907608032, -0.7357853651046753, -1.146411418914795, -0.378254771232605], "bnVariance": [0.7757887840270996, 1.0137221813201904, 0.8419406414031982, 0.7687156796455383, 1.1370826959609985, 1.1949033737182617, 1.3611791133880615, 1.1388261318206787, 1.4003790616989136, 1.132375955581665, 1.6174157857894897, 0.5356091260910034, 0.9542670845985413, 1.6284347772598267, 1.3253072500228882, 0.6647229194641113, 0.8982863426208496, 0.8527079820632935, 0.7254683971405029, 0.9229392409324646, 2.2925660610198975, 0.6777151823043823, 0.9149988293647766, 1.1202630996704102], "bnBeta": [-0.5471805334091187, -0.00520210899412632, -0.3526686131954193, -0.0899251401424408, -1.1843516826629639, -0.08575747907161713, 0.1838957965373993, -0.8180627226829529, -0.06496700644493103, -0.07827677577733994, -0.9698431491851807, -0.5781715512275696, -0.5880646705627441, -0.2484387904405594, -0.06184080243110657, -0.29913610219955444, 0.32695138454437256, -0.18363097310066223, -0.130425825715065, 0.01763792149722576, -0.11759340763092041, -0.3058265447616577, -0.23515523970127106, -0.31626641750335693], "typesDim": 3, "bnGamma": [1.2719488143920898, 0.7668231725692749, 1.136689305305481, 1.0577571392059326, 1.3117828369140625, 0.9809051156044006, 1.0214829444885254, 1.6057966947555542, 1.122465968132019, 1.1011544466018677, 1.2632668018341064, 1.1690561771392822, 0.9840278625488281, 1.1686996221542358, 0.9455398321151733, 0.7805446982383728, 0.9253441095352173, 1.0918277502059937, 1.1139020919799805, 0.884871244430542, 1.0490080118179321, 0.8582709431648254, 1.2124934196472168, 1.1762346029281616], "upsamplingTypesDimFactor": 1, "channelsDim": 24}, {"bnGammaD": [1.0244890451431274, 0.9519437551498413, 1.180681586265564, 0.9248464703559875, 1.0365121364593506, 1.1497368812561035, 1.0029724836349487, 1.231646180152893, 0.9813170433044434, 0.9918438792228699, 1.0669366121292114, 0.9979223608970642, 1.192891240119934, 0.7924008965492249, 0.933053731918335, 1.0690138339996338], "convKernelD": [-0.5425726771354675, 0.03574712574481964, 0.019589224830269814, -0.14017151296138763, 0.43766558170318604, 0.16090552508831024, -0.22106771171092987, -0.3268702030181885, 0.24500517547130585, 0.2278507649898529, -0.0938173457980156, 0.3737902343273163, 0.03686688840389252, -0.07009751349687576, 0.027359550818800926, 0.11468251794576645, -0.005807389505207539, 0.34680455923080444, -0.32394134998321533, 0.08468883484601974, -0.16559094190597534, -0.32907161116600037, 0.07817700505256653, -0.2881568670272827, 0.19186805188655853, 0.11700165271759033, 0.1802978515625, 0.31545913219451904, -0.014714229851961136, -0.044265266507864, 0.3460327982902527, 0.2910332977771759, 0.09077680855989456, -0.10277258604764938, 0.06615874916315079, 0.5526254773139954, -0.07756959646940231, 0.44782930612564087, 0.21531188488006592, -0.20786945521831512, 0.22447100281715393, 0.5720348954200745, -0.257789671421051, -0.3137786090373993, -0.3668464124202728, -0.3132759928703308, -0.053058378398418427, 0.15903759002685547, -0.16441155970096588, 0.003928594756871462, 0.06709929555654526, 0.33011186122894287, -0.1192159503698349, 0.0007816457073204219, 0.11001047492027283, 0.38824883103370667, 0.16773037612438202, 0.4696636199951172, -0.31492361426353455, -0.15010368824005127, 0.20412074029445648, -0.11373966932296753, 0.029452383518218994, -0.06993968039751053, -0.6552553772926331, 0.3835424780845642, -0.3476146161556244, 0.16121551394462585, -0.2045014649629593, -0.10008580982685089, 0.3720511794090271, 0.19490526616573334, 0.4369557797908783, 0.8405894637107849, -0.29735562205314636, -0.33202797174453735, 0.5174026489257812, 0.11756138503551483, 0.04047168418765068, 0.5138202905654907, -0.18120791018009186, -0.28485584259033203, 0.15818649530410767, -0.21303169429302216, 0.20773984491825104, 0.17220419645309448, 0.07939005643129349, 0.12420644611120224, -0.05796869471669197, -0.005762635264545679, 0.13970309495925903, 0.5557631254196167, 0.09341634809970856, 0.34991759061813354, -0.3057541847229004, 0.17291522026062012, -0.19793245196342468, -0.3028218746185303, -0.3496944010257721, -0.0655379444360733, -0.05832568183541298, -0.5005683898925781, -0.32242223620414734, -0.044478196650743484, -0.7317715883255005, 0.009558903984725475, 0.1773020178079605, 0.41122886538505554, -0.24862827360630035, 0.23735246062278748, -0.05717121809720993, 0.3144645690917969, -0.1432231217622757, 0.2715775966644287, -0.10632128268480301, -0.07230570912361145, -0.3499521017074585, 0.3953510522842407, 0.06997811794281006, 0.06838664412498474, 0.1299380213022232, -0.003081266302615404, 0.22520695626735687, -0.30139726400375366, -0.21827659010887146, 0.2907806634902954, 0.022816911339759827, -0.2712085545063019, 0.1423015296459198, 0.01464283186942339, 0.08117297291755676, 0.2054368555545807, 0.254948228597641, -0.12195981293916702, -0.30438968539237976, -0.037554413080215454, 0.14983433485031128, 0.21682730317115784, 0.0748434066772461, -0.21882393956184387, -0.13517339527606964, -0.03545088693499565, -0.37791121006011963, -0.15474964678287506, -0.012111212126910686, -0.1413635015487671, -0.19160544872283936, -0.21303905546665192, -0.05759041756391525, -0.016102300956845284, -0.23804666101932526, 0.0724986121058464, 0.01818653754889965, -0.22918520867824554, 0.13778512179851532, 0.12456005066633224, 0.01242723036557436, -0.06554945558309555, 0.13552774488925934, 0.03515838831663132, 0.07067546248435974, -0.09186669439077377, -0.11048857867717743, -0.07715361565351486, -0.09851323068141937, 0.06850067526102066, 0.015631500631570816, -0.10139968991279602, 0.0215030238032341, -0.025991544127464294, -0.28571653366088867, -0.05901617556810379, -0.17316819727420807, -0.06333412975072861, 0.2229296863079071, 0.09602028876543045, -0.2586587071418762, 0.03217997029423714, -0.144224613904953, -0.15521004796028137, -0.0011301179183647037, 0.24755778908729553, 0.18398219347000122, 0.025446616113185883, -0.046089790761470795, 0.24594363570213318, 0.1244303435087204, 0.2601860761642456, 0.41027453541755676, -0.12435036897659302, -0.05996834486722946, -0.09817679226398468, 0.13076166808605194, -0.14852462708950043, 0.2751864194869995, -0.14309115707874298, -0.07664935290813446, -0.15489432215690613, 0.15347401797771454, -0.06591415405273438, -0.16664530336856842, 0.1155378445982933, 0.16040712594985962, 0.1412828117609024, -0.14820870757102966, 0.16769547760486603, -1.013956904411316, -0.13112036883831024, 0.027008285745978355, -0.5026020407676697, 0.08240507543087006, -0.054892558604478836, -0.11888342350721359, -0.09274676442146301, 0.2834245562553406, 0.11789724230766296, -0.019446156919002533, 0.09686541557312012, 0.0558030866086483, 0.3426322042942047, -0.10262809693813324, 0.21464666724205017, -0.38225221633911133, -0.28477081656455994, -0.20125949382781982, -0.0996798723936081, -0.18512830138206482, -0.11203838139772415, 0.0764131247997284, -0.03630620241165161, 0.22582896053791046, 0.07878241688013077, 0.10476647317409515, -0.03489791229367256, -0.031901828944683075, 0.20806637406349182, 0.008903063833713531, 0.006570638157427311, 0.4965750277042389, 0.1356547623872757, -0.4717472493648529, 0.28368058800697327, -0.11975651234388351, -0.21626463532447815, -0.18171793222427368, 0.32926592230796814, 0.20789441466331482, -0.06639333069324493, 0.14697492122650146, -0.010595837607979774, 0.1259606033563614, -0.3336974084377289, -0.0680631622672081, 0.11310514062643051, 0.18236835300922394, 0.11872398108243942, 0.14886251091957092, 0.0384119488298893, 0.14932888746261597, -0.22520337998867035, -0.15575839579105377, 0.1348220854997635, 0.1856541782617569, 0.10708114504814148, -0.14764976501464844, 0.23787544667720795, -0.06282733380794525, 0.12510164082050323, -0.07235272228717804, -0.07714198529720306, -0.14279088377952576, 0.0690632313489914, 0.07157646864652634, 0.04631087929010391, -0.18011608719825745, 0.24077050387859344, 0.11370974034070969, 0.0628727376461029, 0.10307566821575165, -0.10193193703889847, 0.11573995649814606, -0.02300010621547699, 0.14221155643463135, 0.02272140607237816, -0.15821918845176697, 0.1500117927789688, -0.1803429126739502, 0.0791630819439888, 0.07253169268369675, 0.15738244354724884, -0.17662809789180756, -0.06824072450399399, 0.05586980655789375, -0.09031646698713303, 0.16754591464996338, -0.13558943569660187, 0.2757493257522583, -0.19090476632118225, 0.10266757756471634, -0.08553510904312134, -0.032276738435029984, 0.05951310321688652, 0.11652814596891403, 0.13867835700511932, 0.04169017821550369, 0.11888221651315689, -0.2340489625930786, 0.13541719317436218, 0.09314678609371185, -0.039927203208208084, -0.11596263945102692, 0.14894159138202667, -0.05728944391012192, 0.11919765919446945, -0.09339490532875061, -0.029164055362343788, -0.03461303934454918, -0.06239525228738785, -0.12580449879169464, -0.15921452641487122, 0.06536926329135895, 0.21399307250976562, 0.04609037563204765, 0.07675275206565857, -0.012771625071763992, -0.01423364132642746, -0.19956505298614502, 0.06010771542787552, -0.16928677260875702, -0.05520681291818619, 0.051082830876111984, -0.027963722124695778, -0.031614337116479874, 0.015737969428300858, -0.012990097515285015, -0.014491861686110497, 0.007800711318850517, 0.28962442278862, 0.01026985701173544, 0.07976025342941284, 0.20434467494487762, 0.03321484476327896, -0.31385338306427, 0.04688074439764023, 0.03687718138098717, -0.044927868992090225, 0.004994895774871111, 0.0038353721611201763, -0.05988946184515953, -0.16187259554862976, -0.26110032200813293, 0.08257251232862473, 0.11068680882453918, -0.09748062491416931, 0.014103838242590427, -0.09440205991268158, 0.012578435242176056, -0.36355412006378174, -0.13625501096248627, -0.07840417325496674, 0.1855890452861786, 0.07363876700401306, 0.019393106922507286, 0.05051620304584503, -0.012298560701310635, 0.13690762221813202, 0.14937995374202728, -0.056554846465587616, -0.15389016270637512, 0.07706408947706223, -0.08912330865859985, -0.09960970282554626, 0.018833689391613007, 0.11457633972167969, 0.17585811018943787, 0.14741292595863342, 0.09475644677877426, 0.08694058656692505, 0.16089867055416107, 0.14692363142967224, 0.23791085183620453, -0.1281764805316925, 0.13022443652153015, 0.244026318192482, 0.15880759060382843, 0.03810754045844078, 0.18630215525627136, -0.11063988506793976, -0.16409435868263245, 0.21640756726264954, 0.11332417279481888, 0.32591086626052856, 0.013672485947608948, 0.07588019222021103, 0.012711089104413986, 0.17532677948474884, -0.0803445503115654, -0.16162782907485962, -0.043287087231874466, 0.09784263372421265, 0.08890330046415329, 0.16056665778160095, 0.0006640732754021883, 0.1681205928325653, 0.26964402198791504, -0.11915329843759537, -0.12386133521795273, -0.08181088417768478, 0.24326734244823456, 0.022373678162693977, 0.17360468208789825, 0.08214391767978668, 0.05936342850327492, 0.31351497769355774, 0.0431952029466629, 0.0588223859667778, 0.10147470980882645, 0.3399370610713959, -0.041640475392341614, -0.09269960224628448, -0.0270479004830122, 0.018551379442214966, 0.14981913566589355, -0.07299795001745224, 0.09869170933961868, -0.3360487222671509, 0.2139626443386078, -0.12243132293224335, 0.07272845506668091, 0.19303098320960999, 0.02520797587931156, -0.25301626324653625, 0.17456316947937012, -0.05154804512858391, -0.15068677067756653, 0.08141074329614639, 0.21241137385368347, 0.17790918052196503, -0.2904704511165619, 0.22367742657661438, 0.21942804753780365, 0.017972372472286224, -0.22102323174476624, 0.03049577958881855, 0.048003632575273514, -0.03932049870491028, -0.20996853709220886, 0.035333603620529175, 0.08133380860090256, 0.11239107698202133, -0.059277575463056564, 0.06830769032239914, 0.028649145737290382, -0.05633286386728287, -0.2355445921421051, -0.035685040056705475, -0.023562001064419746, -0.05216607823967934, 0.03528201952576637, -0.03007594868540764, -0.19291633367538452, -0.019466301426291466, -0.011252532713115215, 0.13493536412715912, -0.15005934238433838, 0.07721571624279022, -0.05369726940989494, 0.08157144486904144, 0.23206579685211182, -0.0036000185646116734, -0.1491958349943161, -0.04275986924767494, 0.07611805200576782, -0.02008712664246559, 0.07000197470188141, -0.07643056660890579, -0.1019028052687645, -0.04895424842834473, -0.20461975038051605, -0.06033645570278168, 0.13557317852973938, -0.05975152924656868, 0.04842850938439369, -0.1397864669561386, -0.07003386318683624, -0.17773297429084778, -0.11257854849100113, -0.03865187242627144, 0.13048598170280457, -0.01391382422298193, 0.03869902715086937, 0.07697644829750061, 0.004339582286775112, 0.2031557261943817, 0.016569793224334717, -0.08475583046674728, -0.20260179042816162, 0.13098132610321045, 0.27552658319473267, 0.023734331130981445, 0.12056539952754974, -0.06225767359137535, 0.12165763229131699, 0.23873364925384521, 0.07528449594974518, 0.061512742191553116, -0.21379366517066956, 0.14055173099040985, 0.1830722987651825, -0.3532611131668091, 0.06171021610498428, 0.08214446157217026, 0.13181373476982117, 0.15564978122711182, 0.2062312364578247, -0.13545577228069305, -0.09083311259746552, 0.1710057109594345, -0.07614140212535858, 0.18711432814598083, 0.04710979387164116, 0.11763285845518112, 0.028152573853731155, 0.06574670225381851, -0.15113961696624756, -0.034350909292697906, -0.12126128375530243, 0.30020010471343994, -0.05345293506979942, -0.16771167516708374, -0.031430311501026154, 0.1384475827217102, 0.1343311071395874, 0.014069790951907635, -0.15348921716213226, 0.08622141927480698, 0.29062724113464355, 0.0005778804188594222, 0.20734234154224396, -0.02806316874921322, 0.12872345745563507, 0.19583351910114288, 0.19779182970523834, -0.09563779830932617, -0.14278726279735565, 0.15071792900562286, -0.11179069429636002, -0.10512512922286987, -0.0453549362719059, -0.07861435413360596, 0.12054836750030518, 0.07318241894245148, 0.07862267643213272, -0.1427440345287323, 0.10657539963722229, -0.08346982300281525, 0.012155910022556782, 0.025043673813343048, -0.15822747349739075, -0.26716625690460205, 0.034182626754045486, -0.07443851232528687, 0.3420239984989166, 0.1681489497423172, 0.20749381184577942, 0.12846393883228302, -0.11442811042070389, 0.18697750568389893, 0.3253725469112396, 0.0681895911693573, -0.003375072032213211, 0.11572767794132233, -0.07303902506828308, -0.08616611361503601, -0.08880310505628586, 0.42839643359184265, 0.13233397901058197, 0.17390480637550354, 0.20521491765975952, 0.09217683225870132, -0.01669476181268692, 0.006853384431451559, -0.11885037273168564, -0.08232370018959045, 0.043316956609487534, -0.044765304774045944, 0.01665242575109005, 0.03615111485123634, -0.22366631031036377, -0.09421825408935547, 0.09326811134815216, 0.01617516204714775, -0.14958526194095612, 0.08056678622961044, 0.24515175819396973, 0.17873848974704742, 0.25198081135749817, -0.023351969197392464, -0.010506387799978256, -0.016298476606607437, 0.03633933886885643, -0.020595328882336617, -0.08264842629432678, 0.1329270899295807, -0.004367628134787083, -0.05237610638141632, -0.0466899499297142, 0.13420705497264862, 0.068572498857975, -0.02960805408656597, 0.021799476817250252, -0.1832616627216339, -0.007821793667972088, -0.05386204272508621, -0.16940639913082123, -0.011512219905853271, 0.04467707872390747, -0.030422255396842957, 0.11020193994045258, 0.03503124415874481, 0.02769266627728939, 0.2153158038854599, 0.04426496475934982, -0.2582660913467407, -0.04749035835266113, 0.3478304445743561, 0.254382848739624, -0.06014058366417885, 0.010199213400483131, -0.24979406595230103, -0.06143632531166077, 0.08369680494070053, -0.0773986279964447, 0.11246871203184128, -0.19242066144943237, 0.1870243102312088, 0.1655629426240921, -0.2816305458545685, -0.05278947576880455, 0.1863725632429123, 0.2902165353298187, -0.02884933166205883, -0.5081228017807007, -0.23767174780368805, -0.1772184818983078, -0.19234712421894073, 0.28601402044296265, 0.14351095259189606, -0.27582699060440063, 0.0572819858789444, 0.3842025697231293, -0.17069704830646515, -0.10851871222257614, -0.19368021190166473, 0.32460540533065796, 0.14488177001476288, 0.339756041765213, 0.07446903735399246, -0.25278520584106445, -0.06784560531377792, 0.3819666802883148, 0.1329844444990158, 0.10093756020069122, 0.05075153335928917, 0.16097904741764069, 0.06558483839035034, 0.19627133011817932, 0.022195305675268173, 0.10199218988418579, 0.19897902011871338, 0.2222747951745987, 0.1916971653699875, 0.11883249878883362, 0.1253775656223297, 0.30042359232902527, -0.46806129813194275, 0.06425612419843674, -0.31944188475608826, -0.35370805859565735, 0.22997544705867767, 0.22084130346775055, -0.20979084074497223, 0.08308988064527512, 0.14848420023918152, 0.24474522471427917, -0.5406539440155029, 0.014724553562700748, 0.14566634595394135, 0.001887180027551949, 0.09479203820228577, 0.2542668581008911, 0.31935054063796997, 0.2186892181634903, -0.40768834948539734, 0.20883412659168243, 0.5209947824478149, -0.093626469373703, -0.046918172389268875, 0.338299423456192, -0.17236706614494324, -0.018285341560840607, 0.10672743618488312, 0.1850462257862091, -0.39410901069641113, -0.0061228168196976185, 0.03204121068120003, -0.10297942161560059, 0.2668555676937103, -0.13114400207996368, -0.17331619560718536, -0.15689364075660706, 0.0930221676826477, 0.06461308896541595, 0.02447260171175003, 0.07819821685552597, 0.16377410292625427, -0.3942965865135193, -0.24724797904491425, 0.041463110595941544, -0.31356334686279297, -0.2374415397644043, 0.18489296734333038, 0.005140900611877441, 0.04615580290555954, 0.16206958889961243, -0.054907433688640594, 0.19234202802181244, 0.010919884778559208, 0.007209590170532465, 0.14700154960155487, 0.46254757046699524, -0.20739544928073883, 0.15991370379924774, 0.030836554244160652, -0.26932212710380554, 0.13030487298965454, -0.026422353461384773, -0.046573907136917114, 0.22646641731262207, -0.0074704838916659355, 0.11434908211231232, -0.08062759041786194, 0.009907032363116741, -0.5331138968467712, 0.1500927060842514, 0.34028130769729614, -0.20409223437309265, 0.20867188274860382, 0.22070786356925964, 0.07398494333028793, 0.129757359623909, -0.09819170832633972, -0.23800021409988403, 0.37797343730926514, -0.07592260837554932, -0.17140789330005646, 0.01440201885998249, 0.0907592624425888, 0.1194869875907898, -0.2065320611000061, 0.2559579610824585, -0.024699164554476738, -0.12673453986644745, -0.5199258327484131, -0.12679490447044373, -0.14789414405822754, -0.15978966653347015, 0.023859525099396706], "convKernelA": [-0.345039039850235, -0.11305097490549088, -0.4233816862106323, 0.11605126410722733, 0.22354203462600708, 0.3168133497238159, -0.2500270903110504, -0.18440957367420197, -0.03147992491722107, 0.21424588561058044, -0.1818014681339264, -0.24320441484451294, 0.10180668532848358, 0.09898482263088226, -0.35431408882141113, 0.29455047845840454, 0.3731515407562256, -0.08753129839897156, -0.34227055311203003, 0.3603101074695587, 0.28104281425476074, 0.18953600525856018, 0.5557235479354858, -0.4599011540412903, -0.14860044419765472, -0.06182226166129112, -0.11697711795568466, -0.6400232315063477, 0.26971715688705444, 0.04022251069545746, 0.35999464988708496, 0.02655276283621788, 0.02058747224509716, -0.2245568037033081, 0.017191171646118164, 0.3750881552696228, -0.5810238718986511, 0.11347415298223495, -0.0786256343126297, 0.2208329290151596, 0.30333244800567627, -0.4156179428100586, 0.11993183195590973, -0.07516621053218842, 0.32446104288101196, -0.19949783384799957, -0.6604118347167969, -0.05982215330004692, 0.621757984161377, -0.6661644577980042, -0.11852555721998215, 0.15132759511470795, -0.2805958688259125, -0.49959415197372437, -0.02256818674504757, 0.09921644628047943, 0.17902161180973053, -0.10780586302280426, 0.10290370881557465, 0.11527112871408463, -0.2696751654148102, -0.4864467978477478, 0.6144286394119263, 0.18081940710544586, -0.261402428150177, -0.1620917022228241, -0.3906196355819702, -0.09083511680364609, -0.36467450857162476, 0.09888996183872223, 0.28696778416633606, -0.4770236611366272, -0.23928354680538177, -0.30108994245529175, -0.6008504033088684, -0.10322346538305283, 0.426469087600708, -0.2388988435268402, 0.3191901743412018, 0.6966066956520081, -0.1122557744383812, -0.48763731122016907, -0.5864369869232178, 0.2314443141222, -0.694431722164154, 0.31170859932899475, -0.139295294880867, -0.15486936271190643, 0.07289630174636841, -0.04773959890007973, -0.2259623110294342, 0.23890149593353271, 0.5335339307785034, 0.08825371414422989, -0.3288537561893463, -0.18888145685195923, 0.46488410234451294, 0.34880635142326355, -0.1526278853416443, 0.2109001725912094, 0.38509365916252136, -0.6381630301475525, 0.24615074694156647, 0.5172353982925415, 0.5479267239570618, 0.18456098437309265, 0.6178749203681946, 0.04922075942158699, -0.01918867602944374, -0.3743140697479248, 0.17192523181438446, 0.051777347922325134, -0.21885095536708832, -0.057204753160476685, 0.4449595510959625, -0.10713307559490204, -0.11215409636497498, 0.032865848392248154, -0.2448081225156784, -0.08940398693084717, -0.2008344531059265, 0.21248646080493927, 0.005030726548284292, 0.04157184809446335, -0.03795884922146797, 0.1627127081155777, 0.10692485421895981, -0.05102715268731117, 0.020953897386789322, 0.3073766529560089, 0.026819927617907524, -0.14996160566806793, 0.18736259639263153, -0.21770130097866058, 0.337410569190979, -0.2953909635543823, -0.15130245685577393, -0.6175163984298706, -0.2215070277452469, -0.41156184673309326, 0.03033645637333393, 0.2849480211734772, 0.15263056755065918, -0.3855588734149933, -0.48782771825790405, -0.3962740898132324, -0.1731037199497223, 0.1917417347431183, 0.14703936874866486, 0.4262250065803528, -0.09163367003202438, 0.10795653611421585, -0.08922187983989716, 0.19341792166233063, 0.19236041605472565, -0.18267320096492767, -0.041998084634542465, 0.13504748046398163, -0.1403190940618515, -0.40154576301574707, 0.5174182653427124, -0.18456760048866272, 0.47762060165405273, -0.5443909764289856, 0.1772965043783188, 0.11901490390300751, 0.2755826711654663, -0.15530669689178467, 0.011244877241551876, -0.2336527705192566, 0.2547962963581085, -0.4038291275501251, -0.2590440511703491, 0.28791722655296326, -0.2246433049440384, -0.5355936288833618, 0.002965363208204508, -0.2848844528198242, 0.034249257296323776, 0.3975616693496704, 0.14800448715686798, -0.18167248368263245, 0.13022874295711517, 0.09372562170028687, 0.07065721601247787, -0.20499058067798615, -0.08554848283529282, 0.5182664394378662, 0.09539318084716797, 0.23095543682575226, 0.4902704954147339, -0.1259152740240097], "bnVarianceC": [1.5306882858276367, 1.4306278228759766, 1.5452216863632202, 1.9551405906677246, 1.8174971342086792, 1.1236858367919922, 0.6039062142372131, 0.5627603530883789], "bnBetaC": [-0.08096633851528168, 0.5091252326965332, -0.18314948678016663, 0.3094843029975891, 0.03924538567662239, -0.768287718296051, 0.024402936920523643, -0.09458337724208832], "bnGammaB": [0.7657848000526428, 0.9401378035545349, 0.7735218405723572, 1.2439435720443726, 1.1173125505447388, 0.8198054432868958, 0.9888977408409119, 1.0150947570800781, 0.923043429851532, 0.7362186312675476, 0.7973841428756714, 1.1500221490859985, 0.8631630539894104, 1.1036933660507202, 1.1973382234573364, 0.9887183904647827], "bnGammaC": [0.9481112360954285, 0.7058767676353455, 0.9293442964553833, 1.038985252380371, 1.114105224609375, 1.1151596307754517, 1.0111985206604004, 0.6967737078666687], "bnBetaA": [0.4861483573913574, -0.33355632424354553, -0.23057809472084045, -0.14493784308433533, -0.43325796723365784, -0.0565471351146698, -0.1759691834449768, 0.07264424115419388], "bnMeanB": [0.4569963812828064, -0.11650999635457993, 0.4662858843803406, -0.2637052536010742, -0.6580755114555359, 0.6011725068092346, 0.14492453634738922, -0.5176305174827576, 0.09850293397903442, 0.30349990725517273, 0.33556514978408813, 0.7105796337127686, 0.18406392633914948, -0.21351830661296844, 0.7126931548118591, -0.13978905975818634], "scaleFactor": 1, "bnBetaB": [-0.1954774707555771, -0.11624887585639954, 0.16433556377887726, -4.2218187445541844e-05, -0.22253088653087616, 0.49156713485717773, -0.30210328102111816, -0.7683882713317871, -0.5442512631416321, 0.06192696467041969, -0.6881435513496399, -0.06977157294750214, 0.03459841385483742, -0.1393108367919922, -0.16246122121810913, -0.3414321541786194], "bnBetaD": [0.20737430453300476, -0.26570072770118713, -0.5696533918380737, 0.04531169310212135, -0.7002225518226624, -0.28888049721717834, -0.8757839202880859, -0.7002447843551636, -0.599737286567688, -0.39200496673583984, -0.3902991712093353, 0.10643839091062546, -0.32119694352149963, 0.31996071338653564, -0.6707035303115845, -0.25305554270744324], "bnMeanC": [-0.7529301047325134, 0.03254397585988045, -0.3130097985267639, 0.2912161648273468, -0.08831348270177841, 0.06979531794786453, -0.2924007773399353, 0.12963321805000305], "roundsDim": 6, "convBiasB": [0.03522012382745743, 0.0018954126862809062, -0.04582248628139496, 0.02969617210328579, 0.020938366651535034, -0.028093799948692322, 0.006848608143627644, 0.007882191799581051, 0.022833874449133873, 0.01908893510699272, -0.02199982851743698, -0.02586672455072403, 0.012625956907868385, -0.008370032534003258, -0.018420057371258736, 0.006077563855797052], "convBiasD": [-0.00518816988915205, -0.010058059357106686, -0.005290022119879723, 0.015502559021115303, -0.02261177822947502, 0.029028980061411858, -0.024020038545131683, -0.03208410367369652, 0.015037969686090946, -0.009855401702225208, -0.025864388793706894, 0.002988900989294052, -0.021620290353894234, -0.023618821054697037, 0.008043280802667141, 0.007406202144920826], "bnGammaA": [1.0314066410064697, 1.1767077445983887, 1.3670176267623901, 0.895304262638092, 1.7492930889129639, 0.9508469104766846, 1.0718193054199219, 0.8986128568649292], "convKernelB": [0.268250048160553, -0.14558517932891846, 0.25741809606552124, -0.21155613660812378, -0.3387223780155182, 0.3216409683227539, -0.10887731611728668, -0.16828592121601105, 0.08149803429841995, 0.125970259308815, 0.09559895098209381, 0.36050233244895935, 0.15005138516426086, -0.1062687337398529, 0.3336911201477051, 0.016575239598751068, -0.029494192451238632, -0.14172431826591492, 0.47378215193748474, 0.3147064745426178, -0.039784062653779984, -0.20286664366722107, -0.30284929275512695, 0.04994035139679909, 0.2736101746559143, -0.3763096332550049, 0.11795996129512787, -0.2239023745059967, -0.003725202288478613, -0.08611015975475311, 0.18599459528923035, -0.08167815953493118, -0.24173018336296082, 0.18277712166309357, -0.07805118709802628, 0.058907270431518555, -0.3503146469593048, 0.002163102850317955, 0.19065289199352264, -0.3101770579814911, -0.39756089448928833, 0.33718258142471313, -0.023916147649288177, -0.2162543535232544, -0.2734208405017853, 0.2949996292591095, 0.1911913901567459, 0.15417954325675964, -0.3991907238960266, -0.006281208712607622, -0.02500692568719387, -0.23670196533203125, -0.07065103203058243, -0.041165370494127274, 0.14545200765132904, 0.14993631839752197, 0.04184162989258766, -0.20667003095149994, -0.4476865231990814, -0.18941093981266022, -0.006310711614787579, 0.037922460585832596, -0.39184457063674927, -0.003190689953044057, 0.1597861796617508, -0.2509901225566864, 0.17788037657737732, 0.09456600248813629, -0.14018699526786804, 0.39543014764785767, 0.11432340741157532, 0.20298703014850616, 0.2426498383283615, 0.03013327717781067, 0.16349612176418304, -0.01109237503260374, -0.24862916767597198, 0.004155177157372236, 0.0802953913807869, -0.6195780634880066, 0.09149985015392303, 0.41026437282562256, 0.038406405597925186, -0.11292760819196701, -0.3315944969654083, -0.18219329416751862, 0.2677653431892395, -0.34006139636039734, 0.10005936771631241, 0.22994272410869598, 0.08962397277355194, -0.12692371010780334, -0.11945586651563644, 0.0640881136059761, -0.0769277885556221, -0.08614172786474228, -0.2973199486732483, -0.05682680010795593, -0.15480992197990417, -0.08000414818525314, 0.21496963500976562, -0.10704731941223145, -0.1456964761018753, -0.40122050046920776, -0.19556266069412231, -0.33455440402030945, 0.3435742259025574, 0.10889744013547897, -0.35887789726257324, -0.7336127758026123, 0.28594866394996643, 0.1437208503484726, 0.22324253618717194, 0.0842505544424057, 0.06071797013282776, 0.32896971702575684, 0.050535231828689575, 0.21617574989795685, 0.33874571323394775, -0.09388960152864456, 0.03723534196615219, 0.06710191816091537, 0.007177350111305714, 0.2541464865207672, 0.26188844442367554, -0.13802747428417206, 0.13738994300365448, -0.09319072216749191, 0.27869054675102234, -0.14241871237754822, 0.265500545501709, -0.22366726398468018, -0.3324025869369507, 0.2857540547847748, -0.10512151569128036, -0.18000951409339905, 0.06616589426994324, 0.10391229391098022, 0.11497211456298828, 0.36008626222610474, 0.13612744212150574, -0.08146452903747559, 0.34126514196395874, 0.010520152747631073, -0.03517274931073189, -0.13214844465255737, 0.4755009114742279, 0.3092375695705414, -0.026926346123218536, -0.19576530158519745, -0.2904365658760071, 0.05829162523150444, 0.26680678129196167, -0.3717069923877716, 0.13833701610565186, -0.2275644838809967, -0.0037299867253750563, -0.07846136391162872, 0.17134228348731995, -0.1060601994395256, -0.24497468769550323, 0.16502434015274048, -0.07772478461265564, 0.06579599529504776, -0.3616814911365509, 0.04618929699063301, 0.19724206626415253, -0.2931995391845703, -0.3782643675804138, 0.3628985285758972, -0.02220229059457779, -0.21169346570968628, -0.27398088574409485, 0.2629120647907257, 0.18490155041217804, 0.1591082513332367, -0.3739427328109741, -0.029388926923274994, -0.02778875082731247, -0.24415725469589233, -0.0754115954041481, -0.028853101655840874, 0.14662298560142517, 0.16339115798473358, 0.051342450082302094, -0.21061833202838898, -0.4274573028087616, -0.17785784602165222, 0.0033203987404704094, 0.01021413691341877, -0.4070749580860138, 0.016690347343683243, 0.16238684952259064, -0.2574351727962494, 0.17656245827674866, 0.0968305915594101, -0.14567656815052032, 0.40183958411216736, 0.11467407643795013, 0.19925238192081451, 0.23938925564289093, 0.03281707316637039, 0.15655255317687988, -0.017074765637516975, -0.25370702147483826, -0.002135981572791934, 0.08367203176021576, -0.6108294129371643, 0.09530273824930191, 0.40953898429870605, 0.043894872069358826, -0.10199003666639328, -0.335591197013855, -0.18116754293441772, 0.26514461636543274, -0.3260439932346344, 0.0956282764673233, 0.21696165204048157, 0.0921986997127533, -0.1270422488451004, -0.12090758234262466, 0.0665009468793869, -0.07507644593715668, -0.10121596604585648, -0.3045700490474701, -0.049537692219018936, -0.1654016226530075, -0.08367558568716049, 0.21637608110904694, -0.09920593351125717, -0.1400042176246643, -0.4085889458656311, -0.1962096095085144, -0.3408401906490326, 0.3250660300254822, 0.11726474016904831, -0.37216129899024963, -0.7280570268630981, 0.27741265296936035, 0.1511729210615158, 0.24131380021572113, 0.09468837082386017, 0.06364975869655609, 0.33874350786209106, 0.05475987121462822, 0.20591594278812408, 0.3454342186450958, -0.10623302310705185, 0.027208158746361732, 0.06427547335624695, 0.003132930723950267, 0.25446459650993347, 0.2536982595920563, -0.13521356880664825, 0.13524067401885986, -0.09525134414434433, 0.26955389976501465, -0.15692012012004852, 0.25851184129714966, -0.22455349564552307, -0.33625614643096924, 0.3024255633354187, -0.10222376883029938, -0.17709912359714508, 0.07305759191513062, 0.10701911151409149, 0.1190284788608551, 0.3487737476825714, 0.14894458651542664, -0.10408761352300644, 0.34322410821914673, 0.018945295363664627, -0.01962915062904358, -0.141963392496109, 0.46300238370895386, 0.30384987592697144, -0.04269463196396828, -0.19978715479373932, -0.29595947265625, 0.04343274608254433, 0.2632983922958374, -0.3632213771343231, 0.12334486842155457, -0.23474107682704926, -0.0028514598961919546, -0.06506022065877914, 0.17846058309078217, -0.09443007409572601, -0.2546209990978241, 0.19112473726272583, -0.08191201835870743, 0.059915635734796524, -0.34896793961524963, 0.026452068239450455, 0.20053838193416595, -0.29538193345069885, -0.37355655431747437, 0.3419675827026367, -0.04189019650220871, -0.20456214249134064, -0.28461477160453796, 0.25069141387939453, 0.1854245811700821, 0.16576877236366272, -0.3859328627586365, -0.005453478079289198, -0.018591661006212234, -0.23313923180103302, -0.07478545606136322, -0.025849873200058937, 0.1488148272037506, 0.1682869791984558, 0.05098103731870651, -0.20652683079242706, -0.448357492685318, -0.1852819323539734, 0.002028517657890916, 0.03948831558227539, -0.3988359272480011, 0.016109947115182877, 0.15810619294643402, -0.2612079679965973, 0.17838528752326965, 0.09862901270389557, -0.14393895864486694, 0.3925212323665619, 0.12292925268411636, 0.20266658067703247, 0.25451162457466125, 0.02119271457195282, 0.16382800042629242, -0.012793534435331821, -0.25934869050979614, -0.011631593108177185, 0.08384279906749725, -0.6186553239822388, 0.0836988240480423, 0.41309764981269836, 0.04006313905119896, -0.11794450134038925, -0.32538050413131714, -0.17364299297332764, 0.26412591338157654, -0.33136704564094543, 0.10408370196819305, 0.23637939989566803, 0.11052917689085007, -0.13116046786308289, -0.12858594954013824, 0.054058678448200226, -0.08513560146093369, -0.09961624443531036, -0.3187123239040375, -0.06548575311899185, -0.16619770228862762, -0.07968241721391678, 0.21725231409072876, -0.09692518413066864, -0.14428623020648956, -0.40571972727775574, -0.19480445981025696, -0.3204718232154846, 0.3346341848373413, 0.11601866036653519, -0.3647003471851349, -0.7363041043281555, 0.28146669268608093, 0.14822161197662354, 0.24962453544139862, 0.09320515394210815, 0.06779725849628448, 0.3425409197807312, 0.051261093467473984, 0.1948213428258896, 0.3513193428516388, -0.1171150952577591, 0.034920621663331985, 0.06718208640813828, 0.004264486022293568, 0.25148943066596985, 0.2826651632785797, -0.11790642887353897, 0.12655018270015717, -0.09131495654582977], "bnMeanD": [0.6139328479766846, 0.3806544542312622, -0.8883636593818665, 0.400702565908432, 0.10130950808525085, 0.05405933037400246, -0.3016803562641144, 0.18282777070999146, 0.8491109013557434, 0.6120904684066772, 0.36325153708457947, 0.1097816675901413, 0.2900751233100891, -0.34008824825286865, 1.176769495010376, -0.0806659534573555], "inputChannelsDim": 24, "convKernelC": [0.3887275457382202, 0.2800907492637634, -0.34138187766075134, -0.22984465956687927, 0.497371107339859, -0.20041987299919128, 0.09544175863265991, 0.1746496856212616, -0.027839185670018196, 0.21639733016490936, -0.1615263819694519, 0.031915728002786636, -0.10001245141029358, 0.32532092928886414, -0.19301091134548187, 0.2791447341442108, 0.19185622036457062, -0.2882222831249237, -0.7118428945541382, 0.0074968053959310055, -0.0686926618218422, 0.018333598971366882, -0.006808687932789326, 0.26299354434013367, -0.389873743057251, -0.057766471058130264, 0.04597187787294388, 0.06242578104138374, -0.16456499695777893, -0.19770723581314087, -0.5153448581695557, -0.41907840967178345, 0.11841882020235062, -0.3934752941131592, 0.08990366011857986, 0.24796557426452637, 0.16363570094108582, -0.06712072342634201, -0.046165961772203445, 0.06270931661128998, -0.15077032148838043, -0.45889610052108765, -0.1869475245475769, 0.2037905752658844, 0.501257061958313, 0.15530826151371002, -0.3282451629638672, -0.036931492388248444, -0.045057911425828934, -0.16078190505504608, -0.5049095749855042, 0.21017275750637054, -0.12967242300510406, -0.34998205304145813, 0.13359658420085907, 0.12572498619556427, 0.4284905195236206, 0.005832485388964415, 0.3702830374240875, -0.003427976043894887, -0.038256242871284485, -0.065621018409729, 0.25200584530830383, 0.3222824037075043, 0.2518300414085388, 0.2668912410736084, -0.234546959400177, -0.30814558267593384, -0.016661712899804115, 0.06213930994272232, -0.22226938605308533, 0.45694249868392944, -0.3565705120563507, 0.20395620167255402, 0.14504559338092804, -0.28614306449890137, 0.3774786591529846, 0.2879219353199005, 0.060703691095113754, 0.17341122031211853, 0.579194962978363, 0.09247296303510666, 0.33569616079330444, -0.46418192982673645, 0.29965394735336304, 0.27413904666900635, -0.029264001175761223, -0.13300646841526031, 0.22400319576263428, 0.033049326390028, -0.012005467899143696, -0.4510248899459839, 0.4017229378223419, 0.3255203366279602, -0.04299994930624962, -0.35574886202812195, 0.10691144317388535, 0.04276353865861893, -0.08669280260801315, -0.04184786602854729, -0.34274011850357056, -0.05390908941626549, 0.3861537575721741, 0.07908524572849274, -0.12387283146381378, -0.7550938129425049, 0.3269180655479431, 0.44848453998565674, 0.06826406717300415, 0.03183184564113617, 0.2670229375362396, 0.4580939710140228, -0.460742712020874, -0.17772698402404785, 0.160994753241539, -0.23626719415187836, 0.3337092697620392, -0.1839693933725357, 0.26470619440078735, 0.2742907702922821, 0.10531911253929138, -0.4779450297355652, 0.43607011437416077, -0.055925119668245316, 0.18840086460113525, 0.2747020125389099, 0.08480557054281235, -0.1398753970861435, -0.4139072299003601, -0.11752471327781677, 0.15098503232002258, 0.2819909453392029, 0.15443867444992065, 0.505174458026886, -0.19961054623126984, 0.331469863653183, 0.025540968403220177, -0.029061948880553246, -0.047550417482852936, 0.2747404873371124, 0.6146295070648193, -0.20156745612621307, -0.2966430187225342, -0.16521139442920685, 0.07442311942577362, -0.14891968667507172, -0.5816004276275635, -0.3423781096935272, -0.05348944664001465, 0.31503158807754517, 0.16678784787654877, -0.1549372673034668, 0.15817156434059143, 0.2575828433036804, -0.06379210203886032, 0.14385147392749786, 0.20621146261692047, 0.19784735143184662, 0.09723935276269913, -0.39009901881217957, -0.43361103534698486, -0.4900887608528137, 0.46834638714790344, -0.3488370180130005, -0.0009673942113295197, -0.08280688524246216, 0.2725037932395935, 0.08816374838352203, -0.30175915360450745, 0.26924532651901245, -0.06413637846708298, 0.37576907873153687, 0.24219544231891632, -0.296448290348053, 0.3822231888771057, -0.12698812782764435, 0.3852930963039398, 0.09383390843868256, -0.0895388200879097, 0.3191642463207245, -0.0004095284966751933, -0.4748694598674774, 0.5288930535316467, 0.09775559604167938, -0.026464294642210007, -0.25234028697013855, 0.2442559450864792, 0.29744279384613037, 0.22741374373435974, -0.15260568261146545, -0.7339369654655457, -0.2747642397880554], "className": "reception", "convBiasA": [0.006770032458007336, 0.0005987266195006669, -0.01025124080479145, 0.020362988114356995, -0.004405294079333544, 0.009709342382848263, 0.0002558835840318352, 0.013183322735130787], "typesDim": 3, "bnMeanA": [0.028998814523220062, 0.00360880303196609, 0.27296701073646545, -0.5512648224830627, 0.454629510641098, -0.2404630035161972, 0.14531086385250092, -0.1531469076871872], "bnVarianceD": [0.7330549359321594, 1.2878514528274536, 0.6837458610534668, 0.8603414297103882, 0.21338270604610443, 0.6730747818946838, 0.5716923475265503, 0.862836480140686, 0.3768574595451355, 0.6916596293449402, 1.1148582696914673, 0.9516437649726868, 0.4952545166015625, 0.5847973227500916, 0.895058274269104, 0.7478944063186646], "bnVarianceB": [0.8149949908256531, 0.8873114585876465, 0.48090487718582153, 0.7316370606422424, 1.0085957050323486, 1.5447026491165161, 0.48129376769065857, 1.143136978149414, 0.9482181072235107, 1.1386146545410156, 1.1656614542007446, 0.774237334728241, 0.8817935585975647, 2.2591302394866943, 1.5769681930541992, 1.6026654243469238], "convBiasC": [0.008006635122001171, -0.026413768529891968, 0.011869740672409534, -0.04190582036972046, 0.017809219658374786, -0.02893381007015705, 0.024051375687122345, 0.02942715957760811], "bnVarianceA": [2.919053792953491, 1.4459035396575928, 3.197916269302368, 1.418691635131836, 1.09038507938385, 1.2739158868789673, 1.2513173818588257, 1.089138388633728]}, {"upsamplingRoundsDimFactor": 1, "roundsDim": 6, "convBias": [-0.01576060801744461, 0.010696242563426495, 0.009763682261109352, 0.0019607876893132925, -0.036279093474149704, -0.03631094843149185, 0.0035439066123217344, 0.011189212091267109, 0.009543349966406822, 0.011780202388763428, -0.0072904364205896854, 0.044026345014572144, 0.03270414471626282, -0.01627323590219021, -0.01151969376951456, -0.014684089459478855, -0.019869228824973106, 0.01382444053888321, 0.011169204488396645, 0.015317419543862343, 0.019824258983135223, -0.009105815552175045, 0.00253702187910676, -0.014595664106309414, -0.0015914131654426455, 0.008209267631173134, -0.00608992762863636, -0.034683313220739365, 0.022035107016563416, -0.001922142575494945, -0.005817537195980549, 0.015804452821612358, 0.026484711095690727, -0.004681907128542662, -0.025147853419184685, 0.014059478417038918], "kernelTypesDim": 1, "convKernel": [-0.039028871804475784, 0.16895371675491333, 0.04428460821509361, -0.15338753163814545, 0.13924774527549744, 0.1799909472465515, -0.04642780125141144, -0.003961552865803242, 0.3530491590499878, 0.12653584778308868, -0.6560148596763611, 0.01582326367497444, 0.06686387211084366, 0.15013878047466278, 0.08022906631231308, 0.22967608273029327, 0.026587916538119316, -0.3768007457256317, -0.028446240350604057, -0.21186001598834991, 0.20757876336574554, -0.051410384476184845, 0.18625350296497345, -0.1857222467660904, -0.03703693673014641, 0.020725388079881668, -0.20330314338207245, -0.15442325174808502, -0.06075805053114891, 0.22532404959201813, 0.18141305446624756, 0.28439751267433167, -0.19492362439632416, 0.06476056575775146, 0.2658005356788635, -0.027140364050865173, 0.2365439534187317, 0.17831750214099884, -0.08632800728082657, 0.27026140689849854, 0.4183644652366638, -0.20988711714744568, -0.4319586455821991, 0.1318042278289795, 0.10927678644657135, 0.2511705458164215, 0.253121554851532, -0.030928628519177437, -0.034546151757240295, -0.38742008805274963, 0.3190900981426239, -0.3805094361305237, 0.16625574231147766, -0.0143844960257411, 0.19555328786373138, 0.31290552020072937, 0.03693349286913872, -0.07861000299453735, 0.09088460355997086, -0.02579035423696041, 0.15130065381526947, 0.16312429308891296, -0.2725454866886139, -0.22005970776081085, -0.13385246694087982, -0.11266696453094482, 0.044146258383989334, 0.0015456790570169687, -0.06245590001344681, 0.024212094023823738, -0.1780630648136139, 0.45670682191848755, 0.11260905116796494, 0.20593363046646118, -0.513585090637207, -0.23342642188072205, 0.31017300486564636, 0.009659864939749241, 0.03676115721464157, -0.10334708541631699, 0.02068723738193512, -0.2662373185157776, -0.03742489218711853, 0.018072418868541718, 0.03224063292145729, 0.1460026502609253, 0.017192276194691658, 0.37065133452415466, 0.1872132271528244, 0.10245315730571747, 0.08936939388513565, -0.0211333017796278, -0.04858880117535591, -0.020809803158044815, 0.10896656662225723, -0.0017672654939815402, -0.2020396590232849, 0.14616774022579193, -0.36610642075538635, -0.16450858116149902, 0.08167265355587006, 0.26119327545166016, -0.004204843193292618, -0.08198123425245285, 0.14577528834342957, -0.7178254127502441, 0.43880730867385864, -0.2397695928812027, 0.178193137049675, 0.20721398293972015, -0.10055816173553467, 0.19685807824134827, 0.1751105934381485, 0.2922568619251251, -0.011204082518815994, 0.07714216411113739, 0.1777951717376709, -0.008473923429846764, -0.044868867844343185, -0.28436291217803955, -0.09477905184030533, 0.19129040837287903, 0.30812376737594604, -0.024714019149541855, 0.2166784554719925, -0.028083886951208115, 0.018099650740623474, 0.04843495413661003, -0.04032358527183533, -0.17132946848869324, 0.09083613008260727, 0.230880007147789, 0.25453469157218933, 0.21089793741703033, -0.0018369238823652267, -0.17281752824783325, 0.1500309407711029, 0.019501522183418274, 0.39575740694999695, 0.33373770117759705, -0.10761884599924088, 0.30196666717529297, -0.1375149041414261, -0.1850094199180603, 0.10656561702489853, -0.2862998843193054, -0.2961130142211914, 0.15815715491771698, 0.13872399926185608, -0.14021813869476318, -0.12442082911729813, -0.36433884501457214, -0.13143514096736908, -0.03585106134414673, -0.29045382142066956, 0.08938011527061462, 0.08525735139846802, 0.2588215470314026, 0.4987550377845764, -0.05286966636776924, 0.2589396834373474, -0.21772633492946625, -0.4286455512046814, 0.08466445654630661, 0.18369024991989136, -0.24503342807292938, -0.42408257722854614, -0.48394832015037537, -0.14121274650096893, -0.3808321952819824, 0.03187781199812889, -0.09648332744836807, 0.13881780207157135, 0.23385095596313477, -0.038021270185709, -0.27482059597969055, -0.16360831260681152, 0.06247008219361305, -0.16397348046302795, 0.028191467747092247, -0.1844431757926941, -0.09417654573917389, 0.16278930008411407, -0.1124907061457634, -0.05061240494251251, -0.12939168512821198, -0.12271270900964737, 0.22500687837600708, -0.1165124848484993, -0.12708808481693268, 0.22754941880702972, -0.014473109506070614, 0.1916016936302185, 0.18079791963100433, 0.2713978588581085, 0.290842741727829, -0.529670238494873, 0.05844758078455925, 0.19842424988746643, 0.11516391485929489, 0.0887695923447609, -0.23498554527759552, 0.09611693769693375, 0.1789671629667282, 0.3165522813796997, -0.10310816764831543, 0.08384176343679428, -0.3244439363479614, 0.01727880723774433, -0.2932710647583008, 0.32087472081184387, 0.3326031267642975, 0.012789666652679443, 0.3044102191925049, -0.03393028676509857, 0.08130542933940887, -0.0399937629699707, -0.3429303467273712, -0.2643261253833771, 0.32637453079223633, 0.15694522857666016, 0.11755632609128952, -0.05030617117881775, -0.1301649808883667, 0.21101847290992737, 0.1112225353717804, -0.1413796842098236, -0.27638524770736694, -0.07253184169530869, 0.2434152066707611, 0.23139086365699768, -0.1706046760082245, 0.07945618778467178, 0.10957327485084534, -0.049011941999197006, 0.14721699059009552, 0.1149338036775589, 0.20647627115249634, -0.22190865874290466, 0.1446562260389328, -0.09039385616779327, 0.2704857587814331, 0.008080724626779556, -0.15918366611003876, 0.045788053423166275, -0.35094738006591797, -0.0045221345499157906, 0.08722923696041107, 0.2892518639564514, 0.04308728128671646, -0.029512707144021988, -0.11592929810285568, -0.3218104839324951, -0.41337820887565613, 0.12736578285694122, -0.08948297053575516, 0.17008422315120697, -0.3592027723789215, 0.16460058093070984, 0.1339898705482483, 0.06354799121618271, -0.047126654535532, -0.2689674198627472, -0.1419803947210312, 0.34738579392433167, 0.21783898770809174, -0.12226900458335876, -0.44300565123558044, 0.18993082642555237, -0.034216832369565964, -0.089063860476017, -0.17637662589550018, -0.20313240587711334, 0.2638997435569763, 0.2364339530467987, 0.6866251230239868, 0.22876645624637604, -0.4306910037994385, -0.11321569979190826, 0.47445178031921387, 0.007494078949093819, -0.1995161771774292, -0.3329543173313141, -0.21775281429290771, 0.5335999131202698, 0.08103692531585693, -0.17179441452026367, -0.21257062256336212, -0.02156156860291958, -0.0919639989733696, 0.1677759289741516, 0.08972924202680588, -0.1751192957162857, 0.004838753957301378, 0.3415573537349701, -0.05741666629910469, 0.02870132029056549, -0.19682253897190094, -0.6172694563865662, 0.03314898535609245, -0.014201171696186066, 0.2803802192211151, 0.09718044847249985, 0.38893964886665344, 0.3706275224685669, -0.17973692715168, 0.07703174650669098, -0.3190600574016571, 0.14202797412872314, 0.14553280174732208, -0.24775069952011108, -0.07219494879245758, -0.1667705774307251, 0.26059120893478394, 0.10637983679771423, 0.17333093285560608, -0.09929332882165909, 0.19716058671474457, -0.31043994426727295, -0.015910807996988297, 0.23608897626399994, 0.14760881662368774, -0.01857120729982853, 0.01309524942189455, 0.2577660381793976, 0.4556396007537842, -0.25306063890457153, -0.2103338986635208, -0.1304822415113449, -0.28565430641174316, -0.03862011060118675, -0.16207346320152283, 0.0033646952360868454, -0.060134075582027435, 0.06257257610559464, 0.21858854591846466, 0.16623720526695251, 0.2557443082332611, 0.2093569040298462, 0.09666804224252701, -0.12255197018384933, -0.15646480023860931, 0.12980790436267853, -0.22407275438308716, 0.05834203213453293, 0.3613152801990509, 0.005987381562590599, 0.040933821350336075, -0.0628523975610733, 0.26678699254989624, 0.0961938202381134, 0.11110860109329224, 0.12880653142929077, -0.18243305385112762, -0.1831047385931015, -0.1669401228427887, 0.09629371762275696, -0.06269221752882004, -0.1489136666059494, -0.532615602016449, 0.004608709830790758, -0.039238739758729935, -8.866473217494786e-05, 0.3354668915271759, 0.29159513115882874, -0.003862486220896244, -0.04526352509856224, -0.2634637653827667, 0.25289565324783325, -0.11483889818191528, 0.02707136608660221, 0.1064225360751152, 0.09184271842241287, 0.27775928378105164, 0.11774251610040665, 0.002480137627571821, 0.31563568115234375, -0.37518441677093506, 0.4052833914756775, 0.04301932081580162, 0.06999868899583817, -0.12236945331096649, 0.15568716824054718, -0.053826525807380676, -0.3323420584201813, -0.14733046293258667, 0.36241620779037476, 0.020069027319550514, 0.03231276571750641, -0.026975248008966446, 0.13495303690433502, -0.34654760360717773, -0.47153496742248535, 0.0671154260635376, 0.017013177275657654, 0.2734728455543518, 0.24106696248054504, 0.2645879089832306, 0.25536152720451355, -0.11850164085626602, -0.028790956363081932, 0.16178035736083984, 0.012025204487144947, 0.36698901653289795, -0.003252164926379919, 0.07290542125701904, -0.0961105227470398, 0.059606533497571945, -0.015177235938608646, 0.03983195871114731, 0.0767463818192482, -0.11515706777572632, -0.22876036167144775, 0.15293124318122864, -0.1879764050245285, 0.1637413650751114, 0.13031697273254395, 0.12292412668466568, 0.39333575963974, 0.018077697604894638, -0.01808173395693302, 0.2426648736000061, -0.08827943354845047, -0.2840363085269928, -0.044789306819438934, 0.00554235465824604, 0.19549201428890228, 0.11337599903345108, -0.0776994377374649, 0.03705641254782677, -0.1428462713956833, -0.17071378231048584, -0.07041099667549133, 0.07660917192697525, -0.14457961916923523, -0.083784319460392, -0.12511968612670898, 0.29148581624031067, 0.33474135398864746, -0.31225326657295227, -0.11912959814071655, 0.06352260708808899, -0.1411133110523224, 0.028370747342705727, -0.11299782991409302, 0.13765448331832886, -0.13618093729019165, 0.23036839067935944, -0.458895206451416, 0.3442125618457794, -0.20953355729579926, 0.12314936518669128, 0.39138615131378174, 0.2377859503030777, 0.1752684861421585, -0.02521905116736889, -0.42305314540863037, 0.010724473744630814, -0.33063846826553345, 0.16769307851791382, -0.00981444213539362, 0.08155044913291931, 0.22062478959560394, -0.017053058370947838, -0.05980108305811882, -0.7078542709350586, 0.3444022238254547, 0.1706855446100235, 0.13815909624099731, -0.11185473203659058, -0.15930069983005524, 0.5150740146636963, -0.11998290568590164, 0.15928907692432404, -0.08357616513967514, 0.08037561178207397, 0.30555763840675354, 0.1528608649969101, -0.01668388769030571, -0.8137148022651672, 0.0833464115858078, 0.11518529057502747, -0.2397618293762207, -0.5087409615516663, -0.302118182182312, 0.1104908213019371, 0.049847740679979324, 0.07131268084049225, 0.1731661707162857, -0.3112219572067261, 0.4683324098587036, 0.16740918159484863, 0.03201473876833916, -0.10879024863243103, -0.19125066697597504, -0.5293565988540649, 0.10458038002252579, -0.13573025166988373, 0.36942845582962036, -0.023296354338526726, -0.0519925095140934, 0.04072875902056694, -0.21066711843013763, 0.17469942569732666, 0.17084409296512604, -0.16533149778842926, 0.2757679522037506, 0.0018571328837424517, -0.1372026950120926, 0.17160476744174957, -0.528490424156189, 0.10772047936916351, 0.03762400895357132, -0.24264317750930786, 0.040229182690382004, -0.3330496549606323, 0.06911765038967133, 0.06740579754114151, -0.23447471857070923, -0.11715222150087357, 0.10138650238513947, 0.1830601692199707, 0.3113151788711548, 0.18514136970043182, 0.136323943734169, -0.21576033532619476, 0.18916606903076172, -0.06893665343523026, 0.04633417725563049, 0.08756576478481293, -0.27426278591156006, 0.043200816959142685, -0.07613096386194229, 0.1982172727584839, -0.041272182017564774, -0.10964763164520264, -0.10297095030546188, 0.023588422685861588, -0.525522768497467, 0.14627167582511902, 0.3698869049549103, 0.1083708256483078, -0.002685724524781108, -0.3312951624393463, 0.18600739538669586, 0.0330330953001976, 0.18905296921730042, -0.5037310719490051, 0.0820479542016983, -0.5715271830558777, 0.2897016108036041, 0.5144691467285156, -0.3580338656902313, 0.057730067521333694, -0.1152401715517044, -0.030501218512654305, 0.41365480422973633, 0.36972784996032715, -0.12130245566368103, 0.22063826024532318, -0.21995559334754944, 0.17282357811927795, 0.1795160472393036, 0.12841682136058807, -0.17650637030601501, -0.11822336912155151, 0.20675624907016754, 0.0556974895298481, 0.07032250612974167, 0.0744316577911377, -0.29031381011009216, 0.15865075588226318, 0.0755705013871193, -0.1307992786169052, 0.3162502944469452, 0.10526449978351593, -0.2626534700393677, 0.0551130548119545, -0.13374753296375275, -0.34731245040893555, 0.08194098621606827, 0.05113236978650093, 0.27008482813835144, -0.10667745769023895, -0.3327667713165283, -0.3181544542312622, 0.10758068412542343, 0.2416076511144638, 0.42682886123657227, -0.2367752492427826, 0.28886377811431885, 0.11909005045890808, -0.1023276075720787, -0.17528022825717926, 0.025157878175377846, 0.10245952755212784, -0.35861411690711975, 0.2918442487716675, 0.008242008276283741, -0.15444166958332062, 0.19787852466106415, 0.21705330908298492, 0.019424958154559135, -0.3905543088912964, -0.0717000737786293, 0.358537882566452, -0.024947812780737877, -0.10131395608186722, -0.27060773968696594, 0.27130308747291565, -0.23197342455387115, 0.03991073742508888, 0.2134489268064499, -0.08539491146802902, -0.11996669322252274, -0.14032141864299774, -0.10204270482063293, -0.26513975858688354, -0.007867135107517242, 0.009282240644097328, 0.029742440208792686, 0.08700183033943176, 0.23764438927173615, -0.19982223212718964, 0.1523084044456482, -0.016312720254063606, 0.3840658664703369, -0.11185318231582642, -0.22153985500335693, -0.3684508204460144, 0.06964585930109024, -0.4360353350639343, -0.5623294711112976, -0.20784269273281097, -0.29332777857780457, 0.47987785935401917, 0.7022547125816345, 0.1323859691619873, -0.1875917613506317, 0.07709189504384995, -0.11136244982481003, -0.2651614248752594, -0.07008440047502518, -0.271852970123291, -0.1356336623430252, 0.2816576361656189, -0.544277548789978, -0.007674673572182655, -0.029953323304653168, -0.15901513397693634, -0.34614086151123047, 0.05617467314004898, 0.16445747017860413, 0.3511229157447815, -0.14617016911506653, -0.3985385298728943, 0.18422600626945496, -0.32562464475631714, -0.13421115279197693, -0.1098099797964096, 0.08413577079772949, 0.006414008792489767, 0.1898960918188095, 0.3283211886882782, 0.0017581278225407004, -0.483508437871933, 0.13180546462535858, 0.24688616394996643, 0.25053277611732483, 0.15727326273918152, 0.06979105621576309, 0.01962186023592949, -0.21676340699195862, 0.2880772650241852, -0.20889928936958313, 0.2389998733997345, 0.15437616407871246, -0.19786471128463745, -0.0662606731057167, 0.28618696331977844, 0.10980574786663055, 0.02184755727648735, 0.36024656891822815, 0.0777197852730751, -0.16937129199504852, -0.19564233720302582, -0.41841962933540344, 0.06798973679542542, -0.05494777113199234, 0.17305119335651398, 0.009549630805850029, 0.16459201276302338, 0.21062590181827545, -0.4572238326072693, 0.1118350476026535, -0.18031281232833862, 0.17388591170310974, 0.026470869779586792, -0.1348213255405426, 0.1820083111524582, 0.28870394825935364, -0.026267072185873985, 0.1015770211815834, 0.04160154238343239, -0.050531309098005295, 0.6788409352302551, 0.33302339911460876, 0.11031389236450195, 0.049394164234399796, 0.13385845720767975, 0.16239389777183533, -0.1552094966173172, -0.010658522136509418, 0.20505793392658234, -0.15511779487133026, 0.14098495244979858, 0.17524558305740356, 0.15337949991226196, 0.026910079643130302, -0.11881905049085617, 0.00429693004116416, 0.2762486934661865, -0.27384352684020996, -0.13545329868793488, 0.13747885823249817, -0.2595753073692322, 0.4389643669128418, -0.3374670147895813, 0.22247318923473358, 0.19605675339698792, -0.2137756049633026, -0.25633329153060913, -0.4057149887084961, 0.038462016731500626, 0.0355905182659626, 0.17163024842739105, -0.008565343916416168, -0.13596688210964203, -0.24032336473464966, 0.3869823217391968, -0.004675149917602539, 0.3218063712120056, 0.1492912322282791, 0.05262647196650505, -0.057733699679374695, 0.06352793425321579, -0.029773805290460587, -0.17238211631774902, 0.18302442133426666, 0.07755401730537415, -0.025846827775239944, 0.06857581436634064, -0.25809869170188904, -0.11524520069360733, -0.39365512132644653, 0.29661238193511963, 0.06183593347668648, -0.14619217813014984, 0.19638347625732422, 0.1313219666481018, 0.19987767934799194, -0.058206282556056976, -0.04660293459892273, -0.11037782579660416, 0.3375356197357178, -0.03943072259426117, 0.2297488898038864, -0.2390935719013214, -0.1036381721496582, -0.18850770592689514, -0.14640669524669647, -0.2812214195728302, 0.36198145151138306, 0.36243197321891785, -0.07028249651193619, -0.18761341273784637, 0.1272861361503601, 0.0976734459400177, -0.12962102890014648, -0.2946017384529114, -0.05001235008239746, 0.2054021805524826, 0.10185927152633667, 0.14404451847076416, 0.32947906851768494, 0.1843719780445099, -0.04695297032594681, 0.4023186266422272, -0.10775069147348404, -0.44294238090515137, -0.1841220259666443, -0.10310280323028564, -0.38082781434059143, -0.0065397899597883224, -0.1753806173801422, -0.05457156151533127, -0.17085804045200348, 0.1139179915189743, -0.0035837311297655106, -0.06779457628726959, 0.45359790325164795, 0.036005549132823944, -0.05072181671857834, -0.19565251469612122, -0.08157134801149368, 0.4954701364040375, -0.23919488489627838, -0.16608300805091858, 0.01456267200410366, 0.04180390387773514, 0.3654128909111023, 0.20612721145153046, -0.2188342809677124, -0.017847642302513123, -0.031012116000056267, 0.21708549559116364, 0.11436180025339127, 0.0867166593670845, -0.04023763909935951, 0.23991744220256805, 0.3819293677806854, 0.08062676340341568, -0.35719409584999084, 0.14630581438541412, -0.047353483736515045, 0.33734849095344543, 0.07721950858831406, 0.008202847093343735, 0.18329691886901855, -0.19169893860816956, 0.45931360125541687, -0.08535110950469971, 0.17796887457370758, -0.6095548272132874, 0.18826639652252197, -0.2829855978488922, -0.020146135240793228, 0.23420175909996033, 0.3298611342906952, -0.1785876750946045, -0.034345414489507675, -0.12638193368911743, -0.36072924733161926, -0.06780363619327545, -0.022179534658789635, -0.4069485366344452, 0.4236051142215729, -0.12715831398963928, -0.2220163643360138, -0.3661952316761017, 0.138356015086174, -0.0032611344940960407, 0.3082053065299988, 0.03704658895730972, 0.13789598643779755, 0.03155635669827461, 0.10813223570585251, -0.05934685468673706, 0.06206444278359413, 0.034064579755067825, 0.11351726204156876, 0.31657931208610535, 0.008724765852093697, -0.21091489493846893, -0.17559155821800232, -0.20962131023406982, -0.07668126374483109, -0.36155274510383606, 0.11115005612373352, -0.08706191182136536, -0.32302582263946533, 0.1366552710533142, 0.004004017915576696, 0.08592414110898972, -0.2667337954044342, 0.10357548296451569, 0.16925886273384094, -0.07125189900398254, -0.040148280560970306, -0.26124972105026245, -0.0841963142156601, 0.09951676428318024, -0.0748399868607521, 0.1725161224603653, 0.13773603737354279, -0.16547891497612, -0.25607725977897644, -0.18988484144210815, -0.12512169778347015, -0.24457122385501862, 0.0794186219573021, -0.17578287422657013, 0.0542481429874897, 0.10528256744146347, -0.0617607906460762, 0.12716811895370483, 0.20310750603675842, -0.2373790591955185, 0.08579643815755844, -0.26975664496421814, 0.12069670110940933, 0.1679752916097641, -0.15324436128139496, 0.058066267520189285, 0.05829416960477829, -0.06674820184707642, 0.11977915465831757, 0.03186824172735214, 0.10275357216596603, 0.2680667042732239, -0.12028507143259048, -0.08029309660196304, -0.05178140103816986, -0.14367927610874176, 0.07891856133937836, -0.07152016460895538, 0.008267601951956749, -0.15315084159374237, -0.1794092059135437, -0.13212065398693085, -0.03500491753220558, 0.24110305309295654, -0.05474517121911049, -0.3105752766132355, -0.06668947637081146, 0.3555043339729309, -0.485332727432251, 0.1036892980337143, 0.050484903156757355, 0.15241481363773346, -0.1484072357416153, -0.2402990162372589, -0.0781402587890625, -0.2865569293498993, 0.19600987434387207, 0.014423978514969349, -0.1924050897359848, -0.2439178079366684, -0.17202447354793549, -0.2117549628019333, 0.22690439224243164, 0.00600852956995368, -0.03837548941373825, -0.22979076206684113, 0.005604057107120752, 0.29396215081214905, -0.1015956923365593, -0.2869044840335846, 0.020931178703904152, -0.15289810299873352, 0.1786157190799713, 0.11814859509468079, -0.23192565143108368, -0.1566825956106186, 0.27919983863830566, 0.4465537369251251, 0.1026085689663887, 0.00743043702095747, -0.003663702867925167, 0.03417455404996872, 0.2501801550388336, -0.08387110382318497, -0.06959406286478043, -0.438505619764328, 0.16335289180278778, 0.13157902657985687, -0.06144260615110397, -0.19374364614486694, -0.2664185166358948, -0.01938806287944317, -0.3198225796222687, -0.16010403633117676, 0.13666246831417084, 0.020135149359703064, 0.18713021278381348, -0.023746920749545097, 0.026338662952184677, 0.012936451472342014, 0.007312492001801729, -0.07542920112609863, 0.3627351224422455, -0.05321769788861275, -0.23084084689617157, 0.28017672896385193, -0.010950492694973946, 0.253674179315567, 0.035878606140613556, -0.2921163737773895, 0.013229102827608585, 0.033659689128398895, -0.09933111816644669, 0.4610217213630676, 0.12076859921216965, -0.2345222383737564, 0.32938334345817566, 0.14369145035743713, -0.21186427772045135, -0.04710667207837105, 0.11340177804231644, -0.16087844967842102, -0.1710636168718338, 0.3169775605201721, 0.36201730370521545, 0.39967548847198486, -0.1684863418340683, 0.1499616652727127, -0.120248943567276, 0.4285692870616913, -0.018763627856969833, 0.37915223836898804, -0.0398842990398407, 0.2778463661670685, 0.1857316642999649, -0.0024148032534867525, 0.15273277461528778, -0.21162520349025726, 0.09407111257314682, -0.3021317422389984, 0.42298203706741333, -0.12786470353603363, 0.5010777115821838, 0.38522833585739136, -0.24279846251010895, 0.10043244063854218, -0.08016780018806458, 0.5093451738357544, -0.08801014721393585, 0.030609555542469025, -0.06390512734651566, 0.00937768816947937, -0.3680037260055542, -0.09662915766239166, -0.0696490928530693, 0.31503355503082275, 0.07478198409080505, 0.2785590589046478, 0.2449048012495041, -0.026419881731271744, -0.1130424365401268, 0.18916727602481842, -0.09937351942062378, -0.04477226361632347, -0.06757476180791855, -0.3560016453266144, -0.21803584694862366, -0.0703849121928215, -0.0003423317102715373, 0.06385251134634018, 0.02828330732882023, 0.2984432578086853, 0.03637796640396118, 0.15317782759666443, -0.06739407777786255, 0.31282979249954224, -0.3031958341598511, -0.2698264420032501, -0.07326199859380722, -0.049768660217523575, 0.10234811156988144, -0.09593847393989563, -0.10801804065704346, -0.2945878207683563, 0.18668924272060394, 0.2624184191226959, 0.1275816261768341, 0.03236592188477516, 0.20802786946296692, 0.10730606317520142, -0.053720179945230484, -0.08184681087732315, 0.33464014530181885, -0.14509984850883484, 0.35568615794181824, -0.23992480337619781, -0.011189490556716919, -0.1400611251592636, -0.09986936300992966, 0.2944757640361786, -0.33681562542915344, -0.22141721844673157, -0.2782033681869507, -0.4309556484222412, -0.0034505873918533325, -0.17811164259910583, -0.08612092584371567, 0.038373202085494995, -0.2463628649711609, 0.04445173963904381, -0.080689936876297, -0.1219809502363205, -0.15788155794143677, 0.13413892686367035, -0.10745195299386978, -0.009483805857598782, -0.2095343917608261, -0.035506296902894974, -0.24480856955051422, -0.3155214190483093, -0.505608081817627, 0.12318456172943115, 0.0384458564221859, 0.01980089582502842, 0.1672922819852829, -0.04927220568060875, 0.4279000759124756, -0.07327750325202942, 0.0017048013396561146, -0.17335622012615204, 0.11986599117517471, 0.2580588161945343, 0.08515148609876633, -0.08464019000530243, -0.11641501635313034, -0.07678959518671036, -0.30976375937461853, -0.21683268249034882, 0.25508397817611694, -0.100068099796772, -0.038370974361896515, 0.2170131951570511, -0.3799738585948944, -0.2534281611442566, -0.07672339677810669, -0.04972070828080177, -0.22599630057811737, 0.07360555231571198, 0.06409581750631332, -0.037411101162433624, 0.17341886460781097, 0.13127480447292328, -0.14376842975616455, -0.2116456925868988, -0.06532681733369827, 0.14139306545257568, -0.01114537101238966, -0.1380302757024765, 0.13869310915470123, -0.1260981410741806, -0.34193265438079834, -0.00811294000595808, -0.1410205066204071, 0.5730534195899963, 0.10684257000684738, 0.17423830926418304, -0.24588879942893982, 0.20681650936603546, -0.03248696029186249, -0.01905996724963188, 0.34401413798332214, -0.21248731017112732, -0.07677505910396576, -0.028810754418373108, -0.29449835419654846, -0.06727708876132965, -0.1267419010400772, 0.1413693130016327, 0.2881089448928833, 0.21949225664138794, -0.2599981129169464, 0.14082400500774384, -0.17217785120010376, 0.2288230061531067, 0.2548152208328247, -0.12736289203166962, 0.039118435233831406, -0.24954649806022644, -0.18123477697372437, -0.2587663531303406, -0.12685857713222504, 0.16656851768493652, 0.31250134110450745, -0.026805251836776733, 0.0872989147901535, -0.19912254810333252, -0.03914409130811691, -0.11985737085342407, 0.022181667387485504, -0.10294274240732193, 0.25622254610061646, 0.20912297070026398, -0.38477960228919983, -0.30821335315704346, -0.29858919978141785, -0.13535097241401672, 0.13083061575889587, 0.11785976588726044, 0.1056981161236763, -0.06441378593444824, -0.10596621781587601, -0.05690821260213852, -0.02693614363670349, -0.20924361050128937, -0.051127444952726364, -0.12004293501377106, 0.18441708385944366, -0.3607937693595886, 0.03645835444331169, 0.25522667169570923, -0.16792476177215576, -0.04244247078895569, 0.15097294747829437, 0.1216408759355545, -0.1325247883796692, -0.05525507405400276, -0.2318035364151001, -0.07836461067199707, -0.05201428011059761, 0.08236049860715866, -0.12609243392944336, -0.06449295580387115, 0.10486758500337601, -0.11371900886297226, -0.01990174688398838, 0.017903251573443413, -0.1244693249464035, -0.07665552198886871, 0.5233340263366699, 0.034744784235954285, -0.2704754173755646, 0.2149331271648407, -0.10745640844106674, 0.06969396770000458, -0.02163928747177124, 0.24167659878730774, -0.1523769050836563, -0.0462259016931057, 0.09832484275102615, -0.10407993197441101, 0.3980059027671814, -0.1500331312417984, 0.14369764924049377, -0.0767049640417099, 0.04338684305548668, -0.32070931792259216, -0.04333765432238579, -0.19150376319885254, -0.06923824548721313, -0.11744076013565063, -0.2753700017929077, -0.11096997559070587, 0.09199454635381699, -0.13686060905456543, 0.18853281438350677, -0.1864015907049179, -0.17260941863059998, 0.04939116910099983, -0.15708163380622864, 0.3135048449039459, -0.036882273852825165, 0.14497153460979462, -0.10543319582939148, 0.048112817108631134, 0.036049846559762955, -0.35564950108528137, 0.3173281252384186, -0.024722512811422348, -0.06393566727638245, -0.06669111549854279, -0.08313429355621338, -0.0254256259649992, -0.32336267828941345, 0.17954924702644348, 0.04436705261468887, -0.015371662564575672, 0.42151015996932983, -0.052494075149297714, -0.10691322386264801, 0.22352361679077148, 0.08347254246473312, -0.05305871367454529, 0.11789879947900772, -0.31711122393608093, -0.3085279166698456, -0.416368693113327, -0.3079586625099182, 0.013525096699595451, -0.03502586483955383, 0.055977072566747665, -0.0753837302327156, -0.033783428370952606, -0.10134455561637878, 0.16279204189777374, 0.08719000965356827, -0.08426608145236969, -0.10528960078954697, 0.1780889481306076, -0.10130064934492111, -0.4147270619869232, 0.31705325841903687, -0.5427979826927185, 0.05400089547038078, 0.1002018004655838, 0.18815775215625763, 0.09103180468082428, 0.08155392110347748, -0.5651258826255798, 0.19989490509033203, -0.14883512258529663, -0.20916034281253815, -0.186471626162529, -0.07972414791584015, -0.11186154931783676, -0.4309675693511963, 0.04035596922039986, 0.06922893226146698, -0.0034674035850912333, 0.08659258484840393, -0.08710785210132599, -0.35723596811294556, -0.4892755448818207, 0.04256237670779228, -0.2165910303592682, -0.14602424204349518, 0.03359273076057434, -0.37342774868011475, 0.12916670739650726, -0.12132972478866577, 0.22132913768291473, 0.0561373196542263, -0.27373334765434265, 0.20750276744365692, 0.2434258610010147, 0.0778648629784584, -0.21338047087192535, -0.1598280519247055, 0.34541934728622437, 0.13947151601314545, -0.04966630041599274, 0.03023628331720829, 0.0034586323890835047, 0.08197949826717377, 0.0631106048822403, -0.20259444415569305, -0.05831150338053703, 0.1058768704533577, 0.1389778107404709, 0.05459829419851303, -0.20529648661613464, -0.2581562399864197, -0.22047819197177887, -0.03113623894751072, 0.03571921959519386, -0.024349350482225418, -0.30925989151000977, -0.031952787190675735, 0.13603293895721436, -0.09573378413915634, 0.056429922580718994, 0.04946235567331314, -0.05939645692706108, 0.09139490872621536, 0.22059638798236847, 0.15366216003894806, 0.1048496887087822, -0.07848632335662842, -0.35136523842811584, 0.24565963447093964, -0.10724344849586487, 0.08678848296403885, 0.06458884477615356, 0.5425887703895569, -0.11663796752691269, -0.01902495138347149, -0.31257209181785583, -0.14455418288707733, 0.07325440645217896, 0.02136986143887043, 0.037200167775154114, 0.16775625944137573, 0.2304975986480713, -0.036912523210048676, 0.50337153673172, -0.003909919410943985, 0.04639150947332382, 0.02075968123972416, -0.27749672532081604, 0.0674716904759407, -0.04646627604961395, 0.11169622838497162, -0.30192989110946655, -0.47646862268447876, -0.1265280693769455, 0.02436285838484764, -0.04692821949720383, -0.07475706934928894, -0.032716188579797745, 0.25454795360565186, 0.015064030885696411, 0.18585710227489471, -0.00239552347920835, 0.14099061489105225, -0.09395743161439896, 0.13697046041488647, 0.1342223584651947, -0.2763485014438629, -0.0326552577316761, 0.06727825105190277, 0.026242796331644058, -0.357755184173584, -0.06885712593793869, -0.2006041407585144, 0.09299516677856445, 0.05729782581329346, -0.27847355604171753, 0.5663650035858154, 0.15492521226406097, -0.12078145146369934, -0.13556303083896637, -0.21561753749847412, -0.12923698127269745, -0.07747860252857208, -0.16415205597877502, -0.08535324037075043, -0.01294715516269207, -0.3070243000984192, 0.19802148640155792, -0.09356759488582611, -0.3483259677886963, 0.24321730434894562, -0.08933994919061661, -0.35198161005973816, 0.32678499817848206, 0.09020189940929413, -0.16119803488254547, -0.05950707569718361, 0.067747563123703, -0.01703183352947235, -0.04730246588587761, 0.13022415339946747, 0.2286439687013626, -0.25490322709083557, 0.19895024597644806, -0.11837879568338394, -0.017976470291614532, 0.11674029380083084, -0.15513958036899567, 0.0025389189831912518, 0.10088776051998138, 0.31286099553108215, -0.015770792961120605, -0.0889621376991272, 0.017834817990660667, -0.0935274288058281, -0.14974114298820496, 0.2825066149234772, -0.13777805864810944, -0.08940517157316208, 0.08404237776994705, -0.15999124944210052, 0.21568825840950012, -0.2220028042793274, 0.2759688198566437, -0.1073203757405281, 0.10917385667562485, 0.08924734592437744, -0.5067015290260315, 0.2723102867603302, -0.26825612783432007, -0.3829464912414551, 0.038497235625982285, -0.03195583447813988, 0.08642014116048813, 0.240352600812912, -0.2059897780418396, -0.03313189372420311, 0.12858009338378906, 0.06813014298677444, 0.05795338749885559, 0.014605733565986156, 0.018951132893562317, 0.09475070983171463, 0.18345345556735992, -0.2948988676071167, 0.06081816181540489, 0.025150567293167114, -0.010710136964917183, 0.053192783147096634, -0.06766198575496674, -0.16372089087963104, -0.3610016107559204, 0.048970501869916916, 0.17839112877845764, -0.1865396797657013, 0.2753887176513672, 0.25511279702186584, 0.10924465954303741, 0.08510621637105942, 0.003125985385850072, -0.39993175864219666, -0.37843891978263855, 0.1364896297454834, -0.10104887187480927, -0.01731242425739765, -0.14113733172416687, -0.20311526954174042, -0.18112222850322723, 0.43221190571784973, -0.0783841609954834, 0.19812704622745514, -0.12098348140716553, -0.17191565036773682, -0.015331084839999676, -0.02302897535264492, -0.2893257439136505, 0.102442666888237, 0.027545340359210968, -0.14810393750667572, 0.33108431100845337, -0.0873536616563797, 0.1786295771598816, -0.181723952293396, 0.4245639145374298, -0.07557591795921326, -0.09197349846363068, 0.19454362988471985, 0.019411975517868996, -0.20719237625598907, 0.34518295526504517, 0.16886182129383087, 0.033567365258932114, 0.09419990330934525, -0.18508431315422058, -0.016262203454971313, -0.05248728021979332, 0.04580133408308029, 0.055247679352760315, -0.05930183827877045, 0.06340828537940979, -0.25021466612815857, -0.009591958485543728, -0.0018300568917766213, 0.0029856765177100897, -0.23552930355072021, -0.4511311650276184, -0.1027643159031868, -0.17124240100383759, 0.25359779596328735, -0.06307659298181534, -0.20131665468215942, 0.3565853238105774, -0.19635045528411865, 0.01798589900135994, 0.11782852560281754, 0.3794727027416229, 0.0677083432674408, -0.08529335260391235, 0.047795619815588, -0.11343611031770706, 0.156263530254364, 0.061022620648145676, 0.36502498388290405, -0.36001789569854736, -0.06610127538442612, 0.0498109832406044, -0.41745951771736145, -0.006618626415729523, -0.2316778004169464, 0.32346534729003906, -0.16023363173007965, 0.09591815620660782, 0.013881760649383068, -0.24066103994846344, -0.21929344534873962, -0.2020368129014969, 0.21849632263183594, -0.24461564421653748, 0.3182534873485565, 0.11547331511974335, -0.3022220730781555, -0.0549762062728405, -0.25707951188087463, -0.14214490354061127, -0.044017720967531204, -0.11847293376922607, -0.3144320845603943, 0.01801079325377941, -0.1260414570569992, 0.008151073940098286, -0.14311566948890686, -0.2765265107154846, 0.095675528049469, 0.15544047951698303, -0.16603684425354004, 0.40023744106292725, -0.07133034616708755, -0.30864864587783813, -0.42775848507881165, 0.014977087266743183, 0.074794702231884, 0.2506013512611389, -9.742756810737774e-05, 0.16704770922660828, 0.2620479166507721, 0.07288189232349396, -0.043563112616539, 0.10192304849624634, -0.21496619284152985, -0.09255196154117584, -0.08000633865594864, 0.14935623109340668, -0.05869092047214508, 0.15663602948188782, 0.0261842031031847, 0.29240599274635315, -0.004343367647379637, -0.11469975858926773, -0.137538880109787, 0.30846425890922546, -0.08129878342151642, -0.020452750846743584, 0.28812992572784424, 0.14056357741355896, -0.20234833657741547, -0.013512707315385342, 0.06122469902038574, -0.003907182719558477, 0.3202601671218872, 0.187097430229187, 0.13893018662929535, -0.0884818360209465, 0.01671014353632927, -0.21215739846229553, 0.16856658458709717, -0.0023407884873449802, -0.04350683465600014, 0.49281901121139526, -0.20411130785942078, -0.3438723385334015, 0.14029544591903687, 0.21024248003959656, -0.07683130353689194, 0.15160112082958221, -0.27984365820884705, 0.10728366672992706, -0.08262445032596588, -0.07584366947412491, 0.15741023421287537, 0.19836005568504333, 0.05146615579724312, -0.07474421709775925, -0.05822405591607094, -0.15080338716506958, 0.29340511560440063, 0.06899958848953247, 0.21563701331615448, 0.01785406842827797, 0.15211725234985352, 0.04279996454715729, 0.20621304214000702, -0.10223843902349472, 0.07925036549568176, -0.33414405584335327, 0.4928649961948395, -0.01857595518231392, 0.18082310259342194, -0.24549363553524017, -0.0483040027320385, -0.2993122935295105, 0.025523127987980843, -0.2507099509239197, 0.3979633152484894, -0.07409912347793579, 0.06067560240626335, 0.13610652089118958, 0.2757375240325928, 0.2256084531545639, -0.06823136657476425, -0.10471520572900772, -0.06890981644392014, 0.0811723917722702, 0.2355644553899765, 0.1355489045381546, 0.22786098718643188, -0.1985045224428177, -0.010552397929131985, -0.030339231714606285, 0.27848002314567566, -0.17402061820030212, -0.13118833303451538, -0.30884817242622375, 0.2612106204032898, -0.1147255226969719, -0.29307880997657776, -0.039519816637039185, 0.10264842212200165, -0.10019323974847794, 0.050457555800676346, 0.1724194437265396, 0.054736390709877014, -0.23522084951400757, -0.08478228002786636, -0.28414079546928406, 0.18111972510814667, -0.16825632750988007, -0.33684828877449036, -0.032574448734521866, -0.3596578538417816, 0.3194783329963684, -0.18766158819198608, -0.12454896420240402, 0.029720518738031387, 0.026108883321285248, -0.024081919342279434, 0.0629124864935875, -0.07583801448345184, 0.08180899918079376, 0.12308705598115921, -0.10198355466127396, 0.09434065967798233, -0.09798050671815872, 0.2348090410232544, -0.313276469707489, 0.3312489986419678, -0.09732694178819656, 0.07195551693439484, 0.44586050510406494, -0.12993690371513367, -0.2735534608364105, -0.06495398283004761, 0.22304204106330872, -0.3104713261127472, -0.15252847969532013, 0.4963746964931488, 0.03411463648080826, 0.29697373509407043, 0.26871636509895325, -0.09913525730371475, -0.20294027030467987, -0.21285276114940643, -0.015349842607975006, 0.21919921040534973, -0.3925599455833435, -0.23918409645557404, 0.00775309931486845, -0.04319753870368004, 0.25035613775253296, -0.10627797245979309, 0.2158890962600708, -0.0003689390723593533, 0.11337258666753769, 0.3590492010116577, 0.19917145371437073, -0.07631243020296097, -0.04613104462623596, 0.1580001562833786, 0.14449049532413483, -0.1540725976228714, 0.3004651665687561, 0.17204487323760986, 0.028597740456461906, -0.08407434821128845, -0.2494848370552063, 0.14215156435966492, 0.06765461713075638, 0.285406231880188, -0.05495869368314743, 0.11718502640724182, 0.0434342622756958, 0.2243875116109848, 0.016095278784632683, -0.06747880578041077, 0.10703527927398682, -0.03929721191525459, -0.05778329819440842, -0.16710048913955688, -0.14334183931350708, 0.23781634867191315, 0.196216881275177, 0.19227997958660126, -0.07184493541717529, -0.37708863615989685, 0.009319285862147808, 0.33331796526908875, -0.009377769194543362, 0.051264531910419464, 0.04209626838564873, -0.21445538103580475, -0.16758063435554504, 0.12177246063947678, 0.1668865978717804, 0.00031010631937533617, 0.07233504951000214, -0.07831009477376938, 0.047749441117048264, 0.24350938200950623, -0.0766342505812645, -0.3310061991214752, 0.11715219914913177, 0.1137058362364769, 0.1409509778022766, 0.3580077588558197, 0.24617651104927063, 0.2845137417316437, 0.09520936757326126, 0.11952603608369827, 0.06441132724285126, 0.06576520204544067, 0.3411062955856323, 0.08024901151657104, -0.18659253418445587, 0.3456730842590332, -0.2912359833717346, 0.21182622015476227, -0.12692797183990479, 0.0017891101306304336, 0.02300882153213024, -0.10437791794538498, -0.18639852106571198, 0.1177554726600647, 0.1731046587228775, -0.15390564501285553, -0.019881073385477066, -0.36369892954826355, 0.10584434866905212, 0.16078051924705505, 0.22427405416965485, 0.2950937747955322, -0.060067068785429, 0.31479889154434204, -0.08979866653680801, 0.22606819868087769, -0.466526061296463, 0.024710940197110176, 0.12476200610399246, -0.3308757543563843, 0.015772005543112755, -0.03137658163905144, 0.17907080054283142, 0.048871126025915146, -0.008619030006229877, 0.1812751591205597, 0.2579716742038727, -0.2037019431591034, 0.10294853150844574, 0.09681805968284607, 0.19712412357330322, 0.10858355462551117, -0.06122341379523277, 0.25645843148231506, 0.14673885703086853, 0.09176355600357056, 0.12846612930297852, -0.11127392202615738, -0.3019694685935974, -0.06962200254201889, 0.06710302829742432, 0.09540492296218872, 0.08468987047672272, -0.05639565363526344, 0.014433358795940876, -0.5346630215644836, 0.23592662811279297, 0.2715936303138733, 0.03056829608976841, -0.22763317823410034, 0.09740865975618362, -0.3272286653518677, -0.08437170088291168, -0.18837986886501312, -0.12380199134349823, 0.3719346523284912, -0.03310774639248848, -0.4696880877017975, -0.26582813262939453, -0.2009311467409134, -0.10790109634399414, 0.12923888862133026, 0.21918891370296478, 0.30420929193496704, -0.06522604078054428, 0.25008055567741394, 0.0561797209084034, 0.27630922198295593, -0.1616198569536209, -0.11313701421022415, -0.14304223656654358, 0.08194411545991898, -0.1600644588470459, -0.15372633934020996, 0.2265564352273941, 0.23691348731517792, 0.3241693377494812, 0.23076283931732178, 0.14811791479587555, 0.07632278650999069, -0.04011296108365059, 0.38492029905319214, 0.10483770072460175, 0.01613747328519821, -0.009971309453248978, -0.020996693521738052, 0.313773512840271, 0.4052291214466095, -0.2604917287826538, -0.33694419264793396, -0.2133706510066986, 0.05927574634552002, -0.3105582892894745, 0.19976326823234558, 0.031839657574892044, -0.4783376157283783, -0.027217978611588478, 0.006335241254419088, -0.4349823594093323, -0.4558306932449341, 0.04883965849876404, -0.07609950751066208, -0.06408753991127014, 0.12648321688175201, 0.1506318747997284, 0.4502255618572235, -0.11609800159931183, -0.02646573819220066, -0.10228176414966583, 0.06228809431195259, -0.20750722289085388, 0.10826770961284637, -0.05043043568730354, 0.2534315288066864, -0.0020440539810806513, -0.1605241596698761, 0.2589048147201538, 0.02900897152721882, -0.3209543526172638, -0.13355188071727753, -0.18977269530296326, 0.08736272901296616, -0.08482184261083603, -0.425218790769577, -0.16784287989139557, 0.11600631475448608, -0.2547975182533264, 0.3142937123775482, -0.3564787805080414, 0.34080031514167786, 0.18003639578819275, -0.04472436383366585, -0.13853713870048523, 0.26529446244239807, 0.0352388359606266, 0.13653798401355743, 0.12639595568180084, -0.09294082969427109, -0.2117680460214615, -0.0871482640504837, 0.19780611991882324, 0.11374368518590927, 0.5221084952354431, 0.3609168529510498, -0.005959674250334501, 0.3298235237598419, 0.022366629913449287, -0.4529872238636017, -0.24127966165542603, -0.12918345630168915, -0.13392001390457153, -0.23733341693878174, 0.2750887870788574, 0.25114187598228455, -0.22892455756664276, -0.09529545158147812, 0.12403544038534164, 0.1687820553779602, -0.2320951521396637, 0.00450920918956399, 0.06154385209083557, -0.08308863639831543, 0.09508068859577179, -0.06499583274126053, 0.29348933696746826, -0.09401633590459824, -0.16178131103515625, 0.07643340528011322, 0.14692461490631104, -0.10615652054548264, -0.019990675151348114, -0.1501607745885849, -0.216546431183815, 0.07298842072486877, 0.11427277326583862, 0.1567291021347046, 0.05778959020972252, -0.01149064116179943, -0.018187928944826126, -0.10135211050510406, 0.10028820484876633, 0.26155808568000793, -0.056760407984256744, -0.3370932936668396, 0.17019930481910706, -0.051860954612493515, -0.1687806248664856, -0.05421806499361992, -0.04096723347902298, -0.009102304466068745, -0.04308321326971054, 0.1734449863433838, -0.024058807641267776, 0.2774927616119385, -0.3829393684864044, 0.1540098935365677, 0.04840642958879471, 0.35642796754837036, 0.2279931902885437, -0.2808453142642975, 0.060353316366672516, 0.23647376894950867, -0.13574065268039703, 0.12207941710948944, 0.08219487220048904, -0.06833204627037048, 0.020817488431930542, -0.011299221776425838, 0.144746333360672, 0.02840670756995678, -0.2003735452890396], "kernelRoundsDim": 1, "inputChannelsDim": 56, "className": "ception", "bnMean": [-0.100876085460186, 0.32772713899612427, 0.11789854615926743, -0.22323887050151825, -0.045765604823827744, 0.12381811439990997, -0.14453096687793732, 0.012683507986366749, -0.013979097828269005, 0.3750990331172943, 0.12019079923629761, -0.37263065576553345, 0.01302844937890768, -0.2760845720767975, 0.11584249883890152, -0.007442941889166832, -0.1636195182800293, -0.5733756422996521, 0.17240950465202332, 0.6894791126251221, -0.696493923664093, 0.48946937918663025, 0.5862643122673035, -0.11525880545377731, 0.63223797082901, 0.2252451330423355, 0.11219543218612671, -0.6716744899749756, 0.37600040435791016, -0.06478304415941238, -0.09065885096788406, 0.06930971890687943, -0.2270454466342926, 0.645076334476471, -0.4714336097240448, 0.01348734088242054], "bnVariance": [1.111151099205017, 1.7641692161560059, 0.6474466919898987, 0.8942044377326965, 0.7270498275756836, 0.8954067826271057, 1.8182733058929443, 1.210756778717041, 0.8230639100074768, 1.6536282300949097, 1.1684361696243286, 1.843553900718689, 0.75529944896698, 1.4400758743286133, 1.016937017440796, 1.1380118131637573, 2.1687116622924805, 1.3127398490905762, 1.1442192792892456, 2.0175201892852783, 1.4263275861740112, 1.1306447982788086, 1.027952790260315, 1.2442975044250488, 1.6576462984085083, 0.8685426712036133, 1.5746046304702759, 1.0756571292877197, 1.0059423446655273, 1.552719235420227, 0.5758669376373291, 0.6525599956512451, 1.9611952304840088, 2.697176456451416, 2.1796703338623047, 2.895932674407959], "bnBeta": [-0.7044040560722351, -0.05455376207828522, -0.1573432981967926, -0.5154051780700684, -0.08095456659793854, -0.5691806674003601, 0.14208613336086273, 0.17480243742465973, -1.2969557046890259, -0.6364967226982117, 0.07332296669483185, 0.00707939313724637, -0.17772239446640015, -0.13833506405353546, -0.4466477334499359, -0.22019557654857635, -0.430583655834198, 0.04581313207745552, -0.5712079405784607, -0.05451880767941475, -0.26201799511909485, -0.016106989234685898, -0.033881332725286484, -0.1364247351884842, 0.09354886412620544, -0.1161186620593071, -0.19821107387542725, -0.757530689239502, 0.384882390499115, 0.16077820956707, -0.3450089991092682, -0.12438950687646866, -0.2863381505012512, 0.5498332977294922, 0.01586224138736725, -0.2843405604362488], "typesDim": 3, "bnGamma": [1.1817352771759033, 1.04427170753479, 1.137549638748169, 1.038016676902771, 0.8270178437232971, 0.9071481227874756, 1.0314143896102905, 0.9111899733543396, 1.0895930528640747, 1.1664907932281494, 1.5537290573120117, 1.2387959957122803, 1.1698312759399414, 0.9970506429672241, 0.995467483997345, 1.0116710662841797, 1.2731194496154785, 1.1789003610610962, 1.1604912281036377, 1.1257086992263794, 1.0104154348373413, 1.058600664138794, 1.0029585361480713, 1.3944847583770752, 1.0782610177993774, 1.1260660886764526, 0.8609315156936646, 1.3916836977005005, 0.8990402817726135, 1.0122900009155273, 1.099500298500061, 0.9403245449066162, 1.0130317211151123, 1.241604208946228, 1.061679482460022, 1.1498558521270752], "upsamplingTypesDimFactor": 1, "channelsDim": 36}, {"bnGammaD": [1.2086749076843262, 1.3432505130767822, 1.3857749700546265, 1.0575815439224243, 1.1901416778564453, 1.302703857421875, 1.200466513633728, 1.246470332145691, 1.2778571844100952, 1.089682936668396, 1.185322880744934, 1.2793467044830322, 1.3167508840560913, 1.599313735961914, 1.095699667930603, 1.2086600065231323], "convKernelD": [0.03819074109196663, -0.0792415663599968, 0.13766010105609894, -0.1578548699617386, -0.17377032339572906, -0.01263368595391512, -0.08133377134799957, 0.23726049065589905, -0.25671932101249695, 0.20883989334106445, 0.16029569506645203, -0.3257763385772705, -0.2237379401922226, 0.11404595524072647, -0.03398164361715317, 0.051720526069402695, 0.5547537207603455, -0.1493459790945053, 0.0956139788031578, -0.02222883701324463, -0.1882246434688568, 0.018863216042518616, -0.3125879168510437, 0.011984076350927353, 0.2564210295677185, -0.27619898319244385, 0.1704152226448059, -0.1571279764175415, -0.44139835238456726, 0.15841791033744812, -0.6233403086662292, -0.13490231335163116, 0.1422382891178131, -0.30729320645332336, -0.09674127399921417, -0.054781533777713776, 0.028259631246328354, 0.027233142405748367, 0.06956067681312561, 0.07182041555643082, 0.2258722186088562, -0.015544294379651546, 0.23050250113010406, -0.16368137300014496, 0.20143340528011322, -0.0001678689441177994, 0.2604823708534241, 0.22686351835727692, 0.4089897572994232, 0.34795087575912476, 0.09636001288890839, 0.11150100082159042, -0.4944473206996918, -0.10040761530399323, 0.06793560832738876, 0.08322357386350632, -0.07844936847686768, -0.16096380352973938, 0.07488716393709183, -0.1934511512517929, -0.027335071936249733, -0.04246357083320618, -0.4573964476585388, -0.15342731773853302, -0.37556442618370056, -0.04996181279420853, -0.015684330835938454, 0.15120241045951843, 0.2614440321922302, 0.4314689040184021, 0.023985423147678375, -0.0024423992726951838, -0.0003501857281662524, 0.32951271533966064, 0.5454181432723999, -0.38392964005470276, -0.1655070036649704, 0.11163375526666641, 0.024592680856585503, -0.32482579350471497, -0.2659948170185089, 0.08826810866594315, -0.1787063330411911, 0.018006660044193268, 0.24428988993167877, 0.11236373335123062, 0.22767533361911774, 0.07086550444364548, -0.09558434784412384, 0.1161816269159317, -0.1236216202378273, -0.2863869071006775, -0.03663286939263344, 0.3516553044319153, -0.17049701511859894, -0.08584323525428772, -0.18480493128299713, -0.1731371432542801, 0.006595028098672628, -0.0007408710662275553, 0.06633739918470383, 0.2281804233789444, 0.021495379507541656, -0.19681166112422943, -0.05415599048137665, 0.32655492424964905, -0.015808211639523506, 0.5368322134017944, 0.325719952583313, 0.2820400595664978, 0.12031847983598709, -0.23463663458824158, 0.3665902614593506, 0.11316077411174774, -0.17441336810588837, 0.029379399493336678, -0.37735339999198914, 0.36261793971061707, 0.23733113706111908, 0.585403323173523, 0.2318141758441925, 0.08466251194477081, -0.4088985323905945, 0.36738160252571106, 0.6150916218757629, 0.26778727769851685, -0.21766053140163422, -0.5379399657249451, 0.18060274422168732, -0.10551449656486511, -0.09476731717586517, -0.17676694691181183, -0.2783418893814087, 0.038583263754844666, -0.09117443859577179, 0.0976681336760521, 0.02592669241130352, -0.17751891911029816, 0.1042473241686821, -0.18985317647457123, 0.04799044877290726, -0.1009708121418953, 0.18046505749225616, 0.07839392125606537, 0.2944338917732239, -0.06441695988178253, 0.2689690589904785, 0.2135026901960373, 0.1097424253821373, 0.1340748369693756, 0.0477125309407711, 0.24685165286064148, 0.22901776432991028, 0.1567283570766449, 0.37221989035606384, 0.006064524408429861, -0.08161736279726028, 0.03750632703304291, -0.10492570698261261, 0.07669821381568909, -0.06993041187524796, -0.2747742533683777, 0.017907172441482544, -0.057245150208473206, 0.13156649470329285, 0.09361625462770462, -0.0011449756566435099, -0.02505386993288994, 0.060169585049152374, -0.35113853216171265, -0.2759670913219452, -0.44587671756744385, -0.21829760074615479, 0.22186625003814697, -0.030968232080340385, 0.07679218053817749, -0.13974101841449738, 0.22875937819480896, 0.09726949781179428, -0.07277773320674896, -0.022601721808314323, 0.14906242489814758, -0.05494720861315727, 0.22115585207939148, 0.0828917920589447, 0.03950734809041023, -0.21480076014995575, -0.26799729466438293, -0.2153119593858719, 0.2320491075515747, -0.29874056577682495, 0.06447513401508331, 0.013246421702206135, 0.012344632297754288, 0.0680992528796196, -0.15760311484336853, 0.006940016057342291, 0.034353092312812805, -0.246883824467659, 0.11826479434967041, -0.14167113602161407, -0.0597388856112957, -0.06689413636922836, -0.15220072865486145, -0.17082913219928741, -0.19954277575016022, -0.05327290669083595, -0.04712049663066864, -0.12220671772956848, -0.08969065546989441, 0.34731996059417725, 0.33284667134284973, 0.024175520986318588, -0.27805188298225403, 0.17520548403263092, -0.053306758403778076, -0.40707680583000183, 0.18261921405792236, 0.31881603598594666, 0.08378032594919205, 0.05184764787554741, 0.2513822913169861, 0.2588050365447998, -0.12870724499225616, 0.012319264002144337, 0.13855111598968506, -0.46774521470069885, -0.30121949315071106, -0.15880529582500458, 0.0706726461648941, -0.25178927183151245, -0.1455625742673874, -0.17976897954940796, -0.27790915966033936, -0.41079604625701904, -0.08461390435695648, 0.15796184539794922, 0.18922483921051025, 0.04201304540038109, -0.21300242841243744, 0.07317798584699631, -0.054045420140028, 0.20209917426109314, 0.3877623379230499, -0.139820858836174, 0.10633713752031326, 0.2452746331691742, -0.15180407464504242, 0.22901712357997894, -0.3230409622192383, 0.39215609431266785, 0.03096752241253853, 0.1710977852344513, 0.15449048578739166, -0.03784569725394249, -0.2419392466545105, 0.06451797485351562, -0.01967330276966095, -0.17555329203605652, -0.007396089844405651, -0.028840668499469757, 0.11670045554637909, -0.142099067568779, -0.03082401677966118, 0.03735615685582161, -0.2702423334121704, 0.021708711981773376, 0.3009907305240631, -0.042997993528842926, -0.049283966422080994, -0.038586948066949844, 0.2477017194032669, -0.38150638341903687, 0.11359939724206924, 0.06394471228122711, -0.19171376526355743, -0.07805953919887543, -0.08010698854923248, 0.26580068469047546, -0.05545467510819435, -0.324490487575531, 0.012043699622154236, -0.08524606376886368, -0.11268147081136703, -0.14017529785633087, -0.22777077555656433, 0.11112045496702194, 0.3091883957386017, -0.09959966689348221, -0.000482663803268224, 0.269045352935791, 0.05470699071884155, 0.03824992477893829, 0.012189552187919617, -0.023144539445638657, 0.05047973245382309, -0.06963206827640533, -0.002838781801983714, -0.12836593389511108, -0.2548193633556366, -0.06697385013103485, -0.3533879518508911, -0.25579580664634705, 0.1575135886669159, -0.06212218105792999, -0.2105141580104828, -0.021077677607536316, 0.31123650074005127, 0.25351038575172424, 0.10751026123762131, -0.060428228229284286, -0.12113086879253387, 0.07332303375005722, -0.18333305418491364, 0.05997220054268837, 0.06670601665973663, -0.24810196459293365, -0.1256864368915558, 0.03384660184383392, -0.09662840515375137, 0.05813725292682648, 0.052449896931648254, 0.06341724842786789, 0.007585713639855385, -0.38428086042404175, -0.0594191811978817, -0.2544327676296234, -0.16593462228775024, -0.011021783575415611, -0.20322708785533905, 0.017615972086787224, -0.061359703540802, 0.01835775375366211, -0.11498785763978958, 0.06275174766778946, -0.20520184934139252, 0.20911560952663422, -0.0446893572807312, -0.1612483114004135, 0.07289515435695648, -0.011809668503701687, 0.02664121799170971, -0.0067682587541639805, -0.08043704926967621, 0.22208987176418304, -0.20198217034339905, 0.01177202071994543, 0.04113125801086426, 0.015085362829267979, -0.19164781272411346, 0.07793434709310532, -0.041295625269412994, 0.0770542100071907, -0.044851530343294144, 0.1367422640323639, -0.06787010282278061, -0.1293374001979828, 0.012262621894478798, -0.24266193807125092, 0.24292874336242676, -0.0031181727536022663, -0.11886393278837204, 0.10653744637966156, 0.10767628997564316, -0.12163026630878448, 0.08051691204309464, -0.07439079135656357, 0.0596114918589592, 0.08873549103736877, -0.24335916340351105, -0.00981908943504095, 0.43575406074523926, 0.11404106765985489, 0.11277981102466583, 0.0036217374727129936, 0.017639581114053726, 0.0585702508687973, 0.06870611757040024, -0.10714337974786758, -0.14662523567676544, 0.21978646516799927, -0.20011556148529053, -0.16321426630020142, 0.09363235533237457, 0.01257855910807848, -0.055494774132966995, 0.21165433526039124, 0.08407173305749893, -0.03698592260479927, 0.10066334158182144, -0.3359861969947815, -0.06685424596071243, 0.020096879452466965, -0.13803225755691528, 0.016592979431152344, 0.1943664252758026, -0.0037445593625307083, 0.025622842833399773, -0.24478024244308472, 0.20900192856788635, -0.2512180209159851, 0.11173851042985916, -0.035727858543395996, -0.0963660478591919, -0.06300567835569382, -0.011061960831284523, 0.08882404118776321, 0.11153273284435272, -0.31274834275245667, 0.11672291904687881, -0.09200335294008255, -0.030348366126418114, -0.09993212670087814, -0.1568453311920166, 0.19903072714805603, 0.23727278411388397, -0.15410028398036957, 0.3118186891078949, 0.0962422713637352, -0.041274648159742355, -0.0961257591843605, 0.037586431950330734, -0.018447158858180046, 0.05695831775665283, -0.08225911110639572, 0.21733608841896057, 0.10687437653541565, -0.07796436548233032, -0.07443349063396454, -0.38072142004966736, -0.27022019028663635, 0.25172922015190125, -0.24269162118434906, -0.1478189080953598, 0.05907535180449486, 0.36318325996398926, 0.22422511875629425, -0.028374280780553818, -0.16018636524677277, -0.07073205709457397, -0.050442542880773544, -0.04027550294995308, 0.1280866414308548, 0.07200077176094055, -0.1406039148569107, -0.11412012577056885, -0.11370950937271118, 0.09806637465953827, 0.002289367374032736, 0.0032330055255442858, 0.08507276326417923, 0.20028457045555115, -0.3896239101886749, -0.006241271272301674, -0.18243201076984406, -0.051048655062913895, 0.026735875755548477, -0.008710780180990696, 0.12181014567613602, 0.018754584714770317, 0.18850277364253998, -0.09588059782981873, -0.01201876811683178, 0.002862390363588929, -0.2745644450187683, 0.013355807401239872, -0.14346842467784882, -0.17581912875175476, 0.1380680650472641, -0.06205034628510475, 0.2852625250816345, 0.21818070113658905, 0.1713448166847229, 0.06076836213469505, -0.06410843133926392, 0.0377969890832901, 0.06233616918325424, -0.15271247923374176, 0.06110839545726776, 0.16431353986263275, 0.006965206004679203, 0.008319215849041939, 0.1111242026090622, 0.2232801467180252, -0.29441383481025696, -0.18522512912750244, -0.12225142121315002, -0.1807880401611328, 0.14259740710258484, -0.2064906358718872, -0.10625912249088287, 0.01919570565223694, 0.004394526593387127, -0.06484919786453247, 0.05745738744735718, -0.03776087239384651, 0.00031814086833037436, -0.17788103222846985, -0.03138260915875435, 0.032877761870622635, 0.28978055715560913, 0.16861186921596527, -0.15585832297801971, 0.09541158378124237, -0.05689390376210213, 0.13334214687347412, -0.1702498346567154, 0.0014954082434996963, 0.05760141834616661, -0.1459505409002304, -0.03781014308333397, 0.3376479744911194, -0.004070580005645752, 0.09458960592746735, 0.22021809220314026, 0.20216487348079681, -0.07496403902769089, 0.206443190574646, -0.48012158274650574, -0.05069391801953316, -0.027460115030407906, -0.1554771512746811, -0.09262627363204956, 0.12317715585231781, 0.16815432906150818, 0.1037135124206543, -0.06861501932144165, -0.46426376700401306, -0.1726076751947403, -0.05743637681007385, -0.019358854740858078, 0.24684728682041168, -0.04056111350655556, 0.09012188017368317, 0.07650899887084961, -0.20179148018360138, -0.43753111362457275, -0.35021162033081055, -0.2968233525753021, 0.03386673331260681, -0.05695502087473869, -0.23573535680770874, 0.21391074359416962, 0.11354105919599533, -0.0070541128516197205, 0.2536589205265045, 0.020042486488819122, -0.009472641162574291, -0.23667027056217194, 0.00518350163474679, 0.061445847153663635, -0.24899104237556458, -0.2489442527294159, 0.26291289925575256, 0.20312580466270447, 0.1865513026714325, -0.03576433286070824, -0.2378416657447815, 0.1042054146528244, 0.21127140522003174, -0.26783832907676697, -0.4119310677051544, 0.2515978515148163, 0.2342267632484436, 0.04429415613412857, -0.09473858773708344, -0.21659010648727417, -0.11119641363620758, -0.0440349280834198, 0.1919960379600525, 0.15015721321105957, 0.25457632541656494, 0.12938612699508667, 0.0237122755497694, 0.0736955776810646, -0.11045756936073303, -0.003503341693431139, -0.06238682568073273, 0.13667625188827515, 0.051250506192445755, -0.2618502378463745, 0.02231559529900551, -0.20795074105262756, 0.2264074832201004, 0.08591169118881226, 0.11535904556512833, 0.16714932024478912, 0.17802225053310394, 0.3457716703414917, 0.025227252393960953, 0.05023396760225296, 0.06929128617048264, -0.08365854620933533, 0.10445307940244675, -0.1396559178829193, -0.08983252942562103, 0.029373787343502045, 0.043426670134067535, 0.07378052175045013, 0.14522437751293182, 0.06132902577519417, -0.013201058842241764, 0.005190173164010048, -0.09818071126937866, 0.05956576019525528, -0.1609881967306137, 0.08341529220342636, 0.033161651343107224, -0.019600359722971916, 0.1778581142425537, 0.0005136904655955732, -0.15199729800224304, -0.124171182513237, -0.2215237319469452, -0.010084211826324463, 0.2718755006790161, 0.2763921022415161, 0.36961042881011963, -0.01396740972995758, -0.1120840460062027, -0.11337220668792725, -0.15078496932983398, 0.07856105268001556, -0.06222052127122879, -0.03883634880185127, -0.1207062229514122, 0.05040406808257103, 0.055624671280384064, 0.2264452427625656, 0.04869231954216957, -0.19452674686908722, 0.12816643714904785, -0.07491091638803482, -0.052816715091466904, -0.10990084707736969, 0.04390976205468178, 0.2716083526611328, -0.08795632421970367, 0.11319943517446518, 0.11576370149850845, -0.0802188515663147, -0.1471535712480545, 0.2320026308298111, 0.09892261773347855, 0.2695249021053314, -0.13580641150474548, -0.31913042068481445, 0.14684396982192993, -0.07541777193546295, -0.22629526257514954, 0.11914467066526413, 0.08322667330503464, 0.030735822394490242, -0.2321413904428482, 0.31076109409332275, -0.08084859699010849, -0.1262461245059967, -0.12070052325725555, 0.2554706037044525, -0.0799381211400032, 0.11250659078359604, 0.4621686041355133, -0.32307225465774536, 0.010292569175362587, 0.06841158121824265, 0.2378823608160019, -0.24572792649269104, -0.07300438731908798, -0.07086687535047531, -0.4360787272453308, 0.35736843943595886, -0.02962394244968891, 0.16005733609199524, 0.05552969127893448, -0.15609042346477509, 0.02609524503350258, -0.28811243176460266, 0.16552919149398804, 0.15347371995449066, 0.29388952255249023, -0.12843269109725952, -0.07009552419185638, 0.2290087342262268, 0.25486084818840027, -0.05769462510943413, -0.36003419756889343, -0.1911364495754242, 0.10634840279817581, -0.3315833806991577, -0.491393119096756, 0.27616560459136963, -0.19235852360725403, -0.11432139575481415, 0.041191358119249344, -0.16661231219768524, -0.22328856587409973, -0.11663023382425308, -0.03586001694202423, -0.1389804631471634, 0.3353351056575775, -0.046963710337877274, -0.13046829402446747, 0.023845365270972252, -0.3307919502258301, 0.24099010229110718, -0.11064150929450989, 0.10974632948637009, 0.24805104732513428, -0.11277996003627777, -0.3127763271331787, -0.2830636203289032, -0.3190946877002716, -0.22579775750637054, 0.09511266648769379, -0.2624252438545227, 0.14795880019664764, 0.12693484127521515, 0.08477546274662018, -0.39551350474357605, 0.15911221504211426, -0.20584233105182648, 0.005058579612523317, 0.010444807820022106, -0.21805600821971893, 0.20017296075820923, -0.16078943014144897, 0.18448428809642792, 0.5759850144386292, -0.134284108877182, 0.014052551239728928, -0.08923254907131195, -0.06938327103853226, 0.27188950777053833, -0.024547746405005455, 0.13000093400478363, 0.02427513524889946, 0.10615160316228867, 0.00951820146292448, -0.3121136724948883, 0.32436153292655945, 0.05696374177932739, 0.6062052249908447, 0.06840496510267258, -0.10739704221487045, -0.2621650695800781, -0.05708092451095581, 0.2652875781059265, -0.12222618609666824, -0.42599162459373474, -0.20479871332645416, 0.10758228600025177, 0.38237836956977844, 0.1727825254201889, -0.39550527930259705, 0.41086506843566895, -0.11013592779636383, -0.14458012580871582, -0.04328075051307678, 0.08270154893398285, -0.2829340696334839, 0.020982185378670692, 0.22168417274951935, 0.14265130460262299, 0.08602168411016464, -0.056062404066324234, 0.058492522686719894, 0.029189078137278557, -0.09298217296600342], "convKernelA": [-0.049777913838624954, 0.34765270352363586, -0.188132643699646, -0.3533051311969757, -0.043984778225421906, 0.12717299163341522, 0.563551664352417, 0.14850778877735138, -0.2881346642971039, 0.07466772943735123, -0.025265643373131752, 0.10698961466550827, -0.6738871335983276, 0.08663208782672882, -0.13944648206233978, 0.05425579100847244, -0.23387153446674347, 0.007065478712320328, 0.25446638464927673, -0.1319521814584732, 0.06631141155958176, -0.294353723526001, -0.013003850355744362, 0.15494024753570557, -0.2854967415332794, 0.16784964501857758, -0.13298042118549347, 0.11719036847352982, 0.3099430501461029, -0.5304495096206665, -0.18895813822746277, 0.19850052893161774, -0.0006125084473751485, -0.4339454770088196, 0.1877528876066208, -0.1190900206565857, 0.12246038019657135, -0.21252617239952087, -0.004480062518268824, -0.40273240208625793, 0.2074149250984192, -0.11856473237276077, 0.25960680842399597, -0.013497491367161274, 0.1470651477575302, 0.21513356268405914, -0.22207750380039215, 0.018101053312420845, 0.2664412558078766, 0.12810194492340088, -0.6222460269927979, 0.03631354868412018, 0.14131338894367218, 0.26849809288978577, -0.24098321795463562, -0.23978380858898163, 0.2109398990869522, 0.054302189499139786, 0.3346887528896332, 0.17912085354328156, -0.18612413108348846, -0.09093804657459259, 0.13232216238975525, -0.07827606052160263, -0.5010079741477966, -0.1403081864118576, 0.49917885661125183, 0.418323278427124, 0.027590995654463768, 0.18471898138523102, 0.2365066260099411, -0.3187873363494873, 0.45806509256362915, 0.546502947807312, -0.13263368606567383, 0.1937985122203827, -0.275845468044281, 0.3174157738685608, 0.1548713743686676, 0.12497830390930176, -0.04356899857521057, -0.13833031058311462, 0.03321898356080055, 0.10153649747371674, -0.056881483644247055, 0.1151813417673111, 0.27575764060020447, 0.1999182105064392, 0.00701192207634449, -0.3524543344974518, -0.21220988035202026, 0.2643839418888092, -0.37269923090934753, -0.31203216314315796, 0.018635064363479614, -0.045449644327163696, 0.18542756140232086, 0.308711439371109, -0.389335572719574, 0.3102160394191742, 0.16848327219486237, 0.02383865974843502, -0.3313428461551666, -0.05243392288684845, 0.4042486846446991, -0.02068500407040119, -0.2937256097793579, -0.39394697546958923, 0.24927233159542084, 0.37155893445014954, 0.010988140478730202, -0.25285398960113525, 0.2879858613014221, 0.1800420880317688, -0.2633369266986847, 0.0286843441426754, 0.1463959962129593, 0.23798032104969025, 0.30310845375061035, -0.06565685570240021, 0.2045772522687912, 0.28824520111083984, 0.13858374953269958, -0.21749714016914368, -0.28168097138404846, -0.5196937918663025, 0.26454660296440125, -0.12283729016780853, -0.3160020411014557, -0.13797463476657867, 0.2995530962944031, 0.10890042036771774, 0.2930172383785248, -0.24966087937355042, 0.05892927944660187, -0.1470475047826767, 0.1747073382139206, -0.2576525807380676, 0.022532358765602112, -0.35053563117980957, -0.29092252254486084, -0.17478910088539124, -0.033237524330616, -0.10915383696556091, 0.21660806238651276, 0.29812806844711304, 0.09719059616327286, 0.021615566685795784, -0.26668742299079895, -0.13849994540214539, -0.3794366121292114, 0.009961585514247417, -0.5621371865272522, 0.12971946597099304, 0.056719016283750534, 0.033769238740205765, 0.10448946803808212, 0.25656139850616455, 0.19428467750549316, 0.2867109179496765, 0.38191428780555725, -0.49710026383399963, 0.08639686554670334, 0.3994509279727936, -0.010661891661584377, -0.0448233000934124, -0.23921173810958862, -0.12542375922203064, 0.39729809761047363, 0.28145715594291687, 0.024198167026042938, 0.14506684243679047, -0.18113182485103607, 0.20777742564678192, -0.02203965187072754, -0.47529569268226624, -0.12317204475402832, 0.06525683403015137, -0.2740255296230316, 0.1676565408706665, -0.14203308522701263, -0.32528451085090637, -0.019573213532567024, 0.30822327733039856, -0.06319965422153473, 0.11874260008335114, 0.24520084261894226, 0.31501567363739014, -0.05368165671825409, -0.24470044672489166, 0.3497760593891144, -0.00526597211137414, 0.025893643498420715, 0.24115842580795288, -0.18536162376403809, -0.3525959253311157, -0.23867954313755035, -0.14254771173000336, 0.008497381582856178, 0.16935759782791138, 0.1037227213382721, 0.3970375955104828, 0.037374261766672134, 0.2234518826007843, 0.05297668278217316, 0.037014830857515335, 0.3836560547351837, 0.2210426777601242, 0.09832091629505157, -0.6162934899330139, -0.08040159195661545, 0.054613448679447174, 0.15834523737430573, 0.038170427083969116, -0.4418942332267761, -0.48298928141593933, -0.04277326911687851, -0.07597433030605316, -0.3803977966308594, 0.1066458523273468, 0.12131279706954956, 0.10455476492643356, -0.05105116218328476, -0.6741628050804138, 0.18132837116718292, 0.04131028801202774, -0.17439094185829163, 0.49990227818489075, -0.21388770639896393, 0.08535923063755035, 0.2373243272304535, -0.45519357919692993, -0.07882983237504959, 0.10344751179218292, -0.0789787769317627, -0.253313809633255, 0.22520719468593597, 0.31073230504989624, -0.0049889348447322845, 0.3434593379497528, 0.23968592286109924, 0.09485036879777908, 0.2648833394050598, 0.5604062676429749, 0.0297005083411932, 0.43441328406333923, 0.015234917402267456, 0.13429799675941467, -0.05601615086197853, -0.11339148133993149, 0.16220565140247345, -0.35119664669036865, -0.20654310286045074, -0.0660150945186615, -0.013393000699579716, -0.0947519838809967, -0.21006406843662262, -0.43295738101005554, 0.2079067975282669, -0.04580351337790489, -0.19992634654045105, 0.04640929773449898, -0.10472984611988068, 0.0432870052754879, 0.23291563987731934, -0.3230642080307007, -0.1743633896112442, -0.383951336145401, -0.28800684213638306, 0.40301749110221863, -0.012375260703265667, -0.14670422673225403, 0.06272926926612854, 0.02296123094856739, 0.25296640396118164, -0.10531264543533325, -0.5272234678268433, 0.34343594312667847, -0.04728756844997406, 0.08201824873685837, -0.36541250348091125, -0.24943067133426666, 0.4093037247657776, -0.3032010793685913, -0.027418581768870354, -0.2403026521205902, -0.40348920226097107, 0.3041292428970337], "bnVarianceC": [0.6165028214454651, 0.6259059906005859, 0.8732209205627441, 1.3908542394638062, 1.2513748407363892, 0.6480640769004822, 0.6436208486557007, 0.3865185081958771], "bnBetaC": [0.09604642540216446, 0.5400628447532654, 0.4046768248081207, 0.5918622612953186, -0.597437858581543, -0.5727739930152893, 0.3237089216709137, -1.205430269241333], "bnGammaB": [0.8752697110176086, 1.0268229246139526, 1.369215965270996, 0.85392826795578, 1.4467860460281372, 1.1601961851119995, 0.7192018032073975, 1.205054759979248, 0.8033038377761841, 0.8082066774368286, 0.8991994261741638, 0.9720548391342163, 1.1379283666610718, 1.1013108491897583, 1.0038037300109863, 0.714748740196228], "bnGammaC": [0.6790266036987305, 0.9566221237182617, 0.912117600440979, 0.7291265726089478, 1.1017687320709229, 0.996330738067627, 1.1709657907485962, 1.0996897220611572], "bnBetaA": [-0.4893691837787628, -0.22669152915477753, 0.4090462028980255, -0.4209589660167694, -0.691696047782898, -0.9821221232414246, -0.5150761604309082, -0.12282849848270416], "bnMeanB": [-0.01761750690639019, -0.2104918360710144, -0.10910172015428543, 0.12640857696533203, -0.5644366145133972, 0.07668827474117279, 0.6251640319824219, 0.8422310948371887, -0.5511429905891418, 0.33044785261154175, 0.41761454939842224, 0.9537073969841003, -0.2434629201889038, -0.8178822994232178, 0.21530473232269287, 0.7625840306282043], "scaleFactor": 1, "bnBetaB": [-0.4249779284000397, -0.3891220688819885, -1.1212999820709229, 0.16870184242725372, -0.9651739001274109, -0.8450775146484375, -0.5348608493804932, -0.22081081569194794, -0.045010630041360855, -0.0813145563006401, -0.41449078917503357, -0.09113340079784393, -0.3947088122367859, -0.6895381212234497, -0.5850446224212646, 0.6704065799713135], "bnBetaD": [-0.12460434436798096, 0.2881258428096771, -0.298100084066391, -0.5710218548774719, -0.33296507596969604, -0.3326498568058014, 0.2140449732542038, -0.9978726506233215, -0.2887657880783081, -0.028452465310692787, -0.2413908988237381, -0.6324445605278015, -0.33348649740219116, -0.7892379760742188, -0.40826043486595154, -0.679196834564209], "bnMeanC": [0.14744630455970764, -0.2100989669561386, 0.34433871507644653, -0.16555647552013397, 0.3635251224040985, 0.1075868085026741, -0.18022559583187103, -0.0897100642323494], "roundsDim": 6, "convBiasB": [-0.02862015925347805, 0.0499863438308239, -0.059881165623664856, 0.005852946545928717, 0.0033773190807551146, -0.026085058227181435, -0.011244158260524273, 0.008842239156365395, -0.01818069815635681, 0.012333707883954048, -0.032104749232530594, 0.005686810705810785, 0.005198586266487837, -0.01226097159087658, -0.029474012553691864, -0.007798039820045233], "convBiasD": [0.010910251177847385, 0.004434637725353241, -0.02323823794722557, -0.0011413681786507368, 0.016073811799287796, 0.020022863522171974, -0.0360734723508358, -0.0460779070854187, 0.028837166726589203, -0.011068644002079964, -0.015166823752224445, -0.019013090059161186, 0.03697036951780319, 0.003093788865953684, 0.010610007680952549, -0.0138926450163126], "bnGammaA": [0.9566903114318848, 0.833473801612854, 1.1995478868484497, 0.9473766684532166, 0.9782286286354065, 1.1034862995147705, 1.2065620422363281, 0.8281963467597961], "convKernelB": [0.007442031521350145, -0.3123578429222107, 0.017062773928046227, -0.1736057996749878, 0.15110903978347778, 0.14495180547237396, -0.04624564200639725, -0.37227264046669006, 0.15419910848140717, -0.041418492794036865, 0.35055360198020935, -0.31181401014328003, 0.27823972702026367, -0.08058996498584747, 0.40494534373283386, 0.24510176479816437, -0.4099487364292145, -0.13328340649604797, 0.6485695242881775, 0.12054537981748581, -0.24652326107025146, -0.041625142097473145, 0.07193164527416229, 0.008633153513073921, 0.09535068273544312, 0.008128291927278042, -0.1287710964679718, -0.17914161086082458, 0.16993358731269836, -0.18576550483703613, -0.10596511512994766, -0.17110919952392578, 0.08928833156824112, -0.20546847581863403, 0.06387956440448761, 0.23949937522411346, -0.3712746500968933, 0.017357835546135902, 0.4893378019332886, 0.30969715118408203, 0.10095123201608658, 0.06332048773765564, 0.36266663670539856, 0.3702457547187805, 0.24398395419120789, -0.34504956007003784, -0.03404368460178375, -0.038015108555555344, 0.17216965556144714, 0.13559570908546448, -0.1083168089389801, 0.05915166437625885, -0.3869890570640564, 0.10491650551557541, 0.05732879787683487, -0.2745305001735687, -0.2331240326166153, 0.2533670663833618, 0.005065340548753738, 0.2987138330936432, 0.40982598066329956, -0.14073199033737183, 0.03610647842288017, -0.15890440344810486, -0.14315739274024963, -0.3201058506965637, -0.1362380087375641, 0.21204298734664917, -0.017839886248111725, -0.511677622795105, -0.03413360193371773, 0.06552455574274063, 0.49976226687431335, 0.19086240231990814, -0.17075970768928528, -0.08485715091228485, 0.06436920166015625, 0.31687048077583313, -0.007597952149808407, -0.3189331591129303, 0.06485798209905624, 0.2001025676727295, 0.17818155884742737, -0.06023530289530754, 0.2535248398780823, 0.15201297402381897, 0.004618100356310606, -0.022809525951743126, 0.31136614084243774, -0.34237730503082275, 0.0963280200958252, -0.16731882095336914, 0.06779666990041733, 0.02372041530907154, -0.4514009654521942, -0.3867500424385071, 0.45394474267959595, 0.0220298171043396, 0.24356210231781006, 0.47166869044303894, -0.05426875874400139, 0.11216042190790176, 0.3439180254936218, -0.3596557676792145, -0.012633426114916801, -0.1353241205215454, -0.055113740265369415, -0.09416358917951584, -0.20539458096027374, 0.2689597010612488, 0.2795417904853821, -0.23554448783397675, -0.17567019164562225, 0.27949315309524536, 0.18828049302101135, -0.015814119949936867, -0.0646306574344635, 0.394673615694046, 0.10953181982040405, -0.10822086036205292, 0.20730997622013092, -0.3146412968635559, -0.1892554759979248, 0.014286029152572155, 0.0464739128947258, -0.0942344218492508, 0.04439196735620499, 0.10542024672031403, 0.012822038494050503, -0.3042898178100586, 0.024668250232934952, -0.17555411159992218, 0.15685999393463135, 0.15240903198719025, -0.03609694540500641, -0.368381142616272, 0.17352060973644257, -0.05372060835361481, 0.3447355329990387, -0.307988703250885, 0.26797768473625183, -0.0934164971113205, 0.39815962314605713, 0.2632576823234558, -0.4005967080593109, -0.1326097846031189, 0.6393685936927795, 0.12589457631111145, -0.23812100291252136, -0.051372088491916656, 0.019881073385477066, -0.026650579646229744, 0.10921025276184082, 0.005041964817792177, -0.14123192429542542, -0.1837013214826584, 0.1688900738954544, -0.17216207087039948, -0.07633841782808304, -0.19064676761627197, 0.09009481221437454, -0.18649877607822418, 0.07255547493696213, 0.2335001528263092, -0.36924803256988525, 0.0109427934512496, 0.5003459453582764, 0.3131966292858124, 0.10760476440191269, 0.07763377577066422, 0.3570469319820404, 0.37555593252182007, 0.2565143406391144, -0.34639281034469604, -0.04545324295759201, -0.04806270822882652, 0.1744171530008316, 0.12918972969055176, -0.11449606716632843, 0.08451683819293976, -0.3856869339942932, 0.10710761696100235, 0.06481310725212097, -0.28753048181533813, -0.24814286828041077, 0.23956933617591858, 0.005907351151108742, 0.2893795669078827, 0.4186908006668091, -0.12925824522972107, 0.03615471348166466, -0.16093946993350983, -0.16123774647712708, -0.3182486891746521, -0.1308003067970276, 0.20783889293670654, -0.03142127767205238, -0.49759814143180847, -0.028850184753537178, 0.06603875011205673, 0.4965457320213318, 0.1993068903684616, -0.16413713991641998, -0.060013290494680405, 0.0690942332148552, 0.33331745862960815, -0.008346223272383213, -0.2967948317527771, 0.06149480864405632, 0.18447047472000122, 0.19110523164272308, -0.06968706101179123, 0.2526177167892456, 0.14931847155094147, 0.029532475396990776, -0.024838119745254517, 0.3051564693450928, -0.34001412987709045, 0.09621797502040863, -0.15079551935195923, 0.06940466910600662, 0.024146491661667824, -0.4454319477081299, -0.36089539527893066, 0.465878963470459, 0.014658395200967789, 0.23829689621925354, 0.47421014308929443, -0.05748029798269272, 0.1078377366065979, 0.33622995018959045, -0.3487823009490967, 0.0093960240483284, -0.13717903196811676, -0.04027489200234413, -0.08480986207723618, -0.22415044903755188, 0.26337379217147827, 0.2780827283859253, -0.25227364897727966, -0.13798648118972778, 0.2791925370693207, 0.1935001015663147, 0.014459481462836266, -0.07476481050252914, 0.411206990480423, 0.11700831353664398, -0.06686929613351822, 0.20489902794361115, -0.3533662259578705, -0.21908694505691528, 0.018138308078050613, 0.022453762590885162, -0.0849277675151825, 0.06869226694107056, 0.1303374320268631, 0.018812328577041626, -0.3115326464176178, 0.024507243186235428, -0.17852793633937836, 0.14126043021678925, 0.13431107997894287, -0.041689880192279816, -0.3648185729980469, 0.14629080891609192, -0.05646675452589989, 0.3578508794307709, -0.2957645654678345, 0.2720049023628235, -0.08913688361644745, 0.3938477337360382, 0.25526726245880127, -0.4293239414691925, -0.14035151898860931, 0.6329107284545898, 0.13010425865650177, -0.2507617771625519, -0.03157901018857956, 0.031204400584101677, -0.001884683733806014, 0.10161063820123672, 0.02336198091506958, -0.14141905307769775, -0.21746216714382172, 0.16749991476535797, -0.18775726854801178, -0.09204445779323578, -0.2062205672264099, 0.06002824380993843, -0.20205354690551758, 0.06477523595094681, 0.2466718554496765, -0.3640773892402649, 0.019991997629404068, 0.49267691373825073, 0.30323079228401184, 0.12040673941373825, 0.08154160529375076, 0.3681788742542267, 0.3791888952255249, 0.2529272437095642, -0.33537358045578003, -0.03997354954481125, -0.0287643875926733, 0.1782417744398117, 0.13767296075820923, -0.10553482174873352, 0.09822331368923187, -0.3764539659023285, 0.10778795927762985, 0.06759215146303177, -0.2829861640930176, -0.2323630452156067, 0.23281434178352356, -0.0036306525580585003, 0.29555654525756836, 0.4052097201347351, -0.12705333530902863, 0.038471344858407974, -0.1558872014284134, -0.1585557609796524, -0.32206210494041443, -0.11380014568567276, 0.2155790477991104, -0.021126586943864822, -0.5051625967025757, -0.01903386227786541, 0.07307125627994537, 0.5176851153373718, 0.1869257092475891, -0.14511430263519287, -0.06380470842123032, 0.058870501816272736, 0.3329627513885498, -0.004754630848765373, -0.30387356877326965, 0.058542802929878235, 0.18085218966007233, 0.17953529953956604, -0.07627085596323013, 0.254651814699173, 0.15776197612285614, 0.01093667559325695, -0.03630394861102104, 0.32426801323890686, -0.34896382689476013, 0.08652856945991516, -0.1865881383419037, 0.08345410227775574, 0.02904350683093071, -0.45654311776161194, -0.39152538776397705, 0.4760077893733978, 0.032608579844236374, 0.24503901600837708, 0.48268553614616394, -0.05696767196059227, 0.11605709046125412, 0.33765947818756104, -0.35698580741882324, -0.005257518496364355, -0.12031792849302292, -0.050401926040649414, -0.07275494188070297, -0.2324570268392563, 0.27279624342918396, 0.2602718472480774, -0.24912500381469727, -0.13062350451946259, 0.2525942921638489, 0.18515999615192413, -0.016632018610835075, -0.07440494745969772, 0.41329410672187805, 0.14471139013767242, -0.08025971055030823, 0.18259748816490173, -0.35269102454185486, -0.23416343331336975, 0.04213937744498253, 0.04970861226320267, -0.09800022840499878, 0.04737486690282822, 0.11133421957492828], "bnMeanD": [-0.558272123336792, -0.6693466305732727, 0.7845098972320557, -0.03392448648810387, -0.6656795144081116, 0.5432525277137756, -0.5704243779182434, -0.47630125284194946, -0.5623878240585327, -0.21582506597042084, 0.46152055263519287, -0.823409914970398, -2.6416971683502197, -1.214508056640625, -0.22661077976226807, 1.351860761642456], "inputChannelsDim": 36, "convKernelC": [-0.33096352219581604, -0.043672285974025726, 0.3803931474685669, -0.32837924361228943, 0.16102001070976257, -0.4041881263256073, 0.058293573558330536, 0.10342112928628922, -0.13849924504756927, -0.5790092349052429, -0.12078990787267685, -0.1693330556154251, -0.0564994290471077, 0.4129296541213989, 0.20260299742221832, -0.1674935668706894, -0.4925488829612732, 0.2758233845233917, -0.07712723314762115, 0.020824158564209938, 0.40204522013664246, -0.0539761446416378, 0.24170221388339996, 0.17371895909309387, -0.28374722599983215, -0.16025176644325256, -0.08505944162607193, 0.38133901357650757, 0.2166641503572464, -0.09870105236768723, 0.06065702810883522, -0.21799716353416443, 0.27299410104751587, 0.09357401728630066, -0.0649668499827385, -0.021075651049613953, -0.11115597188472748, 0.12735368311405182, -0.20943239331245422, -0.28097307682037354, 0.19483953714370728, 0.10291741043329239, -0.04872947558760643, -0.10465972125530243, 0.19312256574630737, -0.11610338091850281, -0.007197550963610411, 0.47138234972953796, 0.27606329321861267, -0.2389783412218094, -0.10743120312690735, -0.08904729038476944, 0.26749274134635925, 0.27613624930381775, -0.13523243367671967, 0.6279709935188293, 0.279692679643631, 0.021527599543333054, -0.35476136207580566, -0.04100482538342476, 0.028764648362994194, -0.14304333925247192, -0.20787884294986725, 0.28946369886398315, 0.11758344620466232, 0.12274789810180664, -0.43349766731262207, -0.38511142134666443, -0.21278926730155945, 0.22490525245666504, -0.0993330106139183, 0.3610052466392517, -0.3145856261253357, -0.04177501052618027, -0.23213697969913483, -0.39281827211380005, 0.3329564332962036, -0.019925806671380997, 0.019094636663794518, -0.07027040421962738, -0.05590866878628731, 0.05906333401799202, 0.06304281204938889, -0.5795236825942993, 0.33682385087013245, 0.26103296875953674, 0.13414619863033295, -0.1507628858089447, -0.3314060866832733, -0.19140686094760895, -0.12927360832691193, -0.3007301092147827, 0.1757994443178177, -0.5606409311294556, 0.08652736246585846, 0.37135639786720276, 0.1507185399532318, 0.010384604334831238, -0.12283923476934433, -0.08546698838472366, -0.1647534966468811, -0.43665584921836853, -0.13761813938617706, 0.1526506245136261, 0.1458534300327301, -0.29995375871658325, 0.31290605664253235, 0.04372269660234451, 0.31305766105651855, -0.05889949947595596, -0.20383433997631073, -0.08241534978151321, -0.22669188678264618, -0.1423657238483429, 0.1797664612531662, 0.02129499800503254, 0.1600622981786728, 0.39804887771606445, 0.39812400937080383, 0.28137093782424927, -0.4503994286060333, 0.3007696270942688, -0.25541937351226807, 0.5795434713363647, 0.27553802728652954, 0.16420777142047882, -0.045412395149469376, -0.19965572655200958, 0.04092993214726448, 0.06172770634293556, -0.04037060588598251, 0.1528576761484146, 0.17555022239685059, 0.11347097903490067, -0.18672294914722443, -0.21003493666648865, 0.3507389426231384, 0.10194379091262817, 0.4360739588737488, 0.022830480709671974, -0.40829581022262573, -0.18754112720489502, 0.44452786445617676, -0.20626741647720337, 0.07398588955402374, -0.09131258726119995, 0.133040189743042, 0.2591094970703125, -0.40954411029815674, -0.21529892086982727, -0.10045326501131058, 0.15073107182979584, -0.39024800062179565, 0.12252834439277649, -0.45515862107276917, 0.08817730098962784, -0.08675459027290344, -0.24845367670059204, -0.33132481575012207, -0.14565907418727875, -0.5339828133583069, -0.12315686792135239, -0.1516469568014145, 0.21541497111320496, -0.4367178976535797, -0.07318390160799026, 0.20055481791496277, 0.22193697094917297, -0.2808328866958618, -0.0569603331387043, -0.26552140712738037, -0.22187982499599457, -0.08131498098373413, -0.013829703442752361, 0.4762785732746124, 0.46600034832954407, -0.08900637179613113, 0.1484430581331253, -0.02593807689845562, -0.16410702466964722, -0.387695848941803, -0.16291698813438416, -0.09236451238393784, -0.1555202305316925, -0.23320311307907104, 0.24076533317565918, 0.45624691247940063, -0.08681309223175049, 0.024346577003598213, 0.056923892349004745, 0.30033090710639954, 0.1190793514251709, 0.24128539860248566, 0.15957672894001007, 0.004416428506374359, -0.189711332321167, 0.4173627197742462, -0.03956233710050583, 0.24541252851486206, 0.33865708112716675, -0.13827063143253326, 0.3620905876159668, 0.07246371358633041, 0.47015881538391113, 0.18441689014434814, 0.13778169453144073, -0.1191394180059433, -0.27453672885894775, 0.3331261873245239, -0.24199602007865906, -0.09253167361021042, -0.1195305660367012, 0.2948172986507416, 0.42716941237449646, 0.13321122527122498, 0.48447567224502563, 0.10686114430427551, -0.3818342685699463, -0.562762975692749, 0.0365472137928009, 0.4278222620487213, -0.09845898300409317, 0.18514443933963776, -0.1896280199289322, 0.004694473464041948, -0.0974590927362442, -0.3400917947292328, -0.2673811912536621, 0.5770969390869141, 0.0038965882267802954, -0.2164948582649231, 0.29992392659187317, -0.022148439660668373, 0.4378592073917389, -0.061597660183906555, -0.028386766090989113, 0.018588852137327194, 0.25040963292121887, 0.5058829188346863, 0.02364330366253853, 0.14470970630645752, -0.3090178668498993, -0.0949627235531807, -0.08464587479829788, 0.17979131639003754, 0.09709537774324417, -0.15961427986621857, 0.2515004277229309, 0.19569669663906097, -0.05291430279612541, -0.14597396552562714, 0.4645231366157532, -0.40198075771331787, -0.017757868394255638, 0.15389204025268555, -0.21184168756008148, -0.21943196654319763, 0.01638929545879364, -0.20269939303398132, 0.017655348405241966, 0.10686598718166351, 0.3065840005874634, -0.3535025417804718, 0.04257860407233238, -0.0978558361530304, -0.5362025499343872, 0.23062114417552948, -0.04075027257204056, 0.02287757210433483, 0.19475144147872925, -0.5243178009986877, -0.3697729706764221, 0.12886367738246918, -0.4212724268436432, 0.34014374017715454, -0.011752370744943619, -0.02192818373441696, 0.01660442166030407, -0.4424811899662018, 0.1825742870569229, 0.14622175693511963, -0.09916858375072479, 0.16460219025611877, 0.34555715322494507, -0.01371822226792574, -0.47973284125328064, -0.3381415903568268, 0.13614782691001892], "className": "reception", "convBiasA": [-0.016946136951446533, 0.00045015898649580777, 0.00376549712382257, 0.03415761888027191, -0.044069815427064896, 0.006563918199390173, -0.020321503281593323, 0.006284202914685011], "typesDim": 3, "bnMeanA": [0.40478160977363586, -0.15729646384716034, -0.4320390820503235, -0.42619994282722473, -0.6486767530441284, 0.16380877792835236, 0.06299977749586105, 0.20698204636573792], "bnVarianceD": [0.6144505739212036, 0.8400044441223145, 0.7029812335968018, 0.6445760726928711, 0.7103761434555054, 0.8955956101417542, 0.9782818555831909, 0.48708662390708923, 0.44161704182624817, 0.4331384599208832, 0.7023102641105652, 0.3044877052307129, 1.2019902467727661, 0.7239037752151489, 0.9489507079124451, 0.9751812815666199], "bnVarianceB": [1.915385365486145, 0.6270812153816223, 1.0153740644454956, 1.0457478761672974, 1.0264369249343872, 0.7774817943572998, 2.0271122455596924, 1.1792048215866089, 0.8248419165611267, 0.7115839123725891, 2.392390251159668, 1.9671775102615356, 1.6238007545471191, 1.1446081399917603, 0.6239401698112488, 0.7866940498352051], "convBiasC": [0.001492208568379283, 0.011414850130677223, 0.015071982517838478, -0.032263677567243576, -0.004666423890739679, -0.006988530047237873, 0.0018683687085285783, -0.015168075449764729], "bnVarianceA": [1.2090041637420654, 1.5633922815322876, 1.3945976495742798, 0.7429505586624146, 0.54923015832901, 0.3797260522842407, 0.46237337589263916, 2.7250711917877197]}, {"upsamplingRoundsDimFactor": 1, "roundsDim": 6, "convBias": [0.030402174219489098, -0.013857786543667316, -0.0007438144530169666, -0.012886523269116879, -0.021659912541508675, -0.009029241278767586, 0.007882347330451012, -0.018565671518445015, -0.052082695066928864, -0.010166044346988201, -0.0021161355543881655, -0.02993898279964924, -0.01597825065255165, -0.009717394597828388, 0.021138999611139297, 0.037891749292612076, -0.027935558930039406, -0.00014975764497648925, 0.007038595620542765, 0.005943460389971733, -0.01994178630411625, -0.027448052540421486, -0.018281277269124985, -0.011459522880613804, -0.059480708092451096, 0.012937461957335472, 0.00879758782684803, -0.005995828192681074, -0.0027127224020659924, -0.014542010612785816, -0.003561226185411215, -0.019471704959869385, -0.014201942831277847, -0.017038436606526375, 0.012610011734068394, 0.006685315631330013, -0.00142587476875633, 0.014757891185581684, -0.015873894095420837, -0.02843954972922802, -0.02846011519432068, 0.024835582822561264, 0.010304095223546028, 0.005017084535211325, -0.019094888120889664, 0.007026317995041609, -0.016662506386637688, -0.009595626965165138], "kernelTypesDim": 1, "convKernel": [0.08915908634662628, -0.19049294292926788, 0.06629062443971634, -0.2564845383167267, 0.2260562926530838, 0.3668842017650604, -0.31989607214927673, -0.3135990500450134, -0.07448021322488785, 0.27259454131126404, -0.3743210434913635, -0.0794314444065094, -0.032946132123470306, -0.059201858937740326, 0.1528378278017044, -0.2567310631275177, -0.14173339307308197, 0.021336974576115608, 0.2658896744251251, -0.1296682357788086, 0.22388026118278503, 0.018991822376847267, -0.21576999127864838, -0.13269920647144318, 0.1824151575565338, 0.17305584251880646, -0.16607458889484406, -0.046350475400686264, -0.29241642355918884, -0.2930077016353607, -0.2560358941555023, 0.4111565053462982, 0.229892298579216, -0.24146687984466553, -0.17948079109191895, 0.0986650139093399, 0.06812594085931778, 0.15611174702644348, 0.028312625363469124, 0.29861345887184143, -0.12350770831108093, 0.03829209506511688, 0.13019615411758423, -0.3013681471347809, 0.20214638113975525, 0.07917100191116333, -0.08618669956922531, -0.1442442387342453, 0.10449127107858658, -0.26144132018089294, -0.11624525487422943, -0.15004773437976837, -0.002330922521650791, 0.05131397023797035, -0.02386058121919632, 0.13050922751426697, -0.09201518446207047, -0.24273863434791565, 0.11407040059566498, 0.10814960300922394, 0.06360207498073578, -0.013789676129817963, 0.08850402384996414, 0.21275106072425842, 0.09043832123279572, -0.10325200110673904, 0.09968399256467819, -0.044063422828912735, 0.10275573283433914, 0.12452339380979538, -0.20372125506401062, 0.18478885293006897, -0.20827478170394897, 0.20216932892799377, 0.08247070014476776, 0.14280429482460022, 0.027810007333755493, 0.32393938302993774, -0.05241572856903076, -0.16497524082660675, 0.27020472288131714, -0.25380873680114746, -0.26139816641807556, 0.16649238765239716, -0.035405345261096954, -0.14482958614826202, 0.04240422695875168, -0.07784143090248108, 0.24727314710617065, -0.1641092300415039, 0.1019647866487503, -0.19565004110336304, 0.01154562458395958, 0.13530510663986206, -0.22185879945755005, -0.0019566172268241644, 0.22954462468624115, 0.3164805769920349, -0.1225438192486763, 0.03423912450671196, 0.018230123445391655, -0.14444462954998016, -0.04740960896015167, 0.06577998399734497, 0.07240879535675049, 0.03181479498744011, 0.1211148053407669, 0.025910165160894394, -0.14280247688293457, 0.45001649856567383, 0.25645825266838074, 0.33267688751220703, -0.2173004001379013, 0.20669738948345184, -0.12982778251171112, 0.41229701042175293, 0.13073217868804932, -0.3973183333873749, -0.05900236964225769, -0.15278245508670807, 0.059255897998809814, 0.3886485993862152, -0.17250065505504608, -0.024108707904815674, 0.06583170592784882, 0.1590908318758011, 0.0459812730550766, 0.07241244614124298, -0.10989498347043991, -0.0018243136582896113, 0.11140462011098862, 0.14323794841766357, -0.3552805483341217, -0.25384417176246643, 0.06180313602089882, -0.1043703481554985, 0.29483726620674133, -0.15623243153095245, 0.12437643110752106, -0.4488103985786438, 0.16379015147686005, 0.03512536734342575, 0.13410891592502594, -0.5732715129852295, -0.15103459358215332, -0.24915020167827606, -0.053187295794487, 0.15646329522132874, -0.1377953141927719, 0.06664571166038513, -0.055364176630973816, -0.09200303256511688, 0.06972357630729675, -0.216550812125206, 0.04182254150509834, -0.1736520379781723, -0.2744734585285187, -0.047478705644607544, 0.4037928581237793, 0.234682098031044, -0.012810309417545795, 0.13262616097927094, 0.11400528997182846, 0.3165549039840698, -0.10577666014432907, -0.04190613329410553, -0.3667421340942383, 0.13404309749603271, 0.02318561263382435, 0.4350341856479645, 0.24213548004627228, -0.0944322943687439, -0.20709562301635742, -0.028174763545393944, 0.21180427074432373, -0.05248561128973961, -0.021132858470082283, 0.1749894917011261, 0.019922902807593346, 0.1125820055603981, 0.057484861463308334, -0.03711583465337753, -0.012481278739869595, -0.2338162362575531, -0.0001789434754755348, 0.031236914917826653, 0.2683749198913574, 0.18970604240894318, -0.2482830435037613, 0.12514033913612366, 0.0025253803469240665, -0.13503970205783844, -0.04951716214418411, -0.14354264736175537, 0.2577010691165924, 0.0837155431509018, 0.0912322923541069, -0.08697878569364548, 0.29266539216041565, -0.05281872674822807, 0.2217167317867279, -0.2986380159854889, -0.006616849917918444, 0.09171543270349503, 0.07488126307725906, -0.31309425830841064, 0.19264651834964752, 0.26649701595306396, -0.2793233096599579, 0.08470635116100311, 0.02781708724796772, 0.08410649746656418, -0.1807534098625183, -0.1801007241010666, -0.10753072798252106, -0.08391736447811127, -0.1518065482378006, -0.0686800554394722, -0.10212545841932297, -0.16721877455711365, -0.11020597815513611, 0.0015326630091294646, -0.28077903389930725, 0.20696505904197693, -0.450131356716156, 0.03712691739201546, -0.03671324625611305, -0.062178466469049454, -0.08957573026418686, 0.3089502453804016, 0.12061771005392075, 0.14906352758407593, 0.0517767108976841, 0.2823064923286438, 0.14433653652668, -0.468412846326828, -0.16097807884216309, -0.1778857260942459, -0.5006676912307739, 0.003121420508250594, -0.25424957275390625, 0.06760485470294952, -0.16986054182052612, -0.24203382432460785, -0.1034490093588829, -0.1366770714521408, -0.21764586865901947, -0.14772000908851624, 0.15768703818321228, 0.05846104770898819, 0.42435911297798157, -0.32077452540397644, -0.15642258524894714, 0.057654641568660736, 0.24909380078315735, -0.10648930817842484, 0.25789523124694824, 0.06542007625102997, -0.44746702909469604, 0.30045589804649353, -0.2666276693344116, 0.022336717694997787, -0.06619282066822052, 0.06791647523641586, -0.054875217378139496, -0.0037539727054536343, 0.2504858672618866, -0.0026122797280550003, -0.08666592836380005, 0.03406709060072899, -0.139727383852005, -0.024575330317020416, -0.06898992508649826, 0.06970690190792084, 0.28315290808677673, 0.04916973039507866, -0.07463336735963821, -0.13508816063404083, 0.09828025847673416, -0.2584027349948883, -0.25304684042930603, -0.22922347486019135, -0.2640048861503601, 0.20620055496692657, -0.05480312556028366, 0.17334222793579102, 0.2867817282676697, 0.26909711956977844, 0.2079225331544876, 0.07119983434677124, -0.1236979141831398, 0.2536468505859375, -0.019105790182948112, -0.34707626700401306, 0.04310004040598869, 0.24390968680381775, -0.22582200169563293, -0.07144859433174133, -0.04717860743403435, -0.05024205148220062, -0.021121341735124588, -0.00791811291128397, -0.09137162566184998, -0.16830015182495117, 0.14373160898685455, -0.038700416684150696, -0.06298431009054184, 0.1752811223268509, -0.026092132553458214, 0.025821322575211525, 0.1881653517484665, 0.04593607410788536, 0.0706576406955719, 0.07470167428255081, -0.29351481795310974, 0.15705446898937225, 0.10754169523715973, -0.027673888951539993, 0.18467967212200165, -0.21974366903305054, -0.3053440451622009, -0.4398275911808014, -0.41792476177215576, -0.1368735432624817, 0.007902320474386215, -0.054721102118492126, -0.09912487119436264, -0.5833672881126404, -0.02384745329618454, -0.11309895664453506, 0.2500573694705963, -0.004039214923977852, 0.07610998302698135, -0.22941863536834717, -0.0981384813785553, 0.07896219938993454, 0.14694204926490784, -0.03113817796111107, -0.09927338361740112, 0.13779598474502563, 0.3104913532733917, 0.2668243944644928, -0.0509723499417305, -0.19908511638641357, -0.02815544791519642, -0.28613394498825073, -0.22540977597236633, 0.026426639407873154, -0.1236826702952385, 0.043712880462408066, -0.11761028319597244, 0.1980597823858261, 0.22867944836616516, 0.02147342450916767, -0.04913468286395073, 0.01621740683913231, -0.29097414016723633, -0.15826350450515747, 0.2692578434944153, -0.07040069997310638, -0.29745975136756897, -0.13773220777511597, -0.284749299287796, -0.06680537015199661, -0.14636848866939545, -0.2859426736831665, -0.03908390551805496, 0.46453043818473816, 0.11759305000305176, 0.050142187625169754, 0.11607201397418976, 0.05011439695954323, 0.13556008040905, -0.0709293931722641, 0.32239001989364624, -0.17938412725925446, 0.3160674273967743, 0.056607719510793686, -0.09953651577234268, 0.2073536366224289, 0.10175110399723053, -0.2089938521385193, -0.20927801728248596, 0.06624611467123032, 0.37313157320022583, 0.20935943722724915, 0.13644759356975555, 0.1559983789920807, -0.04669572412967682, -0.3360532224178314, 0.47200581431388855, 0.007579956669360399, 0.13481716811656952, 0.5447942018508911, -0.00981950107961893, 0.08403061330318451, 0.01863209530711174, 0.07781308889389038, 0.1084391176700592, 0.3638267517089844, 0.1872207075357437, -0.26007184386253357, -0.2154667228460312, -0.052234947681427, -0.05078617110848427, -0.2123918980360031, -0.13153064250946045, -0.3429127335548401, 0.029159633442759514, -0.0761110782623291, 0.12540823221206665, -0.16858318448066711, 0.34006524085998535, 0.2398962676525116, -0.41787952184677124, -0.2694374918937683, 0.12469223141670227, -0.34495702385902405, 0.0938081219792366, -0.3627224564552307, -0.12015414983034134, 0.1723136454820633, 0.33899199962615967, -0.0626421719789505, -0.016442734748125076, -0.25410157442092896, -0.4369381070137024, -0.3142854571342468, -0.3895300328731537, -0.008259265683591366, 0.3129558861255646, 0.38780561089515686, -0.04953371733427048, 0.07620083540678024, -0.05696709081530571, 0.055250804871320724, 0.38709557056427, -0.1366526335477829, -0.15953560173511505, -0.07175648212432861, -0.39538684487342834, -0.10779353231191635, -0.2123624086380005, -0.04790106043219566, -0.15063399076461792, -0.2831614017486572, -0.11569071561098099, -0.03171814605593681, -0.17961002886295319, 0.22894541919231415, -0.03326592966914177, -0.31550514698028564, 0.0017460997914895415, -0.11599196493625641, 0.3232627213001251, -0.1132991686463356, 0.2726302742958069, 0.030528830364346504, 0.020858490839600563, 0.0775361880660057, -0.12400336563587189, -0.039420269429683685, 0.06564820557832718, 0.08048910647630692, -0.16585691273212433, 0.39471426606178284, -0.011436142027378082, -0.10135181993246078, -0.05658596754074097, 0.21839207410812378, -0.33010604977607727, 0.22016750276088715, -0.08894331753253937, 0.1511608362197876, -0.1502830982208252, -0.2818008363246918, -0.01762661337852478, 0.05587191879749298, 0.0648123174905777, 0.13092884421348572, 0.24333523213863373, 0.21783748269081116, 0.13956430554389954, -0.3087073266506195, 0.16462460160255432, -0.3592633903026581, -0.09963449835777283, -0.16056886315345764, 0.13964948058128357, -0.0632016658782959, -0.31256428360939026, -0.07466253638267517, 0.31778115034103394, 0.010066698305308819, 0.17729775607585907, -0.12443144619464874, 0.2774192988872528, -0.002540112007409334, 0.04896188899874687, 0.01684175245463848, 0.03917906805872917, 0.18875707685947418, 0.509687066078186, 0.2348862886428833, 0.3175347149372101, -0.12044590711593628, 0.12033887207508087, 0.32279297709465027, -0.3715101480484009, 0.2909640073776245, 0.09996864944696426, 0.25514543056488037, -0.03589882329106331, 0.19985833764076233, -0.6625617146492004, 0.0358574353158474, -0.2863308787345886, 0.21413704752922058, 0.16645053029060364, 0.11794562637805939, -0.15629976987838745, -0.15198485553264618, -0.16091378033161163, 0.002487705321982503, -0.11233504116535187, 0.12535789608955383, 0.16214722394943237, -0.17532777786254883, 0.07312162965536118, -0.198562353849411, 0.036954283714294434, -0.02562771923840046, 0.11229986697435379, -0.17345362901687622, -0.07964752614498138, -0.09056878834962845, -0.16440574824810028, -0.22903601825237274, -0.38569003343582153, 0.08177293092012405, -0.21426963806152344, -0.09495758265256882, 0.01889416016638279, 0.03932689502835274, 0.08786774426698685, -0.11662264168262482, -0.18525265157222748, -0.3180980086326599, -0.20310361683368683, -0.18881291151046753, -0.21149525046348572, 0.3466258943080902, 0.07544693350791931, 0.048841413110494614, 0.18341580033302307, 0.05263363942503929, -0.3487910330295563, 0.1660720705986023, 0.22245295345783234, 0.0366235189139843, 0.09832322597503662, 0.16477857530117035, 0.2709619104862213, -0.13219568133354187, -0.31593483686447144, 0.0827050507068634, -0.34180259704589844, 0.10019800066947937, 0.36504340171813965, -0.3003090023994446, -0.1155887246131897, 0.161955788731575, 0.21672190725803375, -0.02446454018354416, -0.2197967916727066, -0.1124577671289444, -0.08356986939907074, 0.0675203800201416, -0.21185414493083954, 0.20380297303199768, 0.1250925362110138, 0.4394570291042328, -0.11783460527658463, 0.15508656203746796, 0.028927527368068695, 0.17901624739170074, -0.011250096373260021, -0.2992745339870453, 0.2643718421459198, -0.13894414901733398, 0.24551750719547272, 0.345551073551178, 0.004121564794331789, 0.07470999658107758, 0.1947944611310959, -0.33849072456359863, 0.18181675672531128, 0.025767330080270767, -0.015434542670845985, 0.22035697102546692, 0.3921622633934021, -0.20242777466773987, -0.07746283710002899, -0.27377164363861084, -0.32056209444999695, 0.08289138972759247, 0.4354863166809082, -0.26304489374160767, -0.2027391493320465, 0.12733347713947296, 0.051469285041093826, 0.12827809154987335, -0.20228838920593262, -0.3831782042980194, -0.20400571823120117, -0.08577604591846466, 0.108632393181324, 0.1784357726573944, -0.2665281891822815, -0.16481567919254303, -0.06015279144048691, -0.24359428882598877, -0.3310762047767639, -0.1499718725681305, -0.04694581404328346, 0.039925459772348404, -0.016818715259432793, 0.1809207946062088, 0.08255812525749207, -0.23640373349189758, 0.0058571770787239075, -0.14724335074424744, -0.058038026094436646, 0.2294173687696457, -0.0774676650762558, -0.2374338060617447, 0.05250854417681694, -0.22816389799118042, -0.1295902281999588, -0.1535201519727707, -0.09973564743995667, 0.27376067638397217, 0.009731980040669441, -0.267436683177948, -0.031218741089105606, 0.29923656582832336, -0.17593303322792053, 0.0820796936750412, 0.006213546264916658, 0.1992114931344986, 0.35453513264656067, 0.2431870400905609, -0.056548453867435455, -0.2359742671251297, -0.16410231590270996, 0.1907842755317688, 0.10228226333856583, 0.16809916496276855, -0.03256986662745476, 0.06280497461557388, -0.0027649831026792526, 0.09649652242660522, -0.15822984278202057, -0.027805408462882042, -0.030656157061457634, 0.2733716666698456, 0.15837961435317993, 0.003613304579630494, 0.4301792085170746, -0.017164794728159904, -0.1703300178050995, -0.03606656566262245, -0.1395185887813568, 0.39829033613204956, 0.07030981034040451, -0.30227023363113403, -0.5023391246795654, 0.1504540890455246, -0.0367172546684742, 0.1603313386440277, 0.02635806053876877, 0.05911364406347275, -0.08531905710697174, -0.23938240110874176, -0.11101264506578445, 0.299599289894104, 0.11249598860740662, 0.0529976487159729, -0.05125288665294647, -0.27242574095726013, 0.1361573040485382, 0.3003944456577301, -0.01626037433743477, -0.08596112579107285, -0.005955412983894348, 0.10273673385381699, 0.14885857701301575, -0.24033322930335999, -0.30105170607566833, 0.019096972420811653, 0.010106690227985382, -0.10148312151432037, -0.027928322553634644, -0.050804924219846725, -0.08505039662122726, 0.06132272258400917, -0.07283171266317368, 0.0988980382680893, 0.060899849981069565, -0.0028474731370806694, 0.08174300193786621, -0.27674737572669983, 0.016728779301047325, 0.1481715589761734, 0.2310604751110077, 0.1469942033290863, 0.09928165376186371, -0.27178797125816345, 0.17011360824108124, -0.11846113950014114, 0.12954142689704895, 0.15472571551799774, -0.07697836309671402, 0.27374762296676636, -0.182803675532341, -0.10257643461227417, 0.1467224657535553, 0.18019472062587738, -0.2700517773628235, -0.1848633885383606, 0.18484044075012207, -0.09563328325748444, -0.0048085846938192844, -0.09797363728284836, -0.1262262463569641, -0.05989380180835724, 0.05314143747091293, 0.11647115647792816, -0.07187096029520035, 0.12000003457069397, 0.14207498729228973, -0.004225371405482292, 0.07597358524799347, -0.18055252730846405, -0.12666402757167816, 0.07416700571775436, -0.23265013098716736, 0.23262040317058563, 0.19032920897006989, 0.14782246947288513, 0.19219842553138733, -0.12018164992332458, -0.05858634412288666, -0.1625935286283493, 0.38301292061805725, -0.1423657387495041, 0.42596980929374695, -0.11375002562999725, -0.04356083273887634, -0.2871077060699463, 0.13741305470466614, 0.5417196154594421, 0.06632768362760544, -0.18095742166042328, 0.011501489207148552, -0.03647026792168617, 0.5181746482849121, -0.18165694177150726, 0.011721138842403889, -0.09090646356344223, -0.0007971724262461066, 0.07656514644622803, 0.21353057026863098, 0.11993104219436646, -0.058087583631277084, -0.08335035294294357, -0.13978534936904907, 0.0009478462743572891, 0.20358794927597046, 0.16599690914154053, 0.02385248802602291, 0.2865088880062103, 0.12199681252241135, -0.17313945293426514, -0.029947400093078613, 0.27716895937919617, -0.18065568804740906, 0.10909833759069443, -0.1833449900150299, -0.1304389387369156, 0.15359486639499664, 0.0946657732129097, -0.44980448484420776, -0.19320422410964966, 0.07728232443332672, -0.23519957065582275, 0.1865050047636032, 0.14653977751731873, 0.11625725775957108, 0.10709675401449203, -0.29150253534317017, -0.008495408110320568, 0.4236704707145691, -0.16054917871952057, 0.23834365606307983, -0.274352103471756, -0.24779760837554932, -0.06415833532810211, -0.3632792830467224, 0.30549168586730957, 0.30708715319633484, 0.035575855523347855, 0.07615268230438232, -0.18363110721111298, -0.08490805327892303, 0.23471896350383759, -0.02441183663904667, 0.12019390612840652, -0.09586566686630249, -0.4582193195819855, -0.5166014432907104, 0.19584015011787415, 0.11237847059965134, -0.2484370470046997, -0.24446599185466766, -0.0077617536298930645, 0.1399635672569275, -0.32381147146224976, 0.0017479113303124905, -0.09091191738843918, -0.07134943455457687, 0.1619138866662979, 0.19044171273708344, 0.16784624755382538, 0.23063667118549347, -0.0017366212559863925, 0.12114721536636353, 0.36052244901657104, -0.016334177926182747, -0.06570388376712799, 0.06818542629480362, 0.18296371400356293, 0.032072532922029495, -0.12095558643341064, -0.13491804897785187, -0.0017912454204633832, 0.005191601347178221, -0.24432207643985748, -0.2268710434436798, 0.10096524655818939, -0.06113395839929581, -0.32503801584243774, -0.08961345255374908, -0.02467838115990162, 0.2831728458404541, -0.026109235361218452, -0.1389770209789276, -0.18605424463748932, -0.14542190730571747, -0.2309390902519226, 0.21936865150928497, 0.3513290286064148, -0.24674135446548462, 0.13630062341690063, 0.1489039659500122, -0.09864559024572372, 0.2443702667951584, 0.26928746700286865, -0.02898179367184639, 0.25766122341156006, 0.27053889632225037, -0.028124405071139336, -0.07250729203224182, -0.3649473190307617, 0.15551987290382385, -0.05667944625020027, 0.0856412723660469, 0.44490277767181396, -0.2731621563434601, -0.0032451970037072897, -0.22365634143352509, -0.007482059765607119, -0.18895329535007477, 0.06851943582296371, 0.05031102895736694, -0.26990991830825806, 0.3081500828266144, -0.20672960579395294, 0.25740572810173035, -0.36894330382347107, -0.27141618728637695, -0.02912323735654354, -0.01873750053346157, -0.2783989906311035, -0.060590147972106934, -0.18006053566932678, -0.09786056727170944, -0.05385889485478401, 0.19020482897758484, 0.41917577385902405, -0.15275442600250244, -0.5028470158576965, -0.21788105368614197, 0.25352877378463745, -0.015988681465387344, 0.26015815138816833, 0.06432809680700302, 0.18009598553180695, -0.1436956524848938, -0.08712024986743927, -0.05944862961769104, 0.1137189194560051, -0.22927020490169525, -0.20279240608215332, 0.3522850275039673, -0.0666540116071701, -0.02647702768445015, -0.11865157634019852, -0.1750330924987793, 0.19519847631454468, 0.08927620947360992, 0.011061345227062702, -0.18430905044078827, -0.06786036491394043, -0.14366978406906128, -0.15314240753650665, 0.016423776745796204, -0.17453773319721222, -0.2825663685798645, -0.2737523913383484, -0.22078613936901093, 0.11166064441204071, -0.13761523365974426, -0.23141348361968994, 0.2095230221748352, -0.11352774500846863, -0.10192873328924179, 0.15428759157657623, 0.2107609212398529, 0.21793709695339203, -0.1289457380771637, -0.5648396015167236, -0.08674290031194687, 0.03354997932910919, -0.15493158996105194, -0.3457889258861542, 0.12290753424167633, -0.10576540231704712, 0.15474803745746613, -0.0038946347776800394, -0.019430706277489662, 0.25130265951156616, 0.1447511613368988, -0.1261567324399948, 0.05856534466147423, 0.044991761445999146, -0.02166365087032318, -0.4107530415058136, 0.2946726679801941, 0.20282697677612305, -0.11164206266403198, 0.05541430786252022, -0.1777038276195526, -0.0716453492641449, -0.12483169138431549, -0.1744249016046524, 0.20321710407733917, 0.16269268095493317, -0.1730286180973053, 0.03146262466907501, 0.10734166204929352, 0.018000302836298943, 0.2880803644657135, 0.15781164169311523, -0.3164860010147095, -0.017822759225964546, -0.11055007576942444, 0.048085086047649384, 0.22766231000423431, 0.31148794293403625, -0.06735430657863617, 0.43695250153541565, 0.08674979954957962, 0.18068765103816986, -0.1344299465417862, -0.1365230828523636, 0.07255023717880249, 0.17679056525230408, 0.1515958160161972, -0.05366552621126175, -0.2331266850233078, -0.019641274586319923, 0.21253852546215057, -0.1518600434064865, -0.1523781567811966, -0.35566630959510803, 0.1604120135307312, 0.3447674810886383, -0.12161152064800262, 0.01973387412726879, 0.31676095724105835, -0.18952308595180511, 0.07244443148374557, -0.253645658493042, -0.2864972949028015, 0.2006516456604004, -0.04051826521754265, 0.1192438080906868, -0.026105055585503578, 0.13845033943653107, -0.19319456815719604, 0.13864152133464813, 0.15434280037879944, -0.20860573649406433, 0.061029545962810516, 0.15500026941299438, -0.08944965153932571, -0.19034411013126373, -0.03555569797754288, 0.18345795571804047, 0.1378595381975174, 0.24032241106033325, -0.02662001922726631, 0.05992477014660835, -0.11244271695613861, -0.2452414631843567, 0.190353661775589, -0.06546337902545929, -0.16208256781101227, 0.05758623406291008, -0.1193455308675766, 0.10033266991376877, -0.5129760503768921, -0.19848616421222687, -0.4039710462093353, 0.09330388158559799, -0.08739198744297028, -0.11613874137401581, -0.03520175814628601, -0.09038271754980087, -0.3010198771953583, 0.2694968283176422, -0.13423578441143036, 0.041522763669490814, 0.2947113513946533, -0.22127096354961395, 0.0860462561249733, -0.03350728750228882, 0.3066721260547638, 0.04300634190440178, -0.24776245653629303, 0.14541037380695343, -0.048671796917915344, 0.45725974440574646, 0.15295882523059845, 0.042083561420440674, 0.032972224056720734, -0.27935922145843506, 0.024599941447377205, -0.28531426191329956, -0.21967513859272003, -0.2917170822620392, -0.07530109584331512, 0.19591565430164337, 0.21662934124469757, 0.3967333734035492, -0.15419690310955048, -0.16571392118930817, 0.10108273476362228, -0.024552686139941216, 0.2722318470478058, 0.08657538145780563, -0.011621532961726189, -0.03019707463681698, 0.17958557605743408, 0.2926972508430481, -0.10064386576414108, -0.5016120076179504, 0.29379141330718994, 0.3819446265697479, -0.05217947065830231, 0.03858664631843567, 0.008362396620213985, 0.14591820538043976, 0.19437430799007416, 0.07898889482021332, 0.10584218800067902, 0.05907353758811951, -0.2304406613111496, 0.021200913935899734, -0.22986456751823425, 0.25905224680900574, -0.2973625957965851, -0.07017321139574051, 0.00649010855704546, -0.07895177602767944, -0.05891689658164978, -0.1354723572731018, -0.18120698630809784, 0.15021111071109772, -0.40396037697792053, -0.08521956950426102, 0.2870863378047943, 0.36438724398612976, 0.18483765423297882, 0.048546113073825836, 0.09378347545862198, -0.17333711683750153, 0.11912644654512405, 0.2729748487472534, -0.0686798021197319, -0.1585404872894287, -0.2040799856185913, 0.04124779999256134, 0.18917454779148102, 0.014043000526726246, -0.08892867714166641, -0.03038976527750492, 0.00847072247415781, -0.011404034681618214, 0.038535214960575104, -0.13351695239543915, -0.1380137801170349, 0.0948324054479599, -0.1223055049777031, 0.07952138036489487, 0.07849700003862381, 0.08044770359992981, -0.07717690616846085, -0.2865878939628601, 0.09233610332012177, -0.003976028878241777, 0.22175993025302887, -0.045219872146844864, -0.11207246035337448, 0.0058867111802101135, 0.16031065583229065, -0.08229143917560577, 0.1845446079969406, -0.028073489665985107, -0.17309759557247162, -0.03455711901187897, -0.13554593920707703, 0.24581971764564514, -0.08535510301589966, 0.005951285362243652, -0.18017582595348358, -0.13389886915683746, 0.02016417868435383, -0.02636152133345604, -0.07865101099014282, 0.01038677990436554, -0.015352295711636543, -0.0901932641863823, -0.12945614755153656, 0.15164902806282043, 0.18664762377738953, 0.39942988753318787, 0.13254283368587494, 0.11433027684688568, -0.07877661287784576, -0.0966210588812828, 0.15121808648109436, 0.14281073212623596, -0.26385870575904846, 0.12201188504695892, 0.4722689390182495, -0.01634681411087513, -0.07719167321920395, -0.11064055562019348, 0.20315204560756683, -0.040447235107421875, -0.2125818431377411, -0.2067188024520874, 0.1343364268541336, -0.005968215875327587, 0.19455531239509583, 0.20762962102890015, -0.16682069003582, 0.1568155288696289, 0.2294619232416153, -0.3662446141242981, 0.2325107455253601, 0.28192511200904846, 0.017138658091425896, -0.14402367174625397, -0.46455517411231995, 0.04068532586097717, 0.01542349997907877, -0.18001778423786163, -0.19066327810287476, -0.07805678248405457, 0.25063619017601013, 0.14989833533763885, 0.26188936829566956, -0.017010297626256943, -0.11603401601314545, -0.11105765402317047, 0.023962603881955147, 0.2609747648239136, 0.058894865214824677, -0.0018675822066143155, 0.15735112130641937, -0.09277800470590591, -0.37934422492980957, 0.28521010279655457, 0.10944291204214096, 0.1906319558620453, 0.11803477257490158, 0.14973363280296326, -0.13177797198295593, 0.21960163116455078, -0.1824972778558731, 0.028151893988251686, -0.22682465612888336, -0.04835217073559761, -0.23596307635307312, -0.023072905838489532, -0.3351069688796997, -0.08267970383167267, 0.29926207661628723, 0.007510610856115818, 0.09990633279085159, 0.10405419766902924, 0.10876943171024323, 0.007375543005764484, 0.10908014327287674, -0.04257459193468094, 0.17196740210056305, 0.00982416607439518, 0.09347882866859436, 0.11396999657154083, -0.02405151166021824, -0.14023125171661377, 0.02994496375322342, -0.1383446455001831, -0.05738229677081108, -0.1550036072731018, -0.42077696323394775, 0.006063375156372786, -0.4405146837234497, -0.02515634149312973, 0.005035732872784138, -0.13916821777820587, 0.020475376397371292, 0.01471620798110962, 0.17953059077262878, 0.04449966177344322, -0.09556947648525238, 0.06738345324993134, -0.1069549024105072, 0.06429464370012283, -0.11898870766162872, -0.04331114515662193, 0.05357178673148155, 0.12991106510162354, -0.025318974629044533, 0.2050286829471588, 0.06964072585105896, -0.09191405028104782, 0.13678301870822906, 0.06690171360969543, 0.21173128485679626, -0.19965824484825134, 0.17766250669956207, -0.0971759557723999, 0.06543511152267456, -0.06150415539741516, 0.12994857132434845, -0.11271592974662781, -0.07597452402114868, -0.1816895306110382, 0.015746209770441055, -0.12737898528575897, 0.156965970993042, -0.22069793939590454, 0.21996815502643585, -0.12691466510295868, 0.23103559017181396, 0.40033096075057983, -0.04376545920968056, -0.05521755665540695, -0.0745558813214302, 0.02015792950987816, -0.028596337884664536, 0.08472418040037155, -0.059143465012311935, 0.0023199173156172037, 0.5359629392623901, -0.19625088572502136, 0.24204975366592407, 0.1425919532775879, -0.014549477957189083, 0.04688398540019989, 0.07285113632678986, -1.217077806359157e-05, 0.018042877316474915, -0.0069196224212646484, -0.591597318649292, 0.21085739135742188, -0.33834928274154663, 0.005481611005961895, -0.10649627447128296, 0.011672765016555786, 0.16360962390899658, -0.14552094042301178, 0.029480591416358948, 0.20942232012748718, -0.13927724957466125, -0.04503003507852554, 0.11765360087156296, -0.4575745761394501, -0.18010902404785156, 0.1813267469406128, -0.22323432564735413, -0.146966353058815, -0.21636678278446198, 0.17711742222309113, -0.017747368663549423, 0.20861825346946716, -0.04115484282374382, 0.12321754544973373, 0.11463990807533264, -0.4085146188735962, 0.1702418476343155, 0.05835253745317459, 0.17462068796157837, 0.028435921296477318, -0.15180128812789917, -0.10216459631919861, 0.33677858114242554, 0.17997054755687714, 0.22533734142780304, 0.0710933580994606, -0.3623792231082916, 0.16199412941932678, -0.16557958722114563, -0.10985890030860901, -0.09966190904378891, -0.01593119464814663, 0.15967798233032227, -0.17924284934997559, -0.3477478325366974, -0.027529891580343246, -0.18879085779190063, -0.03632776439189911, 0.07150039821863174, 0.09964877367019653, 0.22995461523532867, 0.34444645047187805, 0.09562981873750687, 0.09613756090402603, -0.14376507699489594, -0.004216076340526342, -0.07001667469739914, 0.18682481348514557, -0.05546807497739792, -0.04232291504740715, -0.14107373356819153, 0.04618897661566734, 0.2284172922372818, 0.009907792322337627, 0.21227070689201355, -0.3275517225265503, -0.17272064089775085, 0.09058769047260284, 0.012748362496495247, 0.05759298428893089, 0.15718543529510498, -0.11822956800460815, 0.1600610464811325, -0.14857341349124908, 0.1390642523765564, -0.05006321892142296, -0.04782114177942276, -0.2073250263929367, 0.10561420768499374, 0.10822364687919617, 0.2743564248085022, -0.249694362282753, 0.07697843760251999, 0.0039399974048137665, 0.03801710903644562, 0.3482837975025177, -0.0021109203808009624, -0.07976026087999344, -0.22055386006832123, -0.008070983923971653, -0.22281832993030548, -0.14693893492221832, -0.03903776407241821, 0.06256993860006332, 0.047307778149843216, 0.0632115826010704, -0.25640472769737244, 0.3337976634502411, 0.09147901087999344, -0.02569880336523056, -0.5428637266159058, -0.09872720390558243, -0.03249439597129822, -0.005651926156133413, -0.1815432459115982, -0.2582545578479767, -0.3428400456905365, 0.21479953825473785, 0.2168751209974289, -0.2127455770969391, 0.06322576850652695, -0.19405367970466614, -0.23050184547901154, 0.07045494765043259, 0.13830457627773285, 0.030002763494849205, 0.3608395755290985, -0.014939834363758564, -0.07725153863430023, 0.24673932790756226, -0.1470150500535965, -0.05150875821709633, 0.05423494055867195, -0.20406091213226318, 0.03682219237089157, 0.15373876690864563, -0.011139695532619953, 0.10665985196828842, 0.2589068114757538, 0.208284392952919, -0.23881204426288605, -0.03907341510057449, -0.1102890744805336, 0.030789248645305634, -0.07935269922018051, -0.24346210062503815, 0.12293999642133713, 0.24083228409290314, -0.10110896825790405, -0.026273280382156372, 0.07273423671722412, -0.18495060503482819, -0.30091309547424316, -0.2875080406665802, -0.011922016739845276, -0.08821296691894531, 0.0729156956076622, 0.16065232455730438, 0.2546139657497406, 0.28102782368659973, -0.0925619900226593, 0.02823021449148655, -0.08477243036031723, -0.19541198015213013, 0.12773174047470093, 0.24918632209300995, 0.13398276269435883, -0.25557947158813477, -0.16959267854690552, 0.27606040239334106, -0.07812120020389557, 0.2564583718776703, 0.2892139256000519, -0.31947124004364014, 0.18521898984909058, -0.06473546475172043, 0.08555223047733307, 0.25226640701293945, 0.029784472659230232, 0.029877057299017906, 0.11228233575820923, -0.014015836641192436, -0.21135850250720978, 0.30196598172187805, 0.11075559258460999, 0.13371919095516205, -0.04002756625413895, -0.06369145959615707, -0.21937602758407593, -0.0756484717130661, 0.033009376376867294, 0.3188723623752594, -0.014963919296860695, -0.021574152633547783, -0.014158097095787525, 0.06552666425704956, -0.17094548046588898, -0.09265832602977753, 0.12038984894752502, -0.19598014652729034, 0.20514193177223206, -0.17086778581142426, 0.01637578196823597, -0.10514579713344574, -0.06744199991226196, -0.25108686089515686, -0.1349649280309677, -0.014342093840241432, -0.06458985805511475, -0.14134934544563293, 0.1846490055322647, 0.05644875764846802, -0.11991195380687714, -0.5357021689414978, -0.24692264199256897, -0.21934428811073303, 0.2789190113544464, 0.15339353680610657, -0.11751045286655426, 0.13379345834255219, 0.03758693486452103, -0.09956134110689163, -0.42321571707725525, -0.3323206603527069, 0.19379810988903046, -0.2542141377925873, -0.10826834291219711, -0.1330137997865677, -0.12075196951627731, 0.1544881910085678, -0.1274796575307846, -0.12340282648801804, -0.27922070026397705, 0.0686974823474884, -0.0301176980137825, -0.014142041094601154, 0.22729730606079102, -0.14681115746498108, -0.021603452041745186, 0.4690677523612976, -0.00931690912693739, -0.3120577335357666, -0.0050190044566988945, -0.057724930346012115, 0.20623625814914703, 0.1557198017835617, -0.2507689595222473, 0.21636329591274261, 0.0012831301428377628, 0.08746388554573059, 0.2670464515686035, -0.31732144951820374, -0.06674732267856598, 0.015059913508594036, 0.15084359049797058, -0.2248711884021759, -0.10668391734361649, -0.04930174723267555, -0.13506107032299042, -0.3146345317363739, -0.33107227087020874, -0.02624182589352131, 0.2801544666290283, -0.034056346863508224, -0.08745808899402618, 0.33312246203422546, -0.022828442975878716, 0.06962427496910095, -0.19601351022720337, 0.13998357951641083, -0.15195338428020477, -0.2552745044231415, 0.23118473589420319, 0.2293304204940796, 0.09212496131658554, -0.06273267418146133, -0.057153861969709396, 0.015093501657247543, -0.33293744921684265, -0.1976255178451538, -0.1481465846300125, 0.014750638045370579, -0.2521868944168091, 0.301470547914505, -0.24238263070583344, -0.10063103586435318, 0.03160213306546211, 0.027863333001732826, -0.3882623016834259, 0.026771491393446922, -0.056760821491479874, 0.28977933526039124, -0.024709707126021385, -0.22449487447738647, 0.1978093832731247, -0.18453994393348694, -0.06689021736383438, -0.16538703441619873, 0.2662900984287262, -0.07236305624246597, 0.42851072549819946, -0.015760214999318123, 0.00203537754714489, 0.24946966767311096, 0.052095815539360046, -0.08573494106531143, 0.14279787242412567, 0.3850715160369873, 0.006758645176887512, -0.18637022376060486, 0.2851588726043701, -0.2835295498371124, -0.17010056972503662, -0.02085612155497074, -0.22857540845870972, 0.23119430243968964, 0.45553937554359436, -0.12648643553256989, 0.16357068717479706, -0.28618714213371277, -0.06402359157800674, -0.25440672039985657, -0.011856178753077984, -0.13023187220096588, 0.06742844730615616, -0.2703080177307129, 0.2620924413204193, 0.15752096474170685, -0.25103873014450073, -0.24948306381702423, -0.12212464213371277, 0.12459863722324371, -0.083222396671772, 0.13580948114395142, -0.074892058968544, 0.02967989630997181, 0.23668158054351807, -0.3045058846473694, -0.508439302444458, -0.32218432426452637, 0.08228275924921036, -0.14320053160190582, 0.15432898700237274, -0.08914856612682343, 0.19853734970092773, 0.008827006444334984, 0.21881064772605896, 0.021569931879639626, -0.060079656541347504, -0.17865046858787537, -0.22479777038097382, -0.015131576918065548, 0.307716429233551, 0.33165284991264343, 0.17839203774929047, -0.25083786249160767, 0.0880543664097786, 0.17133072018623352, -0.03818950429558754, -0.2077401727437973, -0.046848006546497345, 0.16188810765743256, 0.06891582161188126, 0.15902268886566162, 0.07295334339141846, 0.012360647320747375, 0.097793810069561, -0.266400545835495, 0.32327425479888916, -0.07616159319877625, -0.25820034742355347, 0.02483852207660675, 0.1730518788099289, -0.2247050702571869, 0.08093932271003723, 0.2828095257282257, -0.22451192140579224, 0.13429652154445648, -0.17851097881793976, 0.28678494691848755, -0.1026090532541275, 0.19362102448940277, -0.08997465670108795, -0.08444873243570328, 0.1176178827881813, -0.21397021412849426, 0.21367405354976654, -0.10467547923326492, 0.036148834973573685, -0.16799785196781158, 0.1300232708454132, 0.07399909943342209, -0.040896255522966385, -0.16531284153461456, 0.08787836134433746, -0.0009430122445337474, 0.102671317756176, -0.20934785902500153, 0.1655406653881073, -0.03243481367826462, 0.04171629995107651, -0.12344872951507568, 0.15755169093608856, -0.36674177646636963, -0.012453421950340271, 0.18592457473278046, 0.33614179491996765, -0.4229177236557007, 0.28622493147850037, 0.23599466681480408, -0.05747457593679428, -0.04769967496395111, -0.030592819675803185, 0.13537035882472992, -0.0028295295778661966, -0.2584962248802185, 0.2603667378425598, -0.33449938893318176, 0.2579725980758667, -0.22278207540512085, -0.0932999923825264, -0.1660422384738922, 0.09993619471788406, -0.13777339458465576, 0.16193787753582, 0.12495933473110199, -0.2722551226615906, -0.08251141756772995, -0.04064006358385086, -0.0025752370711416006, 0.18278011679649353, -0.04869035258889198, -0.06730905175209045, -0.34938162565231323, -0.12676507234573364, 0.3543081283569336, -0.13958890736103058, 0.003250682260841131, -0.0070813484489917755, 0.05727854371070862, 0.15662723779678345, -0.11528344452381134, 0.014775438234210014, -0.23550288379192352, -0.08318106085062027, 0.3266543745994568, -0.3105616271495819, 0.16691811382770538, -0.004765402991324663, 0.04761325567960739, -0.13976451754570007, -0.152476966381073, -0.08727807551622391, 0.1943826526403427, -0.00031364892493002117, -0.11097609251737595, 0.05132574215531349, -0.07172203809022903, -0.1690392941236496, 0.2604793310165405, 0.13175399601459503, -0.12353640794754028, 0.09283465147018433, 0.01427722442895174, -0.006088913884013891, -0.0696333572268486, -0.31552115082740784, -0.11845865845680237, -0.5261636972427368, -0.17227523028850555, 0.14700640738010406, 0.13603654503822327, -0.0886211171746254, 0.031538985669612885, 0.06906944513320923, -0.09055931121110916, -0.2986815571784973, -0.1561173051595688, -0.1878264993429184, -0.159630686044693, -0.16134008765220642, -0.0703781396150589, -0.005488074384629726, 0.11024487763643265, 0.06043931841850281, -0.12728117406368256, -0.17603424191474915, -0.11123286932706833, -0.3020148277282715, 0.1616058051586151, -0.05028123781085014, 0.009090958163142204, -0.1722625344991684, -0.19694465398788452, 0.23416872322559357, -0.32284244894981384, 0.19900032877922058, 0.03309212997555733, 0.020151179283857346, 0.05528484284877777, 0.15677984058856964, -0.18222098052501678, -0.23062989115715027, -0.13730910420417786, -0.06703060865402222, -0.014834200963377953, 0.08513084799051285, 0.0019085184903815389, -0.3310776650905609, 0.08623882383108139, -0.11251173168420792, 0.19286596775054932, 0.1271328628063202, 0.13872605562210083, 0.11016439646482468, 0.21355772018432617, -0.22737455368041992, -0.06560029834508896, -0.1353643834590912, 0.15106944739818573, 0.14440134167671204, 0.2533714175224304, 0.22600410878658295, 0.06993592530488968, 0.3594970405101776, 0.23140321671962738, -0.054113518446683884, -0.2004934698343277, 0.09238301217556, 0.16600264608860016, 0.1712803691625595, 0.13248953223228455, 0.0294394139200449, -0.13532254099845886, -0.0015532277757301927, 0.039374470710754395, -0.23768477141857147, 0.4743805527687073, -0.2095155417919159, -0.19176383316516876, -0.0123760886490345, -0.04654018208384514, -0.12994275987148285, -0.3315819501876831, 0.3560798466205597, -0.16685669124126434, 0.12511423230171204, 0.2068721055984497, -0.3024766147136688, -0.02677527256309986, -0.13909420371055603, 0.39431819319725037, -0.18840599060058594, 0.07495684921741486, -0.04408170282840729, -0.13455303013324738, 0.015357407741248608, -0.15704713761806488, 0.08799530565738678, -0.3100575804710388, 0.021743202582001686, -0.14823177456855774, 0.10362277925014496, -0.2756039500236511, 0.1585882306098938, -0.25643837451934814, 0.19876979291439056, 0.33246973156929016, -0.03390256315469742, -0.18003728985786438, 0.09525539726018906, 0.2445627748966217, -0.22927826642990112, 0.3398738503456116, -0.026530342176556587, 0.228464275598526, 0.07787967473268509, 0.08050933480262756, 0.01581626571714878, 0.08268513530492783, 0.08519666641950607, 0.16621588170528412, -0.045107584446668625, 0.07622300088405609, 0.4177941679954529, -0.013398374430835247, -0.14607448875904083, 0.21747219562530518, -0.12144508957862854, -0.10704196244478226, -0.13031898438930511, -0.3917098939418793, 0.026904398575425148, -0.056479886174201965, -0.15450890362262726, -0.12018745392560959, 0.11489344388246536, 0.14308659732341766, -0.3023253083229065, -0.14131572842597961, 0.05587666854262352, 0.16698582470417023, -0.09595426172018051, 0.21098332107067108, 0.0733204111456871, -0.09712393581867218, -0.188592329621315, 0.0481598787009716, 0.187547966837883, 0.27524492144584656, 0.2116658240556717, -0.130509614944458, 0.04204915091395378, -0.0018130437238141894, 0.1498660147190094, 0.2681027948856354, -0.26193833351135254, 0.10103499889373779, 0.050754137337207794, 0.1362689584493637, -0.015182886272668839, -0.026805805042386055, 0.023706920444965363, 0.10269434005022049, -0.04116539657115936, 0.2456357330083847, -0.19758066534996033, -0.00569939473643899, 0.09598840773105621, -0.1340053677558899, -0.28263914585113525, -0.2978816032409668, -0.12860631942749023, 0.25582459568977356, 0.09274236857891083, 0.06573794782161713, 0.1810307651758194, 0.12005370855331421, 0.308824360370636, -0.20182479918003082, -0.2199047952890396, 0.16644857823848724, 0.23377272486686707, -0.28663957118988037, 0.3830012381076813, 0.0323382131755352, -0.14641135931015015, -0.0036147700157016516, 0.09420252591371536, 0.4713379442691803, 0.34288814663887024, 0.5534465909004211, 0.062251556664705276, -0.014479034580290318, 0.026807179674506187, -0.5546117424964905, -0.03690754249691963, 0.3618622124195099, -0.15281079709529877, 0.021929871290922165, -0.39895033836364746, 0.05107814818620682, -0.2565944194793701, 0.007036773953586817, -0.1970466673374176, -0.0357164703309536, -0.2794025242328644, -0.12596432864665985, 0.03113033063709736, -0.19955070316791534, 0.3561045825481415, -0.16012603044509888, -0.21899399161338806, -0.16046112775802612, 0.10632828623056412, 0.040146104991436005, 0.06748347729444504, -0.2912695109844208, -0.06231033802032471, -0.053077030926942825, -0.08696740865707397, 0.3507630228996277, -0.12004153430461884, 0.2879427969455719, -0.018411152064800262, -0.193828746676445, 0.1719401478767395, -0.1728672981262207, 0.597217321395874, 0.0890885517001152, -0.01683780737221241, -0.18577459454536438, 0.1825992465019226, -0.21384447813034058, 0.16988418996334076, -0.08929995447397232, 0.04658762738108635, 0.11622646450996399, 0.16382670402526855, 0.033531371504068375, 0.3265472948551178, 0.06257310509681702, -0.08401486277580261, 0.24244949221611023, -0.30147600173950195, 0.08354047685861588, 0.24794067442417145, 0.10190904885530472, -0.38171616196632385, -0.05851566791534424, 0.0735015794634819, 0.18078795075416565, 0.16747990250587463, -0.04793756082653999, 0.21952587366104126, 0.23458333313465118, 0.1701994389295578, 0.2208564132452011, 0.056370384991168976, -0.4393364489078522, -0.1365121454000473, -0.1941022425889969, 0.27253448963165283, -0.1791394203901291, 0.25942978262901306, -0.1605989933013916, 0.1918419450521469, -0.015342427417635918, 0.11136900633573532, 0.012078900821506977, 0.09942035377025604, 0.22759172320365906, -0.040663182735443115, -0.03214311599731445, -0.021709349006414413, -0.34783315658569336, -0.20709502696990967, 0.025585126131772995, -0.05899491906166077, 0.06160060316324234, -0.023908857256174088, 0.09970901906490326, -0.25911396741867065, 0.07081114500761032, 0.1527232527732849, 0.25848451256752014, -0.14109060168266296, 0.14643116295337677, -0.07834795862436295, -0.09676302969455719, -0.05071009695529938, -0.018597986549139023, -0.03801478445529938, -0.11892227083444595, -0.17133530974388123, 0.15454928576946259, -0.060226891189813614, 0.15676605701446533, 0.21612806618213654, -0.01595333032310009, 0.1690528243780136, 0.2004406899213791, -0.13601018488407135, -0.049016162753105164, 0.26389265060424805, -0.21309435367584229, -0.19274431467056274, 0.18328742682933807, -0.011165665462613106, 0.08125551044940948, 0.11949685215950012, 0.17527413368225098, 0.00644398620352149, -0.1526489406824112, 0.0022805752232670784, 0.19826512038707733, -0.0981595367193222, 0.31750261783599854, -0.37192976474761963, 0.16250719130039215, -0.056346822530031204, 0.03050810471177101, 0.07245706766843796, 0.0386989526450634, -0.18764068186283112, -0.2044598013162613, 0.20769314467906952, 0.014803131110966206, 0.13628549873828888, -0.0018000057898461819, -0.08032973110675812, -0.026494724676012993, 0.012463897466659546, 0.2541886568069458, -0.07566870003938675, 0.06853219866752625, 0.27958014607429504, -0.12114907056093216, -0.11257603764533997, 0.3935473561286926, -0.24448785185813904, -0.2574314475059509, -0.20852982997894287, -0.12210904806852341, 0.1655196100473404, -0.09802339226007462, 0.06517478823661804, -0.19221234321594238, -0.22300271689891815, 0.25229907035827637, -0.02181105874478817, 0.006701548583805561, 0.11482042074203491, -0.19355067610740662, -0.03141413629055023, 0.01584029011428356, 0.32980507612228394, 0.2346959263086319, 0.02662559784948826, -0.21393777430057526, 0.07288917154073715, 0.12576530873775482, -0.09124352782964706, 0.13784319162368774, 0.48358866572380066, -0.09324970096349716, -0.09336751699447632, 0.2508701682090759, 0.2664242088794708, -0.08986731618642807, 0.16158327460289001, 0.1846950799226761, -0.09582340717315674, 0.0704837217926979, -0.32858261466026306, -0.22734852135181427, -0.020375123247504234, 0.08466324210166931, -0.10916249454021454, 0.10783474892377853, 0.0786159336566925, -0.18516989052295685, -0.09199897199869156, -0.03264908492565155, 0.003254793817177415, 0.060767099261283875, -0.07061249017715454, -0.013245861046016216, -0.02419077418744564, 0.2306102067232132, -0.2355555295944214, -0.13900433480739594, 0.30824902653694153, -0.15613162517547607, -0.1978786438703537, 0.1258736252784729, -0.3720989227294922, 0.47842562198638916, -0.036927491426467896, -0.08042494207620621, 0.022205030545592308, 0.027361467480659485, -0.070744588971138, 0.16496369242668152, 0.02968084067106247, -0.02074216492474079, -0.12030405551195145, 0.28526294231414795, 0.16859470307826996, -0.015353051945567131, 0.0131387272849679, -0.04190157726407051, -0.11704248934984207, -0.2447817176580429, -0.2401934117078781, -0.11803869158029556, -0.17917251586914062, 0.09487518668174744, -0.08004170656204224, -0.1231008842587471, 0.08486460149288177, -0.15270978212356567, -0.10918717831373215, -0.023355519399046898, -0.13440166413784027, 0.364108681678772, -0.0528251938521862, 0.007327222730964422, -0.09597301483154297, -0.03402107581496239, -0.036939993500709534, -0.02490023337304592, -0.08291555196046829, 0.02699640579521656, 0.027894524857401848, 0.16359743475914001, 0.1973976045846939, -0.2055840790271759, 0.12797263264656067, 0.030175501480698586, -0.16982834041118622, -0.11193530261516571, 0.20492659509181976, 0.28274375200271606, 0.168290913105011, -0.03839341551065445, 0.016385681927204132, 0.14023487269878387, -0.35300353169441223, -0.020409323275089264, -0.23343251645565033, 0.0988149642944336, -0.011619960889220238, -0.006199264898896217, -0.31167927384376526, 0.05857987701892853, 0.05056343227624893, 0.16192509233951569, -0.003061894094571471, 0.04264451190829277, -0.02638673409819603, 0.05065000057220459, 0.24115149676799774, 0.06825225055217743, 0.13672690093517303, -0.017422279343008995, 0.2787642776966095, -0.070407435297966, 0.32205861806869507, 0.0016334217507392168, 0.41344425082206726, 0.09905699640512466, 0.10020840913057327, -0.27460870146751404, -0.01204524002969265, -0.2078859806060791, -0.35997849702835083, 0.004144173581153154, 0.026890836656093597, 0.1645684540271759, 0.23649455606937408, -0.1831735074520111, -0.05195654183626175, 0.16580872237682343, -0.2771117687225342, 0.1192476823925972, -0.26350152492523193, 0.2431245744228363, 0.04591592028737068, 0.11714208126068115, 0.08146123588085175, 0.027289049699902534, 0.0161636583507061, -0.19121047854423523, -0.21054252982139587, 0.24603404104709625, -0.07630644738674164, -0.09122955054044724, -0.34852251410484314, -0.08496525138616562, -0.005155567079782486, 0.2365780770778656, 0.1064058318734169, -0.07597328722476959, -0.11580289900302887, -0.041767898947000504, 0.0014145869063213468, 0.19112582504749298, 0.057902149856090546, -0.2527395188808441, -0.2859531044960022, -0.040520988404750824, 0.15474486351013184, -0.10704122483730316, 0.34048354625701904, -0.05279965326189995, -0.04090964421629906, 0.045400071889162064, 0.11220400035381317, 0.12490223348140717, 0.09027527272701263, 0.20387522876262665, 0.00013402788317762315, 0.08171011507511139, 0.1266854852437973, 0.19247432053089142, 0.16022014617919922, -0.14469023048877716, -0.0838826596736908, 0.07571535557508469, -0.06547637283802032, -0.053608812391757965, -0.09258554875850677, -0.3447363078594208, -0.1215747743844986, 0.07357768714427948, 0.05101178213953972, 0.06014075130224228, 0.27465400099754333, 0.009195096790790558, -0.2563364803791046, 0.19384442269802094, -0.03801780194044113, 0.18070365488529205, -0.16467496752738953, 0.074806809425354, 0.026904774829745293, 0.17268496751785278, 0.09300336986780167, -0.10502645373344421, -0.08996682614088058, 0.07522381097078323, -0.31442752480506897, -0.125471830368042, -0.06563763320446014, 0.12730787694454193, 0.11700326204299927, -0.08158331364393234, -0.02133122645318508, 0.13249929249286652, -0.13949225842952728, -0.1302453726530075, -0.04738079011440277, 0.3662241995334625, 0.08050086349248886, 0.006132620852440596, 0.35875043272972107, 0.2757335603237152, 0.0936364233493805, 0.09331507980823517, -0.16242587566375732, 0.03560721501708031, -0.39902767539024353, 0.2183711677789688, -0.031207779422402382, 0.00725965341553092, -0.06064186245203018, -0.2557543218135834, -0.018952487036585808, 0.02772551402449608, -0.04854743927717209, 0.008948463015258312, -0.07549464702606201, 0.16339269280433655, -0.04946368932723999, 0.2486857920885086, 0.01674993336200714, -0.311888724565506, 0.11275190860033035, -0.08436232805252075, -0.14494585990905762, 0.0986427515745163, 0.22365237772464752, -0.4013899862766266, -0.10641241073608398, -0.16982385516166687, 0.23038418591022491, 0.07704329490661621, -0.20609697699546814, -0.027785299345850945, -0.45061156153678894, 0.11767144501209259, -0.30270928144454956, 0.23890571296215057, 0.051185447722673416, -0.11925308406352997, 0.0964743047952652, -0.02066824771463871, -0.11251656711101532, -0.15772250294685364, 0.0784948468208313, 0.0022640861570835114, -0.44097575545310974, 0.20436887443065643, -0.0395076684653759, -0.3342433273792267, -0.08601749688386917, -0.30421915650367737, -0.20534339547157288, 0.2001807689666748, 0.06987132877111435, 0.05977870151400566, 0.24599632620811462, -0.008479329757392406, -0.0346415638923645, 0.19885104894638062, -0.003067288314923644, -0.044749315828084946, 0.06423242390155792, 0.09493540227413177, -0.4533376693725586, 0.16272221505641937, 0.15379874408245087, -0.35094812512397766, 0.10818731039762497, 0.2941286861896515, 0.26061776280403137, 0.24556763470172882, 0.02027716301381588, 0.05424952134490013, -0.06331707537174225, -0.29051071405410767, 0.10614920407533646, 0.15978965163230896, 0.20539924502372742, 0.19893912971019745, -0.16165472567081451, 0.16519057750701904, 0.26483866572380066, 0.05118647962808609, -0.13047295808792114, -0.1914484053850174, 0.11038590967655182, 0.25722089409828186, 0.12955790758132935, 0.2115931659936905, -0.3296191990375519, 0.08348040282726288, 0.07336399704217911, -0.1990455836057663, 0.3658335506916046, -0.07098662108182907, 0.01244320534169674, -0.2336113154888153, 0.3121448755264282, 0.415932297706604, 0.26897281408309937, -0.16587595641613007, -0.06934600323438644, -0.09630606323480606, 0.009358799085021019, -0.05758466199040413, 0.18988117575645447, 0.0019602570682764053, 0.1174284890294075, 0.023777788504958153, 0.0010298375273123384, 0.23111888766288757, -0.3130325973033905, 0.34201228618621826, -0.21029917895793915, 0.138169065117836, -0.2114078849554062, -0.011471301317214966, -0.2087637186050415, 0.04942489042878151, -0.1648164540529251, 0.0217856727540493, 0.02912738174200058, -0.07299298048019409, 0.23563024401664734, -0.06858724355697632, 0.34385621547698975, 0.07271447032690048, 0.13153330981731415, 0.027042431756854057, 0.06871519237756729, -0.44946008920669556, 0.34425896406173706, -0.0439368411898613, 0.012462141923606396, -0.21075886487960815, 0.04259565472602844, 0.14013142883777618, 0.045178934931755066, 0.10376133769750595, 0.1435176581144333, 0.08334406465291977, -0.022877303883433342, -0.3035220503807068, 0.102351114153862, -0.2707044780254364, 0.03851386532187462, -0.050019457936286926, 0.03464062139391899, 0.1512279063463211, -0.3007919490337372, 0.013846227899193764, 0.19357827305793762, -0.029934505000710487, -0.3142465054988861, 0.1861465871334076, 0.13638201355934143, -0.1914380043745041, 0.012590772472321987, 0.12217358499765396, 0.10887567698955536, 0.2609267234802246, 0.10496239364147186, 0.06803145259618759, -0.2240830659866333, 0.1112716943025589, -0.09253348410129547, 0.28886839747428894, -0.22690048813819885, -0.052172012627124786, -0.06157911568880081, 0.08487903326749802, 0.13506542146205902, 0.09375403821468353, -0.06377597898244858, 0.021364064887166023, 0.005740445572882891, 0.052943579852581024, 0.1425415575504303, -0.5026968121528625, 0.0698661357164383, 0.11616863310337067, 0.06637546420097351, -0.32860371470451355, 0.028999587520956993, 0.10874618589878082, 0.06026731804013252, -0.13234402239322662, 0.2572724223136902, 0.05972801521420479, 0.013272070325911045, 0.09288249909877777, -0.1715831309556961, -0.29142576456069946, -0.47627419233322144, 0.06461235135793686, -0.2988107204437256, -0.06807512044906616, -0.24253728985786438, 0.05425173044204712, -0.0015777559019625187, 0.037210527807474136, 0.09863567352294922, 0.2560117244720459, -0.27707430720329285, -0.20321068167686462, 0.06342031806707382, 0.004366555716842413, -0.2239946573972702, 0.18264855444431305, -0.27167898416519165, -0.13213148713111877, -0.3977324664592743, 0.11589732766151428, 0.19464151561260223, -0.06411776691675186, -0.28848162293434143, -0.1473241150379181, -0.022110288962721825, 0.0050984579138457775, -0.06737334281206131, 0.11086168140172958, 0.06220553070306778, 0.2546677887439728, -0.11366299539804459, -0.11230234801769257, -0.14860191941261292, -0.062023039907217026, 0.03560066223144531, 0.015234963037073612, -0.45379170775413513, -0.07744200527667999, -0.24350042641162872, 0.3851560950279236, 0.14572444558143616, -0.2461266815662384, -0.04180092364549637, -0.22821496427059174, 0.006720967590808868, 0.06911946833133698, -0.20133718848228455, -0.13994823396205902, 0.39469844102859497, 0.14929550886154175, -0.3362821638584137, -0.315780907869339, 0.04015933722257614, 0.07753222435712814, 0.3422697186470032, -0.2397400587797165, 0.18973107635974884, 0.24556933343410492, -0.16555622220039368, -0.03837678208947182, -0.1663399636745453, 0.06439872086048126, -0.004607756622135639, 0.2898706793785095, -0.012491501867771149, -0.2962172031402588, -0.07454238086938858, 0.06354915350675583, 0.12363637983798981, -0.07700313627719879, -0.2913159132003784, -0.36210888624191284, 0.002833501435816288, -0.0019528316333889961, 0.15235453844070435, -0.18891161680221558, 0.05305149778723717, -0.4253644645214081, 0.01201761793345213, 0.11510839313268661, -0.15063242614269257, -0.37720951437950134, -0.20044437050819397, 0.14483337104320526, -0.04495607316493988, 0.04640986770391464, 0.010848825797438622, 0.24856193363666534, -0.11283944547176361, 0.05169489607214928, 0.11723317205905914, -0.10750452429056168, 0.2969411313533783, -0.3775743544101715, -0.3837969899177551, -0.04280553758144379, 0.38932448625564575, -0.19504819810390472, -0.10927698016166687, -0.32474371790885925, 0.16288301348686218, -0.26314353942871094, 0.2827879786491394, 0.04922313988208771, -0.37545862793922424, 0.5177183747291565, 0.027129778638482094, 0.07663142681121826, 0.06698398292064667, -0.12043052911758423, -0.07926448434591293, 0.2621743679046631, -0.18948738276958466, -0.3126334846019745, 0.01363479346036911, 0.27037912607192993, 0.16237324476242065, 0.019661342725157738, -0.22534920275211334, -0.20345240831375122, 0.23488479852676392, 0.3531120717525482, 0.3030849099159241, -0.06280725449323654, 0.04091459885239601, -0.17025797069072723, 0.32540082931518555, 0.482652872800827, 0.03430740162730217, -0.2237778753042221, -0.26526597142219543, 0.00568736856803298, -0.05507853254675865, 0.10319061577320099, -0.08762196451425552, 0.22820954024791718, 0.08424972742795944, 0.10303059965372086, -0.2832934856414795, 0.04736188426613808, -0.06351251155138016, -0.0376044400036335, -0.15124209225177765, -0.08422868698835373, 0.22538259625434875, -0.146561399102211, -0.08154339343309402, 0.15221594274044037, -0.08030334115028381, -0.5795612931251526, 0.030515292659401894, 0.04428265243768692, 0.2147507220506668, 0.43182626366615295, -0.002608966315165162, 0.042583853006362915, -0.1264761984348297, -0.31958991289138794, 0.35798436403274536, 0.12962877750396729, -0.1649775505065918, 0.1638505905866623, 0.025916675105690956, -0.1337195187807083, 0.3539794385433197, 0.13723842799663544, -0.20253147184848785, -0.1645514965057373, -0.02267460711300373, 0.27900373935699463, -0.02961087040603161, -0.13049723207950592, -0.02004084177315235, -0.10766325891017914, 0.2362086921930313, -0.32378941774368286, -0.3224484324455261, 0.11811775714159012, 0.1117638573050499, -0.19571954011917114, 0.04324178025126457, 0.20476950705051422, -0.3160921633243561, -0.038789376616477966, -0.31648877263069153, -0.08561589568853378, 0.13218878209590912, 0.15296834707260132, -0.10441569983959198, 0.17073999345302582, 0.12078097462654114, -0.0568615198135376, 0.20210102200508118, -0.16210418939590454, 0.24357257783412933, 0.031094253063201904, -0.15725082159042358, 0.15058337152004242, -0.07844849675893784, -0.34329167008399963, 0.03384101763367653, -0.14032110571861267, -0.0016998403007164598, -0.2777062654495239, 0.13756120204925537, 0.21570360660552979, -0.5638512969017029, 0.07255911827087402, -0.05860885605216026, -0.11758173257112503, -0.06216634064912796, 0.007468368858098984, 0.12848982214927673, 0.10958248376846313, -0.033760327845811844, -0.15517215430736542, -0.10694774985313416, -0.26729169487953186, -0.42582881450653076, 0.07666902244091034, -0.14189434051513672, 0.09409079700708389, -0.11789070814847946, -0.15306346118450165, 0.12187976390123367, 0.03741128742694855, -0.0022870986722409725, -0.3390117585659027, -0.3038997948169708, 0.04222225770354271, -0.061738379299640656, 0.2485167682170868, -0.13756272196769714, -0.24285267293453217, -0.06890088319778442, -0.1699472963809967, 0.3142727017402649, -0.2534909248352051, -0.1989770233631134, 0.3574780523777008, 0.2357625514268875, 0.24755442142486572, 0.2769388258457184, -0.07957745343446732, 0.07156575471162796, 0.17701616883277893, 0.16897189617156982, -0.10639581084251404, -0.08687212318181992, 0.12504637241363525, 0.2410365790128708, 0.12301630526781082, -0.15924887359142303, 0.17518140375614166, -0.09019643813371658, 0.08063461631536484, 0.08482253551483154, -0.40824735164642334, 0.38827046751976013, 0.13206921517848969, -0.08580920100212097, 0.08032793551683426, 0.07274650037288666, -0.12234652787446976, -0.6684444546699524, -0.20801758766174316, -0.061429742723703384, 0.35484403371810913, -0.09052439033985138, -0.1799454241991043, 0.31535035371780396, 0.15901415050029755, 0.05333913862705231, 0.028715701773762703, -0.1773054301738739, -0.09525157511234283, -0.4045983552932739, 0.18343855440616608, -0.14853467047214508, 0.421939879655838, 0.28681498765945435, -0.33742690086364746, -0.1310485303401947, -0.6099404692649841, 0.22371503710746765, -0.030604448169469833, 0.0648471936583519, 0.024298522621393204, -0.06802412122488022, -0.14595618844032288, 0.016269292682409286, 0.04935704544186592, 0.24207919836044312, 0.05102713778614998, 0.37940970063209534, -0.09230982512235641, 0.052280914038419724, 0.25958776473999023, 0.06479853391647339, 0.21309305727481842, 0.11099627614021301, 0.23193258047103882, 0.10456738620996475, 0.044808097183704376, -0.15034383535385132, -0.04128728434443474, -0.030069982632994652, 0.17333778738975525, -0.3839053213596344, 0.17804589867591858, 0.07432736456394196, -0.36684319376945496, -0.29261457920074463, -0.008045604452490807, 0.3739882707595825, 0.03158458322286606, -0.11980805546045303, 0.14120055735111237, 0.49171707034111023, -0.09781230241060257, 0.5777965784072876, 0.14356018602848053, -0.07686125487089157, -0.3539970815181732, -0.47638916969299316, -0.09979215264320374, 0.3023115396499634, -0.054570697247982025, 0.11890013515949249, 0.07851427048444748, -0.15362057089805603, -0.09716899693012238, -0.012081178836524487, 0.25300332903862, -0.18928322196006775, 0.10285346210002899, 0.06171668693423271, -0.3300827145576477, 0.04419911652803421, 0.1568068116903305, -0.03938040882349014, -0.1873539686203003, 0.02513640932738781, 0.13542862236499786, 0.3482019305229187, 0.16358157992362976, -0.4367617070674896, 0.25680047273635864, -0.16769662499427795, -0.1724766343832016, 0.12986493110656738, 0.23599255084991455, -0.06516974419355392, 0.052700724452733994, -0.15465402603149414, -0.244182288646698, 0.18035589158535004, -0.020477822050452232, -0.17205910384655, 0.22393904626369476, -0.09210027009248734, 0.16744093596935272, 0.0892137736082077, -0.24780599772930145, 0.19724126160144806, -0.04443443939089775, -0.18402104079723358, 0.06879135221242905, -0.12252067029476166, -0.05183521658182144, 0.25839874148368835, 0.15516993403434753, -0.43596285581588745, 0.042456816881895065, 0.11920929700136185, 0.06600956618785858, -0.13082937896251678, 0.12273704260587692, 0.0934702605009079, 0.02437445893883705, -0.4907231628894806, -0.07115603983402252, -0.568170964717865, -0.0893564447760582, -0.010697850026190281, 0.08745116740465164, -0.018435092642903328, 0.015280649065971375, -0.25226953625679016, 0.15589316189289093, -0.5569963455200195, 0.30235856771469116, 0.3027937114238739, -0.0678405612707138, 0.5509034991264343, 0.19563870131969452, -0.3944193422794342, -0.2844799757003784, 0.027064114809036255, 0.2593505084514618, -0.00564522435888648, 0.24816106259822845, -0.058311812579631805, -0.11165443807840347, 0.20856794714927673, -0.007139273453503847, -0.1883910745382309, 0.06636151671409607, 0.06866642087697983, -0.1699722558259964, -0.041529033333063126, -0.2046363204717636, -0.35663723945617676, -0.3256877362728119, -0.019504785537719727, 0.18720169365406036, -0.34107542037963867, 0.21598529815673828, -0.30941590666770935, 0.2798070013523102, 0.3027658760547638, -0.052748724818229675, -0.06662026047706604, 0.23410241305828094, 0.012446884997189045, 0.01992119289934635, -0.42011183500289917, -0.1289091408252716, -0.16993902623653412, -0.277652770280838, 0.11345534026622772, 0.22555109858512878, 0.1886240541934967, 0.09989134967327118, 0.1361345797777176, -0.050880156457424164, 0.15358589589595795, 0.12636695802211761, 0.048046741634607315, -0.5089219808578491, -0.16012950241565704, -0.12125399708747864, -0.15160611271858215, -0.07828661799430847, 0.11188027262687683, 0.11780178546905518, -0.049949053674936295, -0.34168049693107605, 0.18657420575618744, -0.1718369722366333, 0.11537155508995056, -0.031086662784218788, -0.24895980954170227, 0.024989137426018715, 0.056352078914642334, -0.16716738045215607, -0.006452526431530714, -0.019583625718951225, 0.030930045992136, 0.2765659987926483, -0.07321038097143173, 0.10971041768789291, 0.3632960915565491, -0.3628021478652954, -0.23700933158397675, 0.1267622709274292, -0.09829358756542206, 0.10603376477956772, -0.25414711236953735, -0.005798480473458767, -0.35933199524879456, 0.08921927213668823, 0.09274188429117203, 0.2762331962585449, -0.1592792272567749, -0.2405143678188324, 0.1465459167957306, -0.19045941531658173, -0.08637838810682297, -0.09955514222383499, -0.14890700578689575, -0.059739068150520325, 0.10530608147382736, 0.09375929087400436, -0.1904689520597458, -0.17592979967594147, 0.01013108529150486, -0.04866033047437668, -0.24275772273540497, 0.042199522256851196, -0.3987458050251007, 0.021508244797587395, 0.2689967155456543, -0.05901560187339783, -0.20832878351211548, -0.4252416789531708, 0.18478071689605713, -0.4099140763282776, 0.29453423619270325, 0.07658298313617706, 0.38236209750175476, 0.07670099288225174, -0.19033583998680115, -0.04075799882411957, 0.2895911931991577, -0.026056094095110893, 0.2705276906490326, -0.32283249497413635, 0.22340208292007446, 0.1355266124010086, -0.1934427171945572, 0.1901867687702179, -0.3185628354549408, 0.08173322677612305, 0.17874863743782043, -0.024328570812940598, 0.24737973511219025, 0.07443898916244507, 0.5164089202880859, -0.0670209601521492, -0.11252722144126892, -0.002612519543617964, 0.08504420518875122, 0.18119566142559052, 0.30771419405937195, 0.046429816633462906, -0.29294174909591675, 0.06465282291173935, 0.16070298850536346, -0.09804224967956543, 0.0016574835171923041, -0.14948725700378418, 0.34016668796539307, -0.22766639292240143, 0.27512267231941223, 0.15611782670021057, 0.2070065438747406, -0.07909855991601944, 0.3323410749435425, -0.2674122452735901, -0.07758696377277374, 0.2450990080833435, -0.08958106487989426, -0.12578034400939941, 0.12790045142173767, -0.10016237944364548, -0.05389869213104248, -0.04257694631814957, -0.2445341795682907, 0.18773572146892548, -0.08983299136161804, -0.005296754650771618, -0.053214915096759796, 0.03846995159983635, 0.0758417472243309, -0.12544900178909302, 0.06675758212804794, -0.1448775976896286, 0.07606909424066544, 0.1473703533411026, 0.18327412009239197, -0.09168734401464462, -0.0883336141705513, -0.2594742476940155, 0.3243182599544525, -0.3544824421405792, -0.16363395750522614, -0.06868778169155121, 0.032815221697092056, -0.05189782753586769, 0.02824537828564644, 0.2606503367424011, 0.019431352615356445, 0.4469188451766968, 0.1285489797592163, 0.14383991062641144, -0.048081040382385254, -0.07527991384267807, -0.08501198887825012, 0.40087392926216125, 0.3758143484592438, 0.44176405668258667, 0.18067874014377594, 0.07719302922487259, 0.18744748830795288, -0.43728452920913696, -0.22107157111167908, 0.02462640404701233, 0.13404974341392517, 0.031349800527095795, 0.14200317859649658, -0.3605336844921112, -0.22496092319488525, -0.11751105636358261, -0.07553709298372269, -0.18895579874515533, -0.07029502838850021, -0.3267633616924286, 0.26827743649482727, -0.04887419939041138, 0.07338502258062363, -0.3736404478549957, 0.06313293427228928, 0.3327324688434601, -0.22741322219371796, 0.3778768479824066, -0.10414807498455048, -0.3130779266357422, -0.03346874192357063, 0.23368963599205017, 0.2069109082221985, 0.012708747759461403, 0.152349591255188, -0.13337838649749756, 0.19449716806411743, 0.0013117246562615037, -0.07863029092550278, -0.26124605536460876, 0.3071625232696533, 0.1782921701669693, 0.14421555399894714, 0.007827896624803543, -0.21744759380817413, -0.12424460798501968, -0.216715469956398, -0.23532803356647491, -0.09927608072757721, 0.1680358648300171, -0.34994006156921387, 0.32361194491386414, -0.4077411890029907, -0.06472144275903702, 0.3297088146209717, -0.0653931125998497, 0.02738397940993309, -0.3287629187107086, -0.20588648319244385, 0.1393669694662094, 0.007478067651391029, -0.1685851514339447, -0.0897977203130722, 0.38420918583869934, -0.2538100481033325, -0.11234641820192337, -0.1547284871339798, 0.2614295482635498, 0.09050653129816055, 0.11840805411338806, -0.06888988614082336, -0.357794851064682, -0.3639496862888336, -0.13362272083759308, -0.36521032452583313, -0.052234917879104614, 0.012377479113638401, -0.2657589614391327, -0.2505417764186859, -0.1564842015504837, 0.1947181075811386, 0.3672759234905243, -0.00013480674533639103, -0.5156055688858032, -0.06031986325979233, 0.24252265691757202, 0.035716067999601364, -0.2579616606235504, 0.04712216556072235, 0.2745865285396576, -0.2664635479450226, -0.04254093021154404, 0.21757955849170685, 0.13973765075206757, -0.3445085287094116, 0.2528454661369324, 0.150359645485878, 0.03381969407200813, 0.249362513422966, -0.09001815319061279, 0.202843576669693, 0.04428333789110184, -0.05536359176039696, 0.12138278037309647, -0.40084612369537354, 0.155824676156044, 0.0763731449842453, 0.015113349072635174, 0.09063335508108139, -0.06547655910253525, 0.23074868321418762, -0.1550748199224472, 0.043683409690856934, -0.21424251794815063, 0.16135592758655548, -0.04670371860265732, -0.1442931592464447, 0.174848735332489, 0.08072952181100845, -0.20852522552013397, 0.17735137045383453, -0.12914928793907166, -0.05021779611706734, 0.20674622058868408, -0.05369504168629646, 0.49085476994514465, 0.024764366447925568, -0.12905661761760712, 0.18542343378067017, -0.06928925216197968, -0.12062816321849823, -0.14255158603191376, 0.319083571434021, -0.0011528281029313803, 0.22334162890911102, 0.23306478559970856, -0.3419932425022125, 0.2556163966655731, 0.13719017803668976, -0.13178429007530212, -0.24008828401565552, -0.22185926139354706, -0.2205229550600052, 0.09345820546150208, -0.052977900952100754, -0.18849815428256989, 0.30560243129730225, 0.09235958009958267, -0.06744792312383652, 0.142168328166008, 0.1403704285621643, -0.22571730613708496, 0.05375983566045761, 0.010631858371198177, 0.23765364289283752, -0.38529467582702637, 0.014454164542257786, 0.007554331328719854, -0.39279958605766296, -0.12255742400884628, 0.10521183907985687, -0.12836822867393494, -0.05855835601687431, 0.22629901766777039, 0.02118401788175106, -0.13663968443870544, 0.43812742829322815, 0.07131548970937729, -0.09266829490661621, -0.15792883932590485, -0.17439033091068268, -0.17168258130550385, -0.05793246999382973, -0.21513456106185913, 1.6697231330908835e-05, -0.3755565285682678, 0.11977387219667435, -0.06119122356176376], "kernelRoundsDim": 1, "inputChannelsDim": 68, "className": "ception", "bnMean": [-0.22749343514442444, -0.6010516881942749, -0.27054256200790405, 0.4278715252876282, 0.8863977193832397, -0.1049206331372261, -0.337584525346756, 0.12438533455133438, -0.18321983516216278, -0.7669169902801514, 0.013984349556267262, 0.36976927518844604, 0.13942258059978485, 0.13285131752490997, -0.038539428263902664, -0.6373013257980347, 0.2451213151216507, -0.11041463166475296, 0.49875736236572266, -0.3589450716972351, -0.2390141785144806, 0.6151869297027588, 0.6693692207336426, 0.33727550506591797, 0.23251046240329742, 0.038865454494953156, 0.013080782257020473, 0.37739214301109314, 0.2667291462421417, -0.38345709443092346, 0.36527419090270996, 0.5438085794448853, -0.6811746954917908, 0.2855111360549927, -0.5950139164924622, -0.4904939532279968, -0.3797326982021332, -0.044476468116045, 0.15838347375392914, 0.45814937353134155, 0.4197536110877991, -0.2926381230354309, -0.06427231431007385, -0.046193357557058334, 0.4249570965766907, -0.2782021462917328, -0.34468385577201843, -0.17645621299743652], "bnVariance": [1.6011950969696045, 1.001475214958191, 0.5726736187934875, 0.9802517294883728, 2.122905969619751, 1.2815216779708862, 1.062121033668518, 1.7022453546524048, 0.9969198703765869, 1.308840274810791, 1.5909829139709473, 1.1778004169464111, 0.5724610090255737, 1.190064787864685, 0.8841773271560669, 0.8065966963768005, 0.779636561870575, 1.2107735872268677, 1.6508426666259766, 1.0807054042816162, 0.8901938199996948, 1.7093607187271118, 1.7512556314468384, 0.7746710777282715, 0.8183669447898865, 2.123467445373535, 0.6428748965263367, 1.3103480339050293, 0.8390824198722839, 2.0238547325134277, 1.1140581369400024, 0.7798545956611633, 0.9006891250610352, 1.108677625656128, 1.270715355873108, 0.6264970302581787, 0.951270580291748, 1.1752618551254272, 1.4222263097763062, 1.0036057233810425, 0.9230632781982422, 1.002587914466858, 1.3237210512161255, 1.263358473777771, 1.4100651741027832, 0.8638337254524231, 0.9364904165267944, 1.2711646556854248], "bnBeta": [-0.2817443013191223, -0.5284433364868164, -1.0364062786102295, -0.6526492238044739, -0.46345898509025574, -0.809804379940033, -0.5789485573768616, -0.5568006038665771, -0.5147080421447754, -1.1901373863220215, -0.4045241177082062, -0.6893345713615417, -1.6322776079177856, -0.2834233343601227, -0.44769689440727234, -0.09126745909452438, -0.5610272288322449, -0.7298367023468018, -0.7065572142601013, -0.5833097100257874, -0.7973704934120178, -0.5858994722366333, -0.5035126805305481, -1.0762444734573364, -0.9129774570465088, -0.2180037796497345, -0.5765896439552307, -1.2412233352661133, -0.6209295988082886, -0.0024918322451412678, -0.19339832663536072, -0.581993043422699, -0.9089245796203613, -0.2723899483680725, -0.43455567955970764, -0.10623036324977875, -0.2513594627380371, -0.5697197914123535, -0.7931405305862427, -0.04859328642487526, -0.3028413951396942, -0.6414064168930054, -0.6131347417831421, -0.26774656772613525, -0.5839943885803223, -0.137577623128891, -0.5008134841918945, -0.8134530186653137], "typesDim": 3, "bnGamma": [0.7625528573989868, 1.2050867080688477, 1.6219360828399658, 1.4173216819763184, 1.147294521331787, 1.265813946723938, 1.3422327041625977, 1.1319571733474731, 1.0417665243148804, 1.3215081691741943, 1.0024170875549316, 1.2175767421722412, 1.1471315622329712, 0.8913551568984985, 1.0797024965286255, 0.8224701881408691, 1.3550790548324585, 1.0180320739746094, 1.4574682712554932, 0.9452407956123352, 1.1698881387710571, 1.159446358680725, 1.150971531867981, 1.0235618352890015, 1.5993481874465942, 1.2399020195007324, 1.2624932527542114, 1.3363155126571655, 1.1234362125396729, 1.133918285369873, 1.0755999088287354, 1.2276431322097778, 1.358797550201416, 0.9710593819618225, 1.5035514831542969, 1.1996729373931885, 1.1540148258209229, 1.4609638452529907, 1.959942102432251, 1.113450050354004, 0.9332545399665833, 1.0625518560409546, 1.1088989973068237, 1.1336179971694946, 1.422478437423706, 1.1395732164382935, 1.2876131534576416, 1.1792032718658447], "upsamplingTypesDimFactor": 1, "channelsDim": 48}, {"roundsDim": 6, "convKernelA": [-0.017157485708594322, -0.167693093419075, -0.15114840865135193, 0.046874504536390305, -0.4842086732387543, 0.06649887561798096, 0.15871308743953705, -0.15885400772094727, 0.29050877690315247, 0.07139147818088531, 0.16289329528808594, -0.0670904591679573, -0.12187400460243225, -0.2641887366771698, 0.12857303023338318, -0.16238604485988617, 0.010011671110987663, 0.1429327130317688, -0.11069650948047638, 0.0019642654806375504, -0.11156343668699265, 0.007838999852538109, 0.05546446144580841, 0.11992283910512924, 0.2529076337814331, -0.04115349426865578, 0.11865703016519547, -0.05048134922981262, -0.06657947599887848, -0.2752228081226349, -0.4373452663421631, -0.11259379982948303, 0.27352821826934814, 0.45085740089416504, -0.14912348985671997, -0.17737802863121033, 0.016726288944482803, -0.24382634460926056, -0.06856836378574371, -0.46627721190452576, 0.16519616544246674, -0.015416258946061134, 0.20400352776050568, -0.23975439369678497, -0.03896676003932953, -0.08903129398822784, 0.33352017402648926, -0.4251927435398102, 0.0256417915225029, -0.10866684466600418, 0.4803215563297272, 0.20245979726314545, -0.043022945523262024, -0.02965020015835762, -0.07967356592416763, -0.014774399809539318, 0.036884766072034836, 0.25582802295684814, -0.1515950709581375, -0.11148902773857117, -0.047612883150577545, -0.008357501588761806, -0.23781850934028625, 0.03569496423006058, -0.09745631366968155, 0.12808756530284882, -0.04250605031847954, -0.1374962478876114, -0.07589871436357498, 0.34040170907974243, 0.1872090846300125, -0.0020047426223754883, -0.0015361638506874442, 0.15791063010692596, 0.1329318732023239, 0.03951035067439079, 0.40510401129722595, -0.0633586049079895, -0.028807340189814568, -0.19492201507091522, -0.2233911156654358, -0.1783059686422348, 0.009388815611600876, 0.09704449772834778, 0.2542067766189575, -0.07955872267484665, -0.009820743463933468, -0.01376427337527275, -0.20223820209503174, -0.07397844642400742, 0.13264480233192444, -0.027720430865883827, -0.08553299307823181, 0.44457119703292847, -0.058795686811208725, 0.1384490430355072, -0.008311180397868156, 0.12342699617147446, -0.3415030837059021, -0.27100828289985657, -0.2479434758424759, 0.20175327360630035, -0.012912699021399021, -0.18657372891902924, -0.21445690095424652, 0.13905638456344604, 0.16867995262145996, -0.2918872535228729, -0.1217922642827034, 0.3344438374042511, 0.18756160140037537, -0.20985084772109985, -0.23492522537708282, 0.014300751499831676, 0.09140418469905853, 0.07604178041219711, 0.30319494009017944, 0.17681759595870972, 0.3112238943576813, 0.01027943380177021, -0.008148355409502983, -0.15407364070415497, -0.09904231876134872, 0.08686571568250656, -0.21826840937137604, -0.01747865229845047, 0.2920681834220886, 0.2086447924375534, 0.19941532611846924, -0.02205333486199379, 0.0005638980655930936, 0.1423502117395401, 0.20835670828819275, 0.039929453283548355, -0.0248321034014225, 0.10083461552858353, 0.05393500626087189, 0.12269996106624603, -0.166349858045578, 0.2448938935995102, -0.0024125175550580025, -0.13813169300556183, -0.13163667917251587, 0.24767591059207916, -0.09323778748512268, 0.267046719789505, -0.19129858911037445, 0.2812959551811218, 0.23314017057418823, 0.09683787822723389, 0.06937197595834732, 0.016861146315932274, -0.017475128173828125, -0.40717417001724243, -0.17560696601867676, -0.27729108929634094, 0.12712816894054413, 0.0717325434088707, -0.027498945593833923, -0.2164267599582672, 0.07957521826028824, 0.012671101838350296, 0.09605847299098969, -0.119741290807724, 0.19918732345104218, -0.2568116784095764, 0.09325513988733292, 0.07566795498132706, -0.10376240313053131, 0.02330671064555645, -0.22314734756946564, -0.2283998280763626, -0.014024564065039158, -0.14485357701778412, -0.057975463569164276, -0.040702901780605316, 0.3394581973552704, 0.0928463488817215, 0.10448805242776871, 0.37802645564079285, 0.1973990499973297, 0.05137552693486214, -0.0917583629488945, -0.07751365005970001, 0.27592605352401733, 0.0674104169011116, -0.14086057245731354, 0.1302146017551422, 0.07852402329444885, -0.06407469511032104, 0.07366445660591125, -0.08019423484802246, 0.05870988965034485, -0.05082210525870323, -0.15003283321857452, 0.10972363501787186, -0.03207574412226677, 0.13893145322799683, 0.10976726561784744, -0.003312926273792982, 0.10047390311956406, 0.15094588696956635, 0.03597014397382736, 0.2167137712240219, -0.038392938673496246, 0.04426836594939232, -0.1112871915102005, 0.3510842025279999, 0.014145728200674057, 0.13129666447639465, 0.03809814900159836, 0.07158215343952179, -0.043658506125211716, 0.15291322767734528, -0.10912665724754333, 0.03802524507045746, -0.24792622029781342, -0.02163597010076046, -0.03148265928030014, -0.08663769066333771, 0.1739111989736557, -0.41186076402664185, 0.13693886995315552, 0.0457286573946476, -0.38306283950805664, 0.12189345061779022, -0.21733462810516357, 0.26914677023887634, 0.25363975763320923, -0.10021090507507324, -0.10235568135976791, 0.0008308066753670573, 0.08892415463924408, 0.004807738121598959, -0.15870128571987152, 0.19975313544273376, 0.17318616807460785, -0.38368791341781616, 0.1817483901977539, -0.09437806159257889, -0.2481333166360855, 0.20372448861598969, -0.09664317965507507, 0.060487374663352966, -0.2921909689903259, -0.1571524441242218, -0.20420821011066437, 0.03757140040397644, 0.0661986768245697, 0.33042311668395996, -0.09745903313159943, 0.11677390336990356, 0.0996399000287056, -0.6511855721473694, 0.04361877217888832, -0.06028246134519577, -0.03205220401287079, -0.10525501519441605, 0.053545355796813965, 0.09071166813373566, 0.07380525767803192, -0.1133168563246727, 0.061964619904756546, 0.18692083656787872, 0.20218607783317566, 0.04993625357747078, -0.20649504661560059, 0.04258401691913605, 0.26070287823677063, 0.042172424495220184, 0.02893885038793087, 0.11727430671453476, -0.18815924227237701, 0.023122688755393028, 0.1849667876958847, -0.2332238107919693, -0.2465357929468155, -0.12313782423734665, 0.12046447396278381, -0.11889021843671799, -0.10468451678752899, 0.06291955709457397, -0.27028191089630127, -0.12746427953243256, 0.10220746695995331, 0.03387298062443733, -0.15312185883522034, 0.006152542773634195, 0.24780452251434326, 0.03603944927453995, -0.22640925645828247, 0.12724801898002625, 0.3525577783584595, -0.13865932822227478, 0.16948018968105316, -0.05592644587159157, -0.19584877789020538, 0.24025198817253113, -0.6085470914840698, 0.08597270399332047, 0.018391959369182587, -0.07789099961519241, 0.1549379676580429, 0.1968918740749359, -0.07322892546653748, 0.007948719896376133, 0.006975928321480751, -0.014760293066501617, 0.20835794508457184, -0.32705509662628174, 0.01823776587843895, 0.1868114173412323, 0.04498216509819031, -0.052772633731365204, 0.17327195405960083, 0.3229702115058899, -0.14802919328212738, -0.27799779176712036, -0.07710475474596024, 0.13550640642642975, 0.0832824632525444, -0.05745481699705124, -0.040967900305986404, -0.266718327999115, -0.16566374897956848, -0.00978814996778965, -0.0527934692800045, 0.04421885311603546, -0.2970612049102783, 0.06716443598270416, 0.2256571650505066, -0.15305310487747192, -0.08045092225074768, 0.12420681864023209, 0.043386656790971756, -0.241695836186409, -0.04664858058094978, 0.12779706716537476, -0.09938505291938782, 0.08548586815595627, 0.030878808349370956, 0.2758294939994812, -0.0003844242019113153, -0.2587016820907593, -0.18582870066165924, -0.04285764694213867, 0.23523429036140442, -0.10015338659286499, 0.21310687065124512, 0.02380506508052349, -0.2840662896633148, -0.03401854634284973, -0.38853439688682556, -0.14685381948947906, 0.11308141052722931, 0.01713302731513977, -0.19019778072834015, 0.13556931912899017, 0.008513436652719975, 0.17057491838932037, 0.2233729213476181, -0.05243711918592453, 0.008137166500091553, -0.010724285617470741, 0.036833688616752625, 0.09025326371192932, 0.1112360879778862, 0.08193083107471466, 0.3712480068206787, 0.10880906879901886, 0.05612625181674957, -0.28147172927856445, 0.13649432361125946, 0.06010976806282997, 0.29730355739593506, 0.04160495847463608, 0.05062725767493248, 0.07435069978237152, 0.21900823712348938, 0.04435969144105911, -0.11470568180084229, 0.1616581231355667, 0.16138267517089844, -0.11144059151411057, -0.13654395937919617, 0.011671069078147411, 0.06933390349149704, -0.04758865758776665, 0.0334763340651989, -0.04711592569947243, -0.44344398379325867, -0.08260108530521393, 0.005521428771317005, -0.16357985138893127, 0.08683180063962936, 0.15186695754528046, -0.1162516176700592, -0.09344042092561722, -0.09498690068721771, -0.07497736811637878, 0.07098615914583206, 0.1536024957895279, -0.03313932195305824, -0.1159103587269783, -0.04832126200199127, 0.0728379413485527, -0.02404366247355938, 0.2290036529302597, -0.1774846911430359, -0.15960615873336792, -0.05475844070315361, -0.0377967394888401, 0.06052318587899208, -0.17123594880104065, -0.004891796503216028, -0.25921475887298584, 0.42624035477638245, 0.010970761999487877, 0.011615930125117302, 0.18578208982944489, -0.2492705136537552, -0.08765681087970734, 0.015269740484654903, -0.15321509540081024, 0.20081330835819244, 0.038429420441389084, -0.057481683790683746, -0.3032309114933014, 0.20543670654296875, -0.044880691915750504, -0.25634855031967163, -0.17110691964626312, -0.09826736897230148, 0.23605702817440033, -0.41316086053848267, 0.01870827190577984, 0.20260216295719147, 0.012046488001942635, 0.012064280919730663, 0.1379745602607727, -0.0887327566742897, 0.06586717069149017, 0.11415967345237732, 0.22725369036197662, -0.24896638095378876, 0.17644815146923065, -0.11472152918577194, -0.26089203357696533, -0.02653167024254799, 0.0783088430762291, -0.05094197019934654, -0.20033571124076843, 0.1125568076968193, -0.29724323749542236, 0.032611772418022156, 0.4312591850757599, -0.09208184480667114, 0.2658352851867676, -0.21307499706745148, -0.027493655681610107, -0.1518363356590271, 0.06875073909759521, -0.03197614103555679, 0.07625249773263931, -0.2137124389410019, 0.17173944413661957, -0.13206276297569275, 0.01815830171108246, -0.1427231729030609, -0.16304980218410492, -0.2956569492816925, -0.4592176675796509, -0.1654164344072342, 0.1934039294719696, -0.16542713344097137, -0.06588148325681686, -0.019486691802740097, -0.011326160281896591, 0.07347124069929123, -0.1297859251499176, 0.1428275853395462, -0.0007563692051917315, 0.05703563988208771, -0.08018220216035843, 0.062555693089962, 0.10773317515850067, -0.0629781037569046, -0.22259968519210815, 0.14381080865859985, 0.016066299751400948, 0.1698114275932312, -0.3525393009185791, 0.07470568269491196, -0.045813437551259995, 0.08867345750331879, -0.2530696988105774, -0.03997815400362015, -0.1999547928571701, 0.02679070271551609, -0.17154094576835632, 0.15920844674110413, -0.06153020262718201, 0.11806104332208633, 0.05068367347121239, -0.06253872811794281, 0.045292213559150696, -0.15334035456180573, -0.328962504863739, 0.027427297085523605, -0.15920259058475494, -0.23008793592453003, 0.17477919161319733, 0.1239381954073906, -0.015279275365173817, -0.10302664339542389, -0.12635338306427002, 0.28615808486938477, -0.14576269686222076, 0.08385532349348068, 0.031405169516801834, -0.13309283554553986, 0.3124156594276428, -0.21566462516784668, 0.20687232911586761, -0.3680100440979004, 0.18967875838279724, -0.1457395851612091, 0.09861262142658234, 0.18086016178131104, 0.25818100571632385, -0.14051935076713562, 0.22339944541454315, 0.23963302373886108, 0.04466278478503227, 0.1646011769771576, -0.5790147185325623, 0.006844413001090288, -0.11686362326145172, -0.09314204007387161, -0.10047541558742523, -0.18700921535491943, 0.05356859788298607, 0.14722859859466553, -0.08191897720098495, -0.012014899402856827, 0.1592589020729065, -0.26051342487335205, -0.11218205094337463, -0.12406451255083084, -0.03457219526171684, 0.21742026507854462, 0.02945123054087162, -0.007328036706894636, -0.0682533010840416, -0.23617205023765564, 0.2451639324426651, -0.6698579788208008, 0.25130316615104675, 0.025104684755206108, 0.10495629906654358, 0.031978387385606766, -0.13227680325508118, -0.039556749165058136, -0.3407135605812073, 0.05523918569087982, 0.11960437148809433, -0.3159765601158142, 0.201198548078537, 0.5702160000801086, 0.3059387505054474, 0.02681187354028225, 0.11650710552930832, -0.23941943049430847, -0.23813974857330322, -0.13858145475387573, 0.25718003511428833, -0.21147693693637848, 0.2385116070508957, -0.10551472753286362, 0.18249620497226715, 0.275551974773407, -0.001391966245137155, -0.11766614764928818, -0.18583619594573975, 0.35730844736099243, -0.09000705182552338, 0.033810555934906006, 0.20251990854740143, 0.2528282701969147, 0.08906488865613937, 0.22550252079963684, 0.03869323804974556, 0.1002163290977478, 0.3224477469921112, 0.09796978533267975, -0.2596120536327362, -0.047008976340293884, -0.03699195012450218, -0.17044416069984436, 0.16677618026733398, -0.10078664124011993, 0.0023240079171955585, -0.21948476135730743, -0.08801363408565521, 0.1443425416946411, 0.2690107524394989, -0.36592888832092285, -0.21168296039104462, 0.10449955612421036, -0.2358814924955368, -0.37796229124069214, -0.13271646201610565, 0.06163874268531799, 0.3711758553981781, 0.1326478272676468, -0.04905647784471512, -0.22096526622772217, 0.18885467946529388, 0.31054118275642395, -0.23194272816181183, -0.4651327133178711, 0.07522331923246384, 0.05570021644234657, -0.05032268911600113, 0.1717594712972641, -0.07053939253091812, -0.044597942382097244, 0.1700359284877777, 0.038438040763139725, -0.01807064563035965, -0.41038277745246887, -0.31867319345474243, 0.07659631967544556, 0.47317734360694885, -0.17408542335033417, 0.02771739661693573, 0.05459075793623924, 0.03701653704047203, -0.19222527742385864, -0.09155100584030151, -0.15236683189868927, 0.08032932132482529, -0.29686760902404785, 0.1408994495868683, 0.08195152133703232, 0.03597905859351158, 0.1734059453010559, -0.07392837107181549, -0.11957820504903793, -0.15021449327468872, 0.024675767868757248, 0.2447686642408371, 0.04389701783657074, 0.11951479315757751, 0.0932326689362526, 0.09426021575927734, 0.0381385013461113, 0.20476901531219482, -0.07392451912164688, -0.05945957824587822, -0.11298920214176178, -0.778901994228363, 0.010783695615828037, -0.3495616316795349, 0.19849422574043274, -0.12449102103710175, 0.06986862421035767, -0.09082697331905365, 0.013970470987260342, 0.18749408423900604, 0.23672683537006378, -0.15862944722175598, -0.09032870084047318, 0.026637479662895203, 0.030556730926036835, 0.18564409017562866, 0.03651883453130722, -0.07977026700973511, 0.0874355286359787, 0.23785711824893951, 0.13064004480838776, 0.12746594846248627, -0.2565896511077881, 0.09572500735521317, -0.016135437414050102, -0.22816790640354156, -0.2856808304786682, 0.11820654571056366, 0.07500846683979034, 0.11693508923053741, -0.19196446239948273, -0.11055216193199158, -0.08460792899131775, -0.07520584762096405, -0.27443984150886536, -0.19072037935256958, 0.15842653810977936, 0.2402607947587967, -0.03324542194604874, -0.0952112078666687, 0.20261836051940918, 0.019418636336922646, -0.06692729890346527, -0.20710426568984985, -0.2500306963920593, -0.3848924934864044, 0.3605350852012634, 0.16307389736175537, -0.2608356177806854, 0.18797039985656738, -0.32297077775001526, 0.0007381805335171521, 0.008583995513617992, 0.050688087940216064, -0.02715037390589714, 0.20981118083000183, 0.0077605112455785275, -0.13121002912521362, 0.04696914181113243, 0.17387065291404724, -0.22307461500167847, 0.052171915769577026, 0.11083035916090012, 0.045709382742643356, -0.19302552938461304, 0.07343076914548874, -0.1309240609407425, 0.029488787055015564, 0.07475186139345169, 0.07034197449684143, 0.23903264105319977, 0.2980794906616211, 0.05069364234805107, -0.21393631398677826, 0.04313388839364052, 0.17199601233005524, 0.17764876782894135, 0.4090806543827057, 0.23500555753707886, -0.19914139807224274, -0.12356048822402954, -0.2945961356163025, -0.004381334409117699, -0.08221917599439621, 0.21486856043338776, 0.0539860725402832, -0.21035730838775635, 0.09275046736001968, 0.025556165724992752, -0.0037228150758892298, 0.13178651034832, 0.20495982468128204, 0.049207381904125214, 0.251162052154541, 0.22015075385570526, -0.21972675621509552, 0.04085025191307068, 0.15497055649757385, 0.07229899615049362, -0.12201100587844849, 0.11794902384281158, -0.28254786133766174, -0.14731931686401367, -0.26705867052078247, -0.3955823481082916, 0.05680999159812927, -0.22091864049434662, -0.17253422737121582, -0.010969866067171097, -0.15519990026950836, -0.1530030369758606, 0.07096638530492783, -0.4675378203392029, 0.07427109032869339, 0.1949896216392517, -0.13988327980041504, 0.27073806524276733, 0.0660514235496521, 0.15620118379592896, -0.07434386014938354, -0.13104164600372314, -0.243541419506073, 0.1491418033838272, -0.1472201645374298, 0.019559796899557114, 0.15534217655658722, -0.12016557902097702, 0.015744024887681007, -0.13393013179302216, 0.030778881162405014, 0.04878358542919159, 0.12192932516336441, 0.23721198737621307, -0.05595662072300911, 0.08808959275484085, -0.06932498514652252, -0.09108750522136688, -0.24771630764007568, -0.4238465130329132, -0.11467599868774414, 0.2680673897266388, 0.4730640947818756, -0.10157476365566254, -0.18239641189575195, 0.034215155988931656, -0.2675018906593323, -0.06280835717916489, -0.44596195220947266, 0.14758571982383728, -0.023380551487207413, 0.20050889253616333, -0.21941910684108734, -0.039790548384189606, -0.06678195297718048, 0.33306723833084106, -0.4145269989967346, 0.03415485471487045, -0.1337595134973526, 0.4733318090438843, 0.21236658096313477, -0.052081529051065445, -0.05122353136539459, -0.09289500117301941, -0.013605996035039425, 0.04437464848160744, 0.24458076059818268, -0.14700502157211304, -0.09102194756269455, -0.03411082178354263, -0.001229176763445139, -0.22159293293952942, 0.030302399769425392, -0.1132352203130722, 0.1600705087184906, -0.028474794700741768, -0.11842881888151169, -0.08484506607055664, 0.3309987187385559, 0.1924593299627304, -0.018531911075115204, -0.012759216129779816, 0.144347682595253, 0.15191444754600525, 0.04319962486624718, 0.3719806671142578, -0.05123130977153778, -0.009129483252763748, -0.17816796898841858, -0.19231699407100677, -0.1640322208404541, -0.013785923831164837, 0.08020856976509094, 0.2604294419288635, -0.08359093219041824, -0.03302671015262604, -0.02782713994383812, -0.21096517145633698, -0.09739329665899277, 0.11548826098442078, -0.010547303594648838, -0.07123573124408722, 0.4380504786968231, -0.06372988224029541, 0.14563843607902527, -0.002431135391816497, 0.11233183741569519, -0.3630509078502655, -0.2756436765193939, -0.268132746219635, 0.19598335027694702, -0.02433013543486595, -0.17804178595542908, -0.21372540295124054, 0.1442449688911438, 0.14368873834609985, -0.2856110632419586, -0.10609424114227295, 0.341341108083725, 0.21090945601463318, -0.21231359243392944, -0.21403859555721283, 0.03560812771320343, 0.09991282969713211, 0.05429334193468094, 0.3379719853401184, 0.1404249519109726, 0.32909831404685974, 0.025116005912423134, -0.012879175134003162, -0.18419404327869415, -0.08228592574596405, 0.07026882469654083, -0.22060270607471466, -0.022734953090548515, 0.3265801966190338, 0.2083795666694641, 0.24037255346775055, -0.023397745564579964, 0.0013966038823127747, 0.16436153650283813, 0.1993531435728073, 0.06425502896308899, -0.04744117334485054, 0.09756262600421906, 0.06531456857919693, 0.14302901923656464, -0.18147169053554535, 0.25652727484703064, -0.0062834518030285835, -0.13105140626430511, -0.13455164432525635, 0.24031223356723785, -0.08321584761142731, 0.29044854640960693, -0.20292003452777863, 0.25239014625549316, 0.2155824601650238, 0.06845849007368088, 0.07261475920677185, -0.007058202754706144, -0.03755812346935272, -0.427767813205719, -0.17574742436408997, -0.25425466895103455, 0.09567855298519135, 0.07680036872625351, -0.05596814677119255, -0.21510347723960876, 0.10625167191028595, 0.007796470075845718, 0.10445622354745865, -0.13057948648929596, 0.1968833953142166, -0.2810108959674835, 0.09157157689332962, 0.07396330684423447, -0.07055389136075974, 0.020727789029479027, -0.2138713151216507, -0.20180025696754456, -0.039542306214571, -0.13819007575511932, -0.06377345323562622, -0.034999750554561615, 0.3482688367366791, 0.09953997284173965, 0.10219144076108932, 0.3739263713359833, 0.18788790702819824, 0.04648642987012863, -0.10497929900884628, -0.07675330340862274, 0.26280662417411804, 0.07709763199090958, -0.15322072803974152, 0.13071982562541962, 0.08955826610326767, -0.09338689595460892, 0.038630492985248566, -0.07496563345193863, 0.06709080189466476, -0.045161742717027664, -0.1446438878774643, 0.14246807992458344, -0.01663924567401409, 0.13365353643894196, 0.11354655772447586, -0.010173973627388477, 0.10709722340106964, 0.14898696541786194, 0.03713222220540047, 0.21727529168128967, -0.03601479157805443, 0.03956378623843193, -0.11587373912334442, 0.35645806789398193, 0.016682609915733337, 0.16032639145851135, 0.0434589758515358, 0.04085686802864075, -0.07003588229417801, 0.11507433652877808, -0.09113829582929611, 0.03924548998475075, -0.22364650666713715, -0.012410422787070274, -0.015312009491026402, -0.04671187698841095, 0.18277066946029663, -0.44000744819641113, 0.13043081760406494, 0.05236418545246124, -0.3705642521381378, 0.12036752700805664, -0.21046200394630432, 0.2929738759994507, 0.2530798017978668, -0.07416228204965591, -0.11518408358097076, -0.002776332898065448, 0.08757522702217102, 0.014664540067315102, -0.16093601286411285, 0.2183801531791687, 0.15522992610931396, -0.3987102806568146, 0.17209401726722717, -0.10284094512462616, -0.2746138572692871, 0.2205888032913208, -0.08648732304573059, 0.0751914381980896, -0.2961638867855072, -0.17334097623825073, -0.20597024261951447, 0.03750897943973541, 0.07421910017728806, 0.3244224190711975, -0.10108781605958939, 0.13237875699996948, 0.12085401266813278, -0.6474645137786865, 0.0440460704267025, -0.057643357664346695, -0.04474515840411186, -0.11055802553892136, 0.05974366143345833, 0.0888671949505806, 0.07949352264404297, -0.10011012107133865, 0.029703279957175255, 0.19164957106113434, 0.2247566431760788, 0.07024464756250381, -0.19529393315315247, 0.045334041118621826, 0.2465233951807022, 0.04350435733795166, -0.00945736002177, 0.13331040740013123, -0.1579618901014328, 0.011501103639602661, 0.16739380359649658, -0.21835128962993622, -0.26584821939468384, -0.13024669885635376, 0.0996306762099266, -0.1223776787519455, -0.10764491558074951, 0.061335619539022446, -0.2606951892375946, -0.14047347009181976, 0.09718995541334152, 0.036753587424755096, -0.11973465234041214, 0.023317312821745872, 0.24340441823005676, 0.04776165261864662, -0.2330678552389145, 0.12677393853664398, 0.353524386882782, -0.09807024896144867, 0.1525353640317917, -0.056856051087379456, -0.19011761248111725, 0.27203530073165894, -0.6137396097183228, 0.10070886462926865, 0.019462600350379944, -0.05999179929494858, 0.14688754081726074, 0.19554772973060608, -0.0905614122748375, 0.015713859349489212, 0.015071290545165539, 0.014128144830465317, 0.21240009367465973, -0.3143419027328491, 0.028651747852563858, 0.17651119828224182, 0.04432503506541252, -0.06649263948202133, 0.1526464968919754, 0.3210239112377167, -0.15404894948005676, -0.26931628584861755, -0.08476556092500687, 0.12543360888957977, 0.0922350212931633, -0.06725773960351944, -0.03796941787004471, -0.266352117061615, -0.18859632313251495, -0.04026344045996666, -0.08843538910150528, 0.047612741589546204, -0.3080019950866699, 0.06915059685707092, 0.21194040775299072, -0.1679442673921585, -0.07379051297903061, 0.12882615625858307, 0.006994314957410097, -0.2434220314025879, -0.042537521570920944, 0.1347922682762146, -0.09626103192567825, 0.08635319769382477, 0.025657368823885918, 0.2562294602394104, 0.017030149698257446, -0.24663007259368896, -0.18416868150234222, -0.0466620996594429, 0.25374865531921387, -0.10020428895950317, 0.2098906934261322, 0.0276232548058033, -0.2566497325897217, -0.037085168063640594, -0.39617615938186646, -0.15647554397583008, 0.10411442816257477, 0.0183377917855978, -0.19742515683174133, 0.12871821224689484, -0.015884025022387505, 0.17849618196487427, 0.20604082942008972, -0.0372200533747673, 0.027506370097398758, -0.03589767962694168, 0.04567951709032059, 0.06859590113162994, 0.15410810708999634, 0.08549926429986954, 0.3866901993751526, 0.105013906955719, 0.046363212168216705, -0.28035321831703186, 0.15594086050987244, 0.08035647124052048, 0.3006458878517151, 0.025550255551934242, 0.07715781778097153, 0.0602387860417366, 0.21386322379112244, 0.05006864666938782, -0.10251761227846146, 0.15498234331607819, 0.15427829325199127, -0.11305349320173264, -0.13321171700954437, 0.0070687709376215935, 0.07171016931533813, -0.04279874637722969, 0.04568194970488548, -0.04299410060048103, -0.44164490699768066, -0.08592876046895981, 0.003630130086094141, -0.17858807742595673, 0.06433851271867752, 0.16043120622634888, -0.12321014702320099, -0.03774666413664818, -0.08927512913942337, -0.08230821043252945, 0.06425399333238602, 0.16573046147823334, -0.03409891948103905, -0.1280594915151596, -0.05166091024875641, 0.03842207044363022, -0.015428688377141953, 0.22540202736854553, -0.1746978461742401, -0.16389566659927368, -0.02675279974937439, -0.040149323642253876, 0.032815493643283844, -0.1901901215314865, -0.03265167400240898, -0.2569992244243622, 0.42628228664398193, 0.009966558776795864, 0.006869385950267315, 0.20084482431411743, -0.2563728094100952, -0.08932343125343323, 0.021821115165948868, -0.14800004661083221, 0.21642953157424927, 0.05511138588190079, -0.08326299488544464, -0.31210169196128845, 0.20068515837192535, -0.029080688953399658, -0.2570875585079193, -0.17111171782016754, -0.1347363293170929, 0.2647513747215271, -0.40964996814727783, 0.030024662613868713, 0.20640450716018677, 0.03799710050225258, 0.03328574821352959, 0.13284704089164734, -0.11454412341117859, 0.05518730357289314, 0.09734352678060532, 0.23819586634635925, -0.22950905561447144, 0.18281258642673492, -0.11604124307632446, -0.25826454162597656, -0.025864236056804657, 0.06388729810714722, -0.04854395613074303, -0.2004421204328537, 0.08057380467653275, -0.29804086685180664, 0.01544872298836708, 0.43484389781951904, -0.10937827825546265, 0.24647203087806702, -0.20611712336540222, -0.0303795263171196, -0.14751899242401123, 0.06945784389972687, -0.03323332220315933, 0.06524259597063065, -0.21168547868728638, 0.15900932252407074, -0.13132250308990479, 0.006222156807780266, -0.15193845331668854, -0.1722116321325302, -0.3076529800891876, -0.455900639295578, -0.14508754014968872, 0.21026265621185303, -0.14438962936401367, -0.09222424030303955, -0.03261733427643776, -0.009070489555597305, 0.08928539603948593, -0.13019797205924988, 0.11154860258102417, 0.01640891470015049, 0.052912287414073944, -0.07965348660945892, 0.07691572606563568, 0.1251882165670395, -0.03246918320655823, -0.23736891150474548, 0.12916219234466553, 0.010270476341247559, 0.1439342051744461, -0.3563719391822815, 0.08472666144371033, -0.0387030728161335, 0.11181553453207016, -0.2628280222415924, -0.04317554086446762, -0.180345356464386, 0.04474883899092674, -0.18915803730487823, 0.16510280966758728, -0.04114006459712982, 0.12479621171951294, 0.0505269393324852, -0.07249375432729721, 0.005888321902602911, -0.16894476115703583, -0.31373587250709534, 0.017949335277080536, -0.1614699810743332, -0.20679911971092224, 0.1871233880519867, 0.12854817509651184, -0.015804555267095566, -0.09897936880588531, -0.13441047072410583, 0.26506784558296204, -0.14536330103874207, 0.08970862627029419, 0.017212403938174248, -0.13100750744342804, 0.277986615896225, -0.20779040455818176, 0.202809676527977, -0.36023181676864624, 0.1831607222557068, -0.169831320643425, 0.08851994574069977, 0.19718512892723083, 0.2650527060031891, -0.13640230894088745, 0.18968741595745087, 0.21943889558315277, 0.005693702958524227, 0.1695600152015686, -0.5610175728797913, 0.050626710057258606, -0.12196137011051178, -0.07368113100528717, -0.10952915251255035, -0.17290711402893066, 0.06392481178045273, 0.11987711489200592, -0.08879690617322922, 0.003546120598912239, 0.16913895308971405, -0.26817989349365234, -0.10508788377046585, -0.12667058408260345, -0.02573828585445881, 0.22528010606765747, 0.025006940588355064, -0.017447959631681442, -0.07143306732177734, -0.2509998381137848, 0.24926702678203583, -0.6640308499336243, 0.2591993510723114, 0.03548029437661171, 0.10433206707239151, 0.037628572434186935, -0.11282406747341156, -0.037264082580804825, -0.35107699036598206, 0.06649161130189896, 0.13220643997192383, -0.3243940472602844, 0.21534033119678497, 0.5626050233840942, 0.3077268898487091, 0.02892696112394333, 0.12079954147338867, -0.2367255836725235, -0.22898051142692566, -0.1222657784819603, 0.25602975487709045, -0.19045959413051605, 0.21387334167957306, -0.11438269168138504, 0.20704059302806854, 0.27526968717575073, -0.0025716943200677633, -0.130239337682724, -0.19792540371418, 0.35830366611480713, -0.08900885283946991, 0.05221147835254669, 0.21245822310447693, 0.24112920463085175, 0.09048610180616379, 0.20638377964496613, 0.02700270526111126, 0.08093739300966263, 0.345975399017334, 0.08577277511358261, -0.2681226432323456, -0.0656910166144371, -0.050666894763708115, -0.14543230831623077, 0.1413557231426239, -0.12047608941793442, 0.02113323099911213, -0.21278536319732666, -0.09483113884925842, 0.1445591002702713, 0.2748919725418091, -0.3610677719116211, -0.21380843222141266, 0.10065703094005585, -0.23573246598243713, -0.35572350025177, -0.13642780482769012, 0.06621348112821579, 0.3872978091239929, 0.13984043896198273, -0.05128605291247368, -0.23273469507694244, 0.2022978812456131, 0.32651981711387634, -0.21514102816581726, -0.4571775794029236, 0.07508283108472824, 0.054198767989873886, -0.04970845952630043, 0.17389069497585297, -0.07961706817150116, -0.04188743978738785, 0.1636696457862854, 0.03809378668665886, -0.03684621304273605, -0.41002991795539856, -0.3161245584487915, 0.07265452295541763, 0.4533410966396332, -0.14839307963848114, 0.042404863983392715, 0.06331013888120651, 0.01610131934285164, -0.18712705373764038, -0.08895092457532883, -0.12599067389965057, 0.05247032642364502, -0.2958393394947052, 0.14641249179840088, 0.06412826478481293, 0.04873117431998253, 0.16564348340034485, -0.07879878580570221, -0.1095561683177948, -0.14853133261203766, 0.04592409357428551, 0.24695341289043427, 0.03759303316473961, 0.08389872312545776, 0.10161813348531723, 0.09722351282835007, 0.032677698880434036, 0.2006646990776062, -0.06424480676651001, -0.05943469703197479, -0.12634241580963135, -0.7639827132225037, 0.029779881238937378, -0.3365728557109833, 0.18979142606258392, -0.10933335870504379, 0.07469400763511658, -0.07146748900413513, 0.00559209706261754, 0.16802005469799042, 0.2287759631872177, -0.16269655525684357, -0.07516007125377655, 0.007378320209681988, 0.0187765434384346, 0.1814108043909073, 0.036588430404663086, -0.07314029335975647, 0.08018405735492706, 0.22992552816867828, 0.0659085363149643, 0.15985961258411407, -0.25758013129234314, 0.08760948479175568, -0.016340671107172966, -0.22020578384399414, -0.26715853810310364, 0.11809450387954712, 0.05820270627737045, 0.11687420308589935, -0.18401798605918884, -0.09671566635370255, -0.06762959808111191, -0.0652037113904953, -0.29604610800743103, -0.17969824373722076, 0.15611538290977478, 0.24618129432201385, -0.06128145381808281, -0.08550380915403366, 0.20222729444503784, -0.010503143072128296, -0.07808054238557816, -0.19780971109867096, -0.2636660933494568, -0.40679359436035156, 0.36514151096343994, 0.13367067277431488, -0.26449647545814514, 0.17008842527866364, -0.31514307856559753, 0.00128750700969249, 0.04818722605705261, 0.05660228803753853, -0.01007858756929636, 0.2274518609046936, 0.009051375091075897, -0.1026235893368721, 0.06779354065656662, 0.17064738273620605, -0.2127767652273178, 0.046948015689849854, 0.10640811920166016, 0.04272424802184105, -0.1960740089416504, 0.0795900970697403, -0.142415389418602, 0.036549292504787445, 0.07402060925960541, 0.07987247407436371, 0.23814480006694794, 0.28706127405166626, 0.03275870159268379, -0.2249622493982315, 0.07347804307937622, 0.16998502612113953, 0.19615238904953003, 0.40705451369285583, 0.2454536259174347, -0.18897023797035217, -0.1691010594367981, -0.28638955950737, -0.014511726796627045, -0.07246534526348114, 0.19966016709804535, 0.0574079304933548, -0.17543576657772064, 0.09307348728179932, 0.02278084121644497, -0.028110960498452187, 0.12168151140213013, 0.20305392146110535, 0.05065879225730896, 0.2609400153160095, 0.2156374156475067, -0.22096677124500275, 0.02975837141275406, 0.16702547669410706, 0.050554875284433365, -0.1217707097530365, 0.1258396953344345, -0.2759150564670563, -0.13217546045780182, -0.25376561284065247, -0.40490466356277466, 0.05493129417300224, -0.23527522385120392, -0.17708972096443176, 0.006783004850149155, -0.12589916586875916, -0.13921520113945007, 0.06043693423271179, -0.47757551074028015, 0.08381956070661545, 0.2197844684123993, -0.16825559735298157, 0.29028767347335815, 0.05536889284849167, 0.14436548948287964, -0.05934802442789078, -0.1417340785264969, -0.2499997764825821, 0.13537833094596863, -0.14475290477275848, 0.008646190166473389, 0.16570702195167542, -0.12552817165851593, 0.02085714414715767, -0.10123807191848755, 0.008148692548274994, 0.043775852769613266, 0.13163985311985016, 0.23136334121227264, -0.043244536966085434, 0.09918013215065002, -0.06136992201209068, -0.08030526340007782, -0.24781210720539093, -0.4005548357963562, -0.10966955870389938, 0.2618524432182312, 0.4735478460788727, -0.11969774216413498, -0.1826963573694229, 0.022422410547733307, -0.25113731622695923, -0.07718180119991302, -0.461633563041687, 0.16689686477184296, -0.013397795148193836, 0.208562433719635, -0.23178450763225555, -0.028831979259848595, -0.07418256998062134, 0.335753470659256, -0.4126516878604889, 0.03823614865541458, -0.12550842761993408, 0.48881104588508606, 0.20798592269420624, -0.0668194591999054, -0.05395139381289482, -0.09289132803678513, -0.01928946003317833, 0.05076534301042557, 0.24626392126083374, -0.1475595384836197, -0.09301671385765076, -0.061127327382564545, 0.007178122643381357, -0.21947918832302094, 0.02563718892633915, -0.08434650301933289, 0.15110547840595245, -0.03634253516793251, -0.12730132043361664, -0.08269259333610535, 0.3335014581680298, 0.18795794248580933, -0.011874532327055931, -0.011141716502606869, 0.15518710017204285, 0.12705573439598083, 0.02965839020907879, 0.3871268630027771, -0.06466372311115265, -0.022568726912140846, -0.20119331777095795, -0.2061067819595337, -0.18176990747451782, -0.009370294399559498, 0.10153008252382278, 0.24524302780628204, -0.07953642308712006, -0.026868699118494987, -0.037122081965208054, -0.18785688281059265, -0.09556712955236435, 0.12573595345020294, -0.0112696448341012, -0.08436299115419388, 0.44308361411094666, -0.059206899255514145, 0.14738880097866058, 0.007162337191402912, 0.12269481271505356, -0.35683509707450867, -0.2782260477542877, -0.25644320249557495, 0.17966477572917938, 0.0075528984889388084, -0.20225411653518677, -0.1991702914237976, 0.12624113261699677, 0.154744952917099, -0.2810283899307251, -0.12191642820835114, 0.3513801395893097, 0.17459550499916077, -0.219525545835495, -0.2480217069387436, 0.001565595273859799, 0.09400974214076996, 0.05690676346421242, 0.32080331444740295, 0.16660436987876892, 0.3435755670070648, 0.014054456725716591, -0.005684705916792154, -0.14840300381183624, -0.08672893792390823, 0.0838049128651619, -0.20379625260829926, -0.009803247638046741, 0.308431476354599, 0.2080092579126358, 0.21164336800575256, -0.04130087420344353, -0.0016308047343045473, 0.1467529833316803, 0.20183895528316498, 0.049691226333379745, -0.06135585531592369, 0.09921035915613174, 0.025986189022660255, 0.12229142338037491, -0.15792137384414673, 0.22497457265853882, 0.015541380271315575, -0.14087750017642975, -0.1506786197423935, 0.23984427750110626, -0.08912986516952515, 0.28902390599250793, -0.19551163911819458, 0.2525545656681061, 0.2207433134317398, 0.10309872031211853, 0.10671679675579071, -0.011178217828273773, 0.0024553057737648487, -0.4272293746471405, -0.1777021288871765, -0.2684051990509033, 0.13100086152553558, 0.09306277334690094, -0.07907938957214355, -0.2270125448703766, 0.09897104650735855, 0.011766557581722736, 0.0897325947880745, -0.1357363909482956, 0.20521683990955353, -0.30738139152526855, 0.11559860408306122, 0.07243109494447708, -0.09923397749662399, 0.006017249543219805, -0.22551605105400085, -0.1951463520526886, -0.042221371084451675, -0.12323175370693207, -0.044840432703495026, -0.030818495899438858, 0.32553166151046753, 0.09490390866994858, 0.09731189161539078, 0.37132376432418823, 0.19059208035469055, 0.049313608556985855, -0.10374718904495239, -0.07494620233774185, 0.2372419685125351, 0.06808312982320786, -0.15523545444011688, 0.11588133871555328, 0.07096485793590546, -0.06195778399705887, 0.04613187536597252, -0.07552294433116913, 0.06880977749824524, -0.046550851315259933, -0.13115747272968292, 0.13031770288944244, -0.025168130174279213, 0.155562162399292, 0.10586880892515182, 0.006591100245714188, 0.10303771495819092, 0.15305159986019135, 0.04590151831507683, 0.19956718385219574, -0.03540072590112686, 0.043192099779844284, -0.10908282548189163, 0.3432244062423706, 0.016524143517017365, 0.1412903070449829, 0.042603541165590286, 0.0576041080057621, -0.038568105548620224, 0.1291966587305069, -0.10075972229242325, 0.04604776203632355, -0.22877945005893707, -0.0216883085668087, -0.006828564219176769, -0.050933849066495895, 0.18179477751255035, -0.4178527593612671, 0.1112181767821312, 0.051090408116579056, -0.3815266489982605, 0.11219345778226852, -0.21966594457626343, 0.28509047627449036, 0.2535116374492645, -0.07803842425346375, -0.10410615801811218, 0.0015504732728004456, 0.10361871123313904, 0.012691575102508068, -0.14787684381008148, 0.2084294855594635, 0.1746225506067276, -0.4049147665500641, 0.1752152293920517, -0.09228222817182541, -0.28213509917259216, 0.1973097026348114, -0.1042386069893837, 0.06576798111200333, -0.30829447507858276, -0.16053520143032074, -0.20822161436080933, 0.036663610488176346, 0.056799039244651794, 0.33717161417007446, -0.10322538018226624, 0.12425781786441803, 0.11392652243375778, -0.6257207989692688, 0.04978571832180023, -0.05619625374674797, -0.06017187610268593, -0.0998915284872055, 0.07442175596952438, 0.07257308810949326, 0.09087701141834259, -0.11952494084835052, 0.039105478674173355, 0.18562987446784973, 0.19976988434791565, 0.06233490630984306, -0.20180460810661316, 0.05995922163128853, 0.2645000219345093, 0.0501348152756691, 0.008903317153453827, 0.1202491894364357, -0.15771707892417908, 0.001874488894827664, 0.1780582219362259, -0.2236366868019104, -0.29403990507125854, -0.14685958623886108, 0.09105870127677917, -0.13213317096233368, -0.14903971552848816, 0.07849840819835663, -0.26871439814567566, -0.133092999458313, 0.09785901755094528, 0.04490569978952408, -0.13626202940940857, 0.02977600134909153, 0.24805030226707458, 0.03891189768910408, -0.22795867919921875, 0.10775105655193329, 0.35005223751068115, -0.10526213049888611, 0.1536913812160492, -0.05893610417842865, -0.2111518532037735, 0.26289692521095276, -0.6042001843452454, 0.11239156126976013, 0.01865100860595703, -0.05143914371728897, 0.12768444418907166, 0.199825257062912, -0.07810947299003601, 0.009082038886845112, 0.0007092471932992339, -0.005023174919188023, 0.22981472313404083, -0.3194909691810608, 0.02757144346833229, 0.17550741136074066, 0.018746240064501762, -0.050804056227207184, 0.14346550405025482, 0.31181490421295166, -0.141226664185524, -0.2813103497028351, -0.056574951857328415, 0.13284432888031006, 0.09549158066511154, -0.07641726732254028, -0.029071923345327377, -0.28160157799720764, -0.19021643698215485, -0.02737850695848465, -0.031119264662265778, 0.03988860175013542, -0.3066212832927704, 0.05560525506734848, 0.20328903198242188, -0.17996039986610413, -0.073199562728405, 0.10571251064538956, 0.031641893088817596, -0.23908977210521698, -0.0619698092341423, 0.12708783149719238, -0.07973507046699524, 0.08754720538854599, 0.01055844221264124, 0.2955153286457062, -0.014692196622490883, -0.2667052447795868, -0.1847590059041977, -0.042914070188999176, 0.2241305559873581, -0.0980578362941742, 0.2189446985721588, 0.01222440879791975, -0.29225391149520874, -0.03378535062074661, -0.4012369215488434, -0.15743589401245117, 0.09900081157684326, 0.035398103296756744, -0.21559704840183258, 0.1331363171339035, -0.017166487872600555, 0.1644705832004547, 0.21248815953731537, -0.02307134121656418, 0.004223146475851536, -0.02122296392917633, 0.03839411586523056, 0.10475307703018188, 0.08892347663640976, 0.10579249262809753, 0.3771250545978546, 0.11165871471166611, 0.053043149411678314, -0.27208244800567627, 0.1254180371761322, 0.07989145070314407, 0.3269670903682709, 0.03937119245529175, 0.03771170228719711, 0.07890288531780243, 0.2243291139602661, 0.031668771058321, -0.12363794445991516, 0.15521731972694397, 0.12789084017276764, -0.10397224128246307, -0.12895596027374268, 0.023839082568883896, 0.06378093361854553, -0.03995417058467865, 0.06202312931418419, -0.030997958034276962, -0.4382747411727905, -0.08515740931034088, 0.005804832559078932, -0.18443267047405243, 0.05868813768029213, 0.15318703651428223, -0.11045357584953308, -0.06455258280038834, -0.09841315448284149, -0.08341056853532791, 0.08118246495723724, 0.16368114948272705, -0.03870264068245888, -0.10405878722667694, -0.05709407106041908, 0.07062189280986786, -0.04817711561918259, 0.23333843052387238, -0.1884956806898117, -0.1919012814760208, -0.03688658028841019, -0.04530388489365578, 0.04506652429699898, -0.1650071144104004, -0.035276830196380615, -0.26423606276512146, 0.43290990591049194, 0.010781493037939072, 0.01877090334892273, 0.2109212428331375, -0.2547910809516907, -0.09180489927530289, 0.025943437591195107, -0.13774366676807404, 0.19224394857883453, 0.03483434394001961, -0.10818064212799072, -0.32932767271995544, 0.19536377489566803, -0.04806347191333771, -0.2607680857181549, -0.1645927131175995, -0.12641003727912903, 0.27356308698654175, -0.4081558287143707, 0.011515691876411438, 0.2003917247056961, 0.0352000966668129, 0.03296817094087601, 0.1391322910785675, -0.10441136360168457, 0.06632155925035477, 0.12330159544944763, 0.2145088165998459, -0.2560291886329651, 0.1768532246351242, -0.10131306201219559, -0.25134938955307007, -0.04713151976466179, 0.06845758110284805, -0.05021963641047478, -0.2112591564655304, 0.08225349336862564, -0.30526015162467957, 0.025438806042075157, 0.4224087595939636, -0.10891123861074448, 0.257309228181839, -0.21764594316482544, -0.029149608686566353, -0.15712970495224, 0.0637737363576889, -0.020916011184453964, 0.061155326664447784, -0.20292869210243225, 0.13517314195632935, -0.15857796370983124, 0.002530924277380109, -0.14641296863555908, -0.16760198771953583, -0.34451544284820557, -0.48353511095046997, -0.17245352268218994, 0.2201300859451294, -0.14431132376194, -0.08082139492034912, -0.02460353448987007, -0.033194176852703094, 0.10645837336778641, -0.13001403212547302, 0.15455706417560577, 0.011702489107847214, 0.054537851363420486, -0.06901980191469193, 0.04364313557744026, 0.1305268257856369, -0.06468658149242401, -0.24282820522785187, 0.12488271296024323, 0.02779981680214405, 0.16593053936958313, -0.3578374683856964, 0.0820469781756401, -0.05622660741209984, 0.09932955354452133, -0.2622317671775818, -0.024770541116595268, -0.19680900871753693, 0.040754951536655426, -0.16978199779987335, 0.1381436288356781, -0.06099396198987961, 0.1037527546286583, 0.06604598462581635, -0.07553651928901672, 0.019558381289243698, -0.18189695477485657, -0.32144808769226074, 0.025451933965086937, -0.15819288790225983, -0.21608303487300873, 0.17918597161769867, 0.10897421836853027, -0.005591388791799545, -0.09223901480436325, -0.13339373469352722, 0.26058515906333923, -0.1318357139825821, 0.08132527023553848, 0.02861214615404606, -0.08528860658407211, 0.2985251545906067, -0.237418532371521, 0.21592341363430023, -0.36505597829818726, 0.17002902925014496, -0.15013529360294342, 0.10068691521883011, 0.21237236261367798, 0.3014686107635498, -0.14759257435798645, 0.23278839886188507, 0.2157023847103119, 0.022494923323392868, 0.20337839424610138, -0.559760332107544, 0.04989498481154442, -0.1517328917980194, -0.10541296750307083, -0.11293119192123413, -0.2112119346857071, 0.054078422486782074, 0.09279808402061462, -0.07095946371555328, -0.010635391809046268, 0.1801246851682663, -0.256191611289978, -0.12294694781303406, -0.1417986899614334, -0.015587901696562767, 0.21814493834972382, 0.025801002979278564, -0.02683303877711296, -0.06538178026676178, -0.25051411986351013, 0.24473771452903748, -0.657721221446991, 0.26991045475006104, 0.014081445522606373, 0.1098572239279747, 0.04562239348888397, -0.1453608274459839, -0.037066500633955, -0.35243770480155945, 0.06260211765766144, 0.1193370595574379, -0.31629979610443115, 0.2057552933692932, 0.5752295255661011, 0.32144641876220703, 0.01812020130455494, 0.14152324199676514, -0.23378072679042816, -0.22324238717556, -0.11382480710744858, 0.24054870009422302, -0.21038028597831726, 0.2220451384782791, -0.12711675465106964, 0.19247472286224365, 0.27052614092826843, -0.010278407484292984, -0.13136450946331024, -0.1887441873550415, 0.3434044420719147, -0.06653053313493729, 0.04982499033212662, 0.1973840445280075, 0.2554553747177124, 0.09083499014377594, 0.23607277870178223, 0.03597794100642204, 0.09339502453804016, 0.34965094923973083, 0.08547961711883545, -0.27163073420524597, -0.04337722063064575, -0.028727924451231956, -0.1706230193376541, 0.1582890897989273, -0.12379584461450577, 0.01208699680864811, -0.20816682279109955, -0.06349705904722214, 0.12282992899417877, 0.252397745847702, -0.34973615407943726, -0.2104896903038025, 0.08905913680791855, -0.24106672406196594, -0.3739185035228729, -0.14496247470378876, 0.052129629999399185, 0.3748461902141571, 0.12783287465572357, -0.042830802500247955, -0.2084868848323822, 0.20863132178783417, 0.3331637382507324, -0.22840575873851776, -0.4684000313282013, 0.08056409657001495, 0.04815947636961937, -0.04712403565645218, 0.16729708015918732, -0.07616565376520157, -0.05807201936841011, 0.164601668715477, 0.04689105972647667, -0.022347336634993553, -0.42843523621559143, -0.32104673981666565, 0.06068906933069229, 0.4595862030982971, -0.17422416806221008, 0.023448491469025612, 0.06767600774765015, 0.009073099121451378, -0.17387188971042633, -0.09414120763540268, -0.1426536738872528, 0.03465858846902847, -0.3054167330265045, 0.1579338163137436, 0.04925383999943733, 0.050382841378450394, 0.15554124116897583, -0.07647296786308289, -0.10031759738922119, -0.1367860585451126, 0.0038661404978483915, 0.2317975014448166, 0.04138109087944031, 0.12001249939203262, 0.08243701606988907, 0.08536823093891144, 0.03554697334766388, 0.19796976447105408, -0.06180160492658615, -0.08013332635164261, -0.11463245004415512, -0.7587584853172302, -0.0026145358569920063, -0.33983826637268066, 0.18397502601146698, -0.10953634232282639, 0.06023478880524635, -0.0812787339091301, 0.0020310396794229746, 0.17989110946655273, 0.24373385310173035, -0.1705860048532486, -0.07814519852399826, 0.01332307979464531, 0.0358789898455143, 0.17998568713665009, 0.05585424602031708, -0.07441557198762894, 0.07368046045303345, 0.2523626983165741, 0.09487435966730118, 0.1552230715751648, -0.27395638823509216, 0.08504883944988251, -0.03108619898557663, -0.22298617660999298, -0.2985585033893585, 0.12524299323558807, 0.0721549466252327, 0.11618449538946152, -0.189214289188385, -0.11656763404607773, -0.06568372249603271, -0.06274252384901047, -0.28621557354927063, -0.17448624968528748, 0.1431088000535965, 0.23576867580413818, -0.05616966634988785, -0.07581968605518341, 0.20670801401138306, 0.0023510674946010113, -0.09012708067893982, -0.20831388235092163, -0.2563549876213074, -0.39493703842163086, 0.3652583360671997, 0.14956295490264893, -0.2620009779930115, 0.17604480683803558, -0.33107995986938477, 0.0024186798837035894, 0.00479886494576931, 0.05709380656480789, -0.015721214935183525, 0.21503688395023346, 0.004828367382287979, -0.1380470246076584, 0.05304804444313049, 0.1820637285709381, -0.18859244883060455, 0.06418146193027496, 0.10670340061187744, 0.032804545015096664, -0.19567199051380157, 0.08110574632883072, -0.14109587669372559, 0.02014044299721718, 0.09151855856180191, 0.05193311348557472, 0.22893141210079193, 0.28948840498924255, 0.04905727133154869, -0.20471026003360748, 0.0371352881193161, 0.17023588716983795, 0.20191219449043274, 0.4038240611553192, 0.2562065124511719, -0.2136293351650238, -0.1491526961326599, -0.29496780037879944, -0.009445599280297756, -0.07095719873905182, 0.2077813446521759, 0.04807142913341522, -0.18274541199207306, 0.08537708222866058, 0.03115946054458618, -0.01577671244740486, 0.15921002626419067, 0.2085815966129303, 0.04348856955766678, 0.24596722424030304, 0.21765273809432983, -0.2039150446653366, 0.031652748584747314, 0.13639511168003082, 0.057429004460573196, -0.1340988725423813, 0.14005154371261597, -0.27893880009651184, -0.1339251548051834, -0.25145405530929565, -0.39825236797332764, 0.05178792029619217, -0.2122858762741089, -0.18254883587360382], "bnGammaA": [1.1110618114471436, 1.244300127029419, 1.8535088300704956, 1.547928810119629, 1.6450453996658325, 1.5149492025375366, 1.0750174522399902, 1.5810363292694092, 1.3176566362380981, 1.3329554796218872, 1.3484172821044922, 1.9140214920043945, 1.7776424884796143, 1.2366752624511719, 1.015102505683899, 3.0986969470977783], "convKernelB": [-0.07624649256467819, 0.05176850035786629, -0.21871761977672577, -0.1302509605884552, 0.025571756064891815, 0.08383054286241531, -0.03518414869904518, 0.07940075546503067, 0.16739197075366974, 0.1425742655992508, 0.20484410226345062, 0.15236282348632812, -0.052302874624729156, 0.1406428962945938, -0.09981031715869904, 0.029081780463457108, -0.15273211896419525, -0.0408300943672657, -0.1453581303358078, 0.11000499129295349, 0.1549915075302124, -0.0049822693690657616, -0.1628524661064148, -0.1909927874803543, 0.05151588097214699, 0.008565418422222137, 0.07433855533599854, 0.051456768065690994, 0.16124072670936584, 0.0771324411034584, -0.12048690766096115, 0.16350598633289337, 0.1860937625169754, -0.11649326235055923, -0.0788537934422493, 0.18882332742214203, 0.13467243313789368, 0.10329622775316238, 0.022404106333851814, 0.15628930926322937, 0.046645037829875946, -0.06746052950620651, 0.1320142298936844, 0.14804024994373322, -0.04136086627840996, 0.2350986897945404, 0.0866052508354187, -0.07442418485879898, -0.1394139677286148, -0.038322508335113525, 0.3004050552845001, 0.08986415714025497, 0.018817927688360214, -0.13584008812904358, -0.24923303723335266, -0.03632745146751404, 0.06343204528093338, 0.01746046543121338, -0.06693896651268005, 0.251131534576416, 0.32363808155059814, -0.10336396843194962, -0.001091569778509438, 0.1589212566614151, 0.09026221930980682, -0.2923273742198944, 0.0511377789080143, 0.1470487266778946, 0.14836615324020386, 0.03729547560214996, -0.08331939578056335, 0.03220400959253311, 0.053626906126737595, 0.12176070362329483, 0.07426784187555313, 0.27294614911079407, 0.06115245819091797, -0.053708117455244064, 0.18932563066482544, -0.17054909467697144, 0.23371775448322296, 0.16777817904949188, 0.1738385558128357, 0.3787161707878113, 0.12589341402053833, 0.20184831321239471, 0.15657249093055725, 0.1136428564786911, -0.29537028074264526, 0.19637982547283173, 0.09544707834720612, 0.30340859293937683, 0.37734586000442505, 0.16331623494625092, 0.295887291431427, -0.13106726109981537, -0.09459685534238815, -0.28776291012763977, -0.02661525458097458, 0.16099026799201965, 0.07710921764373779, 0.091432124376297, -0.02524014748632908, -0.07382447272539139, -0.10418879240751266, 0.009856553748250008, 0.11752702295780182, -0.027827221900224686, -0.03336099162697792, 0.018808487802743912, -0.17854654788970947, 0.07714766263961792, -0.020323997363448143, -0.012023694813251495, -0.06105538085103035, -0.16338689625263214, 0.003905366873368621, -0.06969619542360306, 0.029497990384697914, -0.030478380620479584, 0.005003680009394884, -0.02374066226184368, -0.0025820310693234205, 0.14055244624614716, 0.08026233315467834, 0.15907177329063416, -0.024873800575733185, 0.1297537386417389, -0.058891959488391876, -0.24447639286518097, 0.07919309288263321, -0.1175592690706253, -0.0380353108048439, 0.0220318716019392, -0.0042069535702466965, 0.06921292841434479, 0.10911720991134644, 0.021418938413262367, 0.06357719004154205, -0.05208840221166611, -0.10629040002822876, -0.024967456236481667, -0.0429585799574852, 0.09257078915834427, 0.060229286551475525, -0.1311110109090805, -0.09789133816957474, -0.34919580817222595, -0.2681950628757477, -0.14702211320400238, -0.1809488832950592, -0.07147859781980515, -0.11364536732435226, 0.0467255599796772, -0.12118683755397797, -0.18706803023815155, -0.14179635047912598, 0.07482815533876419, -0.3618418574333191, 0.015645600855350494, -0.18285124003887177, -0.24429777264595032, 0.24514204263687134, 0.21782083809375763, -0.20974381268024445, 0.18383841216564178, 0.009886732324957848, 0.2511119544506073, -0.21797096729278564, 0.07006295770406723, 0.06041363999247551, -0.01840934529900551, 0.04689141362905502, 0.1364847868680954, -0.20900769531726837, 0.12252619117498398, 0.0014003337128087878, 0.10321532189846039, -0.0049815708771348, 0.04460328072309494, -0.1420598328113556, -0.046712882816791534, 0.02835305780172348, -0.1391170173883438, 0.03082857094705105, 0.18794304132461548, 0.03370654210448265, 0.07100791484117508, 0.2268896996974945, -0.11478644609451294, 0.01562586985528469, 0.10156836360692978, 0.1763102263212204, -0.22319436073303223, 0.005833381786942482, 0.044440846890211105, -0.047058869153261185, -0.10115896165370941, -0.2635830044746399, 0.320982962846756, 0.07205469161272049, 0.01032217126339674, 0.05302750691771507, -0.024437937885522842, 0.14483924210071564, -0.015487962402403355, 0.0026397318579256535, -0.15871606767177582, -0.016735486686229706, 0.05931948125362396, 0.029792314395308495, 0.04031052812933922, -0.2909097671508789, -0.00983976386487484, -0.14762726426124573, -0.385189026594162, 0.1558036208152771, -0.004780460614711046, 0.2904631793498993, 0.2089809626340866, 0.11829392611980438, -0.0023982259444892406, 0.03257974237203598, 0.1847599893808365, 0.22195245325565338, 0.01759793981909752, 0.0038417887408286333, -0.0127392103895545, -0.04348592087626457, -0.0560544990003109, -0.06303218752145767, -0.12206045538187027, 0.04576198011636734, 0.0717625617980957, 0.18226517736911774, 0.15606853365898132, -0.23964278399944305, -0.19025474786758423, 0.09703969955444336, 0.0807705819606781, -0.2204473465681076, -0.08072082698345184, -0.10638979077339172, 0.19019421935081482, -0.09872100502252579, -0.07294028997421265, 0.027884434908628464, -0.012363741174340248, -0.017460282891988754, 0.033786602318286896, 0.1917855441570282, -0.00025176757480949163, -0.1303122341632843, -0.061403434723615646, -0.1594754457473755, 0.16458483040332794, -0.1738034039735794, -0.015894927084445953, 0.005830949638038874, 0.009139453060925007, 0.14326739311218262, 0.14559432864189148, -0.19158302247524261, 0.0025420752353966236, 0.10749877989292145, 0.10723812133073807, 0.18255352973937988, -0.10368526726961136, 0.29774510860443115, -0.003410815028473735, -0.13138170540332794, 0.05306725576519966, -0.10805034637451172, -0.0995122417807579, 0.25890737771987915, -0.04652147367596626, -0.02183031477034092, 0.05953916534781456, -0.03051580861210823, 0.23311401903629303, -0.09373436123132706, -0.10217645764350891, -0.014835601672530174, -0.3204319477081299, -0.03223481774330139, -0.02818131074309349, -0.6034537553787231, 0.10008122771978378, -0.14733484387397766, -0.14921468496322632, -0.06704940646886826, -0.04785436391830444, 0.03145349398255348, 0.040951136499643326, 0.07620049268007278, 0.1986362338066101, -0.2421097457408905, 0.05318500101566315, 0.11243165284395218, 0.018131840974092484, 0.036579471081495285, 0.14448164403438568, 0.11422073096036911, -0.13939577341079712, -0.0017639425350353122, -0.04736436903476715, -0.14657020568847656, 0.055962976068258286, -0.0642634704709053, -0.07254762947559357, 0.08797618001699448, 0.021793372929096222, 0.05284533277153969, 0.00018731730233412236, -0.06416350603103638, -0.041280489414930344, -0.1482585221529007, -0.28371313214302063, 0.026622610166668892, -0.03195595368742943, -0.10725148767232895, -0.39163580536842346, -0.07833058387041092, 0.15769091248512268, -0.2982576787471771, -0.006412073969841003, 0.1434699147939682, -0.06248647719621658, 0.05342041701078415, -0.006578986998647451, 0.02547062560915947, -0.006643908564001322, 0.09553485363721848, -0.10335052013397217, -0.14658524096012115, -0.14734935760498047, 0.18914543092250824, 0.20727786421775818, 0.12023080140352249, 0.17694991827011108, -0.2345476895570755, -0.2664850950241089, -0.09351567178964615, 0.19345742464065552, -0.23697610199451447, 0.20062954723834991, -0.05555574968457222, -0.16795378923416138, 0.12930794060230255, -0.2714885175228119, 0.049810584634542465, -0.25053855776786804, 0.03620760515332222, 0.13244670629501343, 0.06497662514448166, 0.06398697942495346, -0.03620661422610283, 0.14551334083080292, -0.06808282434940338, -0.12398424744606018, 0.11809596419334412, 0.02825181931257248, -0.045896951109170914, 0.4028520882129669, -0.21989166736602783, 0.08721944689750671, 0.11734366416931152, 0.07082711905241013, -0.060585975646972656, -0.14699599146842957, 0.24584202468395233, -0.18492773175239563, -0.18683961033821106, -0.14545553922653198, 0.1696065068244934, -0.089754119515419, -0.050868622958660126, -0.06628578901290894, -0.16979821026325226, -0.05452656000852585, 0.05077018588781357, 0.021340161561965942, -0.016376294195652008, -0.041631538420915604, -0.03263142332434654, -0.03836851194500923, -0.15161742269992828, 0.2751028835773468, 0.10329261422157288, -0.034815870225429535, 0.029688751325011253, -0.1442061960697174, -0.18314048647880554, 0.11867807805538177, 0.17392206192016602, 0.1460525393486023, 0.21470090746879578, 0.11269925534725189, -0.15564346313476562, 0.18881988525390625, -0.0003650671278592199, -0.08131034672260284, 0.2271088808774948, -0.08523404598236084, -0.010360287502408028, -0.16243666410446167, 0.07727785408496857, -0.4058656692504883, 0.27748480439186096, -0.2202633023262024, -0.043057139962911606, -0.1992739886045456, -0.09035573154687881, 0.04434572532773018, 0.05951204150915146, -0.2546696662902832, 0.07159244269132614, 0.06737302988767624, 0.0444110631942749, 0.03138604387640953, 0.20560258626937866, -0.058557361364364624, 0.11728783696889877, -0.04329890012741089, -0.11707423627376556, -0.026390960440039635, -0.18642905354499817, 0.10090242326259613, 0.08879739046096802, -0.16739162802696228, 0.005336173810064793, -0.07650993019342422, 0.029269883409142494, 0.07163725793361664, -0.04586242139339447, -0.028312182053923607, -0.13001127541065216, 0.024979060515761375, 0.08183296024799347, -0.012287233024835587, -0.028435304760932922, -0.2018936276435852, -0.029241209849715233, 0.05525349825620651, -0.30527687072753906, 0.0731026902794838, 0.19969184696674347, -0.06503120064735413, -0.15402816236019135, 0.15839870274066925, 0.1305411458015442, -0.07437118887901306, -0.024922722950577736, 0.08382678776979446, 0.06361886858940125, 0.051840756088495255, 0.06625532358884811, 0.14070071280002594, -0.027170954272150993, -0.003573150373995304, -0.015357284806668758, -0.05881283059716225, 0.0014642666792497039, -0.009599660523235798, 0.06037551537156105, -0.02078343741595745, -0.07873556762933731, 0.08540477603673935, 0.034851931035518646, 0.11089882254600525, -0.15645745396614075, 0.053035054355859756, 0.1288105845451355, 0.05311648175120354, 0.13241638243198395, -0.22032533586025238, -0.053184788674116135, -0.11398998647928238, -0.05349457636475563, 0.040534958243370056, 0.1962156742811203, 0.2683751583099365, -0.16251470148563385, -0.03522136062383652, -0.12937888503074646, 0.06904678046703339, -0.17154666781425476, 0.07169654220342636, 0.0909198522567749, 0.047222018241882324, 0.1717609316110611, -0.09245341271162033, 0.10417848825454712, 0.2529720664024353, -0.014316493645310402, -0.07017495483160019, 0.07176456600427628, -0.14891241490840912, -0.11735774576663971, 0.12755945324897766, -0.0701836422085762, 0.14952881634235382, -0.32931259274482727, 0.0586947463452816, 0.022187869995832443, 0.034582387655973434, 0.1778992861509323, 0.05259214714169502, -0.14293254911899567, -0.06448131799697876, 0.0818026140332222, 0.28556331992149353, -0.03694695234298706, 0.02114155702292919, -0.28520968556404114, -0.12993262708187103, -0.10728029906749725, 0.12153865396976471, 0.13302068412303925, 0.1334741711616516, -0.08032193779945374, -0.12874498963356018, -0.20525071024894714, -0.11611144244670868, -0.03200865164399147, 0.03895546495914459, 0.2805437743663788, 0.15533408522605896, -0.16056200861930847, -0.10417337715625763, -0.07221808284521103, -0.14410167932510376, 0.13591156899929047, 0.10035403817892075, -0.002182849682867527, 0.20774732530117035, 0.0033673648722469807, 0.18945902585983276, -0.10461518168449402, 0.08567140251398087, 0.0872257873415947, -0.13299915194511414, -0.11873288452625275, 0.23768144845962524, 0.07155261188745499, 0.19523853063583374, 0.3141137957572937, -0.18487273156642914, -0.2913292944431305, -0.13788606226444244, -0.05976087972521782, -0.0313059538602829, -0.06873318552970886, 0.14680549502372742, -0.022734930738806725, -0.26041555404663086, 0.10625109821557999, 0.1262398362159729, -0.034824054688215256, 0.11887886375188828, 0.1523199826478958, 0.13404430449008942, -0.024941137060523033, 0.02413560450077057, 0.06809794157743454, 0.1254120022058487, -0.0762404128909111, 0.1315256953239441, -0.052755385637283325, -0.01885734125971794, -0.06391572952270508, -0.044445838779211044, -0.27082207798957825, 0.15504147112369537, 0.10936283320188522, 0.01134685892611742, -0.16434374451637268, 0.11598195880651474, 0.00018443589215166867, -0.0309608094394207, -0.1392333060503006, 0.0307021401822567, 0.039901528507471085, 0.14660117030143738, 0.1398841291666031, 0.11521004140377045, 0.006011891178786755, 0.010426324792206287, 0.055841635912656784, -0.049076762050390244, -0.1332855522632599, 0.11556591093540192, 0.09122521430253983, 0.0013076671166345477, -0.0708535760641098, 0.07601197063922882, -0.06267537921667099, 0.050578244030475616, -0.13391715288162231, 0.04670671001076698, -0.1460696905851364, 0.16025660932064056, -0.16442273557186127, -0.03543303534388542, 0.26696717739105225, -0.08797279745340347, -0.11808297038078308, -0.0676412284374237, -0.15355822443962097, -0.1914803683757782, 0.2378007173538208, 0.11381803452968597, -0.13369259238243103, 0.10900327563285828, 0.04790901020169258, -0.21903392672538757, -0.10174976289272308, 0.04389433190226555, 0.11508374661207199, 0.04172747954726219, -0.03653252124786377, -0.0820189043879509, -0.12838855385780334, -0.07221091538667679, -0.23777292668819427, -0.200176402926445, -0.0014389331918209791, -0.1858980357646942, -0.07523792237043381, -0.03297194465994835, -0.2568887770175934, -0.16024687886238098, -0.05593095347285271, -0.1358899027109146, 0.08151684701442719, 0.01849474385380745, 0.16494280099868774, 0.13205671310424805, -0.0774969756603241, 0.03659171238541603, 0.07920731604099274, 0.03307434916496277, 0.00721335131675005, -0.09904053807258606, 0.1491595357656479, 0.18650738894939423, -0.27707263827323914, 0.006985920947045088, -0.04768797755241394, 0.065175361931324, -0.0571662001311779, 0.15447507798671722, -0.13337235152721405, 0.026980167254805565, 0.033979881554841995, 0.0013857120648026466, 0.05785096809267998, -0.14093352854251862, 0.11497081071138382, 0.11671927571296692, -0.06882429867982864, 0.27021363377571106, -0.08918125182390213, 0.11076116561889648, -0.14633020758628845, 0.029923206195235252, 0.012233488261699677, 0.023443154990673065, -0.014416869729757309, 0.1482878476381302, 0.18743030726909637, -0.019543586298823357, -0.1160602867603302, 0.0896400734782219, -0.10986462980508804, -0.10212282836437225, 0.08300989121198654, -0.23870253562927246, -0.06445135176181793, -0.18445979058742523, 0.21660901606082916, -0.012971468269824982, 0.19515804946422577, -0.02279590256512165, -0.02153552509844303, 0.05403313785791397, 0.037580184638500214, -0.15630167722702026, -0.03601785749197006, 0.09160441905260086, -0.04001099243760109, 0.07111208885908127, -0.12789738178253174, 0.1545720398426056, 0.08965283632278442, -0.04177695885300636, 0.1033107191324234, -0.049343518912792206, -0.0806005671620369, 0.11059771478176117, -0.09247182309627533, -0.22731032967567444, 0.07530030608177185, 0.051789648830890656, 0.26476240158081055, -0.11780320852994919, 0.08420323580503464, -0.045454785227775574, -0.1970740258693695, -0.14772269129753113, -0.1392047107219696, -0.16848881542682648, 0.3572409451007843, 0.12634432315826416, 0.05990944057703018, -0.0820617750287056, 0.034637466073036194, -0.02700107917189598, 0.08148451894521713, 0.16721339523792267, -0.24923984706401825, -0.10493616759777069, 0.03091385029256344, -0.0518941804766655, 0.2527087926864624, -0.05004149302840233, -0.09155149757862091, 0.26291510462760925, -0.3590940833091736, -0.27411332726478577, -0.07110385596752167, -0.43865320086479187, -0.113872230052948, -0.014695356599986553, -0.40954020619392395, -0.17141127586364746, -0.11335399746894836, 0.061094291508197784, -0.2409571260213852, -0.15570205450057983, -0.0860501378774643, -0.1912054568529129, 0.28194481134414673, -0.03817875310778618, -0.014520292170345783, -0.19964416325092316, -0.08928673714399338, 0.06037411466240883, -0.09995437413454056, -0.172058567404747, 0.008651350624859333, -0.17752639949321747, -0.08393315225839615, -0.026326030492782593, 0.03090464323759079, 0.11636378616094589, 0.024817997589707375, 0.15666447579860687, -0.06893235445022583, 0.11083319783210754, 0.07100453227758408, -0.2899256944656372, -0.02008345164358616, -0.012974553741514683, -0.24587306380271912, -0.034217145293951035, -0.33562472462654114, -0.2645486295223236, -0.0500265471637249, -0.026670580729842186, -0.03776766359806061, -0.351897269487381, -0.062325067818164825, -0.07507821917533875, 0.006159624084830284, 0.07451652735471725, -0.10272284597158432, 0.17820359766483307, -0.18234679102897644, 0.2044685333967209, 0.1087459921836853, 0.13325071334838867, -0.07650265097618103, -0.10192959755659103, -0.061131950467824936, 0.109685979783535, -0.1811497062444687, -0.11382628232240677, 0.0661865770816803, 0.23712578415870667, -0.06667221337556839, 0.018674299120903015, 0.0711999461054802, 0.02195010893046856, -0.17074893414974213, 0.046529464423656464, 0.12049683928489685, -0.15001657605171204, -0.07315391302108765, 0.0006243676180019975, -0.19239665567874908, -0.10759112983942032, 0.063885897397995, -0.0026347434613853693, -0.057632848620414734, -0.06059581786394119, -0.15324652194976807, 0.027196846902370453, 0.14110788702964783, 0.23772691190242767, -0.09373020380735397, -0.11216410249471664, 0.2671583592891693, 0.15371090173721313, -0.17023222148418427, 0.055531375110149384, -0.22673417627811432, 0.028215976431965828, -0.14560090005397797, -0.1817580908536911, -0.1402532160282135, 0.18274006247520447, -0.3657276928424835, -0.1861886829137802, 0.07212130725383759, 0.3330032229423523, -0.1047077402472496, 0.08060614764690399, 0.11600230634212494, -0.18880711495876312, -0.13349029421806335, 0.1972980946302414, -0.23967932164669037, -0.13048020005226135, 0.044010356068611145, 0.007610216271132231, 0.10255081206560135, -0.13417233526706696, -0.01903676427900791, 0.18345540761947632, -0.1910906434059143, 0.14035917818546295, -0.2774145007133484, -0.005529757589101791, 0.12816956639289856, 0.017177622765302658, -0.06125129386782646, 0.07018594443798065, 0.09085873514413834, -0.020666111260652542, -0.0034130821004509926, 0.2504862844944, -0.09374412894248962, -0.2438882738351822, -0.07946358621120453, -0.23008409142494202, 0.29386335611343384, 0.004530799575150013, -0.23823340237140656, 0.06868018209934235, -0.09778396040201187, -0.15732695162296295, 0.28159353137016296, 0.16799452900886536, 0.16200123727321625, 0.22509066760540009, 0.21146678924560547, 0.1640021800994873, 0.2741292119026184, 0.08352841436862946, 0.23234806954860687, 0.155306875705719, 0.070102259516716, -0.06748105585575104, -0.004198603797703981, 0.10157550871372223, -0.05302250757813454, 0.037291523069143295, 0.07956484705209732, -0.15890946984291077, 0.02741861343383789, -0.07729537039995193, -0.048799704760313034, 0.16835665702819824, 0.028245974332094193, -0.01505037397146225, 0.1323450803756714, -0.1150352954864502, 0.17733769118785858, -0.009410387836396694, 0.05283420532941818, 0.024440860375761986, -0.06473207473754883, 0.08125084638595581, 0.07065147161483765, -0.004088051617145538, -0.06492184102535248, -0.032220322638750076, -0.27287203073501587, 0.11392166465520859, 0.054342120885849, -0.06081711873412132, 0.28421249985694885, 0.03318830579519272, -0.05251765623688698, 0.10922040045261383, 0.06783214956521988, 0.05793987587094307, -0.08184747397899628, -0.09754377603530884, 0.10794533789157867, -0.018081244081258774, 0.07703042775392532, 0.1012774333357811, 0.13276992738246918, 0.24079199135303497, 0.25414860248565674, 0.20750918984413147, -0.07675488293170929, 0.2437446415424347, -0.21870851516723633, 0.1425751894712448, 0.12592358887195587, 0.15072916448116302, 0.03943628445267677, -0.15721380710601807, 0.23375965654850006, -0.02007879689335823, 0.09336180239915848, -0.15544506907463074, -0.03294329717755318, 0.0943203717470169, -0.15831314027309418, 0.0037785014137625694, -0.0867614671587944, -0.09734262526035309, 0.022333383560180664, 0.021624738350510597, 0.030096862465143204, -0.031035590916872025, -0.25201737880706787, -0.07515362650156021, 0.03406447544693947, 0.17181585729122162, -0.11886879801750183, -0.013373153284192085, -0.05682805925607681, 0.18033333122730255, 0.10231124609708786, 0.21213439106941223, -0.12194312363862991, -0.08137676864862442, 0.07806859910488129, -0.008924491703510284, 0.18305028975009918, 0.04632178321480751, 0.1456090807914734, 0.16053013503551483, -0.08435384184122086, 0.04521392285823822, 0.009140276350080967, -0.00777591485530138, 0.05431521683931351, 0.075531005859375, -0.04103311523795128, -0.054883599281311035, -0.21850480139255524, 0.04069840535521507, -0.07011760026216507, 0.3896348476409912, 0.13567639887332916, 0.02148539386689663, 0.2711668014526367, 0.06000518798828125, 0.20203153789043427, -0.05128781870007515, 0.20372581481933594, 0.06475210189819336, -0.05004113167524338, -0.0014379910426214337, -0.030490297824144363, 0.00722272926941514, -0.22232620418071747, 0.08010774105787277, -0.2256375551223755, 0.07573694735765457, 0.3578546345233917, -0.11887260526418686, 0.1659843921661377, 0.23989085853099823, -0.045769285410642624, -0.20063430070877075, -0.002644551219418645, -0.05982820689678192, -0.3037000000476837, 0.1926945298910141, -0.024700889363884926, 0.11069053411483765, -0.16461749374866486, 0.1153053417801857, -0.07910574972629547, 0.028939006850123405, 0.19435207545757294, 0.13738316297531128, -0.05923566222190857, 0.14524894952774048, -0.05912908911705017, -0.04617717117071152, -0.20847678184509277, 0.0061570084653794765, -0.16414880752563477, 0.11126581579446793, -0.058838509023189545, -0.10423583537340164, -0.12036346644163132, 0.09144145250320435, 0.1435476690530777, -0.07762832939624786, 0.22809086740016937, -0.030522005632519722, 0.12349997460842133, 0.0813438817858696, -0.023874789476394653, -0.14814384281635284, 0.003090083599090576, 0.08633378148078918, 0.03643284738063812, 0.036721646785736084, -0.030010804533958435, -0.0449550524353981, -0.01178354024887085, 0.03863154351711273, -0.02965317666530609, -0.07524199038743973, -0.07283839583396912, 0.025868728756904602, -0.06501899659633636, 0.1029946357011795, 0.026823759078979492, 0.0954318642616272, -0.002232121303677559, 0.002089854096993804, -0.2155340015888214, 0.06585997343063354, 0.012022619135677814, -0.057183992117643356, -0.07327181845903397, -0.04381728544831276, -0.11203888803720474, 0.15184254944324493, -0.014979951083660126, 0.12314637005329132, 0.01195825170725584, 0.060577601194381714, -0.08199964463710785, 0.13687407970428467, -0.06982710212469101, 0.024960577487945557, 0.0982375293970108, -0.06048217788338661, 0.09705007076263428, 0.012929946184158325, -0.04160529002547264, 0.0671483725309372, -0.005115099251270294, 0.024220407009124756, -0.051548268646001816, -0.01721268892288208, 0.01978994905948639, 0.09476175904273987, 0.08371850848197937, 0.07637007534503937, -0.035575736314058304, -0.05698416754603386, 0.07153214514255524, -0.03494240716099739, -0.02201344445347786, 0.1321071982383728, 0.05286978930234909, -0.10431040823459625, -0.1548372507095337, -0.04886901006102562, 0.04272841289639473, 0.09680339694023132, -0.01641802489757538, 0.03291591256856918, -0.056436777114868164, -0.15788614749908447, 0.06546197831630707, -0.0030596330761909485, -0.03932661563158035, 0.0013180747628211975, -0.021721251308918, -0.0962669774889946, -0.049355391412973404, -0.03210539370775223, 0.05572338402271271, 0.06147019565105438, -0.02105860412120819, -0.05567731708288193, -0.029206708073616028, -0.10099415481090546, -0.04874041676521301, -0.05864085257053375, -0.13338914513587952, 0.05877911299467087, -0.14398455619812012, 0.022559549659490585, 0.04339900612831116, -0.05909604951739311, -0.07826260477304459, 0.1723497062921524, -0.07789014279842377, 0.002185095800086856, -0.06530649960041046, -0.11366283148527145, -0.004713862668722868, 0.033908165991306305, -0.13778863847255707, -0.10858779400587082, 0.5305213928222656, 0.6460564136505127, 0.4505901634693146, 0.14169876277446747, -0.01844143494963646, 1.1298776865005493, -0.7734299898147583, -0.17340318858623505, 0.25218674540519714, 0.0796252191066742, 0.08091595768928528, 0.06355872750282288, 0.0941084772348404, -0.6053907871246338, -0.1386450082063675, 0.601049542427063, -0.011768779717385769, 0.06252381950616837, -0.06768123060464859, 0.10413406789302826, 0.10959162563085556, -0.07127612084150314, -0.15489371120929718, 0.07926058024168015, -0.08124960213899612, 0.2813822329044342, 0.07118812203407288, 0.1320762187242508, 0.01990894041955471, 0.04289405792951584, -0.13090284168720245, -0.0054777334444224834, -0.3573154807090759, 0.10272404551506042, -0.08309102803468704, -0.09804841876029968, 0.0823776125907898, 0.14632391929626465, 0.3442544639110565, 0.15300971269607544, -0.2903428375720978, -0.12184861302375793, 0.09593667089939117, -0.09494679421186447, 0.07646265625953674, 0.1678943783044815, -0.19325518608093262, -0.010228937491774559, -0.06181507185101509, -0.03617223724722862, 0.1739528626203537, 0.040190573781728745, 0.11286978423595428, -0.003423284972086549, 0.08905880153179169, -0.028994489461183548, -0.08717665076255798, -0.14719711244106293, -0.04033776745200157, 0.1024148166179657, -0.04818939417600632, -0.04677707329392433, 0.08611118793487549, 0.011965764686465263, -0.2322874218225479, -0.22806812822818756, -0.11906197667121887, 0.05508698895573616, 0.22992974519729614, 0.13518746197223663, -0.3192498981952667, 0.025790613144636154, -0.13995374739170074, -0.26325035095214844, 0.12455631792545319, 0.04446850344538689, 0.11621932685375214, 0.3256177306175232, -0.04533589258790016, 0.07018879801034927, -0.1175968125462532, 0.2364179790019989, -0.09988467395305634, -0.022602763026952744, -0.1143297627568245, -0.050241004675626755, -0.1140548512339592, 0.17401473224163055, -0.035103268921375275, -0.182551771402359, -0.055568110197782516, -0.1871551275253296, 0.1372688263654709, -0.021000361070036888, -0.0767778530716896, -0.1643979400396347, 0.021644555032253265, -0.09772542119026184, 0.09096650779247284, 0.10059221088886261, -0.09155600517988205, -0.09463150054216385, -0.00781344622373581, -0.05337400361895561, 0.050163328647613525, 0.08089306950569153, -0.054864659905433655, 0.07895644009113312, 0.10172438621520996, 0.03429596126079559, -0.03857189416885376, -0.02201664447784424, 0.016031639650464058, 0.18819685280323029, 0.024597272276878357, -0.0759037509560585, -0.08579368144273758, -0.23658402264118195, 0.03759551793336868, -0.5578408241271973, 0.2285318821668625, -0.09165889024734497, 0.13396891951560974, 0.10743381828069687, -0.04426960647106171, -0.012136450037360191, 0.026586342602968216, -0.2544885575771332, -0.054183632135391235, -0.1285751909017563, -0.04790118336677551, -0.12775719165802002, 0.07533738017082214, 0.2011430263519287, -0.081097811460495, 0.06402740627527237, 0.09395542740821838, 0.015279383398592472, -0.007191510871052742, -0.02902255579829216, -0.056784890592098236, -0.027215344831347466, -0.0697355717420578, -0.02205701172351837, -0.15016290545463562, 0.02128475531935692, 0.13868415355682373, 0.16232839226722717, 0.17473097145557404, 0.08212170749902725, -0.15293273329734802, -0.034204721450805664, 0.06811442971229553, 0.02424653060734272, 0.13496775925159454, 0.14576533436775208, 0.21216212213039398, 0.12642455101013184, -0.21047651767730713, 0.012131036259233952, -0.020070521160960197, -0.024448327720165253, 0.09341000020503998, 0.004044815897941589, 0.08932316303253174, -0.004268404096364975, -0.07094399631023407, 0.1833512932062149, 0.04277336597442627, -0.077107273042202, 0.032221946865320206, 0.2627641260623932, 0.06991292536258698, 0.07104015350341797, 0.048957232385873795, -0.04941369965672493, -0.14999820291996002, -0.07893861085176468, 0.2759048640727997, -0.15870414674282074, 0.15883074700832367, -0.022022277116775513, -0.1406507045030594, -0.04620717465877533, 0.0111978305503726, 0.07497995346784592, -0.19508670270442963, 0.31611281633377075, 0.34147635102272034, 0.10884256660938263, -0.14407138526439667, 0.09744423627853394, 0.06745456904172897, -0.22174353897571564, 0.13245907425880432, 0.17544615268707275, 0.043665140867233276, 0.11653699725866318, 0.1300462782382965, 0.04870565980672836, 0.018452759832143784, 0.24724136292934418, 0.03724781796336174, 0.07479242980480194, -0.048224613070487976, 0.0411454513669014, 0.04267244040966034, -0.2038310319185257, 0.10135239362716675, 0.07832042127847672, 0.20637613534927368, 0.11355646699666977, 0.28269457817077637, 0.11026180535554886, 0.31558752059936523, 0.10801929235458374, -0.2832833230495453, 0.2909141182899475, -0.03394438326358795, 0.14861860871315002, 0.22540059685707092, -0.01901826821267605, 0.162804514169693, -0.05308156460523605, -0.03254171833395958, -0.2359171062707901, -0.07056967914104462, 0.20201998949050903, 0.023757249116897583, -0.007487915456295013, -0.0845702588558197, 0.03154284507036209, -0.0502471886575222, -0.07077350467443466, 0.07197693735361099, -0.05105147510766983, -0.14864088594913483, -0.02979644574224949, -0.07119111716747284, -0.09473717957735062, -0.09470130503177643, 0.08182915300130844, 0.05321567505598068, -0.10005416721105576, 0.02919299714267254, -0.2268294245004654, 0.03837817162275314, -0.26769107580184937, 0.005151653196662664, 0.0047040460631251335, -0.08161395788192749, 0.10670901089906693, 0.15456326305866241, 0.16935192048549652, -0.07216279953718185, 0.05021258071064949, 0.05853080749511719, -0.07108059525489807, 0.01830548793077469, 0.06961193680763245, 0.0024721152149140835, 0.027793405577540398, -0.03184584528207779, 0.12452559173107147, 0.019595054909586906, 0.11632829904556274, 0.0474768690764904, -0.081015944480896, -0.022123809903860092, 0.05422985553741455, -0.12040812522172928, -0.15956632792949677, -0.07207980751991272, -0.13965944945812225, -0.013115559704601765, -0.3044705092906952, -0.2123410999774933, -0.12162831425666809, -0.09636624157428741, -0.010176175273954868, -0.09976188838481903, -0.16380798816680908, -0.12834502756595612, -0.2927597463130951, -0.09970515221357346, -0.11048466712236404, -0.2657398581504822, 0.04725368320941925, -0.22163331508636475, -0.11000370234251022, 0.12402720749378204, 0.12802386283874512, -0.14054708182811737, 0.2933667302131653, -0.00959471333771944, 0.12413422018289566, -0.019381366670131683, -0.050151411443948746, 0.1814514696598053, 0.002626216970384121, 0.00953984446823597, 0.09630341827869415, -0.1586989015340805, 0.10230236500501633, 0.05123380199074745, 0.06361836940050125, -0.06716897338628769, 0.09886626899242401, -0.2174060344696045, -0.02912410907447338, -0.050381556153297424, 0.13930179178714752, 0.1245570257306099, 0.20333139598369598, 0.12064523994922638, -0.015254314057528973, 0.11370250582695007, -0.03739496320486069, -0.001494270283728838, 0.06453999876976013, -0.07436180114746094, -0.163694366812706, -0.2257084846496582, 0.05634148791432381, 0.08162914216518402, -0.0641331896185875, -0.1467197686433792, 0.17473730444908142, 0.05871017649769783, 0.0277547724545002, -0.0956633910536766, -0.018903782591223717, 0.19266517460346222, -0.10264094173908234, -0.11830290406942368, -0.2081138789653778, -0.09935715049505234, 0.06859524548053741, 0.10935309529304504, -0.027957281097769737, -0.08377307653427124, -0.062022432684898376, -0.15852388739585876, -0.3202574551105499, 0.10707630962133408, -0.1427440494298935, 0.04387299716472626, 0.2174401581287384, -0.07875175774097443, -0.03502822294831276, 0.21113598346710205, 0.25184163451194763, -0.11483307927846909, -0.03399449214339256, -0.008863244205713272, -0.11735574901103973, -0.09075027704238892, -0.007745922543108463, 0.035722516477108, -0.16793882846832275, -0.07597783952951431, -0.18183857202529907, -0.03316299617290497, 0.012443643063306808, -0.06232888624072075, -0.11075031757354736, 0.058621592819690704, 0.05136796459555626, -0.11113278567790985, -0.022263234481215477, -0.03461962938308716, 0.07372154295444489, -0.14207075536251068, -0.055845413357019424, 0.0561378113925457, 0.15737417340278625, -0.001007955288514495, 0.0033799479715526104, 0.03981783613562584, -0.03150682896375656, -0.05150304734706879, -0.05387429893016815, -0.061455488204956055, 0.18852633237838745, -0.10337845236063004, 0.14288802444934845, -0.01580345258116722, 0.04602169618010521, 0.1409558206796646, 0.08452833443880081, -0.12616942822933197, -0.09973844140768051, 0.030718179419636726, 0.2334495335817337, 0.0916706770658493, -0.1417446881532669, 0.2642076313495636, 0.0023583571892231703, -0.07155229151248932, 0.030339326709508896, 0.09512265026569366, 0.0605504997074604, 0.22634008526802063, -0.09209229797124863, 0.07984896004199982, 0.26445472240448, -0.02907721698284149, 0.1345321089029312, -0.22248508036136627, -0.14845934510231018, -0.039610810577869415, -0.473467618227005, -0.04288170859217644, 0.008424737490713596, -0.44825923442840576, 0.02571149915456772, -0.10757637023925781, -0.18549442291259766, -0.09988489747047424, 0.026292862370610237, -0.005716147366911173, -0.08611275255680084, 0.04770209640264511, 0.09703253954648972, -0.159284308552742, 0.024241555482149124, 0.00934089906513691, -0.06661908328533173, -0.14631792902946472, 0.18341447412967682, 0.11171524226665497, -0.0657467469573021, -0.12747137248516083, 0.06501975655555725, -0.14317382872104645, -0.07667858898639679, -0.014038030058145523, -0.037308674305677414, 0.09463609009981155, -0.07742740958929062, -0.03899051994085312, -0.2520076036453247, -0.01676921732723713, 0.07964620739221573, 0.06319645047187805, -0.044870682060718536, -0.29994457960128784, -0.3323177695274353, -0.1367313265800476, -0.20221474766731262, -0.06722337752580643, -0.07881928980350494, 0.009791182354092598, 0.1324213147163391, 0.05560874566435814, -0.09684935212135315, 0.06451616436243057, 0.04470626264810562, 0.08392588049173355, -0.0983327180147171, 0.05032617971301079, 0.019622744992375374, -0.36925452947616577, -0.14934144914150238, 0.11430450528860092, 0.16436438262462616, 0.09685957431793213, -0.10734958201646805, -0.11468228697776794, -0.35081711411476135, -0.08373375982046127, 0.1648027002811432, 0.047288063913583755, 0.09882739931344986, -0.026701204478740692, 0.059507425874471664, 0.13610219955444336, -0.06626452505588531, -0.01729397475719452, 0.018203260377049446, -0.02447482943534851, 0.015152376145124435, -0.004545943811535835, 0.113536037504673, -0.050529468804597855, 0.10476651787757874, -0.14281065762043, -0.111280158162117, 0.02662140503525734, 0.009933998808264732, 0.046276357024908066, 0.22877183556556702, -0.2038068175315857, -0.0038762427866458893, 0.1446123570203781, 0.133128821849823, -0.06796018779277802, -0.0007962367380969226, 0.1251731961965561, 0.011926422826945782, -0.0941624566912651, -0.04576472193002701, 0.12483619898557663, -0.06972651183605194, -0.06932911276817322, -0.1438514143228531, -0.12887787818908691, 0.046457141637802124, 0.14426712691783905, -0.05358710512518883, -0.022322040051221848, -0.029293496161699295, 0.023918788880109787, -0.09139879047870636, -0.12887446582317352, 0.3166988790035248, -0.1543113738298416, -0.21423925459384918, -0.06533399969339371, -0.0517764575779438, 0.05140775442123413, 0.092012919485569, 0.0647125095129013, 0.09513912349939346, 0.1307952105998993, 0.11530369520187378, 0.009183858521282673, 0.03456708788871765, 0.10158671438694, -0.06764544546604156, 0.03797608241438866, -0.13136570155620575, -0.034833841025829315, -0.179106205701828, 0.21636876463890076, -0.4029002785682678, 0.25865763425827026, -0.12369603663682938, -0.10527488589286804, -0.19040298461914062, 0.02863985486328602, 0.11074956506490707, 0.03489915281534195, -0.07735271006822586, -0.007723057176917791, 0.07044938951730728, 0.1468854546546936, 0.0774141252040863, 0.10353722423315048, 0.029126012697815895, 0.0607825368642807, -0.0005211395910009742, 0.41183122992515564, 0.015162800438702106, -0.006192017812281847, 0.12752500176429749, 0.07644067704677582, -0.13816294074058533, -0.04213818535208702, 0.015507875941693783, -0.026957331225275993, 0.19499145448207855, -0.21568918228149414, 0.14674565196037292, -0.06606320291757584, -0.10762766748666763, 0.05423127859830856, -0.07748930156230927, 0.016121944412589073, -0.18134787678718567, -0.08375965058803558, 0.1254541426897049, -0.3726145923137665, 0.016978073865175247, 0.052575573325157166, -0.11713074147701263, -0.030888596549630165, 0.04342466965317726, 0.011851862072944641, -0.2148902863264084, -0.08241704851388931, -0.05133626610040665, 0.09227687865495682, 0.07945271581411362, 0.04945966601371765, 0.05383915826678276, -0.0892489105463028, -0.053841475397348404, 0.1324126422405243, -0.11186826229095459, 0.0728531926870346, -0.17120277881622314, -0.14362257719039917, -0.10005426406860352, -0.07117820531129837, -0.12037096172571182, 0.10086674243211746, 0.07987838238477707, -0.10010918974876404, 0.10768832266330719, 0.11384063959121704, -0.048129014670848846, 0.013660547323524952, -0.18659096956253052, -0.14920608699321747, -0.037700604647397995, -0.18285298347473145, 0.136459082365036, 0.04643864929676056, 0.1457200050354004, -0.13685357570648193, 0.022864336147904396, -0.01928246021270752, 0.036917030811309814, -0.18682768940925598, 0.10132017731666565, 0.03800930827856064, 0.1181335598230362, -0.018374787643551826, 0.015376233495771885, 0.2705172002315521, 0.005370365921407938, -0.09079267084598541, -0.16115476191043854, 0.02857912704348564, -0.07642297446727753, -0.11081914603710175, 0.08180546015501022, 0.08902003616094589, 0.06906764954328537, -0.14116351306438446, 0.10604485124349594, -0.030659880489110947, 0.007633906789124012, 0.08795095980167389, 0.19282923638820648, -0.12218818068504333, 0.007383161690086126, -0.015074094757437706, 0.1569429636001587, -0.07891923934221268, -0.0590825229883194, -0.3274698555469513, -0.20367825031280518, -0.15628722310066223, 0.028567837551236153, 0.03696635365486145, 0.09574543684720993, -0.14150001108646393, 0.03184935450553894, -0.25615352392196655, -0.013865369372069836, -0.08317459374666214, -0.08109049499034882, 0.08220173418521881, 0.19437547028064728, -0.13142865896224976, -0.016571849584579468, 0.07666847109794617, -0.0321066677570343, 0.0444689504802227, 0.08857158571481705, 0.009756753221154213, 0.17749784886837006, -0.0915035754442215, 0.16947771608829498, 0.04599645361304283, 0.010958608239889145, 0.10359887033700943, 0.006032779347151518, -0.15856508910655975, 0.0850609838962555, 0.0593288354575634, -0.04904549568891525, -0.007308860309422016, 0.05663416534662247, -0.030734580010175705, -0.09413259476423264, -0.029169505462050438, 0.049600500613451004, 0.0032040243968367577, 0.1441909819841385, 0.05566900223493576, 0.0383635051548481, 0.11740382015705109, 0.16694995760917664, 0.04951775074005127, 0.054948583245277405, 0.14353351294994354, 0.15093395113945007, 0.1888498067855835, 0.03641672804951668, -0.04752509295940399, 0.04564005136489868, -0.08537880331277847, 0.14450059831142426, -0.2205318957567215, -0.001451892894692719, 0.07438810914754868, -0.09861300140619278, -0.07370883971452713, 0.18503978848457336, -0.0522741973400116, 0.0011834990000352263, -0.07482927292585373, -0.31996870040893555, -0.03339916840195656, -0.0007724370807409286, 0.021816086024045944, 0.005009809508919716, -0.10788020491600037, 0.1815946400165558, 0.01879924349486828, 0.11062203347682953, 0.04498720169067383, -0.07593538612127304, 0.1375749260187149, -0.06734059005975723, 0.12101051211357117, 0.09922800213098526, 0.024701517075300217, -0.027405841276049614, 0.048120077699422836, 0.24195647239685059, 0.03572068363428116, -0.015051411464810371, -0.21470656991004944, 0.02991746924817562, -0.22333621978759766, 0.22766970098018646, -0.021475806832313538, -0.06088482588529587, 0.20920023322105408, -0.1585872918367386, -0.015000903978943825, -0.037520378828048706, -0.13878133893013, -0.20278756320476532, 0.08589189499616623, 0.014390933327376842, 0.01952335797250271, 0.10373848676681519, -0.07527156919240952, -0.16217826306819916, 0.18807432055473328, 0.0442340113222599, 0.19009606540203094, -0.09287616610527039, -0.009994127787649632, -0.0021586627699434757, -0.041561610996723175, 0.05037407949566841, -0.0011143891606479883, -0.174708753824234, -0.0107483034953475, -0.1447409987449646, -0.05415812134742737, -0.16457480192184448, -0.1021682620048523, -0.05975450202822685, 0.11020855605602264, -0.14952844381332397, 0.13102184236049652, 0.05274287983775139, 0.14675115048885345, 0.1294873207807541, -0.13988852500915527, -0.22488655149936676, -0.028434662148356438, 0.14107924699783325, -0.26873648166656494, -0.09243728220462799, 0.10959173738956451, 0.041702426970005035, -0.18805484473705292, 0.1502881646156311, 0.0173801202327013, -0.0873899981379509, -0.19362783432006836, 0.1346270591020584, -0.07785318791866302, 0.026550985872745514, 0.06806084513664246, 0.04187224805355072, 0.2909162640571594, -0.04807911440730095, 0.060546353459358215, 0.15148858726024628, -0.012559776194393635, 0.19593040645122528, -0.17582133412361145, 0.3213280737400055, -0.23419809341430664, 0.08755496144294739, 0.000392719404771924, -0.07967409491539001, -0.0039847902953624725, 0.06020376458764076, 0.18560658395290375, 0.07333748042583466, -0.08912130445241928, -0.003498426405712962, -0.08998295664787292, -0.05536552891135216, 0.22338512539863586, -0.11587368696928024, -0.0891917496919632, -0.16739141941070557, 0.08068053424358368, 0.10052809864282608, 0.06632928550243378, 0.1326855570077896, 0.08207512646913528, -0.0866580381989479, -0.02683820016682148, -0.06577759981155396, -0.029731115326285362, 0.03983856365084648, 0.19699913263320923, 0.09375903755426407, -0.18182042241096497, 0.14163528382778168, -0.02108638361096382, 0.019140487536787987, 0.10727854073047638, -0.10637721419334412, 0.07619220018386841, 0.11469021439552307, -0.04765688255429268, -0.14146621525287628, 0.10499542951583862, 0.12083248049020767, 0.09829416126012802, 0.027585770934820175, -0.08381906151771545, -0.15644410252571106, -0.2293471246957779, -0.0568685345351696, -0.1545855849981308, -0.17471149563789368, 0.26411354541778564, 0.03664061054587364, -0.1066654771566391, -0.026556840166449547, 0.09079493582248688, -0.023985285311937332, -0.0825473740696907, 0.1600325107574463, -0.25742194056510925, -0.08031649142503738, 0.04036486893892288, -0.029112327843904495, 0.07461730390787125, 0.009516374208033085, -0.1337558776140213, 0.2511001527309418, -0.1355658769607544, -0.04504880681633949, -0.1514901965856552, -0.3847563862800598, -0.2754928767681122, -0.04958342760801315, -0.2828456461429596, 0.010887200944125652, -0.04509764909744263, -0.03083546832203865, -0.050097208470106125, -0.02698255330324173, -0.05424346402287483, -0.14213570952415466, 0.10558277368545532, 0.10270389169454575, 0.026462845504283905, -0.1260494887828827, 0.08307471871376038, 0.041991084814071655, -0.006610250566154718, -0.0820874348282814, 0.09282625466585159, -0.014151658862829208, 0.028750251978635788, -0.07381879538297653, 0.11585165560245514, 0.18368981778621674, 0.08674205094575882, 0.3132849335670471, -0.09147415310144424, 0.16276587545871735, 0.00917090941220522, -0.2838514745235443, 0.11414728313684464, -0.06677281111478806, -0.18056616187095642, 0.010876430198550224, -0.2546728253364563, -0.0981384813785553, 0.1104627475142479, 0.07124534249305725, 0.0322672575712204, -0.0037836211267858744, -0.12207560241222382, -0.045965272933244705, -0.05140985921025276, 0.0008192285895347595, -0.1104598119854927, 0.11569864302873611, 0.04753885045647621, 0.22752031683921814, 0.15034283697605133, -0.12181569635868073, -0.026454847306013107, -0.18717296421527863, 0.06212995573878288, 0.015924053266644478, -0.030621515586972237, -0.12086094915866852, -0.16955570876598358, 0.17933139204978943, -0.17855103313922882, 0.2121746987104416, 0.12298107892274857, 0.017368130385875702, 0.04591105505824089, -0.03317298740148544, 0.020224645733833313, -0.0827430710196495, 0.022281473502516747, -0.02508283592760563, -0.10604345053434372, -0.12654857337474823, 0.13672079145908356, -0.030474189668893814, -0.03760932385921478, -0.059351399540901184, -0.1563241332769394, 0.12411992996931076, 0.1896471083164215, 0.1154932901263237, 0.04055773466825485, 0.05898958072066307, 0.2145407497882843, -0.045182693749666214, -0.01916392333805561, 0.008295550011098385, -0.14865876734256744, -0.0648798793554306, -0.17604617774486542, -0.25584763288497925, -0.017442496493458748, 0.0985344871878624, -0.29155799746513367, 0.006907850969582796, 0.1129419133067131, 0.30538854002952576, -0.039106499403715134, 0.05092523247003555, 0.22291085124015808, 0.07088890671730042, -0.005821037571877241, 0.37052467465400696, -0.379162460565567, 0.010890747420489788, -0.08975562453269958, -0.10970079898834229, -0.09435772895812988, -0.02408069744706154, -0.045437801629304886, 0.020010918378829956, 0.024023152887821198, 0.14068469405174255, -0.28382694721221924, -0.09440203011035919, 0.13797619938850403, 0.009488997980952263, -0.04523901268839836, 0.004609410185366869, -0.06989458948373795, -0.08284498751163483, 0.04568621516227722, -0.019634060561656952, 0.12948864698410034, -0.17926310002803802, -0.107468381524086, -0.13545863330364227, 0.1560378074645996, 0.06917467713356018, -0.16708233952522278, 0.012981624342501163, -0.10729698836803436, 0.01669223979115486, 0.3093441426753998, 0.3354249894618988, 0.10659608244895935, 0.28196921944618225, 0.03629034012556076, 0.11552652716636658, 0.4083554148674011, 0.08868594467639923, 0.19552452862262726, 0.015678027644753456, 0.0917963758111, 0.0349639393389225, -0.1222865954041481, 0.039075564593076706, -0.0326869823038578, -0.013402169570326805, -0.04982992261648178, -0.23502400517463684, 0.04144423082470894, 0.02794630080461502, -0.12946680188179016, -0.02778286673128605, 0.1379040628671646, 0.07873620092868805, 0.14968803524971008, -0.090900719165802, 0.03884710371494293, 0.09678278863430023, -0.12662099301815033, 0.006151880137622356, -0.17691203951835632, -0.06406734883785248, 0.05233969911932945, -0.03915375843644142, -0.03542690351605415, 0.027655361220240593, 0.019707346335053444, 0.2957167625427246, -0.01982829160988331, 0.16981735825538635, 0.12345122545957565, 0.0704648569226265, -0.02481098100543022, 0.11850492656230927, 0.1243797168135643, 0.09995958209037781, -0.12222776561975479, -0.10753440111875534, 0.16057737171649933, -0.11727684736251831, 0.3219868242740631, -0.03143184259533882, 0.08472730219364166, 0.01401017140597105, 0.3293371796607971, 0.17688141763210297, -0.0009566327789798379, 0.1753218024969101, -0.2841204106807709, 0.16549080610275269, 0.2050173282623291, -0.011876988224685192, 0.0015525375492870808, -0.09612012654542923, 0.08586916327476501, 0.10309471189975739, -0.04779884219169617, -0.036670099943876266, -0.011278290301561356, 0.034102294594049454, -0.09718770533800125, 0.011012445203959942, -0.15475979447364807, -0.1498802751302719, 0.04093918949365616, -0.08886115252971649, 0.06455402821302414, -0.04903879761695862, -0.19916734099388123, -0.04056109860539436, -0.009762581437826157, 0.14751379191875458, -0.15468730032444, 0.006539414171129465, -0.055061254650354385, 0.2744907736778259, -0.09322366863489151, 0.07468993961811066, 0.0720164105296135, 0.024913998320698738, -0.05462588742375374, -0.006285036914050579, 0.01950042136013508, 0.061929333955049515, 0.0831385925412178, 0.04465024918317795, -0.15504290163516998, -0.11708378046751022, 0.11618581414222717, 0.008726155385375023, 0.08828520774841309, 0.18380232155323029, -0.11227936297655106, 0.030651098117232323, -0.19114342331886292, -0.024350164458155632, 0.03187219053506851, 0.44833651185035706, 0.12009008228778839, 0.04212280735373497, 0.2456866055727005, -0.015697933733463287, 0.10806594789028168, -0.16068881750106812, 0.16683635115623474, -0.08311595767736435, -0.12699055671691895, -0.10293664038181305, -0.13310058414936066, 0.10289092361927032, -0.15479110181331635, 0.10444372892379761, -0.09725997596979141, 0.12489679455757141, 0.24177299439907074, -0.12439235299825668, -0.041024304926395416, 0.1915646493434906, -0.05887724086642265, -0.1927393227815628, 0.059332236647605896, -0.008283481933176517, -0.24824757874011993, 0.13547465205192566, -0.012671061791479588, 0.05032802000641823, -0.15526621043682098, 0.05273608863353729, -0.0422070287168026, 0.0713900625705719, 0.14383584260940552, 0.03619411960244179, 0.008215568959712982, -0.055255066603422165, -0.099588543176651, 0.07060237973928452, -0.18400439620018005, -0.024306073784828186, -0.06163022294640541, 0.06383493542671204, 0.011869976297020912, 0.10870087146759033, -0.030620060861110687, 0.09310848265886307, -0.08771488815546036, -0.01598726399242878, 0.23512279987335205, 0.04849260672926903, -0.006701188627630472, 0.035901397466659546, -0.012632234953343868, -0.00236908090300858, -1.01459538936615, -0.21453522145748138, -1.848641276359558, -0.7842168807983398, -0.3553936779499054, -0.5159634947776794, 0.10430371761322021, -0.013847269117832184, 0.2838800251483917, -0.02864568866789341, -1.3902891874313354, -0.20456568896770477, -0.034798379987478256, -0.02463674359023571, 0.14349524676799774, 0.11787830293178558, -0.15535707771778107, 0.09065395593643188, -0.020284363999962807, 0.04537246376276016, 0.05164704844355583, -0.38721349835395813, -0.035375237464904785, -0.12500204145908356, -0.008465122431516647, 0.06029220297932625, 0.12199915200471878, 0.06516250222921371, -0.04515010863542557, 0.06224554404616356, -0.16254012286663055, -0.15373584628105164, -0.6472885012626648, -0.09041891247034073, -1.052794337272644, -0.6953577399253845, 0.2601710557937622, -0.4444386065006256, -0.15494026243686676, -0.21824973821640015, 0.039186518639326096, -0.14788943529129028, -0.9358555674552917, 0.022598084062337875, -0.010724824853241444, -0.3610643446445465, -0.12314342707395554, -0.03074524737894535, -0.09404832124710083, -0.007884712889790535, 0.16870255768299103, 0.17890490591526031, 0.06334324181079865, 0.034522365778684616, -0.021837344393134117, -0.029031623154878616, -0.08863382786512375, -0.11982832103967667, 0.06952834874391556, 0.01998097263276577, -0.13036835193634033, 0.12130159139633179, 0.14185209572315216, 0.040284182876348495, -0.3765753209590912, -0.05080466717481613, -0.7152420282363892, -0.6760658025741577, 0.3951549530029297, -0.4523296654224396, 0.2913057208061218, -0.34170177578926086, 0.11567650735378265, -0.12245908379554749, -0.8630523085594177, 0.041817184537649155, -0.09808260202407837, 0.05786590278148651, -0.3869699537754059, 0.25739699602127075, 0.13921405375003815, 0.18492963910102844, 0.16031816601753235, -0.10566651076078415, 0.01337411254644394, -0.2328759729862213, -0.007954024709761143, 0.07188466191291809, 0.07879315316677094, -0.02961251512169838, 0.21924839913845062, 0.1440800577402115, 0.26823121309280396, -0.13220921158790588, 0.0723179429769516, -0.05635380744934082, 0.5098090171813965, 0.5503661632537842, 0.3890085518360138, -0.014217149466276169, 0.08658427745103836, 1.1025515794754028, -0.7520016431808472, -0.22933132946491241, 0.24871334433555603, 0.11182546615600586, 0.14346031844615936, 0.11247578263282776, 0.2397882491350174, -0.41324490308761597, 0.023533722385764122, 0.5907261371612549, -0.13616934418678284, 0.024299124255776405, -0.15621265769004822, 0.1009012758731842, -0.0367916040122509, -0.07597421854734421, -0.17754895985126495, 0.006130025256425142, -0.11679159849882126, 0.21158118546009064, 0.12391319870948792, 0.07297857105731964, 0.052215881645679474, -0.006227332167327404, -0.014761673286557198, 0.0517745204269886, -0.35542207956314087, 0.027669860050082207, -0.039278026670217514, -0.14488384127616882, 0.1415662169456482, 0.11350036412477493, 0.36995384097099304, 0.22074592113494873, -0.33877065777778625, -0.305707722902298, -0.10192206501960754, -0.1711045503616333, 0.07398582994937897, 0.08340905606746674, -0.20431631803512573, -0.13918668031692505, 0.01860968954861164, -0.07746584713459015, 0.1761164516210556, 0.11484261602163315, -0.045771658420562744, 0.0017366822576150298, 0.10704219341278076, 0.06078341230750084, -0.12813454866409302, -0.0053498400375247, 0.046105656772851944, -0.0035770193208009005, -0.13762687146663666, -0.052394088357686996, 0.0003836900577880442, -0.036082927137613297, -0.16779787838459015, -0.3149740695953369, -0.12146741896867752, 0.2401331514120102, 0.277792751789093, 0.30932673811912537, -0.2233400195837021, 0.17322401702404022, -0.23601551353931427, -0.2413792610168457, 0.15624333918094635, 0.07354850322008133, 0.07888531684875488, 0.2971506118774414, -0.03376566991209984, -0.00032662786543369293, 0.029697993770241737, 0.10667238384485245, -0.06308866292238235, -0.02739502489566803, -0.006272443104535341, -0.16076326370239258, -0.1424814760684967, 0.20240910351276398, -0.1245652362704277, -0.17396670579910278, 0.012246993370354176, -0.17200347781181335, -0.007892651483416557, 0.14507003128528595, -0.00014588005433324724, -0.08617378026247025, -1.1824462413787842, 1.0823348760604858, -5.449151039123535, -0.8390001058578491, 1.977410078048706, -1.5243842601776123, 0.4243602752685547, -0.2088748812675476, 0.877233624458313, 0.5465441346168518, -2.5432422161102295, 0.8744909763336182, -0.9426581859588623, 0.30178266763687134, -1.03630793094635, 0.6858999729156494, 0.1020180955529213, 0.11341773718595505, 0.040948204696178436, 0.04655805230140686, 0.007815049961209297, -0.05232420563697815, 0.14100871980190277, -0.43355193734169006, 0.22300170361995697, -0.05981268361210823, 0.14522483944892883, 0.03469015285372734, -0.14287762343883514, 0.04883392155170441, -0.025937750935554504, -0.10043080151081085, -0.039292920380830765, 0.0025430491659790277, 0.15990795195102692, -0.043275218456983566, -0.10690844804048538, 0.03923085704445839, 0.1099722757935524, -0.013420140370726585, 0.0974920466542244, -0.043221209198236465, -0.021915344521403313, -0.0622471421957016, -0.07234028726816177, -0.01040071900933981, 0.21688880026340485, -0.3381402790546417, 0.1869369000196457, 0.19507087767124176, 0.11641352623701096, 0.11439552158117294, 0.07023930549621582, 0.04479019343852997, 0.08153020590543747, 0.12021873891353607, -0.004446176812052727, -0.04648299142718315, -0.02145388536155224, 0.10061975568532944, 0.10953555256128311, 0.0034194551408290863, -0.050605159252882004, 0.058101803064346313, 0.0655578076839447, -0.0145121980458498, 0.10566221177577972, -0.22432643175125122, 0.15596473217010498, -0.10894356667995453, -0.12621594965457916, 0.053931500762701035, -0.1071743369102478, -0.05380919203162193, -0.054550979286432266, 0.2001771330833435, 0.14137963950634003, 0.09940500557422638, 0.014378511346876621, 0.024382896721363068, -0.03362959623336792, -0.06703463941812515, -0.14751605689525604, 0.04438905417919159, 0.0375228188931942, 0.04271731898188591, -0.010497002862393856, -0.12115512788295746, -0.06597726047039032, 0.0999159961938858, -0.03105437196791172, 0.27624958753585815, 0.2066114991903305, -0.1179836243391037, -0.08002332597970963, 0.12999841570854187, -0.08251051604747772, -0.3066931962966919, -0.04327646642923355, 0.0885075256228447, -0.08006667345762253, -0.04720044136047363, 0.15399914979934692, -0.1670873463153839, -0.04866938665509224, 0.19948625564575195, -0.013413559645414352, 0.15073667466640472, 0.24528002738952637, 0.0795796811580658, 0.17364031076431274, -0.23931153118610382, -0.07622808963060379, -0.08870881050825119, 0.03254632651805878, 0.10857623815536499, 0.12968483567237854, 0.2588697373867035, 0.12201797217130661, 0.16142180562019348, 0.08964871615171432, 0.22976069152355194, -0.05411949008703232, 0.07736865431070328, 0.1395600587129593, 0.10670717805624008, 0.06084609776735306, 0.07957828044891357, 0.0514940470457077, -0.19910894334316254, 0.12060771137475967, 0.015107106417417526, -0.013306276872754097, 0.017778120934963226, 0.025665098801255226, -0.03616688400506973, -0.07951731234788895, -0.14394539594650269, 0.008692415431141853, 0.038310930132865906, -0.11053123325109482, 0.0400247722864151, -0.18271572887897491, 0.018883315846323967, 0.03682504594326019, 0.04839368164539337, 0.14975745975971222, -0.043763112276792526, 0.08141022175550461, -0.03467007353901863, 0.12859585881233215, -0.14157800376415253, 0.041109029203653336, 0.04488782584667206, 0.08902840316295624, -0.007958224043250084, 0.08946892619132996, 0.05068713799118996, 0.07497689872980118, 0.05438241735100746, -0.08505367487668991, -0.08419211953878403, 0.1318814903497696, -0.22653858363628387, -0.041336122900247574, -0.035365063697099686, -0.0614611953496933, -0.07652869075536728, 0.14997248351573944, 0.0016358562279492617, 0.10954823344945908, -0.18251140415668488, 0.11429628729820251, 0.0023088345769792795, -0.06777715682983398, -0.09938639402389526, -0.015735244378447533, -0.007362869568169117, -0.12784700095653534, 0.014372960664331913, 0.00044506543781608343, 0.015483320690691471, -0.09414433687925339, -0.053803153336048126, 0.03123130463063717, -0.11556383967399597, 0.08173535764217377, -0.15600967407226562, -0.04699595272541046, -0.05501610413193703, -0.4160178303718567, -0.07594087719917297, -0.18368302285671234, -0.05485463887453079, 0.15758846700191498, 0.18002550303936005, -0.1404266208410263, 0.33970749378204346, 0.13060680031776428, 0.043698858469724655, -0.11040867865085602, 0.08624833822250366, -0.00014400345389731228, -0.16806647181510925, 0.10253173112869263, 0.14323394000530243, -0.11502066999673843, -0.016256088390946388, 0.03469831869006157, -0.211776465177536, 0.045774172991514206, 0.02687765657901764, -0.07269081473350525, -0.048104774206876755, -0.056813377887010574, -0.04660947993397713, 0.25635826587677, 0.14394685626029968, 0.04898238182067871, -0.03383801504969597, 0.23600079119205475, 0.05790335685014725, -0.038011498749256134, 0.2685241401195526, 0.0146263362839818, 0.11509384214878082, -0.008641110733151436, -0.02026006020605564, 0.05771253630518913, 0.07076902687549591, -0.02033376507461071, 0.006321641616523266, 0.06471958756446838, -0.013749424368143082, 0.014015755616128445, 0.07434592396020889, 0.1524205356836319, 0.10516892373561859, -0.29828140139579773, -0.3542327284812927, -0.021323107182979584, -0.05578692629933357, -0.11057792603969574, -0.14812713861465454, -0.14861677587032318, -0.13448037207126617, -0.16953051090240479, -0.4734703302383423, 0.29252639412879944, -0.00017122828285209835, 0.04304516687989235, 0.12005314230918884, -0.006729074288159609, -0.08230235427618027, 0.0577978678047657, 0.20839446783065796, 0.031375762075185776, -0.02706122025847435, -0.049804627895355225, -0.2730151414871216, 0.10713768005371094, -0.12312889099121094, -0.05374239385128021, -0.23635460436344147, -0.01795709691941738, -0.14087873697280884, 0.04574771225452423, 0.16753016412258148, -0.14347241818904877, 0.05713852122426033, 0.1307702213525772, 0.02431297115981579, -0.04057574272155762, -0.07644836604595184, 0.09557978063821793, 0.10801806300878525, -0.12166060507297516, -0.09799264371395111, 0.09562169760465622, 0.14448118209838867, 0.05108737200498581, 0.16841810941696167, -0.07950492203235626, -0.11907090991735458, -0.029229748994112015, -0.17423231899738312, -0.12191587686538696, 0.10357243567705154, 0.16491714119911194, 0.40251851081848145, 0.12821435928344727, -0.029739879071712494, 0.13826003670692444, 0.009674987755715847, -0.04342462494969368, 0.1496312916278839, 0.05273795127868652, 0.2531059682369232, -0.03592991828918457, -0.22207169234752655, 0.11892000585794449, 0.004579484928399324, 0.03801252692937851, -0.0036301857326179743, 0.10262077301740646, 0.11148693412542343, 0.127005934715271, -0.059096209704875946, 0.0967918410897255, 0.18339361250400543, -0.011171065270900726, 0.0798073261976242, -0.05332117900252342, -0.042219214141368866, 0.04745662957429886, -0.24275140464305878, -0.040912456810474396, 0.024971822276711464, -0.4380398094654083, -0.010972761549055576, -0.08230482041835785, -0.21366161108016968, -0.2230318784713745, 0.05050267279148102, -0.018634667620062828, 0.16713778674602509, 0.0964687317609787, 0.07286281883716583, -0.12930242717266083, -0.052150242030620575, 0.19145534932613373, 0.0270486231893301, 0.004755101632326841, 0.09532729536294937, -0.07345490902662277, -0.2032255381345749, 0.03239252045750618, 0.0034640899393707514, -0.18390540778636932, -0.3194619417190552, -0.16420403122901917, -0.367184042930603, -0.02032337337732315, 0.1597992330789566, -0.14784231781959534, -0.11897927522659302, -0.06091659888625145, -0.1074574813246727, -0.07199324667453766, -0.05930028110742569, 0.03434111177921295, -0.06600935012102127, -0.07645144313573837, -0.1356816440820694, -0.16052192449569702, 0.21674057841300964, -0.18054018914699554, -0.020323652774095535, 0.11573205888271332, -0.09362155944108963, -0.20653681457042694, 0.005780916195362806, 0.046160053461790085, 0.03333543986082077, 0.026201751083135605, -0.04846833646297455, -0.03324715793132782, 0.12255256623029709, 0.12576156854629517, 0.064445361495018, 0.09518959373235703, -0.18818894028663635, -0.23712392151355743, 0.088494673371315, -0.25026288628578186, -0.027747556567192078, 0.19052009284496307, 0.07326564192771912, -0.10808161646127701, -0.08447755128145218, 0.1566733866930008, -0.2179356813430786, 0.05888338387012482, 0.007401173003017902, -0.039120208472013474, -0.10928580909967422, -0.03346919268369675, 0.11513037979602814, -0.016193779185414314, 0.02549915574491024, -0.11029373854398727, -0.25458794832229614, 0.14326053857803345, -0.049251988530159, 0.052195895463228226, 0.29037803411483765, -0.15197573602199554, 0.16659663617610931, 0.009080559946596622, 0.16649173200130463, -0.11021819710731506, -0.011661538854241371, 0.027042362838983536, 0.21756896376609802, -0.09553106874227524, -0.07343288511037827, 0.21002843976020813, -0.05611323565244675, 0.1489904373884201, -0.02400670386850834, 0.048885319381952286, 0.024108270183205605, 0.05539146810770035, -0.11912445724010468, -0.16327381134033203, 0.1311292201280594, -0.00904790312051773, 0.15614540874958038, 0.13510358333587646, -0.10897368937730789, 0.010738375596702099, -0.040101516991853714, 0.1392819881439209, 0.04394374415278435, -0.035767585039138794, 0.06731409579515457, -0.03568383678793907, 0.18022450804710388, 0.17916938662528992, 0.17077745497226715, -0.014494159258902073, -0.22332069277763367, -0.010001552291214466, -0.06274901330471039, -0.08707806468009949, -0.037263207137584686, 0.11309938877820969, -0.20705586671829224, 0.09057163447141647, -0.4458310902118683, 0.05866463854908943, -0.10961468517780304, 0.10173744708299637, -0.10938718169927597, -0.26298147439956665, 0.0473632849752903, 6.604247028008103e-05, -0.1955392211675644, 0.2751617133617401, -0.04118068516254425, -0.07304833084344864, 0.11670201271772385, 0.11968657374382019, 0.09742045402526855, -0.10918078571557999, -0.1461557000875473, 0.021035360172390938, 0.11798105388879776, -0.04578293114900589, 0.10069532692432404, 0.06378784775733948, 0.06593994051218033, 0.16067247092723846, 0.052000630646944046, -0.09525759518146515, 0.22553366422653198, 0.06830908358097076, -0.07808680832386017, 0.1402682512998581, -0.07380998134613037, -0.014592557214200497, -0.11875323951244354, 0.013417806476354599, -0.16143928468227386, -0.03174607455730438, 0.09328227490186691, -0.18136776983737946, 0.07364901900291443, 0.04814786836504936, 0.04460164159536362, 0.14668460190296173, -0.13574717938899994, -0.05968061462044716, 0.03700905665755272, -0.18949256837368011, -0.2737463116645813, 0.1087258979678154, 0.0064099449664354324, -0.009069948457181454, 0.08865419775247574, -0.0680575743317604, -0.2287149429321289, -0.16002285480499268, -0.01827121339738369, 0.16539615392684937, -0.06347596645355225, -0.08262290060520172, -0.023266376927495003, 0.022755403071641922, -0.017602786421775818, -0.032176461070775986, 0.014063902199268341, -0.07014571875333786, 0.07477088272571564, -0.02539977803826332, -0.04101236164569855, -0.054827988147735596, -0.10269787907600403, 0.04645280912518501, -0.0691121518611908, -0.1564152091741562, -0.0276190172880888, -0.009520350955426693, 0.08667661249637604, -0.2887154817581177, 0.04903488978743553, -0.04357385262846947, 0.18308793008327484, -0.08988960832357407, 0.057934198528528214, 0.026672981679439545, 0.02402563765645027, 0.03546075522899628, 0.03811817616224289, 0.04787585884332657, -0.026754148304462433, -0.15281298756599426, -0.2163771539926529, -0.012458840385079384, 0.025953669100999832, 0.19077979028224945, 0.014632896520197392, -0.02372315153479576, 0.22088156640529633, -0.15479376912117004, -0.09349042922258377, 0.13614600896835327, 0.024430064484477043, 0.04902515560388565, 0.07471441477537155, 0.008334698155522346, 0.20593847334384918, 0.12191424518823624, 0.28551816940307617, -0.0998784601688385, -0.046999491751194, 0.1884424090385437, -0.06665003299713135, -0.1943279206752777, 0.0758446604013443, -0.03472466021776199, -0.07719136774539948, 0.11888454854488373, -0.016232088208198547, -0.06209533289074898, 0.0011028951266780496, -0.14359524846076965, -0.044447094202041626, 0.0038578910753130913, 0.24919414520263672, -0.020126134157180786, -0.09758393466472626, 0.026645589619874954, 0.006480939220637083, 0.06730327010154724, -0.0639396384358406, 0.0750400647521019, 0.17860981822013855, -0.08365896344184875, 0.10932789742946625, -0.10579938441514969, 0.06384690850973129, 0.2627162039279938, -0.07988893985748291, -0.06738210469484329, -0.033417508006095886, -0.06831701099872589, 0.01729200780391693, 0.22903360426425934, -0.10423673689365387, 0.19578908383846283, 0.033748943358659744, -0.14015161991119385, 0.2929299771785736, -0.13023024797439575, 0.10643311589956284, -0.13871987164020538, -0.1822749376296997, 0.152706116437912, -0.12135676294565201, -0.04372154548764229, 0.01483876071870327, 0.07592495530843735, 0.10666706413030624, 0.03115519881248474, 0.09144501388072968, 0.04318394139409065, 0.051716458052396774, -0.1958872377872467, 0.019275957718491554, -0.06293612718582153, -0.15534080564975739, 0.12271595001220703, 0.06775213778018951, -0.007049931213259697, 0.08889412134885788, -0.07587914168834686, 0.14249640703201294, -0.043312158435583115, -0.23124755918979645, -0.0715484768152237, -0.05621795728802681, -0.055500149726867676, 0.04026702418923378, -0.13135486841201782, 0.10377960652112961, -0.17285500466823578, 0.22641348838806152, 0.02436833828687668, 0.035588718950748444, 0.20050682127475739, 0.08850087970495224, -0.17095056176185608, 0.29500240087509155, -0.1929650604724884, -0.08795426785945892, 0.07477062940597534, 0.3383275270462036, 0.097967229783535, -0.09436146169900894, -0.03531071916222572, 0.10381006449460983, -0.3091452121734619, 0.2501792013645172, -0.18541808426380157, -0.08838274329900742, 0.2660315930843353, -0.013367626816034317, -0.255943238735199, 0.004710089880973101, 0.02205759659409523, -0.14776162803173065, 0.047244843095541, 0.03666384145617485, 0.09670133143663406, -0.058765944093465805, -0.029710380360484123, -0.1639687418937683, -0.05295185744762421, 0.06246913596987724, -0.1324051320552826, -0.05366634577512741, -0.00012385730224195868, 0.13809652626514435, -0.04663575068116188, 0.003589777508750558, -0.02468770556151867, -0.08774768561124802, -0.02802105061709881, -0.19783341884613037, -0.03028191067278385, -0.08498219400644302, -0.06907255947589874, 0.0034877988509833813, -0.13105107843875885, 0.056940723210573196, -0.2234075665473938, -0.09700378030538559, 0.12964102625846863, -0.05748876929283142, 0.0094973836094141, 0.23887741565704346, -0.0018908759811893106, -0.09369491040706635, -0.11327148973941803, 0.25507164001464844, 0.014402818866074085, -0.1053825244307518, -0.19005706906318665, 0.09542933851480484, 0.27995336055755615, -0.014087377116084099, -0.14135223627090454, 0.15884511172771454, -0.06521552056074142, 0.05987277626991272, 0.2790573239326477, -0.14250998198986053, 0.13682828843593597, -0.08431746810674667, -0.039498113095760345, 0.06917548179626465, 0.03503619134426117, 0.12289375811815262, -0.13715149462223053, 0.2172349989414215, -0.06461137533187866, 0.12425254285335541, -0.01770303212106228, 0.036556463688611984, -0.15054523944854736, 0.05248793959617615, 0.12926878035068512, 0.05268072336912155, 0.12000221014022827, -0.062006376683712006, -0.026023736223578453, 0.13645684719085693, 0.1800316423177719, -0.03283019736409187, -0.2792718708515167, -0.03265880420804024, 0.044723592698574066, 0.03616146370768547, 0.015758737921714783, 0.1590176373720169, -0.011206979863345623, 0.10133180022239685, 0.05709405243396759, 0.02020125836133957, 0.18695999681949615, -0.022350216284394264, 0.054704803973436356, -0.03785739466547966, 0.11769146472215652, 0.17713913321495056, 0.12471697479486465, -0.07861557602882385, 0.01685798540711403, 0.05542859062552452, 0.00020453694742172956, 0.009472181089222431, -0.03301240876317024, -0.04113138094544411, 0.0739622488617897, 0.06778301298618317, 0.020730605348944664, -0.06676459312438965, -0.2951106131076813, -0.1030249372124672, -0.0752960592508316, -0.10705997794866562, -0.09560678899288177, 0.054911643266677856, 0.24714349210262299, 0.10628636181354523, 0.03298114240169525, 0.13325631618499756, 0.16811560094356537, -0.08343879133462906, -0.05051615089178085, 0.025659853592514992, -0.0993357002735138, 0.025342589244246483, -0.017775731161236763, 0.0029679820872843266, 0.1328621655702591, 0.03866478428244591, -0.056348007172346115, 0.07056912034749985, 0.01522683072835207, -0.010183274745941162, 0.06399666517972946, -0.3366037905216217, -0.26932254433631897, -0.053030047565698624, -0.21551980078220367, -0.14886797964572906, -0.0013490173732861876, -0.2505429983139038, -0.09084931015968323, 0.05634365975856781, -0.007862468250095844, -0.10940466821193695, 0.00907635036855936, -0.0077356137335300446, -0.03314634785056114, 0.10882227122783661, -0.05743613839149475, 0.029880741611123085, -0.07075634598731995, -0.16084766387939453, -0.17102865874767303, 0.06502626091241837, 0.1003146842122078, 0.0009291278547607362, 0.08988338708877563, 0.20795592665672302, 0.07006563246250153, 0.15712742507457733, -0.12398112565279007, 0.07347110658884048, -0.032875947654247284, -0.24956004321575165, 0.1802341192960739, 0.04286801815032959, -0.28627079725265503, -0.06290609389543533, 0.004475013352930546, -0.2205459177494049, 0.21284639835357666, -0.0406058207154274, -0.028731785714626312, -0.15352194011211395, -0.052257098257541656, 0.04177122563123703, -0.15629588067531586, 0.055954452604055405, -0.11777504533529282, 0.1232452243566513, -0.024503987282514572, 0.04412989690899849, -0.0018151967087760568, 0.0870809555053711, 0.04352334514260292, -0.1594438999891281, 0.035670336335897446, -0.05412425845861435, -0.08165670186281204, -0.08379315584897995, -0.1489243060350418, 0.07743624597787857, -0.26148557662963867, 0.19695818424224854, 0.04362911358475685, 0.07422933727502823, 0.04810723289847374, 0.03558257222175598, 0.17690540850162506, -0.1534605771303177, 0.06966371089220047, 0.20925000309944153, -0.05428103357553482, -0.036409471184015274, -0.058064717799425125, -0.03566301614046097, -0.011226503178477287, 0.13890592753887177, -0.039174988865852356, 0.060319554060697556, -0.07243969291448593, 0.2157496213912964, -0.1737126260995865, 0.001880646450445056, 0.0977611169219017, -0.018261970952153206, -0.01118908729404211, -0.15222415328025818, 0.07038743048906326, 0.13831056654453278, 0.06206239387392998, -0.1428270936012268, -0.04964033141732216, 0.005881851073354483, -0.265959769487381, -0.06710651516914368, 0.04209132865071297, 0.25763341784477234, -0.04159214347600937, 0.14913854002952576, 0.1549903303384781, -0.0770951509475708, 0.18041349947452545, 0.014271201565861702, -0.1581154316663742, -0.011613492853939533, 0.1158883199095726, -0.03884314000606537, -0.220918670296669, -0.08605427294969559, -0.17043110728263855, 0.12579038739204407, 0.03333194926381111, 0.016903376206755638, -0.18928898870944977, 0.012092339806258678, 0.1515558660030365, -0.11937440931797028, -0.13138921558856964, -0.004423202946782112, 0.12617264688014984, 0.013349796645343304, -0.0008556601824238896, -0.16893143951892853, -0.10145635157823563, -0.10711898654699326, -0.09245552867650986, -0.1253020167350769, 0.25141623616218567, 0.011361213400959969, -0.042372941970825195, 0.21184134483337402, 0.04433215409517288, -0.0348353311419487, 0.22449663281440735, 0.16206395626068115, 0.12095306068658829, 0.07831201702356339, 0.19756494462490082, 0.3537861406803131, 0.17031130194664001, -0.08271487802267075, 0.24405279755592346, 0.055588506162166595, 0.17532040178775787, 0.0073591964319348335, 0.19738705456256866, -0.0023844148963689804, -0.04161722585558891, 0.18121600151062012, 0.2525344789028168, -0.18360838294029236, 0.016508661210536957, -0.026755264028906822, -0.009068614803254604, -0.0415116548538208, 0.1237429603934288, -0.02608536183834076, 0.1257491260766983, -0.10204505175352097, -0.172959104180336, -0.02598440833389759, -0.01817939803004265, 0.02048565074801445, -0.05973222479224205, 0.10261225700378418, -0.01911630481481552, 0.021541213616728783, 0.1389726996421814, 0.15587134659290314, -0.15810859203338623, 0.02570907026529312, -0.05886735022068024, -0.16830386221408844, 0.06868920475244522, -0.04022045433521271, -0.0500037856400013, -0.09846460074186325, 0.0466466061770916, 0.1857084035873413, 0.12403181940317154, -0.08118565380573273, 0.17197248339653015, -0.04338974505662918, 0.2025396227836609, -0.02882417105138302, 0.11302908509969711, 0.21748502552509308, 0.11690709739923477, 0.12685662508010864, 0.05755777284502983, 0.05254235118627548, -0.14362144470214844, 0.19563338160514832, 0.05396081879734993, 0.18242798745632172, 0.12902849912643433, -0.22442121803760529, 0.11947894096374512, 0.18617460131645203, -0.1266072392463684, 0.1352546364068985, 0.19900035858154297, -0.019101718440651894, -0.0579754114151001, -0.004210823215544224, 0.043591760098934174, -0.059505123645067215, 0.16292740404605865, -0.21556074917316437, -0.01938864216208458, -0.07877600938081741, -0.07239653915166855, -0.11358702182769775, -0.15093141794204712, 0.07401438057422638, 0.06076269596815109, 0.14928147196769714, 0.07541906088590622, 0.16121777892112732, 0.22488388419151306, 0.016213463619351387, 0.022267334163188934, -0.009617514908313751, -0.02731231600046158, 0.025982925668358803, 0.11440913379192352, -0.01061480212956667, -0.10065679252147675, 0.10274262726306915, 0.11303064972162247, -0.17745018005371094, 0.009984523057937622, 0.15816223621368408, -0.10360056906938553, 0.005007705185562372, 0.04221257194876671, 0.30287158489227295, 0.033342547714710236, -0.06625480204820633, -0.05601946637034416, 0.36053040623664856, 0.3657724857330322, 0.10278549045324326, 0.23730960488319397, -0.11824644356966019, -0.08149238675832748, -0.19765807688236237, 0.01763743720948696, -0.12308686226606369, -0.04277670010924339, -0.03730519115924835, 0.10418793559074402, 0.19449423253536224, -0.10616353899240494, -0.03377077355980873, -0.16764099895954132, 0.037122976034879684, 0.10880957543849945, -0.1531991958618164, 0.0074012745171785355, 0.08368170261383057, -0.21181397140026093, 0.009164674207568169, 0.03280223160982132, -0.10401561856269836, -0.17614498734474182, 0.27631115913391113, -0.04711541905999184, 0.0637749657034874, -0.08861631900072098, -0.007546115200966597, -0.17173409461975098, 0.06382063776254654, 0.11395438760519028, -0.03093104250729084, 0.045460112392902374, 0.06293786317110062, 0.024421706795692444, -0.061166394501924515, 0.049950528889894485, 0.21611712872982025, -0.019514357671141624, 0.0767522007226944, -0.0035825578961521387, 0.1270899921655655, -0.1724909543991089, 0.11596260964870453, 0.20168091356754303, 0.07861475646495819, 0.06266472488641739, 0.07289478927850723, 0.02614797092974186, 0.024792879819869995, 0.18417754769325256, -0.15671665966510773, 0.22248098254203796, -0.10955549776554108, 0.1833178848028183, -0.13641582429409027, -0.16920998692512512, 0.2887517213821411, -0.29868149757385254, 0.13228806853294373, 0.2632979452610016, 0.25551140308380127, 0.3881559669971466, -0.16653884947299957, -0.11780453473329544, 0.07556135952472687, 0.17353776097297668, -0.03873343765735626, -0.1657017171382904, 0.15466853976249695, 0.22607913613319397, 0.13960601389408112, -0.02008601650595665, -0.25303104519844055, -0.08130352944135666, 0.03858019784092903, 0.18009959161281586, 0.04309231787919998, 0.01766839064657688, 0.043965358287096024, 0.45155441761016846, 0.13242918252944946, 0.024159252643585205, 0.1947096735239029, -0.3678886592388153, 0.008086283691227436, -0.3926919996738434, -0.04342897981405258, -0.11514254659414291, 0.04826883226633072, 0.03131986781954765, 0.060518164187669754, 0.23434428870677948, -0.062320102006196976, 0.023342648521065712, -0.017816228792071342, 0.22701813280582428, -0.14965109527111053, -0.013506950810551643, -0.16317175328731537, 0.10985639691352844, -0.08884574472904205, -0.14781883358955383, 0.25944963097572327, 0.12166834622621536, 0.028679290786385536, 0.043838705867528915, 0.2020595222711563, -0.11259964108467102, -0.14456820487976074, -0.05580855906009674, 0.017564421519637108, -0.0295867882668972, 0.17908784747123718, -0.11618255823850632, 0.040152423083782196, -0.3917415738105774, 0.3143221139907837, 0.2483210563659668, 0.20405292510986328, -0.03361552581191063, 0.3833736479282379, 0.3402440547943115, -0.13422085344791412, 0.45982328057289124, 0.2912711799144745, -0.08080483973026276, -0.06135764345526695, 0.05159493908286095, -0.07708802074193954, 0.041741639375686646, -0.29738834500312805, -0.17381687462329865, 0.23764552175998688, 0.2603335380554199, -0.5912424921989441, 0.15154613554477692, 0.009944410063326359, -0.22331352531909943, -0.1187908947467804, -0.08399185538291931, 0.05899209529161453, -0.09906238317489624, 0.015548238530755043, 0.05165398493409157, -0.03730965405702591, 0.15882162749767303, 0.08056851476430893, 0.5828442573547363, 0.5901156663894653, 0.3413899838924408, -0.016867445781826973, 0.00942864641547203, 1.2339810132980347, -0.7903944253921509, -0.09714207798242569, 0.15225085616111755, 0.062386561185121536, 0.028712311759591103, 0.015843475237488747, 0.18752576410770416, -0.5594176054000854, -0.0027468339540064335, 0.44305485486984253, -0.013592005707323551, -0.014882958494126797, -0.0963306799530983, 0.10598570108413696, -0.06144801154732704, -0.10866080969572067, -0.1577291488647461, 0.004800434689968824, -0.17003779113292694, 0.19461821019649506, -0.04630875214934349, 0.12702377140522003, -0.07118572294712067, 0.040289610624313354, -0.11840133368968964, -0.010622648522257805, -0.42159003019332886, 0.11558122932910919, -0.09457623213529587, -0.09297806024551392, 0.13427871465682983, 0.13333788514137268, 0.2645323574542999, 0.1577407419681549, -0.2463654726743698, -0.2605142295360565, 0.06421145796775818, -0.10552137345075607, 0.22367092967033386, 0.14880748093128204, -0.011625345796346664, -0.13220065832138062, 0.00024082724121399224, -0.04636663571000099, 0.011469757184386253, 0.022550219669938087, 0.12183809280395508, 0.11132152378559113, 0.1027982085943222, -0.019192244857549667, -0.15026076138019562, -0.1329110711812973, 0.06973961740732193, -0.02740670181810856, -0.1795622855424881, -0.07557323575019836, 0.033299416303634644, -0.000667594198603183, -0.13672877848148346, -0.30038949847221375, -0.013607354834675789, 0.048323698341846466, 0.2712228298187256, 0.2903769910335541, -0.20697908103466034, 0.15751643478870392, -0.2278384417295456, -0.1484222412109375, 0.07288576662540436, 0.014855222776532173, 0.09895823895931244, 0.24450324475765228, -0.13259775936603546, 0.1026356890797615, -0.1277318149805069, 0.23048898577690125, 0.030845504254102707, -0.008848670870065689, -0.08242060989141464, -0.11337088793516159, -0.039664946496486664, 0.15483491122722626, -0.09028176963329315, 0.010249978862702847, -0.07065422832965851, -0.15363150835037231, 0.06381238251924515, -0.056739434599876404, -0.032750293612480164, -0.062222473323345184, -0.49903836846351624, -0.29603758454322815, 0.2913297116756439, 0.08083387464284897, -0.1530206799507141, -0.22413270175457, 0.2848050892353058, -0.03695467486977577, 1.2315157651901245, 0.07517124712467194, 0.017320239916443825, 0.1480632871389389, 0.02065538801252842, 0.7540788650512695, 0.15682780742645264, 0.5307661890983582, 0.14275924861431122, 0.17729265987873077, 0.050979919731616974, 0.10689728707075119, -0.0386858806014061, -0.13353122770786285, 0.052439942955970764, -0.5229910612106323, 0.22577057778835297, -0.05532168224453926, 0.08223976939916611, 0.19179923832416534, -0.13503263890743256, 0.04337015002965927, 0.08476611226797104, -0.2709062099456787, -0.112962506711483, -0.09315643459558487, 0.1370411217212677, -0.04025144502520561, 0.03295907750725746, 0.14951886236667633, 0.08821798115968704, 0.005717642139643431, 0.03343217447400093, -0.06985238939523697, -0.030107958242297173, -0.014851707965135574, 0.00136653205845505, -0.18676714599132538, 0.0020197383128106594, -0.3314661979675293, 0.19619353115558624, 0.04307309165596962, -0.05989779531955719, 0.23199166357517242, -0.16304737329483032, -0.24240760505199432, 0.14886902272701263, 0.3019143044948578, 0.1245795488357544, -0.041850969195365906, -0.08417752385139465, 0.04832672327756882, 0.07318218052387238, -0.20606476068496704, 0.03696540743112564, 0.19399698078632355, -0.07797032594680786, -0.1797570139169693, -0.12420815974473953, -0.0939197838306427, 0.10302229225635529, 0.051656052470207214, -0.24266840517520905, 0.1399851143360138, -0.0011569447815418243, 0.05314193293452263, 0.002841512206941843, 0.02094430848956108, -0.04965408891439438, -0.036599546670913696, 0.06441614776849747, 0.08831752091646194, -0.1580839306116104, -0.1085231676697731, -0.34538400173187256, 0.023558560758829117, -0.3127101957798004, -0.013065888546407223, -0.04832116886973381, -0.12096842378377914, 0.06131526082754135, 0.15421012043952942, -0.12064004689455032, 0.06949811428785324, 0.15678109228610992, 0.016566749662160873, -0.008760892786085606, 0.08815110474824905, 0.06469447910785675, -0.22420555353164673, 0.011882736347615719, 0.04602525010704994, -0.07820242643356323, 0.03869369998574257, -0.009080029092729092, 0.032628223299980164, -0.11605991423130035, 0.22244606912136078, 0.16779658198356628, -0.028229104354977608, 0.09552162140607834, 0.02647874876856804, 0.0970337763428688, -0.10026194155216217, 0.01174317579716444, -0.17268362641334534, 0.061514440923929214, 0.14421865344047546, 0.09200163185596466, 0.15574714541435242, 0.04258711636066437, 0.14238780736923218, 0.14362740516662598, 0.23970972001552582, 0.03435475006699562, -0.010937524028122425, 0.2074013501405716, 0.13702797889709473, 0.10259765386581421, 0.07907835394144058, 0.061490315943956375, -0.059073105454444885, -0.008019205182790756, 0.1829211413860321, 0.06565409153699875, -0.008373888209462166, 0.013133007101714611, -0.020267730578780174, -0.12871894240379333, -0.0796675980091095, 0.10254640877246857, -0.13046467304229736, -0.14014051854610443, -0.09097842872142792, -0.1616114377975464, 0.2010921984910965, 0.10341453552246094, -0.17818231880664825, 0.007592377718538046, 0.10165354609489441, -0.053640883415937424, -0.1753317266702652, 0.11081890761852264, -0.049394793808460236, 0.01860835961997509, 0.13625387847423553, 0.06874334067106247, 0.0006579437176696956, 0.12950186431407928, 0.1535145491361618, 0.19970892369747162, -0.11768336594104767, 0.03312915563583374, 0.027114879339933395, 0.12319798022508621, -0.1723679006099701, 0.005394170060753822, 0.053216852247714996, -0.053014125674963, 0.05730725824832916, 0.13294091820716858, -0.08519858866930008, 0.08174856752157211, -0.1190478652715683, 0.08938761800527573, -0.18109071254730225, 0.0039916676469147205, -0.10810046643018723, 0.10699953138828278, -0.2750507891178131, -0.23797878623008728, -0.09727825224399567, 0.12832891941070557, -0.12055403739213943, -0.10229787230491638, 0.1128421500325203, -0.0872381329536438, -0.1259927898645401, 0.11532752960920334, -0.26112958788871765, -0.15985552966594696, -0.1661774069070816, -0.23004482686519623, 0.028426531702280045, -0.09733355790376663, 0.04581471160054207, -0.176606684923172, 0.21842487156391144, -0.08017779886722565, 0.10897506773471832, 0.020350201055407524, 0.1687362641096115, -0.24758271872997284, 0.07281177490949631, -0.09187445044517517, -0.11065603792667389, 0.1599418669939041, 0.16210685670375824, -0.06644212454557419, 0.11280018836259842, -0.05352368578314781, -0.11029588431119919, 0.10666477680206299, -0.12689901888370514, -0.10028312355279922, -0.27569299936294556, -0.0974796935915947, -0.1683516949415207, 0.1602649837732315, 0.18147097527980804, -0.027774935588240623, -0.06551551818847656, 0.15930210053920746, -0.05791565030813217, 0.07197511941194534, 0.1176319271326065, 0.15815295279026031, 0.033195968717336655, -0.02955440804362297, -0.029662199318408966, 0.06240951642394066, -0.08858606219291687, 0.08342022448778152, 0.24369195103645325, 0.021674448624253273, 0.18297718465328217, 0.1236143410205841, -0.08361001312732697, 0.254956990480423, 0.2001951038837433, -0.18271096050739288, -0.08388731628656387, 0.07047788798809052, 0.062321484088897705, -0.15404309332370758, -0.16270437836647034, -0.020757000893354416, -0.1544295847415924, -0.13766485452651978, -0.018784500658512115, 0.17729975283145905, 0.011054612696170807, 0.01946111209690571, 0.10698714852333069, 0.005181754007935524, -0.06803985685110092, 0.13044139742851257, 0.1780553162097931, 0.05364776775240898, 0.0872427448630333, 0.09395317733287811, -0.1356476992368698, 0.07240545749664307, 0.08508583903312683, 0.0072856927290558815, -0.3519954979419708, 0.20793843269348145, -0.007347646169364452, 0.02326042950153351, 0.20207899808883667, 0.0388992503285408, 0.05275075137615204, 0.012658045627176762, 0.1714283674955368, -0.18187008798122406, -0.0006067136419005692, 0.17954356968402863, 0.1316310465335846, -0.17128263413906097, 0.12291546165943146, 0.04628746584057808, 0.2471369057893753, 0.02550574578344822, 0.02791796624660492, 0.035425443202257156, -0.30717307329177856, -0.09580521285533905, -0.18626973032951355, -0.03550216555595398, 0.16209319233894348, -0.07449373602867126, 0.04424925148487091, 0.08243066817522049, -0.06371060758829117, 0.012621317058801651, -0.05857774242758751, 0.0574350543320179, -0.16577869653701782, -0.22991226613521576, 0.3118286728858948, -0.03899271413683891, -0.04904685541987419, 0.15550293028354645, -0.12170786410570145, -0.021501151844859123, -0.14035408198833466, 0.13744407892227173, 0.07052944600582123, -0.14451734721660614, -0.14155541360378265, -0.007248871028423309, 0.14962734282016754, 0.044305045157670975, 0.20671986043453217, -0.21867772936820984, -0.029909372329711914, -0.09598768502473831, -0.5065589547157288, -0.11431293934583664, 0.019174108281731606, -0.39309579133987427, 0.10289646685123444, 0.08457276225090027, -0.23073996603488922, -0.09183227270841599, -0.1598408967256546, -0.07613541930913925, 0.17107458412647247, -0.14319941401481628, 0.09713929146528244, -0.04413260892033577, -0.05644167587161064, 0.0843653455376625, -0.029533619061112404, 0.05514704808592796, -0.0603855699300766, -0.1282651722431183, -0.07061446458101273, -0.00921577773988247, -0.031211698427796364, 0.04531920701265335, -0.22939689457416534, -0.25031140446662903, -0.17862722277641296, 0.16625775396823883, 0.0510951466858387, -0.2046806961297989, -0.04136313870549202, -0.1630777269601822, -0.26591727137565613, -0.12711429595947266, -0.0502561517059803, 0.04238222911953926, 0.06851200014352798, 0.07885448634624481, -0.22239524126052856, -0.2662312388420105, 0.03462821990251541, -0.36661434173583984, -0.014822440221905708, 0.10182125121355057, 0.09551524370908737, -0.15059752762317657, 0.19036158919334412, -0.08506399393081665, -0.03128935396671295, 0.09119012951850891, 0.14132843911647797, 0.020879685878753662, -0.04831580072641373, -0.09624038636684418, 0.15344209969043732, 0.007172185927629471, -0.011705713346600533, 0.0700073391199112, 0.1333976686000824, 0.05294731259346008, 0.07755768299102783, -0.08854180574417114, -0.07724111527204514, -0.17738191783428192, 0.008193636313080788, 0.12174905091524124, -0.021593570709228516, -0.2851666510105133, -0.1556561142206192, 0.08022021502256393, -0.06908731162548065, 0.23617838323116302, 0.10661876201629639, -0.08479904383420944, -0.0815410166978836, -0.12809333205223083, -0.40601176023483276, 0.1785515546798706, -0.03827527537941933, 0.1494414061307907, 0.09112387150526047, -0.20049268007278442, 0.1691841334104538, 0.14888353645801544, 0.20567454397678375, -0.08149448037147522, -0.1420644372701645, -0.21959315240383148, -0.05587698146700859, 0.05716928094625473, -0.012203545309603214, 0.019137362018227577, 0.02349168434739113, 0.030833043158054352, -0.0809326246380806, 0.09201682358980179, -0.006710919551551342, 0.12053187936544418, 0.07487864047288895, -0.048783089965581894, -0.034266397356987, 0.04226706176996231, 0.0759209543466568, 0.20798352360725403, -0.15902817249298096, 0.22840578854084015, 0.1497386395931244, 0.16677717864513397, -0.06198430806398392, -0.22499632835388184, 0.1627805233001709, -0.15962520241737366, 0.09087235480546951, 0.017068054527044296, -0.03950583562254906, 0.15980008244514465, -0.2230444848537445, -0.08061537146568298, -0.10791286081075668, 0.0995682030916214, 0.16520929336547852, 0.021746177226305008, 0.03495491296052933, 0.2692703604698181, -0.16386859118938446, 0.0554264634847641, -0.11878478527069092, -0.17437803745269775, 0.07508046180009842, -0.22067390382289886, 0.21455763280391693, -0.07674922794103622, -0.044502031058073044, 0.18463589251041412, -0.20974843204021454, -0.128693625330925, 0.041330963373184204, -0.01866554282605648, 0.05647311732172966, 0.12918926775455475, -0.14867539703845978, -0.005785200744867325, 0.22416195273399353, -0.026605648919939995, -0.0004477700567804277, 0.06585611402988434, -0.01834283582866192, 0.12702108919620514, 0.17341728508472443, -0.17090216279029846, -0.1112629696726799, 0.10153831541538239, -0.027011249214410782, 0.014403145760297775, -0.027948027476668358, 0.11549971997737885, -0.14567044377326965, -0.1641596257686615, -0.09102281183004379, 0.0411655455827713, 0.07684686034917831, -0.1474420726299286, 0.23070095479488373, 0.02579720877110958, 0.13959814608097076, 0.09376582503318787, -0.24071186780929565, -0.2333802729845047, -0.034537170082330704, -0.3482235074043274, -0.11260319501161575, -0.04222389683127403, 0.03169204294681549, 0.14280711114406586, 0.23606210947036743, -0.023384708911180496, -0.1416669487953186, -0.16692468523979187, -0.24368424713611603, 0.14712180197238922, -0.1939385086297989, 0.08454500138759613, 0.14349716901779175, -0.17671717703342438, 0.12188755720853806, -0.2542635202407837, 0.10459122806787491, 0.07166697084903717, -0.06598790735006332, 0.08246030658483505, -0.10920557379722595, -0.012505659833550453, 0.040948957204818726, 0.0009199967025779188, -0.1982574164867401, -0.2394447922706604, -0.1338661015033722, 0.0003841057186946273, 0.11224004626274109, -0.37787801027297974, 0.12438694387674332, -0.05580536276102066, 0.08304201066493988, 0.0057427482679486275, 0.05136152356863022, -0.10656774789094925, 0.06860779225826263, -0.001466679503209889, 0.07242453098297119, 0.14131617546081543, 0.007231862749904394, -0.09474789351224899, -0.31209811568260193, -0.10023859143257141, -0.06691793352365494, 0.08735662698745728, 0.16770711541175842, 0.10500388592481613, 0.12612386047840118, 0.11227767169475555, -0.00966154970228672, -0.05758073553442955, 0.058980733156204224, 0.03510228917002678, -0.02234126627445221, -0.05967552959918976, -0.07650715857744217, 0.03385791555047035, 0.07929660379886627, -0.029328161850571632, 0.11254759877920151, 0.10434892773628235, 0.1628779023885727, -0.11212220788002014, 0.069874107837677, -0.04319800063967705, 0.058369603008031845, -0.004011977929621935, -0.07106615602970123, 0.00044570452882908285, 0.24159787595272064, 0.017646387219429016, -0.06616464257240295, 0.10233020782470703, -0.15396469831466675, -0.056834325194358826, 0.10825319588184357, 0.09929035604000092, 0.04499225690960884, -0.016274306923151016, -0.01800025813281536, 0.044802576303482056, 0.047556132078170776, 0.09127121418714523, 0.010695607401430607, 0.03730877488851547, 0.02642691507935524, 0.2305360734462738, -0.13177883625030518, 0.005918873008340597, 0.0003973363200202584, -0.05810578539967537, 0.1092785969376564, 0.2553732097148895, -0.25252261757850647, -0.004493511747568846, -0.11056440323591232, -0.1353866308927536, 0.10769796371459961, 0.059082306921482086, 0.16464351117610931, -0.07100541144609451, -0.1345876306295395, 0.019076531752943993, -0.018542451784014702, 0.016139833256602287, 0.06914553046226501, -0.02124001830816269, -0.11966554075479507, -0.05467741936445236, 0.04382980614900589, 0.06469722092151642, 0.038295336067676544, -0.08154074847698212, 0.048105496913194656, -0.03381853923201561, -0.21819226443767548, 0.008983822539448738, 0.05855267122387886, 0.03288104385137558, 0.18212106823921204, 0.03405357152223587, 0.03356708213686943, -0.01119397021830082, -0.3058846592903137, 0.04789552092552185, -0.11277966946363449, 0.07266196608543396, 0.1155528575181961, -0.03518259897828102, 0.04333668574690819, -0.305011510848999, 0.07871795445680618, 0.20549139380455017, -0.07448840886354446, 0.15363207459449768, 0.1737024337053299, -0.09306871145963669, 0.18627190589904785, -0.014652158133685589, 0.005479470361024141, -0.19114179909229279, 0.2587423026561737, 0.045823834836483, -0.09233371168375015, 0.11995130777359009, 0.15781927108764648, 0.050184089690446854, 0.13718026876449585, 0.08446605503559113, -0.04500393196940422, 0.39281681180000305, 0.06491854786872864, -0.20233984291553497, 0.15067075192928314, -0.01709350198507309, -0.08949074894189835, 0.04570015147328377, -0.06658121198415756, -0.098932646214962, -0.05480416119098663, 0.19997882843017578, 0.09167250990867615, -0.05834461748600006, 0.03861510008573532, -0.18621845543384552, -0.0018903666641563177, 0.004004382994025946, 0.0705537274479866, -0.09414661675691605, -0.058050524443387985, -0.04370042681694031, -0.07693837583065033, -0.05366475135087967, -0.07407665997743607, -0.057474493980407715, 0.01141370739787817, -0.028351832181215286, -0.05507512390613556, 0.18023784458637238, 0.09737076610326767, -0.18932995200157166, -0.2224370688199997, 0.03838955983519554, -0.06323777884244919, 0.11389762908220291, 0.08514350652694702, 0.11793398857116699, 0.21087931096553802, -0.1821357011795044, 0.143462136387825, 0.043498244136571884, 0.03208412230014801, -0.23511044681072235, 0.16074444353580475, 0.11973157525062561, -0.16155605018138885, 0.07341113686561584, 0.2396295815706253, 0.02247992716729641, 0.09791478514671326, 0.053197965025901794, -0.07947862893342972, 0.0473046638071537, -0.17931227385997772, -0.07700691372156143, 0.18627887964248657, 0.07717891037464142, 0.08254611492156982, 0.09211449325084686, 0.18689699470996857, -0.0373198501765728, -0.1176743283867836, -0.06887318193912506, -0.03608718514442444, 0.03691830486059189, -0.07463142275810242, -0.04796440154314041, 0.1105157658457756, 0.09773075580596924, 0.019685767590999603, 0.08921407908201218, -0.017461424693465233, 0.054673437029123306, -0.16118410229682922, -0.12012956291437149, -0.22634302079677582, 0.11419399082660675, 0.09640888124704361, 0.07469198852777481, 0.0990314707159996, 0.028898395597934723, -0.01106369961053133, 0.109909787774086, -0.0872843861579895, -0.09088031202554703, -0.040647197514772415, -0.0029167437460273504, 0.048399847000837326, 0.10898938775062561, 0.17340826988220215, -0.029646657407283783, -0.06699422746896744, 0.1527034342288971, 0.01306185219436884, -0.1408224105834961, 0.166291743516922, -0.15260128676891327, -0.1897403448820114, -0.006793422158807516, 0.06787485629320145, -0.06134725734591484, -0.311055451631546, -0.2457386553287506, -0.09253120422363281, -0.04569021612405777, 0.003141899826005101, -0.157333642244339, -0.06101846694946289, 0.1676604300737381, 0.04028922691941261, -0.02822328358888626, 0.10376295447349548, -0.016737228259444237, -0.04461889714002609, 0.09372776746749878, 0.11314348131418228, 0.06601579487323761, 0.3656911253929138, 0.029567776247859, 0.0517938993871212, 0.15144918859004974, 0.08927671611309052, 0.10713091492652893, 0.13452373445034027, 0.30796167254447937, -0.13228608667850494, -0.0028149837162345648, -0.10274685174226761, -0.07332602143287659, 0.05588073283433914, -0.01131015457212925, -0.11316228657960892, -0.14192534983158112, -0.0934733971953392, 0.07842689752578735, 0.04052574560046196, 0.07898832857608795, -0.07567726820707321, 0.054994430392980576, -0.19804489612579346, 0.13196344673633575, -0.09465067088603973, 0.020192047581076622, -0.041241224855184555, -0.09885858744382858, 0.10337179154157639, -0.00810268148779869, 0.006076666060835123, 0.1887233555316925, -0.30364498496055603, -0.25926244258880615, 0.024075135588645935, -0.2177548110485077, 0.05942618101835251, 0.052696652710437775, 0.09952349960803986, -0.023043515160679817, 0.0852343961596489, 0.12466809153556824, -0.30111807584762573, -0.18160134553909302, -0.2294706553220749, 0.17796644568443298, -0.07504557818174362, 0.07649623602628708, -0.2435833364725113, -0.09577789902687073, -0.09734541177749634, -0.1237499788403511, 0.1347503662109375, -0.11667268723249435, 0.12138941884040833, -0.06774568557739258, 0.1993861347436905, -0.1271936148405075, 0.028624676167964935, -0.028864426538348198, -0.03191756084561348, 0.1280951350927353, -0.09207526594400406, -0.02513577602803707, -0.015105637721717358, -0.23046483099460602, 0.11367613822221756, -0.07270316779613495, -0.039829857647418976, -0.12438101321458817, 0.10599462687969208, 0.10754884034395218, 0.10560060292482376, -0.06369539350271225, -0.08924911171197891, 0.12883694469928741, -0.017259730026125908, -0.04257401078939438, -0.1323380470275879, -0.19275228679180145, 0.007062291726469994, -0.2758556008338928, 0.1303100883960724, -0.04459424316883087, -0.027586257085204124, -0.1919655054807663, -0.11573506146669388, -0.12118624150753021, 0.2504473030567169, 0.09478862583637238, -0.1726844161748886, 0.02682245336472988, 0.042545583099126816, -0.00900882575660944, 0.06319107115268707, 0.01794423535466194, 0.06623629480600357, -0.017662150785326958, 0.010546351782977581, -0.015827905386686325, -0.026282763108611107, -0.19477103650569916, -0.027646642178297043, -0.21411825716495514, 0.22422844171524048, -0.1481434404850006, 0.2528195083141327, 0.16907274723052979, -0.07986848801374435, 0.14329242706298828, 0.11200959980487823, -0.12350089848041534, -0.11166851222515106, -0.015313168987631798, -0.11544710397720337, -0.39546462893486023, -0.05837036669254303, -0.3640514016151428, -0.0073892963118851185, 0.1582285612821579, 0.20176851749420166, -0.05355100706219673, -0.0007214885554276407, 0.21607975661754608, -0.264499306678772, -0.18020573258399963, 0.21734163165092468, 0.042074043303728104, 0.1713595986366272, -0.13734371960163116, -0.04454615339636803, -0.0456523634493351, -0.06710967421531677, -0.04308917000889778, -0.09546876698732376, 0.1470659226179123, -0.21932514011859894, 0.10286100208759308, 0.13379895687103271, 0.07085085660219193, 0.1116645410656929, 0.03810577094554901, 0.0017441550735384226, 0.27103322744369507, 0.004309772048145533, 0.0701054260134697, 0.34595558047294617, 0.11623798310756683, 0.10324611514806747, 0.017220843583345413, 0.1371525228023529, -0.04176483303308487, 0.06450428068637848, 0.20305028557777405, -0.0843648836016655, -0.034340910613536835, 0.10155080258846283, 0.07513487339019775, 0.0023047022987157106, 0.15531373023986816, 0.12487582117319107, -0.02000446803867817, 0.06279490888118744, 0.03401246666908264, -0.2427361160516739, 0.06657867133617401, -0.05377913638949394, 0.019505342468619347, -0.09382171928882599, 0.10038211196660995, -0.022135324776172638, -0.1483449935913086, -0.014996667392551899, 0.29468363523483276, 0.036935463547706604, -0.11343347281217575, 0.07641724497079849, 0.30328789353370667, -0.04178330674767494, -0.0437910333275795, 0.051285095512866974, 0.016114329919219017, -0.014190366491675377, 0.047738779336214066, -0.029760200530290604, -0.10281538963317871, -0.00724131939932704, 0.04358956590294838, -0.025093965232372284, 0.014257651753723621, -0.039881631731987, 0.23224571347236633, 0.2182673066854477, 0.11418607085943222, 0.0583835244178772, 0.08076721429824829, 0.04540770873427391, -0.03349392116069794, 0.15651953220367432, -0.14341405034065247, 0.048042841255664825, 0.18773339688777924, 0.05119471251964569, 0.1252560168504715, -0.06676459312438965, 0.02690078690648079, 0.08422790467739105, -0.1597575545310974, 0.12381888926029205, 0.15713152289390564, 0.10706788301467896, -0.0812811329960823, 0.021843930706381798, -0.043220147490501404, 0.01907167211174965, 0.04648234695196152, -0.21743987500667572, 0.04719474911689758, 0.03038904070854187, -0.1648392677307129, -0.10292811691761017, -0.09464242309331894, -0.11871159076690674, 0.21101495623588562, -0.03702525049448013, 0.01856549270451069, -0.0013458689209073782, 0.15247376263141632, -0.005473216529935598, -0.08188926428556442, 0.14388629794120789, -0.054172370582818985, 0.15292276442050934, -0.010957721620798111, 0.05065776780247688, 0.08489278703927994, 0.02582206204533577, 0.1794133335351944, 0.09214939177036285, 0.002775713801383972, 0.24617311358451843, 0.12926480174064636, 0.20644479990005493, 0.07663431763648987, -0.017363373190164566, 0.20970134437084198, -0.016804922372102737, -0.04009586572647095, 0.2227657586336136, 0.3818235695362091, 0.12874726951122284, 0.27980223298072815, 0.2601160407066345, 0.09714847803115845, -0.3752870559692383, -0.03304656222462654, -0.0568009614944458, 0.01867317594587803, 0.14728504419326782, -0.04176471754908562, 0.08855699747800827, -0.16610297560691833, -0.08122393488883972, -0.06325928866863251, 0.15161308646202087, 0.27389708161354065, -0.002026745118200779, 0.1205003559589386, 0.17467953264713287, -0.10031715780496597, -0.08218591660261154, 0.00022879024618305266, 0.07130206376314163, 0.11177123337984085, 0.2781941294670105, 0.09033993631601334, -0.20185643434524536, -0.008347395807504654, 0.0273980051279068, -0.20121444761753082, 0.0626683309674263, 0.11809775233268738, -0.1307905912399292, -0.010559027083218098, -0.018370166420936584, 0.16639183461666107, 0.05118118226528168, -0.028447357937693596, 0.26650598645210266, 0.030140714719891548, 0.10586626827716827, 0.14472438395023346, -0.0341196246445179, -0.08384393155574799, -0.18013420701026917, -0.09230153262615204, 0.009436478838324547, -0.20232568681240082, 0.08726723492145538, -0.010117405094206333, 0.10988878458738327, 0.08469483256340027, -0.0759204551577568, -0.25959962606430054, -0.3218877911567688, -0.09708360582590103, 0.32979896664619446, -0.10266269743442535, 0.36578693985939026, 0.21582326292991638, 0.2726372480392456, 0.19226229190826416, -0.017331603914499283, -0.0968584269285202, -0.16883237659931183, 0.10849475860595703, -0.06875617057085037, 0.297780841588974, 0.13498058915138245, -0.16275839507579803, 0.032546281814575195, 0.17153272032737732, 0.1326121985912323, -0.10025539994239807, -0.03796663507819176, 0.22643941640853882, -0.21195244789123535, -0.020051011815667152, 0.19388411939144135, 0.06377658247947693, 0.06799234449863434, 0.2924690544605255, -0.20008690655231476, 0.12140033394098282, 0.09161588549613953, -0.2256404161453247, 0.339274138212204, -0.11974610388278961, 0.06251293420791626, 0.13824455440044403, 0.11527788639068604, 0.16741706430912018, 0.04744042083621025, 0.15234936773777008, 0.0031702774576842785, 0.05990207940340042, 0.1480690836906433, -0.03564267233014107, 0.044326696544885635, -0.28971898555755615, -0.12853838503360748, 0.003445565002039075, -0.1829967349767685, 0.03934936597943306, 0.1524839997291565, 0.060770828276872635, -0.007030216045677662, 0.05751023814082146, -0.12115101516246796, -0.13062609732151031, -0.0267416313290596, 0.06269831210374832, 0.2982373833656311, 0.04894782230257988, 0.08970368653535843, -0.14124281704425812, 0.19701996445655823, -0.06371887773275375, 0.29548200964927673, -0.01850985735654831, 0.4533569812774658, -0.30808794498443604, 0.1711963266134262, 0.0019720117561519146, 0.047959160059690475, 0.22218401730060577, 0.14943917095661163, -0.10328090190887451, -0.26493027806282043, -0.15612918138504028, -0.09691561013460159, -0.06272336840629578, -0.029267344623804092, -0.017665427178144455, -0.016298560425639153, 0.12804673612117767, -0.6014633178710938, -0.19936802983283997, -0.17988358438014984, 0.16173332929611206, -0.07298332452774048, -0.0012296411441639066, 0.29489466547966003, -0.011448914185166359, -0.48659998178482056, -0.009731892496347427, -0.024768715724349022, 0.05719925835728645, -0.20449575781822205, 0.4350895285606384, 0.6740663051605225, 0.36808499693870544, 0.12215951830148697, -0.009006701409816742, 1.1230891942977905, -0.7378032207489014, -0.13367880880832672, 0.19538402557373047, 0.06372648477554321, -0.0026313161943107843, 0.09919221699237823, 0.24050526320934296, -0.61257004737854, 0.014383130706846714, 0.4351843595504761, -0.17926859855651855, 0.021168148145079613, -0.16861751675605774, 0.09783318638801575, 0.029540978372097015, -0.12450814247131348, 0.017854472622275352, 0.017887767404317856, -0.07432835549116135, 0.29065802693367004, 0.09285633265972137, 0.21201126277446747, -0.03190737962722778, -0.07602022588253021, -0.08894895017147064, -0.007308078929781914, -0.34463202953338623, -0.05810566246509552, -0.10380665212869644, -0.12247945368289948, 0.1705407202243805, 0.16762086749076843, 0.3997947871685028, 0.22545024752616882, -0.22221465408802032, -0.25975486636161804, 0.033578526228666306, -0.09384530037641525, 0.05545106157660484, 0.04903469234704971, -0.13837853074073792, 0.002122880658134818, -0.037908751517534256, 0.03173746541142464, 0.11166663467884064, -0.00020074578060302883, -0.006685769651085138, 0.12618383765220642, 0.10041941702365875, 0.024639815092086792, -0.0581657774746418, 0.022941146045923233, 0.017761489376425743, -0.005013926886022091, -0.046785563230514526, 0.11749263107776642, -0.019598878920078278, 0.013766428455710411, -0.2518518567085266, -0.30097901821136475, -0.02044164203107357, 0.21661795675754547, 0.22126412391662598, 0.14282988011837006, -0.2664073407649994, 0.1640382558107376, -0.21621744334697723, -0.1652698516845703, 0.24006925523281097, 0.01982865482568741, 0.04734138026833534, 0.3497648239135742, -0.06825431436300278, 0.06094472110271454, -0.11731446534395218, 0.1346932053565979, -0.05173411965370178, -0.05256189405918121, -0.007465809118002653, -0.119865782558918, -0.17180073261260986, 0.03502857685089111, -0.012802159413695335, -0.129620760679245, 0.07192347943782806, -0.1213238388299942, 0.05150574445724487, -0.020307833328843117, 0.04101809859275818, -0.21441952884197235, -0.5530726909637451, 0.025060201063752174, 0.08894733339548111, 0.05965869873762131, -0.06050879508256912, -0.6388684511184692, 0.21627092361450195, 0.26786690950393677, 0.6709285974502563, 0.10279027372598648, 0.2567134499549866, 0.12496409565210342, -0.0007559417863376439, 0.3211604058742523, -0.13780713081359863, 0.46393999457359314, 0.02025485597550869, 0.20175491273403168, -0.09718876332044601, 0.029491541907191277, 0.010370838455855846, -0.07400490343570709, 0.12486038357019424, -0.5064698457717896, 0.3094537556171417, -0.05933075025677681, -0.037443798035383224, 0.19783659279346466, -0.0698874369263649, -0.050407685339450836, -0.008607926778495312, -0.18554404377937317, -0.152668297290802, -0.1461181640625, -0.11133721470832825, 0.0892745703458786, -0.14176389575004578, 0.059633612632751465, -0.09804877638816833, 0.027409479022026062, 0.02573716640472412, -0.004839317873120308, -0.2275194376707077, -0.1474105268716812, 0.20713427662849426, -0.09387583285570145, -0.06176970899105072, -0.11403605341911316, 0.12307626008987427, 0.12541033327579498, 0.15004493296146393, 0.007679878734052181, 0.1312076896429062, -0.2945321202278137, -0.13553042709827423, -0.06751639395952225, 0.13527673482894897, 0.05444445088505745, -0.14113545417785645, 0.2045716941356659, 0.014160535298287868, 0.027891481295228004, 0.19034981727600098, 0.07752225548028946, -0.012987385503947735, 0.01935906521975994, -0.025025343522429466, -0.08723586797714233, -0.08141391724348068, -0.050430700182914734, 0.1081775352358818, -0.05384892225265503, 0.05697789788246155, 0.004121667239814997, -0.029232626780867577, 0.23535136878490448, -0.10227252542972565, -0.16433833539485931, 0.017508363351225853, 0.23987822234630585, 0.05403599888086319, -0.24484680593013763, -0.485295832157135, 0.1133071556687355, -0.16363191604614258, -0.15931151807308197, -0.2252909243106842, -0.19609548151493073, 0.2628173828125, 0.07424380630254745, 0.08245927840471268, 0.034690096974372864, 0.10663312673568726, 0.07275395840406418, -0.03992941230535507, -0.2841798663139343, 0.05662333220243454, -0.04662727937102318, -0.05759074166417122, 0.05151234194636345, 0.10277996212244034, 0.034132059663534164, 0.009874960407614708, -0.09316810220479965, 0.06296791881322861, 0.08413303643465042, 0.22090330719947815, -0.006920091342180967, -0.020873814821243286, -0.04902851581573486, 0.2196613997220993, -0.09746517241001129, 0.04607689008116722, -0.07283668220043182, 0.11095847189426422, 0.09149878472089767, 0.17868022620677948, 0.05886708199977875, 0.140879288315773, 0.23996438086032867, 0.17392757534980774, 0.09067604690790176, 0.08079629391431808, 0.02942044660449028, 0.2064942568540573, -0.04665079340338707, 0.15591618418693542, -0.012964447028934956, -0.009770105592906475, -0.11951149255037308, 0.006798494607210159, 0.2846072018146515, -0.03165920823812485, -0.009378520771861076, 0.18841604888439178, -0.10506143420934677, -0.27492737770080566, -0.12211841344833374, 0.17490167915821075, 0.041145339608192444, -0.23149509727954865, 0.024596689268946648, 0.03521527349948883, 0.10983921587467194, 0.050766199827194214, -0.165943905711174, -0.07166402041912079, 0.0011564042652025819, -0.1428345888853073, -0.06498759984970093, 0.010994002223014832, -0.13462164998054504, -0.07186540961265564, 0.11054384708404541, 0.06382237374782562, -0.11271999776363373, -0.024058064445853233, 0.0027090925723314285, 0.10560618340969086, 0.030951928347349167, -0.13365456461906433, 0.018903613090515137, -0.08327575027942657, -0.030789745971560478, 0.07410505414009094, 0.08371105790138245, 0.004055211320519447, -0.06399556249380112, 0.07456247508525848, 0.15924793481826782, -0.018033025786280632, -0.04723144322633743, 0.05393437296152115, 0.04668034240603447, 0.12283559143543243, -0.0974801629781723, 0.05434882640838623, -0.022523248568177223, 0.029180722311139107, 0.041287198662757874, -0.019003551453351974, 0.042869508266448975, -0.037761326879262924, 0.13722047209739685, 0.17616449296474457, 0.06647707521915436, 0.10980909317731857, 0.003971428144723177, -0.03171873837709427, -0.15835246443748474, -0.2701263129711151, -0.02501564659178257, -0.01340045128017664, 0.029597854241728783, -0.08873361349105835, 0.1731317639350891, -0.04802970960736275, -0.15315502882003784, -0.007370146922767162, 0.010159339755773544, -0.3159233033657074, 0.07738777995109558, -0.0237806998193264, -0.23760424554347992, 0.043232306838035583, -0.03524469584226608, -0.12153516709804535, 0.16347305476665497, -0.1370743215084076, -0.06174959987401962, 0.28151485323905945, -0.12828628718852997, -0.19154484570026398, -0.23202452063560486, -0.16626092791557312, -0.1280755251646042, 0.23639608919620514, 0.07088854163885117, 0.13830018043518066, 0.004765899386256933, 0.15340542793273926, -0.19556470215320587, 0.03666422888636589, 0.042625121772289276, 0.006730759050697088, 0.012392046861350536, 0.0684550404548645, 0.11986178904771805, 0.15796202421188354, 0.07313088327646255, 0.14239302277565002, 0.12683264911174774, -0.1028304174542427, 0.23710352182388306, 0.030449524521827698, -0.22088181972503662, 0.17533259093761444, 0.18414001166820526, -0.10860039293766022, -0.11880646646022797, -0.022265097126364708, 0.23332172632217407, -0.0967838242650032, 0.21267205476760864, 0.15393666923046112, -0.10766716301441193, -0.04494849219918251, -0.20589183270931244, 0.27812790870666504, -0.13736161589622498, -0.023533403873443604, 0.22228434681892395, -0.04230232536792755, 0.00784581433981657, -0.13127149641513824, -0.25219282507896423, -0.04295787960290909, 0.22278250753879547, -0.08862040191888809, 0.0660349652171135, -0.13329413533210754, 0.05640881881117821, -0.0643230676651001, -0.38480499386787415, 0.0633879005908966, 0.08613418787717819, 0.047695599496364594, 0.13484477996826172, -0.07106734812259674, 0.15684999525547028, 0.06552375853061676, -0.14384591579437256, -0.06710666418075562, -0.2639680504798889, 0.00770939327776432, -0.17601749300956726, -0.05017225444316864, 0.2080582231283188, 0.15556234121322632, 0.03299704194068909, 0.1954074651002884, -0.1629546582698822, -0.05567460134625435, -0.09583550691604614, -0.007659310474991798, -0.11273891478776932, -0.10708796232938766, 0.03529782220721245, -0.03510809689760208, 0.2022392749786377, 0.05701672285795212, -0.06935708224773407, 0.10985450446605682, 0.008741479367017746, 0.19534078240394592, -0.06411480903625488, 0.206396222114563, 0.21808454394340515, -0.2932373285293579, -0.01569848693907261, 0.4252140522003174, 0.11833251267671585, -0.0706871822476387, -0.1458873599767685, 0.02352483943104744, 0.034364309161901474, -0.15273959934711456, -0.11829666793346405, 0.12488409876823425, 0.012994286604225636, -0.025827519595623016, 0.09720000624656677, -0.0013616662472486496, 0.010016233660280704, -0.06990309804677963, -0.39089855551719666, -0.16033151745796204, 0.005601543467491865, -0.3739466965198517, 0.051753364503383636, -0.0278361476957798, -0.37192457914352417, 0.13253198564052582, 0.03255085647106171, 0.06520268321037292, 0.16462145745754242, 0.006217611953616142, 0.042176488786935806, 0.11301349103450775, 0.1515348255634308, 0.0030750806909054518, -0.07191862165927887, 0.09498903900384903, -0.17758670449256897, 0.09561582654714584, 0.0737847089767456, 0.10843261331319809, -0.07015392929315567, 0.09297958016395569, -0.09109994024038315, -0.07875598222017288, -0.015093261376023293, 0.1178838238120079, 0.15497295558452606, 0.10859415680170059, -0.11112049221992493, 0.05352405086159706, -0.10783790796995163, -0.23970049619674683, -0.14680053293704987, 0.018455689772963524, 0.012209407985210419, 0.06432041525840759, -0.1740354299545288, -0.19008387625217438, -0.11061454564332962, -0.18190304934978485, 0.07679571956396103, 0.07700586318969727, 0.01303892582654953, 0.09613335132598877, 0.09282674640417099, -0.1476140171289444, -0.1205621212720871, -0.14224812388420105, 0.02558297850191593, -0.01671079359948635, -0.009300890378654003, 0.011948103085160255, -0.0814242735505104, 0.1294649988412857, -0.04496448114514351, 0.21288196742534637, 0.06715493649244308, 0.07850980013608932, 0.18939939141273499, -0.14904646575450897, 0.2363857924938202, -0.01461244560778141, 0.0069439709186553955, 0.16017864644527435, -0.0023360815830528736, 0.07993253320455551, 0.30592334270477295, 0.1153552308678627, -0.07446851581335068, 0.057277098298072815, 0.0626799464225769, -0.09766201674938202, -0.06938738375902176, 0.009353873319923878, -0.3439723253250122, 0.038668036460876465, -0.04753249138593674, 0.1059480756521225, 0.04730870574712753, -0.1477716863155365, 0.15038911998271942, 0.2904473841190338, 0.006104685366153717, -0.1907770335674286, -0.40072762966156006, -0.18118783831596375, 0.21675178408622742, 0.030402787029743195, 0.14168643951416016, -0.01925060898065567, -0.18573971092700958, 0.015973800793290138, -0.12196706980466843, 0.1617758572101593, 0.1285439282655716, 0.11082439124584198, 0.19399188458919525, -0.07371075451374054, -0.0747610554099083, 0.33239036798477173, 0.11064708232879639, 0.09985943138599396, 0.08434402942657471, 0.20854784548282623, 0.20211146771907806, 0.2577366530895233, 0.03715790435671806, 0.03897261619567871, 0.40499579906463623, -0.13043361902236938, 0.11054454743862152, 0.06416313350200653, -0.06398092955350876, 0.3445204794406891, -0.31504470109939575, -0.16090640425682068, -0.12381333857774734, -0.047713302075862885, 0.0006786398589611053, 0.10580871254205704, -0.11468527466058731, 0.09476561099290848, 0.021021321415901184, 0.03314710035920143, 0.08932997286319733, -0.19051384925842285, -0.13094745576381683, -0.08295585215091705, -0.11274494230747223, -0.10617420822381973, 0.17277809977531433, 0.17425721883773804, -0.22629208862781525, -0.2419758439064026, -0.16849929094314575, -0.04820585250854492, 0.08431486785411835, -0.026302428916096687, 0.11552077531814575, 0.08771757036447525, 0.035152968019247055, 0.05408569425344467, 0.10893373936414719, 0.026753975078463554, -0.07750334590673447, 0.032218772917985916, 0.12753094732761383, 0.09255748987197876, -0.037106551229953766, 0.23084737360477448, -0.16637766361236572, 0.15301084518432617, -0.30539917945861816, -0.052158456295728683, -0.17589102685451508, -0.09203197807073593, -0.08381369709968567, 0.2919653058052063, 0.07852206379175186, -0.09325431287288666, 0.025116901844739914, 0.09758072346448898, 0.03826605901122093, -0.07821603864431381, 0.10459601879119873, 0.019499871879816055, 0.26781129837036133, -0.3237927556037903, 0.027015315368771553, -0.0558476597070694, -0.0023938061203807592, -0.013710265047848225, 0.22581061720848083, 0.17254340648651123, -0.107551209628582, -0.05565972626209259, 0.07091100513935089, 0.22318008542060852, 0.019485387951135635, -0.1684238314628601, -0.11068467795848846, -0.12699498236179352, -0.003732138080522418, -0.023875927552580833, 0.009888489730656147, 0.016525182873010635, 0.14774903655052185, -0.03779369592666626, 0.0640350803732872, 0.023219384253025055, -0.29336708784103394, -0.1331385374069214, -0.04705491662025452, -0.06913784891366959, -0.08695278316736221, 0.15401750802993774, -0.06504686921834946, -0.12401416152715683, 0.08872388303279877, -0.030765008181333542, -0.04419767111539841, -0.14212970435619354, -0.055599913001060486, -0.13368955254554749, 0.011719200760126114, -0.01757895015180111, 0.11028628796339035, -0.038518283516168594, -0.0662551149725914, -0.092928446829319, -0.27256515622138977, 0.0492231585085392, 0.017866142094135284, 0.13939285278320312, 0.1533495932817459, -0.023949744179844856, 0.10124601423740387, 0.09774449467658997, 0.1535390019416809, 0.006236359942704439, -0.08071240782737732, 0.18877370655536652, 0.141338050365448, 0.06797283887863159, -0.0038697002455592155, 0.09810464084148407, -0.011353098787367344, 0.21632134914398193, -0.14902986586093903, 0.009092941880226135, -0.03944455832242966, -0.06310578435659409, -0.107169970870018, -0.062274038791656494, -0.018292443826794624, -0.07914087921380997, -0.18085381388664246, -0.02022630162537098, 0.28843656182289124, -0.008889651857316494, 0.03477396070957184, -0.03520539030432701, -0.18453718721866608, 0.011994631960988045, 0.01687704399228096, 0.14991237223148346, -0.0905625969171524, -0.05280600115656853, -0.06535368412733078, -0.019197508692741394, 0.11813157051801682, -0.11662646383047104, 0.0734526589512825, -0.005927133373916149, -0.042836301028728485, 0.17666228115558624, -0.01806001178920269, 0.010099724866449833, -0.06761324405670166, -0.1563369333744049, 0.07986284792423248, -0.1432466357946396, -0.14875280857086182, 0.1268746703863144, -0.11184229701757431, -0.3223009407520294, 0.14095845818519592, -0.08757221698760986, 0.23025420308113098, -0.18982891738414764, -0.12157194316387177, 0.07178424298763275, 0.003203816944733262, 0.014860214665532112, 0.1392304003238678, 0.03325655683875084, 0.1676143854856491, 0.047130733728408813, -0.26494747400283813, 0.17064376175403595, -0.015249863266944885, -0.02087819203734398, -0.13445821404457092, 0.2745434641838074, -0.1610584408044815, -0.21595951914787292, 0.2734484374523163, 0.04964892566204071, 0.0946684405207634, 0.16620706021785736, 0.045611344277858734, -0.10992862284183502, -0.12090959399938583, 0.05686698481440544, -0.17957663536071777, -0.11140228807926178, 0.006817856803536415, -0.08240503072738647, 0.03994559869170189, 0.020218750461935997, 0.05443762615323067, 0.18445523083209991, 0.01241953857243061, 0.16722357273101807, -0.12672188878059387, -0.1771751493215561, -0.03588509187102318, -0.08843489736318588, 0.013547152280807495, -0.13443778455257416, -0.07048648595809937, 0.020181186497211456, -0.04012572020292282, 0.03504931181669235, 0.12898771464824677, -0.11227162927389145, 0.059587202966213226, -0.07432092726230621, 0.03079369105398655, 0.048498738557100296, 0.12299822270870209, -0.07725690305233002, 0.1454407423734665, -0.04867437854409218, -0.02150459587574005, -0.1340176910161972, -0.05298671871423721, 0.021082796156406403, 0.10438396781682968, 0.17087014019489288, 0.13705262541770935, -0.0020474446937441826, -0.11687956005334854, 0.014454955235123634, 0.015601826831698418, -0.024154504761099815, -0.09936854988336563, -0.11414225399494171, -0.31630635261535645, 0.08234277367591858, 0.018611468374729156, -0.16269691288471222, -0.04558097571134567, 0.060204822570085526, -0.10929547995328903, 0.11097632348537445, -0.036909446120262146, 0.15308545529842377, 0.09733807295560837, -0.1862875521183014, -0.18562760949134827, 0.12328451871871948, -0.22359710931777954, 0.03851309046149254, 0.06759638339281082, -0.1032969281077385, 0.17113123834133148, 0.03486362099647522, 0.15440760552883148, 0.257860004901886, 0.09365614503622055, -0.036795955151319504, 0.04009758681058884, -0.1399303823709488, -0.05594446882605553, 0.17482079565525055, 0.24592512845993042, -0.005223982036113739, 0.29560062289237976, -0.044046103954315186, -0.019540593028068542, -0.001244508777745068, 0.09580918401479721, -0.19858767092227936, 0.008946209214627743, 0.029966428875923157, 0.15758223831653595, 0.1254274845123291, 0.05950731411576271, 0.030077114701271057, 0.13199710845947266, -0.08152395486831665, -0.06508947908878326, -0.006620550528168678, -0.14485357701778412, -0.014669744297862053, 0.2942522466182709, 0.06005644425749779, -0.053157493472099304, 0.20931436121463776, 0.022134847939014435, 0.34294649958610535, -0.17600110173225403, -0.1524709314107895, -0.11011160910129547, 0.22140860557556152, -0.1053415909409523, 0.09550830721855164, -0.08583001047372818, 0.16356712579727173, -0.1157187819480896, -0.004205734934657812, 0.03903438523411751, -0.2887377440929413, 0.11525426805019379, -0.14740592241287231, 0.06790057569742203, 0.07520285993814468, 0.14412206411361694, 0.07273454964160919, -0.3103227913379669, 0.1239740177989006, -0.12141714245080948, 0.09668265283107758, 0.18738994002342224, -0.16062642633914948, 0.05660226196050644, 0.05342309549450874, 0.06627004593610764, -0.33505693078041077, -0.30152803659439087, 0.030998799949884415, 0.3437410891056061, -0.02708638645708561, 0.15128086507320404, -0.07879038900136948, -0.043530549854040146, -0.0473337396979332, 0.142341747879982, -0.16739587485790253, -0.10006027668714523, 0.18523339927196503, -0.053146012127399445, -0.13677649199962616, 0.3604714870452881, 0.25445497035980225, 0.08147017657756805, 0.08314858376979828, 0.09324418008327484, 0.11516908556222916, 0.06507039070129395, 0.1134207472205162, 0.15935927629470825, 0.02585265040397644, -0.03102792799472809, 0.042711593210697174, 0.0425151064991951, -0.051432155072689056, 0.042804569005966187, -0.03953278809785843, -0.019478650763630867, 0.01139600295573473, -0.15028801560401917, 0.10395627468824387, 0.06431961804628372, -0.08237823098897934, -0.1810062676668167, -0.11689098179340363, -0.03569716215133667, 0.020335715264081955, -0.19623272120952606, 0.09233605116605759, 0.19484470784664154, -0.10842163860797882, 0.1934119611978531, -0.05827191844582558, -0.05224211886525154, -0.1223749965429306, 0.09542296081781387, -0.25136616826057434, 0.17075543105602264, -0.30708447098731995, 0.02711450308561325, 0.2720716893672943, -0.08769341558218002, -0.007561018690466881, -0.01016504131257534, -0.16583265364170074, -0.17588813602924347, -0.04535070061683655, -0.0940641462802887, -0.06313591450452805, -0.017314374446868896, -0.2263609617948532, -0.21295857429504395, -0.13432206213474274, -0.16630712151527405, -0.1875932663679123, 0.2099291980266571, -0.32058796286582947, 0.11614251136779785, -0.01129169948399067, 0.096440389752388, -0.07199134677648544, -0.03301335126161575, 0.0745820626616478, -0.2814265489578247, -0.052528392523527145, 0.1262189894914627, -0.18861226737499237, 0.01051020435988903, -0.19858159124851227, 0.18676452338695526, -0.16250291466712952, 0.10982760787010193, 0.09374623745679855, 0.20589712262153625, -0.13203345239162445, 0.08356641978025436, -0.2810264825820923, -0.13616004586219788, 0.0931711494922638, -0.14106984436511993, 0.0031176612246781588, 0.10594956576824188, -0.0850304514169693, 0.028210848569869995, -0.2857547998428345, 0.07344302535057068, -0.014742832630872726, 0.05102718994021416, -0.040299270302057266, -0.0655638799071312, -0.05131789296865463, 0.27239543199539185, 0.24291235208511353, 0.006697922013700008, 0.07191108167171478, 0.1354628950357437, -0.007472650613635778, -0.019043488427996635, 0.05378298833966255, 0.004953379277139902, 0.07918256521224976, 0.12085224688053131, -0.03361228480935097, -0.0808093398809433, -0.12016070634126663, -0.05531990900635719, -0.16344548761844635, 0.43740180134773254, -0.18698957562446594, 0.058704622089862823, 0.34332558512687683, -0.2887844443321228, -0.02477525733411312, 0.21358604729175568, -0.12581126391887665, -0.01303413137793541, -0.22151941061019897, -0.22365105152130127, -0.17270076274871826, -0.01167231798171997, -0.23361742496490479, -0.024252217262983322, 0.14064449071884155, 0.23800866305828094, -0.037308450788259506, -0.0919472724199295, 0.08390305936336517, -0.47033342719078064, -0.13485188782215118, -0.026094969362020493, -0.056787047535181046, -0.0072310008108615875, -0.08929979801177979, 0.05102746561169624, 0.0032285854686051607, -0.24891184270381927, -0.08595501631498337, -0.01698467880487442, -0.034809984266757965, -0.11581046134233475, 0.04723157361149788, 0.11905917525291443, 0.16269497573375702, 0.14270199835300446, -0.11702801287174225, 0.08683101832866669, 0.22103039920330048, -0.13670219480991364, 0.12279258668422699, 0.2382686585187912, 0.23020459711551666, 0.09383270889520645, -0.13014903664588928, 0.0588453970849514, -0.16438499093055725, -0.08721544593572617, 0.26894399523735046, 0.05409395322203636, -0.17863787710666656, 0.1186237782239914, 0.014433854259550571, 0.08552036434412003, 0.30235257744789124, 0.024426324293017387, 0.12152864784002304, 0.1551331728696823, -0.054480765014886856, -0.13446897268295288, -0.08659779280424118, -0.026085523888468742, 0.21771852672100067, -0.00785002950578928, 0.12330589443445206, -0.03368828818202019, -0.0818924829363823, 0.0004726888728328049, 0.3840630054473877, -0.03550290688872337, -0.14574548602104187, 0.19856363534927368, 0.23600192368030548, -0.2644570767879486, -0.3099050521850586, -0.02830154076218605, 0.04933144897222519, -0.13218806684017181, -0.1176009327173233, -0.03586333245038986, -0.04915885627269745, 0.12730374932289124, 0.052304066717624664, 0.03149762749671936, 0.26000386476516724, 0.1007750853896141, 0.20079518854618073, 0.07703693211078644, 0.1177486777305603, 0.12580902874469757, 0.12459750473499298, 0.036691814661026, -0.014836077578365803, 0.15544161200523376, 0.05996820330619812, 0.03357651084661484, 0.055040933191776276, 0.25158625841140747, 0.052200984209775925, 0.07465968281030655, 0.2097683995962143, 0.0626363679766655, -0.23888106644153595, 0.10757897794246674, -0.023797189816832542, 0.06251999735832214, 0.15250025689601898, 0.05590324476361275, -0.1241900622844696, -0.0010758377611637115, -0.12277807295322418, -0.22019442915916443, -0.06301014870405197, -0.20736205577850342, -0.4018773138523102, -0.03874316066503525, -0.10056313127279282, -0.12979279458522797, 0.2553931176662445, 0.08126261085271835, 0.14049947261810303, -0.2122569978237152, 0.18211261928081512, -0.027315672487020493, 0.04341753199696541, 0.07108701020479202, 0.053969044238328934, 0.08397700637578964, -0.05996255949139595, 0.023339763283729553, 0.019842663779854774, -0.02253139391541481, 0.2078777402639389, 0.07799658924341202, 0.12706182897090912, -0.21534371376037598, 0.41409066319465637, 0.24068179726600647, 0.0075371419079601765, 0.059758495539426804, -0.0025683550629764795, 0.019007960334420204, -0.11764315515756607, 0.2923746407032013, 0.3057723939418793, -0.004327365197241306, 0.2758159637451172, 0.33329400420188904, -0.08578406274318695, -0.09438133239746094, 0.04499217867851257, -0.0037297611124813557, 0.11203600466251373, 0.39533162117004395, -0.1559470295906067, 0.033566124737262726, -0.0011347709223628044, 0.044315315783023834, -0.058348625898361206, -0.0011294509749859571, 0.3030981719493866, -0.10645147413015366, -0.07555387914180756, 0.2561628818511963, -0.04883836582303047, 0.09295572340488434, 0.08513926714658737, 0.055368196219205856, 0.11404898762702942, 0.17156310379505157, 0.010646678507328033, -0.043756112456321716, 0.040486082434654236, 0.12353616207838058, -0.21076098084449768, -0.10738551616668701, -0.0018725153058767319, -0.17204904556274414, -0.034022118896245956, 0.06900418549776077, -0.008317464962601662, 0.1942201852798462, -0.19534027576446533, 0.061684392392635345, -0.08803160488605499, 0.21089987456798553, -0.15737284719944, 0.057726792991161346, 0.11142147332429886, -0.11600539088249207, -0.13115206360816956, 0.2185346484184265, -0.6729661822319031, 0.012227854691445827, 0.008062686771154404, -0.21958473324775696, 0.05801142379641533, -0.10377401113510132, 0.12939076125621796, -0.38725990056991577, 0.18883825838565826, -0.06916026026010513, -0.11010909825563431, 0.4947379529476166, 0.1172197163105011, 0.13522692024707794, 0.044914670288562775, -0.039676517248153687, 0.04586946964263916, -0.1603376865386963, 0.11409301310777664, -0.06534544378519058, 0.3552654981613159, 0.10564572364091873, -0.07536369562149048, 0.04310477897524834, 0.07657769322395325, -0.05266859009861946, -0.08024105429649353, 0.1976640373468399, 0.017897091805934906, -0.0765022411942482, -0.2057933658361435, -0.043376170098781586, -0.022717738524079323, 0.08860067278146744, 0.06331701576709747, 0.07158767431974411, -0.07505961507558823, -0.06460191309452057, -0.26005300879478455, 0.14971032738685608, 0.20836614072322845, 0.00037096842424944043, 0.15449078381061554, 0.05431348830461502, -0.04841913655400276, -0.04293013736605644, -0.014332790859043598, -0.04345550760626793, 0.19348765909671783, 0.2986966073513031, -0.014772993512451649, 0.21845193207263947, -0.21426503360271454, 0.02922615222632885, 0.22794930636882782, -0.17312221229076385, 0.016948595643043518, 0.21099942922592163, -0.1883528232574463, 0.15735574066638947, -0.014297760091722012, 0.0655943751335144, -0.04840294271707535, -0.3181799650192261, 0.007350940257310867, 0.21390071511268616, -0.15829327702522278, 0.05951434001326561, -0.11449800431728363, 0.3605648875236511, 0.4418085515499115, 0.08607516437768936, -0.08959361165761948, -0.04978066310286522, -0.3837500214576721, -0.16810749471187592, -0.040191639214754105, 0.18555092811584473, 0.354203462600708, -0.037444960325956345, -0.09697312116622925, -0.3896212577819824, -0.08622502535581589, -0.1019875705242157, 0.20322109758853912, -0.41417282819747925, 0.03087553195655346, 0.08760048449039459, 0.08418609201908112, -0.358092725276947, -0.127942755818367, -0.03751911595463753, 0.07749499380588531, -0.1082439050078392, 0.24237987399101257, -0.1544027030467987, 0.019410492852330208, -0.2517595589160919, -0.156999871134758, 0.12604275345802307, -0.2195969820022583, 0.1424059122800827, 0.5047416090965271, 0.5928938388824463, 0.36551961302757263, 0.07848827540874481, 0.015611394308507442, 1.060192346572876, -0.6868953704833984, -0.17130239307880402, 0.1434222161769867, -0.014731950126588345, 0.1502692848443985, 0.04665922373533249, 0.2964189052581787, -0.47635573148727417, 0.034722596406936646, 0.5407187938690186, -0.11545323580503464, -0.007677259389311075, -0.20432725548744202, 0.15883763134479523, 0.01898058131337166, -0.04393571987748146, -0.16311359405517578, -0.01680569350719452, -0.08766701072454453, 0.1463824361562729, -0.06835055351257324, 0.20336870849132538, 0.08501411974430084, 0.049520596861839294, 0.03169404715299606, 0.007000593934208155, -0.37432533502578735, 0.09746724367141724, 0.03156239166855812, -0.12166085839271545, 0.15972700715065002, 0.16137370467185974, 0.35732415318489075, 0.07089468091726303, -0.21347151696681976, -0.2719171345233917, -0.019829120486974716, -0.05106326565146446, 0.04933697357773781, 0.06237976625561714, -0.06427442282438278, 0.01842755451798439, 0.021536218002438545, -0.14802421629428864, 0.010845635086297989, 0.0657903328537941, -0.06785063445568085, -0.005752214230597019, 0.1417732983827591, -0.001962400507181883, -0.1262088268995285, 0.02199181169271469, 0.017515411600470543, 0.02897273562848568, -0.17608915269374847, 0.06295672804117203, -0.09576761722564697, -0.06157156825065613, -0.07042346149682999, -0.1702517420053482, -0.05915956199169159, 0.12951849400997162, 0.23869121074676514, 0.14044712483882904, -0.2160569578409195, 0.1132517084479332, -0.1500757783651352, -0.0936882346868515, 0.08200570940971375, 0.04486575350165367, 0.08116479218006134, 0.3717290759086609, -0.036751169711351395, 0.02799840271472931, 0.01599244400858879, 0.06179177761077881, -0.08091875910758972, -0.08132612705230713, 0.03983648866415024, -0.1892666220664978, -0.07736935466527939, 0.2045779973268509, -0.1508176177740097, 0.009702579118311405, -0.02812104858458042, -0.19823667407035828, 0.020940149202942848, -0.04624509811401367, -0.08396937698125839, -0.07353293150663376, -0.2093084454536438, -0.4503691792488098, -0.02859925478696823, 0.23106448352336884, -0.23834358155727386, 0.08022279292345047, -0.12361901998519897, -0.04359390214085579, -0.21160663664340973, -0.19724169373512268, -0.16110579669475555, -0.45540228486061096, 0.23382528126239777, -0.24275146424770355, 0.3829020857810974, -0.01434741634875536, 0.000521174049936235, 0.09945320338010788, -0.0021310446318238974, -0.03202538937330246, -0.045423977077007294, -0.20203198492527008, 0.10331540554761887, -0.4332384169101715, 0.33690139651298523, 0.08636628091335297, 0.12943780422210693, 0.1697581559419632, 0.0415603369474411, 0.0049529229290783405, 0.026983723044395447, -0.22101905941963196, 0.12437452375888824, 0.005649244878441095, 0.08310525864362717, 0.11934627592563629, -0.08143483847379684, 0.07015188038349152, -0.29692116379737854, -0.12184637784957886, 0.06973317265510559, -0.13875655829906464, 0.1676548719406128, -0.019222410395741463, 0.13785183429718018, -0.0947105661034584, -0.029388966038823128, 0.03272288665175438, -0.4349175691604614, -0.17691285908222198, -0.36596372723579407, -0.15809322893619537, -0.24357931315898895, 0.09934082627296448, -0.18284882605075836, -0.041220180690288544, -0.054383277893066406, 0.2312832474708557, -0.008216757327318192, -0.04495962709188461, 0.1518208235502243, 0.15095601975917816, 0.055746015161275864, -0.2180996686220169, 0.2912543714046478, -0.28814563155174255, 0.0002855801722034812, 0.023634828627109528, -0.22639839351177216, -0.238528773188591, 0.3409695327281952, -0.047279953956604004, 0.2783844470977783, -0.09297909587621689, 0.022355470806360245, 0.025767579674720764, 0.060736268758773804, -0.0635182335972786, -0.06744135916233063, 0.2148270606994629, 0.04049951955676079, -0.031501948833465576, -0.23094357550144196, 0.01471665222197771, -0.10071147233247757, -0.23669728636741638, -0.3066982626914978, -0.06117352843284607, -0.05913495644927025, 0.2706380784511566, 0.14574158191680908, -0.024770967662334442, 0.3141627907752991, -0.1433786153793335, 0.062174201011657715, 0.282775342464447, 0.07495458424091339, -0.013210732489824295, -0.050081800669431686, 0.1291581094264984, 0.1882828325033188, 0.08507358282804489, 0.027047328650951385, 0.0853772833943367, 0.12902119755744934, 0.07084622234106064, 0.08466231822967529, 0.05729501321911812, 0.14399059116840363, 0.0736343264579773, 0.33899515867233276, 0.112999826669693, 0.2235259860754013, 0.16003398597240448, 0.1137797087430954, 0.19455015659332275, 0.2133825272321701, 0.16143445670604706, 0.13608528673648834, 0.008851082995533943, -0.4355064630508423, 0.08135788887739182, -0.08219922333955765, 0.0769222155213356, 0.20160797238349915, 0.18046638369560242, 0.20459163188934326, -0.15813636779785156, 0.13943655788898468, -0.15998713672161102, 0.23148852586746216, 0.3041493892669678, -0.007070357445627451, -0.1574181467294693, 0.14650985598564148, -0.12564913928508759, 0.05545559898018837, -0.2684023976325989, 0.08683030307292938, 0.055118437856435776, -0.14790436625480652, -0.14371030032634735, -0.09869065880775452, -0.058499306440353394, 0.07889022678136826, 0.0017240848392248154, -0.20277242362499237, -0.2929648756980896, -0.2291065752506256, -0.22853030264377594, -0.15292441844940186, -0.22626318037509918, 0.08675176650285721, 0.01904693804681301, -0.023696020245552063, 0.07902272045612335, -0.1082984060049057, 0.07766575366258621, -0.10628092288970947, -0.20976221561431885, -0.13601233065128326, 0.24886354804039001, -0.2440144121646881, -0.17923085391521454, -0.040325503796339035, 0.04266471788287163, -0.043677642941474915, -0.13322561979293823, -0.12618514895439148, 0.07305139303207397, 0.025613397359848022, -0.15869534015655518, 0.26096782088279724, -0.060073066502809525, 0.19166478514671326, -0.5298070907592773, -0.0140917943790555, -0.23190514743328094, 0.16872841119766235, 0.14702844619750977, 0.12124812602996826, 0.3183443546295166, 0.02417958714067936, -0.002785663353279233, 0.021579541265964508, -0.06652967631816864, 0.12670448422431946, 0.038110461086034775, 0.027549507096409798, 0.009226823225617409, -0.1293804943561554, -0.007791310083121061, -0.015653500333428383, 0.024784494191408157, 0.02345999889075756, 0.15678516030311584, 0.02834971249103546, 0.18064099550247192, 0.06414119899272919, 0.18952499330043793, -0.205598846077919, 0.03899839520454407, 0.12847711145877838, -0.21092547476291656, -0.12427787482738495, 0.06782463937997818, -0.1876237392425537, -0.030385226011276245, 0.1481219232082367, 0.03544817119836807, 0.21628908812999725, 0.21191731095314026, -0.343779057264328, -0.4306964576244354, -0.08042889833450317, 0.06360027194023132, 0.21142908930778503, 0.2825256586074829, -0.1954546719789505, -0.004066096618771553, 0.04147510603070259, -0.0013199810637161136, 0.1905941367149353, 0.007772698067128658, 0.23913060128688812, -0.1380317658185959, 0.23692964017391205, 0.2714684307575226, 0.15593020617961884, -0.10001716762781143, -0.20322559773921967, 0.09748031198978424, -0.20398016273975372, 0.138827845454216, 0.10031319409608841, -0.08004367351531982, 0.13923467695713043, 0.14345499873161316, 0.27654048800468445, 0.014609281904995441, 0.1459820419549942, 0.16865669190883636, 0.09254337847232819, 0.07045458257198334, 0.1733582466840744, -0.17116354405879974, -0.17202621698379517, -0.0038748180959373713, 0.12425516545772552, -0.21601079404354095, 0.43155375123023987, -0.05588243529200554, -0.11137629300355911, 0.2758750915527344, 0.15949872136116028, 0.20569343864917755, 0.059214040637016296, 0.06232002377510071, -0.03849552944302559, -0.04708484560251236, 0.12141444534063339, 0.41855713725090027, 0.06487244367599487, -0.19071747362613678, -0.057423487305641174, 0.08459091186523438, -0.30995360016822815, -0.09218484908342361, 0.09977927058935165, -0.18535631895065308, 0.17074239253997803, 0.027494367212057114, 0.11701574921607971, -0.15401841700077057, 0.02583564631640911, -0.2342844009399414, -0.1053667888045311, 0.10914117842912674, -0.0740354135632515, 0.12330913543701172, -0.08635833114385605, 0.0696682557463646, 0.0774318277835846, 0.15255744755268097, 0.1372348964214325, 0.2831744849681854, -0.06844992935657501, 0.17590948939323425, -0.05640629678964615, 0.10372837632894516, -0.02623537741601467, -0.14856761693954468, 0.11921922117471695, -0.16664135456085205, -0.15679322183132172, -0.1657983958721161, 0.07786194980144501, 0.19982948899269104, -0.25764572620391846, 0.2878413200378418, 0.2482103854417801, -0.23492608964443207, 0.07302311807870865, -0.2383524477481842, -0.06749079376459122, 0.015048595145344734, -0.09829463809728622, 0.11276597529649734, 0.06082085147500038, -0.024206608533859253, 0.17468483746051788, 0.20379333198070526, -0.10128045082092285, -0.08539605885744095, 0.12791559100151062, -0.36561518907546997, -0.25149932503700256, -0.0963408350944519, -0.40553203225135803, -0.05760395526885986, 0.1520436853170395, -0.1316394805908203, 0.09377442300319672, 0.2646957337856293, -0.08499233424663544, -0.1472828984260559, 0.1548532396554947, -0.09044301509857178, -0.03779558092355728, 0.0507325604557991, -0.22828727960586548, -0.07592882961034775, 0.11785852909088135, 0.336495578289032, 0.1042584702372551, 0.07808776944875717, -0.25536060333251953, -0.10760016739368439, -0.0705808773636818, 0.22809702157974243, 0.01864081807434559, -0.18857000768184662, 0.11130575090646744, 0.18812042474746704, -0.039629142731428146, -0.3398921489715576, 0.018586300313472748, -0.006730183493345976, -0.0031598361674696207, -0.13232381641864777, -0.003093772567808628, -0.08485020697116852, 0.018163565546274185, -0.09954042732715607, 0.11055684834718704, -0.13860063254833221, -0.03385545685887337, 0.02235586754977703, -0.14579765498638153, 0.06493102014064789, 0.09916670620441437, 0.06683055311441422, 0.022751061245799065, 0.09269647300243378, 0.14913401007652283, 0.04745751619338989, -0.06793182343244553, -0.17545045912265778, -0.006637706886976957, -0.05371579900383949, 0.1411658525466919, 0.03520110622048378, 0.12247099727392197, 0.06265024095773697, 0.12561608850955963, 0.1725538820028305, 0.027185659855604172, 0.05054040625691414, 0.27556636929512024, -0.10527458041906357, 0.1821676790714264, -0.20973369479179382, 0.08478724956512451, 0.09975612908601761, 0.029944850131869316, 0.11486225575208664, 0.024248676374554634, -0.08867865800857544, 0.023910390213131905, -0.07148060202598572, -0.22674410045146942, -0.27340853214263916, 0.03763700649142265, -0.09719091653823853, -0.0483812615275383, 0.25226107239723206, -0.0769081860780716, 0.08195831626653671, 0.16501474380493164, 0.2317262440919876, 0.03708759695291519, -0.07869305461645126, 0.18719536066055298, 0.08757470548152924, 0.12070717662572861, 0.20793496072292328, 0.06412052363157272, 0.15342578291893005, -0.07844098657369614, 0.047567784786224365, 0.057057369500398636, -0.1050235778093338, -0.07871606200933456, 0.09862866252660751, 0.12332513928413391, -0.04881326109170914, 0.3327905535697937, -0.17601913213729858, 0.10726534575223923, 0.2761332094669342, 0.10208632051944733, 0.35504090785980225, 0.12400022149085999, -0.035079482942819595, -0.4498441219329834, 0.34682849049568176, 0.009193861857056618, 0.446845680475235, 0.10862673819065094, 0.197704017162323, 0.5505689382553101, -0.14837899804115295, -0.06404000520706177, -0.07682301104068756, 0.18453598022460938, 0.2317826896905899, 0.020369984209537506, -0.1407686024904251, 0.19171199202537537, -0.3208972215652466, 0.09608151763677597, -0.129815474152565, 0.031128069385886192, 0.03567318990826607, -0.2704915702342987, 0.019915269687771797, -0.03147362545132637, 0.43204349279403687, -0.04710442200303078, -0.3732879161834717, -0.3464229702949524, 0.31606826186180115, -0.09188609570264816, -0.12033697962760925, 0.2730834186077118, 0.027981985360383987, -0.09935612231492996, -0.20125576853752136, 0.1068989709019661, 0.17968721687793732, -0.22861075401306152, -0.1766771376132965, 0.11978531628847122, -0.17922787368297577, 0.12285491824150085, -0.06934448331594467, 0.24615468084812164, -0.021717283874750137, -0.043424490839242935, -0.1561887264251709, 0.5018326044082642, -0.06448632478713989, 0.37310823798179626, -0.19166766107082367, 0.09100861102342606, -0.03799929842352867, 0.05214299261569977, -0.22380700707435608, 0.42455264925956726, -0.1989826261997223, -0.1485130339860916, 0.2545837461948395, 0.01881604827940464, -0.056127145886421204, -0.09611932933330536, -0.2087426334619522, 0.002422494348138571, -0.33785122632980347, 0.3710216283798218, -0.02656715176999569, 0.26005488634109497, -0.004782585427165031, 0.23194998502731323, 0.06907906383275986, -0.06018969044089317, 0.0772102028131485, -0.06729478389024734, 0.10201756656169891, -0.08643856644630432, 0.10915594547986984, -0.06278714537620544, -0.04334855452179909, -0.00010973791358992457, -0.04268674924969673, 0.03441152349114418, -0.0037709511816501617, 0.08591176569461823, -0.1305321455001831, -0.26309046149253845, -0.2332075536251068, -0.20619335770606995, 0.008901664055883884, -0.06379145383834839, 0.14329594373703003, -0.12529681622982025, 0.20701290667057037, -0.18138888478279114, 0.17799112200737, 0.004722514655441046, -0.008583533577620983, -0.31742310523986816, 0.1392107903957367, 0.10265354067087173, 0.028283635154366493, 0.024777911603450775, 0.2230660766363144, 0.11255350708961487, -0.1367851346731186, -0.2161700427532196, 0.030365917831659317, -0.07975834608078003, -0.17685876786708832, -0.25379443168640137, 0.00186854915227741, -0.3620113134384155, 0.3193865716457367, -0.07268189638853073, 0.027130840346217155, -0.025220967829227448, 0.28879308700561523, 0.062242139130830765, 0.18526926636695862, 0.06867378205060959, -0.1794614940881729, 0.023471802473068237, 0.010580946691334248, -0.2041851282119751, -0.32493647933006287, -0.03742291405797005, -0.05737362802028656, -0.4037809371948242, 0.04042229428887367, 0.023866504430770874, -0.11929138004779816, 0.2116755247116089, 0.1672622710466385, 0.1610996425151825, -0.39531734585762024, -0.05094921961426735, 0.32564660906791687, 0.24140901863574982, -0.1910770833492279, 0.07495288550853729, 0.0684991106390953, 0.031592775136232376, -0.1279834508895874, -0.07971394807100296, -0.011242229491472244, -0.43723997473716736, -0.01829788088798523, 0.12018477916717529, 0.2025812715291977, 0.3138180673122406, 0.07792025059461594, -0.03573541343212128, 0.0519174225628376, -0.16137243807315826, -0.16761939227581024, -0.3043501675128937, 0.06991297006607056, -0.2128850370645523, -0.014074688777327538, -0.5156691670417786, 0.11606419831514359, -0.15752506256103516, 0.22573478519916534, -0.015438376925885677, -0.0025052635464817286, -0.07184923440217972, 0.11916295439004898, -0.001254647271707654, 0.08215024322271347, -0.07920826226472855, -0.10247329622507095, 0.07840552181005478, -0.03397926688194275, 0.20460769534111023, 0.09497886896133423, -0.09140963852405548, 0.008024649694561958, 0.13617511093616486, 0.11507873237133026, -0.17990612983703613, 0.25097131729125977, 0.12776798009872437, 0.3050573170185089, 0.08737070858478546, -0.013040591962635517, -0.17209652066230774, -0.09392347931861877, -0.05617085471749306, -0.15285085141658783, 0.016994422301650047, 0.1640588641166687, -0.05033344030380249, 0.1659938544034958, -0.06722869724035263, -0.1434246301651001, -0.17690251767635345, -0.28507310152053833, 0.13109737634658813, -0.0016314629465341568, -0.13433243334293365, 0.35012802481651306, -0.1259075552225113, 0.05349694564938545, 0.03918807953596115, -0.21601572632789612, -0.3827712833881378, 0.14388947188854218, -0.060605403035879135, -0.12647229433059692, -0.22722448408603668, 0.1855941116809845, -0.11030706763267517, 0.1661020666360855, 0.11864714324474335, 0.013470925390720367, -0.14353424310684204, -0.2645879089832306, 0.16469858586788177, -0.29734745621681213, -0.07903046160936356, -0.13282598555088043, 0.026096006855368614, 0.06400676816701889, -0.12618578970432281, -0.07399454712867737, -0.13365721702575684, -0.19250540435314178, 0.11853763461112976, 0.25980374217033386, -0.19857069849967957, 0.3357231318950653, 0.08908351510763168, -0.1644102782011032, -0.10506920516490936, 0.1399814784526825, 0.013115129433572292, 0.2732212543487549, -0.026985375210642815, -0.12112437933683395, 0.07843336462974548, -0.3163943588733673, 0.19113172590732574, 0.02815413847565651, -0.02659672126173973, 0.22874513268470764, 0.0045501976273953915, -0.2778337001800537, 0.09685780107975006, 0.16113395988941193, -0.08921077102422714, 0.18231290578842163, 0.3319711983203888, 0.1094021126627922, 0.257344126701355, 0.10013572126626968, 0.3460550010204315, 0.04351816326379776, -0.18182307481765747, -0.06788914650678635, -0.2384844273328781, 0.17437289655208588, -0.0449831523001194, 0.05191462114453316, -0.022166438400745392, -0.2432856410741806, -0.011003440245985985, -0.24218271672725677, -0.1018061637878418, 0.157828688621521, 0.08945859223604202, -0.028098665177822113, -0.061374515295028687, -0.04156194254755974, 0.1563883125782013, 0.3053259253501892, -0.17564179003238678, -0.22015537321567535, 0.01083869393914938, 0.039511874318122864, -0.025839542970061302, 0.13610254228115082, -0.0754740908741951, -0.38789844512939453, 0.20824551582336426, -0.1614002287387848, 0.39210045337677, 0.012994404882192612, -0.30656540393829346, -0.14312955737113953, 0.0505405031144619, -0.03488551080226898, 0.08245272934436798, 0.09731832146644592, 0.28763970732688904, -0.1149766594171524, -0.07475434988737106, 0.014763168059289455, 0.11517893522977829, 0.11951739341020584, -0.14800013601779938, -0.009315403178334236, 0.12334096431732178, -0.36702680587768555, -0.06685830652713776, -0.1513877809047699, 0.02120596542954445, 0.027361692860722542, -0.15251050889492035, 0.3668147921562195, -0.06642234325408936, 0.029159344732761383, 0.027742762118577957, 0.07809111475944519, -0.29847225546836853, 0.15187835693359375, -0.03997613489627838, 0.14333465695381165, 0.14238455891609192, 0.17421868443489075, -0.1517397165298462, -0.0019996389746665955, 0.20967642962932587, -0.02809734083712101, 0.029300346970558167, -0.02365015260875225, -0.018063722178339958, -0.31535908579826355, -0.14295479655265808, 0.047100260853767395, 0.1740836203098297, 0.15650023519992828, -0.008186821825802326, 0.07588300108909607, -0.06459922343492508, -0.0722162202000618, -0.04032626748085022, 0.05774682015180588, -0.12202633172273636, -0.25438565015792847, 0.020880920812487602, -0.24779711663722992, -0.2546067535877228, 0.11485548317432404, -0.044792164117097855, -0.19593574106693268, -0.14227084815502167, -0.029500488191843033, 0.4253590404987335, -0.12928088009357452, -0.19356654584407806, -0.11106660217046738, -0.10250573605298996, -0.16227471828460693, 0.05508929491043091, -0.11180891841650009, 0.07618783414363861, -0.08156678080558777, -0.01993526890873909, 0.1807701736688614, -0.11443383991718292, -0.14263324439525604, -0.20008623600006104, 0.22572048008441925, 0.017231717705726624, 0.08981005102396011, -0.17902104556560516, -0.10977942496538162, 0.1582432985305786, -0.02250361256301403, 0.14811843633651733, -0.16780269145965576, 0.02883566915988922, -0.2354792356491089, -0.2070707529783249, -0.07838378846645355, -0.10318394750356674, -0.07571321725845337, -0.22789518535137177, 0.05403536185622215, -0.2845175266265869, 0.09987441450357437, -0.20085285604000092, -0.0936705693602562, -0.11953072994947433, -0.16165383160114288, -0.09198169410228729, 0.23022979497909546, 0.32552042603492737, 0.26705893874168396, -0.4274403154850006, -0.05763431638479233, -0.3757531940937042, 0.20215734839439392, -0.001034335931763053, 0.009390783496201038, -0.3661693334579468, 0.1956235021352768, -0.24158164858818054, -0.20346546173095703, -0.005605419632047415, -0.12466835230588913, 0.12332426011562347, 0.051610492169857025, -0.029785791411995888, -0.14965999126434326, -0.018147729337215424, 0.09329211711883545, -0.058664120733737946, 0.023710206151008606, -0.24519607424736023, 0.2345617562532425, -0.08329146355390549, -0.06752870231866837, -0.17034785449504852, 0.040163952857255936, -0.15800926089286804, 0.09558963030576706, -0.05190274119377136, 0.24100571870803833, -0.09284166246652603, -0.21040013432502747, 0.15647250413894653, -1.0761574506759644, -0.07943442463874817, -0.006255491636693478, 0.04081442579627037, 0.030914945527911186, 0.041591912508010864, 0.22770118713378906, 0.03427689149975777, -0.15547648072242737, 0.1041158065199852, -0.08377310633659363, -0.17380137741565704, 0.18583501875400543, 0.07363969832658768, 0.10743114352226257, 0.1458580642938614, -0.2285218983888626, 0.039011601358652115, 0.12816084921360016, -0.09237293154001236, -0.01711723953485489, -0.14307452738285065, -0.033461786806583405, 0.3051009476184845, 0.03119726851582527, 0.09558813273906708, -0.07048340141773224, -0.20106515288352966, 0.019347120076417923, 0.027795584872364998, 0.21344731748104095, -0.014027843251824379, 0.05547613650560379, 0.007320994045585394, -0.19833625853061676, 0.19039495289325714, 0.04770449548959732, 0.05590637028217316, 0.28148382902145386, 0.054781705141067505, -0.1503537893295288, -0.043095458298921585, -0.08614989370107651, 0.2680559754371643, 0.06412570923566818, 0.5283414125442505, 0.19209888577461243, 0.14287212491035461, 0.3891383409500122, 0.09617625921964645, -0.14342118799686432, 0.33749181032180786, -0.18362118303775787, 0.09948490560054779, 0.01920008473098278, 0.050944939255714417, 0.33020663261413574, 0.14716313779354095, 0.09806262701749802, -0.1383846402168274, -0.18262311816215515, 0.2542968988418579, -0.0039644259959459305, -0.17586149275302887, 0.32645392417907715, 0.0628303661942482, 0.16122326254844666, -0.2610539495944977, 0.3908308446407318, 0.043856218457221985, -0.2807527482509613, -0.37185731530189514, 0.6666550636291504, -0.20341747999191284, -1.3144501447677612, -0.622363805770874, -0.08013930916786194, 0.00539864506572485, 0.0992845892906189, -0.05858297646045685, -0.3024367690086365, 0.23696458339691162, -0.5232281684875488, 0.27706146240234375, -0.26053163409233093, 0.2579837739467621, -0.38495752215385437, -0.36567920446395874, 0.14812414348125458, 0.08932524174451828, 0.23164202272891998, -0.009827370755374432, 0.20266093313694, -0.25316473841667175, -0.03741602972149849, 0.06754541397094727, -0.1924874484539032, 0.019546449184417725, -0.02848324552178383, 0.10929007083177567, 0.013827831484377384, -0.47038036584854126, -0.2058539241552353, 0.052238281816244125, -0.14715111255645752, -0.3668922185897827, 0.011247084476053715, 0.22276422381401062, 0.23396706581115723, 0.15759949386119843, 0.13507746160030365, 0.12235265970230103, -0.1179206371307373, 0.08651489019393921, 0.08191311359405518, 0.053908731788396835, 0.06959306448698044, -0.19545865058898926, 0.2580156624317169, 0.272767573595047, 0.3203745484352112, 0.08558721840381622, -0.009907027706503868, -0.1592637002468109, -0.06188008561730385, 0.5459177494049072, -0.09825190156698227, -0.11238010227680206, -0.06228059530258179, -0.30192333459854126, -0.32051917910575867, 0.2615213394165039, 0.1781785786151886, 0.3319780230522156, 0.07847383618354797, 0.5256536602973938, -0.2844967842102051, 0.18023750185966492, -0.008737360127270222, 0.20337221026420593, 0.004792229738086462, -0.21534375846385956, 0.14785058796405792, 0.004624150227755308, 0.04263671115040779, 0.4488970935344696, 0.2479131519794464, 0.1901320219039917, 0.03263141214847565, 0.4033590853214264, 0.2691649794578552, -0.07322460412979126, -0.00543588399887085, -0.30544939637184143, 0.051462288945913315, 0.14802615344524384, 0.13201430439949036, -0.24572962522506714, -0.03222271427512169, 0.2535483241081238, 0.12015385925769806, 0.2992521822452545, 0.11376319825649261, -0.040495987981557846, -0.18411651253700256, 0.2741674482822418, 0.00749014038592577, -0.07047010958194733, 0.0800875723361969, 0.08320506662130356, 0.0485430546104908, -0.10557432472705841, -0.12415090948343277, -0.0033842874690890312, -0.16483940184116364, -0.33895885944366455, -0.12413224577903748, -0.14776958525180817, -0.24128364026546478, -0.08330642431974411, -0.17287489771842957, 0.07801520079374313, -0.12946626543998718, -0.15562374889850616, -0.034937161952257156, 0.11929456144571304, -0.16881519556045532, -0.17296764254570007, -0.18674705922603607, -0.07726547867059708, -0.3019999861717224, -0.05456960201263428, 0.018980959430336952, 0.05110209062695503, -0.0027567963115870953, -0.6993058919906616, 0.6317858695983887, -0.3195533752441406, -0.18715065717697144, -0.6056826114654541, 0.20661203563213348, -0.13195368647575378, -0.5937609076499939, -0.46936482191085815, 0.41763898730278015, -0.9945986866950989, 0.40822339057922363, 0.13680286705493927, -0.6007513999938965, 0.3295430541038513, -0.277866929769516, 0.6405618786811829, -0.37328165769577026, 0.3705423176288605, 0.04053570702672005, 0.06518451124429703, 0.4365827143192291, 0.28276634216308594, 0.13789841532707214, -0.14952553808689117, -0.4130169749259949, 0.030002377927303314, -0.3276119828224182, 0.10993766039609909, -0.1484513282775879, 0.4641278386116028, 0.33447766304016113, 0.07671838998794556, -0.11950365453958511, -0.07384580373764038, 0.1900247037410736, -0.01659196801483631, -0.11226218193769455, 0.43642571568489075, 0.3295077681541443, -0.25443902611732483, -0.15004293620586395, -0.025994639843702316, -0.4575364887714386, 0.42677387595176697, -0.15372271835803986, 0.4350590109825134, -0.26464521884918213, -0.3501356840133667, -0.09782971441745758, 0.20373031497001648, -0.025802666321396828, 0.14194001257419586, 0.17933358252048492, -0.3647622764110565, 0.20739871263504028, 0.01943071000277996, -0.013403207994997501, 0.12902231514453888, 0.0550277978181839, 0.01769973337650299, -0.10901376605033875, -0.22552160918712616, 0.15482400357723236, -0.26403889060020447, -0.06587374955415726, -0.17560544610023499, -0.18260899186134338, 0.15186642110347748, -0.02863544411957264, 0.355580598115921, -0.11047724634408951, 0.05407315492630005, -0.40396636724472046, 0.2685646116733551, -0.3369596004486084, 0.1223815530538559, -0.052953243255615234, -0.43937262892723083, -0.40885013341903687, 0.05558060109615326, 0.22313567996025085, -0.0839793011546135, -0.26638263463974, -0.132061168551445, -0.043189212679862976, 0.18720099329948425, 0.33814534544944763, -0.336123526096344, -0.18652771413326263, 0.08009100705385208, -0.3729700744152069, 0.07391444593667984, 0.27992331981658936, 0.2758341431617737, -0.4659196138381958, -0.24517598748207092, -0.10282129049301147, 0.019250672310590744, -0.06119876354932785, -0.005633894819766283, -0.026274986565113068, -1.2894898653030396, 0.1538187563419342, 0.06107628718018532, -0.022014671936631203, 0.20366697013378143, 0.24677421152591705, -0.3857637345790863, -0.11039333045482635, -0.3000800907611847, 0.3010525703430176, 0.5480630397796631, 0.7044529914855957, 0.33394119143486023, 0.1452477127313614, 0.09999249130487442, 1.104937195777893, -0.7121689319610596, -0.18359710276126862, 0.11322662234306335, 0.06873153150081635, 0.1632164865732193, 0.00132710428442806, 0.24726514518260956, -0.40870267152786255, 0.001114612678065896, 0.5578713417053223, -0.04173582047224045, -0.09628938138484955, -0.08185829967260361, 0.20163343846797943, 0.056510407477617264, 0.005267942789942026, -0.00453012902289629, 0.061079833656549454, -0.0016135997138917446, 0.27606579661369324, 0.06556478887796402, 0.05403915047645569, 0.026614269241690636, 0.029511690139770508, -0.15174226462841034, 0.05890732631087303, -0.3320671319961548, -0.01817379705607891, -0.06687859445810318, -0.08565214276313782, 0.18716076016426086, 0.12136868387460709, 0.25886014103889465, 0.1289249062538147, -0.2993587553501129, -0.2783927619457245, 0.07049804925918579, -0.16508308053016663, 0.21395817399024963, 0.15980501472949982, -0.05455061420798302, -0.12555080652236938, 0.05236200615763664, -0.11093180626630783, 0.06050682067871094, 0.0908786877989769, 0.10621269047260284, 0.03335535526275635, 0.1450050324201584, -0.10764360427856445, -0.01940964348614216, -0.028560981154441833, -0.09994442015886307, 0.0005697223241440952, -0.03369925543665886, 0.10253040492534637, -0.009624399244785309, -0.09180821478366852, -0.10526343435049057, -0.20951645076274872, 0.006003140937536955, 0.1845228523015976, 0.333312451839447, 0.2003786712884903, -0.2907126247882843, 0.06378640234470367, -0.20839880406856537, -0.21891683340072632, 0.24694223701953888, 0.013613400049507618, -0.013726556673645973, 0.403953492641449, -0.1913040727376938, 0.1796661764383316, -0.012670922093093395, 0.2273615598678589, -0.12107907235622406, -0.04003971070051193, -0.09191551059484482, -0.09703170508146286, -0.08879081159830093, 0.0935584083199501, -0.187567338347435, -0.05933965742588043, 0.011228243820369244, -0.1763795018196106, 0.11963135749101639, 0.12576600909233093, -0.1501687616109848, -0.16854216158390045, -0.17554357647895813, -0.08703864365816116, -0.03688298165798187, 0.06078425794839859, -0.008027840405702591, 0.16056542098522186, -0.0007971791201271117, 0.7138867378234863, -0.24129058420658112, 0.049162041395902634, -0.03934966400265694, -0.16835586726665497, 0.015882540494203568, 0.10123423486948013, -0.12675414979457855, 0.28064998984336853, 0.17277060449123383, 0.27246907353401184, -0.08430594950914383, -0.06869424134492874, 0.04727334529161453, -0.14678342640399933, 0.08750047534704208, -0.581012487411499, 0.36699041724205017, -0.04985770210623741, 0.10400717705488205, 0.050483908504247665, -0.030228059738874435, -0.042191073298454285, 0.003183169523254037, -0.24911591410636902], "bnGammaB": [1.4542092084884644, 0.9549885988235474, 1.3564207553863525, 1.3522541522979736, 1.0437058210372925, 1.3407949209213257, 0.7496349215507507, 0.7747306823730469, 0.957584798336029, 0.817428469657898, 2.037144899368286, 0.7502792477607727, 0.8453147411346436, 1.519206166267395, 0.9509768486022949, 1.1239416599273682], "bnMeanA": [-0.36399200558662415, -1.534275770187378, 0.9241863489151001, 0.1330888867378235, -0.9113779664039612, 0.5003589391708374, -1.3199807405471802, 0.08920254558324814, -0.1100030466914177, 0.39498957991600037, 0.3500145971775055, 0.35812875628471375, 1.3148095607757568, -0.9594907760620117, 1.0872944593429565, 0.4089732766151428], "inputChannelsDim": 48, "className": "finception", "bnBetaA": [-0.8790821433067322, -0.8182325959205627, -0.6269609928131104, -0.5177327990531921, -0.7101103067398071, -1.0014718770980835, 0.5277811288833618, -1.1108431816101074, -0.9881021976470947, -1.1274995803833008, -0.6199026703834534, -0.8547914028167725, -1.1632440090179443, -0.9317286610603333, -0.4024312496185303, -1.1024198532104492], "bnMeanB": [-2.835853099822998, 3.4747493267059326, -0.3307308554649353, 1.6854153871536255, 1.976245403289795, 1.5497052669525146, 0.4766218066215515, -0.9951189160346985, -2.241283655166626, -2.5047221183776855, -0.8884651064872742, 0.26597297191619873, -1.7569276094436646, -0.19719789922237396, -0.4533592164516449, 0.004797353409230709], "convBiasB": [0.010588434524834156, -0.01275364588946104, 0.024821486324071884, -0.018892915919423103, -0.01704711839556694, -0.015746450051665306, 0.007155547849833965, -0.009388573467731476, -0.007545016705989838, -0.010954074561595917, -0.005677907261997461, -0.00959797389805317, -0.0034822996240109205, 0.0016606098506599665, -0.002696524141356349, 0.004334532655775547], "convBiasA": [-0.06917484104633331, -0.05231742933392525, -0.022957367822527885, -0.029078178107738495, -0.026951830834150314, -0.0767708420753479, -0.018465956673026085, -0.016606969758868217, 0.03917225822806358, -0.044936999678611755, 0.07413306832313538, -0.07041104882955551, -0.0079053258523345, 0.009253861382603645, 0.008579596877098083, 0.004030939191579819], "typesDim": 3, "scaleFactor": 1, "bnBetaB": [-1.2434101104736328, -0.0965416207909584, -2.5954222679138184, -1.051865816116333, -1.10780668258667, -0.7055367231369019, -0.3945285975933075, -0.08405983448028564, -0.2342028021812439, -0.14885501563549042, -1.8081016540527344, -0.2897234261035919, -0.2718091607093811, -1.3725682497024536, -0.5335677266120911, -0.5283933877944946], "bnVarianceB": [18.839725494384766, 20.913013458251953, 5.389321804046631, 8.014488220214844, 10.299259185791016, 20.53513526916504, 42.42707061767578, 58.22502899169922, 24.053443908691406, 119.8804702758789, 13.625774383544922, 71.19205474853516, 116.32245635986328, 12.625853538513184, 51.214195251464844, 8.817705154418945], "masterInputChannelsDim": 14, "bnVarianceA": [3.9855141639709473, 3.955979347229004, 2.492138385772705, 5.191683292388916, 3.9522132873535156, 4.209278583526611, 3.709275484085083, 7.768307685852051, 5.066292762756348, 2.9255754947662354, 2.9764981269836426, 1.594605803489685, 5.045392036437988, 3.565329074859619, 5.852997779846191, 1.8112454414367676]}, {"upsamplingRoundsDimFactor": 1, "roundsDim": 1, "convBias": [-0.019467651844024658], "kernelTypesDim": 1, "convKernel": [-0.07016663253307343, 0.04386167973279953, -0.16560272872447968, -0.03763307258486748, 0.07947655022144318, -0.05610828846693039, 0.13369925320148468, 0.11935360729694366, 0.055684227496385574, 0.23034515976905823, 0.06447871029376984, 0.1352863758802414, -0.21251347661018372, 0.05623256042599678, -0.15276312828063965, 0.038422174751758575], "kernelRoundsDim": 1, "inputChannelsDim": 16, "className": "ception", "bnMean": [0.11468501389026642], "bnVariance": [0.0037145104724913836], "bnBeta": [0.18048058450222015], "typesDim": 3, "bnGamma": [0.04224418103694916], "upsamplingTypesDimFactor": 1, "channelsDim": 1}]