[{"className": "hyception", "typeChannelsDim": 2, "roundChannelsDim": 1, "roundsDim": 6, "typeRoundChannelsDim": 2, "typesDim": 3, "singleChannelsDim": 1}, {"bnMean": [0.16978977620601654, -0.6308005452156067, -0.09825550764799118, -0.12133096158504486, -0.42906442284584045, 0.6350165009498596, 0.16715358197689056, -0.9445858597755432, 0.2512538731098175, -0.417427122592926, -0.37103545665740967, 0.109654001891613], "upsamplingRoundsDimFactor": 1, "kernelRoundsDim": 1, "upsamplingTypesDimFactor": 1, "bnBeta": [-0.08060148358345032, -0.01827218011021614, 0.059314873069524765, -0.094120092689991, 0.030344240367412567, 0.13274332880973816, -0.08065204322338104, -0.055112503468990326, -0.050296079367399216, 0.03497857600450516, 0.06163444742560387, 0.015527470037341118], "inputChannelsDim": 14, "convKernel": [-0.2405688315629959, -0.056962937116622925, 0.3239530026912689, 0.06037871539592743, -0.17091244459152222, 0.363421767950058, -0.25073832273483276, 0.16306446492671967, -0.012989427894353867, -0.34144940972328186, 0.4053132236003876, -0.41072753071784973, 0.11231593787670135, 0.2039709985256195, -0.2204248458147049, 0.24840162694454193, 0.0745076984167099, 0.06401512771844864, 0.21006418764591217, 0.2747122645378113, -0.15101739764213562, -0.3013543486595154, -0.2804471254348755, 0.0291490126401186, -0.41100218892097473, -0.40425240993499756, 0.4203563928604126, 0.1950710564851761, -0.3754153251647949, 0.35683467984199524, 0.10913578420877457, 0.25079596042633057, -0.44690290093421936, 0.2094152420759201, -0.05372704565525055, -0.38444045186042786, 0.40472495555877686, -0.10625658184289932, -0.21059942245483398, 0.3678956627845764, -0.28191399574279785, 0.10944951325654984, 0.35361576080322266, -0.294561505317688, 0.4401833117008209, 0.25311240553855896, -0.46549472212791443, 0.12292321771383286, -0.10749835520982742, 0.008411047048866749, -0.09136489778757095, 0.16895832121372223, 0.3553203344345093, 0.3619215488433838, 0.11363285779953003, 0.07075279951095581, -0.21365238726139069, -0.06944155693054199, 0.09391572326421738, -0.20624685287475586, 0.05059640109539032, -0.02861928753554821, -0.2799411714076996, 0.19408880174160004, -0.14589111506938934, 0.059244364500045776, -0.16723869740962982, -0.06049574911594391, 0.1445726901292801, -0.22201211750507355, -0.24300053715705872, -0.12807856500148773, 0.05982809513807297, -0.3821846544742584, -0.15589620172977448, -0.22879540920257568, 0.11628406494855881, 0.33308324217796326, -0.2708151936531067, 0.126861110329628, 0.21056750416755676, -0.05781213939189911, -0.31528571248054504, 0.4065397381782532, 0.04031573235988617, -0.3809300363063812, -0.2679086923599243, 0.19992050528526306, -0.17922039330005646, 0.405317097902298, -0.4018577039241791, -0.518753170967102, 0.42240819334983826, 0.12609484791755676, 0.3064082860946655, -0.37320154905319214, -0.0536506287753582, -0.4152693450450897, -0.5000770688056946, -0.2331753671169281, 0.054052844643592834, -0.39343228936195374, -0.1198621541261673, -0.5885438323020935, 0.23300763964653015, 0.07112795859575272, -0.05949947610497475, 0.3576786518096924, -0.18028317391872406, 0.26256000995635986, 0.3491927683353424, -0.34721052646636963, -0.08043145388364792, -0.055557653307914734, 0.017958952113986015, -0.34090521931648254, -0.17321979999542236, -0.40910398960113525, -0.3088735044002533, -0.11855486035346985, 0.04536200314760208, 0.13047729432582855, 0.06254669278860092, -0.3946533203125, 0.20396532118320465, 0.33730795979499817, -0.1627071052789688, -0.3601013422012329, -0.20524166524410248, -0.3664034307003021, 0.3966045379638672, -0.22928784787654877, 0.39318791031837463, -0.3661341071128845, 0.17673611640930176, -0.07254181057214737, -0.06906408816576004, 0.16470754146575928, 0.2968995273113251, -0.14519107341766357, 0.10566466301679611, 0.2165905386209488, -0.3694031536579132, -0.38589826226234436, 0.09257317334413528, 0.004878369625657797, 0.5315625667572021, -0.4908033311367035, 0.06585248559713364, 0.35190877318382263, -0.37307363748550415, 0.013023625127971172, 0.2975247800350189, 0.4166652262210846, 0.40367791056632996, -0.03718111291527748, 0.07285939902067184, -0.4463318884372711, 0.036521799862384796, 0.24863244593143463, -0.35452398657798767, 0.3868878185749054, 0.43329086899757385, -0.05509834736585617, -0.14555905759334564, -0.3730931282043457, 0.1346907615661621, 0.5058315396308899], "roundsDim": 6, "bnGamma": [1.0172584056854248, 0.9611288905143738, 1.013899326324463, 0.9250696301460266, 0.999535083770752, 0.8924888968467712, 1.0968037843704224, 0.9184033274650574, 0.9830089807510376, 0.9448978304862976, 1.0099835395812988, 0.9170121550559998], "channelsDim": 12, "bnVariance": [0.04510005563497543, 0.06338776648044586, 0.11559821665287018, 0.08043866604566574, 0.04653891921043396, 0.10826908051967621, 0.09952138364315033, 0.09195493161678314, 0.032130587846040726, 0.06076526269316673, 0.17055344581604004, 0.12398631870746613], "kernelTypesDim": 1, "className": "ception", "convBias": [0.004832841455936432, 1.1106058991572354e-05, 0.0004901993670500815, -0.001970670884475112, -0.0014668841613456607, 0.0034386448096483946, -0.0064004105515778065, 0.0010672067292034626, -0.007965054363012314, -0.0021286022383719683, -0.003448590636253357, 0.004011584911495447], "typesDim": 3}, {"bnMeanD": [-0.28505900502204895, -0.33915287256240845, -0.01326342299580574, -0.03554525598883629, 0.19250506162643433, -0.5395156741142273, 0.20323897898197174, -0.14232920110225677, -0.0071799615398049355, 0.9331192970275879, -0.045968785881996155, -0.1228700578212738, 0.26597967743873596, 0.05731135979294777, 0.7157579064369202, -0.05625723674893379], "bnBetaD": [0.03312038257718086, 0.022241687402129173, 0.022435564547777176, 0.01918981596827507, 0.04507571831345558, 0.014894949272274971, -0.020350562408566475, -0.04937424883246422, 0.045035094022750854, -0.029369749128818512, -0.1539679914712906, 0.030436469241976738, 0.027585718780755997, -0.008868795819580555, 0.03509204089641571, 0.04098719358444214], "bnVarianceA": [0.46825820207595825, 1.5314741134643555, 1.4066276550292969, 0.8008904457092285, 1.0282502174377441, 1.0400675535202026, 1.1895248889923096, 1.0215305089950562], "bnVarianceB": [0.16696320474147797, 0.6288166046142578, 2.3511717319488525, 0.8738301992416382, 2.930579662322998, 0.0514192096889019, 0.27924469113349915, 0.7375683784484863, 0.41504767537117004, 0.19586004316806793, 0.5238876938819885, 0.26590120792388916, 0.5092191696166992, 1.3217953443527222, 0.1669914722442627, 0.584957480430603], "bnBetaA": [0.1282380074262619, -0.030622433871030807, -0.061512771993875504, 0.08961779624223709, -0.04960235580801964, 0.026015542447566986, 0.026594750583171844, -0.11253989487886429], "bnGammaB": [0.9769046306610107, 1.009760856628418, 1.0061955451965332, 0.924831748008728, 0.9964601993560791, 1.0323054790496826, 0.9183976054191589, 1.0153218507766724, 0.9477314949035645, 0.9116083979606628, 0.9749608635902405, 0.9350116848945618, 1.0036596059799194, 1.0029957294464111, 1.0554749965667725, 1.0165667533874512], "scaleFactor": 1, "convKernelD": [0.04166043549776077, -0.14267398416996002, 0.038777999579906464, 0.14380578696727753, 0.18917469680309296, 0.054520271718502045, 0.18455345928668976, -0.2375975400209427, 0.16969819366931915, 0.10525871813297272, -0.10182651877403259, 0.15207447111606598, -0.24352724850177765, 0.14074239134788513, 0.12169817835092545, 0.06474968791007996, -0.1940116137266159, -0.14694547653198242, 0.018541475757956505, -0.21465802192687988, 0.2114245742559433, -0.015381606295704842, 0.0465545728802681, -0.07884790003299713, 0.042013853788375854, 0.0879501923918724, -0.06226854771375656, 0.056958187371492386, 0.16269540786743164, 0.18741634488105774, 0.05894128605723381, -0.128744974732399, 0.1455979198217392, 0.043713971972465515, -0.008704115636646748, -0.028039010241627693, 0.05291953310370445, -0.14917615056037903, -0.033613525331020355, 0.012847017496824265, 0.1368272453546524, -0.0007669443148188293, 0.0054648020304739475, -0.10604941099882126, -0.22962349653244019, 0.014623009599745274, 0.08571180701255798, 0.13770687580108643, 0.10629452764987946, -0.046540774405002594, -0.12794876098632812, -0.09676287323236465, 0.05581987649202347, 0.07048826664686203, -0.15628980100154877, 0.13167081773281097, -0.18687422573566437, -0.1328568011522293, 0.024409160017967224, -0.12457285076379776, -0.10016118735074997, 0.004511385690420866, -0.08381150662899017, -0.06770943105220795, -0.20827259123325348, -0.2117673009634018, -0.06842173635959625, 0.021373659372329712, 0.17714008688926697, 0.12414106726646423, 0.003989354707300663, 0.008793187327682972, -0.1799636036157608, 0.1250421702861786, -0.18190181255340576, 0.10371369123458862, 0.029212716966867447, -0.025001285597682, 0.22577722370624542, 0.046172432601451874, -0.18492551147937775, 0.033947333693504333, -0.14464211463928223, 0.06418946385383606, -0.08153719455003738, -0.005171262659132481, -0.182444229722023, -0.2273164689540863, 0.1678481101989746, 0.05567358806729317, 0.04979521781206131, -0.24284759163856506, 0.06575614959001541, -0.07138390839099884, -0.0976090207695961, -0.03951074928045273, -0.19978532195091248, -0.12363734841346741, -0.10468914359807968, -0.163957878947258, -0.01174994744360447, -0.23312868177890778, -0.19032005965709686, -0.048611294478178024, 0.01947406306862831, 0.19017429649829865, -0.19640374183654785, 0.04481586441397667, -0.08646980673074722, 0.048937611281871796, 0.14470472931861877, -0.1831861287355423, 0.04188430681824684, -0.03892417997121811, 0.07870065420866013, -0.19911862909793854, 0.11156775057315826, -0.15776294469833374, 0.08906815201044083, 0.1664983183145523, -0.1987128108739853, 0.15945981442928314, 0.0966465175151825, 0.0485108457505703, -0.045884277671575546, -0.011487768031656742, 0.05558696389198303, 0.047975149005651474, 0.0196846816688776, -0.10691758990287781, -0.13899902999401093, 0.08303298056125641, -0.15931980311870575, 0.112787626683712, 0.086911141872406, 0.04914401099085808, 0.11196974664926529, 0.08764967322349548, -0.08898776024580002, 0.08334635198116302, 0.07132958620786667, -0.07578261941671371, -0.0629509910941124, 0.11342906206846237, 0.03140779212117195, 0.15347035229206085, -0.04021957889199257, 0.09562037885189056, 0.10652817040681839, 0.0948108360171318, -0.02783842757344246, -0.08715885877609253, -0.07491271942853928, 0.24744269251823425, 0.017371725291013718, 0.04150040075182915, 0.17900660634040833, -0.08292397856712341, 0.20829035341739655, -0.14931555092334747, 0.08909397572278976, 0.14384368062019348, 0.04168687388300896, -0.07818982750177383, -0.0840616449713707, -0.17878639698028564, -0.011429878883063793, 0.11424922943115234, -0.10687260329723358, -0.029093410819768906, 0.1743564009666443, -0.15935397148132324, 0.11020111292600632, -0.14523859322071075, 0.1757386177778244, 0.10474450141191483, -0.07656252384185791, 0.057399824261665344, -0.0544358566403389, 0.08714311569929123, -0.08103780448436737, -0.11636056751012802, -0.06469767540693283, 0.1713465303182602, -0.054702408611774445, 0.07790189236402512, 0.17954102158546448, 0.20005321502685547, 0.014008095487952232, -0.20904594659805298, -0.14003287255764008, -0.08579712361097336, -0.14238059520721436, 0.13803322613239288, -0.11971335858106613, 0.07320848852396011, 0.09417722374200821, -0.03820420056581497, 0.12992055714130402, 0.07475288957357407, 0.1805558204650879, 0.07220974564552307, -0.11066926270723343, 0.09868312627077103, 0.11595708876848221, 0.10203874111175537, 0.17752762138843536, -0.19186168909072876, 0.19316557049751282, -0.07182491570711136, -0.08091041445732117, 0.029211988672614098, -0.14968422055244446, -0.16120947897434235, 0.04369857534766197, -0.0498143695294857, -0.15196669101715088, 0.044447336345911026, 0.1251196712255478, 0.016205592080950737, 0.10082682967185974, -0.14017485082149506, 0.11791947484016418, 0.20201990008354187, -0.04449642822146416, -0.09467306733131409, 0.0002426840947009623, 0.172821506857872, 0.07499011605978012, -0.13812726736068726, 0.1544608771800995, 0.09427953511476517, -0.09062421321868896, 0.1484525203704834, 0.15790121257305145, 0.10745310038328171, 0.17826348543167114, 0.05046292766928673, -0.004192722495645285, -0.11528991907835007, -0.10119632631540298, -0.16501761972904205, 0.011906733736395836, -0.0802142471075058, -0.005555741488933563, -0.013425230048596859, 0.16180692613124847, 0.056047871708869934, -0.05324661359190941, 0.043671946972608566, 0.1294112503528595, -0.21236161887645721, -0.031133322045207024, -0.016423553228378296, 0.02496313489973545, 0.16848501563072205, 0.1312713474035263, -0.1584254801273346, 0.13551418483257294, 0.07422610372304916, -0.13586604595184326, -0.08029427379369736, 0.17180795967578888, 0.18515722453594208, -0.048593830317258835, -0.17476117610931396, -0.11257760971784592, 0.16865192353725433, -0.02219189517199993, 0.06657402962446213, -0.006428457330912352, 0.03582242876291275, -0.1534474939107895, -0.09806595742702484, 0.15592361986637115, -0.02459985576570034, 0.17103126645088196, 0.1695120483636856, -0.16190563142299652, -0.0367007739841938, -0.1460391879081726, -0.05542421713471413, 0.14233839511871338, -0.09109173715114594, -0.14835809171199799, 0.002533519174903631, 0.1578184962272644, -0.10103611648082733, 0.04814794659614563, 0.17639820277690887, 0.06353191286325455, 0.21460016071796417, -0.189433753490448, 0.020535746589303017, 0.09899310022592545, 0.049212660640478134, -0.19523747265338898, 0.06673342734575272, 0.18553981184959412, 0.09554075449705124, 0.025114359334111214, 0.17973387241363525, 0.03108510561287403, -0.04925305023789406, -0.04649129509925842, -0.01029191818088293, 0.14775609970092773, 0.1481321007013321, 0.08214172720909119, 0.15638141334056854, 0.0368875190615654, 0.07435484975576401, 0.082293801009655, 0.10494786500930786, -0.04424639418721199, 0.23042388260364532, 0.007022255100309849, -0.02043355628848076, 0.1461615413427353, 0.07886143028736115, 0.10917617380619049, -0.09903236478567123, -0.01938665099442005, -0.07538975775241852, -0.14533847570419312, -0.1952884942293167, 0.06357552111148834, -0.16226758062839508, -0.1485152691602707, 0.0841011106967926, 0.10222852230072021, -0.055922411382198334, 0.1484651416540146, 0.12170282006263733, 0.2596428394317627, 0.10846385359764099, -0.00997080747038126, -0.07253631204366684, 0.16245374083518982, 0.006364571396261454, 0.16599328815937042, -0.013611328788101673, 0.10115142911672592, -0.22022774815559387, -0.13052824139595032, 0.01247799675911665, -0.07029157131910324, -0.0645865648984909, -0.16922572255134583, 0.05986398831009865, -0.21839886903762817, 0.05273877829313278, -0.10139815509319305, -0.1170649304986, -0.041073139756917953, 0.05722857266664505, -0.016383882611989975, -0.12076457589864731, 0.06671606749296188, 0.004724695812910795, 0.015966204926371574, -0.06588608771562576, 0.12278927862644196, -0.13074110448360443, 0.16771790385246277, -0.10961799323558807, -0.085304394364357, 0.14092297852039337, -0.03885843977332115, 0.20443663001060486, 0.09876566380262375, -0.13192495703697205, 0.07369497418403625, -0.12058764696121216, -0.06654892861843109, -0.18020613491535187, -0.049267448484897614, 0.1289961040019989, -0.05512508004903793, 0.02123718336224556, 0.06069640815258026, 0.07223639637231827, -0.06846338510513306, 0.11498566716909409, -0.099712073802948, -0.04025621339678764, 0.10072343051433563, 0.09637939184904099, -0.05391547828912735, 0.0672876387834549, 0.20847636461257935, 0.12722158432006836, 0.09091468155384064, 0.09352261573076248, 0.1863528937101364, -0.0507628433406353, -0.048768363893032074, -0.06981805711984634, 0.14398951828479767, 0.06550273299217224, 0.10747434198856354, 0.17038767039775848, 0.19749408960342407, 0.06852708011865616, 0.08062640577554703, 0.17366474866867065, 0.0119243822991848, -0.16473399102687836, -0.07139503210783005, 0.11500399559736252, -0.15789784491062164, 0.15580859780311584, -0.1421947032213211, -0.09669925272464752, 0.13211792707443237, 0.09629015624523163, -0.12121337652206421, 0.1284225583076477, 0.04143165051937103, -0.05407523363828659, 0.15486747026443481, -0.09130542725324631, -0.07219088077545166, 0.020839106291532516, 0.029563629999756813, 0.03617614507675171, 0.034286320209503174, 0.13238434493541718, 0.12523327767848969, -0.22126908600330353, 0.133398175239563, -0.09260784834623337, -0.01455039344727993, 0.05886175110936165, -0.06909331679344177, -0.011803794652223587, 0.0011085764272138476, -0.12314175814390182, -0.02797091193497181, -0.04275703802704811, 0.10679135471582413, 0.050923846662044525, 0.019539285451173782, 0.060519080609083176, -0.2134622037410736, -0.17257490754127502, 0.12165839225053787, -0.15402203798294067, 0.05758512765169144, 0.15752294659614563, -0.03835875913500786, -0.11977769434452057, 0.04818516969680786, -0.09029179811477661, 0.17255264520645142, -0.1733626425266266, -0.06562256067991257, -0.12679614126682281, 0.12211361527442932, -0.10943406075239182, 0.1311490535736084, 0.019223174080252647, 0.2298704981803894, 0.04555909335613251, -0.014852230437099934, 0.13491147756576538, 0.11980249732732773, -0.0709277093410492, 0.15880751609802246, 0.022365771234035492, 0.015291839838027954, 0.1624668836593628, 0.13832025229930878, 0.14588512480258942, -0.06650704145431519, -0.07479608803987503, 0.05395898222923279, -0.14384683966636658, -0.06350401788949966, 0.07477302849292755, 0.06954383105039597, -0.21913178265094757, 0.09001301229000092, -0.06714105606079102, -0.14075998961925507, -0.13790775835514069, 0.1738903820514679, 0.007004661951214075, -0.1658874750137329, -0.06705575436353683, -0.062485359609127045, -0.1443759948015213, 0.1495116502046585, 0.05669187381863594, 0.07962150871753693, 0.15160726010799408, 0.14116494357585907, -0.0903380736708641, -0.1265592873096466, -0.10979010164737701, -0.0826510637998581, -0.1545555740594864, 0.026458334177732468, -0.167124405503273, 0.03780831769108772, -0.031783267855644226, -0.1623142659664154, -0.0750000849366188, -0.1793062537908554, -0.04894329234957695, 0.08074753731489182, 0.19305403530597687, -0.10917319357395172, 0.0281172264367342, -0.10836378484964371, -0.16431716084480286, 0.07542867213487625, 0.1595756858587265, 0.00013170742022339255, 0.20315632224082947, 0.005853001493960619, -0.10663871467113495, 0.14443643391132355, 0.07033821195363998, -0.18519046902656555, -0.18859268724918365, -0.21380890905857086, 0.21158777177333832, 0.05506817623972893, 0.05358542501926422, 0.10061005502939224, 0.12176363170146942, 0.21096818149089813, -0.16365604102611542, 0.15682809054851532, 0.018178505823016167, 0.13738122582435608, -0.2059575468301773, -0.212681844830513, -0.23472580313682556, -0.011187100782990456, 0.09024520963430405, 0.1378043293952942, 0.10699997842311859, -0.08405750244855881, 0.17450420558452606, -0.13926585018634796, -0.08674392849206924, 0.0417666919529438, -0.13825981318950653, 0.05814758688211441, 0.10902148485183716, -0.11640271544456482, -0.0016101081855595112, -0.020207401365041733, -0.10563300549983978, -0.19767716526985168, -0.032450102269649506, -0.027228504419326782, -0.019694941118359566, -0.027127616107463837, 0.08046016842126846, 0.13353031873703003, -0.16822975873947144, -0.051064975559711456, 0.2008245438337326, -0.11983007192611694, 0.08277726173400879, -0.18499621748924255, -0.018284589052200317, -0.16051213443279266, -0.00994598027318716, -0.06579695641994476, 0.17442873120307922, -0.09833978116512299, 0.021003397181630135, -0.02817518822848797, -0.0723346471786499, -0.06578738242387772, 0.04684271290898323, 0.12443544715642929, 0.06295237690210342, -0.09728360921144485, 0.15616966784000397, -0.10969211161136627, 0.10764794796705246, -0.08168638497591019, 0.10963883250951767, -0.19258597493171692, -0.007378523703664541, 0.13600857555866241, -0.1041705384850502, -0.16323310136795044, -0.09318909794092178, -0.12341797351837158, 0.09829633682966232, 0.06591051816940308, 0.02226279117166996, 0.004501009359955788, 0.00316294701769948, -0.07893379032611847, -0.06956543028354645, -0.002462294651195407, 0.16042989492416382, -0.11451883614063263, -0.09389235079288483, -0.04058181121945381, -0.04675392434000969, 0.13771051168441772, -0.2251095473766327, 0.12465672940015793, -0.08230900019407272, 0.02714667096734047, -0.06803757697343826, 0.10983120650053024, -0.004612893797457218, 0.06024426221847534, 0.09064054489135742, -0.0927911251783371, 0.17023728787899017, 0.09765694290399551, -0.028262127190828323, 0.06904290616512299, 0.1902894228696823, 0.02252250164747238, 0.10339801013469696, 0.09171614050865173, 0.04745278134942055, 0.06357519328594208, 0.014073649421334267, -0.11970001459121704, 0.08443354815244675, -0.1332000344991684, 0.09807472676038742, 0.09101423621177673, 0.08823614567518234, -0.03403417021036148, -0.15440355241298676, 0.1345195323228836, 0.05954322591423988, 0.052266862243413925, 0.22656504809856415, 0.2820550501346588, 0.005267767235636711, -0.20836177468299866, -0.02347816340625286, 0.010796857997775078, -0.20632371306419373, 0.0056531974114477634, -0.15240007638931274, -0.10343645513057709, -0.08747683465480804, -0.05201087146997452, 0.19100354611873627, 0.002709690248593688, 0.043269384652376175, -0.2142246812582016, -0.1395474672317505, 0.10472346842288971, -0.09732724726200104, 0.1621769815683365, -0.10935723781585693, -0.10439905524253845, -0.12430166453123093, 0.054666727781295776, -0.04563247784972191, 0.15376940369606018, 0.03956504166126251, 0.20306088030338287, 0.051064543426036835, -0.12169705331325531, 0.058472227305173874, 0.18672044575214386, 0.017878346145153046, 0.016497153788805008, 0.08834370970726013, 0.060327284038066864, 0.19689735770225525, 0.12865585088729858, 0.028377415612339973, -0.06677553057670593, -0.17817574739456177, -0.059466056525707245, -0.004466203507035971, 0.05765239894390106, 0.0229780375957489, -0.005635102745145559, 0.09258358180522919, 0.011428963392972946, 0.09369735419750214, 0.11197041720151901, 0.16333219408988953, -0.05304042622447014, -0.0696989968419075, -0.11569376289844513, -0.019808223471045494, -0.028723925352096558, 0.07132469117641449, 0.08675430715084076, 0.1126694306731224, 0.13055114448070526, -0.006239004898816347, 0.08393391966819763, -0.14385747909545898, 0.1080823764204979, 0.10374807566404343, 0.15767599642276764, -0.22967007756233215, 0.20454178750514984, -0.09105964004993439, -0.09529725462198257, -0.05651847645640373, 0.1779256910085678, 0.09091116487979889, 0.007041987497359514, 0.24300962686538696, -0.3219377398490906, 0.0992988720536232, -0.2041829377412796, -0.055218636989593506, 0.026484811678528786, -0.15117338299751282, 0.09900698810815811, 0.06773798167705536, -0.07322432100772858, 0.1414954960346222, 0.1177210584282875, -0.1844375878572464, -0.25636962056159973, 0.014164715074002743, -0.04637536033987999, 0.10173274576663971, 0.0027189375832676888, 0.10954048484563828, 0.05589652433991432, 0.03024442307651043, -0.059875037521123886, -0.14711980521678925, -0.20890766382217407, -0.09272201359272003, -0.0783524140715599, -0.10279496759176254, 0.06456179916858673, -0.03786047548055649, -0.25632864236831665, -0.07671111077070236, -0.05337132140994072, 0.03980686515569687, 0.035466518253088, -0.11957453191280365, -0.12005140632390976, 0.06792082637548447, -0.06192423030734062, -0.0013297455152496696, -0.22960175573825836, 0.10469885915517807, -0.16104713082313538, -0.05993557348847389, 0.016081063076853752, 0.04357396066188812, -0.14717267453670502, -0.23895002901554108, 0.16610953211784363, -0.22437945008277893, 0.06694883108139038, 0.006014362908899784, 0.08607235550880432, 0.18636628985404968], "convKernelB": [-0.11302220821380615, 0.3295753300189972, 0.28400537371635437, -0.06232687458395958, 0.10453212261199951, -0.2523704767227173, -0.08548789471387863, -0.12000122666358948, -0.26089802384376526, 0.17867311835289001, -0.21717873215675354, -0.17547763884067535, -0.07834242284297943, 0.2173733413219452, 0.17852649092674255, -0.1801796406507492, 0.05017698183655739, -0.23281490802764893, -0.17292650043964386, 0.046843551099300385, 0.2790014147758484, 0.07401449978351593, 0.25177592039108276, -0.2526547312736511, -0.27932414412498474, 0.05565110966563225, -0.0838034525513649, -0.047168344259262085, -0.2194375842809677, -0.2179003655910492, -0.09979519248008728, 0.052854735404253006, -0.19397816061973572, 0.1831742376089096, 0.12050419300794601, -0.21981124579906464, -0.24343976378440857, -0.06452909857034683, 0.08931966871023178, 0.03202482685446739, 0.1517418473958969, -0.008409583941102028, -0.2108137309551239, -0.049514416605234146, 0.050446879118680954, 0.2015952467918396, 0.23400212824344635, 0.2535575330257416, 0.008210218511521816, -0.16233910620212555, -0.14481748640537262, 0.1019875779747963, -0.06520494818687439, -0.10350769013166428, -0.2390565127134323, -0.15045149624347687, 0.18565115332603455, 0.017073843628168106, -0.020500974729657173, 0.16775381565093994, 0.19680513441562653, 0.014615695923566818, -0.0011663384502753615, 0.03683207184076309, -0.033561449497938156, -0.06842377781867981, -0.2338109314441681, -0.12790606915950775, -0.06942488253116608, 0.10975375771522522, -0.09447358548641205, -0.10259532183408737, 0.23139846324920654, 0.20688806474208832, -0.2679310441017151, -0.1354585438966751, -0.28860142827033997, 0.032044071704149246, -0.09093446284532547, -0.11029542237520218, 0.1056961789727211, -0.15714412927627563, -0.039304256439208984, -0.15905821323394775, -0.2485446035861969, 0.06542031466960907, -0.15943637490272522, -0.17581412196159363, 0.09839866310358047, -0.13107886910438538, -0.04667547345161438, 0.08638662099838257, -0.059336259961128235, -0.03404585272073746, 0.20211565494537354, -0.02881082147359848, 0.14623324573040009, -0.21307998895645142, 0.07574925571680069, -0.22584782540798187, 0.1420876383781433, -0.05655285343527794, -0.019712716341018677, -0.11600366234779358, -0.2242594212293625, -0.13613398373126984, 0.11936276406049728, 0.2535758912563324, 0.07261880487203598, 0.0881866067647934, -0.1107194721698761, -0.09836258739233017, -0.2208493947982788, 0.0023953337222337723, 0.24341082572937012, -0.12161901593208313, -0.29485490918159485, -0.028158387169241905, 0.13624230027198792, -0.0645475909113884, -0.02139132097363472, 0.10962536931037903, 0.22211454808712006, -0.1820051372051239, 0.07591506838798523, 0.04023125022649765, -0.15162532031536102, 0.2533213794231415, 0.11529392004013062, 0.08371832966804504, 0.21539060771465302, 0.13232244551181793, 0.015625352039933205, -0.18536515533924103, 0.16640782356262207, -0.017967810854315758, -0.20767167210578918, 0.2694157660007477, 0.24312037229537964, 0.03797798231244087, 0.040168698877096176, 0.007676590234041214, 0.22506484389305115, 0.13261078298091888, 0.1691749095916748, 0.01832965761423111, -0.232137069106102, 0.037349212914705276, -0.20077288150787354, -0.018601559102535248, 0.14252905547618866, 0.1611892580986023, -0.15320929884910583, 0.14993441104888916, 0.20494244992733002, -0.0879129096865654, 0.17109036445617676, -0.1915726214647293, -0.1586429923772812, 0.10942038893699646, -0.15843059122562408, 0.08663300424814224, 0.042606107890605927, -0.16482536494731903, -0.24336744844913483, -0.19147400557994843, -0.16287758946418762, 0.20059718191623688, -0.18394853174686432, -0.0871099904179573, -0.02928767167031765, 0.2074156552553177, 0.14184443652629852, 0.2806483805179596, -0.17892640829086304, 0.32760655879974365, 0.18249458074569702, -0.036821696907281876, -0.2500877380371094, 0.08540687710046768, 0.12204253673553467, -0.11145783960819244, -0.21110892295837402, 0.17232170701026917, -0.07407086342573166, -0.08868131041526794, -0.22691357135772705, -0.3462454080581665, 0.2016814649105072, 0.08425641059875488, 0.03589039668440819, -0.1745595782995224, -0.107722207903862, -0.16069085896015167, -0.22241155803203583, -0.1827533096075058, 0.05507218465209007, 0.1363268792629242, 0.19312390685081482, 0.168534517288208, -0.09355267882347107, -0.17406457662582397, -0.22404898703098297, 0.21113522350788116, -0.2217695564031601, 0.03569643944501877, 0.15469391644001007, -0.025067973881959915, 0.21336115896701813, -0.010493659414350986, 0.13451404869556427, -0.2418387085199356, 0.1738637536764145, 0.06629913300275803, -0.07382684201002121, 0.060991883277893066, -0.1176411435008049, -0.07374213635921478, 0.14661799371242523, 0.18637579679489136, 0.002831435762345791, -0.1417948603630066, 0.10976269096136093, -0.11334998905658722, 0.0439433716237545, -0.22006362676620483, 0.2589060962200165, -0.15982119739055634, 0.26322847604751587, -0.09287997335195541, 0.30618324875831604, 0.008789971470832825, -0.02601323463022709, 0.11567199230194092, 0.11244357377290726, 0.14428488910198212, -0.060736995190382004, 0.025370849296450615, -0.1203262135386467, 0.09075384587049484, -0.25589677691459656, -0.16434159874916077, -0.14483147859573364, -0.24715769290924072, -0.1254153847694397, 0.10286406427621841, 0.11078496277332306, 0.2148929089307785, 0.18708540499210358, 0.2246433049440384, -0.036800965666770935, 0.31707829236984253, -0.1540258228778839, 0.1509956568479538, 0.26523131132125854, 0.17288509011268616, 0.13147632777690887, -0.17546150088310242, -0.2644321620464325, -0.02299894019961357, -0.33759915828704834, -0.0749894455075264, 0.00950307585299015, -0.025378048419952393, 0.06095264479517937, -0.12021584063768387, 0.1684015840291977, -0.13931776583194733, 0.12751735746860504, 0.005517196841537952, -0.15788228809833527, 0.08026716113090515, -0.1747576892375946, -0.2598138451576233, -0.13910186290740967, -0.2083684355020523, -0.14390872418880463, 0.03660055622458458, -0.10038328170776367, -0.291726291179657, -0.15775521099567413, 0.002005332615226507, -0.15006442368030548, -0.06575453281402588, -0.18539659678936005, 0.20275093615055084, 0.09998474270105362, 0.10598428547382355, 0.24707643687725067, 0.1718781292438507, 0.25175097584724426, -0.03836638852953911, -0.27409273386001587, 0.2893544137477875, 0.056150633841753006, -0.06993541866540909, -0.06754553318023682, -0.1977241039276123, 0.10577107965946198, 0.11173520237207413, -0.1518140733242035, 0.22804294526576996, -0.04215532913804054, 0.13577213883399963, 0.2586418688297272, -0.2572369873523712, -0.21622079610824585, 0.030025364831089973, 0.16513609886169434, -0.14151760935783386, 0.27494579553604126, -0.09407856315374374, -0.11749383807182312, -0.14719142019748688, 0.25230616331100464, -0.18219950795173645, -0.10703705251216888, -0.25363388657569885, -0.1574023962020874, -0.02031596191227436, 0.1710616648197174, 0.10667732357978821, -0.07262619584798813, 0.030325738713145256, 0.17975594103336334, -0.26891544461250305, -0.2678910195827484, -0.250812292098999, -0.07570187002420425, -0.0073998067528009415, 0.028886238113045692, -0.15642283856868744, 0.13884477317333221, -0.28615257143974304, 0.10107739269733429, 0.06915583461523056, 0.0391392819583416, -0.13569262623786926, 0.22243815660476685, -0.17419113218784332, -0.3287520706653595, -0.11733683198690414, 0.25384390354156494, 0.2721990644931793, -0.2587604522705078, 0.2710029184818268, 0.27621734142303467, -0.2024892419576645, 0.12563127279281616, 0.16356123983860016, -0.0075621940195560455, 0.20039081573486328, 0.05117923393845558, -0.13567961752414703, 0.21893776953220367, 0.025653788819909096, 0.09873311966657639, -0.1106535792350769, 0.01385041605681181, -0.24189521372318268, -0.16022679209709167, -0.0898774191737175, -0.01432197354733944, -0.013299660757184029, 0.007929930463433266, 0.15794238448143005, -0.06334812194108963, -0.13072283565998077, 0.21269617974758148, -0.23316730558872223, 0.12003794312477112, -0.07419459521770477, -0.22858686745166779, 0.1856851428747177, -0.1312287598848343, 0.287158340215683, 0.25830504298210144, 0.05818985030055046, -0.12231940776109695, -0.16265030205249786, 0.41732847690582275, 0.03438244387507439, -0.18465568125247955, -0.24442164599895477], "className": "reception", "roundsDim": 6, "bnGammaC": [1.0516788959503174, 1.0324883460998535, 0.9980885982513428, 0.9556975364685059, 1.0167104005813599, 0.950322687625885, 0.9889010787010193, 0.9913859367370605], "bnMeanA": [0.006241742521524429, 0.07878857851028442, 0.034798938781023026, 0.24069844186306, 0.08361580967903137, 0.03259187936782837, -0.4242270588874817, -0.04131405055522919], "bnBetaB": [-0.1304800808429718, -0.01527684647589922, -0.002756464993581176, -0.03209381923079491, 0.03308345377445221, -0.35382553935050964, -0.10965888202190399, -0.059967003762722015, -0.03893304988741875, -0.03800824284553528, -0.06547488272190094, -0.08477256447076797, -0.06299439072608948, 0.014859587885439396, 0.025143692269921303, 0.025911392644047737], "typesDim": 3, "convKernelA": [-0.22405825555324554, 0.5057249665260315, -0.22547827661037445, 0.4320605993270874, -0.12727506458759308, -0.39623674750328064, 0.32721957564353943, -0.38324210047721863, 0.025003911927342415, 0.09569309651851654, 0.36345580220222473, 0.2814939320087433, 0.023974362760782242, 0.45788484811782837, 0.21496087312698364, 0.22330597043037415, 0.14500880241394043, -0.2707241475582123, 0.15578418970108032, 0.4224550724029541, 0.15487711131572723, -0.09562189131975174, -0.35408100485801697, -0.03401075676083565, 0.08078378438949585, 0.4337522089481354, 0.3728259205818176, 0.3790605664253235, 0.5089267492294312, -0.30189651250839233, -0.11501393467187881, 0.5498349070549011, 0.521733820438385, 0.1679784655570984, 0.5304872989654541, 0.12475576996803284, -0.4788888990879059, 0.14774230122566223, -0.21384139358997345, 0.42603763937950134, 0.08600692451000214, 0.1533762663602829, -0.28057947754859924, 0.16519229114055634, 0.2763148844242096, -0.5468563437461853, -0.5643098950386047, -0.20291678607463837, -0.6385389566421509, 0.009447178803384304, -0.5344402194023132, 0.4185129404067993, -0.2143782377243042, 0.5193110108375549, -0.5293089747428894, -0.26564571261405945, -0.12050952017307281, -0.5003167390823364, 0.2603635787963867, 0.5681614279747009, -0.2597397565841675, -0.31763285398483276, 0.24588780105113983, 0.06818380206823349, 0.4070599675178528, 0.23870575428009033, 0.2874332368373871, -0.38395026326179504, -0.21897806227207184, 0.29912999272346497, -0.5164045095443726, 0.41743355989456177, -0.15919415652751923, -0.4158627688884735, 0.029843555763363838, 0.0019779193680733442, -0.21768400073051453, 0.4586268961429596, -0.4994177222251892, 0.02264806441962719, -0.4231976270675659, 0.07090247422456741, -0.2890188992023468, -0.18958905339241028, 0.42071688175201416, 0.016308143734931946, -0.5640642046928406, -0.2500506043434143, 0.27812203764915466, 0.3208831548690796, -0.04161932319402695, -0.2121671736240387, 0.43981626629829407, 0.022017447277903557, 0.43456941843032837, -0.3842187225818634], "inputChannelsDim": 12, "convBiasB": [-0.005577218718826771, -0.005220056511461735, 0.01165672205388546, 0.0009005908505059779, 0.00379731017164886, -0.01475450862199068, -0.013479821383953094, -0.001181220170110464, 0.006688995286822319, -0.0023024745751172304, 0.0013546611880883574, -0.020678754895925522, -0.00979171134531498, 0.020092882215976715, -0.01785089075565338, 0.006698541343212128], "bnVarianceD": [0.399217426776886, 0.8005021810531616, 0.1461338847875595, 0.2733323276042938, 1.0453448295593262, 0.5698280930519104, 0.38728922605514526, 0.95556640625, 0.4671500623226166, 0.4557390511035919, 0.2500793933868408, 0.315739244222641, 1.0394822359085083, 0.26522329449653625, 0.5816596150398254, 0.7324873208999634], "bnMeanB": [0.19424152374267578, -0.24521373212337494, -0.006001839879900217, -0.266938179731369, -0.13387662172317505, -0.18319803476333618, 0.0758572369813919, -0.10879354923963547, -0.26938921213150024, 0.06319308280944824, 0.06516769528388977, -0.05600355565547943, 0.0017170226201415062, 0.11081051081418991, 0.03271830081939697, 0.09162463247776031], "convKernelC": [0.5437185764312744, -0.11070623993873596, 0.5450447797775269, -0.18969595432281494, 0.4913555681705475, 0.07239042222499847, -0.05295296758413315, 0.2726871967315674, 0.2399114966392517, -0.5458571314811707, -0.18934643268585205, 0.2788762152194977, -0.34005022048950195, 0.3369947373867035, -0.39199119806289673, 0.39446738362312317, -0.4095827639102936, 0.18969188630580902, -0.20355334877967834, 0.46973690390586853, -0.2615838348865509, -0.318329781293869, -0.3863305151462555, 0.11140914261341095, -0.07031939178705215, 0.1752319037914276, 0.1817362904548645, 0.18684585392475128, 0.13711456954479218, -0.07182391732931137, 0.20748679339885712, 0.38886600732803345, 0.27089574933052063, -0.1353641152381897, 0.29619100689888, 0.2443101853132248, 0.5701123476028442, -0.1074620932340622, 0.41579294204711914, 0.2681024372577667, -0.4966442883014679, -0.2809607982635498, -0.5646274089813232, 0.2738245725631714, 0.06484919786453247, -0.278705894947052, 0.5215890407562256, -0.25106918811798096, -0.4502529799938202, 0.20919427275657654, -0.10385628044605255, 0.2100287824869156, 0.05022476613521576, 0.45890507102012634, 0.3275168538093567, 0.37815138697624207, -0.19157323241233826, -0.21170012652873993, -0.001777315279468894, -0.1470254361629486, -0.527926504611969, 0.5016888380050659, -0.40636390447616577, 0.40056130290031433, -0.45555856823921204, -0.45045843720436096, -0.1522747129201889, 0.2545091211795807, -0.45118778944015503, -0.06655634939670563, 0.19790227711200714, -0.20858405530452728, 0.14195767045021057, -0.25425073504447937, 0.22919727861881256, 0.17100991308689117, -0.0071079786866903305, -0.04071114584803581, 0.10653369128704071, -0.29729002714157104, -0.48892804980278015, -0.47302353382110596, -0.17039473354816437, -0.27787086367607117, 0.08424180746078491, -0.43258124589920044, -0.15166334807872772, 0.10147755593061447, -0.2906247079372406, -0.016077309846878052, -0.5312439203262329, -0.4157840609550476, 0.392031192779541, 0.5539200901985168, 0.5630818605422974, 0.13526195287704468], "convBiasD": [0.0030492537189275026, -0.0011216404382139444, 0.005003448575735092, -0.00171876628883183, -0.0012271873420104384, 0.002185121178627014, -0.0006280008237808943, -0.003771340474486351, 0.008428370580077171, -0.005035605747252703, 0.005385795142501593, 0.010480613447725773, 0.006333441939204931, 0.0014604625757783651, 0.003434723475947976, -0.00011264776549069211], "bnBetaC": [-0.02729433961212635, -0.05940309539437294, -0.19023087620735168, -0.06928451359272003, 0.04462506249547005, -0.07021698355674744, 0.042938780039548874, -0.03900101035833359], "bnGammaD": [1.065803050994873, 1.0063610076904297, 0.9557771682739258, 1.0546551942825317, 1.0257694721221924, 1.0559046268463135, 0.9948105216026306, 1.0173345804214478, 1.0587326288223267, 0.9935421943664551, 0.9898642897605896, 1.0161423683166504, 1.0626115798950195, 1.0225136280059814, 1.0607666969299316, 1.0104780197143555], "convBiasC": [0.002175816334784031, 0.005647291429340839, -0.012437766417860985, 0.0018260290380567312, 0.004653993993997574, -0.006948535796254873, -0.0032457958441227674, -0.007726752199232578], "bnMeanC": [-0.3262993097305298, -0.31637999415397644, -0.17922808229923248, 0.1721818894147873, 0.069918192923069, 0.007176657672971487, 0.1859372854232788, 0.19205006957054138], "convBiasA": [0.007787736598402262, -0.006299492437392473, 0.004219878930598497, 0.023975878953933716, 0.0025811204686760902, -0.0026318123564124107, 0.00844222865998745, -0.0034685235004872084], "bnVarianceC": [1.3820953369140625, 0.7829091548919678, 0.7478764057159424, 0.608841598033905, 0.6866108775138855, 1.2740370035171509, 0.7713813781738281, 0.4224923551082611], "bnGammaA": [0.9690942764282227, 0.9893546104431152, 1.0749644041061401, 0.8599684834480286, 0.9609617590904236, 0.9385176301002502, 0.9195556640625, 1.019162893295288]}, {"bnMean": [0.044265300035476685, -0.06080061197280884, -0.41260796785354614, -0.2823147773742676, 0.16383516788482666, 0.002538119675591588, 0.04458644241094589, -0.19597791135311127, 0.25622108578681946, 0.24005427956581116, 0.05824121832847595, -0.21436667442321777, 0.055549442768096924, -0.12444064021110535, -0.2181476652622223, 0.06529292464256287, -0.06915595382452011, -0.16408191621303558], "upsamplingRoundsDimFactor": 1, "kernelRoundsDim": 1, "upsamplingTypesDimFactor": 1, "bnBeta": [-0.14404548704624176, -0.02437426522374153, -0.18765968084335327, 0.035072147846221924, 0.08487007021903992, 0.054505202919244766, -0.07604353129863739, 0.06586623936891556, 0.014830252155661583, -0.09698840975761414, 0.0994090884923935, -0.058188602328300476, 0.02892477437853813, -0.16935405135154724, -0.22225001454353333, 0.12287941575050354, 0.07394324243068695, 0.017525384202599525], "inputChannelsDim": 44, "convKernel": [-0.3255113959312439, 0.3864441215991974, -0.16019481420516968, -0.1450706571340561, 0.19380728900432587, 0.0940217524766922, 0.2998727858066559, 0.17069871723651886, -0.10413610935211182, 0.14234517514705658, -0.09320519119501114, -0.028589943423867226, -0.16607315838336945, 0.2625286877155304, 0.054821766912937164, 0.011837027035653591, -0.08427770435810089, -0.13859836757183075, -0.22431667149066925, -0.21402154862880707, 0.20721592009067535, -0.20243927836418152, -0.06974192708730698, 0.22154530882835388, -0.022392617538571358, 0.1697835475206375, -0.006703763734549284, 0.08853425085544586, 0.27584418654441833, 0.10940688848495483, -0.14534863829612732, -0.11994447559118271, -0.10420580208301544, 0.12229681760072708, 0.17950616776943207, 0.23269420862197876, 0.10690777748823166, 0.15378518402576447, 0.1535811871290207, 0.25195980072021484, -0.012006445787847042, 0.05090910196304321, -0.017875805497169495, -0.1174730658531189, -0.3312988579273224, -0.0637260377407074, -0.11651989072561264, 0.0992371067404747, 0.04360860213637352, -0.172914057970047, 0.1880296766757965, 0.19313359260559082, -0.11410582810640335, -0.18525424599647522, -0.049694981426000595, 0.3286081552505493, 0.18346555531024933, 0.24117276072502136, -0.28493621945381165, 0.23050837218761444, 0.19729965925216675, 0.09872563183307648, -0.0481540784239769, -0.18169845640659332, 0.1209145039319992, -0.06403475254774094, 0.18166020512580872, 0.05479801446199417, 0.05577550455927849, -0.11504917591810226, -0.016485802829265594, 0.13085012137889862, -0.2548999786376953, -0.29144349694252014, -0.07632666826248169, -0.26907339692115784, -0.15513306856155396, 0.05713546648621559, 0.23204639554023743, -0.01414557546377182, 0.29095420241355896, 0.25249454379081726, -0.12356756627559662, -0.04702795669436455, 0.12358193099498749, 0.09024955332279205, 0.14643453061580658, -0.09280695021152496, -0.030856899917125702, -0.11168372631072998, -0.13155578076839447, 0.051043469458818436, -0.2836035192012787, -0.15362632274627686, 0.08843852579593658, -0.028536919504404068, 0.09455296397209167, -0.25613901019096375, -0.22324654459953308, 0.13250117003917694, -0.1983746588230133, 0.07661759108304977, 0.17445231974124908, 0.026930971071124077, -0.21678262948989868, 0.12451820075511932, 0.24266307055950165, -0.2882866859436035, -0.08202887326478958, -0.2117200642824173, 0.12406707555055618, 0.06007563695311546, 0.016525233164429665, -0.0475175641477108, -0.24346910417079926, -0.089726522564888, 0.2551262676715851, 0.19492222368717194, -0.024784687906503677, -0.043344736099243164, -0.1035061627626419, 0.2939121127128601, -0.12865479290485382, 0.06944306194782257, -0.08991412073373795, 0.1211174950003624, 0.2196853756904602, -0.19732801616191864, -0.11888642609119415, 0.14959223568439484, 0.15052223205566406, -0.11479481309652328, -0.008561810478568077, 0.11712154000997543, 0.16282914578914642, -0.17418943345546722, 0.05761100724339485, 0.13452404737472534, -0.2803514301776886, -0.2474440187215805, -0.203501895070076, -0.18399859964847565, -0.114702507853508, 0.2850852906703949, 0.12652358412742615, 0.35668691992759705, 0.07200507074594498, -0.10202857106924057, -0.22827555239200592, -0.21409544348716736, -0.1670137643814087, -0.058646149933338165, -0.1497810333967209, -0.0583525225520134, 0.11102349311113358, 0.12366446852684021, -0.0681740939617157, -0.11766910552978516, 0.1765483170747757, 0.07164503633975983, -0.10318577289581299, -0.2256554663181305, -0.04682591184973717, 0.2826230227947235, -0.16225144267082214, 0.06743205338716507, 0.22820167243480682, -0.0755096822977066, 0.20448054373264313, -0.14746783673763275, -0.1594635397195816, 0.12076859921216965, -0.05962985381484032, -0.2539568841457367, -0.12182821333408356, -0.10236981511116028, 0.0840211808681488, 0.09148547798395157, 0.3021824061870575, 0.2039880007505417, -0.00446871155872941, 0.04717278108000755, -0.34285610914230347, 0.0031254903879016638, -0.05222471058368683, 0.009550360031425953, -0.25091996788978577, -0.11286633461713791, -0.09117849916219711, 0.1327131986618042, 0.02141975797712803, -0.26459187269210815, 0.042103201150894165, 0.3131351172924042, 0.009714866057038307, 0.1774958074092865, 0.15050920844078064, -0.35208630561828613, -0.09964082390069962, 0.15414361655712128, 0.09049836546182632, 0.3612830936908722, 0.10509731620550156, -0.2231169492006302, 0.050690725445747375, -0.27670925855636597, 0.19042529165744781, -0.006138351280242205, -0.20656342804431915, -0.1924520581960678, 0.38137581944465637, 0.09312988817691803, -0.019514180719852448, -0.21271918714046478, 0.23212239146232605, -0.18919499218463898, 0.23197245597839355, 0.012882230803370476, -0.08160469681024551, 0.04501371458172798, 0.029238006100058556, -0.1445605754852295, 0.06510306894779205, -0.07809552550315857, -0.26856186985969543, 0.1683150976896286, 0.11962269991636276, -0.06270475685596466, -0.05005336180329323, -0.1764894425868988, 0.016225488856434822, -0.20875057578086853, -0.2285289317369461, 0.10042384266853333, 0.19399194419384003, -0.33722659945487976, -0.2934681475162506, 0.2500433027744293, 0.03839917108416557, -0.2573828101158142, 0.22387582063674927, -0.042706187814474106, -0.09132060408592224, -0.23539474606513977, 0.038337212055921555, 0.018848929554224014, -0.37771058082580566, 0.20366361737251282, 0.2207576334476471, -0.23975859582424164, -0.22489476203918457, -0.0339544303715229, -0.21807359158992767, 0.10913869738578796, -0.24182292819023132, -0.05422622337937355, 0.29699593782424927, 0.19502092897891998, 0.290925532579422, 0.021596260368824005, 0.22167286276817322, 0.03750098869204521, 0.05414929240942001, -0.22265248000621796, 0.2921762466430664, -0.18286851048469543, -0.13159337639808655, 0.007718349806964397, -0.006952679716050625, 0.2941085994243622, 0.07008127123117447, 0.12326216697692871, -0.05584222450852394, 0.19867609441280365, 0.2474849671125412, 0.17378363013267517, -0.18962909281253815, -0.026158327236771584, 0.26186901330947876, -0.015474562533199787, 0.11502798646688461, 0.09103419631719589, -0.20666712522506714, -0.1987738460302353, -0.22499969601631165, 0.16411428153514862, 0.03830025717616081, -0.09008307009935379, -0.12170250713825226, 0.2415769398212433, -0.157344788312912, -0.04634618014097214, -0.1392190307378769, 0.18229953944683075, 0.09306608885526657, 0.08160080015659332, 0.2122683972120285, 0.0905853733420372, -0.2963421940803528, 0.24960291385650635, 0.1528785228729248, 0.05264265835285187, 0.12329643219709396, -0.12499392777681351, 0.042594753205776215, -0.11384730041027069, 0.16822634637355804, 0.015445777215063572, 0.30102118849754333, 0.11069981753826141, 0.29396313428878784, -0.44167059659957886, 0.13125896453857422, 0.0005848950822837651, -0.14360690116882324, 0.2550654411315918, -0.3066117763519287, -0.021681683138012886, 0.12480859458446503, 0.16495132446289062, 0.16639643907546997, -0.1668657809495926, -0.32500922679901123, 0.08924262225627899, -0.16466136276721954, -0.16455504298210144, -0.0047416710294783115, 0.1012403815984726, -0.2098945826292038, -0.10789299756288528, 0.050802696496248245, -0.126520037651062, 0.2026471644639969, -0.19568270444869995, 0.17046275734901428, -0.07415593415498734, -0.20694413781166077, -0.27570027112960815, 0.22313149273395538, 0.0009013533126562834, -0.04723002016544342, 0.25157254934310913, 0.12204822152853012, -0.24465084075927734, 0.1664278358221054, -0.34865835309028625, 0.3081132769584656, 0.1188776046037674, -0.13694895803928375, 0.04328058287501335, -0.3004474341869354, 0.19273307919502258, 0.192880779504776, -0.09444676339626312, -0.009289638139307499, 0.05649944767355919, 0.07978181540966034, 0.06048068404197693, 0.2365681529045105, 0.14307700097560883, 0.0494537390768528, -0.2784993350505829, -0.2493899166584015, -0.1419428437948227, -0.19551889598369598, -0.01846819743514061, -0.2128375768661499, 0.30603864789009094, -0.014419110491871834, 0.035415053367614746, -0.1668156534433365, -0.009240048006176949, 0.15467412769794464, 0.30256131291389465, 0.08158685266971588, 0.0638447180390358, -0.3045073449611664, 0.0670728012919426, 0.1664898544549942, 0.2135283499956131, -0.07483993470668793, 0.21689309179782867, 0.006857956759631634, 0.09975574165582657, -0.0871649757027626, 0.23519130051136017, -0.13453473150730133, -0.08705233037471771, -0.22468096017837524, -0.17744046449661255, 0.1789386123418808, -0.048947978764772415, -0.010324526578187943, 0.053906772285699844, -0.1771446019411087, 0.032708823680877686, -0.07419231534004211, 0.148405522108078, -0.075005903840065, -0.040824249386787415, 0.041400887072086334, -0.02967965044081211, 0.33885422348976135, 0.2514180839061737, -0.30652037262916565, 0.2860844135284424, 0.36215659976005554, 0.22763857245445251, -0.21216930449008942, 0.20246009528636932, 0.11400222033262253, 0.1360684335231781, 0.11706174165010452, 0.2755572497844696, -0.08044324070215225, 0.20820388197898865, 0.08134297281503677, 0.07632168382406235, -0.23740103840827942, 0.189058318734169, -0.18130765855312347, -0.05841013789176941, 0.24770547449588776, -0.1262509524822235, 0.003355038119480014, -0.11163724213838577, 0.059492312371730804, -0.13226860761642456, -0.08407759666442871, -0.005360404495149851, -0.058174002915620804, -0.1253495067358017, 0.009783950634300709, 0.3150300979614258, 0.3010036051273346, -0.1038035899400711, 0.14713811874389648, -0.12871377170085907, -0.1460081934928894, -0.22489754855632782, -0.32076403498649597, 0.11498866975307465, 0.09007855504751205, -0.00022170606825966388, 0.05939634516835213, -0.07122915983200073, -0.0054571982473134995, 0.3106333017349243, -0.2389526516199112, 0.18870848417282104, -0.2752610146999359, -0.27382880449295044, -0.19699838757514954, -0.11605243384838104, -0.10675746202468872, 0.16850531101226807, 0.0300495196133852, 0.08892669528722763, -0.08900228142738342, 0.19708192348480225, 0.4053313136100769, 0.10575180500745773, 0.05058525875210762, -0.11115140467882156, 0.07042504847049713, 0.09403841197490692, -0.17971596121788025, 0.22937773168087006, 0.20826682448387146, 0.04753080755472183, 0.0558307021856308, 0.07315108925104141, 0.21670763194561005, -0.07690856605768204, -0.11090929061174393, -0.23975317180156708, -0.12536819279193878, -0.0510936863720417, 0.1531101018190384, -0.003857116913422942, -0.12031488865613937, -0.03198029845952988, 0.1441788524389267, -0.009187383577227592, 0.27267324924468994, -0.27842044830322266, -0.012704657390713692, -0.05064421519637108, -0.11132189631462097, 0.10315404832363129, -0.12281431257724762, 0.00899315532296896, 0.03520813211798668, -0.22933915257453918, -0.22183547914028168, 0.15640462934970856, 0.34775084257125854, -0.019954118877649307, 0.19612638652324677, -0.18940986692905426, -0.18135417997837067, -0.09270574897527695, -0.05353252589702606, 0.055738665163517, -0.19653941690921783, 0.07666651159524918, -0.3001604378223419, 0.004269323777407408, -0.09190349280834198, 0.22054895758628845, -0.05693846568465233, 0.3136807084083557, 0.09867717325687408, 0.12144750356674194, 0.20985007286071777, -0.11671926081180573, -0.2703185975551605, -0.358981192111969, -0.2791650593280792, 0.2695072293281555, -0.14064143598079681, 0.2225702852010727, 0.27227333188056946, 0.2582714557647705, 0.19048649072647095, -0.18903625011444092, -0.11359815299510956, -0.1849917322397232, 0.22918318212032318, -0.01319101545959711, -0.17322322726249695, 0.16548053920269012, -0.17225103080272675, -0.20791085064411163, -0.28741681575775146, -0.07908890396356583, -0.3141334354877472, 0.24553921818733215, 0.2914727032184601, 0.21706615388393402, -0.26300498843193054, -0.1350349634885788, -0.35385578870773315, -0.18764078617095947, 0.29407036304473877, -0.07528650015592575, -0.05027260631322861, 0.03465431556105614, -0.16941462457180023, -0.14280815422534943, 0.2807963788509369, 0.08024376630783081, -0.09624482691287994, -0.05859819054603577, -0.06123674660921097, -0.3075908124446869, -0.11596810817718506, -0.2535015642642975, -0.06263704597949982, 0.11380281299352646, -0.005838561803102493, -0.3339429199695587, 0.22476227581501007, 0.27914467453956604, -0.004771288018673658, 0.11210320889949799, 0.15492722392082214, -0.16992974281311035, -0.27665063738822937, -0.18027004599571228, -0.22544418275356293, -0.22292494773864746, -0.07582394033670425, 0.1127534732222557, -0.2905588150024414, 0.20707331597805023, 0.11880864948034286, -0.24777047336101532, 0.08731004595756531, -0.16846439242362976, -0.10475484281778336, -0.11989346146583557, -0.2956295907497406, -0.23891766369342804, 0.11724722385406494, 0.014864259399473667, -0.29207271337509155, -0.06309198588132858, 0.3671354651451111, 0.158070906996727, 0.17581234872341156, -0.021452641114592552, 0.197224959731102, 0.004294036887586117, -0.09994076937437057, 0.0909448117017746, -0.28859519958496094, -0.2116842269897461, -0.23704072833061218, -0.00014962436398491263, -0.07864415645599365, -0.2324574738740921, 0.16536545753479004, 0.0948190987110138, -0.11074186861515045, 0.11379938572645187, -0.15127046406269073, -0.09101971983909607, -0.1692865490913391, 0.21621234714984894, -0.020295308902859688, 0.15985161066055298, -0.09526016563177109, -0.03648995980620384, 0.27262306213378906, 0.23158347606658936, -0.053688786923885345, -0.13425683975219727, 0.2872594892978668, 0.08444879949092865, 0.3178243339061737, -0.052825625985860825, -0.20350760221481323, -0.2760562002658844, 0.19427278637886047, 0.05403389036655426, -0.2810167670249939, 0.11428859829902649, -0.1869373768568039, 0.2155669629573822, 0.21094588935375214, -0.2703647017478943, 0.2803041338920593, -0.019871234893798828, 0.2383580058813095, -0.15597619116306305, 0.047868695110082626, 0.31230369210243225, 0.2557096779346466, 0.26028650999069214, -0.03855622187256813, -0.018271980807185173, -0.2562713325023651, 0.16792026162147522, -0.09099112451076508, -0.17343774437904358, -0.28333938121795654, -0.14131750166416168, -0.07689383625984192, -0.103615902364254, -0.1224590539932251, -0.19627496600151062, 0.19500933587551117, -0.007355514448136091, -0.2928638160228729, -0.06510291993618011, 0.323601096868515, 0.08649379760026932, 0.2580831050872803, 0.06587760895490646, 0.05900929868221283, -0.17575262486934662, -0.22986236214637756, 0.1890682429075241, 0.02705724909901619, 0.00011023355182260275, 0.17434535920619965, -0.08091769367456436, -0.12838000059127808, -0.09268643707036972, 0.1157773807644844, -0.08252553641796112, -0.1427450329065323, -0.2939821779727936, 0.30572962760925293, 0.011404445394873619, -0.15871623158454895, 0.03133055940270424, 0.05414371192455292, -0.23622316122055054, 0.0640670582652092, -0.2350049614906311, -0.26201143860816956, -0.46788686513900757, -0.03217870369553566, -0.22746258974075317, -0.1752827763557434, -0.1935979425907135, 0.1978669911623001, -0.1890416443347931, 0.3374963104724884, 0.107623390853405, 0.1322789192199707, 0.2448384165763855, -0.23618780076503754, -0.141988605260849, 0.18288439512252808, 0.14610400795936584, 0.29107195138931274, 0.01206816267222166, -0.2406526654958725, 0.39456865191459656, 0.1492914855480194, -0.3459705412387848, 0.003812367795035243, -0.28681570291519165, 0.2111910879611969, -0.204747274518013, 0.11270616203546524, 0.33709344267845154, -0.15070822834968567, 0.29080063104629517, 0.1064419075846672, -0.18060573935508728, 0.1718805879354477, -0.1348429173231125, -0.1026003509759903, -0.0025857677683234215, -0.03485061973333359, -0.2600792944431305, 0.18272921442985535, 0.24674780666828156, -0.32308143377304077, -0.1884264349937439, -0.14465022087097168, -0.15379467606544495, 0.14648067951202393, -0.04627354070544243, 0.14296919107437134, 0.1654537171125412, -0.29481709003448486, 0.27721503376960754, 0.18211780488491058, -0.1472606211900711, -0.04100159555673599, -0.07112570106983185, -0.11705851554870605, -0.3735235035419464, 0.20996035635471344, -0.3047710359096527, 0.23930679261684418, -0.0001627357123652473, -0.03214814513921738, -0.20487086474895477, -0.01542802806943655, -0.08033599704504013, 0.32102715969085693, 0.19498944282531738, 0.03471282869577408, 0.012454249896109104, 0.0542670376598835, 0.23037587106227875, 0.01969870552420616, -0.032339900732040405, 0.20794571936130524, 0.07105638086795807, 0.13107722997665405, -0.27883344888687134, 0.014916625805199146, 0.06586480140686035, -0.16584105789661407, 0.13712696731090546, -0.30789703130722046, -0.2551466226577759, 0.28907954692840576, -0.3849245011806488, 0.3039470314979553, -0.18907031416893005, 0.1297217607498169, 0.11964140832424164, -0.1334097981452942, -0.2755711078643799, 0.21281716227531433, -0.028274593874812126, 0.24781784415245056, 0.02221086248755455, -0.08121269941329956, -0.08615907281637192, 0.22384019196033478, 0.07957011461257935, 0.4248785972595215, 0.03236990422010422, 0.06665126979351044, -0.28701165318489075, 0.2175615429878235, -0.1918935626745224, 0.043656155467033386, 0.23967388272285461, 0.041588328778743744, -0.22746697068214417, -0.2755368947982788, -0.126466765999794], "roundsDim": 6, "bnGamma": [1.0460712909698486, 0.8625420331954956, 0.9493187069892883, 0.9630247354507446, 1.0390998125076294, 0.8880047798156738, 0.9311468005180359, 0.9992272257804871, 0.8752450942993164, 0.978419303894043, 1.0301893949508667, 0.8754631280899048, 0.9598525166511536, 1.0799379348754883, 1.0559651851654053, 1.0399771928787231, 0.9312135577201843, 0.989766001701355], "channelsDim": 18, "bnVariance": [0.7104998230934143, 0.9356428980827332, 0.7477512955665588, 2.012939214706421, 1.4218809604644775, 0.45798569917678833, 2.3571841716766357, 2.3388919830322266, 2.2018444538116455, 1.726131558418274, 3.3718507289886475, 1.2881221771240234, 2.5298705101013184, 1.3899765014648438, 0.3823555111885071, 2.7026426792144775, 1.0107022523880005, 5.786769390106201], "kernelTypesDim": 1, "className": "ception", "convBias": [-0.0048579382710158825, 0.0024427035823464394, -0.009797891601920128, -0.0032593964133411646, 0.001958506880328059, -0.006731471512466669, 0.0013775330735370517, 0.0027604696806520224, 0.003318206872791052, -0.0009476324776187539, 0.0030648685060441494, 0.000822811562102288, 0.0169454924762249, 0.0006296854116953909, -0.0023500763345509768, 0.006667109671980143, 0.003654039930552244, 0.0004529403813648969], "typesDim": 3}, {"bnMeanD": [-0.09242676943540573, -0.05463429167866707, -0.04964468628168106, -0.06397368758916855, 0.03625619783997536, -0.06553111970424652, 0.13433928787708282, -0.06511107832193375, 0.201458141207695, -0.1257072240114212, 0.03733872249722481, -0.24392743408679962, -0.1400531381368637, -0.20809227228164673, -0.408294677734375, -0.18230171501636505], "bnBetaD": [0.07516426593065262, -0.029921511188149452, 0.03572474420070648, -0.06404738128185272, -0.0928293913602829, -0.0266624353826046, -0.12660619616508484, -0.1843286156654358, -0.11630430072546005, 0.1212615892291069, -0.46268129348754883, -0.00861272867769003, 0.05536642298102379, -0.014736192300915718, 0.05730403959751129, 0.11092951148748398], "bnVarianceA": [0.91736900806427, 2.748880624771118, 1.2310165166854858, 0.4409317672252655, 0.6419779062271118, 1.4502538442611694, 0.44973137974739075, 0.2964145243167877], "bnVarianceB": [1.0327690839767456, 0.10413261502981186, 2.6218719482421875, 1.6089633703231812, 0.31144288182258606, 0.7001972794532776, 0.26315292716026306, 1.0173448324203491, 0.43825310468673706, 0.19060000777244568, 0.6147134304046631, 0.15949709713459015, 0.4601399302482605, 0.5670617818832397, 0.3722299635410309, 0.27507010102272034], "bnBetaA": [0.14892707765102386, 0.06700243800878525, -0.04154084250330925, -0.03566501662135124, -0.1446680873632431, -0.005932189058512449, -0.05250252038240433, -0.09470010548830032], "bnGammaB": [0.9363014698028564, 0.8978294730186462, 0.9910393953323364, 0.9959690570831299, 0.9349313974380493, 1.067155361175537, 0.9701032042503357, 0.9875359535217285, 0.978370189666748, 0.9375917315483093, 1.0134590864181519, 0.9123756885528564, 0.8932408094406128, 1.0211957693099976, 0.994467556476593, 0.9325056076049805], "scaleFactor": 1, "convKernelD": [0.031285110861063004, -0.10745222866535187, 0.1284981667995453, 0.038461241871118546, 0.1921928972005844, 0.05387939140200615, -0.07293188571929932, -0.10917838662862778, -0.11245280504226685, 0.05690770596265793, 0.05204910784959793, 0.010841242037713528, -0.1498597413301468, 0.16018298268318176, -0.16082336008548737, -0.0850360170006752, 0.18631114065647125, 0.1880074143409729, 0.13861389458179474, -0.07990524172782898, -0.14146974682807922, 0.104310542345047, -0.13041730225086212, 0.20788536965847015, -0.06796080619096756, -0.10270664095878601, 0.04521000012755394, -0.038274649530649185, -0.08918382227420807, -0.18730488419532776, -0.13232538104057312, 0.07328814268112183, -0.15077048540115356, -0.008723683655261993, 0.0593685507774353, 0.06175798177719116, -0.02250153012573719, -0.1419466882944107, 0.19948022067546844, -0.07435238361358643, 0.14246802031993866, 0.11634805053472519, -0.044236116111278534, -0.0038973267655819654, 0.07777116447687149, -0.039609432220458984, 0.12382981181144714, -0.16890951991081238, 0.038168344646692276, 0.1731933206319809, -0.26552829146385193, -0.17360882461071014, 0.10361486673355103, -0.1669926941394806, 0.11464859545230865, -0.05628122389316559, -0.03121713362634182, -0.11193633824586868, -0.2024337500333786, -0.1346268653869629, -0.03424239158630371, -0.12065886706113815, -0.037438999861478806, 0.1610451489686966, -0.017224613577127457, 0.07261332869529724, -0.1621459424495697, -0.06573092192411423, -0.10058268904685974, 0.18027263879776, 0.09699863195419312, -0.11718094348907471, 0.08437620103359222, -0.2546280324459076, 0.13355080783367157, -0.1282983273267746, -0.029840504750609398, 0.15392160415649414, 0.131414532661438, -0.008456057868897915, 0.04256212338805199, 0.2254420965909958, 0.08049885928630829, -0.08460278809070587, -0.052815765142440796, -0.019607558846473694, 0.01403486356139183, 0.16233567893505096, 0.22360581159591675, 0.12570789456367493, 0.0057491883635520935, -0.13395723700523376, 0.09108886867761612, -0.21297113597393036, 0.06369603425264359, -0.02298479899764061, -0.12239895015954971, -0.12609189748764038, -0.17584314942359924, 0.09848862886428833, -0.10378620028495789, -0.03800107166171074, 0.006631908938288689, 0.016555262729525566, 0.027152404189109802, -0.09259001910686493, 0.18928585946559906, -0.13339181244373322, 0.03345884010195732, 0.1577223390340805, 0.11297322064638138, 0.046950120478868484, -0.02184344083070755, 0.019587725400924683, 0.040231090039014816, 0.01940957084298134, 0.09027880430221558, 0.03947657719254494, -0.10148674249649048, -0.1214701309800148, -0.06862185895442963, 0.24626430869102478, -0.06429993361234665, 0.03848862648010254, -0.17374907433986664, 0.16319508850574493, -0.20442648231983185, 0.20853391289710999, 0.14310616254806519, -0.013758139684796333, 0.03313669562339783, -0.06355371326208115, -0.11155220121145248, -0.0532512366771698, 0.18473264575004578, -0.1159423440694809, 0.04416212439537048, -0.17433245480060577, 0.10395770519971848, 0.13617894053459167, -0.11393077671527863, -0.05272863060235977, 0.07314156740903854, -0.13644875586032867, 0.00818453449755907, 0.11821174621582031, -0.024194085970520973, 0.036986805498600006, 0.20089299976825714, -0.012309239245951176, 0.16278992593288422, -0.07590767741203308, 0.029827792197465897, -0.10115598142147064, 0.18188756704330444, 0.10713552683591843, -0.06384938955307007, 0.009258667007088661, -0.04888107627630234, -0.03668536990880966, -0.18606022000312805, -0.0169266015291214, -0.05641650781035423, -0.008027895353734493, -0.15658073127269745, -0.09516862034797668, 0.1941688358783722, 0.10560664534568787, 0.0321526974439621, -0.10974213480949402, 0.17644916474819183, -0.005272174719721079, 0.078880175948143, -0.15369747579097748, -0.17518848180770874, 0.13559862971305847, 0.15059426426887512, -0.13087838888168335, -0.1625472754240036, -0.04317580908536911, 0.1843157857656479, -0.0532195083796978, -0.09929859638214111, -0.0979091003537178, -0.06019157916307449, -0.08696125447750092, -0.12706425786018372, -0.01622399501502514, 0.15799900889396667, 0.051585886627435684, -0.03623859956860542, 0.12097584456205368, -0.05976322293281555, 0.15237313508987427, -0.25390639901161194, 0.005409712437540293, 0.0872235894203186, -0.17640621960163116, -0.06178675591945648, 0.18564264476299286, -0.031867753714323044, -0.20124337077140808, 0.18477778136730194, 0.11600696295499802, 0.18990793824195862, -0.06636449694633484, -0.11126559972763062, -0.04907780885696411, -0.19660133123397827, 0.18672765791416168, -0.06213143840432167, -0.07622693479061127, -0.06277613341808319, -0.056421104818582535, 0.20107989013195038, -0.0575275793671608, -0.014477184042334557, -0.04188459739089012, 0.1574159413576126, -0.14488691091537476, -0.16085049510002136, -0.17554964125156403, -0.13839726150035858, -0.13757455348968506, 0.146511971950531, -0.024158626794815063, -0.09631355106830597, -0.21547669172286987, -0.13371017575263977, -0.006241059862077236, 0.1046353131532669, 0.02023562788963318, -0.04121577367186546, 0.028492867946624756, -0.02015511505305767, -0.1243993267416954, 0.02674662508070469, -0.12737645208835602, -0.02149367146193981, -0.1322963982820511, -0.14984102547168732, -0.18462082743644714, 0.140913188457489, 0.08939433097839355, 0.13345956802368164, -0.10145312547683716, -0.08196236938238144, -0.20101991295814514, 0.013618254102766514, -0.048439547419548035, -0.20773132145404816, -0.18164511024951935, -0.05339352414011955, 0.047860901802778244, -0.10444359481334686, 0.03895406052470207, -0.04230621084570885, 0.015869908034801483, -0.1563141644001007, 0.12986405193805695, -0.12078987807035446, 0.11071357876062393, -0.07857915759086609, 0.2606942355632782, 0.01982877217233181, -0.0989094078540802, -0.0471934899687767, 0.23884651064872742, 0.021641861647367477, 0.05348702147603035, -0.16291141510009766, -0.11170130968093872, 0.09381339699029922, 0.018420986831188202, 0.08591204881668091, 0.15434740483760834, -0.05964875593781471, 0.14640767872333527, 0.18018920719623566, 0.13468290865421295, 0.105815589427948, -0.01686110906302929, -0.08123511075973511, 0.10206005722284317, -0.1366816759109497, -0.1448817253112793, 0.022326266393065453, -0.10088185966014862, -0.16740305721759796, -0.12231762707233429, -0.0791606456041336, -0.012249790132045746, 0.1724410355091095, 0.14887498319149017, 0.156782865524292, -0.06773950904607773, 0.11195016652345657, -0.027190934866666794, -0.12891460955142975, -0.10797180980443954, -0.18507643043994904, 0.147954061627388, 0.007793039549142122, 0.06920892000198364, 0.04331261292099953, -0.1504419595003128, -0.17976628243923187, -0.016693439334630966, 0.15381555259227753, -0.032398853451013565, 0.027683237567543983, -0.08048155158758163, 0.07401440292596817, -0.0742659792304039, 0.10623939335346222, -0.14988641440868378, 0.11103292554616928, -0.16553084552288055, -0.004619622137397528, 0.10183724015951157, -0.02248365618288517, 0.14787495136260986, -0.053539421409368515, -0.038489289581775665, 0.10113755613565445, -0.05370749533176422, -0.09956949949264526, 0.05837654694914818, -0.07057429105043411, 0.08851263672113419, 0.08163465559482574, -0.03997267782688141, -0.10283403843641281, 0.08960812538862228, 0.16849005222320557, -0.2163505256175995, 0.09590959548950195, -0.1251600980758667, -0.10391803085803986, -0.037153348326683044, -0.13969996571540833, 0.026060925796628, -0.14274156093597412, -0.14286461472511292, -0.06799943745136261, 0.1237102746963501, -0.009924998506903648, -0.12599115073680878, -0.053967028856277466, -0.06770530343055725, -0.07158932089805603, 0.06286358833312988, 0.11690445989370346, -0.2029261738061905, -0.14579671621322632, -0.20171678066253662, 0.017121244221925735, -0.10651607066392899, 0.03678222373127937, -0.0648578330874443, 0.20836248993873596, -0.020166786387562752, -0.12035362422466278, 0.04675509035587311, -0.07906901836395264, -0.10167736560106277, 0.16727064549922943, -0.027329780161380768, 0.11516950279474258, 0.06580687314271927, 0.06800952553749084, 0.03529971465468407, 0.1398802250623703, 0.18112380802631378, -0.1023242175579071, -0.07696517556905746, 0.005472601857036352, -0.12678998708724976, -0.19331865012645721, 0.19023503363132477, -0.1323217749595642, -0.06892456114292145, -0.23567070066928864, 0.11841661483049393, -0.08346845954656601, -0.02025795914232731, -0.01408847514539957, -0.06400394439697266, -0.12418550252914429, 0.22874636948108673, -0.030697820708155632, 0.028265533968806267, -0.14867207407951355, -0.22965797781944275, 0.1032048761844635, 0.10721316188573837, -0.08688505738973618, -0.1555027812719345, -0.17917118966579437, 0.03858872130513191, -0.10402478277683258, 0.001020780298858881, -0.006345684174448252, 0.15961302816867828, 0.16237430274486542, -0.04046459123492241, -0.025189006701111794, 0.0218860674649477, 0.003291432047262788, -0.04921620339155197, -0.10287909209728241, 0.21381862461566925, -0.15499059855937958, 0.19441291689872742, -0.11311833560466766, 0.10677774250507355, -0.08248792588710785, -0.16387805342674255, 0.1636551469564438, 0.02678298018872738, 0.18761366605758667, -0.09682665020227432, 0.23734338581562042, -0.14439307153224945, 0.18994086980819702, -0.13904908299446106, 0.14884687960147858, 0.08978269249200821, -0.09879865497350693, -0.18478697538375854, 0.016761520877480507, -0.176777645945549, -0.18534371256828308, 0.029013823717832565, 0.0996958315372467, 0.014986918307840824, 0.19806607067584991, -0.08270595967769623, 0.07885122299194336, 0.08826442807912827, -0.04541903734207153, -0.08424458652734756, -0.14064112305641174, -0.1328023374080658, 0.10211402177810669, 0.014999570325016975, -0.1013835221529007, -0.15061935782432556, 0.02967263199388981, -0.05394040420651436, -0.08440297096967697, 0.0923834890127182, -0.16411392390727997, -0.09982187300920486, -0.17921635508537292, 0.07154842466115952, 0.1875256597995758, -0.08450475335121155, -0.13583871722221375, -0.19555620849132538, 0.16101673245429993, 0.16547051072120667, -0.026677923277020454, 0.015484290197491646, 0.0929090678691864, -0.14844506978988647, 0.1244790107011795, -0.23352760076522827, -0.0756102204322815, 0.19203294813632965, 0.02450878731906414, -0.11919195204973221, 0.03393891081213951, 0.061394065618515015, 0.10695116966962814, -0.05517022684216499, -0.09472020715475082, -0.14039325714111328, 0.1635025292634964, -0.019647395238280296, -0.020371006801724434, -0.15055502951145172, 0.02884853444993496, 0.08887805044651031, -0.00023751983826514333, -0.02104763127863407, -0.1018243059515953, 0.04913070797920227, 0.12923389673233032, 0.21459956467151642, -0.022411180660128593, 0.12408887594938278, -0.09506844729185104, 0.08866703510284424, -0.08319655805826187, -0.03894196078181267, -0.09221278876066208, -0.12214389443397522, -0.16061590611934662, 0.19697919487953186, -0.09953196346759796, 0.17013198137283325, 0.15917836129665375, 0.1252361536026001, -0.2217855602502823, 0.04959060251712799, -0.011830035597085953, 0.059404145926237106, 0.02119322121143341, 0.13622009754180908, -0.101937435567379, 0.15755297243595123, -0.17955534160137177, -0.056912947446107864, 0.10629817843437195, 0.09225442260503769, -0.09566320478916168, 0.04854651167988777, 0.12788881361484528, 0.18495318293571472, -0.0627039298415184, -0.0014226898783817887, 0.15924720466136932, 0.12317846715450287, 0.2078673094511032, 0.10065363347530365, 0.0039681969210505486, -0.12846985459327698, -0.12430808693170547, 0.008528975769877434, -0.10637971758842468, -0.11075209081172943, 0.16419552266597748, 0.16211511194705963, 0.20465275645256042, 0.009289446286857128, -0.027009950950741768, -0.12570692598819733, -0.022174272686243057, -0.08710308372974396, -0.005065088625997305, 0.061572156846523285, -0.2211783081293106, -0.09899280220270157, -0.07849375903606415, -0.03982919454574585, 0.10416629165410995, -0.15012554824352264, -0.09908450394868851, 0.017723117023706436, -0.04317969083786011, 0.15615516901016235, -0.08198346197605133, 0.0403754748404026, 0.20656728744506836, -0.10624334961175919, 0.23241417109966278, 0.14930784702301025, -0.03375423699617386, -0.2513071596622467, 0.11852709203958511, -0.08293826133012772, -0.20770975947380066, -0.05055373162031174, -0.1828688383102417, 0.08304310590028763, -0.07496427744626999, -0.10575518757104874, -0.08656436949968338, -0.1031460240483284, -0.03773811087012291, 0.11119706928730011, -0.015864428132772446, -0.01589624583721161, 0.001157473074272275, -0.17316477000713348, -0.09725097566843033, 0.15525130927562714, 0.15769468247890472, 0.04379257187247276, -0.21858765184879303, -0.007606743834912777, -0.04953642189502716, 0.026247495785355568, 0.04711868241429329, 0.03339133411645889, 0.12806963920593262, -0.004764594603329897, -0.14831240475177765, 0.09390915930271149, 0.14406511187553406, 0.1294984668493271, -0.0978504866361618, 0.07768122106790543, -0.05209311097860336, -0.020687704905867577, -0.13476566970348358, 0.1636216789484024, -0.11720690876245499, 0.22569657862186432, -0.0631176009774208, -0.0019421487813815475, -0.008601532317698002, 0.056205641478300095, -0.0003603926452342421, -0.1174035519361496, 0.06682930886745453, -0.19967268407344818, -0.05296019837260246, -0.15345820784568787, 0.18325871229171753, 0.17538438737392426, -0.027494698762893677, 0.015940289944410324, 0.10622909665107727, 0.023328956216573715, 0.11248858273029327, -0.14871270954608917, 0.1011769250035286, 0.13729766011238098, 0.10748037695884705, -0.19802935421466827, -0.1298409104347229, -0.22387941181659698, 0.1274871677160263, 0.03845182806253433, -0.08331778645515442, 0.0354384109377861, 0.1714310646057129, -0.11341266334056854, -0.09802588075399399, -0.14621709287166595, -0.1157502681016922, -0.1016271710395813, -0.17076168954372406, -0.2019735723733902, -0.05318693444132805, -0.04382426291704178, -0.152987539768219, 0.19918817281723022, 0.10799585282802582, -0.15018314123153687, -0.19249406456947327, 0.12208228558301926, 0.10143476724624634, -0.04706304520368576, 0.052629515528678894, 0.04007077217102051, 0.19609808921813965, 0.09805957973003387, 0.10730201750993729, -0.012194200418889523, -0.14175909757614136, 0.02893233485519886, 0.14770542085170746, -0.03257894515991211, 0.10624948143959045, 0.10644058883190155, 0.1808864027261734, 0.03949743136763573, 0.1721951961517334, 0.13649876415729523, -0.12673527002334595, 0.03247709572315216, -0.1413075178861618, 0.21674929559230804, -0.04012147709727287, -0.10296565294265747, -0.06452073156833649, -0.1405918151140213, 0.13269026577472687, -0.17424151301383972, 0.01262685190886259, -0.08056449890136719, 0.06365709751844406, -0.017587458714842796, -0.03478030487895012, 0.13222333788871765, 0.18936485052108765, 0.19738462567329407, 0.15411518514156342, -0.2994173765182495, 0.08446445316076279, -0.14272576570510864, -0.11247145384550095, -0.10569266974925995, -0.16786424815654755, -0.2470613569021225, -0.14134536683559418, 0.0984082892537117, 0.1712910681962967, 0.21813733875751495, -0.09417255967855453, -0.22791476547718048, -0.12207906693220139, -0.025759834796190262, 0.03514533489942551, 0.058592841029167175, -0.16181237995624542, 0.15706831216812134, -0.024293025955557823, 0.17576660215854645, -0.21396347880363464, -0.16842786967754364, -0.1411503255367279, 0.1591176986694336, 0.11257917433977127, 0.030881136655807495, -0.07485055923461914, -0.1765892207622528, -0.0037613764870911837, -0.22789622843265533, 0.04309001937508583, 0.21732033789157867, -0.182833731174469, -0.09841085225343704, 0.1074012964963913, 0.14115570485591888, -0.052118055522441864, 0.10371291637420654, -0.05888903886079788, 0.20846419036388397, -0.14197339117527008, -0.12762011587619781, -0.12892571091651917, 0.17038413882255554, -0.17310187220573425, -0.1817188411951065, -0.025811700150370598, 0.024485023692250252, 0.07476208359003067, 0.07924917340278625, 0.05106130242347717, -0.16780012845993042, 0.1800079345703125, 0.06666282564401627, -0.0038793827407062054, -0.16659310460090637, 0.14913134276866913, -0.050248585641384125, -0.12220443785190582, -0.1830809861421585, -0.11046333611011505, -0.13264410197734833, 0.11688719689846039, -0.008791320025920868, 0.10303240269422531, 0.0286834966391325, 0.10907796770334244, 0.12502306699752808, -0.132843479514122, 0.09720180183649063, -0.08637674152851105, 0.1252903938293457, -0.08947201818227768, -0.07829967886209488, -0.05143311992287636, -0.08099641650915146, 0.19618719816207886, 0.02409987337887287, -0.02959224209189415, 0.21726234257221222, -0.08427374064922333, 0.10489355027675629, 0.17344743013381958, -0.06503085792064667, -0.030661823228001595, 0.20075316727161407], "convKernelB": [0.07027988880872726, -0.24959345161914825, -0.2765554189682007, -0.01558980904519558, 0.04124945029616356, -0.24865226447582245, 0.0017154432134702802, 0.23111598193645477, -0.10836347192525864, 0.16545610129833221, -0.07267945259809494, 0.24105112254619598, 0.12768781185150146, 0.0814225822687149, -0.39195042848587036, 0.13863132894039154, 0.20848974585533142, -0.10197452455759048, 0.23875775933265686, 0.25502854585647583, -0.16554895043373108, -0.21808911859989166, 0.02734529599547386, -0.2275507003068924, -0.005438491236418486, 0.2137286216020584, 0.2391226440668106, -0.2416873276233673, 0.31546705961227417, 0.31451311707496643, -0.043845102190971375, 0.16080546379089355, -0.1821517050266266, 0.02817702107131481, -0.16458509862422943, -0.16103048622608185, -0.018561366945505142, -0.0896582156419754, 0.0485258549451828, 0.15563856065273285, -0.18666301667690277, -0.14417845010757446, 0.09980736672878265, -0.08906318992376328, -0.038786906749010086, 0.031203743070364, -0.21959292888641357, 0.2707313597202301, -0.08806145191192627, -0.0021648595575243235, 0.21790146827697754, 0.24429567158222198, -0.11329497396945953, 0.11598289757966995, -0.1036805659532547, 0.08995421230792999, -0.24736814200878143, -0.16924266517162323, 0.2466280609369278, 0.23049680888652802, 0.1522812843322754, 0.34047484397888184, 0.12402301281690598, -0.000996252871118486, 0.1430020034313202, -0.2560213804244995, 0.08788280189037323, -0.1615734100341797, 0.18237994611263275, -0.04097312316298485, 0.06535111367702484, 0.25980114936828613, 0.18597249686717987, -0.05098280310630798, -0.06922945380210876, 0.24794133007526398, 0.012288706377148628, -0.23801754415035248, -0.1649421900510788, -0.21804659068584442, 0.23153361678123474, 0.13523750007152557, 0.018980318680405617, 0.240789532661438, -0.034993432462215424, -0.01948978193104267, -0.29531610012054443, -0.052745271474123, -0.21916314959526062, -0.011264165863394737, 0.18226201832294464, 0.18396471440792084, 0.2564733624458313, 0.11760937422513962, -0.029101500287652016, 0.22277666628360748, 0.1289336234331131, 0.15303462743759155, -0.034693703055381775, 0.08331359177827835, -0.15993745625019073, 0.2713933289051056, 0.16441254317760468, 0.13336293399333954, -0.21061263978481293, 0.3190264105796814, 0.30960285663604736, -0.09566175192594528, -0.16368244588375092, -0.03431926667690277, 0.01387676503509283, 0.2123701423406601, 0.11038413643836975, -0.12799088656902313, -0.13913385570049286, 0.19087082147598267, 0.05109311267733574, -0.23968230187892914, 0.044528912752866745, -0.08706095814704895, -0.2181481570005417, -0.0417865589261055, 0.18813282251358032, -0.12424628436565399, 0.0923103466629982, -0.09672486037015915, -0.25260502099990845, -0.1452530175447464, 0.1961437165737152, 0.1968025267124176, 0.04464229196310043, 0.001838717726059258, 0.08402443677186966, 0.057267457246780396, 0.03829140588641167, 0.14561912417411804, 0.12568505108356476, -0.23280377686023712, -0.128078892827034, 0.037225376814603806, 0.20147517323493958, 0.2513158619403839, -0.13052983582019806, -0.20773205161094666, 0.0046901763416826725, 0.23525036871433258, 0.15505382418632507, 0.12804001569747925, -0.1055697426199913, 0.06506484001874924, -0.1695435345172882, -0.24679996073246002, -0.08557669073343277, -0.011663478799164295, 0.1387711763381958, 0.1646254062652588, 0.12582871317863464, 0.09095791727304459, 0.1575007289648056, -0.0962735116481781, 0.20481085777282715, 0.049745626747608185, 0.09000325947999954, 0.16163086891174316, -0.1451878398656845, 0.07422485202550888, 0.0629563108086586, 0.0253372173756361, 0.016267266124486923, -0.10924410820007324, 0.21742773056030273, 0.0426260270178318, 0.0053362068720161915, -0.1215851679444313, 0.19349680840969086, -0.08856191486120224, -0.0013980430085211992, -0.21569518744945526, -0.017003268003463745, 0.22609062492847443, 0.173236683011055, 0.18795126676559448, -0.07625283300876617, -0.22539561986923218, 0.07896188646554947, 0.01657421886920929, 0.23257236182689667, 0.17023979127407074, -0.06063465401530266, -0.02533891424536705, -0.04040369391441345, -0.08143853396177292, -0.10170936584472656, -0.17824241518974304, 0.21747034788131714, 0.03846660628914833, 0.35550788044929504, 0.1559949517250061, 0.2866353988647461, 0.06834299117326736, 0.3081257939338684, -0.044823262840509415, -0.015310488641262054, -0.08039049804210663, -0.1175651028752327, -0.05897340178489685, 0.21820689737796783, -0.020199911668896675, 0.19103457033634186, -0.22785761952400208, -0.03404192626476288, 0.2765100598335266, 0.10911805182695389, -0.1978577822446823, 0.21685877442359924, -0.025336971506476402, -0.15993119776248932, -0.17082904279232025, -0.11075952649116516, 0.1292170137166977, -0.18824361264705658, 0.1816830039024353, 0.02429303154349327, -0.2419092357158661, -0.11803176254034042, 0.2116955816745758, 0.30470144748687744, -0.0407608300447464, 0.2882484793663025, 0.2984088361263275, 0.2815098464488983, -0.2378801554441452, 0.1104339063167572, -0.01563945598900318, 0.07005759328603745, -0.24106766283512115, 0.22451359033584595, -0.13919469714164734, 0.28309065103530884, 0.2756982147693634, 0.3269384205341339, 0.16514939069747925, 0.15655502676963806, 0.008654667064547539, -0.013742180541157722, 0.05441809818148613, -0.15971232950687408, 0.12258584052324295, -0.02367517724633217, -0.037574995309114456, -0.07707803696393967, -0.1255636364221573, -0.0010506558464840055, 0.12584258615970612, -0.02550661750137806, -0.14250697195529938, -0.21983380615711212, 0.10276896506547928, -0.029948534443974495, -0.01724870130419731, -0.24876557290554047, 0.028922267258167267, 0.016822289675474167, -0.23265691101551056, -0.24160648882389069, 0.09400495141744614, -0.20237529277801514, -0.027212658897042274, 0.08458913117647171, -0.10103003680706024, -0.24266426265239716, 0.20098145306110382, 0.033942222595214844, 0.0005464593996293843, 0.14190785586833954, 0.131935715675354, 0.1043265238404274, 0.10032305866479874, -0.059569451957941055, 0.24070419371128082, 0.22904855012893677, 0.08442176878452301, -0.20848515629768372, 0.23913083970546722, 0.05953449755907059, 0.15617957711219788, 0.23727774620056152, -0.19634594023227692, -0.08393639326095581, -0.07628027349710464, -0.13475829362869263, -0.029387550428509712, 0.22446584701538086, -0.11995990574359894, 0.07829449325799942, 0.29500627517700195, 0.05684946849942207, -0.22661656141281128, 0.20330829918384552, 0.18042311072349548, 0.17838065326213837, 0.14567020535469055, 0.2923365831375122, 0.19222542643547058, 0.06904900074005127, 0.11785417795181274, -0.004273221828043461, 0.018973665311932564, 0.021327883005142212, 0.23974739015102386, -0.09356608241796494, 0.17510174214839935, 0.025675904005765915, 0.1896372139453888, -0.12393061816692352, 0.08049099147319794, 0.13441719114780426, 0.09248968958854675, 0.175117626786232, 0.05800393596291542, 0.16250549256801605, -0.1191287711262703, 0.14908531308174133, 0.004376870114356279, -0.014516946859657764, 0.018045788630843163, 0.11010407656431198, -0.0919787809252739, 0.05556488037109375, -0.10095757991075516, -0.0650501400232315, 0.06598586589097977, -0.10321761667728424, -0.044716205447912216, -0.1736740618944168, -0.08410340547561646, -0.13566185534000397, -0.0852462500333786, 0.14437156915664673, 0.2922898232936859, -0.05080343782901764, 0.01007549837231636, 0.010783369652926922, -0.28374215960502625, 0.16978950798511505, -0.19650806486606598, 0.00029955795616842806, -0.18993936479091644, 0.12899653613567352, -0.08636408299207687, -0.14134299755096436, -0.0935283899307251, 0.13857121765613556, 0.084246926009655, 0.2129467874765396, -0.143995463848114, 0.06818652153015137, 0.11911056190729141, -0.11091511696577072, -0.15838198363780975, 0.14017823338508606, 0.02346118353307247, 0.2561410069465637, 0.008941056206822395, -0.03665275499224663, -0.03201737999916077, -0.23426403105258942, 0.14995266497135162, 0.31120941042900085, 0.014274848625063896, 0.14784906804561615, -0.11868297308683395, -0.20601621270179749, 0.11435932666063309, 0.22406704723834991, -0.15036176145076752, -0.12092243134975433, -0.17784923315048218, 0.12197351455688477, 0.14399749040603638, 0.2646266222000122, 0.17819957435131073, -0.10104856640100479, -0.146497443318367], "className": "reception", "roundsDim": 6, "bnGammaC": [1.016158938407898, 0.9183199405670166, 1.0123088359832764, 1.0113860368728638, 1.025390386581421, 0.9883267283439636, 0.9524122476577759, 1.029229760169983], "bnMeanA": [-0.2187058925628662, 0.02662300318479538, 0.044927723705768585, 0.31398457288742065, 0.21978431940078735, 0.43649065494537354, -0.4041498899459839, 0.10277760773897171], "bnBetaB": [0.046613264828920364, 0.18651676177978516, 0.03404879942536354, 0.049366701394319534, -0.18361981213092804, -0.009169938042759895, -0.049043770879507065, -0.15362556278705597, 0.07776384055614471, 0.054588355123996735, 0.016940182074904442, -0.020529771223664284, 0.013079585507512093, 0.05205797776579857, 0.00018696230836212635, 0.05096570774912834], "typesDim": 3, "convKernelA": [-0.3798486888408661, -0.3749416172504425, 0.5290626287460327, -0.09381148219108582, 0.4914737641811371, -0.49512049555778503, -0.2360081523656845, -0.5093235373497009, 0.24382849037647247, 0.3332941234111786, 0.08079137653112411, 0.2688900828361511, -0.022698232904076576, 0.24256987869739532, -0.21602660417556763, -0.22351105511188507, 0.21512071788311005, 0.10032042860984802, -0.055735740810632706, 0.3814082145690918, 0.3284190595149994, 0.11938851326704025, 0.09626035392284393, 0.023455992341041565, 0.3594261705875397, -0.5235128402709961, -0.19905562698841095, 0.13471683859825134, -0.13035523891448975, -0.22817406058311462, -0.1386418342590332, 0.48249903321266174, -0.3691742718219757, 0.3476962745189667, -0.018476521596312523, -0.08811003714799881, 0.3325415551662445, 0.07555227726697922, -0.03925632685422897, -0.3099421560764313, -0.1981908082962036, 0.14615395665168762, -0.08160338550806046, 0.23698265850543976, -0.15435518324375153, 0.18186911940574646, -0.018822921440005302, -0.16191726922988892, -0.21546123921871185, -0.1947101354598999, -0.06817769259214401, -0.08574124425649643, 0.44536322355270386, 0.386059045791626, 0.3880728781223297, 0.4717020094394684, -0.22311244904994965, 0.09461472928524017, 0.36814478039741516, 0.4114597737789154, -0.058559220284223557, 0.3025873899459839, -0.07121172547340393, 0.17276115715503693, -0.3634953200817108, 0.2767466604709625, -0.21628786623477936, 0.1607663631439209, -0.24932673573493958, -0.0897616595029831, -0.4357474446296692, -0.10537020117044449, -0.38572782278060913, -0.26349785923957825, 0.03274520859122276, 0.0986083373427391, 0.16721075773239136, 0.16123829782009125, 0.15730369091033936, -0.24240992963314056, -0.2571861147880554, 0.3490120470523834, -0.09584817290306091, -0.14446288347244263, 0.07870859652757645, 0.44086581468582153, -0.4355819821357727, 0.30274438858032227, 0.1860656887292862, -0.5105403065681458, -0.43839967250823975, 0.14588753879070282, -0.26603105664253235, 0.07133316248655319, -0.281867653131485, 0.10876261442899704, 0.32523074746131897, -0.11879021674394608, 0.4367857277393341, 0.3774791359901428, 0.29392698407173157, 0.43986788392066956, 0.23398348689079285, -0.42023253440856934, -0.36864539980888367, 0.04274553433060646, 0.35400712490081787, -0.08596336096525192, -0.021917494013905525, 0.34252968430519104, -0.16288065910339355, 0.36623701453208923, -0.3715797960758209, -0.40859028697013855, 0.3495996594429016, -0.1261214017868042, 0.3389599621295929, -0.038481418043375015, -0.30158767104148865, 0.1323632299900055, 0.07798481732606888, -0.18831373751163483, -0.3078743517398834, 0.15496355295181274, 0.40989941358566284, 0.19898295402526855, -0.02866225130856037, 0.1654813587665558, -0.2039869874715805, -0.05802664905786514, 0.41510632634162903, -0.06904063373804092, 0.006884241942316294, 0.3041630983352661, -0.5108578205108643, 0.12266766279935837, 0.10914433747529984, 0.4046286940574646, -0.23488245904445648, 0.3722389042377472, -0.07124482840299606, 0.11693567782640457, -0.3805065155029297, 0.12752550840377808], "inputChannelsDim": 18, "convBiasB": [0.00033854093635454774, -0.008064759895205498, -0.001313461223617196, 0.00415003951638937, 5.4564541642321274e-05, -0.0009905589977279305, -0.004898717626929283, -0.0004208099271636456, 0.0007959506474435329, -0.006235042586922646, 0.0005318907788023353, 0.0012199768098071218, 0.0015927330823615193, -0.000715427624527365, 0.001585626625455916, 0.0006885132752358913], "bnVarianceD": [0.38672253489494324, 0.38609302043914795, 0.2522595524787903, 0.2931002378463745, 0.09302479773759842, 2.1028969287872314, 0.1472243070602417, 0.06257551163434982, 0.5127092003822327, 0.5735681056976318, 0.017052263021469116, 1.242501139640808, 1.3609343767166138, 0.45675742626190186, 0.8724976181983948, 0.2919723689556122], "bnMeanB": [0.1445612907409668, 0.04024066403508186, 0.13804738223552704, 0.24265754222869873, -0.014808829873800278, 0.0597362220287323, 0.023196931928396225, -0.02466430887579918, -0.0926707461476326, -0.019382406026124954, 0.13354234397411346, 0.16208544373512268, 0.3055983781814575, 0.2270897477865219, -0.10546872764825821, 0.09435156732797623], "convKernelC": [-0.14613084495067596, -0.2286916822195053, 0.26270779967308044, -0.1464589536190033, 0.09517126530408859, -0.30309227108955383, -0.37500816583633423, -0.4096421003341675, -0.27582406997680664, -0.05597156658768654, -0.05866503342986107, 0.14715252816677094, 0.30044111609458923, 0.1497221738100052, -0.04565131291747093, 0.2948460876941681, 0.2090601921081543, 0.1238064244389534, 0.33489927649497986, -0.23746687173843384, -0.12069815397262573, -0.11667212098836899, -0.3422854244709015, -0.03771256282925606, 0.37763264775276184, -0.47932252287864685, 0.23759981989860535, 0.43844783306121826, -0.27499088644981384, 0.17204418778419495, -0.05251895636320114, -0.4066547155380249, 0.322378545999527, 0.4348137676715851, -0.17348690330982208, -0.27462756633758545, -0.22711126506328583, 0.20032484829425812, -0.15353773534297943, -0.09223766624927521, 0.00639568455517292, -0.3409275710582733, 0.13615025579929352, -0.1582610160112381, 0.308265745639801, -0.2713996171951294, -0.10187815129756927, -0.42710044980049133, 0.34560516476631165, -0.2405758947134018, 0.1991925835609436, 0.4921320974826813, 0.19043152034282684, 0.19436822831630707, -0.39810195565223694, 0.17719750106334686, 0.5021713972091675, 0.22484706342220306, 0.3721669316291809, 0.07547135651111603, 0.038724590092897415, 0.020603178068995476, 0.08980683982372284, 0.1402873694896698, 0.41605666279792786, -0.4239797592163086, -0.07857402414083481, 0.13205543160438538, 0.10542172938585281, 0.22486934065818787, 0.0581066720187664, -0.2190626561641693, 0.19021452963352203, 0.29261544346809387, 0.2565732002258301, -0.055510781705379486, 0.1871369481086731, -0.23207175731658936, 0.23043708503246307, -0.41551026701927185, -0.13822832703590393, 0.17435044050216675, -0.4658752679824829, -0.30521249771118164, 0.23803605139255524, 0.2407420575618744, 0.37462133169174194, 0.12520930171012878, -0.09193463623523712, 0.0043618399649858475, -0.18107838928699493, -0.01063908077776432, 0.14425933361053467, 0.22890111804008484, 0.278696745634079, -0.3354957401752472, -0.4521435797214508, 0.04600663483142853, 0.21751292049884796, 0.39971867203712463, 0.4706762135028839, 0.311010479927063, -0.374234139919281, 0.0787818431854248, 0.06250711530447006, 0.3778299391269684, 0.2539481222629547, 0.10868915915489197, 0.3799237012863159, -0.2257593423128128, 0.19903147220611572, -0.10398124158382416, 0.42150750756263733, 0.03911759331822395, 0.24613246321678162, 0.17396727204322815, 0.4061722457408905, -0.41291192173957825, 0.20926207304000854, -0.2453232705593109, 0.17730960249900818, 0.18076665699481964, -0.3776545822620392, -0.1678430736064911, -0.32338064908981323, 0.2088647037744522, 0.5166796445846558, 0.34140998125076294, -0.3719618320465088, 0.058359868824481964, 0.4653954803943634, 0.2873583734035492, -0.010401426814496517, -0.21410514414310455, 0.1786566823720932, -0.32652780413627625, 0.22622177004814148, 0.41821524500846863, 0.33643242716789246, -0.04604490473866463, -0.15148712694644928, -0.2177184820175171, -0.08687138557434082, 0.37913164496421814], "convBiasD": [0.0006059589213691652, -6.372109965013806e-06, 0.00044282563612796366, 0.004509671591222286, -0.0026777200400829315, 6.0746580857085064e-05, -0.0022859235759824514, 0.0013860956532880664, -0.001684925751760602, -0.0033815479837358, -0.004510192666202784, 0.0011644683545455337, -7.664537406526506e-05, 0.0006927167414687574, 0.001379886525683105, 0.0031165636610239744], "bnBetaC": [-0.07642731070518494, -0.030315356329083443, -0.12194908410310745, 0.006985626183450222, -0.10284911841154099, 0.11995067447423935, 0.03645776957273483, -0.011783591471612453], "bnGammaD": [0.9671842455863953, 0.9561675190925598, 0.9728703498840332, 1.0617960691452026, 1.071584939956665, 0.9800795912742615, 0.9764035940170288, 1.0411529541015625, 1.1265262365341187, 1.0038435459136963, 1.0855517387390137, 1.0154650211334229, 1.0389668941497803, 0.9832317233085632, 1.023463249206543, 0.9617553353309631], "convBiasC": [-0.0007002493948675692, 0.0010491868015378714, -0.004049106501042843, 0.003694681916385889, -0.003385272342711687, 0.001072596525773406, -0.0035194626543670893, 0.002173319924622774], "bnMeanC": [0.22637999057769775, 0.12021814286708832, 0.16070584952831268, 0.09626147896051407, 0.129700168967247, 0.126665860414505, 0.14918901026248932, -0.1361202597618103], "convBiasA": [-0.0018622111529111862, -0.000263632187852636, 0.012037220411002636, 0.011670582927763462, 0.003568953601643443, 0.005790768191218376, -0.007605730090290308, 0.0010202551493421197], "bnVarianceC": [1.4759198427200317, 2.107147455215454, 0.8595532178878784, 1.8252397775650024, 0.7357555627822876, 0.21464017033576965, 0.6379848718643188, 2.1569249629974365], "bnGammaA": [0.9898019433021545, 0.9794917702674866, 0.9851272702217102, 0.9280669689178467, 1.0178109407424927, 0.98397296667099, 1.03028404712677, 0.8080623745918274]}, {"bnMean": [-0.22509828209877014, 0.05319824814796448, 0.27383849024772644, 0.1322588324546814, 0.3024211525917053, -0.12052416056394577, 0.0029363660141825676, 0.017987988889217377, -0.2704103887081146, 0.05210014805197716, 0.09701148420572281, -0.1211729645729065, 0.1363586038351059, -0.08994489163160324, 0.2870766818523407, 0.19519545137882233, -0.13415120542049408, -0.1680995374917984, -0.1682506799697876, 0.030182022601366043, -0.11650117486715317, -0.28378573060035706, -0.14231665432453156, -0.18256892263889313], "upsamplingRoundsDimFactor": 1, "kernelRoundsDim": 1, "upsamplingTypesDimFactor": 1, "bnBeta": [-0.0020223534666001797, 0.09928490966558456, 0.09339479357004166, -0.1497424691915512, -0.04671026021242142, -0.04198361188173294, -0.02691437490284443, -0.020074885338544846, -0.13976213335990906, -0.015487613156437874, 0.004453603643923998, 0.004474064335227013, -0.07239735871553421, 0.014781545847654343, -0.05263737589120865, 0.06912838667631149, -0.06518586724996567, -0.16717831790447235, -0.16313347220420837, -0.057968128472566605, -0.04204394295811653, -0.18392132222652435, -0.002339822705835104, -0.13472284376621246], "inputChannelsDim": 50, "convKernel": [-0.21189448237419128, -0.25672054290771484, -0.12856943905353546, -0.00758126936852932, 0.29875534772872925, -0.02828276716172695, 0.017164450138807297, 0.04596903920173645, 0.269475519657135, 0.16494309902191162, 0.06796500086784363, -0.2865033447742462, 0.17569047212600708, -0.048367392271757126, 0.0773821473121643, -0.09821385145187378, 0.20332598686218262, 0.2043108344078064, 0.14976997673511505, 0.08474014699459076, 0.21790339052677155, -0.06849305331707001, 0.18687331676483154, 0.09384848177433014, 0.08384454250335693, 0.06036481633782387, -0.07453104853630066, 0.29258209466934204, 0.0989920124411583, 0.3065192997455597, -0.1682438850402832, 0.037564411759376526, -0.1945309042930603, -0.05901004746556282, 0.26468396186828613, 0.1628054976463318, 0.0816362127661705, -0.10160443186759949, 0.1734534204006195, 0.1115066334605217, -0.044811613857746124, -0.14837010204792023, 0.1752076894044876, -0.004399322904646397, 0.2451268583536148, -0.24737663567066193, -0.08839527517557144, -0.33566656708717346, 0.03937307372689247, -0.25328749418258667, -0.20127363502979279, -0.032664984464645386, 0.20479078590869904, 0.03866655379533768, -0.002822891576215625, -0.07363935559988022, 0.0019430287647992373, -0.09212550520896912, -0.18132968246936798, -0.1402030885219574, 0.2066035121679306, 0.07731156051158905, -0.02359759248793125, 0.21012936532497406, 0.11246825754642487, -0.17695164680480957, 0.2641701102256775, 0.2091355323791504, -0.19580543041229248, 0.23157738149166107, -0.19779714941978455, 0.09279479831457138, -0.2102385014295578, 0.2504275441169739, 0.20063850283622742, 0.1963202804327011, -0.1648673713207245, 0.03284044936299324, 0.17824621498584747, 0.2897473871707916, 0.030307289212942123, 0.004939106293022633, -0.041289955377578735, -0.28665676712989807, -0.23655369877815247, 0.1478937715291977, -0.31671401858329773, -0.05696543678641319, -0.25515538454055786, -0.06715873628854752, -0.1216360479593277, -0.1599891036748886, 0.006471583154052496, -0.007299375254660845, 0.2567153871059418, -0.0974210724234581, 0.18426953256130219, -0.07614599168300629, -0.06001303344964981, 0.010325941257178783, 0.08398176729679108, -0.22712334990501404, 0.07162606716156006, 0.06132900342345238, 0.3002791702747345, 0.23834291100502014, 0.21119293570518494, -0.22132055461406708, 0.09791746735572815, -0.21154797077178955, 0.0240296833217144, -0.09024441242218018, -0.21231448650360107, -0.17258457839488983, 0.009642625227570534, -0.24261201918125153, -0.26752611994743347, -0.29717832803726196, -0.1788889616727829, 0.12833566963672638, -0.11487220972776413, 0.06757941842079163, 0.03236464411020279, 0.12235067039728165, 0.25397416949272156, 0.2626410126686096, 0.14822730422019958, -0.12758857011795044, -0.26244017481803894, 0.24612458050251007, -0.05140208825469017, 0.2049275040626526, -0.06534695625305176, 0.19220365583896637, 0.22528627514839172, 0.08919821679592133, -0.1559104025363922, -0.21652154624462128, 0.23161371052265167, 0.0657762959599495, 0.11118324846029282, 0.1751500368118286, -0.05244762822985649, -0.04476936534047127, 0.019248146563768387, 0.04424319416284561, 0.1975395530462265, -0.07975240796804428, 0.1668483018875122, 0.13378863036632538, -0.12054304033517838, -0.19447892904281616, 0.12138094007968903, 0.21261684596538544, 0.24709273874759674, 0.11608437448740005, 0.14782892167568207, 0.07482321560382843, 0.2262558937072754, -0.10912156850099564, -0.15350525081157684, 0.23198163509368896, -0.14984937012195587, 0.14121490716934204, 0.12539003789424896, -0.0660005733370781, 0.1741480529308319, 0.09640870243310928, -0.07243265211582184, 0.0008791189175099134, -0.17811483144760132, 0.2986864149570465, 0.02881583198904991, -0.3206351697444916, -0.17506811022758484, -0.002464456483721733, -0.17701803147792816, 0.3260307013988495, 0.2077469676733017, -0.09695383161306381, 0.1038430705666542, 0.014304395765066147, 0.10454180836677551, 0.18290802836418152, 0.05444451421499252, -0.15692876279354095, -0.0023136117961257696, -0.03909137099981308, -0.26641154289245605, 0.07860198616981506, 0.1335790753364563, -0.20393137633800507, -0.10308390855789185, 0.1817118376493454, -0.310100793838501, -0.04647502675652504, -0.06269795447587967, -0.23328708112239838, -0.08493192493915558, 0.21865437924861908, -0.010933608748018742, -0.23892606794834137, -0.0001536718918941915, -0.2747269570827484, -0.0005923633580096066, -0.09900837391614914, -0.14134640991687775, 0.23855949938297272, -0.06054065749049187, -0.17783907055854797, -0.060226455330848694, 0.1903894692659378, 0.18430569767951965, -0.00931302085518837, -0.1327751874923706, -0.18696503341197968, -0.11863666772842407, -0.2738557457923889, 0.2440328747034073, -0.10278502851724625, 0.23566721379756927, -0.08630912005901337, -0.10744404792785645, -0.2706005573272705, -0.02075304090976715, -0.18442906439304352, 0.24238193035125732, -0.21636846661567688, -0.049585770815610886, -0.12390045821666718, 0.027759555727243423, 0.30285054445266724, 0.22889582812786102, -0.16277389228343964, 0.07872622460126877, 0.16590185463428497, -0.2640319764614105, 0.1557668000459671, 0.06839175522327423, 0.060989007353782654, -0.1707693338394165, 0.11822973191738129, -0.2274046391248703, -0.26784178614616394, -0.14911837875843048, -0.15037047863006592, 0.19397155940532684, -0.10340198874473572, -0.1954542100429535, 0.14082686603069305, 0.22883261740207672, 0.2895451486110687, -0.06083928048610687, -0.24956989288330078, 0.27660223841667175, -0.017945043742656708, -0.15276353061199188, 0.11304266005754471, -0.29501625895500183, 0.2021455317735672, -0.0885099247097969, 0.01145847886800766, -0.2321605235338211, -0.20994426310062408, 0.025557540357112885, 0.02470523677766323, -0.25702640414237976, 0.23603343963623047, 0.0635971650481224, 0.21449173986911774, 0.28281930088996887, -0.10891148447990417, 0.24857302010059357, -0.2820686101913452, -0.05245629698038101, -0.018176833167672157, -0.0014286329969763756, 0.052386797964572906, 0.24545560777187347, 0.045521993190050125, -0.25641950964927673, -0.011914180591702461, 0.08426614850759506, -0.3274906277656555, 0.14496919512748718, 0.2067430317401886, 0.030902886763215065, 0.22441984713077545, -0.0659315213561058, -0.20248162746429443, -0.22970132529735565, -0.004372692201286554, 0.011021978221833706, -0.13397125899791718, 0.042096443474292755, -0.20908989012241364, 0.11150366812944412, 0.2436968982219696, 0.06621309369802475, -0.11315755546092987, -0.007128982804715633, -0.03004147671163082, -0.1366005539894104, -0.23280230164527893, 0.12890493869781494, -0.02196187898516655, 0.23183268308639526, -0.25427520275115967, 0.012464908882975578, -0.2609671354293823, -0.11012609302997589, 0.0056509701535105705, 0.25969743728637695, -0.03393803909420967, 0.0759652704000473, 0.12274368852376938, 0.03034234046936035, 0.138309508562088, -0.13469918072223663, -0.20189517736434937, 0.07562713325023651, -0.03226649761199951, 0.08667305111885071, -0.04220495745539665, 0.11806529015302658, 0.07950884848833084, -0.050808489322662354, -0.1275884509086609, -0.07593515515327454, 0.1486332267522812, 0.20074644684791565, 0.12395065277814865, 0.18515866994857788, 0.20422782003879547, 0.2463642954826355, -0.23121356964111328, 0.18343211710453033, -0.13245293498039246, 0.17857429385185242, 0.28327229619026184, 0.15865923464298248, 0.11785365641117096, -0.057511527091264725, 0.07355021685361862, 0.1484239250421524, 0.006457454990595579, 0.054120611399412155, -0.17685844004154205, 0.2339746654033661, 0.29940909147262573, 0.09052100777626038, 0.017589960247278214, -0.009751145727932453, 0.15645678341388702, -0.23825693130493164, -0.04198751971125603, 0.08613714575767517, 0.16682396829128265, 0.1350759118795395, 0.1617593914270401, 0.23667792975902557, -0.17597739398479462, 0.31152355670928955, -0.07528705149888992, 0.18183612823486328, -0.11532632261514664, -0.13598217070102692, 0.2169618010520935, -0.05511290952563286, -0.2453443557024002, -0.14363108575344086, -0.061451517045497894, -0.0619204118847847, -0.2727278172969818, 0.13663314282894135, 0.043546535074710846, -0.27047380805015564, -0.024105560034513474, 0.23482191562652588, 0.04190303012728691, 0.07674434781074524, -0.1567380428314209, -0.27241235971450806, -0.016889145597815514, 0.2942962944507599, 0.1298312097787857, 0.031901437789201736, -0.21421688795089722, -0.03399407118558884, -0.08759672194719315, -0.02787131257355213, 0.003625826444476843, -0.15144221484661102, 0.059793874621391296, -0.05145477503538132, -0.05735698714852333, -0.0019284295849502087, -0.14775481820106506, -0.1919584423303604, 0.25250983238220215, 0.2839300334453583, -0.23121806979179382, 0.25708943605422974, 0.08319192379713058, -0.12426842749118805, -0.25948578119277954, -0.12801459431648254, 0.10247597098350525, -0.29984167218208313, 0.1188177764415741, 0.17926537990570068, 0.10617785155773163, 0.1341933161020279, 0.05422905460000038, -0.27719846367836, 0.0006875762483105063, 0.06575798243284225, 0.07025592029094696, 0.002934165997430682, 0.20303967595100403, 0.27891096472740173, -0.275369256734848, 0.28758326172828674, -0.10389766097068787, 0.1849733591079712, 0.07852697372436523, 0.27888762950897217, 0.07587607949972153, -0.1670169234275818, 0.2914282977581024, -0.15697194635868073, 0.10779022425413132, -0.05745167285203934, -0.08923792093992233, -0.2734917402267456, 0.11472923308610916, -0.00372232124209404, -0.02698535844683647, 0.1746881604194641, 0.168058842420578, -0.061966799199581146, 0.09419270604848862, 0.0822628065943718, 0.0440688356757164, 0.059362512081861496, 0.17895908653736115, -0.23040851950645447, -0.13990724086761475, 0.05946244299411774, -0.04581974446773529, -0.09099981933832169, -0.021622229367494583, -0.03477846458554268, -0.25606828927993774, -0.09660526365041733, -0.27244165539741516, 0.23306836187839508, 0.2044040411710739, 0.1009770929813385, 0.21853558719158173, 0.15194813907146454, 0.17591802775859833, -0.042920295149087906, -0.21200929582118988, -0.2018653303384781, -0.08232138305902481, -0.06922432780265808, 0.18444505333900452, 0.07429330050945282, 0.2150883972644806, -0.15277433395385742, -0.018274113535881042, 0.21236097812652588, 0.0271399337798357, 0.17762932181358337, -0.04825073108077049, -0.08476290851831436, 0.06266305595636368, 0.10140246152877808, 0.08713500946760178, -0.26876047253608704, 0.16461063921451569, 0.21986480057239532, 0.25557851791381836, 0.1686912328004837, 0.15956735610961914, -0.11750873923301697, 0.2134295254945755, -0.11277852207422256, -0.00015440265997312963, 0.2265026569366455, 0.28493762016296387, -0.2435498833656311, -0.039779916405677795, 0.013219778425991535, -0.1497810035943985, -0.06184094771742821, -0.13602745532989502, -0.004993571434170008, -0.04102728143334389, -0.32718250155448914, 0.24422845244407654, 0.10415036976337433, -0.07702874392271042, 0.2755299210548401, -0.05003371462225914, -0.19610987603664398, -0.16021668910980225, -0.12024517357349396, -0.11294813454151154, 0.14935889840126038, -0.19169119000434875, 0.18627840280532837, -0.11202775686979294, 0.20908094942569733, 0.23549328744411469, -0.14608526229858398, -0.11845923960208893, -0.14437025785446167, 0.2596275806427002, -0.2436419576406479, 0.1259804517030716, -0.20332328975200653, -0.21043139696121216, -0.25391414761543274, -0.15736030042171478, -0.03554622083902359, 0.24531139433383942, -0.18565677106380463, 0.1084669902920723, -0.03927672654390335, 0.23897463083267212, -0.21753966808319092, -0.21674352884292603, -0.17283311486244202, -0.007619388401508331, -0.13075096905231476, 0.1257571578025818, 0.2740444242954254, 0.26713600754737854, 0.25835880637168884, 0.1846870332956314, -0.11776319891214371, -0.07996635884046555, -0.24058914184570312, -0.15594592690467834, -0.11629696190357208, -0.10668228566646576, 0.2639768421649933, 0.06280231475830078, -0.031261421740055084, 0.024626707658171654, -0.3640420436859131, -0.17663231492042542, 0.002212368883192539, -0.2026473879814148, -0.10553146153688431, -0.12109635770320892, 0.08908090740442276, -0.12945713102817535, 0.1496870517730713, 0.1145382821559906, 0.03486322611570358, -0.013638855889439583, 0.08513067662715912, -0.02835891768336296, 0.27763909101486206, 0.1586085557937622, 0.03925107792019844, -0.32029733061790466, -0.2925630807876587, -0.17619282007217407, 0.1385134607553482, -0.1740887612104416, 0.2931830585002899, -0.24595139920711517, -0.15922576189041138, 0.11710058152675629, 0.26627683639526367, -0.017300067469477654, 0.09130747616291046, -0.29585006833076477, 0.05426488816738129, -0.15917213261127472, -0.13109688460826874, 0.17644211649894714, -0.05631869286298752, -0.1855679303407669, 0.03901359438896179, 0.05297640711069107, 0.12295369058847427, 0.004316148813813925, -0.24314957857131958, -0.11911562830209732, -0.20065179467201233, 0.0389903225004673, 0.017762716859579086, 0.27382829785346985, 0.009336072020232677, 0.010489797219634056, -0.169933021068573, -0.27841663360595703, 0.09562309086322784, -0.15256543457508087, 0.1652519553899765, -0.22667613625526428, -0.21132208406925201, 0.07066498696804047, -0.0587955079972744, -0.05809628590941429, -0.087499238550663, 0.000279902305919677, 0.24116250872612, 0.2643614411354065, 0.17988501489162445, -0.3044734001159668, 0.05619112029671669, 0.1742846965789795, -0.03955722972750664, 0.18349440395832062, 0.06708688288927078, 0.005013628862798214, -0.14691655337810516, 0.19140736758708954, -0.24914780259132385, -0.021054960787296295, 0.06539920717477798, 0.1349375993013382, 0.23366355895996094, -0.17772845923900604, 0.19194482266902924, -0.05255763605237007, 0.13061057031154633, -0.18950796127319336, -0.11078405380249023, -0.23280808329582214, 0.24723953008651733, 0.26606106758117676, -0.0020372781436890364, 0.26540639996528625, -0.24421672523021698, -0.07625720649957657, -0.06398159265518188, 0.16326868534088135, -0.028001204133033752, 0.265154093503952, 0.2977913022041321, 0.10479965806007385, -0.1315808892250061, 0.03720789775252342, 0.14107784628868103, -0.16554392874240875, 0.22974787652492523, 0.17715369164943695, -0.08858048170804977, 0.11197451502084732, -0.14317363500595093, 0.16570617258548737, 0.016668494790792465, 0.1277965009212494, 0.07195747643709183, 0.07721832394599915, -0.17611488699913025, 0.07927089184522629, 0.2911064922809601, 0.06314456462860107, 0.06051742285490036, -0.17059077322483063, -0.1347341388463974, 0.24813015758991241, -0.3138948082923889, -0.106728196144104, 0.07526589930057526, 0.12065137922763824, -0.12016093730926514, 0.17142698168754578, -0.0883425921201706, -0.0884033739566803, -0.25709569454193115, -0.2324058562517166, 0.16536708176136017, 0.07347283512353897, 0.18713103234767914, 0.2772626578807831, 0.27820003032684326, -0.1700567603111267, 0.09000013023614883, 0.14200125634670258, -0.07242336124181747, -0.3017861545085907, 0.14871636033058167, 0.08725576847791672, -0.20946483314037323, -0.021989179775118828, 0.06850015372037888, 0.15621128678321838, 0.22028464078903198, 0.0798693522810936, 0.22542013227939606, 0.24638918042182922, 0.18580187857151031, -0.0021221747156232595, -0.09459678828716278, -0.2297528088092804, -0.2171231061220169, 0.1474064439535141, -0.018305201083421707, 0.006762991193681955, 0.11808862537145615, 0.21136631071567535, 0.17468786239624023, -0.26624488830566406, 0.048359017819166183, -0.084572933614254, 0.0004190380859654397, -0.1318187713623047, -0.015537680126726627, 0.1902061253786087, 0.08753782510757446, -0.07515849173069, -0.10636910796165466, -0.1486162692308426, -0.12349756062030792, 0.05175161361694336, 0.22799989581108093, 0.21244153380393982, -0.27588146924972534, 0.2883061170578003, -0.009698609821498394, -0.0730491429567337, -0.2851443290710449, 0.01021245215088129, 0.03431474044919014, 0.08437564969062805, -0.21183808147907257, 0.11104125529527664, 0.2410639226436615, 0.2472172975540161, 0.2706970274448395, -0.0976480171084404, -0.23564572632312775, -0.10248793661594391, 0.07105469703674316, -0.1977129727602005, -0.22372610867023468, -0.1128026619553566, 0.08644569665193558, 0.010659575462341309, -0.17213670909404755, -0.18822121620178223, 0.2526281476020813, 0.027354907244443893, -0.22142983973026276, -0.018527433276176453, -0.14868684113025665, 0.18739399313926697, 0.1682349294424057, 0.1495906412601471, -0.25133049488067627, -0.029349414631724358, 0.19379445910453796, 0.19094309210777283, -0.2070998102426529, -0.007443939335644245, 0.05819020792841911, 0.1576555371284485, -0.12736929953098297, 0.30356109142303467, -0.05836576223373413, -0.2507035434246063, 0.1286332756280899, 0.06864602118730545, 0.22176380455493927, 0.0766078308224678, -0.17955231666564941, -0.17902569472789764, 0.005323436111211777, -0.042979646474123, 0.14966636896133423, -0.07171650975942612, 0.06422784179449081, -0.262975811958313, 0.18257904052734375, -0.1291647106409073, -0.22115372121334076, 0.17552565038204193, -0.0028873065020889044, 0.024202119559049606, -0.042514365166425705, -0.22217309474945068, 0.1985347419977188, -0.2930218577384949, 0.06815670430660248, 0.2465866208076477, 0.1847866028547287, 0.010644015856087208, -0.15825636684894562, -0.06239800527691841, 0.1799040287733078, -0.02326839603483677, -0.24783451855182648, -0.1552378237247467, -0.08924386650323868, 0.2191968709230423, -0.19594137370586395, 0.009842876344919205, -0.03594828024506569, -0.1624678522348404, -0.14105632901191711, -0.016379615291953087, -0.22014521062374115, 0.20385603606700897, -0.02824566885828972, -0.2297590970993042, 0.11701620370149612, -0.05098116770386696, -0.2132098525762558, -0.11886606365442276, 0.23410581052303314, 0.20096629858016968, -0.1662740260362625, 0.21104827523231506, 0.12379535287618637, 0.18940716981887817, -0.1431952714920044, 0.24057473242282867, -0.18269018828868866, -0.23825111985206604, 0.06319685280323029, 0.2036019265651703, -0.11589465290307999, -0.2567811906337738, -0.2197226732969284, -0.2015063613653183, -0.12237955629825592, 0.16897377371788025, 0.17501479387283325, -0.09673511981964111, 0.08167891949415207, 0.28671759366989136, -0.17004843056201935, -0.1668958216905594, 0.2826220393180847, -0.07151619344949722, -0.0327720046043396, -0.031273581087589264, 0.10478801280260086, 0.2591731548309326, 0.16008588671684265, -0.04255739599466324, -0.10387897491455078, -0.25839582085609436, 0.2616328299045563, 0.18032653629779816, -0.2676195204257965, -0.03863638639450073, -0.18745212256908417, 0.042762186378240585, -0.09261683374643326, -0.1482328325510025, -0.12095928937196732, -0.12825873494148254, -0.16027115285396576, 0.20024694502353668, -0.2930811941623688, -0.06442335993051529, 0.19245238602161407, 0.11065510660409927, 0.12837371230125427, 0.16390565037727356, -0.08003226667642593, -0.23793140053749084, 0.08006025850772858, -0.2592430114746094, 0.20991525053977966, -0.1860133707523346, 0.19798921048641205, -0.15869328379631042, 0.1637609452009201, 0.017639193683862686, -0.15560638904571533, 0.27030301094055176, 0.08084828406572342, 0.13515375554561615, 0.03789414465427399, -0.14366912841796875, 0.0444520004093647, -0.16906094551086426, -0.18257321417331696, 0.2151215523481369, -0.01971185766160488, -0.07096689194440842, 0.04676520824432373, 0.11785447597503662, 0.06584534794092178, 0.06903014332056046, 0.030728986486792564, 0.24809375405311584, -0.05431115999817848, -0.025799743831157684, -0.16350817680358887, -0.2500607669353485, 0.21049126982688904, 0.14611686766147614, -0.1686640828847885, 0.08354818820953369, -0.2641836404800415, 0.22452400624752045, -0.007737203501164913, -0.21538110077381134, 0.1359180510044098, -0.2550426125526428, -0.32482486963272095, 0.013365473598241806, 0.20860108733177185, 0.11699250340461731, -0.14643989503383636, -0.2358839511871338, -0.06527852267026901, -0.2100771814584732, 0.25393611192703247, -0.2528369724750519, -0.266593337059021, 0.178242027759552, 0.217024028301239, -0.23788294196128845, 0.1606900990009308, 0.3184627294540405, -0.21553444862365723, -0.12284847348928452, -0.14801093935966492, 0.0746273472905159, 0.10439283400774002, -0.2543978989124298, -0.025436729192733765, -0.09784682095050812, -0.017966942861676216, 0.08454401791095734, -0.1722753345966339, 0.235520601272583, 0.016090337187051773, 0.07620315253734589, -0.0012511517852544785, -0.11000576615333557, -0.2146366685628891, 0.15550269186496735, 0.08222442120313644, -0.12788988649845123, 0.2666201889514923, 0.0742582380771637, 0.12620069086551666, 0.04536675289273262, 0.1780930757522583, -0.2019525021314621, -0.19449329376220703, 0.16419802606105804, 0.08424756675958633, -0.04726370424032211, 0.25974416732788086, -0.22685706615447998, 0.26125016808509827, 0.10195589810609818, -0.2452978789806366, -0.06129603460431099, 0.15412423014640808, -0.25732454657554626, -0.1513529270887375, -0.004108367953449488, -0.13328756392002106, 0.02203192003071308, 0.31092342734336853, 0.05091918632388115, -0.23617787659168243, -0.005369093734771013, 0.3226303160190582, -0.2191804200410843, 0.0798647329211235, -0.15894463658332825, -0.1207052618265152, 0.0007492250297218561, -0.016336839646100998, 0.2862493097782135, -0.12008558213710785, 0.05485818162560463, 0.041808903217315674, 0.11399475485086441, -0.21349860727787018, 0.3162338435649872, 0.14229121804237366, 0.11232755333185196, -0.17509521543979645, -0.10220259428024292, 0.28177693486213684, -0.21491333842277527, -0.026098405942320824, 0.2072964608669281, 0.20802411437034607, -0.08068175613880157, 0.14710433781147003, 0.19749996066093445, 0.023823296651244164, 0.17542003095149994, 0.29284045100212097, 0.2654832601547241, 0.1175316721200943, 0.10159198939800262, 0.22957584261894226, 0.08260626345872879, 0.0753861591219902, -0.28846538066864014, 0.13213993608951569, -0.07740548253059387, 0.20229561626911163, 0.20599286258220673, 0.2923523783683777, -0.044990070164203644, -0.28343114256858826, -0.045436300337314606, -0.24944892525672913, -0.011901515536010265, -0.21759949624538422, 0.01301710307598114, 0.036213524639606476, -0.028435230255126953, -0.20718583464622498, 0.08195988833904266, 0.3219623863697052, 0.1491474062204361, 0.3275318443775177, -0.0249647069722414, -0.06063062697649002, 0.24251462519168854, -0.10538149625062943, -0.23542040586471558, 0.190623939037323, -0.06958525627851486, -0.026329053565859795, -0.052776310592889786, 0.1726570725440979, 0.313215970993042, -0.2572227120399475, 0.0005256328731775284, 0.17819027602672577, -0.26983025670051575, -0.012487059459090233, 0.032672252506017685, 0.19875478744506836, -0.06942036002874374, -0.141412153840065, 0.07238167524337769, -0.19732101261615753, -0.028807099908590317, 0.03104822337627411, 0.30536842346191406, -0.18039901554584503, -0.12119188904762268, -0.02566426247358322, -0.16927778720855713, 0.05763326957821846, 0.2718048095703125, -0.00025918157189153135, 0.29624617099761963, 0.2541733384132385, 0.2259378731250763, -0.1522732824087143, 0.022127272561192513, 0.044056881219148636, -0.05513371527194977, 0.3121090829372406, 0.16139952838420868, -0.20567470788955688, -0.34090831875801086, 0.09209634363651276, 0.293910950422287, 0.11868233978748322, 0.02181919850409031, 0.19251994788646698, 0.2420785278081894, 0.009379856288433075, 0.20109699666500092, 0.220114603638649, -0.18954692780971527, -0.11201521009206772, 0.08717678487300873, 0.13887032866477966, -0.057101063430309296, -0.13054946064949036, 0.20498687028884888, 0.047328997403383255, -0.12597203254699707, 0.12044870853424072, 0.27405133843421936, -0.13841815292835236, -0.19531024992465973, -0.19028499722480774, 0.14639410376548767, 0.1985270231962204, -0.2646621763706207, -0.14827609062194824, 0.27005475759506226, -0.08339346200227737, 0.17856375873088837, -0.01861167885363102, -0.07802357524633408, 0.11834153532981873, 0.26352834701538086, -0.10311640799045563, 0.12717783451080322, -0.12182855606079102, 0.14311842620372772, 0.2560858130455017, -0.026578707620501518, -0.08290714770555496, -0.021044358611106873, 0.05992503464221954, 0.05997416749596596, -0.18029479682445526, -0.12740115821361542, 0.19912362098693848, 0.13486811518669128, 0.16504047811031342, 0.09849560260772705, -0.11016903072595596, -0.05377699062228203, 0.053115006536245346, -0.2995748221874237, -0.11107900738716125, 0.10113019496202469, -0.18124426901340485, 0.08153809607028961, 0.2095469832420349, -0.21694861352443695, -0.2545505166053772, -0.2541749179363251, -0.258734792470932, 0.12599651515483856, -0.16523100435733795, -0.2798445224761963, -0.004291097167879343, 0.06296601891517639, 0.13765516877174377, 0.17609532177448273, 0.21088871359825134, -0.12247750163078308, 0.11771751940250397, -0.11435173451900482, -0.18435214459896088, -0.05954848229885101, 0.06415728479623795, -0.19249200820922852, 0.013999739661812782, -0.2893863022327423, 0.18945303559303284, 0.2490473836660385, -0.24432995915412903, -0.17648155987262726, 0.0975566953420639, 0.08135224133729935, 0.01579173468053341, 0.3316984176635742, -0.039598435163497925, 0.05329753831028938, -0.20837095379829407, -0.32429030537605286, 0.047143127769231796, 0.2142091691493988, 0.08976984024047852, 0.09759233146905899, 0.15453864634037018, 0.0753055065870285, -0.23212100565433502, -0.09651317447423935, 0.2461743950843811, -0.28357139229774475, -0.0924314334988594, -0.2280513048171997, -0.05484749749302864, -0.06102563813328743, 0.1645422875881195, 0.04580041393637657, 0.03893647342920303, 0.005475259386003017, -0.19313101470470428, -0.2124762237071991, 0.21247908473014832, -0.08909755945205688, -0.018029244616627693, -0.11342721432447433, -0.10676290839910507, -0.18395772576332092, 0.23170171678066254, 0.07072161138057709, 0.16140110790729523, 0.291885644197464, -0.035179752856492996, -0.021121889352798462, 0.07895561307668686, -0.004898298531770706, -0.16750435531139374, 0.30999836325645447], "roundsDim": 6, "bnGamma": [1.0019922256469727, 0.8802564740180969, 0.8868409395217896, 0.9769756197929382, 0.9845741987228394, 0.9504725337028503, 1.0137364864349365, 0.96076500415802, 0.9082939624786377, 0.9504852294921875, 1.029747724533081, 0.9729315042495728, 0.9498651623725891, 1.0230004787445068, 0.9730008244514465, 1.0107879638671875, 0.9455299973487854, 1.0622862577438354, 1.0317007303237915, 0.9667898416519165, 0.9752669930458069, 1.006861925125122, 0.9552310705184937, 1.0420160293579102], "channelsDim": 24, "bnVariance": [3.621840238571167, 0.5701637268066406, 0.79021155834198, 1.0255842208862305, 0.7604328393936157, 1.051322102546692, 1.119622826576233, 0.822859525680542, 0.8159803748130798, 1.5515204668045044, 3.5873000621795654, 2.6707448959350586, 1.7340240478515625, 3.792020797729492, 2.4248225688934326, 1.2509568929672241, 1.4460338354110718, 0.7469277381896973, 1.1471586227416992, 1.2542080879211426, 3.211080312728882, 0.9079268574714661, 0.7456285953521729, 0.6923487186431885], "kernelTypesDim": 1, "className": "ception", "convBias": [0.0009488114737905562, 0.0025565309915691614, -0.0010481923818588257, 0.0018289561849087477, -9.398886322742328e-05, -0.002756782341748476, -0.0010216670343652368, -0.0019174155313521624, 0.002604028442874551, -0.0017518490785732865, 0.0001327293721260503, -0.002613348187878728, -0.003973009996116161, 0.0010592802427709103, -0.0012522723991423845, 0.0010036189341917634, -0.0009153314749710262, -0.0010977276833727956, 0.0004657316312659532, -0.0007836408331058919, 0.001403575879521668, -0.003938517067581415, 0.00021039744024164975, 0.00046865863259881735], "typesDim": 3}, {"convKernelA": [0.035383254289627075, -0.22908371686935425, -0.10477189719676971, -0.2076455056667328, -0.06698295474052429, -0.1546511948108673, -0.07522843778133392, -0.18386682868003845, -0.008611259050667286, 0.1307721585035324, -0.19975481927394867, 0.09718947112560272, 0.1380506455898285, -0.2518727481365204, 0.06232582777738571, 0.06532996892929077, -0.09861023724079132, 0.009024693630635738, -0.19906340539455414, -0.1842401921749115, -0.21187114715576172, 0.17479228973388672, -0.1626914143562317, -0.05945909395813942, -0.09747117012739182, -0.05162966623902321, -0.16804416477680206, 0.087526835501194, -0.02279753051698208, 0.0451708622276783, -0.15483418107032776, -0.034885067492723465, 0.21886906027793884, 0.047880496829748154, 0.24955978989601135, 0.05512619391083717, -0.05795534327626228, -0.09717845916748047, 0.273732453584671, 0.058285314589738846, -0.20116740465164185, 0.03572315722703934, 0.1622527688741684, 0.049679938703775406, -0.2197706252336502, 0.11391700059175491, -0.06928625702857971, -0.04725932702422142, 0.12286730110645294, 0.10888166725635529, -0.17753902077674866, 0.058651313185691833, -0.04043092206120491, 0.14993208646774292, -0.002822279231622815, 0.25483083724975586, 0.0815122202038765, -0.1336221545934677, 0.11585958302021027, 0.17289376258850098, 0.19510719180107117, -0.019334876909852028, -0.06427503377199173, 0.1562376320362091, -0.1801457405090332, -0.17014335095882416, -0.036656226962804794, -0.09942556172609329, 0.145236074924469, 0.21115003526210785, 0.15904845297336578, 0.10267673432826996, 0.21877357363700867, -0.10335143655538559, 0.2634086012840271, -0.0909038782119751, -0.12041838467121124, -0.0073574683628976345, -0.13139688968658447, 0.07111839950084686, -0.1402098685503006, 0.02621406875550747, 0.0906648337841034, 0.11975589394569397, -0.012324118055403233, 0.24070440232753754, -0.14131522178649902, 0.08903148025274277, -0.09636334329843521, -0.10725115984678268, -0.2171080857515335, -0.03245433419942856, -0.04178642854094505, 0.04931086301803589, -0.059762123972177505, -0.14125125110149384, 0.1063775047659874, -0.0031666485592722893, 0.16059179604053497, -0.1781432181596756, 0.1365007609128952, 0.05111998692154884, -0.2081167846918106, -0.14582255482673645, 0.009714246727526188, -0.1636885106563568, -0.12509804964065552, -0.03117239661514759, 0.09275168180465698, 0.04740218073129654, 0.17957152426242828, -0.12360215932130814, 0.060982201248407364, -0.03579074516892433, 0.06271257251501083, -0.05907423794269562, 0.03494931384921074, -0.05133594200015068, -0.176406130194664, -0.20112155377864838, -0.1512528955936432, -0.20638355612754822, -0.1035120040178299, -0.14548073709011078, 0.18135902285575867, -0.06314724683761597, 0.04121145233511925, 0.17963077127933502, -0.0430913008749485, 0.03161783516407013, -0.22810469567775726, 0.018032854422926903, 0.06750436127185822, 0.20231971144676208, 0.19642367959022522, 0.10956036299467087, 0.018222589045763016, -0.17103737592697144, -0.13124842941761017, -0.1763283759355545, -0.10514816641807556, -0.05915279686450958, -0.2068997323513031, -0.155048206448555, -0.09519591182470322, 0.13161885738372803, 0.09057091921567917, 0.10705755650997162, -0.17758971452713013, 0.0773719847202301, 0.13848480582237244, 0.20118921995162964, -0.16383475065231323, -0.12101234495639801, 0.1349388211965561, 0.023398282006382942, -0.02951328083872795, 0.09643668681383133, -0.212506964802742, -0.004571225494146347, 0.027935221791267395, 0.25741416215896606, 0.04229835793375969, 0.22679340839385986, 0.15485356748104095, 0.15973003208637238, -0.22123605012893677, 0.12529818713665009, 0.16555827856063843, 0.21317507326602936, 0.18552759289741516, 0.09189272671937943, -0.06386541575193405, 0.13463322818279266, 0.08315145969390869, 0.014750069938600063, 0.02959417551755905, -0.000644295010715723, -0.2004348486661911, 0.17598149180412292, 0.12960776686668396, -0.039069559425115585, 0.003542812541127205, 0.05554436519742012, 0.1359410434961319, 0.1763964295387268, -0.055447567254304886, -0.16706401109695435, -0.23410192131996155, 0.20582567155361176, -0.13866978883743286, -0.16376008093357086, 0.0417909137904644, 0.1295747309923172, 0.059588827192783356, 0.011376935057342052, 0.25237488746643066, -0.006851274520158768, 0.06661190092563629, 0.03370828181505203, -0.08552916347980499, 0.1376817375421524, 0.1322392225265503, 0.1930556744337082, 0.19245125353336334, 0.1558733582496643, 0.0452522449195385, 0.16416847705841064, -0.22063888609409332, -0.16341638565063477, -0.025495320558547974, -0.07800008356571198, -0.1789092719554901, 0.20244550704956055, -0.13009761273860931, -0.09909993410110474, 0.034306466579437256, -0.1483231782913208, 0.13135243952274323, 0.08421091735363007, -0.16150933504104614, -0.12890656292438507, -0.14467495679855347, -0.012303738854825497, 0.10415899753570557, 0.028182994574308395, -0.07650654762983322, -0.14861680567264557, 0.02395433932542801, -0.02857329696416855, 0.008500554598867893, -0.046836718916893005, 0.015143875032663345, 0.0864618569612503, 0.2235245257616043, -0.028734365478157997, 0.1741696000099182, -0.08864057064056396, -0.05696769431233406, -0.06870666891336441, 0.24639855325222015, 0.12922397255897522, 0.01774703711271286, -0.098879374563694, -0.03728047013282776, 0.13080039620399475, 0.03041255474090576, -0.004213322885334492, -0.1151740700006485, -0.2021508365869522, -0.02977595292031765, 0.25000879168510437, -0.013823864050209522, 0.09935686737298965, -0.10223866254091263, -0.1823943704366684, 0.05378977954387665, 0.16238000988960266, 0.10916219651699066, -0.06199602037668228, 0.16480635106563568, -0.11980243772268295, 0.14074407517910004, -0.11473497748374939, -0.1496262103319168, -0.13417483866214752, -0.04771603271365166, -0.1374952793121338, -0.01700693368911743, 0.03502948209643364, 0.05395035445690155, -0.0019351415103301406, 0.042718272656202316, -0.05961235985159874, -0.11931775510311127, -0.03610370308160782, -0.18739916384220123, 0.22312384843826294, -0.11846796423196793, 0.036913443356752396, -0.1561838537454605, 0.21365691721439362, -0.17098045349121094, 0.12809646129608154, -0.027332725003361702, 0.08685547113418579, 0.08781731128692627, -0.16460669040679932, 0.034709129482507706, -0.06624025106430054, -0.16752079129219055, -0.016830798238515854, -0.09903426468372345, -0.038353484123945236, -0.14551295340061188, -0.18874597549438477, 0.11693990975618362, 0.18303298950195312, 0.11026565730571747, 0.04954063519835472, 0.2239096313714981, 0.10278414934873581, 0.19766105711460114, -0.17525255680084229, 0.21993029117584229, 0.07046213746070862, 0.07508429139852524, -0.004866746719926596, 0.1475754827260971, 0.20601585507392883, -0.10499358177185059, 0.028148600831627846, 0.006806535180658102, 0.17068377137184143, -0.05539856478571892, 0.08063963055610657, -0.10310496389865875, -0.0032291249372065067, 0.18065734207630157, 0.0681004747748375, -0.19740472733974457, -0.1783638596534729, -0.1302669644355774, 0.002656727097928524, 0.02345820888876915, -0.0963880866765976, 0.013502731919288635, -0.024318428710103035, -0.20201939344406128, -0.08072097599506378, -0.023454958572983742, -0.09464053809642792, -0.11847804486751556, -0.0392528772354126, -0.015171580947935581, -0.08275678008794785, 0.12823285162448883, -0.20715633034706116, 0.12586930394172668, 0.17951852083206177, 0.13266156613826752, -0.1416805237531662, -0.017897801473736763, 0.21305525302886963, 0.14831526577472687, -0.018656831234693527, 0.08446799963712692, 0.23980502784252167, -0.0678974986076355, 0.11430441588163376, 0.11446989327669144, -0.07706759870052338, -0.08369376510381699, -0.07499055564403534, 0.206308513879776, 0.07018488645553589, 0.09180904179811478, -0.041905079036951065, -0.1141393706202507, 0.10613574087619781, 0.10393361747264862, 0.07035011798143387, -0.04541877284646034, -0.1466526836156845, -0.1850745975971222, 0.2039097398519516, -0.11544773727655411, 0.002730865264311433, 0.11696922034025192, -0.3296792507171631, 0.16724368929862976, 0.22662194073200226, 0.10823217034339905, 0.07437463104724884, 0.05062538757920265, -0.1890878826379776, -0.19927433133125305, 0.20930346846580505, -0.04589242488145828, 0.14947783946990967, 0.1612609177827835, -0.1809835582971573, -0.09205195307731628, 0.040673475712537766, -0.06578992307186127, 0.06913547962903976, -0.17475250363349915, -0.003332719672471285, 0.02138287015259266, 0.19472098350524902, -0.14373493194580078, -0.002117524389177561, 0.0021352916955947876, -0.20770461857318878, -0.12442264705896378, -0.10435450077056885, 0.06695330142974854, -0.20469948649406433, -0.07727807760238647, 0.0821237787604332, -0.051890432834625244, -0.034955207258462906, -0.07095687091350555, -0.0708862915635109, -0.08695994317531586, 0.18873582780361176, 0.053936854004859924, -0.08753100782632828, -0.04890459403395653, 0.10886681079864502, -0.14590638875961304, -0.02950555644929409, 0.00911654718220234, -0.04806148633360863, 0.14518384635448456, -0.13768255710601807, 0.06335817277431488, 0.10098757594823837, -0.1372276246547699, 0.017486516386270523, 0.0381460040807724, 0.15511967241764069, 0.2050381600856781, -0.0967661663889885, -0.250845730304718, 0.015575015917420387, -0.10942595452070236, 0.09824811667203903, 0.022339146584272385, -0.19659417867660522, 0.1282796859741211, -0.016038551926612854, -0.08082374185323715, 0.020263049751520157, 0.008633061312139034, -0.015093615278601646, 0.09219489246606827, 0.14273759722709656, -0.12812018394470215, 0.05408616364002228, 0.002969779074192047, -0.13254906237125397, -0.02541213668882847, 0.1363489329814911, -0.09329702705144882, -0.07372093200683594, -0.03029119223356247, 0.020968744531273842, 0.1156073585152626, -0.033915646374225616, -0.08619018644094467, 0.0022806269116699696, -0.02372014708817005, 0.016237221658229828, -0.026624804362654686, 0.2262977808713913, -0.011608152650296688, -0.06643253564834595, 0.28502795100212097, 0.11825394630432129, 0.014901264570653439, 0.011597298085689545, -0.14686189591884613, 0.23688937723636627, -0.13615144789218903, 0.01616094820201397, 0.11752400547266006, -0.04822028800845146, -0.20374388992786407, 0.03132329508662224, 0.07726478576660156, 0.19879353046417236, 0.13922010362148285, -0.08446009457111359, -0.09105727821588516, -0.15743081271648407, -0.0754343718290329, 0.08475574851036072, 0.0438540019094944, 0.08529157191514969, -0.11312814801931381, -0.011979779228568077, 0.15414990484714508, -0.017359958961606026, -0.19543328881263733, -0.13805076479911804, 0.13109850883483887, -0.0500093512237072, 0.03966183960437775, -0.23365658521652222, 0.012657341547310352, -0.23702412843704224, -0.0034420632291585207, 0.19002243876457214, -0.04597066342830658, 0.12352179735898972, -0.005893602501600981, -0.1278407722711563, 0.030237648636102676, 0.1515686959028244, -0.10236011445522308, -0.04877404868602753, 0.010047649033367634, 0.15185612440109253, 0.1387799233198166, -0.22922877967357635, 0.147027388215065, -0.05313325300812721, 0.03714507818222046, -0.2598746418952942, -0.18920621275901794, -0.047839194536209106, -0.20047268271446228, 0.25435370206832886, 0.18359728157520294, -0.07769685238599777, -0.005630806554108858, 0.25277194380760193, -0.0726371482014656, 0.023557156324386597, 0.1526459902524948, -0.01378495804965496, -0.08185132592916489, -0.04051760956645012, 0.0657179057598114, 0.1016308069229126, -0.2725171148777008, 0.0451621375977993, -0.15904183685779572, 0.025627147406339645, -0.051737673580646515, 0.04569890350103378, -0.026987159624695778, 0.08747174590826035, -0.1221068874001503, 0.10257455706596375, -0.056315772235393524, -0.11673281341791153, 0.1700541079044342, 0.012769726105034351, -0.22641947865486145, 0.06563692539930344, -0.13909997045993805, -0.050100017338991165, 0.13594256341457367, -0.06259318441152573, 0.10112520307302475, 0.10762334614992142, 0.16757632791996002, 0.14164376258850098, 0.13782139122486115, 0.01859983801841736, -0.021353797987103462, 0.09657380729913712, -0.06653396040201187, -0.1911289542913437, 0.1342906802892685, -0.15937219560146332, -0.04195527359843254, 0.04683476313948631, -0.11233540624380112, 0.21663813292980194, -0.16176293790340424, 0.016546396538615227, -0.11167925596237183, -0.07605965435504913, 0.13631339371204376, 0.1520543396472931, 0.08829782903194427, -0.18132472038269043, -0.09087793529033661, 0.16010406613349915, -0.032132942229509354, -0.19578267633914948, -0.015145931392908096, -0.1473020613193512, 0.20985399186611176, -0.05545724555850029, -0.11013378202915192, -0.13255631923675537, -0.11894404143095016, 0.051428887993097305, -0.1681177318096161, -0.15515178442001343, 0.13060662150382996, 0.2583339214324951, -0.03832286596298218, -0.04641002416610718, 0.23819337785243988, -0.11854919791221619, 0.24966897070407867, 0.23222549259662628, -0.16725710034370422, 0.01939549297094345, -0.08247427642345428, 0.06024559959769249, 0.020252760499715805, 0.11466950923204422, -0.023171158507466316, 0.10480533540248871, -0.0806344598531723, 0.023107320070266724, -0.11435501277446747, 0.12405884265899658, 0.13993854820728302, 0.057382818311452866, 0.2272673100233078, 0.1992640644311905, 0.17799559235572815, 0.03975803032517433, 0.20943598449230194, 0.22429734468460083, 0.015612054616212845, 0.12764966487884521, 0.12625399231910706, 0.10454655438661575, 0.21764779090881348, 0.1833343207836151, -0.11092183738946915, -0.13002631068229675, 0.1789594143629074, 0.21939003467559814, 0.036787811666727066, -0.156832754611969, 0.1882319301366806, 0.0370657816529274, -0.116256482899189, -0.22521859407424927, -0.2405199408531189, -0.005424898117780685, 0.15482290089130402, -0.11096155643463135, 0.0663602352142334, 0.12431243062019348, -0.1762627363204956, -0.08636954426765442, -0.030603742226958275, -0.20414294302463531, -0.11024496704339981, 0.03363268822431564, -0.19192591309547424, -0.20987990498542786, 0.10066109150648117, -0.013168076984584332, -0.1995675414800644, -0.09448693692684174, -0.026245802640914917, 0.0806845873594284, -0.0654209554195404, 0.16529148817062378, 0.018197976052761078, -0.12095992267131805, 0.1175549328327179, -0.2284136861562729, -0.1891060471534729, 0.08682680875062943, -0.06054624915122986, -0.21910816431045532, 0.21354147791862488, -0.1710842251777649, -0.19160892069339752, -0.12678168714046478, 0.13323819637298584, 0.18301339447498322, -0.13771481812000275, -0.1488928198814392, -0.06780004501342773, 0.2390947937965393, 0.16381290555000305, -0.006600603461265564, -0.12373645603656769, -0.09122052043676376, 0.1289096623659134, 0.00947911012917757, -0.11359237134456635, 0.04871981963515282, -0.07610128074884415, -0.05157604068517685, 0.05471991002559662, 0.05804765224456787, 0.1513400375843048, 0.18007886409759521, -0.15635445713996887, 0.241883784532547, 0.18739664554595947, -0.07890276610851288, 0.018088119104504585, -0.15935003757476807, -0.1161738708615303, -0.12148860096931458, -0.14849340915679932, 0.2421850711107254, 0.014017898589372635, 0.1444510668516159, 0.11545542627573013, -0.04011562839150429, -0.10634448379278183, 0.08180896937847137, 0.1526680290699005, 0.041621942073106766, 0.005615441594272852, -0.06392289698123932, -0.07836035639047623, 0.0914248377084732, 0.12463048100471497, 0.13434195518493652, -0.08048274368047714, -0.03082135133445263, -0.0024713738821446896, -0.20501993596553802, 0.1638631969690323, -0.13636897504329681, 0.20828235149383545, 0.09013976901769638, -0.14589668810367584, 0.18967720866203308, -0.10713879764080048, 0.17806285619735718, 0.2917851507663727, -0.06812150776386261, 0.12200073152780533, 0.010886761359870434, -0.041730936616659164, 0.21997793018817902, -0.08854494988918304, -0.0029234399553388357, 0.021664762869477272, -0.07914285361766815, 0.008907515555620193, -0.08746223896741867, 0.004893090575933456, 0.07071380317211151, 0.13814511895179749, -0.08493007719516754, 0.0004988983273506165, -0.03925127163529396, -0.029061056673526764, 0.05138757452368736, 0.05885157734155655, 0.06586108356714249, -0.0032835938036441803, 0.21511317789554596, 0.13908110558986664, -0.09783470630645752, 0.15170463919639587, -0.07862971723079681, 0.2506340742111206, -0.10425844043493271, 0.14884422719478607, 0.13988161087036133, 0.15359607338905334, 0.10595705360174179, -0.13118675351142883, -0.22702190279960632, 0.08583337813615799, -0.09049082547426224, -0.0612851157784462, 0.1697838455438614, -0.14269110560417175, 0.14650018513202667, 0.1612192988395691, -0.14993613958358765, -0.16019774973392487, 0.1628790944814682, 0.09483519941568375, 0.05695715174078941, 0.18548628687858582, -0.0035100372042506933, 0.07493095844984055, -0.090396448969841, -0.20955520868301392, -0.21597757935523987, 0.1299687772989273, -0.0058109271340072155, -0.08382823318243027, -0.04235463961958885, 0.2152678221464157, 0.05958842858672142, -0.06453771889209747, -0.15879572927951813, 0.13187329471111298, 0.1932830959558487, 0.002478115726262331, 0.003833775408565998, 0.15925808250904083, 0.06123463809490204, -0.2188153862953186, 0.16420626640319824, 0.10482404381036758, 0.006921293213963509, -0.13999810814857483, -0.08892105519771576, -0.008756141178309917, 0.04589095711708069, -0.24309881031513214, 0.23112785816192627, 0.08206380158662796, 0.15775972604751587, -0.1146785095334053, 0.09510071575641632, 0.02282591722905636, -0.07079041004180908, 0.2648063600063324, -0.0659291222691536, 0.029522735625505447, 0.049137189984321594, 0.08106845617294312, -0.13846978545188904, -0.08550763875246048, -0.0012067456264048815, 0.12669913470745087, -0.11571940779685974, -0.22417296469211578, -0.11982094496488571, -0.14853839576244354, 0.13543853163719177, 0.07317178696393967, -0.07937036454677582, 0.15458469092845917, -0.02826889231801033, -0.07483392208814621, 0.19088846445083618, -0.050944894552230835, 0.11789494752883911, 0.02337030880153179, -0.13545769453048706, 0.2017965167760849, 0.07201758772134781, 0.16285158693790436, -0.05707736685872078, 0.120418481528759, 0.21043457090854645, 0.1099701076745987, -0.08670509606599808, 0.05714457854628563, 0.14665216207504272, -0.02371007762849331, 0.14609700441360474, 0.03164317458868027, -0.08852759003639221, 0.20069614052772522, 0.18871083855628967, -0.12674538791179657, 0.1868295967578888, -0.11824284493923187, 0.03961295261979103, 0.0907985046505928, 0.11255188286304474, -0.03187338635325432, 0.1270643025636673, -0.13560494780540466, 0.1150585263967514, -0.17920202016830444, -0.11901266872882843, -0.13237270712852478, 0.14360153675079346, 0.2000173032283783, -0.23015333712100983, 0.08502435684204102, -0.019117215648293495, -0.11369507759809494, 0.026129627600312233, 0.11963316798210144, -0.09538622200489044, 0.12315909564495087, -0.13373826444149017, 0.05795544758439064, -0.02538260631263256, 0.14568118751049042, 0.07959868013858795, 0.05572327598929405, -0.12723246216773987, 0.08902206271886826, 0.0890028178691864, 0.17634132504463196, -0.10662698745727539, 0.19341278076171875, -0.03816550597548485, 0.05730852112174034, -0.16319043934345245, 0.08268345147371292, -0.12277217954397202, 0.08049080520868301, 0.09804102778434753, 0.008693721145391464, -0.1970154047012329, -0.004407938569784164, 0.08438140153884888, -0.06956371665000916, -0.18875011801719666, -0.12497261166572571, 0.061939943581819534, -0.10004643350839615, -0.16731208562850952, 0.18058538436889648, 0.02643788978457451, 0.1606045514345169, 0.13114668428897858, -0.022467542439699173, 0.027211127802729607, 0.15276898443698883, -0.07420476526021957, -0.06885487586259842, -0.004246060736477375, -0.20674708485603333, -0.2553706169128418, -0.19073154032230377, -0.1206442341208458, -0.06948525458574295, 0.11682596057653427, -0.17156071960926056, -0.2594773471355438, -0.06487410515546799, -0.18225610256195068, 0.06032181531190872, -0.1466863602399826, -0.0629885271191597, -0.13284710049629211, -0.2127274125814438, 0.18091396987438202, 0.14559558033943176, -0.12480306625366211, 0.052904896438121796, 0.11492998152971268, 0.003582704346626997, -0.05825387313961983, -0.09453883767127991, -0.08327119052410126, -0.022136835381388664, -0.036260366439819336, 0.138021782040596, 0.07727368175983429, -0.0018577787559479475, 0.1557309776544571, 0.1140834242105484, -0.11419059336185455, 0.029548052698373795, 0.052006229758262634, -0.0848090797662735, 0.15538887679576874, 0.10359100252389908, 0.13616067171096802, 0.1642475426197052, -0.02569509670138359, 0.05293382331728935, -0.08514610677957535, 0.0728132575750351, 0.1316356509923935, -0.06901981681585312, 0.16781282424926758, -0.10506106913089752, -0.06271517276763916, -0.17181046307086945, 0.20858943462371826, -0.20704138278961182, -0.09208424389362335, -0.11769206076860428, 0.224037766456604, -0.11973336338996887, -0.08416160941123962, -0.1043180376291275, -0.06475935131311417, 0.12149645388126373, -0.060491885989904404, 0.2143469601869583, 0.024001337587833405, -0.0970802828669548, -0.0016604636330157518, 0.13035067915916443, 0.11152555793523788, -0.10240372270345688, -0.17366108298301697, -0.03452013060450554, 0.19106325507164001, 0.2322891354560852, 0.010883623734116554, -0.06526032090187073, 0.16692103445529938, -0.16840402781963348, -0.07924692332744598, -0.04761859029531479, 0.1694883406162262, -0.23343737423419952, 0.11150895059108734, 0.1439078450202942, -0.1826717108488083, -0.09608490765094757, 0.21431943774223328, 0.23162145912647247, 0.05952955409884453, -0.03290185704827309, -0.038061145693063736, 0.1423170417547226, -0.01110063586384058, 0.2484973520040512, 0.09750287234783173, -0.10271085798740387, -0.0010886044474318624, 0.15354956686496735, 0.16080297529697418, 0.1892356276512146, -0.009702651761472225, 0.16322706639766693, -0.043873872607946396, 0.06398692727088928, 0.23477044701576233, -0.037235453724861145, -0.16033512353897095, -0.11909055709838867, 0.09512745589017868, 0.018910497426986694, 0.011435814201831818, -0.20868387818336487, 0.05981948971748352, -0.15186689794063568, -0.2121003121137619, -0.10443119704723358, 0.06375354528427124, -0.1925681233406067, 0.09774871170520782, -0.04040737822651863, 0.07068177312612534, 0.08109979331493378, -0.08612469583749771, -0.1727031171321869, -0.0004916029865853488, -0.14432118833065033, 0.047693610191345215, -0.06225142255425453, 0.07691126316785812, -0.1136021688580513, -0.12473694980144501, 0.000993894413113594, 0.02499806135892868, 0.19217558205127716, -0.060114696621894836, 0.10940895229578018, -0.18382790684700012, 0.1250331848859787, -0.15627163648605347, -0.03102836385369301, 0.05425512045621872, 0.025767195969820023, 0.0946400985121727, 0.07093515247106552, 0.14922365546226501, -0.10506380349397659, -0.183762326836586, -0.16985006630420685, -0.08269988745450974, -0.016763033345341682, 0.06418406218290329, 0.0917818546295166, -0.034546397626399994, 0.16197355091571808, -0.1088072881102562, 0.18938784301280975, -0.06212436035275459, -0.025680245831608772, 0.1174023374915123, -0.043661847710609436, -0.010980337858200073, 0.09298452734947205, 0.030898386612534523, -0.18690653145313263, 0.09076382964849472, -0.06136298179626465, -0.03217633441090584, 0.13459517061710358, 0.1351996660232544, 0.09471718221902847, -0.03937078267335892, 0.14746680855751038, -0.03872724622488022, 0.09649569541215897, 0.020406024530529976, 0.04220624268054962, 0.03426941856741905, 0.08094839006662369, 0.07158870249986649, -0.04651124030351639, 0.1484321653842926, -0.12078152596950531, 0.05335110053420067, -0.045036859810352325, 0.2521289587020874, -0.06899264454841614, 0.06649774312973022, 0.17583812773227692, 0.07012654840946198, 0.03609416261315346, -0.05021951347589493, 0.23493461310863495, 0.14644025266170502, 0.13496340811252594, 0.115084707736969, 0.07518185675144196, 0.046683669090270996, -0.012874851934611797, 0.15849819779396057, 0.18248170614242554, -0.08882097899913788, 0.029580144211649895, -0.003582388861104846, -0.026002461090683937, -0.06571326404809952, -0.09021127969026566, 0.0429731048643589, 0.1663593351840973, 0.15518967807292938, -0.05315447971224785, 0.08386716991662979, 0.1160096675157547, 0.14306409657001495, 0.18523161113262177, -0.05141272768378258, 0.23906107246875763, 0.134431853890419, -0.15153713524341583, -0.033601488918066025, -0.18914051353931427, 0.19632574915885925, -0.11984431743621826, -0.09200932085514069, -0.11957395076751709, -0.20461446046829224, 0.039560623466968536, -0.009730585850775242, 0.15153594315052032, 0.08422306925058365, 0.20302662253379822, -0.06431702524423599, -0.1685013622045517, -0.09620466828346252, -0.15871448814868927, -0.17529019713401794, -0.1424112170934677, -0.2702711820602417, 0.10658640414476395, -0.08319784700870514, -0.18107984960079193, -0.04336140677332878, -0.21136575937271118, -0.0013518336927518249, -0.13940668106079102, 0.20150288939476013, 0.14341884851455688, 0.15481968224048615, 0.08888706564903259, 0.029412418603897095, 0.11111022531986237, -0.025975506752729416], "bnVarianceA": [2.06266188621521, 1.9113476276397705, 1.6624590158462524, 1.7899671792984009, 1.3958814144134521, 2.134476900100708, 1.9712046384811401, 1.715796709060669, 1.4312498569488525, 1.4265764951705933, 3.268015146255493, 0.10367891937494278, 2.1172149181365967, 1.867853045463562, 1.6650745868682861, 0.45016729831695557], "bnVarianceB": [2.3596742153167725, 0.2438081055879593, 1.2137871980667114, 2.872753381729126, 0.6138126850128174, 4.2382941246032715, 0.5712406039237976, 1.5864332914352417, 1.0048773288726807, 2.7120089530944824, 2.749723434448242, 2.5241880416870117, 1.8472071886062622, 3.0844411849975586, 0.321052223443985, 3.2694835662841797], "bnGammaB": [0.9805792570114136, 1.1716251373291016, 0.9690114259719849, 0.9920151829719543, 1.0364906787872314, 0.9982343912124634, 1.0461640357971191, 1.0192121267318726, 1.032696008682251, 1.0092313289642334, 1.0186623334884644, 0.9664829969406128, 0.9594285488128662, 1.00825834274292, 0.9904743432998657, 0.9807153344154358], "masterInputChannelsDim": 14, "inputChannelsDim": 24, "roundsDim": 6, "bnMeanB": [-0.04743492603302002, -0.08403327316045761, 0.03285733237862587, -0.22078727185726166, -0.31612062454223633, -0.0027899378910660744, -0.10347543656826019, -0.1951228678226471, 0.16429179906845093, 0.1997631937265396, -0.23209793865680695, -0.3179683983325958, -0.415203720331192, -0.07864800095558167, -0.006345447152853012, -0.6563782095909119], "convKernelB": [0.06573677062988281, -0.03363412618637085, -0.060606829822063446, -0.014568215236067772, -0.016587942838668823, 0.08945442736148834, 0.053355585783720016, -0.11211729049682617, -0.1090366318821907, -0.04874279722571373, 0.04971760883927345, 0.0732586532831192, 0.03737054020166397, -0.06378886848688126, -0.08343623578548431, -0.09379597008228302, 0.017555024474859238, 0.01808980293571949, 0.08551539480686188, -0.0285619106143713, 0.019608287140727043, -0.015613551251590252, 0.04482167586684227, -0.0813271626830101, -0.03180708363652229, 0.0580904483795166, -0.05134592205286026, 0.09790115058422089, 0.07741683721542358, 0.048238541930913925, 0.01622779108583927, -0.040895115584135056, 0.023652363568544388, 0.11998359113931656, -0.03286813944578171, -0.050229039043188095, 0.04114043712615967, 0.009200505912303925, -0.08859118819236755, 0.02253718487918377, -0.009285124018788338, -0.06965372711420059, 0.08367959409952164, -0.03781385347247124, -0.09060834348201752, -0.09636401385068893, -0.05587856099009514, 0.05854720249772072, 0.05266997218132019, -0.08488689363002777, 0.016035355627536774, -0.018732847645878792, -0.047333281487226486, -0.012166881933808327, 0.04134448617696762, -0.0978582501411438, 0.08500087261199951, 0.0030306177213788033, 0.045711178332567215, 0.06240726634860039, 0.08150302618741989, -0.089742012321949, -0.05509514361619949, 0.00016510319255758077, 0.04028581082820892, 0.08704213052988052, 0.0771949514746666, 0.08914335072040558, -0.06709051132202148, 0.07343555986881256, 0.07149636000394821, 0.010115395300090313, 0.03273317217826843, 0.015728551894426346, 0.08802706003189087, 0.095645472407341, 0.0684216246008873, -0.0861828625202179, 0.0033082589507102966, 0.10804153233766556, 0.010616609826683998, -0.07190833985805511, 0.0904308333992958, -0.1183433085680008, -0.04262324422597885, -0.06658148765563965, 0.050923705101013184, 0.08805310726165771, -0.01547130849212408, -0.03874789923429489, 0.06090549752116203, 0.03436698392033577, 0.039096757769584656, -0.06980859488248825, 0.09409791231155396, -0.11821328103542328, 0.053460702300071716, -0.05596502497792244, 0.09238734841346741, 0.0017595903482288122, -0.07665633410215378, 0.026764214038848877, 0.12175135314464569, 0.09178158640861511, -0.04745440557599068, -0.059256069362163544, 0.03559274598956108, 0.10350727289915085, 0.021821890026330948, -0.04233000427484512, 0.026458537206053734, -0.00804173480719328, -0.1058192178606987, 0.038396503776311874, 0.06871705502271652, 0.04418553039431572, 0.06683453172445297, -0.00715136993676424, -0.06858224421739578, -0.000105681610875763, -0.033002592623233795, -0.12524312734603882, 0.028942473232746124, 0.08451160788536072, 0.04743349924683571, -0.009069064632058144, -0.022870643064379692, 0.03954434394836426, -0.038663335144519806, -0.02810443751513958, -0.03334667161107063, -0.061552125960588455, 0.013135789893567562, 0.037451136857271194, -0.08290745317935944, 0.012443856336176395, 0.05696837976574898, 0.04819857329130173, 0.06851568073034286, 0.015000666491687298, -0.030668599531054497, -0.09135261178016663, -0.0033381094690412283, -0.06150908023118973, 0.10175035893917084, -0.10213205218315125, -0.13417111337184906, 0.05962641164660454, -0.0816652774810791, 0.09245932847261429, 0.0941084697842598, -0.07692888379096985, -0.08563178777694702, -0.020364372059702873, -0.10246192663908005, -5.976649117656052e-05, 0.09364834427833557, 0.034020423889160156, 0.0330679789185524, -0.02449292130768299, -0.006072079762816429, 0.028523188084363937, -0.10527318716049194, -0.001235365867614746, -0.1143215075135231, 0.00818565022200346, -0.03867030888795853, -0.11058618128299713, 0.08577974885702133, 0.0031519760377705097, 0.06386419385671616, 0.09514238685369492, 0.08429031074047089, -0.05862811207771301, -0.016975536942481995, 0.06788875162601471, -0.059644028544425964, 0.08534268289804459, 0.07554775476455688, -0.11222822964191437, 0.10911525040864944, 0.04430049657821655, 0.012499255128204823, -0.017132015898823738, 0.05624806135892868, 0.017326094210147858, -0.04992345720529556, 0.12812255322933197, 0.02343415655195713, -0.052618857473134995, -0.001380315748974681, 0.06969214975833893, -0.10501689463853836, 0.01878916658461094, -0.022562885656952858, 0.07298102229833603, 0.11715253442525864, 0.02913396991789341, -0.11316486448049545, -0.12104738503694534, -0.04631586745381355, -0.020533878356218338, -0.08813883364200592, 0.02649923972785473, -0.045791495591402054, -0.04004104062914848, 0.06845271587371826, 0.1076999381184578, -0.04459109902381897, -0.10069893300533295, 0.09205633401870728, 0.08188267797231674, -0.11713649332523346, -0.04867006093263626, 0.021565042436122894, -0.10553662478923798, 0.06306622922420502, -0.03323264420032501, 0.032632820308208466, 0.005177399609237909, -0.034447383135557175, 0.10134045034646988, 0.07728536427021027, 0.10056251287460327, -0.08562717586755753, -0.0361853763461113, 0.058268044143915176, -0.02515912614762783, 0.05446420982480049, -0.07869042456150055, 0.034750863909721375, 0.031564630568027496, 0.10705751180648804, 0.010610087774693966, -0.02142336033284664, -0.028904179111123085, -0.06015028804540634, -0.05318580940365791, -0.05099765956401825, -0.060527555644512177, 0.021104106679558754, -0.004539087880402803, -0.016683004796504974, -0.10786686837673187, -0.006699969992041588, 0.08205696940422058, 0.04510684311389923, 0.05496426671743393, -0.11616340279579163, -0.017265694215893745, 0.002082852879539132, -0.00010476065654074773, -0.0014349567936733365, -0.04828669875860214, -0.011122086085379124, -0.033180367201566696, 0.029447168111801147, -0.012981551699340343, -0.07410850375890732, -0.054839082062244415, -0.011723754927515984, 0.01979166828095913, 0.10081544518470764, -0.08071892708539963, -0.021811839193105698, 0.018579956144094467, 0.02524864673614502, 0.05423428490757942, 0.0466228686273098, -0.11259560286998749, 0.025555850937962532, -0.03005429543554783, 0.10480444133281708, -0.055484700947999954, -0.07113466411828995, -0.042500387877225876, -0.07031171023845673, -0.038615450263023376, -0.04771603271365166, -0.04647691175341606, 0.02993689849972725, 0.061773356050252914, 0.06438471376895905, -0.08385597169399261, -0.026009783148765564, 0.08228293806314468, 0.007165395189076662, -0.11548466980457306, 0.04942403733730316, -0.006152021698653698, 0.07292325049638748, 0.10057426989078522, 0.035350438207387924, -0.08981910347938538, 0.022499393671751022, -0.01580510474741459, 0.056751761585474014, -0.04404893144965172, -0.04256808012723923, 0.1055455207824707, -0.08673182874917984, -0.12030383199453354, 0.10172610729932785, -0.05813513696193695, 0.014136789366602898, -0.025755738839507103, -0.06349681317806244, 0.0027763349935412407, -0.008658374659717083, 0.07948029041290283, -0.06850318610668182, 0.04940302297472954, 0.05031928792595863, -0.0413677841424942, 0.11750421673059464, 0.12438029050827026, 0.09038380533456802, -0.05708085000514984, -0.10044748336076736, -0.10046478360891342, -0.05998358130455017, 0.023853668943047523, -0.09218881279230118, 0.1085272878408432, 0.0183634702116251, 0.07519185543060303, 0.016993088647723198, 0.09947944432497025, 0.007863867096602917, 0.016881003975868225, 0.01796644739806652, 0.0681362897157669, 0.011816194280982018, 0.07059431076049805, 0.05007990077137947, -0.06546875089406967, 0.06786291301250458, 0.015349199995398521, -0.005403246730566025, -0.07809997349977493, 0.11034160107374191, -0.02373318001627922, -0.0507313534617424, -0.0010680865962058306, 0.02416197583079338, -0.04903477430343628, -0.06509888917207718, 0.0683358833193779, -0.06057431921362877, 0.016896389424800873, -0.14375989139080048, 0.0920335128903389, 0.0977521538734436, -0.05793505907058716, -0.010594245046377182, 0.06599771976470947, 0.0664907917380333, 0.11029769480228424, 0.001580778625793755, -0.02343028411269188, 0.024953044950962067, 0.07378420978784561, -0.06869722902774811, -0.08491414785385132, 0.07570307701826096, -0.02497970126569271, 0.07380762696266174, -0.04941616579890251, 0.034205470234155655, 0.03416834771633148, -0.03577375039458275, -0.10734903067350388, 0.11481361836194992, 0.0333520844578743, -0.06001153960824013, -0.007608594838529825, 0.02346486784517765, 0.01771968975663185, 0.06627574563026428, 0.04386305809020996, 0.04885117709636688, 0.09416811913251877, -0.1084604412317276, 0.05611833930015564, -0.0816928818821907, 0.013768939301371574, 0.04616749659180641, -0.10163137316703796, 0.037843141704797745, 0.04371160268783569, 0.0929316058754921, -0.11151257157325745, -0.052250463515520096, -0.06253618746995926, 0.065437912940979, -0.07360942661762238, -0.10662554949522018, -0.05154528468847275, -0.0453348308801651, 0.010385757312178612, 0.132280170917511, 0.03024774044752121, 0.05202283337712288, 0.03399350121617317, -0.03662958741188049, 0.0816408097743988, -0.05344592034816742, -0.06508436799049377, -0.09563452750444412, 0.10190994292497635, 0.10001323372125626, -0.10825768113136292, -0.029868384823203087, 0.0988861620426178, -0.03502015396952629, -0.07747863233089447, 0.10438349097967148, 0.08462990075349808, 0.06222989782691002, -0.10653583705425262, -0.09520811587572098, 0.08509081602096558, 0.0934528335928917, 0.07889335602521896, -0.008625105023384094, 0.027885766699910164, -0.0036932751536369324, 0.08642839640378952, 0.013708188198506832, 0.10463016480207443, -0.03369671478867531, -0.08022680878639221, 0.02174988016486168, -0.07770335674285889, 0.027230771258473396, -0.05153501778841019, -0.10918852686882019, 0.12487402558326721, -0.10718172043561935, 0.048566922545433044, -0.05334247648715973, -0.14137566089630127, -0.08822678029537201, -0.06746286153793335, -0.027537517249584198, -0.11744709312915802, -0.08951692283153534, -0.09631194919347763, 0.060413092374801636, 0.008617011830210686, 0.11473852396011353, 0.0008500733529217541, 0.016249636188149452, 0.0064326743595302105, -0.08477814495563507, -0.02694251947104931, 0.14538556337356567, 0.045448314398527145, -0.0988059863448143, 0.081087626516819, 0.08086381107568741, -0.12376265227794647, -0.14265604317188263, 0.05092831701040268, -0.07606249302625656, -0.10605732351541519, -0.01967385597527027, 0.09084948897361755, 0.024263588711619377, -0.10777556896209717, 0.06822134554386139, -0.09682533890008926, -0.12730757892131805, -0.04627029225230217, -0.055775757879018784, -0.05724538117647171, 0.10696975141763687, 0.09688100963830948, 0.08022059500217438, -0.09603484719991684, -0.04408277943730354, -0.0903480276465416, 0.008334039710462093, 0.0858822762966156, 0.08652827888727188, -0.03597547113895416, 0.06176663562655449, -0.043311651796102524, 0.008284135721623898, 0.015193873085081577, 0.05615393444895744, 0.051154524087905884, -0.0805092453956604, -0.004797948524355888, -0.04345311224460602, -0.11567868292331696, 0.044774994254112244, 0.054881125688552856, -0.10232026875019073, -0.11140131205320358, 0.05642205849289894, 0.12279476225376129, -0.0470559261739254, -0.029952522367239, -0.06734436750411987, 0.09912847727537155, 0.0700722485780716, -0.07890348881483078, -0.02597213163971901, -0.05138130113482475, 0.074517160654068, -0.07845140248537064, 0.006273276172578335, -0.03711332753300667, -0.021140793338418007, -0.011160233058035374, -0.01380431279540062, 0.026466138660907745, -0.06438739597797394, -0.15325719118118286, 0.02044995129108429, -0.024430254474282265, 0.01191661600023508, 0.011260522529482841, 0.05678161233663559, 0.05498765408992767, -0.10263996571302414, 0.01281780656427145, -0.0471942238509655, 0.011158830486238003, -0.07487385720014572, 0.036766622215509415, 0.04735838621854782, 0.013970545493066311, -0.13883104920387268, -0.04017065092921257, -0.0430343933403492, 0.07970728725194931, -0.01575249619781971, -0.06323707848787308, 0.07637585699558258, 0.030217241495847702, 0.06673602014780045, -0.05368535965681076, -0.0539998784661293, 0.015541649423539639, -0.007390823680907488, 0.001829614513553679, -0.04538865014910698, -0.0063093858771026134, -0.09176737815141678, -0.10895585268735886, -0.016724493354558945, -0.1434454619884491, -0.0839906558394432, 0.06683871150016785, -0.0028993957675993443, 0.04050588235259056, -0.09115438908338547, 0.01307495404034853, 0.04268671199679375, -0.06826288253068924, -0.1369866281747818, 0.03907712176442146, 0.015257570892572403, -0.0773954838514328, 0.09455188363790512, 0.08307261019945145, -0.026837538927793503, 0.06695345044136047, 0.15125466883182526, 0.04621600732207298, -0.1104493960738182, 0.008838733658194542, -0.003730582073330879, 0.020330751314759254, -0.061966270208358765, -0.03288494423031807, -0.08573594689369202, -0.09992026537656784, 0.07852619886398315, 0.1233205497264862, -0.02422625571489334, 0.10436031967401505, -0.042206622660160065, -0.04366432875394821, 0.06847585737705231, 0.03548077866435051, 0.08177484571933746, 0.01563507691025734, -0.07100453972816467, -0.0689011812210083, 0.09391659498214722, -0.1092742308974266, -0.09176479279994965, -0.059922389686107635, -0.05742878094315529, -0.049114059656858444, 0.04909961670637131, -0.02795344404876232, 0.052761510014534, -0.06840566545724869, -0.08267873525619507, 0.005295960232615471, -0.07373572140932083, -0.10849940031766891, -0.009340518154203892, -0.03691833093762398, -0.06595367193222046, 0.022451777011156082, 0.06009196117520332, 0.1043802797794342, 0.0308550875633955, -0.013627477921545506, 0.032865770161151886, -0.03348325192928314, 0.0632357969880104, 0.04475121200084686, -0.07811513543128967, -0.029158899560570717, 0.007889260537922382, 0.01569543220102787, 0.06634622812271118, -0.0023372627329081297, 0.019044337794184685, -0.040923576802015305, 0.016084054484963417, -0.00864913035184145, -0.03568842634558678, -0.06731105595827103, 0.004014777485281229, -0.14734795689582825, 0.00014875640044920146, -0.039664216339588165, -0.05143456533551216, -0.07071131467819214, -0.002555747516453266, -0.02464914880692959, -0.04020192101597786, -0.12269211560487747, -0.03656923770904541, 0.05957599729299545, 0.015893422067165375, -0.07994656264781952, -0.02780534327030182, 0.10542204231023788, -0.021927006542682648, -0.05396676063537598, -0.03242482244968414, 0.027627505362033844, -0.06003565341234207, 0.058173470199108124, -0.025658078491687775, -0.03641088306903839, -0.07584746181964874, -0.10371213406324387, -0.13694694638252258, -0.07513993978500366, 0.12276564538478851, -0.043425168842077255, 0.07320704311132431, -0.09630254656076431, -0.1624651402235031, 0.008876756764948368, 0.06012619286775589, 0.034265391528606415, 0.0692925974726677, -0.0043107266537845135, -0.045536525547504425, -0.0792468935251236, -0.13457469642162323, 0.050528887659311295, 0.11542811244726181, -0.08560938388109207, -0.045732706785202026, -0.04529286175966263, 0.04881729930639267, 0.0037005767226219177, -0.01594739407300949, -0.07865017652511597, -0.031326912343502045, 0.09591921418905258, 0.09851176291704178, -0.007770843803882599, -0.11125831305980682, -0.06312648952007294, 0.06207049638032913, -0.026952050626277924, -0.09130941331386566, -0.06068939343094826, -0.11171401292085648, -0.0883651077747345, 0.005813730880618095, -0.0684848204255104, 0.05034851282835007, -0.03333602100610733, 0.0904432162642479, -0.09650444984436035, -0.05971530079841614, 0.02237756922841072, -0.0006701005040667951, -0.02542392536997795, 0.07000506669282913, 0.06402149051427841, -0.030910834670066833, 0.04547745734453201, -0.0752905011177063, 0.1058833971619606, -0.03309987485408783, 0.10496427863836288, 0.03790149837732315, 0.037164561450481415, 0.07410954684019089, 0.10073117166757584, 0.10827424377202988, -0.033595457673072815, -0.10705742239952087, -0.07897260785102844, -0.09950579702854156, -0.026823952794075012, -0.056640204042196274, 0.13046947121620178, -0.04388701543211937, -0.012701394036412239, -0.08972439169883728, 0.04146573692560196, 0.06957820802927017, -0.07390600442886353, 0.002869323128834367, 0.0602278932929039, -0.0980367437005043, -0.07844995707273483, 0.021764762699604034, -0.014567217789590359, -0.054855309426784515, -0.061807822436094284, 0.03462514653801918, -0.16755129396915436, 0.1252710074186325, -0.03822529315948486, -0.12177276611328125, 0.10382422059774399, 0.07861201465129852, -0.10134091228246689, 0.07445020228624344, 0.05761852487921715, 0.10016284137964249, -0.07149054855108261, 0.1609605848789215, -0.11252066493034363, 0.1840095967054367, -0.06793960928916931, -0.021075034514069557, -0.15604884922504425, -0.01566329039633274, 0.049504272639751434, -0.05462441220879555, 0.09171053022146225, -0.035647518932819366, 0.05004165321588516, -0.13203150033950806, 0.052573852241039276, 0.10620041936635971, 0.012978817336261272, -0.03159976378083229, -0.10749749094247818, 0.0029378205072134733, 0.004039391875267029, -0.14280587434768677, 0.0909285694360733, 0.008151739835739136, 0.048045482486486435, 0.058782532811164856, -0.07017731666564941, -0.02376643382012844, 0.07990973442792892, -0.1454554796218872, -0.024399790912866592, 0.009071496315300465, 0.1575564593076706, -0.14180079102516174, 0.1628512740135193, -0.0020513858180493116, 0.11943741887807846, 0.05348760634660721, -0.03009740635752678, 0.07931055873632431, 0.023684358224272728, -0.017442885786294937, -0.040581170469522476, -0.050736844539642334, 0.051256194710731506, 0.09661243110895157, 0.06979309022426605, -0.05848633497953415, -0.02361256256699562, -0.01629851758480072, 0.10059953480958939, 0.004639686085283756, -0.07723403722047806, -0.11687666177749634, -0.0015719953225925565, -0.03792693838477135, 0.0985645055770874, -0.005347989033907652, -0.06565365940332413, 0.0792069360613823, -0.06162083148956299, -0.128694087266922, 0.013956667855381966, -0.040068455040454865, -0.008445330895483494, 0.09960848838090897, 0.10172125697135925, 0.002203666139394045, 0.02255908027291298, 0.08598097413778305, 0.13829585909843445, -0.05712468549609184, -0.01042105071246624, -0.028378324583172798, -0.11191576719284058, 0.04419717937707901, -0.06481841206550598, 0.1013842523097992, 0.05341131240129471, 0.001966295065358281, 0.057104628533124924, 0.06524127721786499, -0.07758945226669312, 0.019342394545674324, 0.07145817577838898, -0.07199564576148987, -0.011785373091697693, 0.03412332385778427, -0.09219571948051453, -0.10168270766735077, 0.11153864115476608, 0.03890759497880936, 0.06611496955156326, 0.09021618217229843, -0.00986550748348236, 0.02071753889322281, -0.04828669875860214, 0.0314827635884285, 0.01286701112985611, -0.09778062254190445, 0.10187063366174698, 0.09349756687879562, 0.039892129600048065, -0.0837630107998848, -0.056347575038671494, 0.09732338786125183, -0.06763400882482529, -0.0839751660823822, -0.04551631584763527, 0.10446661710739136, -0.06408108025789261, 0.049733273684978485, 0.04784269258379936, -0.07376724481582642, 0.10822588950395584, 0.0253252275288105, -0.03835807740688324, -0.0007732741069048643, -0.08804694563150406, 0.07362083345651627, 0.07241402566432953, 0.015942908823490143, -0.07942726463079453, -0.02589520439505577, 0.09048086404800415, 0.009885670617222786, 0.023624317720532417, 0.01350924652069807, -0.006358502432703972, 0.10678432881832123, 0.07730261236429214, 0.08001114428043365, -0.07885713130235672, -0.0634036436676979, 0.0074724773876369, 0.056250859051942825, 0.09258139133453369, 0.06509643793106079, 0.018968505784869194, -0.030600467696785927, 0.0944456085562706, 0.04878300055861473, 0.10688888281583786, 0.12561605870723724, -0.04131809249520302, -0.10030985623598099, -0.07777722924947739, -0.05570406839251518, -0.06426061689853668, -0.0453958660364151, -0.08607030659914017, -0.017573164775967598, 0.005040357355028391, 0.07087213546037674, 0.04393391311168671, -0.1002517119050026, 0.13650751113891602, 0.0848301351070404, 0.11410895735025406, 0.006449046544730663, 0.09197807312011719, -0.010556260123848915, -0.07369227707386017, 0.005319854244589806, 0.028329573571681976, -0.0172295942902565, -0.1042378768324852, 0.029767727479338646, 0.1239747479557991, 0.08856559544801712, 0.07458996027708054, 0.009489035233855247, -0.03288644552230835, -0.06160777807235718, -0.09260834753513336, -0.09399966150522232, 0.02039998024702072, 0.07482756674289703, -0.08159351348876953, -0.07456442713737488, 0.1153552308678627, 0.012641259469091892, 0.10189945995807648, -0.0089210020378232, 0.0493333637714386, -0.05530887842178345, 0.04753433167934418, -0.08083812892436981, 0.029384909197688103, -0.013509686104953289, -0.16230696439743042, -0.05628585070371628, -0.07744680345058441, -0.03531157597899437, -0.11038706451654434, 0.024651026353240013, -0.05498431622982025, -0.10392413288354874, -0.022958358749747276, -0.016393015161156654, -0.009309113956987858, 0.03987940028309822, -0.08272067457437515, 0.036550674587488174, 0.022472016513347626, 0.06426213681697845, -0.07922489941120148, -0.06417298316955566, 0.012440765276551247, -0.08787710219621658, 0.061953261494636536, -0.08776403963565826, -0.07844683527946472, -0.14140209555625916, -0.02695459872484207, -0.042818643152713776, -0.0851762443780899, -0.017200060188770294, -0.06372665613889694, 0.0840776264667511, 0.07648872584104538, -0.026276657357811928, 0.024532802402973175, -0.004661048762500286, -0.028201185166835785, 0.019255127757787704, -0.09958197176456451, -0.0177487600594759, -0.08377198129892349, 0.07121337950229645, 0.0743347778916359, -0.09055368602275848, 0.021421736106276512, 0.03612711653113365, -0.05246242880821228, -0.009828549809753895, -0.023552758619189262, 0.02561846934258938, -0.062329381704330444, -0.04445547237992287, 0.0870310589671135, 0.10261613130569458, 0.10440722107887268, 0.029508592560887337, 0.02150685153901577, -0.029225431382656097, 0.0628003478050232, -0.05888037756085396, 0.049170948565006256, -0.012892183847725391, 0.07215607166290283, -0.09968370199203491, 0.03960869461297989, -0.016408422961831093, -0.06568577140569687, 0.0793118104338646, -0.001456845086067915, 0.08846738189458847, -0.04812963679432869, -0.06767226755619049, 0.07618310302495956, 0.027635913342237473, -0.040478359907865524, 0.018694646656513214, 0.001311074709519744, 0.0692872703075409, 0.06550481170415878, -0.03978041931986809, 0.06397522240877151, 0.04584496468305588, 0.028255391865968704, 0.1168399229645729, -0.06624442338943481, -0.11713448911905289, -0.020013799890875816, -0.040460944175720215, 0.025414753705263138, -0.01813412830233574, 0.013526723720133305, -0.08405529707670212, 0.06379508972167969, -0.10935024917125702, -0.0414571650326252, -0.05482880398631096, -0.0012032006634399295, 0.04238368198275566, -0.05774249508976936, 0.0760560855269432, -0.05095672234892845, 0.08526007831096649, -0.12700265645980835, -0.050273921340703964, 0.005631785839796066, 0.046888791024684906, -0.01181096863001585, 0.04933972284197807, 0.04531355947256088, 0.014923038892447948, 0.013191081583499908, 0.07400243729352951, -0.02101290039718151, 0.06346514075994492, -0.03995237126946449, -0.10430676490068436, -0.05391966179013252, 0.040578074753284454, 0.00955080147832632, -0.052887942641973495, 0.015305713750422001, 0.1197989210486412, 0.07104837149381638, 0.05336955934762955, 0.11944547295570374, -0.11515790969133377, 0.07512252032756805, -0.03945838287472725, -0.11343127489089966, 0.0189332515001297, 0.09022954851388931, -0.08608869463205338, -0.06865286827087402, 0.05071048066020012, 0.12249013036489487, 0.05637159198522568, -0.0021038043778389692, -0.115782730281353, -0.040284592658281326, -0.0003668978752102703, -0.1240021288394928, 0.0639152079820633, 0.056266166269779205, 0.09482268989086151, 0.09374984353780746, -0.08520558476448059, 0.06363804638385773, 0.019371623173356056, -0.011045158840715885, 0.0021748128347098827, 0.021292442455887794, -0.045484330505132675, -0.041617151349782944, 0.03945464268326759, 0.03777313977479935, 0.10165724903345108, 0.04520987346768379, -0.1310177594423294, -0.06590808928012848, 0.03295174613595009, -0.10714484751224518, 0.06861430406570435, 0.02704702503979206, -0.005329969339072704, 0.05066925659775734, -0.03568899258971214, 0.03647707402706146, 0.09975565969944, -0.009505057707428932, 0.02851320430636406, -0.04555324837565422, -0.09702806174755096, -0.09827481955289841, -0.059896524995565414, 0.07068582624197006, 0.074297234416008, 0.044872164726257324, 0.01776205375790596, -0.03761071711778641, 0.1265379935503006, 0.08821745961904526, 0.10299471020698547, 0.01709398627281189, 0.10549192875623703, 0.027849895879626274, 0.058846283704042435, -0.08606600016355515, -0.09478568285703659, -0.09026248008012772, 0.01898542419075966, -0.059125371277332306, 0.07044409960508347, -0.08610372990369797, 0.055369969457387924, -0.1077071949839592, -0.09101453423500061, -0.069209024310112, -0.052815310657024384, -0.07757650315761566, -0.023607764393091202, -0.06758321076631546, -0.009223236702382565, 0.0037063558120280504, -0.025083962827920914, 0.06887029856443405, -0.06746619939804077, 0.0841921791434288, 0.006976258009672165, -0.07425881922245026, -0.05979171767830849, -0.009341640397906303, -0.06727015972137451, -0.04227957874536514, -0.016768772155046463, -0.036591317504644394, 0.026015879586338997, 0.086711086332798, 0.07534116506576538, 0.0716530829668045, -0.08738776296377182, -0.09431225061416626, -0.0559421181678772, -0.0992710143327713, 0.036870915442705154, 0.005135140847414732, 0.10350944846868515, 0.07049041986465454, 0.1305701732635498, 0.02770603448152542, 0.04371948912739754, 0.07261835038661957, -0.04713652655482292, -0.03782404586672783, 0.0950922742486, -0.07741595059633255, 0.010393624193966389, 0.044812869280576706, -0.040232542902231216, -0.06091495603322983, -0.002392933238297701, 0.08736835420131683, -0.03563249856233597, 0.03222794085741043, -0.06520933657884598, -0.021638333797454834, -0.04375172406435013, -0.0663832575082779, 0.10012639313936234, -0.08950719982385635, 0.05028286576271057, 0.1111639216542244, 0.06973274797201157, -0.04858987778425217, 0.10396692156791687, 0.06893616914749146, -0.11033531278371811, 0.031690340489149094, -0.03125306963920593, -0.025566378608345985, -0.017342600971460342, 0.006905577145516872, 0.01765322871506214, 0.0740964338183403, -0.06358487904071808, 0.03129833936691284, 0.12287900596857071, 0.02883967198431492, -0.005831478629261255, -0.01436525210738182, -0.09638027101755142, -0.07520896196365356, 0.05890665948390961, -0.10873287916183472, -0.0744151845574379, -0.03953731432557106, -0.07890100032091141, -0.1098438948392868, -0.046530045568943024, 0.0028816419653594494, 0.03381297364830971, 0.04275169223546982, 0.02024810016155243, 0.12331453710794449, 0.11497824639081955, 0.056249961256980896, 0.06380075216293335, 0.07078070193529129, -0.11953809857368469, 0.06613758206367493, 0.07305983453989029, -0.06577423959970474, -0.10970558226108551, 0.1043580174446106, -0.11428393423557281, -0.018472345545887947, -0.08110679686069489, 0.0851990357041359, 0.12943042814731598, -0.027327749878168106, -0.06082793325185776, 0.009551684372127056, 0.000165359495440498, -0.03442486748099327, -0.10358799248933792, 0.010337657295167446, 0.05553238466382027, 0.03078608214855194, 0.026686733588576317, -0.011045803315937519, 0.11343785375356674, 0.0785890594124794, -0.032126717269420624, -0.061855945736169815, 0.11175715178251266, -0.07951665669679642, -0.045978643000125885, -0.03375979885458946, -0.046243343502283096, 0.12597104907035828, 0.09066545963287354, -0.04252040386199951, 0.09211577475070953, 0.03010488674044609, 0.0888056755065918, 0.12668770551681519, 0.01293936837464571, 0.11153821647167206, -0.023591773584485054, 0.1142355427145958, -0.012779001146554947, -0.13643935322761536, -0.13690520823001862, -0.0012979676248505712, 0.1503470540046692, -0.039801910519599915, 0.11220280826091766, -0.028809037059545517, -0.027325697243213654, 0.033948443830013275, -0.011828670278191566, 0.028638677671551704, -0.07183890789747238, 0.10522141307592392, -0.020823363214731216, -0.0910915955901146, -0.08330006152391434, -0.025979069992899895, -0.05779281631112099, 0.12441501766443253, 0.1101095974445343, 0.017655452713370323, -0.11382615566253662, 0.10465333610773087, -0.029540546238422394, -0.12422280758619308, -0.01130653265863657, 0.05811307951807976, -0.036348823457956314, -0.07229330390691757, 0.12028344720602036, 0.09619727730751038, -0.08281313627958298, 0.06240057572722435, 0.11524248868227005, -0.02658739872276783, -0.10168889164924622, -0.022185906767845154, -0.11225328594446182, 0.08117813616991043, -0.003920658025890589, -0.05481261759996414, 0.0039782216772437096, 0.05717717111110687, 0.05551828444004059, -0.06242208555340767, -0.03525787219405174, -0.11546476930379868, 0.07238540798425674, -0.04077636078000069, -0.02060086652636528, 0.11707498878240585, 0.010424182750284672, 0.019325939938426018, -0.025264808908104897, 0.10108966380357742, -0.034795816987752914, 0.04155471920967102, 0.023063572123646736, 0.1257006973028183, -0.01540049072355032, 0.07760536670684814, 0.06877529621124268, 0.04385892301797867, 0.12915541231632233, 0.08284307271242142, 0.041063468903303146, -0.07731762528419495, 0.05591316893696785, -0.021792322397232056, -0.012397045269608498, -0.0567760095000267, 0.08471540361642838, 0.030741114169359207, -0.0991884246468544, 0.09189663827419281, -0.0524248443543911, 0.07211660593748093, 0.09565195441246033, -0.03547736257314682, -0.08111794292926788, -0.01352289691567421, -0.060164667665958405, -0.04917175695300102, 0.036118537187576294, 0.09290462732315063, -0.05578097328543663, 0.1007920429110527, 0.013149661011993885, -0.05706288293004036, 0.07066497206687927, 0.054388631135225296, -0.058505140244960785, -0.018847854807972908, 0.11281858384609222, 0.07521472126245499, -0.08681385964155197, -0.014247270300984383, -0.029307043179869652, 0.11043505370616913, -0.08528787642717361, -0.045253220945596695, -0.09399136155843735, -0.14088545739650726, 0.05410716310143471, -0.0034263255074620247, 0.05100957676768303, 0.07500746101140976, 0.07134244590997696, -0.03694341704249382, 0.048478636890649796, -0.08799753338098526, -0.02396378479897976, -0.1012350469827652, -0.042852457612752914, 0.09331119060516357, 0.005872652865946293, 0.08599166572093964, 0.01578274555504322, -0.16535231471061707, 0.006423191167414188, 0.014183882623910904, -0.08690005540847778, 0.0012262607924640179, 0.01393880508840084, -0.00997678842395544, -0.0250646211206913, 0.05235997587442398, 0.004325928166508675, 0.016754023730754852, -0.07931816577911377, 0.09888950735330582, 0.020984692499041557, -0.0449698232114315, -0.016885055229067802, 0.0639556497335434, 0.03313349559903145, 0.09988899528980255, 0.11096397787332535, 0.021971236914396286, 0.06741944700479507, 0.090873122215271, -0.07814337313175201, -0.0074831340461969376, -0.030004529282450676, 0.09720231592655182, -0.045326028019189835, 0.02899589017033577, -0.07405231893062592, 0.11261919885873795, -0.11131273210048676, 0.07038699090480804, -0.0627584308385849, -0.12730461359024048, -0.01818975806236267, -0.027415789663791656, 0.04392009228467941, -0.11536300182342529, -0.041221749037504196, 0.05180869251489639, 0.11395306140184402, -0.027849609032273293, -0.22848352789878845, 0.0184539332985878, 0.15131962299346924, -0.03729159012436867, 0.03067195601761341, 0.01975877769291401, -0.19303153455257416, 0.08399228006601334, 0.10189235210418701, -0.07730831950902939, 0.0905161052942276, 0.2172650545835495, 0.15406537055969238, 0.060804370790719986, -0.0031841075979173183, 0.017021069303154945, -0.035619985312223434, 0.12206783890724182, 0.09191356599330902, 0.11413557827472687, 0.09258858859539032, 0.005298416595906019, 0.08623772859573364, -0.01700242981314659, -0.058178968727588654, -0.07579829543828964, -0.034080907702445984, -0.04963420331478119, 0.008419039659202099, -0.06845039129257202, 0.02536449208855629, 0.0809742659330368, 0.065218485891819, 0.004115147050470114, -0.10176829993724823, -0.01004469208419323, 0.03910253569483757, -0.05521631985902786, -0.0008018214139156044, 0.014040103182196617, 0.0965869277715683, -0.06948856264352798, 0.059208016842603683, -0.10203762352466583, -0.09585778415203094, -0.08391836285591125, 0.03624884411692619, -0.06697698682546616, -0.02199639566242695, 0.024653540924191475, -0.0008430801099166274, -0.11729153990745544, 0.049405742436647415, -0.08325787633657455, -0.0864076092839241, 0.08177336305379868, 0.07671026140451431, 0.05249854549765587, -0.03811439499258995, -0.013926849700510502, -0.1283334493637085, -0.07304929196834564, 0.007858716882765293, 0.07584062218666077, -0.09956648200750351, -0.030131446197628975, -0.1274288445711136, -0.0909554734826088, 0.04100032150745392, -0.10228626430034637, 0.10129454731941223, -0.07417231798171997, -0.04983966425061226, 0.020936349406838417, -0.07690443098545074, -0.11138120293617249, 0.025740696117281914, 0.04739134758710861, -0.07923614233732224, 0.056094083935022354, 0.12242177128791809, 0.06777708232402802, 0.01827278360724449, -0.08460364490747452, 0.11716657876968384, -0.0733591690659523, 0.10683742165565491, 0.07277537882328033, -0.08582436293363571, -0.04495227336883545, -0.06529129296541214, 0.03386551886796951, -0.04895064979791641, 0.051759377121925354, -0.09178256243467331, 0.07453502714633942, -0.020451992750167847, -0.0695837140083313, -0.008259730413556099, -0.047040905803442, 0.09085619449615479, -0.004257961641997099, 0.022298797965049744, -0.005675177089869976, -0.031002579256892204, 0.09465418010950089, 0.06215496361255646, 0.07251740247011185, 0.0668005421757698, -0.09997127205133438, 0.08875909447669983, 0.01909899339079857, 0.03844012692570686, 0.11827032268047333, 0.0764642208814621, -0.026656627655029297, -0.00936026033014059, 0.0508757047355175, -0.060445912182331085, 0.05341872572898865, -0.020150482654571533, -0.03759964182972908, -0.05495177581906319, 0.0718429833650589, 0.026406317949295044, -0.0529443584382534, -0.014292150735855103, -0.00035690382355824113, 0.054541293531656265, -0.07013628631830215, -0.13381154835224152, -0.10313180088996887, 0.11262405663728714, -0.019537566229701042, -0.13043861091136932, -0.0060163019225001335, 0.05987502634525299, -0.11144869029521942, -0.0673113539814949, 0.06195218116044998, -0.016392700374126434, 0.06496165692806244, 0.06132816895842552, -0.04863036423921585, 0.06658763438463211, 0.012362423352897167, 0.020825326442718506, 0.038194555789232254, 0.08754494786262512, -0.0642390325665474, 0.05195252224802971, 0.01981925033032894, 0.010040024295449257, 0.10939361900091171, 0.016868816688656807, 0.049632225185632706, -0.0735010951757431, 0.03323773294687271, 0.012280693277716637, 0.015362418256700039, -0.04874097928404808, 0.038854457437992096, -0.036194074898958206, -0.05043245106935501, -0.02831738255918026, 0.011571868322789669, 0.0889105498790741, -0.03657802194356918, -0.003410992445424199, 0.001337309367954731, -0.14892147481441498, -0.059209223836660385, -0.0030463191214948893, -0.08705094456672668, 0.1439160406589508, -0.21017123758792877, 0.10770474374294281, -0.05017814040184021, -0.04924958199262619, 0.06430631875991821, -0.040619656443595886, -0.005502457730472088, 0.00035014929017052054, 0.052871670573949814, -0.11621933430433273, -0.03969663009047508, 0.01024547591805458, -0.0911087691783905, 0.1266341358423233, -0.13664981722831726, -0.12313497066497803, -0.009938603267073631, 0.026790952309966087, 0.08729051053524017, -0.005578368436545134, -0.028815442696213722, -0.18932969868183136, -0.054237641394138336, -0.1044568195939064, 0.04919756203889847, 0.008971360512077808, 0.17203745245933533, 0.010993383824825287, -0.0019932640716433525, -0.08953984826803207, 0.033138457685709, -0.12378673255443573, 0.1099805235862732, -0.1445986032485962, 0.10118173807859421, 0.13639624416828156, -0.08065374195575714, -0.0791315883398056, 0.10267049819231033, -0.026353100314736366, 0.021274439990520477, -0.08278234302997589, 0.09248209744691849, -0.1342884749174118, -0.0639728531241417, -0.05991046875715256, 0.03174430876970291, -0.011066718958318233, 0.13654550909996033, 0.07153398543596268, -0.04608025774359703, -0.0977875292301178, 0.02596357651054859, -0.08425020426511765, 0.05407599359750748, -0.12043602019548416, -0.07561343908309937, -0.021795349195599556, -0.1394035816192627, 0.011623810976743698, -0.00046795865637250245, 0.05569843202829361, 0.034265559166669846, 0.0845131129026413, 0.0904744416475296, 0.05952335521578789, 0.016781015321612358, 0.06434078514575958, -0.10775048285722733, 0.07889380306005478, 0.0188004057854414, -0.08514270186424255, 0.06927535682916641, -0.028115440160036087, -0.037977978587150574, -0.05749117210507393, 0.007229457143694162, 0.005226834211498499, 0.11328665167093277, 0.1400221884250641, -0.01896679401397705, -0.10177308320999146, -0.023998040705919266, -0.035476215183734894, -0.08526290953159332, 0.06578173488378525, 0.005629364401102066, 0.08253642916679382, 0.010314849205315113, 0.04043243080377579, 0.10341725498437881, 0.061058517545461655, 0.07732021808624268, -0.08230610936880112, -0.07582047581672668, -0.10486626625061035, 0.12921519577503204, 0.027605591341853142, -0.0041840048506855965, -0.056064583361148834, 0.07200071215629578, 0.05610158294439316, 0.1091919094324112, 0.060526903718709946, 0.019205667078495026, 0.002975609852001071, -0.04271407425403595, 0.04147795960307121, -0.10924592614173889, -0.06023617461323738, -0.06564706563949585, -0.05236760899424553, -0.045413970947265625, 0.05609465390443802, -0.09367430955171585, -0.07102164626121521, -0.03519420325756073, -0.07610651850700378, 0.08499108999967575, -0.09085559844970703, 0.0802484005689621, 0.03476843982934952, 0.05181683227419853, -0.05774657055735588, 0.013879664242267609, -0.10371198505163193, 0.02992057427763939, -0.04889686405658722, -0.10877743363380432, 0.08127495646476746, -0.0827687606215477, -0.022296864539384842, -0.0617714524269104, -0.03990748152136803, -0.02447867952287197, -0.09677420556545258, 0.06925241649150848, 0.10329939424991608, -0.050642527639865875, 0.02342868782579899, -0.005038585513830185, -0.08902665972709656, 0.11500665545463562, -0.03152906149625778, -0.011886969208717346, 0.004050928633660078, 0.04097041115164757, -0.10093505680561066, -0.041180118918418884, -0.05958738923072815, 0.009610273875296116, -0.015905791893601418, -0.09639739245176315, -0.0576556995511055, -0.05495878681540489, 0.03010624647140503, -0.007458217907696962, -0.025256937369704247, 0.06537593901157379, -0.09331831336021423, -0.02167351171374321, -0.033644210547208786, 0.08842544257640839, -0.0385192409157753, 0.024500805884599686, 0.09079726040363312, -0.07254765182733536, 0.007782724220305681, 0.10544640570878983, 0.05612694099545479, 0.020812353119254112, -0.11673554033041, -0.07508157193660736, 0.10762391984462738, 0.08825898170471191, -0.07272219657897949, 0.05556550249457359, -0.06293024122714996, 0.029834892600774765, -0.06316281855106354, 0.077985979616642, 0.11483577638864517, -0.08338084816932678, 0.06662948429584503, -0.024632800370454788, -0.09563004970550537, 0.05902954190969467, -0.04370475187897682, -0.0984245017170906, 0.019013427197933197, 0.07733382284641266, 0.06314244121313095, 0.03335524722933769, 0.07717633992433548, -0.008284607902169228, -0.1240713968873024, 0.15350361168384552, -0.04770251363515854, -0.0841170996427536, 0.026881111785769463, -0.06334550678730011, 0.000952920934651047, -0.05732836201786995, 0.08464745432138443, 0.08429651707410812, 0.050399281084537506, -0.06638199836015701, 0.024260276928544044, -0.09876270592212677, -0.04072846099734306, -0.10985253751277924, 0.04382401704788208, 0.0029823794029653072, -0.06624539196491241, 0.11372493952512741, 0.07097011804580688, 0.03366223722696304, 0.10850676149129868, 0.07765854150056839, 0.028950819745659828, -0.021161915734410286, 0.03396670147776604, -0.10267520695924759, 0.03556445240974426, -0.11214809119701385, -0.03327208757400513, -0.045260295271873474, 0.03775887191295624, -0.0666930228471756, -0.047963712364435196, -0.040437281131744385, 0.10609740763902664, 0.018572913482785225, -0.06574220955371857, 0.018436051905155182, 0.11968788504600525, 0.07712674885988235, -0.09498248994350433, -0.07354144752025604, 0.05232279375195503, 0.013494585640728474, -0.08605527132749557, -0.020343856886029243, 0.028205158188939095, 0.041309457272291183, 0.05588296055793762, 0.0036731339059770107, 0.06471855938434601, -0.027140041813254356, 0.0744812861084938, -0.08240079134702682, 0.034368183463811874, -0.1282075047492981, 0.09740974009037018, -0.13007940351963043, -0.09494282305240631, 0.025332586839795113, 0.023137206211686134, 0.0796404704451561, 0.04213685542345047, 0.13845761120319366, -0.06263531744480133, -0.10969328880310059, 0.09886903315782547, 0.05507539212703705, 0.05090342089533806, 0.041843391954898834, 0.05079912394285202, -0.03780404478311539, 0.028879882767796516, 0.042119383811950684, 0.011664588935673237, 0.04840001463890076, -0.019535565748810768, -0.0696515217423439, 0.04439886659383774, 0.03272959962487221, 0.08421217650175095, 0.029063405469059944, -0.10030314326286316, -0.08340299129486084, -0.01924816519021988, 0.026116877794265747, 0.027143511921167374, 0.031558942049741745, 0.12625691294670105, 0.10208818316459656, 0.06123318523168564, -0.10528642684221268, 0.07899589836597443, -0.00309650762937963, -0.057127565145492554, 0.06543195247650146, 0.11056768149137497, 0.11336454749107361, -0.07062797248363495, -0.08384113013744354, -0.08620171248912811, 0.015422443859279156, 0.11364330351352692, 0.003158985637128353, 0.0909433364868164, 0.06284494698047638, -0.027931516990065575, -0.09224638342857361, 0.11760812252759933, 0.10865486413240433, -0.09194985032081604, -0.09483975172042847, -0.01352159958332777, 0.03795929253101349, -0.09997271001338959, -0.055730752646923065, 0.0472196564078331, -0.06421735882759094, -0.08011544495820999, 0.04512571915984154, 0.03584647551178932, -0.06046289578080177, -0.045647088438272476, 0.013216227293014526, -0.12955020368099213, -0.08250817656517029, 0.023077702149748802, 0.0014019523514434695, -0.09381679445505142, 0.0464484877884388, -0.011853995732963085, -0.1092199832201004, -0.0076833986677229404, 0.06277400255203247, -0.10848692059516907, 0.11257471144199371, 0.07252418994903564, -0.06594805419445038, -0.07232552021741867, 0.09918788075447083, 0.03660150617361069, 0.05023658275604248, 0.11442714184522629, 0.07042903453111649, 0.0409095361828804, -0.06378079950809479, -0.0784626454114914, 0.09083308279514313, -0.08358041197061539, -0.13129346072673798, 0.0395813062787056, -0.038998644798994064, -0.07613647729158401, -0.12013228237628937, -0.07601024210453033, 0.06083342805504799, -0.08184833079576492, 0.024505168199539185, 0.09910116344690323, 0.11706915497779846, 0.07272196561098099, -0.05480063334107399, -0.030794871971011162, 0.09953165799379349, -0.09030064940452576, -0.03985649347305298, 0.10635020583868027, 0.03683046996593475, -0.03386853262782097, 0.0706535205245018, -0.09304600954055786, -0.07812231034040451, -0.11055499315261841, -0.0670820102095604, 0.07537946105003357, -0.05562804266810417, -0.06823304295539856, -0.09554657340049744, 0.0936778336763382, 0.1577785164117813, 0.04740651324391365, -0.11108949780464172, 0.07444126158952713, 0.0028717252425849438, -0.07468770444393158, -0.020413169637322426, -0.10061638802289963, 0.1023346409201622, -0.017053818330168724, -0.08324738591909409, 0.038233682513237, -0.15114183723926544, -0.08323049545288086, 0.05974680185317993, -0.004663938190788031, -0.050285499542951584, 0.06041961908340454, -0.032257139682769775, 0.004507731180638075, 0.055331382900476456, -0.0690116360783577, 0.012355398386716843, -0.04498825594782829, 0.06011778861284256, -0.10488948225975037, 0.042797964066267014, 0.053063660860061646, -0.051057834178209305, 0.018075862899422646, 0.1106431782245636, 0.04546412080526352, 0.1316635012626648, 0.031235279515385628, 0.06469903886318207, 0.06027933210134506, 0.06825559586286545, 0.08174615353345871, -0.04645084589719772, 0.07492300122976303, 0.06626325100660324, -0.07711532711982727, -0.008500163443386555, 0.04019860923290253, -0.07110241800546646, 0.06170092523097992, 0.014973263256251812, -0.10455192625522614, 0.042766023427248, 0.12852296233177185, -0.008192703127861023, -0.052081286907196045, -0.02774859592318535, 0.02863776870071888, 0.008430266752839088, -0.017950884997844696, 0.0599556565284729, 0.06091016158461571, 0.06370804458856583, 0.055018745362758636, -0.04053859785199165, -0.010252467356622219, 0.0007682012510485947, 0.09199575334787369, -0.10758832842111588, -0.10534685105085373, 0.118275947868824, -0.0734572559595108, 0.03749670460820198, 0.013142111711204052, 0.024012165144085884, -0.1054137796163559, -0.020856406539678574, 0.0793863981962204, 0.028333773836493492, 0.022647246718406677, 0.003833754686638713, -0.04021355137228966, 0.02762894332408905, -0.004900283645838499, 0.1007813885807991, 0.02696891315281391, -0.11589989066123962, 0.009205937385559082, 0.06920276582241058, 0.11102384328842163, -0.10610503703355789, -0.02649596892297268, -0.07197069376707077, -0.12892276048660278, 0.0699705109000206, -0.059331636875867844, 0.05334958806633949, -0.0709562748670578, -0.04272649064660072, 0.011424063704907894, 0.07271255552768707, 0.028247002512216568, 0.08524695038795471, -0.035056114196777344, 0.09880398213863373, 0.0896858423948288, 0.02507929503917694, 0.042509280145168304, -0.05149437487125397, -0.014127705246210098, 0.08061971515417099, 0.009721626527607441, 0.08641460537910461, 0.07895790040493011, -0.026225708425045013, -0.008030801080167294, -0.07291239500045776, 0.09496043622493744, -0.044871628284454346, 0.0046440837904810905, -0.0724390298128128, 0.018414027988910675, -0.08843902498483658, -0.04407864809036255, 0.0009520354215055704, 0.05816294625401497, -0.03523888811469078, -0.09040611982345581, 0.044520989060401917, 0.01965102180838585, -0.06653434783220291, -0.01382749155163765, -0.04488199204206467, 0.03557135909795761, 0.036962177604436874, 0.09772759675979614, -0.07509640604257584, 0.09250570088624954, 0.11343689262866974, -0.022456461563706398, -0.10442808270454407, -0.04934650659561157, 0.032968632876873016, 0.10705751180648804, -0.005301150493323803, -0.08772461861371994, 0.006291838828474283, -0.050225164741277695, -0.03312576562166214, -0.03965751454234123, -0.05951983481645584, 0.016156699508428574, -0.06216200441122055, -0.010567279532551765, 0.04930410534143448, 0.013430338352918625, -0.13459374010562897, -0.11689066886901855, -0.0952802374958992, 0.03563820198178291, -0.011903000064194202, 0.06881468743085861, 0.11738137900829315, -0.04242066293954849, 0.11776264756917953, -0.06304942071437836, -0.07742888480424881, 0.09637052565813065, -0.01876838132739067, 0.11787155270576477, 0.1150558739900589, -0.026224831119179726, -0.0394553579390049, -0.06186535209417343, -0.044227153062820435, 0.022633031010627747, -0.014627095311880112, 0.06169199198484421, -0.08119843900203705, 0.02721039019525051, -0.05570632964372635, -0.10124561935663223, 0.0029814173467457294, -0.13315778970718384, -0.10291646420955658, -0.043186042457818985, -0.0035022245720028877, -0.04092895984649658, -0.026639455929398537, 0.10770608484745026, 0.0947544202208519, -0.09146177768707275, -0.02523530274629593, -0.03167077526450157, -0.11665275692939758, 0.08502354472875595, -0.08058156073093414, 0.046390600502491, 0.1178806722164154, -0.053898993879556656, -0.12007652968168259, 0.05000770464539528, -0.06085281819105148, -0.011082824319601059, 0.1170281171798706, 0.10386064648628235, 0.042550452053546906, -0.10323869436979294, -0.08002883195877075, -0.01572304405272007, 0.063791424036026, 0.0623493455350399, -0.09110486507415771, -0.08904184401035309, -0.02222849801182747, -0.07933403551578522, -0.1027081310749054, -0.030080672353506088, -0.04408233240246773, 0.058451320976018906, -0.047378282994031906, -0.1348876804113388, -0.0378277525305748, -0.08511295914649963, -0.016453390941023827, 0.0014439678052440286, 0.12940523028373718, 0.013294203206896782, -0.11074123531579971, 0.06880714744329453, -0.02692505717277527, -0.061373066157102585, -0.04304149001836777, 0.030490191653370857, 0.013238607905805111, 0.05683969706296921, 0.07823185622692108, 0.10361139476299286, 0.049023013561964035, -0.09582851827144623, 0.05643688887357712, 0.10028441250324249, 0.09655111283063889, 0.04588267579674721, 0.0009281791280955076, -0.050474219024181366, 0.12063668668270111, 0.08554037660360336, 0.011263687163591385, 0.017924325540661812, 0.07355407625436783, 0.01137588545680046, -0.10091427713632584, 0.04269276186823845, 0.11735957115888596, -0.024350225925445557, -0.003339818213135004, 0.12630073726177216, -0.007050328887999058, 0.011334596201777458, 0.09947519749403, 0.021061455830931664, 0.016102006658911705, -0.0033574411645531654, -0.00011067616287618876, 0.050822172313928604, 0.05411286652088165, 0.05872073397040367, -0.03669726848602295, 0.08544213324785233, 0.12401091307401657, -0.05376500263810158, -0.08656506985425949, -0.15722520649433136, -0.04823741689324379, 0.02044559456408024, -0.014356155879795551, -0.09526490420103073, 0.07412618398666382, -0.08500172942876816, -0.056446339935064316, -0.13318365812301636, 0.05403192713856697, 0.11942652612924576, 0.0020271202083677053, -0.07359186559915543, 0.005085124634206295, 0.04468776658177376, -0.004343751352280378, -0.1371789574623108, -0.011717141605913639, 0.06009211391210556, 0.09560958296060562, 0.05004457011818886, 0.030177714303135872, 0.028410380706191063, 0.00497914245352149, -0.06998404860496521, 0.10322786867618561, 0.05148258060216904, 0.10216894000768661, 0.05010576546192169, 0.10181010514497757, -0.061310917139053345, 0.08342808485031128, 0.017508424818515778, -0.061621036380529404, 0.06733883172273636, -0.09547581523656845, 0.06051500141620636, 0.07756112515926361, -0.0904865637421608, 0.029380232095718384, -0.11495880782604218, 0.08185860514640808, 0.05650697275996208, -0.10353707522153854, -0.03537221997976303, 0.07611877471208572, 0.062384314835071564, -0.10452040284872055, -0.016094990074634552, 0.07763955742120743, -0.11223910748958588, 0.1451275497674942, 0.12086445093154907, 0.06749454885721207, 0.08764756470918655, 0.09956280887126923, 0.0626070573925972, 0.15338723361492157, 0.05516153946518898, 0.09447796642780304, 0.05940910801291466, 0.03161545842885971, -0.0702868327498436, 0.10129284858703613, -0.05025298148393631, -0.04669908434152603, -0.11745929718017578, 0.09314312040805817, 0.1200704574584961, -0.03829798474907875, -0.008860372938215733, 0.06191270053386688, -0.04553891345858574, 0.01939430832862854, 0.05249151214957237, 0.016145972535014153, 0.06593259423971176, 0.07250218093395233, 0.10676135867834091, 0.08008325099945068, -0.09028830379247665, 0.003714790102094412, -0.0939059853553772, -0.09878785908222198, -0.07992348074913025, -0.019960878416895866, 0.03520150110125542, 0.05504888668656349, -0.0911148190498352, -0.09779009222984314, -0.0707428976893425, -0.07888732105493546, 0.09301178902387619, -0.03295101597905159, -0.01871238835155964, -0.03298834338784218, -0.05870450288057327, 0.04805029183626175, -0.017692120745778084, -0.06349511444568634, 0.08149172365665436, -0.011818152852356434, -0.03379983827471733, -0.03882306069135666, 0.013442855328321457, -0.09757112711668015, -0.03471885621547699, 0.0022306351456791162, 0.0615939199924469, 0.04832795634865761, 0.018628738820552826, -0.0946117490530014, -0.07216094434261322, -0.07412366569042206, 0.027883147820830345, -0.0319848358631134, 0.09689781814813614, -0.06165393441915512, 0.013187053613364697, -0.07836327701807022, -0.13688646256923676, -0.12493878602981567, 0.05416734516620636, 0.005756835453212261, -0.06899052113294601, 0.03350365534424782, -0.047345854341983795, 0.0020867378916591406, -0.033838748931884766, 0.05618505924940109, 0.03340364620089531, -0.0660126656293869, -0.06323471665382385, 0.08086859434843063, -0.042356185615062714, -0.010404861532151699, 0.19126388430595398, -0.07961343228816986, 0.08979567140340805, -0.02810455858707428, -0.0974755510687828, 0.021390946581959724, -0.10033604502677917, -0.03241327404975891, -0.1353728473186493, -0.07029285281896591, 0.06806295365095139, -0.1086077094078064, -0.07201290875673294, -0.041989076882600784, 0.013389086350798607, 0.057058483362197876, 0.014474591240286827, -0.06936600059270859, -0.10236365348100662, -0.05533705651760101, -0.040167827159166336, 0.09440207481384277, 0.009030943736433983, 0.04505803808569908, 0.12397757172584534, -0.032419200986623764, -0.06508101522922516, 0.07457995414733887, -0.12240611761808395, -0.019432514905929565, 0.1132328137755394, 0.0005922323907725513, 0.022301876917481422, 0.12633223831653595, 0.06432538479566574, 0.03316124901175499, -0.10560456663370132, -0.11220414936542511, 0.11910433322191238, 0.08915488421916962, -0.08120760321617126, 0.02492239512503147, -0.029261155053973198, -0.05306492745876312, 0.018619153648614883, -0.07064904272556305, 0.020520195364952087, 0.06489518284797668, -0.036864712834358215, 0.03988822177052498, 0.026557644829154015, -0.05969299003481865, 0.06517600268125534, -0.09902040660381317, -0.05986464023590088, -0.023410217836499214, 0.08912289142608643, -0.07857576757669449, 0.004025581292808056, 0.009378856047987938, 0.09287656843662262, -0.018279729411005974, -0.03718521073460579, 0.03441810607910156, -0.10573272407054901, -0.07148968428373337, 0.02423243038356304, -0.08639595657587051, 0.07089929282665253, 0.015229132026433945, -0.06787428259849548, 0.02836006134748459, -0.06090284138917923, -0.05530727654695511, -0.011874190531671047, -0.11133013665676117, 0.02547229826450348, -0.0449296273291111, 0.08949360996484756, -0.10068613290786743, -0.03415272384881973, 0.03902415931224823, 0.0029221356380730867, -0.20953133702278137, 0.09776227921247482, -0.06078830361366272, 0.08307212591171265, 0.1065826490521431, 0.02774428203701973, -0.10358602553606033, 0.10985752195119858, -0.02142906002700329, 0.09796277433633804, -0.04239838942885399, 0.038270168006420135, -0.10465969145298004, 0.1581055372953415, -0.06251242756843567, 0.07205580174922943, 0.07083509117364883, 0.06805664300918579, -0.03961805999279022, -0.10181670635938644, 0.08508270233869553, 0.02201741933822632, -0.13269837200641632, -0.08164434880018234, 0.07795184850692749, 0.02627996727824211, 0.07723093777894974, 0.0028236310463398695, 0.046421416103839874, -0.108360655605793, 0.03790949657559395, -0.028750309720635414, 0.04506007581949234, -0.035273779183626175, -0.06838815659284592, 0.00483543099835515, -0.10812753438949585, -0.022354429587721825, 0.14776510000228882, -0.030517661944031715, 0.13176730275154114, 0.09581547975540161, -0.013561696745455265, -0.024042505770921707, -0.06612678617238998, -0.06956949830055237, -0.05040750280022621, 0.05859566479921341, -0.030576437711715698, -0.11295446008443832, -0.060369741171598434, -0.016797836869955063, -0.07685244828462601, -0.04807019978761673, 0.06966681778430939, 0.08213379234075546, -0.08966675400733948, 0.042210474610328674, -0.12045612186193466, 0.040513720363378525, -0.028271235525608063, 0.050958164036273956, -0.008796668611466885, 0.06928129494190216, 0.12120600044727325, 0.007421758957207203, 0.07158775627613068, 0.11511267721652985, -0.1366785615682602, 0.07716148346662521, -0.007503054570406675, 0.06405246257781982, -0.08764254301786423, 0.014364189468324184, 0.046069249510765076, -0.018133418634533882, -0.002636067569255829, -0.0029794550500810146, 0.03709303215146065, -0.034215476363897324, -0.07493575662374496, 0.08595852553844452, -0.10609803348779678, 0.1371907740831375, 0.06817461550235748, -0.13079893589019775, -0.04571031779050827, -0.09217344224452972, 0.08068589866161346, -0.07505672425031662, 0.09730079025030136, -0.04880233481526375, -0.03682611882686615, 0.07111886888742447, -0.1039963960647583, 0.05097636952996254, -0.04291686415672302, -0.0928555577993393, 0.08610827475786209, 0.013928077183663845, -0.011635216884315014, 0.07531370222568512, 0.016079939901828766, -0.06649953126907349, -0.033766794949769974, -0.06828656047582626, 0.0629412829875946, 0.03164348006248474, 0.07279067486524582, 0.10348989069461823, 0.06844832748174667, 0.03898221626877785, 0.08873067051172256, 0.014407483860850334, 0.09934418648481369, 0.08931465446949005, 0.06362248212099075, -0.08301056921482086, 0.033760782331228256, -0.015697797760367393, -0.09320221841335297, -0.05957035720348358, 0.07094720751047134, -0.08036455512046814, 0.042278535664081573, -0.05192641541361809, 0.08452004194259644, -0.04419194161891937, 0.12195536494255066, -0.01544745173305273, 0.022904036566615105, -0.08819548040628433, 0.0858207643032074, 0.053939834237098694, 0.057913802564144135, 0.09429015964269638, 0.0497150644659996, 0.07407624274492264, 0.0754745826125145, 0.03691519796848297, 0.08968346565961838, -0.02837626077234745, 0.09994296729564667, 0.043296169489622116, 0.0837915763258934, 0.03540263697504997, 0.10871195048093796, -0.08325114101171494, -0.0350162610411644, 0.014158261939883232, 0.05977766215801239, -0.10596439242362976, 0.04942113906145096, 0.07035059481859207, -0.02913517877459526, 0.026232747361063957, -0.028277095407247543, 0.08547191321849823, 0.04831676185131073, 0.12292086333036423, -0.027785709127783775, 0.09955692291259766, 0.08510385453701019, -0.010994707234203815, -0.04095960035920143, 0.08967789262533188, -0.06160523369908333, 0.019504355266690254, 0.09546156227588654, 0.021748630329966545, 0.09044099599123001, 0.024884168058633804, -0.07407922297716141, 0.12358883768320084, 0.05521523207426071, 0.11577758938074112, -0.08399049937725067, -0.10899452120065689, -0.07476525753736496, 0.06369861960411072, 0.08290921896696091, 0.14430579543113708, 0.08985994756221771, -0.05676833540201187, -0.06439671665430069, 0.09345339983701706, -0.06014653667807579, 0.03606954962015152, -0.05525337904691696, 0.06346586346626282, 0.08068148791790009, 0.14486214518547058, 0.07274626195430756, -0.10253541171550751, -0.07942526787519455, 0.08986589312553406, 0.03934132680296898, 0.07937988638877869, -0.025714684277772903, -0.03892270103096962, 0.10651092231273651, -0.04533183574676514, 0.1080164760351181, -0.032229553908109665, 0.08655568212270737, -0.009096427820622921, 0.10296274721622467, -0.13774661719799042, -0.03443019092082977, 0.07777807116508484, -0.10690028965473175, -0.140152707695961, 0.011791562661528587, 0.020532062277197838, 0.12151353061199188, 0.08030827343463898, -0.10063216835260391, 0.06654641032218933, -0.014131840318441391, -0.07314758747816086, -0.024804474785923958, -0.06420255452394485, -0.04640331491827965, -0.06520398706197739, 0.1050950437784195, -0.08417591452598572, -0.10302400588989258, 0.10934121906757355, 0.006868492346256971, -0.09337365627288818, -0.03615530580282211, -0.0387958288192749, -0.0768027976155281, 0.022027604281902313, -0.06583832204341888, -0.03340647369623184, -0.036642979830503464, -0.07163318991661072, -0.0884944349527359, -0.0114936837926507, -0.09660113602876663, 0.05297449231147766, -0.05336284264922142, 0.04093753173947334, 0.14791339635849, -0.052543945610523224, -0.03359499201178551, 0.0377175509929657, 0.05471699312329292, 0.007715592626482248, 0.010083010420203209, 0.10303516685962677, 0.09117169678211212, -0.05586351081728935, -0.05435504391789436, 0.06614010781049728, 0.04720211401581764, -0.07018005847930908, -0.07041187584400177, 0.02314448356628418, -0.0635276511311531, -0.06120013818144798, 0.008766288869082928, -0.053036000579595566, -0.022759756073355675, -0.07082640379667282, -0.08737543225288391, -0.07051245123147964, -0.06315696984529495, 0.04642913490533829, 0.05143379047513008, 0.10577264428138733, 0.07354456931352615, -0.14465411007404327, 0.001929404796101153, 0.11396631598472595, -0.08193027973175049, -0.018103694543242455, -0.015407457947731018, 0.09533490985631943, 0.0011482794070616364, -0.10964199900627136, -0.04515431076288223, 0.0032776936423033476, 0.040515217930078506, 0.08342508971691132, -0.022299299016594887, 0.05294903367757797, -0.02358880080282688, -0.012809379026293755, -0.006377515383064747, 0.0500837080180645, -0.05345146358013153, -0.057494595646858215, -0.0650402307510376, 0.048733990639448166, 0.12152644991874695, -0.13105864822864532, 0.01378707680851221, -0.07232065498828888, -0.07697151601314545, -0.04475714638829231, 0.08318275213241577, -0.053655605763196945, -0.03536578640341759, -0.015380628407001495, 0.0904664471745491, 0.0664016604423523, 0.09136191010475159, -0.05525095760822296, -0.059081919491291046, -0.017955254763364792, 0.007508535869419575, -0.10445909202098846, 0.011466561816632748, -0.06294626742601395, -0.07159686833620071, 0.12000817060470581, -0.06552613526582718, 0.0883440300822258, 0.0472845695912838, 0.03196696564555168, 0.09795618057250977, -0.032244857400655746, -0.06639107316732407, 0.07889188826084137, 0.07789469510316849, -0.04571634903550148, 0.07333454489707947, 0.025859232991933823, 0.023282963782548904, 0.014482954517006874, -0.013337790966033936, 0.033941205590963364, 0.0590561218559742, -0.020527785643935204, 0.04308164492249489, -0.08632069081068039, -0.10780629515647888, 0.0027273837476968765, 0.05460379272699356, 0.004260460380464792, -0.00033998253638856113, 0.07812807708978653, -0.011515437625348568, 0.10767995566129684, -0.028417522087693214, 0.004392735194414854, 0.008738481439650059, -0.10561192780733109, 0.07885908335447311, -0.08856279402971268, -0.02601691335439682, -0.0843936875462532, -0.11243883520364761, 0.08078193664550781, -0.08362384140491486, -0.09176663309335709, -0.020141543820500374, -0.09231528639793396, -0.07008220255374908, 0.09348468482494354, 0.09893962740898132, -0.09268283098936081, 0.03411620855331421, -0.052038174122571945, -0.08484822511672974, 0.07618152350187302, 0.06612139940261841, 0.0883520171046257, -0.06663163006305695, 0.08674193918704987, 0.026180211454629898, 0.12060866504907608, 0.13148662447929382, -0.09025362879037857, 0.025574859231710434, 0.04756602272391319, 0.08254382759332657, 0.06679629534482956, 0.011038543656468391, 0.12678851187229156, -0.01576532982289791, -0.0498817004263401, 0.02387731522321701, 0.11403593420982361, 0.05564725771546364, 0.06324153393507004, -0.08581402152776718, 0.011986853554844856, 0.018703900277614594, -0.08660297840833664, -0.0802011787891388, -0.05945717170834541, 0.07312864810228348, -0.11673751473426819, -0.0888877660036087, -0.023324115201830864, 0.007443282287567854, -0.08361416310071945, 0.041688498109579086, 0.00630196975544095, -0.020184829831123352, 0.03793739899992943, -0.02029140666127205, 0.06582073867321014, 0.0047956244088709354, 0.041195593774318695, 0.022678369656205177, 0.007604329381138086, 0.07132790237665176, 0.0835704430937767, 0.07366883009672165, 0.05536165460944176, 0.017970535904169083, -0.11053971946239471, -0.0540260449051857, 0.0037000994198024273, 0.06690768897533417, 0.10684390366077423, -0.0526815764605999, 0.07126481086015701, 0.02774931490421295, -0.1029295101761818, -0.10255368798971176, 0.1441112607717514, -0.052067648619413376, 0.08936633169651031, -0.015243109315633774, 0.014789959415793419, -0.07440335303544998, -0.10764983296394348, -0.02710297331213951, -0.05565489083528519, 0.04770401492714882, 0.008457672782242298, 0.09057317674160004, -0.06051863729953766, 0.04136939346790314, -0.003569803200662136, -0.010181852616369724, -0.059834133833646774, -0.03943871334195137, -0.09001297503709793, -0.10766059905290604, -0.006874025799334049, 0.12881051003932953, 0.07533341646194458, -0.076263926923275, 0.07301254570484161, -0.10497045516967773, -0.03935673460364342, -0.10709695518016815, -0.037572626024484634, 0.02231740579009056, 0.10900864005088806, 0.11453792452812195, 0.08319159597158432, 0.0497572235763073, 0.01075704861432314, -0.08441323786973953, -0.011906835250556469, 0.03417043015360832, -0.10214938223361969, -0.10352122783660889, -0.10354640334844589, 0.1135958805680275, 0.025971800088882446, -0.017169099301099777, -0.04975343123078346, 0.002700615208595991, 0.01122765988111496, -0.022958358749747276, 0.03603313863277435, -0.0231461301445961, 0.0627584457397461, 0.018268214538693428, 0.08693509548902512, -0.06872990727424622, -0.08426925539970398, 0.027722148224711418, 0.14114871621131897, 0.04196816310286522, -0.08265022188425064, 0.11824299395084381, -0.10465498268604279, 0.09409269690513611, -0.07375101745128632, -0.1202913150191307, -0.027080869302153587, -0.06383559107780457, 0.013902286067605019, -0.030673841014504433, -0.029453331604599953, -0.04326428100466728, 0.10185103863477707, 0.04636216536164284, 0.010468910448253155, -0.09268753975629807, -0.05859888345003128, -0.07034306228160858, -0.09107311069965363, -0.052553508430719376, -0.11052704602479935, 0.055980097502470016, 0.06389284878969193, 0.07634109258651733, 0.036329519003629684, 0.08471687883138657, 0.0937780886888504, 0.003814292373135686, -0.05152727663516998, 0.07893260568380356, 0.055381473153829575, 0.08351275324821472, -0.027019495144486427, -0.06389568746089935, -0.09852596372365952, -0.028604883700609207, -0.06119275093078613, -0.029944749549031258, 0.0827823057770729, 0.04623107612133026, -0.0917532816529274, -0.0920608788728714, 0.05223584175109863, 0.014255695044994354, 0.13490140438079834, 0.05472804233431816, -0.09896141290664673, 0.0025228355079889297, 0.055536899715662, -0.09320468455553055, 0.017331011593341827, 0.051322318613529205, -0.1632198691368103, -0.006079384591430426, 0.049391504377126694, -0.12951165437698364, 0.04489896446466446, 0.012812960892915726, 0.04516420140862465, 0.08866230398416519, -0.03706730157136917, 0.03196435421705246, 0.015144063159823418, -0.06676395237445831, -0.025985296815633774, 0.08211658895015717, -0.11019782721996307, 0.10174088180065155, -0.05486283078789711, 0.03677394986152649, 0.06839790940284729, 0.1119132712483406, 0.06938329339027405, -0.039433803409338, 0.07678098231554031, 0.11943681538105011, 0.09875268489122391, 0.03082534670829773, 0.047765981405973434, -0.04471101611852646, 0.03574087470769882, -0.00554618239402771, 0.0568525455892086, 0.08147943019866943, 0.03067975677549839, -0.006072490941733122, -0.03567257896065712, -0.0073602148331701756, 0.10574611276388168, -0.06435935199260712, -0.001373660983517766, 0.05209176242351532, -0.08897155523300171, 0.004102496895939112, 0.06341497600078583, -0.010105585679411888, -0.011819744482636452, -0.08049619197845459, 0.05875725671648979, 0.07409170269966125, -0.06603313982486725, -0.12537769973278046, -0.09561517834663391, -0.0011968211038038135, -0.08630169928073883, -0.01352806854993105, -0.07706036418676376, 0.008774444460868835, -0.06995037943124771, 0.025281162932515144, 0.09663884341716766, 0.005382913164794445, 0.025793639943003654, 0.07522421330213547, 0.07896166294813156, 0.04237111657857895, -0.06538395583629608, -0.09688607603311539, -0.10058142989873886, -0.07827024906873703, -0.04838724806904793, 0.08327523618936539, -0.021561089903116226, -0.024796824902296066, -0.039583250880241394, -0.06163323298096657, -0.09205541759729385, 0.06504650413990021, 0.06293895840644836, -0.11833161115646362, 0.10596340149641037, 0.01664082333445549, -0.03225959837436676, -0.07952549308538437, -0.007703155744820833, -0.08228545635938644, -0.08813460171222687, -0.08071259409189224, 0.06543142348527908, -0.11311997473239899, -0.022511864081025124, 0.0060313367284834385, 0.10740380734205246, -0.015416711568832397, -0.13509248197078705, -0.022606249898672104, -0.06555672734975815, 0.043705884367227554, 0.014218331314623356, -0.044687170535326004, -0.14166107773780823, 0.09352490305900574, -0.05717742443084717, -0.0823805183172226, -0.07672572880983353, -0.020683685317635536, 0.01154059637337923, 0.07301973551511765, -0.08557364344596863, -0.004491033963859081, -0.07636235654354095, 0.12992741167545319, -0.08755671232938766, -0.15720662474632263, 0.09749504178762436, 0.03805820643901825, 0.045376695692539215, -0.027606256306171417, -0.06073490530252457, -0.10371081531047821, 0.02341616526246071, 0.02718326449394226, -0.06814499944448471, -0.09466986358165741, -0.0501626580953598, 0.004737475421279669, -0.07204696536064148, 0.10940201580524445, -0.047839704900979996, -0.08782389760017395, -0.00430278992280364, 0.07946142554283142, 0.11270153522491455, -0.11288421601057053, -0.08365583419799805, 0.11621948331594467, -0.09087666124105453, 0.025649312883615494, 0.006442502606660128, -0.01710267923772335, 0.00015770095342304558, 0.027510954067111015, -0.03818221017718315, 0.05484184995293617, 0.05438736081123352, -0.026230916380882263, -0.0015392214991152287, -0.022334344685077667, 0.09005263447761536, 0.07803390175104141, 0.06617224961519241, 0.06938394904136658, -0.007549345958977938, -0.0021037280093878508, 0.1185440942645073, 0.05310233682394028, -0.12615644931793213, -0.06343574076890945, 0.16696840524673462, -0.04533689096570015, 0.1326112598180771, 0.13584618270397186, -0.042167194187641144, 0.07100139558315277, 0.10389161854982376, 0.0357995480298996, -0.012724963016808033, 0.13251222670078278, -0.016606628894805908, 0.049818240106105804, 0.11538882553577423, -0.1212850883603096, -0.022884799167513847, -0.04174048453569412, -0.10087943822145462, -0.0997171700000763, 0.005014645867049694, 0.10750149190425873, -0.060233332216739655, -0.0223233625292778, 0.08223316073417664, 0.09316348284482956, 0.0017785243690013885, 0.004309565294533968, -0.07545090466737747, -0.015022406354546547, 0.062364108860492706, 0.0055645485408604145, -0.08953627943992615, 0.01990177109837532, 0.05138701945543289, -0.03241554647684097, -0.06583225727081299, -0.10595078021287918, -0.08247280865907669, -0.01936318725347519, 0.0005864839185960591, -0.09611041098833084, -0.005818767473101616, 0.0989101380109787, 0.08302561193704605, -0.026985688135027885, 0.09709081798791885, 0.06870468705892563, -0.08362513780593872, 0.009356725960969925, -0.033525943756103516, -0.006799602881073952, 0.005532409995794296, -0.01594614051282406, 0.020014304667711258, 0.0010791929671540856, 0.13021308183670044, 0.006588767748326063, 0.08528247475624084, 0.009022239595651627, -0.07026740163564682, 0.06947404891252518, 0.09315565973520279, 0.02913699299097061, -0.05771900340914726, 0.031114278361201286, 0.02348247915506363, 0.11522363871335983, -0.028285326436161995, 0.09882508963346481, 0.13993464410305023, -0.12562622129917145, -0.14639177918434143, 0.013947807252407074, 0.09212594479322433, -0.0034133032895624638, 0.02804861217737198, -0.0611112155020237, 0.13563932478427887, 0.16356663405895233, 0.08953572809696198, -0.046611253172159195, 0.012973197735846043, 0.029273975640535355, 0.144861102104187, -0.04906176030635834, -0.04305068776011467, 0.099753737449646, 0.044397804886102676, 0.03503585234284401, -0.12515412271022797, 0.060923684388399124, 0.09623759239912033, -0.022361448034644127, 0.09328076988458633, 0.07753042876720428, -0.03964895382523537, 0.1090259850025177, -0.06324348598718643, -0.001142796827480197, -0.15479634702205658, -0.06723035871982574, -0.07180019468069077, -0.016482891514897346, -0.08171021938323975, -0.06355679035186768, -0.13205558061599731, -0.03028731606900692, -0.059489957988262177, 0.01560903899371624, -0.14300373196601868, -0.07796087116003036, -0.12308797240257263, -0.04428380727767944, 0.01535001304000616, -0.058817315846681595, -0.04311606287956238, 0.10237493366003036, -0.006109337322413921, 0.008963603526353836, 0.0012996618170291185, 0.07692647725343704, 0.10307896137237549, 0.009212039411067963, 0.047418855130672455, -0.1138949766755104, 0.06507252901792526, -0.007327243685722351, 0.04187019169330597, -0.0015591466799378395, -0.05699821189045906, 0.05728505551815033, -0.04034515470266342, 0.061714403331279755, 0.018264111131429672, -0.07729355990886688, 0.12548498809337616, -0.05407417193055153, 0.07036763429641724, 0.0016014627180993557, -0.031091777607798576, 0.020126888528466225, 0.02898256853222847, 0.09261184185743332, 0.01738671399652958, 0.05222095549106598, -0.0122084254398942, -0.1146683320403099, 0.05817422643303871, -0.08531684428453445, 0.06092654541134834, -0.09397231787443161, -0.11332542449235916, -0.04558844864368439, 0.06326749175786972, 0.05244123935699463, -0.06443174928426743, -0.02472591958940029, -0.013960417360067368, -0.014832272194325924, -0.041469912976026535, -0.004448932129889727, 0.029957929626107216, -0.1283823400735855, 0.04893560707569122, -0.08200466632843018, 0.041946567595005035, 0.07043515145778656, -0.09632131457328796, 0.05352103337645531, -0.0524798259139061, 0.09724116325378418, 0.014559108763933182, 0.019739951938390732, 0.17027996480464935, -0.06800980865955353, 0.08211766183376312, -0.09123748540878296, -0.020630694925785065, -0.05263405293226242, -0.015237778425216675, 0.07986641675233841, 0.12064259499311447, 0.06400174647569656, 0.09532622247934341, -0.15184012055397034, 0.1549527645111084, -0.004153963644057512, 0.11662798374891281, -0.14049550890922546, -0.06065382808446884, 0.0003525087086018175, -0.020063674077391624, 0.1248864084482193, 0.02528068982064724, -0.08237523585557938, -0.05692644417285919, -0.09929085522890091, -0.07282029092311859, 0.10428646206855774, 0.11067741364240646, -0.040802545845508575, -0.09689195454120636, 0.023440182209014893, 0.004095844458788633, 0.043020088225603104, -0.11335460096597672, 0.16727106273174286, 0.05149095132946968, -0.012702579610049725, 0.05016893893480301, -0.1346646249294281, -0.1383010894060135, -0.07649610191583633, -0.12584976851940155, 0.11562497913837433, -0.005779879633337259, 0.04492862895131111, -0.17208895087242126, 0.1283605396747589, -0.14186511933803558, 0.10322932153940201, -0.0012508457293733954, 0.07380376011133194, -0.1450398564338684, 0.041577134281396866, -0.053545933216810226, -0.05977264419198036, 0.008704164996743202, -0.11463779211044312, -0.04958502948284149, 0.11621128022670746, -0.09680153429508209, -0.08567450195550919, 0.006814625114202499, 0.07168783992528915, 0.13159732520580292, -0.13423986732959747, 0.04700266942381859, -0.051831573247909546, -0.035349611192941666, -0.03512255474925041, -0.01773674599826336, 0.00806739553809166, -0.05435862019658089, -0.03246001899242401, 0.09368397295475006, -0.07736078649759293, -0.08801479637622833, -0.07469162344932556, 0.03170633688569069, -0.0008611331577412784, 0.008447157219052315, 0.027164828032255173, 0.10195013135671616, 0.14738419651985168, -0.023780427873134613, 0.05666843429207802, 0.07270291447639465, -0.10309889912605286, 0.047459110617637634, -0.0003144182846881449, -0.04763517528772354, 0.018912028521299362, 0.02769860439002514, 0.019911546260118484, -0.08846984803676605, 0.07659709453582764, -0.0039047966711223125, 0.08923284709453583, 0.012231914326548576, 0.10061825811862946, -0.020565586164593697, -0.03614805266261101, -0.07889455556869507, -0.0510423369705677, 0.08107777684926987, 0.009939387440681458, -0.03726045787334442, -0.1116122305393219, 0.04553994536399841, -0.00826766062527895, -0.10559467226266861, -0.04656711965799332, 0.04323762282729149, 0.027457596734166145, 0.06312505155801773, 0.0142826484516263, 0.03523387014865875, -0.09773936122655869, 0.10428887605667114, -0.059816874563694, -0.003708235453814268, -0.005881546530872583, 0.023757698014378548, 0.11541979014873505, -0.014713733457028866, -0.003971016965806484, -0.09110558032989502, 0.042036913335323334, 0.002108402317389846, -0.14298859238624573, 0.019848862662911415, -0.04303888604044914, 0.028086932376027107, -0.029817670583724976, 0.01733223721385002, -0.05089288577437401, -0.03204239159822464, -0.021433120593428612, -0.08319389820098877, -0.03957214578986168, 0.0865224227309227, 0.02306581847369671, 0.08023914694786072, -0.028256187215447426, 0.06840053200721741, -0.12411481887102127, -0.047962259501218796, -0.07616017758846283, -0.032676734030246735, 0.08144360035657883, -0.0883355364203453, 0.1045524924993515, 0.10016574710607529, -0.033409085124731064, 0.05642475187778473, 0.08420570194721222, 0.031616128981113434, 0.09207197278738022, -0.08761774003505707, 0.08857546001672745, 0.09586545825004578, 0.07803156226873398, 0.027022244408726692, 0.02807220071554184, -0.09855847805738449, -0.10872644186019897, 0.008379186503589153, 0.010530829429626465, 0.011887358501553535, 0.09467426687479019, 0.07878781855106354, 0.06111641600728035, -0.01662110537290573, 0.04734526202082634, -0.03915031999349594, 0.015186285600066185, -0.07209236919879913, -0.01514445524662733, -0.054452426731586456, -0.05262951925396919, 0.03508486971259117, -0.0733441412448883, -0.05231579765677452, -0.04894339665770531, -0.04726127162575722, -0.027161002159118652, 0.04595230147242546, -0.12708130478858948, -0.10825986415147781, -3.7726174923591316e-05, 0.1418135166168213, 0.03613763302564621, 0.04247649013996124, 0.020496230572462082, 0.037530943751335144, -0.09971728175878525, 0.0730295330286026, 0.0723646804690361, -0.004462850280106068, 0.08733391761779785, -0.06897639483213425, 0.006168757099658251, 0.0311012901365757, -0.14266079664230347, -0.08246643841266632, 0.11486975103616714, -0.011639543808996677, -0.057862572371959686, 0.023085860535502434, 0.13507138192653656, 0.08788704872131348, -0.05060939863324165, 0.03474010154604912, -0.033198319375514984, 0.06186683475971222, -0.04130120202898979, -0.03775598853826523, 0.04345998913049698, -0.018576031550765038, -0.06030222773551941, -0.07312996685504913, -0.11367201060056686, -0.007847004570066929, -0.04032314196228981, -0.07151277363300323, -0.08087094873189926, -0.018781062215566635, 0.007458611391484737, -0.11971095204353333, 0.056942857801914215, 0.009453428909182549, -0.014935106970369816, 0.07875336706638336, -0.10169695317745209, 0.09014344215393066, 0.10904387384653091, -0.06699496507644653, -0.09482752531766891, -0.04044082760810852, -0.014416561461985111, 0.08035024255514145, -0.10878909379243851, -0.0004201600677333772, 0.07615827023983002, 0.06496278196573257, 0.01228140015155077, 0.017352430149912834, 0.05156899243593216, 0.02971413917839527, 0.08736199885606766, 0.09278752654790878, -0.02412346564233303, 0.0630795955657959, -0.04473552852869034, 0.032173771411180496, -0.0689225122332573, -0.038026731461286545, 0.003737677587196231, -0.0029767956584692, -0.10733772814273834, 0.1144142597913742, -0.060114406049251556, 0.04119691997766495, -0.07752267271280289, 0.11500952392816544, 0.05916944891214371, -0.047852978110313416, 0.10771249234676361, 0.023562775924801826, -0.08299084007740021, 0.045199427753686905, -0.029849082231521606, -0.09628483653068542, 0.01873890869319439, 0.05889592692255974, -0.08676648139953613, 0.06802751123905182, -0.01861749030649662, 0.014113844372332096, 0.10085249692201614, 0.08815179765224457, -0.06635157763957977, 0.08290128409862518, 0.046819157898426056, 0.0923372283577919, -0.09912464767694473, -0.09213701635599136, -0.09477581828832626, -0.12292426824569702, -0.0405539907515049, -0.05469673499464989, 0.060831695795059204, -0.12868450582027435, 0.12597185373306274, -0.02708129771053791, 0.07999030500650406, -0.09829386323690414, -0.021719643846154213, -0.03092062845826149, -0.1059521809220314, -0.030074747279286385, -0.032489974051713943, -0.09424193948507309, 0.06725816428661346, 0.03595711663365364, -0.10148239135742188, -0.11664792150259018, -0.04026350751519203, 0.06633921712636948, 0.0061985827051103115, -0.02159462682902813, 0.019554659724235535, 0.040762756019830704, 0.09508069604635239, 0.09920364618301392, 0.002981913276016712, 0.009963109157979488, -0.0946837067604065, -0.10334084928035736, -0.1304837465286255, -0.05120142921805382, -0.06439853459596634, -0.009612283669412136, 0.08487250655889511, 0.04721173271536827, -0.05728008970618248, -0.05900135263800621, -0.01202197466045618, 0.04498384892940521, 0.009972328320145607, -0.08153274655342102, -0.11665993183851242, -0.018280411139130592, 0.08838436752557755, -0.055522095412015915, 0.02624562196433544, 0.03411531075835228, -0.0755150094628334, 0.0522390715777874, -0.011069312691688538, -0.072035051882267, -0.11741461604833603, 0.08448716253042221, 0.015459360554814339, 0.02393849566578865, 0.024236835539340973, -0.035801082849502563, 0.10951361060142517, 0.023932086303830147, -0.053574688732624054, -0.04259374365210533, -0.040813952684402466, -0.005790680181235075, -0.03175755962729454, 0.0714670941233635, 0.10954779386520386, -0.04444035142660141, 0.025000423192977905, -0.09606326371431351, 0.005795944947749376, 0.10194390267133713, -0.03223692625761032, -0.030402973294258118, 0.1035509929060936, 0.10301746428012848, -0.0621233694255352, 0.011197405867278576, 0.00815828051418066, -0.10072076320648193, 0.02865149825811386, 0.016646193340420723, -0.05049683526158333, -0.07184553146362305, 0.03961683064699173, 0.016276123002171516, -0.05908651649951935, 0.11018527299165726, -0.09194391220808029, 0.08806972205638885, -0.0223788283765316, -0.05315106362104416, -0.05796236917376518, 0.07910904288291931, -0.03682827204465866, -0.018928442150354385, -0.046176206320524216, -0.004314127378165722, -0.04302193969488144, 0.010543997399508953, -0.022374095395207405, -0.11245892196893692, -0.02171737141907215, -0.13434675335884094, 0.05963389202952385, -0.027008067816495895, 0.05214569717645645, 0.09415409713983536, 0.06939908117055893, 0.011047095991671085, -0.011353622190654278, -0.06548824161291122, 0.09153235703706741, 0.05862000584602356, 0.06467348337173462, 0.03869945928454399, -0.0049545918591320515, 0.014914002269506454, -0.1101430132985115, 0.07916006445884705, -0.052088651806116104, -0.07161837071180344, -0.04178775101900101, 0.03301582857966423, -0.0123062152415514, -0.004081625025719404, -0.07142950594425201, -0.007748489733785391, 0.022376852110028267, -0.04348568245768547, -0.11572929471731186, -0.036935240030288696, -0.009178620763123035, -0.08806678652763367, 0.049252647906541824, -0.04980378970503807, 0.0745619609951973, -0.10560249537229538, 0.06152280047535896, 0.06517617404460907, 0.08781781047582626, -0.010088009759783745, 0.09685979038476944, 0.08662266284227371, -0.07676738500595093, 0.051682498306035995, -0.0910249724984169, -0.045842524617910385, 0.12265028059482574, -0.07216336578130722, 0.06717327237129211, 0.08200305700302124, -0.08765282481908798, -0.0005689990357495844, -0.12343300133943558, -0.037007272243499756, 0.13283765316009521, -0.028893757611513138, 0.05596797168254852, 0.06833287328481674, 0.10480576008558273, -0.05863913521170616, -0.08140476793050766, 0.05115904659032822, 0.062013279646635056, -0.07891261577606201, 0.020884279161691666, 0.09588641673326492, -0.08003566414117813, -0.02329120971262455, 0.09103678166866302, 0.03796974942088127, -0.04305408522486687, 0.06865046173334122, 0.04229116439819336, -0.002625058637931943, -0.009756327606737614, 0.042770639061927795, 0.033107731491327286, -0.07053717225790024, 0.01440708339214325, 0.06692968308925629, -0.08719086647033691, 0.027086099609732628, 0.02728269435465336, 0.0847984105348587, 0.035299353301525116, 0.1027136743068695, -0.027760228142142296, 0.11746738851070404, 0.014351572841405869, -0.017330989241600037, -0.05565155670046806, -0.02494792826473713, -0.08499889075756073, -0.06779790669679642, -0.014664065092802048, -0.030161892995238304, 0.12601704895496368, 0.0766359195113182, -0.0010909301927313209, 0.09379644691944122, 0.07219993323087692, 0.1110122874379158, 0.11125707626342773, 0.0064344885759055614, 0.04685810208320618, 0.056950174272060394, -0.06746943295001984, -0.05814201384782791, 0.01172279380261898, -0.012929902411997318, 0.0038439768832176924, -0.007207766640931368, -0.06421653181314468, -0.105770543217659, 0.018929285928606987, -0.011196150444447994, 0.061769209802150726, 0.006128407549113035, -0.05637389048933983, 0.030705180019140244, 0.07945720851421356, 0.05470115691423416, -0.02355954609811306, 0.10601897537708282, 0.0588778555393219, 0.0007925303070805967, -0.08452586084604263, 0.014074086211621761, -0.055847737938165665, -0.105414018034935, 0.11515403538942337, 0.08667916804552078, 0.10601861029863358, -0.04352908581495285, -0.012719874270260334, -0.00023286897339858115, -0.03222193568944931, 0.011409813538193703, -0.12116784602403641, 0.06837480515241623, -0.08058220148086548, 0.07887797802686691, -0.022745802998542786, -0.03662728890776634, -0.0532694011926651, -0.0607660710811615, -0.01927005685865879, 0.003926617559045553, 0.05918059125542641, 0.09272921830415726, -0.06318593770265579, -0.020392589271068573, -0.018537238240242004, 0.013032583519816399, -0.012913229875266552, 0.010778533294796944, -0.07852867245674133, 0.035686787217855453, -0.01653372496366501, 0.024951906874775887, -0.010519448667764664, -0.07455535233020782, 0.0039874715730547905, 0.08719627559185028, -0.11581871658563614, -0.06025129556655884, -0.10033342987298965, 0.004636306315660477, -0.09295494109392166, -0.0816902443766594, -0.05573483183979988, -0.04592142254114151, 0.083460733294487, 0.05396057665348053, -0.053203973919153214, -0.09206389635801315, 0.10540745407342911, -0.090633824467659, 0.026824062690138817, 0.07122098654508591, -0.1193661168217659, 3.418270352995023e-05, 0.04844037815928459, 0.08514612913131714, -0.011874171905219555, -0.11591094732284546, 0.10114843398332596, -0.12343820184469223, 0.060819655656814575, -0.02929387427866459, 0.03693276271224022, 0.0015988569939509034, 0.0114279268309474, -0.06943418830633163, 0.028407420963048935, 0.09910637140274048, -0.014348512515425682, 0.04052887111902237, 0.07971922308206558, -0.05467776954174042, -0.06213439255952835, 0.06939928978681564, -0.032609645277261734, -0.022118115797638893, -0.036487847566604614, 0.04178024083375931, -0.1011454239487648, -0.09368858486413956, 0.0022030919790267944, 0.035453785210847855, 0.01855488307774067, 0.03039063885807991, 0.0754319578409195, 0.014359342865645885, 0.10194580256938934, 0.023789232596755028, -0.07641950249671936, 0.0724293515086174, 0.04188356548547745, 0.013830524869263172, -0.04506634175777435, 0.0559503436088562, 0.04247935488820076, 0.007404517848044634, -0.0750831663608551, 0.009842557832598686, 0.08343151211738586, -0.09211485087871552, -0.014781590551137924, -0.0014898848021402955, 0.0680827721953392, -0.06216773763298988, -0.07954973727464676, 0.09519167989492416, 0.09873286634683609, 0.09395501762628555, -0.01798630878329277, -0.06153249740600586, 0.1051785871386528, 0.03027363494038582, -0.08316352218389511, -0.1048947125673294, -0.13589760661125183, 0.08754757046699524, 0.10142622143030167, -0.10475126653909683, 0.028929851949214935, -0.10050788521766663, 0.06866276264190674, -0.11496559530496597, -0.016337476670742035, 0.0651308074593544, 0.041363511234521866, 0.04445210099220276, 0.11266007274389267, -0.06740641593933105, 0.007690342143177986, -0.1620592176914215, -0.016055867075920105, -0.013620240613818169, 0.03390691801905632, -0.008458106778562069, 0.1151767298579216, -0.15380822122097015, -0.08526758849620819, -0.04559239372611046, 0.018911706283688545, 0.038984514772892, 0.09551739692687988, -0.009392276406288147, 0.05944383516907692, -0.009667911566793919, 0.11307498067617416, 0.045257817953825, -0.037123385816812515, 0.09197794646024704, 0.015987204387784004, -0.09974559396505356, -0.0944063812494278, -0.06808561831712723, 0.010812989436089993, 0.023845816031098366, 0.016792776063084602, 0.06103671342134476, 0.01660851575434208, 0.05726918205618858, 0.03832320123910904, 0.04196055978536606, 0.009886367246508598, 0.027822179719805717, -0.06626516580581665, 0.006963813211768866, 0.06974517554044724, -0.012075393460690975, 0.12405060231685638, -0.05870625376701355, 0.028811339288949966, 0.006353605072945356, -0.032171860337257385, -0.005997277330607176, 0.05521049350500107, -0.08368631452322006, -0.06640303879976273, -0.026311619207262993, -0.027247486636042595, 0.14400030672550201, -0.0021748861763626337, -0.12642750144004822, 0.016642605885863304, 0.03549070656299591, -0.006000634282827377, 0.0029623503796756268, 0.12069748342037201, 0.15391549468040466, 0.07697910815477371, 0.08989836275577545, 0.05516328290104866, 0.02309335395693779, -0.10401273518800735, 0.04449620842933655, -0.021767135709524155, 0.009542004205286503, 0.0764872133731842, 0.07167527079582214, -0.04727355018258095, -0.13959930837154388, -0.06300999969244003, -0.033278997987508774, 0.00012672336015384644, 0.0037388326600193977, 0.0975942611694336, 0.08274171501398087, 0.04253661632537842, 0.03374253585934639, 0.055268872529268265, 0.01621626876294613, 0.09639137238264084, -0.0027567283250391483, -0.03051435388624668, 0.0117727005854249, -0.08349667489528656, -0.10103088617324829, 0.007593488786369562, 0.07554827630519867, 0.05853353068232536, -0.11321906000375748, -0.04025096446275711, -0.018408261239528656, -0.10663257539272308, -0.09449003636837006, -0.06535566598176956, 0.027934683486819267, -0.05138060823082924, 0.0483921654522419, 0.10841522365808487, 0.10331548005342484, -0.03980378061532974, -0.10008285194635391, -0.045229505747556686, 0.10071225464344025, -0.008925219066441059, 0.0952441543340683, -0.03407246619462967, 0.027343036606907845, -0.02567984350025654, 0.05705547332763672, 0.05874105170369148, -0.025946836918592453, 0.05748691037297249, -0.028851192444562912, 0.09160009026527405, 0.06409642100334167, -0.12282402068376541, 0.02561209909617901, 0.12827850878238678, 0.030609339475631714, -0.10744595527648926, -0.0537683330476284, -0.03529629856348038, -0.08002065122127533, 0.07666421681642532, -0.005114227999001741, -0.04509614035487175, -0.04040466248989105, -0.09700291603803635, 0.1165655106306076, 0.11556011438369751, 0.13695785403251648, 0.12919297814369202, 0.03471047803759575, 0.12096057087182999, -0.1380925476551056, -0.028285454958677292, 0.14485770463943481, 0.06408192217350006, -0.034588444977998734, -0.0656481385231018, -0.015016524121165276, 0.001292279688641429, -0.07673444598913193, 0.024055710062384605, 0.06718198210000992, -0.04088890925049782, 0.027027972042560577, -0.032930608838796616, -0.002663270803168416, 0.09959831833839417, -0.10808602720499039, 0.10563252866268158, -0.0004779953742399812, 0.030451957136392593, -0.08676714450120926, 0.06560803949832916, 0.05334391072392464, -0.038235247135162354, 0.08072315901517868, -0.037154946476221085, 0.034521978348493576, 0.03729122504591942, -0.06818599253892899, -0.03837166726589203, -0.09680531919002533, -0.017720097675919533, 0.09509699791669846, 0.05353440344333649, 0.04880676046013832, -0.045538581907749176, 0.0801616907119751, 0.0007710530771873891, -0.01584521308541298, -0.01498833391815424, 0.07548656314611435, 0.06384200602769852, 0.10116265714168549, 0.06792933493852615, -0.002911294810473919, 0.12396099418401718, 0.003936649300158024, -0.09445497393608093, -0.02348714880645275, -0.015670275315642357, -0.014500816352665424, -0.03999285399913788, 0.01382522750645876, 0.03676329925656319, 0.0707608312368393, -0.03894699737429619, 0.05726451054215431, -0.019759144634008408, -0.024480288848280907, -0.05496571213006973, 0.0861496701836586, 0.11798891425132751, 0.07047413289546967, 0.11758709698915482, -0.006145642139017582, -0.03692256286740303, 0.012500941753387451, -0.07981153577566147, 0.14886616170406342, 0.02152714692056179, 0.04675957188010216, -0.0751415267586708, 0.11629721522331238, 0.043409183621406555, -0.060153886675834656, 0.06028129532933235, -0.010608130134642124, 0.047952111810445786, 0.08193808794021606, -0.01178513653576374, -0.03114514797925949, -0.099518783390522, -0.03344025835394859, -0.07517051696777344, 0.13867643475532532, -0.18247154355049133, 0.1271933764219284, -0.08326013386249542, -0.11831870675086975, 0.08865617960691452, -0.03553216531872749, 0.06528417021036148, 0.09982480853796005, 0.06419195979833603, -0.048153653740882874, -0.23494452238082886, 0.030011797323822975, -0.013381065800786018, 0.18895037472248077, -0.1204984188079834, 0.05568896234035492, -0.08234351128339767, -0.02196286804974079, 0.06767287850379944, 0.10402248054742813, -0.037549056112766266, -0.016668716445565224, 0.005993661005049944, -0.12838277220726013, -0.10032771527767181, -0.018054645508527756, 0.08036207407712936, -0.037077780812978745, -0.04795575886964798, -0.11490946263074875, 0.056696366518735886, -0.1384589970111847, 0.05134635791182518, 0.049321021884679794, 0.1025652214884758, 0.06075335294008255, 0.003954402636736631, -0.05323803797364235, 0.12455112487077713, -0.03936949372291565, 0.113910973072052, -0.031248612329363823, -0.011219345964491367, -0.10072388499975204, -0.0358540341258049, 0.04129905253648758, 0.14142073690891266, 0.12284916639328003, 0.13852858543395996, 0.042191777378320694, 0.09259814023971558, 0.09254682064056396, 0.021991116926074028, 0.059833869338035583, -0.06142479181289673, 0.029195280745625496, 0.07444202899932861, -0.1478065401315689, 0.004163227044045925, 0.06036456301808357, -0.0035147794988006353, 0.10841638594865799, -0.05317625775933266, 0.05019805207848549, -0.06418608129024506, 0.05448503419756889, -0.05081234499812126, -0.04861533269286156, -0.047828782349824905, 0.10981928557157516, 0.11211878061294556, 0.0589456781744957, -0.08617881685495377, -0.032364390790462494, -0.016656996682286263, -0.0677008405327797, -0.09766709804534912, 0.006885553244501352, -0.072667695581913, -0.050735365599393845, 0.1107277199625969, -0.003063337644562125, 0.0344722755253315, -0.05851168930530548, 0.009762081317603588, -0.06753436475992203, 0.0687149167060852, -0.019612843170762062, 0.06885935366153717, -0.10889192670583725, 0.09297329932451248, -0.011645582504570484, 0.0868937224149704, 0.10108406096696854, -0.04104263335466385, -0.04272438958287239, 0.061214838176965714, 0.08332036435604095, 0.08314429968595505, 0.07064353674650192, -0.1226208508014679, -0.07920020818710327, 0.10456372052431107, 0.03603667765855789, -0.06497091799974442, 0.0009331688634119928, -0.0013525648973882198, -0.07418444752693176, 0.045380789786577225, 0.07596427947282791, -0.08149102330207825, 0.05576483532786369, 0.06513334065675735, 0.018208568915724754, 0.007770767901092768, -0.10597626864910126, 0.04389213025569916, 0.04267498478293419, 0.04272596910595894, -0.10273148119449615, -0.00047572675975970924, -0.03857045620679855, -0.07165618985891342, 0.09341049194335938, -0.020066184923052788, 0.014409073628485203, -0.07765071094036102, 0.0159054733812809, 0.027716200798749924, -0.08075031638145447, -0.09330920875072479, 0.014767502434551716, -0.039113499224185944, -0.04037889093160629, 0.06798339635133743, -0.158662810921669, 0.09113813936710358, 0.03610644116997719, -0.03081020899116993, 0.1489705890417099, 0.006232150364667177, 0.016932839527726173, -0.09276368468999863, -0.03600035235285759, -0.061235614120960236, -0.04699129983782768, -0.04400018975138664, 0.09173319488763809, 0.0459272563457489, -0.04282011091709137, -0.007498352788388729, 0.014250312931835651, 0.035185255110263824, 0.060631103813648224, -0.05097484216094017, -0.05212338641285896, -0.12944097816944122, 0.10189781337976456, -0.053060974925756454, -0.0031509888358414173, -0.03815877437591553, 0.006716943345963955, -0.04118940606713295, 0.047955673187971115, 0.11143065243959427, -0.10211791843175888, 0.023041512817144394, -0.05274239555001259, 0.07371032983064651, 0.08045552670955658, -0.051765307784080505, -0.015836484730243683, 0.029415873810648918, -0.09076666086912155, -0.04560161381959915, -0.0592975877225399, 0.09847595542669296, -0.07177463918924332, -0.05857542157173157, -0.06761521846055984, -0.05225992947816849, -0.003650134662166238, 0.0015404586447402835, -0.014412940479815006, 0.0124235013499856, -0.0018971111858263612, -0.01886412687599659, 0.13377785682678223, 0.08498936146497726, -0.047334566712379456, 0.05068206414580345, 0.0500829815864563, 0.029811648651957512, 0.04330885037779808, -0.07941911369562149, 0.06102436035871506, -0.074159637093544, -0.04397156834602356, 0.022230802103877068, -0.02694207802414894, -0.08476901054382324, -0.09619240462779999, -0.04654458537697792, -0.04923250526189804, -0.126840278506279, -0.027666455134749413, 0.07239951193332672, -0.06347975879907608, 0.05281785503029823, 0.012898865155875683, 0.015154093503952026, -0.0005198827711865306, -0.015400134027004242, -0.03856130316853523, -0.04911817982792854, -0.10490362346172333, 0.037051014602184296, 0.03964041918516159, -0.10304586589336395, -0.029625756666064262, 0.049945201724767685, -0.008249279111623764, -0.08650415390729904, 0.0854373648762703, 0.07819123566150665, -0.045447953045368195, 0.02370723895728588, -0.09727798402309418, 0.034043408930301666, -0.07235823571681976, -0.005918075796216726, 0.08093445748090744, -0.13408146798610687, 0.03936511278152466, 0.024670496582984924, -0.091036856174469, 0.02311895601451397, -0.03469754010438919, -0.02309778332710266, 0.08151697367429733, -0.10072997957468033, 0.04157755896449089, -0.04952429234981537, -0.09131462126970291, 0.05912284925580025, -0.05189433693885803, 0.06677070260047913, -0.09106761962175369, 0.0691651925444603, -0.004567175637930632, -0.06310019642114639, 0.009190921671688557, 0.12122315913438797, -0.0689937174320221, -0.06842970848083496, 0.05579141154885292, -0.048012565821409225, -0.014223936013877392, -0.10917419195175171, -0.013149401172995567, 0.0721903145313263, 0.06077590212225914, -0.0930030569434166, 0.005310941021889448, -0.041833553463220596, 0.05766003206372261, -0.12773358821868896, -0.024401990696787834, 0.08904074877500534, -0.09072564542293549, 0.0890531837940216, 0.07386323809623718, -0.0038345796056091785, -0.12575459480285645, 0.08811420947313309, 0.045870792120695114, 0.12017997354269028, -0.020391732454299927, -0.06463044881820679, 0.013000021688640118, -0.03520773723721504, 0.01835343800485134, 0.07581628859043121, -0.09772838652133942, -0.022356659173965454, 0.031339164823293686, -0.02079671062529087, 0.03317184001207352, -0.007610005792230368, -0.12620720267295837, 0.06845657527446747, 0.052170295268297195, 0.14041711390018463, 0.08381696790456772, -0.04866558685898781, -0.054437074810266495, -0.045607611536979675, -0.05605403333902359, -0.05214957892894745, -0.02842368744313717, -0.14377547800540924, -0.1295991986989975, 0.01840144209563732, 0.11731620132923126, 0.17071641981601715, -0.04838836193084717, -0.07922320812940598, 0.0524236336350441, -0.14242003858089447, -0.03160823881626129, 0.10045486688613892, 0.10673869401216507, -0.024642204865813255, -0.011957813054323196, 0.0022446841467171907, -0.03096764162182808, 0.05031365901231766, -0.017442895099520683, -0.00981605052947998, -0.01423887349665165, 0.006823038682341576, -0.030096381902694702, -0.026354148983955383, 0.05362518131732941, 0.04066580906510353, 0.04292142391204834, -0.0295755285769701, -0.02685011923313141, -0.08711382001638412, -0.06696800887584686, -0.019396480172872543, -0.09120694547891617, -0.08474621921777725, 0.030517179518938065, 0.06863772124052048, 0.10865692794322968, 0.0856705754995346, -0.1070224717259407, 0.020035933703184128, -0.10226677358150482, -0.033823754638433456, -0.032546523958444595, 0.014235856011509895, -0.0013086706167086959, 0.08182186633348465, -0.06625647842884064, -0.06889230757951736, -0.1191527247428894, 0.1357940286397934, 0.004969160538166761, -0.020527705550193787, -0.023144681006669998, 0.046169497072696686, 0.06073952466249466, -0.10178661346435547, -0.09346403926610947, -0.028121573850512505, -0.09629970043897629, -0.02814086340367794, 0.009231427684426308, 0.11366579681634903, 0.06903586536645889, 0.07955831289291382, -0.07303053885698318, -0.0782596543431282, 0.051763467490673065, 0.1050146296620369, 0.1078818067908287, 0.06761139631271362, -0.06889278441667557, 0.015703877434134483, 0.041422028094530106, 0.04336253181099892, -0.06402096897363663, 0.13729165494441986, -0.054603055119514465, 0.02814572863280773, 0.049754220992326736, 0.06936734169721603, 0.057359371334314346, -0.03767558932304382, 0.049672674387693405, -0.08545216917991638, 0.04757602885365486, 0.022692978382110596, -0.08053228259086609, -0.1136646643280983, -0.002864102367311716, 0.03337780386209488, -0.01100215595215559, -0.03684808686375618, 0.07238681614398956, -0.1179562583565712, 0.04874848574399948, 0.08931784331798553, -0.018569525331258774, -0.0045518409460783005, 0.005761479493230581, 0.1424388736486435, 0.07123132050037384, -0.021579602733254433, 0.04856999218463898, 0.03677903488278389, 0.01160785835236311, 0.012685396708548069, 0.023436550050973892, -0.003979498520493507, 0.012372364290058613, 0.044076915830373764, 0.08949203044176102, 0.05810616537928581, 0.010663501918315887, -0.03327150642871857, 0.049030277878046036, -0.07567305117845535, -0.14427833259105682, 0.056524425745010376, -0.04849490895867348, -0.10481783747673035, -0.003829276654869318, -0.14489257335662842, -0.014700177125632763, -0.06974982470273972, -0.048911530524492264, -0.07058539241552353, 0.021357882767915726, -0.0599820576608181, -0.08091370761394501, -0.06040972098708153, 0.04922274127602577, 0.09599161893129349, -0.06539025157690048, 0.1081644594669342, -0.02049136720597744, -0.05405645817518234, 0.012913400307297707, -0.056193046271800995, -0.10214367508888245, -0.11505105346441269, 0.062410857528448105, -0.04376886039972305, 0.07158436626195908, 0.10929589718580246, 0.0092801284044981, -0.016074087470769882, -0.0582636334002018, -0.08211194723844528, -0.02458128333091736, -0.09987955540418625, 0.004567234311252832, 0.12531211972236633, -0.012260236777365208, 0.02002306468784809, -0.1434057056903839, 0.021380271762609482, -0.05940454825758934, 0.06232817471027374, -0.040471624583005905, -0.03193637356162071, 0.0350223183631897, -0.06623666733503342, -0.060548972338438034, -0.0034014228731393814, 0.030356913805007935, 0.05593552812933922, -0.02350473776459694, 0.08682956546545029, 0.02491413988173008, 0.08931580930948257, -0.08464460074901581, 0.03868548199534416, -0.005518180318176746, 0.046194594353437424, 0.06346212327480316, 0.04114091396331787, 0.021642956882715225, 0.004459134303033352, 0.1310872882604599, -0.0561477430164814, -0.0966280996799469, 0.059260305017232895, -0.13167159259319305, -0.04357817396521568, 0.034120481461286545, -0.05953308939933777, 0.13058628141880035, 0.01895878277719021, 0.05222230404615402, -0.07015560567378998, 0.04478706791996956, -0.10041461139917374, -0.07579130679368973, -0.07709699869155884, 0.0682225301861763, 0.04734973981976509, 0.07256051898002625, -0.0997403934597969, 0.0005608485662378371, -0.005900532938539982, -0.0663943737745285, 0.1303725242614746, -0.044026028364896774, 0.017101554200053215, -0.022922206670045853, 0.010812211781740189, -0.10772506892681122, -0.0976637452840805, 0.14089611172676086, 0.02192777208983898, 0.09321010857820511, 0.049610789865255356, 0.11515586078166962, 0.05396678298711777, -0.04381024092435837, -0.057390324771404266, -0.03818079084157944, 0.039552267640829086, -0.01405187789350748, -0.07676849514245987, 0.03639155998826027, 0.0808837041258812, 0.04394663870334625, 0.07447519153356552, -0.004090269561856985, 0.09603377431631088, -0.03071529045701027, 0.04421619325876236, 0.07557056844234467, -0.04923912137746811, -0.09699949622154236, 0.03138228505849838, -0.032378099858760834, 0.0731767863035202, 0.0995752364397049, 0.1488208919763565, -0.08603118360042572, -0.015244410373270512, -0.0980830192565918, 0.10615581274032593, -0.10990522056818008, 0.12012499570846558, 0.02592487260699272, 0.0007392027182504535, 0.00021700168144889176, 0.020923323929309845, 0.02659050188958645, -0.07286231964826584, -0.06066829338669777, 0.10643474757671356, 0.008192125707864761, -0.1065906211733818, -0.07261307537555695, -0.012398297898471355, 0.057354189455509186, -0.10531093925237656, 0.07328147441148758, 0.0011216489365324378, -0.09783431887626648, 0.09701207280158997, 0.04174463078379631, -0.02425825595855713, -0.001999426167458296, -0.12187003344297409, -0.10495174676179886, -0.11982465535402298, -0.024847164750099182, 0.10775329917669296, 0.034062862396240234, 0.07604430615901947, -0.06510020047426224, 0.04479430615901947, -0.030364852398633957, 0.0945640355348587, 0.024986566975712776, 0.10708514600992203, 0.07443784177303314, -0.08759703487157822, -0.02798634208738804, 0.044177282601594925, 0.06221567839384079, -0.010159540921449661, 0.050048068165779114, -0.052003148943185806, -0.03925909101963043, 0.0853252187371254, -0.067347951233387, 0.07932692766189575, -0.12808598577976227, -0.05816436931490898, 0.1187853217124939, -0.011590023525059223, -0.0014821498189121485, -0.006967800669372082, -0.055962421000003815, -0.08667542785406113, 0.07512108981609344, 0.11945038288831711, 0.08338239043951035, 0.030508477240800858, 0.02045825868844986, -0.09035956859588623, -0.11391517519950867, -0.07001305371522903, 0.10284541547298431, 0.030343731865286827, -0.08421964943408966, -0.02624514512717724, -0.07588543742895126, -0.0766412615776062, 0.0709235817193985, 0.0036306006368249655, -0.022797882556915283, -0.06949474662542343, 0.1307803839445114, -0.002453301101922989, 0.0465884655714035, -0.08631020039319992, -0.001954310806468129, -0.08831553906202316, 0.02111576311290264, -0.09401890635490417, 0.0004799960006494075, -0.0641876831650734, -0.11164574325084686, 0.017869381234049797, 0.053971871733665466, 0.02777358517050743, -0.1076631247997284, -0.05920984223484993, -0.019200196489691734, 0.03071640059351921, -0.0343361534178257, -0.07148849964141846, 0.024632630869746208, 0.05034172534942627, 0.04038434475660324, 0.044603701680898666, -0.007906493730843067, 0.04315851256251335, -0.04126358777284622, 0.0927424430847168, 0.05887294560670853, -0.07907048612833023, -0.038291484117507935, 0.07142606377601624, -0.0347793884575367, -0.1396133452653885, 0.0076160854659974575, -0.010013480670750141, 0.0882183313369751, -0.0628703385591507, 0.03361773118376732, -0.10207944363355637, -0.055840712040662766, 0.005051974672824144, -0.095889151096344, -0.0025638455990701914, 0.0952949970960617, 0.10424080491065979, -0.047457873821258545, -0.06655081361532211, 0.07785727828741074, 0.03655365854501724, 0.017620813101530075, 0.007562143262475729, 0.03541470691561699, 0.048680588603019714, 0.03686904534697533, 0.04486885666847229, -0.009455453604459763, 0.00837721023708582, -0.06764908134937286, -0.011196397244930267, 0.011287926696240902, 0.01137195061892271, -0.007953907363116741, -0.037031397223472595, 0.10615526884794235, 0.015591440722346306, 0.09524913132190704, 0.010453966446220875, -0.08276136219501495, -0.0948183685541153, 0.04155263677239418, 0.10467586666345596, 0.039991345256567, 0.10610702633857727, 0.07996173948049545, -0.06544274091720581, -0.009823605418205261, -0.05995531752705574, 0.16931825876235962, -0.10774656385183334, 0.0067009772174060345, 0.10344314575195312, -0.08074911683797836, 0.12738105654716492, 0.03632158786058426, -0.09674309939146042, 0.016404256224632263, -0.02382960356771946, 0.00550954369828105, 0.013831214047968388, 0.014449600130319595, 0.10045289993286133, 0.06075262650847435, -0.09110687673091888, 0.061860859394073486, -0.004159675911068916, -0.011683523654937744, -0.0881989449262619, -0.021498186513781548, -0.07295646518468857, -0.09568911790847778, -0.09371281415224075, 0.09806554019451141, -0.043924979865550995, -0.06367091089487076, 0.028399061411619186, 0.0474248081445694, -0.12232167273759842, 0.03974330797791481, -0.04205743968486786, -0.0655955821275711, -0.0012726052664220333, -0.0008255509310401976, -0.028446849435567856, 0.014722566120326519, 0.07404880970716476, 0.03376192972064018, -0.011162935756146908, 0.05910525843501091, -0.030048370361328125, 0.09761543571949005, 0.03651833161711693, 0.03249678388237953, -0.046828605234622955, 0.028043081983923912, -0.08346101641654968, 0.07999812811613083, -0.07201837003231049, 0.07667901366949081, -0.0001599340612301603, 0.02682385966181755, 0.06592114269733429, -0.02432645671069622, -0.09509638696908951, 0.1099092960357666, -0.08721257746219635, 0.09920971840620041, -0.0818142294883728, 0.06568368524312973, 0.017285341396927834, 0.011169121600687504, 0.035942502319812775, 0.044492561370134354, 0.05303698033094406, -0.03796863928437233, -0.0521213561296463, -0.034105412662029266, -0.06443214416503906, 0.010432958602905273, 0.11573620140552521, -0.004769437480717897, 0.028454245999455452, -0.07512717694044113, -0.01879892498254776, 0.3048717677593231, 0.4078493118286133, -0.038577184081077576, 0.08399858325719833, -0.12467832863330841, -0.05158732831478119, 0.12797480821609497, 0.14701761305332184, 0.35711514949798584, -0.021161461248993874, 0.030476385727524757, 0.25685060024261475, -0.26556396484375, -0.021692557260394096, 0.39329320192337036, -0.2849694788455963, 0.2737899422645569, 0.327099084854126, 0.16172057390213013, -0.002839729655534029, -0.018436137586832047, -0.22894437611103058, -0.18436823785305023, -0.06631285697221756, 0.29555773735046387, 0.050901398062705994, -0.001550953951664269, 0.11192020028829575, -0.2831568717956543, -0.08992733061313629, 0.41061243414878845, -0.11192294210195541, -0.10089918226003647, -0.3600896894931793, -0.10931786894798279, -0.015238036401569843, 0.04510623589158058, 0.13072991371154785, 0.004368596710264683, -0.059113647788763046, -0.0999097153544426, 0.011074922047555447, 0.05808030813932419, -0.21246148645877838, 0.07544747740030289, -0.06216678023338318, -0.15270008146762848, -0.004726685583591461, -0.11047881841659546, -0.32844239473342896, 0.03146699443459511, -0.05258449912071228, 0.09533430635929108, 0.08513213694095612, 0.0443619042634964, -0.16154617071151733, -0.1049855649471283, 0.069967120885849, 0.02288135327398777, -0.22683076560497284, -0.0735841765999794, 0.029109997674822807, -0.18292918801307678, 0.19462944567203522, 0.09901701658964157, 0.3891996145248413, -0.0003055534034501761, 0.0038542381953448057, -0.14284123480319977, 0.005269878543913364, -0.01806829124689102, 0.07350324094295502, 0.14772266149520874, 0.110006183385849, 0.008263529278337955, 0.25584423542022705, -0.08765210211277008, 0.029050860553979874, 0.03513883426785469, -0.0953751802444458, -0.1147087812423706, -0.4069845378398895, 0.09893563389778137, -0.1777455061674118, -0.03970147296786308, 0.07409577816724777, 0.033738311380147934, -0.13600127398967743, -0.12128058075904846, -0.04807882010936737, 0.07790237665176392, -0.2634175717830658, 0.11341369152069092, -0.014021155424416065, -0.08342036604881287, 0.03583678975701332, 0.1006285548210144, -0.015381650999188423, 0.11528283357620239, -0.07621164619922638, 0.06753507256507874, 0.1244969591498375, -0.022380489856004715, -0.06575749069452286, 0.14296719431877136, -0.0906750038266182, -0.0972050204873085, -0.17961996793746948, 0.0870114266872406, -0.003683604532852769, 0.2028498500585556, 0.010374190285801888, -0.10078206658363342, -0.07772999256849289, -0.06122603639960289, 0.13841597735881805, 0.004371920134872198, 0.02675038017332554, -0.2037757784128189, -0.07866951078176498, 0.041003935039043427, 0.015511569567024708, 0.03418464958667755, 0.06504940241575241, -0.09576775133609772, -0.1223471537232399, -0.11024809628725052, -0.03484116122126579, -0.12219318002462387, 0.018330242484807968, -0.11315251886844635, -0.008697978220880032, 0.02638675831258297, -0.03039991669356823, -0.011322595179080963, 0.0620112307369709, 0.04012789577245712, 0.1225881576538086, -0.014344443567097187, 0.058078449219465256, -0.02760929986834526, 0.1555168628692627, -0.03999470919370651, 0.09228850156068802, -0.039896756410598755, -0.02918505296111107, -0.12967906892299652, 0.09294234216213226, -0.0449356846511364, 0.080837182700634, 0.08937989920377731, -0.011972280219197273, -0.10671416670084, 0.10274004936218262, 0.031768202781677246, -0.08145488053560257, 0.08565908670425415, 0.09392479807138443, -0.010671080090105534, 0.029944583773612976, 0.014132877811789513, -0.03554510325193405, -0.05133858695626259, 0.010595954954624176, -0.017190566286444664, 0.011122701689600945, -0.005619237665086985, 0.00502564525231719, -0.09658545255661011, 0.011467590928077698, -0.018107399344444275, 0.10196283459663391, 0.049789559096097946, 0.03204025700688362, -0.1388395130634308, 0.10560818761587143, 0.10634557157754898, -0.06907223910093307, -0.035108622163534164, 0.09419474750757217, -0.020441168919205666, 0.0822017639875412, -0.005737374071031809, 0.04920940101146698, 0.09325185418128967, -0.09990695118904114, 0.04540970176458359, -0.08563650399446487, 0.06342943012714386, 0.10106068849563599, 0.04976432025432587, 0.012146911583840847, -0.06708363443613052, 0.007119721733033657, 0.06361890584230423, -0.021148355677723885, -0.04686732962727547, 0.0014821534277871251, 0.030636945739388466, 0.014917672611773014, 0.10706010460853577, -0.09745655208826065, -0.10147774964570999, 0.10665980726480484, -0.08820854127407074, -0.09980261325836182, 0.03193261846899986, -0.09949284791946411, -0.07891077548265457, -0.09464069455862045, -0.00428352877497673, 0.022787943482398987, -0.05229382589459419, -0.0028091827407479286, 0.0063363416120409966, -0.02493705227971077, 0.10058356821537018, -0.02709081768989563, -0.07909826934337616, -0.01596187986433506, 0.11563335359096527, 0.09141094237565994, -0.09727711230516434, -0.10342282056808472], "className": "finception", "convBiasB": [-0.0005390305886976421, -0.0010560923255980015, -0.000668833265081048, 0.0009867376647889614, -0.00016176282952073961, 0.0008856341009959579, 0.0014368975535035133, 0.0004234923399053514, -0.0015784917632117867, 0.0005213659023866057, -0.00030607887310907245, 0.0011353326262906194, 0.001288119936361909, 3.1838786526350304e-05, -0.0010603442788124084, 7.355539128184319e-05], "bnBetaA": [-0.019875256344676018, 0.12678489089012146, -0.05644398555159569, -0.08425220102071762, -0.09404881298542023, 0.01045995019376278, 0.009051640518009663, -0.07564971596002579, -0.09318937361240387, -0.030679062008857727, -0.03265562281012535, -0.78233802318573, -0.0474235899746418, -0.04666469991207123, -0.06423605233430862, 0.016496406868100166], "scaleFactor": 1, "convBiasA": [-0.0011457676300778985, 0.0010333519894629717, -0.00032096312497742474, -0.0004137511714361608, -0.005356971640139818, -0.0030230956617742777, -0.0019846882205456495, -0.00048815016634762287, -0.00098428747151047, 0.0015044457977637649, 0.0008263001218438148, 0.004904898349195719, 0.00010733817180152982, 0.0026077611837536097, -0.0009046443738043308, 0.0004600507381837815], "bnMeanA": [0.05070505291223526, -0.094382144510746, -0.038809362798929214, -0.019741782918572426, -0.17660005390644073, 0.36297038197517395, -0.09289982169866562, -0.06668895483016968, 0.012744898907840252, -0.02475673332810402, -0.21758200228214264, 0.15656797587871552, 0.11092795431613922, 0.05320403724908829, 0.006048151757568121, -0.1426132619380951], "bnBetaB": [-0.08784820884466171, -0.44865939021110535, 0.1530846655368805, -0.024407273158431053, -0.05641429126262665, -0.026352517306804657, -0.015602007508277893, -0.01232905127108097, 0.17717762291431427, -0.016862446442246437, -0.06648271530866623, -0.00498559046536684, -0.0011233572149649262, -0.054194871336221695, -0.28804677724838257, -0.01607704907655716], "typesDim": 3, "bnGammaA": [0.9623742699623108, 1.0503114461898804, 0.9220338463783264, 1.0054248571395874, 0.9971753358840942, 0.9329066276550293, 0.9257020950317383, 0.9602262377738953, 1.013904333114624, 0.9630548357963562, 0.9884941577911377, 1.119870901107788, 0.9964977502822876, 0.9336743950843811, 0.9139764308929443, 1.0415756702423096]}, {"bnMean": [-0.1689612865447998], "upsamplingRoundsDimFactor": 1, "kernelRoundsDim": 1, "upsamplingTypesDimFactor": 1, "bnBeta": [0.11566589027643204], "inputChannelsDim": 16, "convKernel": [-0.2592245936393738, 0.14271937310695648, -0.36592981219291687, 0.09796332567930222, -0.2210714966058731, 0.2420101761817932, 0.08301380276679993, 0.26216697692871094, -0.43384936451911926, 0.5006850361824036, -0.43132483959198, 0.3241567611694336, 0.29379045963287354, -0.5691758394241333, -0.25327324867248535, -0.35694852471351624], "roundsDim": 1, "bnGamma": [0.6106870770454407], "channelsDim": 1, "bnVariance": [0.10984774678945541], "kernelTypesDim": 1, "className": "ception", "convBias": [0.0010384415509179235], "typesDim": 3}]