{"typesDim": 3, "roundsDim": 6, "inputChannelsDim": 7, "scaleFactor": 3, "convKernelA": [-0.2462540566921234, -0.04059186577796936, 0.4040244221687317, 0.12427109479904175, -0.09808459877967834, -0.319091796875, -0.21242643892765045, -0.010201632976531982, -0.13461565971374512, 0.019886136054992676, -0.052343785762786865, -0.12542665004730225, -0.17776328325271606, 0.10976767539978027, 0.1426141858100891, -0.06632688641548157, 0.05501919984817505, 0.16037803888320923, -0.09953689575195312, -0.23033760488033295, 0.3528607487678528, -0.42551201581954956, -0.058946073055267334, 0.36309415102005005, -0.3151874542236328, 0.23382717370986938, -0.1598876714706421, 0.36723536252975464, -0.1816844940185547, 0.36634618043899536, 0.003109365701675415, 0.33525413274765015, 0.27641814947128296, -0.10182037949562073, -0.09314700961112976, 0.2632112503051758, -0.43968236446380615, 0.07185971736907959, 0.2604525089263916, 0.4363289475440979, 0.2318342924118042, -0.29124879837036133, 0.3372453451156616, 0.36202722787857056, 0.1498294472694397, -0.29895174503326416, -0.13177365064620972, -0.015455156564712524, -0.1535138189792633, -0.042463213205337524, -0.23632913827896118, 0.29275888204574585, 0.2289348840713501, -0.4329849183559418, 0.029929369688034058, 0.20363938808441162, 0.2265908122062683, 0.11852872371673584, 0.2851526141166687, 0.26255619525909424, -0.27966052293777466, 0.41165655851364136, -0.2704887390136719, 0.19728732109069824, 0.17913073301315308, 0.1856924295425415, 0.07127130031585693, 0.13011670112609863, -0.014550566673278809, -0.07421955466270447, -0.11066889762878418, -0.1896093785762787, -0.20108802616596222, 0.06556820869445801, -0.4355481266975403, 0.2387561798095703, -0.23830904066562653, -0.1737181842327118, -0.023670047521591187, 0.148948073387146, 0.14806050062179565, 0.3180834650993347, 0.18091565370559692, -0.37332674860954285, -0.10034835338592529, 0.14055246114730835, 0.02131873369216919, 0.33305174112319946, -0.128799706697464, 0.22416198253631592, 0.07867592573165894, -0.419992059469223, 0.18823307752609253, 0.3088685870170593, -0.39948561787605286, -0.36370548605918884, -0.04808324575424194, 0.21892207860946655, 0.10736352205276489, 0.28143608570098877, 0.04949191212654114, 0.4301687479019165, 0.18454933166503906, 0.4264817237854004, -0.1280289590358734, 0.1729881763458252, -0.18357199430465698, 0.193800151348114, 0.4029536247253418, 0.17186874151229858, 0.17473018169403076, -0.27592748403549194, -0.23093076050281525, -0.2829459011554718, -0.05046907067298889, -0.1285545825958252, 0.12279021739959717, 0.015242427587509155, -0.27447664737701416, 0.09541338682174683, -0.012021660804748535, -0.4097287654876709, -0.1864001452922821, -0.43004515767097473, -0.16737160086631775, 0.3058624267578125, -0.36888012290000916, -0.03585892915725708, 0.23050910234451294, -0.26041823625564575, 0.37232768535614014, 0.31136810779571533, 0.014842182397842407, 0.25035303831100464, 0.13436245918273926, -0.27257561683654785, -0.08641251921653748, 0.32363301515579224, -0.228051096200943, 0.04417639970779419, 0.27516764402389526, 0.32697659730911255, -0.2889896631240845, -0.043814510107040405, 0.34616899490356445, 0.012242674827575684, -0.17862936854362488, -0.08442893624305725, -0.32250910997390747, 0.1539524793624878, -0.2528839707374573, -0.09257704019546509, -0.3008551597595215, -0.21596869826316833, -0.18792766332626343, 0.31426215171813965, 0.09609538316726685, 0.4139057397842407, -0.10720953345298767, -0.2943745255470276, -0.2739943861961365, 0.23317605257034302, 0.166204571723938, 0.0919080376625061, 0.3618246912956238, -0.2611318826675415, 0.4040585160255432, 0.21880167722702026], "convBiasA": [0.0, 0.0, 0.0, 0.0, 0.0, 0.0, 0.0, 0.0, 0.0, 0.0, 0.0, 0.0, 0.0, 0.0, 0.0, 0.0, 0.0, 0.0, 0.0, 0.0, 0.0, 0.0, 0.0, 0.0], "bnMeanA": [0.0, 0.0, 0.0, 0.0, 0.0, 0.0, 0.0, 0.0, 0.0, 0.0, 0.0, 0.0, 0.0, 0.0, 0.0, 0.0, 0.0, 0.0, 0.0, 0.0, 0.0, 0.0, 0.0, 0.0], "bnVarianceA": [1.0, 1.0, 1.0, 1.0, 1.0, 1.0, 1.0, 1.0, 1.0, 1.0, 1.0, 1.0, 1.0, 1.0, 1.0, 1.0, 1.0, 1.0, 1.0, 1.0, 1.0, 1.0, 1.0, 1.0], "bnBetaA": [0.0, 0.0, 0.0, 0.0, 0.0, 0.0, 0.0, 0.0, 0.0, 0.0, 0.0, 0.0, 0.0, 0.0, 0.0, 0.0, 0.0, 0.0, 0.0, 0.0, 0.0, 0.0, 0.0, 0.0], "bnGammaA": [1.0, 1.0, 1.0, 1.0, 1.0, 1.0, 1.0, 1.0, 1.0, 1.0, 1.0, 1.0, 1.0, 1.0, 1.0, 1.0, 1.0, 1.0, 1.0, 1.0, 1.0, 1.0, 1.0, 1.0], "convKernelB": [-0.053060971200466156, -0.11597311496734619, -0.009497001767158508, -0.10629387944936752, 0.1174258142709732, -0.0853300541639328, -0.06555306911468506, 0.15093405544757843, -0.11285492032766342, 0.10822908580303192, 0.07137000560760498, -0.10047566890716553, -0.09031971544027328, -0.11683972924947739, 0.11862234771251678, 0.02815859019756317, -0.11059200763702393, -0.05582507699728012, 0.08595241606235504, -0.14026451110839844, -0.11128918826580048, 0.11561496555805206, -0.053758345544338226, 0.13828720152378082, -0.009171009063720703, -0.14257363975048065, 0.15358515083789825, -0.07576994597911835, 0.13524524867534637, 0.00519128143787384, 0.1434944123029709, -0.08303046226501465, -0.16101691126823425, 0.0285494327545166, -0.058299385011196136, -0.030800536274909973, -0.016365408897399902, -0.042857252061367035, -0.12718872725963593, -0.006700471043586731, 0.1230057030916214, -0.15731343626976013, -0.036342933773994446, 0.07650208473205566, 0.0903371125459671, -0.04204265773296356, -0.09285712242126465, 0.09940709173679352, 0.16148214042186737, -0.10593537986278534, -0.09498807042837143, -0.05189919471740723, 0.1103454977273941, -0.014514163136482239, 0.09233154356479645, -0.11098003387451172, 0.007253959774971008, 0.0539168119430542, -0.025756478309631348, 0.1486673504114151, -0.0036849528551101685, 0.08374790847301483, -0.13161203265190125, 0.03856281936168671, -0.017494961619377136, -0.01311059296131134, -0.049506306648254395, -0.11100630462169647, -0.12751147150993347, 0.04947535693645477, -0.13117191195487976, -0.10523339360952377, -0.1407654732465744, -0.04802338778972626, -0.09507906436920166, -0.09018155187368393, 0.05688774585723877, -0.03708767890930176, -0.053855106234550476, 0.1108478456735611, -0.017850592732429504, 0.04297037422657013, -0.1346292942762375, 0.031545355916023254, -0.16643588244915009, -0.09587796777486801, 0.12302638590335846, 0.036980390548706055, -0.08511992543935776, 0.0015781670808792114, 0.029720351099967957, 0.0493672639131546, -0.1057472676038742, -0.14311489462852478, -0.0665292739868164, 0.11412777006626129, -0.07359477132558823, -0.05223970115184784, 0.009930923581123352, 0.15981896221637726, -0.12023942172527313, -0.10276441276073456, 0.08218558132648468, -0.16650812327861786, 0.008953854441642761, -0.041994377970695496, -0.14996123313903809, 0.09627418220043182, 0.10975660383701324, -0.08950158208608627, 0.04637114703655243, 0.03129410743713379, -0.07627002894878387, -0.11334320157766342, -0.1643114984035492, -0.09300216287374496, 0.11900670826435089, -0.053212009370326996, 0.09142117202281952, 0.1173345297574997, 0.1175365000963211, 0.00740814208984375, -0.026755571365356445, -0.09902505576610565, -0.15061888098716736, 0.012877464294433594, -0.14827820658683777, -0.1055779904127121, 0.12289448082447052, -0.01928246021270752, 0.012945130467414856, -0.07525074481964111, 0.08541794121265411, 0.14596395194530487, -0.0472925528883934, -0.07671360671520233, -0.06727536767721176, -0.13812701404094696, 0.07581894099712372, 0.07957255840301514, -0.1532198190689087, -0.049275800585746765, 0.15358693897724152, -0.06595703214406967, 0.07511548697948456, -0.018869444727897644, -0.16266703605651855, 0.04773490130901337, -0.16079668700695038, -0.08289723098278046, 0.12395782768726349, 0.06433618068695068, -0.14497169852256775, 0.0833701640367508, -0.039470985531806946, 0.15731112658977509, 0.03548634052276611, 0.04036419093608856, -0.017740324139595032, -0.1539984941482544, 0.08031094074249268, 0.03147833049297333, -0.03319151699542999, -0.11465128511190414, -0.15601353347301483, 0.13154776394367218, -0.13223931193351746, 0.1395169049501419, -0.12419676780700684, 0.08633925020694733, 0.03966467082500458, 0.11430306732654572, -0.037924930453300476, -0.11094920337200165, 0.15158908069133759, 0.11559970676898956, -0.002508878707885742, 0.03991322219371796, -0.1492236852645874, 0.10077281296253204, 0.14139313995838165, -0.11026005446910858, -0.005443409085273743, 0.058304592967033386, 0.10997457802295685, 0.1524452120065689, 0.15032143890857697, -0.1510695219039917, 0.030318856239318848, -0.021526813507080078, -0.1386476755142212, -0.012553408741950989, -0.03503112494945526, 0.15010936558246613, 0.011407062411308289, -0.04975426197052002, -0.004567503929138184, 0.11056764423847198, 0.020317435264587402, 0.02594713866710663, 0.08044624328613281, 0.044635698199272156, -0.060660168528556824, -0.09591841697692871, 0.06402087211608887, 0.011100128293037415, -0.1383112668991089, 0.15558750927448273, -0.03182327747344971, -0.02510516345500946, -0.16500771045684814, -0.028668448328971863, -0.12893018126487732, -0.02717311680316925, -0.09499530494213104, 0.06130218505859375, -0.016348645091056824, -0.048186346888542175, -0.0533091276884079, 0.016263127326965332, -0.020279452204704285, -0.05319686979055405, 0.1266600638628006, -0.01145315170288086, -0.05877964198589325, 0.004128977656364441, 0.16556717455387115, 0.1650361269712448, 0.022426888346672058, 0.11801518499851227, 0.056764960289001465, 0.059221744537353516, -0.12316720187664032, -0.039694592356681824, -0.007502362132072449, -0.16462644934654236, 0.11307580769062042, -0.11687867343425751, 0.15561489760875702, 0.036311075091362, 0.05145712196826935, -0.15153393149375916, -0.07751663774251938, 0.12825246155261993, 0.1403685063123703, -0.07134020328521729, -0.12932205200195312, -0.12569400668144226, -0.0698060616850853, 0.09989006817340851, -0.13637547194957733, 0.01912359893321991, -0.017836451530456543, 0.050630971789360046, 0.06354217231273651, -0.004924774169921875, 0.046988725662231445, 0.019543886184692383, -0.0739026889204979, -0.14480385184288025, 0.016260221600532532, 0.1114053875207901, 0.04901786148548126, 0.14879699051380157, -0.1496092975139618, 0.1664782017469406, -0.09931731224060059, -0.09431855380535126, -0.030964255332946777, -0.07678326219320297, 0.09770752489566803, 0.018149688839912415, -0.11920332908630371, 0.03608226776123047, 0.10229416191577911, -0.02524895966053009, 0.014557316899299622, -0.05264413356781006, 0.11460484564304352, 0.021930620074272156, 6.969273090362549e-05, 0.09670679271221161, 0.09547202289104462, 0.12053875625133514, -0.0839160680770874, 0.057081982493400574, 0.06316745281219482, -0.14497749507427216, 0.12451966106891632, 0.16204063594341278, 0.006248548626899719, 0.08513279259204865, 0.10759641230106354, -0.002854183316230774, -0.11510682106018066, 0.025999903678894043, 0.05387492477893829, 0.06750333309173584, -0.04705306142568588, 0.061318591237068176, -0.06305154412984848, 0.16347576677799225, -0.13183622062206268, -0.010824397206306458, -0.03035108745098114, -0.14705495536327362, 0.15088240802288055, 0.11117304861545563, -0.12859416007995605, -0.058140240609645844, 0.03700888156890869, -0.005617976188659668, 0.00016546249389648438, -0.04559063911437988, -0.08966811746358871, 0.12925072014331818, 0.10421641170978546, -0.001065179705619812, 0.021749690175056458, 0.08880297839641571, -0.05405338853597641, -0.03441841900348663, 0.12658168375492096, -0.09071791172027588, 0.0824526995420456, -0.1501116007566452, 0.041457727551460266, -0.0527416467666626, 0.046256378293037415, -0.15814289450645447, -0.03146164119243622, 0.10960759222507477, 0.15859754383563995, -0.14700591564178467, -0.07915735244750977, 0.04699377715587616, -0.04750081151723862, 0.13299138844013214, 0.05618412792682648, 0.099268838763237, 0.15649203956127167, -0.06367647647857666, -0.16115081310272217, -0.07920913398265839, 0.09999434649944305, -0.1361829936504364, 0.006192132830619812, 0.06606781482696533, -0.128106951713562, 0.08680267632007599, -0.1576337069272995, 0.03080134093761444, -0.07262730598449707, -0.11775898933410645, 0.023039981722831726, -0.14810991287231445, -0.026382610201835632, -0.11895792186260223, 0.0033828765153884888, -0.1151549443602562, 0.14448730647563934, -0.04027383029460907, 0.0021590739488601685, -0.009922429919242859, -0.049662113189697266, 0.07441823184490204, -0.16571471095085144, -0.017776012420654297, -0.00024271011352539062, 0.13151009380817413, 0.08278493583202362, -0.06515558809041977, 0.15804584324359894, 0.09958292543888092, -0.16436080634593964, -0.0310390442609787, -0.07796474546194077, -0.0754602774977684, -0.11701714992523193, 0.015596151351928711, -0.055961690843105316, 0.16307635605335236, 0.06510031223297119, 0.05893242359161377, 0.0074147433042526245, 0.1477990597486496, 0.12702052295207977, 0.07752983272075653, -0.12783488631248474, -0.04317875951528549, -0.07241114228963852, 0.020958542823791504, 0.026430532336235046, 0.0686880350112915, 0.07877993583679199, 0.12128867208957672, 0.15572847425937653, -0.1305764615535736, -0.03907553851604462, 0.00954262912273407, -0.0874600037932396, -0.14923560619354248, -0.1195482462644577, -0.10948920249938965, 0.11444194614887238, -0.04065394401550293, -0.11398705095052719, 0.012598514556884766, 0.109082892537117, 0.09345345199108124, 0.059865713119506836, -0.11945104598999023, -0.16153916716575623, 0.04405836760997772, -0.09131773561239243, -0.08051657676696777, 0.08328127861022949, -0.048284612596035004, 0.13163580000400543, 0.02730850875377655, -0.11278991401195526, 0.09363861382007599, -0.0739431381225586, -0.10696546733379364, -0.16607217490673065, 0.11231712996959686, -0.0318271666765213, 0.148161843419075, -0.06587155908346176, -0.06456959247589111, -0.0010351389646530151, -0.06938497722148895, 0.13782979547977448, 0.023952960968017578, -0.12205266952514648, -0.020038321614265442, -0.009618714451789856, 0.12549640238285065, 0.012206152081489563, 0.12613387405872345, 0.1272989958524704, -0.15444116294384003, 0.14407767355442047, -0.12545427680015564, -0.00746937096118927, -0.08484379947185516, 0.15743856132030487, -0.14767567813396454, -0.007939532399177551, 0.15179552137851715, 0.06520752608776093, 0.03726308047771454, -0.10326743125915527, 0.05629138648509979, -0.1379108428955078, -0.02657012641429901, -0.08646075427532196, -0.0035288333892822266, 0.13297860324382782, 0.13653327524662018, 0.16093666851520538, 0.03799612820148468, -0.16134747862815857, 0.02024070918560028, -0.03456997871398926, -0.02467159926891327, 0.16405300796031952, -0.0036292821168899536, 0.055660367012023926, 0.10535450279712677, -0.007380083203315735, 0.02709849178791046, 0.08511103689670563, 0.05247430503368378, -0.14505454897880554, -0.018097281455993652, 0.03325088322162628, -0.0009343624114990234, -0.10020558536052704, -0.1468416452407837, -0.07800233364105225, 0.15588857233524323, -0.14111101627349854, -0.060752831399440765, -0.022124290466308594, 0.018755272030830383, 0.1646111160516739, -0.11265238374471664, 0.13384704291820526, 0.04922513663768768, -0.02276146411895752, -0.0838654488325119, -0.0443849191069603, -0.04447980970144272, -0.1487913578748703, -0.09996577352285385, -0.14693820476531982, -0.1106235608458519, 0.034600093960762024, 0.0395083874464035, -0.08799990266561508, 0.09494270384311676, 0.030860736966133118, -0.10013477504253387, 0.013437584042549133, -0.055119797587394714, -0.029369905591011047, 0.1034412533044815, -0.1613250970840454, -0.16150490939617157, 0.09424860775470734, 0.02412402629852295, 0.0054007768630981445, -0.1141452044248581, -0.14084360003471375, 0.10531584918498993, 0.025455161929130554, 0.15970076620578766, -0.13028912246227264, -0.10124421119689941, 0.0765143632888794, 0.03697936236858368, -0.02232182025909424, 0.07483978569507599, 0.12960131466388702, 0.04796202480792999, -0.15271040797233582, -0.09059818834066391, 0.10328014194965363, -0.019214585423469543, 0.1360054761171341, -0.033129021525382996, 0.13723771274089813, 0.1018621176481247, -0.13212406635284424, -0.0770675390958786, -0.04362432658672333, 0.022963091731071472, 0.023094817996025085, -0.10486233234405518, -0.030352070927619934, 0.15888561308383942, 0.029360488057136536, -0.08483707904815674, 0.1384466141462326, -0.05832028388977051, 0.09494359791278839, -0.1484299898147583, 0.06087072193622589, -0.13117782771587372, 0.04923295974731445, -0.05485876649618149, -0.12364351749420166, -0.15068098902702332, -0.08559378236532211, -0.10110756009817123, 0.1336083561182022, -0.06944572925567627, -0.006767630577087402, -0.09366381168365479, 0.005417466163635254, 0.16383807361125946, -0.11812993139028549, -0.04217561334371567, 0.04941527545452118, 0.1432437151670456, 0.14556963741779327, 0.10889150202274323, -0.15229761600494385, -0.03366231918334961, -0.06474443525075912, -0.10615420341491699, 0.00014460086822509766, -0.14356379210948944, -0.04749695956707001, -0.10319840908050537, -0.15031978487968445, -0.04427897930145264, -0.08191835880279541, -0.09800450503826141, -0.010821104049682617, -0.13189594447612762, 0.0076406002044677734, 0.13597549498081207, 0.10066433250904083, 0.08046574890613556, -0.10118889808654785, 0.13030032813549042, -0.021804645657539368, -0.06520112603902817, -0.10614681243896484, -0.11820435523986816, -0.04949089139699936, 0.08971072733402252, 0.011072158813476562, -0.03467361629009247, -0.15999767184257507, -0.0439784973859787, -0.10228157043457031, -0.144538015127182, 0.0423511266708374, 0.10932989418506622, -0.13663360476493835, 0.06413547694683075, 0.08036978542804718, 0.08776478469371796, 0.11043648421764374, 0.11749701201915741, -0.09835632890462875, -0.0920320376753807, -0.04877813905477524, -0.028926923871040344, 0.0295589417219162, 0.03147292137145996, -0.15425750613212585, 0.05174417793750763, -0.015265300869941711, 0.05315046012401581, -0.12291809171438217, 0.030037209391593933, -0.1247238740324974, -0.016597986221313477, 0.030060812830924988, -0.05099257081747055, -0.03822946548461914, 0.16059328615665436, 0.10301153361797333, 0.0913502424955368, -0.013946130871772766, -0.12443459033966064, 0.07712221145629883, -0.08033943176269531, -0.1496371030807495, -0.008130624890327454, 0.07276730239391327, 0.07613487541675568, 0.05475182831287384, -0.07440372556447983, -0.11375053972005844, 0.16455893218517303, 0.05920989811420441, -0.08213293552398682, 0.029585838317871094, 0.1639508157968521, 0.06822209060192108, -0.07018550485372543, -0.044972024857997894, 0.04433317482471466, 0.06857843697071075, 0.016858935356140137, -0.08337780088186264, -0.0765182226896286, -0.0788404569029808, 0.1202414482831955, -0.05610001087188721, -0.1313105821609497, -0.043792128562927246, -0.05970808118581772, -0.023261308670043945, 0.11744214594364166, -0.03738708794116974, 0.13813595473766327, -0.06549112498760223, -0.05088663101196289, 0.060027241706848145, 0.12925811111927032, 0.06783647835254669, 0.026825472712516785, -0.1243438720703125, -0.15469157695770264, 0.1418948620557785, -0.015386462211608887, 0.15422429144382477, -0.04063721001148224, -0.05053504556417465, -0.05019788444042206, -0.12747570872306824, -0.15633782744407654, -0.04658786952495575, -0.0665973424911499, 0.15263228118419647, -0.0790310725569725, -0.09919516742229462, -0.16624407470226288, -0.13691768050193787, 0.15242911875247955, 0.00959913432598114, 0.1559305340051651, 0.14481620490550995, -0.1475275754928589, 0.1294248253107071, 0.027736783027648926, -0.1265546977519989, -0.01679675281047821, -0.004988864064216614, -0.01548035442829132, 0.08394230902194977, 0.13890297710895538, 0.07762746512889862, -0.07462680339813232, -0.09936730563640594, -0.012935951352119446, 0.08299171924591064, -0.10671031475067139, 0.13757993280887604, -0.15874576568603516, -0.05878707021474838, 0.0071822404861450195, 0.11659510433673859, 0.05786466598510742, -0.1293685883283615, -0.07057829946279526, -0.09504397958517075, -0.0053517818450927734, 0.07101213932037354, -0.14854180812835693, -0.04186948388814926, 0.09984166920185089, 0.09035338461399078, -0.05179329961538315, 0.13478772342205048, -0.058525487780570984, -0.0806611031293869, -0.0909123420715332, -0.08764676749706268, 0.10483340919017792, -0.02246527373790741, 0.04522125422954559, -0.09401222318410873, -0.15100622177124023, -0.1265905350446701, -0.10774540901184082, -0.14788858592510223, -0.14407870173454285, -0.0006724148988723755, 0.09069852530956268, 0.0985071212053299, -0.1118137463927269, -0.0410265177488327, 0.04315809905529022, -0.15374307334423065, -0.1301012486219406, 0.0719904899597168, -0.1651603877544403, -0.0573403462767601, 0.03210258483886719, 0.057151198387145996, 0.023488566279411316, 0.02671988308429718, -0.047818660736083984, -0.0976199358701706, 0.08947603404521942, -0.09585189819335938, 0.14496363699436188, 0.01954953372478485, 0.08480800688266754, -0.0013848990201950073, -0.06031382083892822, -0.1605769395828247, -0.1281445473432541, 0.16596607863903046, -0.06653265655040741, 0.07401268184185028, 0.03271591663360596, 0.10727278888225555, 0.13453759253025055, 0.07125754654407501, -0.08496280759572983, -0.019617006182670593, 0.1337629109621048, 0.09862776100635529, 0.15246514976024628, -0.005938291549682617, 0.07490651309490204, 0.08700396120548248, 0.0004623681306838989, 0.15670587122440338, 0.05013684928417206, -0.04712383449077606, -0.008628413081169128, 0.11577565968036652, -0.125478595495224, -0.13549618422985077, 0.08559258282184601, -0.12505356967449188, -0.13503889739513397, 0.023520156741142273, 0.16461150348186493, -0.13156232237815857, -0.08908955752849579, -0.0004526376724243164, -0.024532482028007507, -0.03704547882080078, -0.06709830462932587, 0.10637451708316803, -0.07126300036907196, 0.1446196287870407, 0.04146115481853485, -0.026249051094055176, -0.013857915997505188, -0.0670245885848999, 0.0804709941148758, 0.01106126606464386, 0.12038679420948029, -0.10383769124746323, 0.09686942398548126, 0.0425085574388504, 0.163043811917305, 0.02720499038696289, 0.09031407535076141, 0.07299180328845978, 0.00762784481048584, 0.12837184965610504, -0.03764081001281738, -0.16190581023693085, -0.02583940327167511, -0.05289705842733383, -0.11978590488433838, 0.1395130604505539, -0.059477731585502625, -0.14024882018566132, -0.11102811992168427, 0.12280373275279999, -0.10793161392211914, 0.0902874618768692, 0.022620275616645813, -0.13852128386497498, -0.02781088650226593, 0.06352484226226807, -0.10021810233592987, 0.08197946846485138, 0.0955091267824173, 0.09365500509738922, 0.03440821170806885, -0.02653650939464569, 0.0036185532808303833, 0.09854884445667267, -0.09909801185131073, 0.11279357969760895, 0.002696201205253601, 0.03374290466308594, 0.12440063059329987, 0.09390236437320709, -0.08822040259838104, -0.11384265124797821, 0.07229609787464142, 0.12417621910572052, -0.09070436656475067, 0.01717264950275421, -0.06867170333862305, 0.00791342556476593, -0.12721037864685059, 0.0792340487241745, 0.13373126089572906, -0.005735874176025391, 0.005578160285949707, -0.13613876700401306, 0.08953611552715302, -0.09742160886526108, -0.11927096545696259, 0.08114047348499298, 0.018975496292114258, -0.015172794461250305, -0.1532338559627533, 0.09592683613300323, -0.05129917711019516, -0.16346919536590576, -0.11699585616588593, 0.09840215742588043, -0.028308987617492676, 0.013923928141593933, 0.015752553939819336, 0.008713677525520325, 0.03539295494556427, -0.09746722877025604, -0.14476339519023895, -0.03674721717834473, 0.16607196629047394, -0.08781211078166962, 0.14575688540935516, -0.009495571255683899, -0.06998690217733383, 0.14121480286121368, -0.07323603332042694, 0.07125262916088104, -0.03233404457569122, 0.14859430491924286, 0.05924837291240692, 0.13172860443592072, 0.12839867174625397, 0.08515192568302155, -0.017467737197875977, -0.019761398434638977, 0.10564570128917694, -0.16448013484477997, -0.13737082481384277, 0.11954490840435028, -0.09088945388793945, 0.10717491805553436, 0.08764250576496124, -0.02058577537536621, 0.12807373702526093, 0.06843395531177521, 0.1349610537290573, 0.020186707377433777, -0.10605446994304657, 0.014025449752807617, -0.12454032897949219, -0.16045443713665009, 0.1567062884569168, 0.05574043095111847, -0.03832507133483887, -0.11702370643615723, -0.07826673984527588, 0.004247620701789856, 0.08876709640026093, -0.0635179728269577, -0.09817390143871307, -0.03420765697956085, -0.09911318868398666, -0.0032637566328048706, 0.162814661860466, 0.0685495138168335, -0.06731283664703369, 0.0913802832365036, -0.07933048903942108, 0.07739035785198212, 0.13752247393131256, -0.03707568347454071, 0.14704467356204987, -0.10718103498220444, -0.04534471035003662, -0.10431449115276337, 0.14813251793384552, -0.029426291584968567, 0.05862922966480255, 0.15576092898845673, 0.1096762865781784, -0.12265034765005112, 0.08997716009616852, -0.02080059051513672, -0.11758749186992645, -0.0732889175415039, -0.10448785871267319, 0.11092181503772736, -0.10138106346130371, 0.14063026010990143, 0.1470593363046646, 0.11755697429180145, 0.11791808903217316, 0.08101411163806915, 0.1265350729227066, -0.08419835567474365, 0.043967291712760925, 0.017165347933769226, 0.09445016086101532, -0.07671678066253662, 0.046157240867614746, 0.038445159792900085, 0.09520642459392548, 0.03631012141704559, -0.08113102614879608, -0.1167151927947998, 0.13361160457134247, -0.00041274726390838623, 0.12642712891101837, -0.1502436101436615, -0.033730581402778625, -0.029850006103515625, 0.036638811230659485, 0.06142266094684601, 0.06369094550609589, 0.10702933371067047, -0.00447671115398407, -0.0522339791059494, -0.14328551292419434, -0.14077258110046387, -0.052138492465019226, 0.020960882306098938, -0.06508409976959229, -0.030924245715141296, -0.08953547477722168, -0.11791813373565674, 0.03389298915863037, -0.05313070863485336, -0.02317357063293457, -0.07442140579223633, -0.03825843334197998, -0.11783349514007568, -0.029329851269721985, 0.03614187240600586, -0.07342907041311264, 0.15092135965824127, -0.10175582021474838, 0.13067416846752167, -0.016657277941703796, 0.005815431475639343, 0.07460276782512665, 0.11497189104557037, -0.14397120475769043, 0.08165304362773895, 0.05256505310535431, 0.1659080535173416, 0.10127116739749908, -0.02091209590435028, 0.09560467302799225, -0.12733094394207, 0.089654341340065, -0.1360272616147995, 0.03597740828990936, -0.019544795155525208, -0.10077198594808578, 0.09619645774364471, 0.10363925993442535, -0.12635740637779236, 0.1651238650083542, -0.05544539541006088, 0.16596092283725739, -0.054103657603263855, 0.028415679931640625, -0.029317021369934082, -0.005937501788139343, -0.02480335533618927, -0.09050893783569336, -0.05154268443584442, -0.0029716938734054565, 0.14282695949077606, -0.08526544272899628, -0.10310058295726776, 0.008694931864738464, -0.13800828158855438, -0.1263306587934494, -0.13799886405467987, -0.0960119217634201, 0.09937731921672821, 0.02342398464679718, -0.08962754905223846, 0.005179241299629211, -0.054342351853847504, -0.1069163903594017, -0.04147250950336456, 0.05857689678668976, 0.03817117214202881, -0.16231119632720947, 0.036066338419914246, -0.05073373019695282, 0.05540430545806885, 0.05601775646209717, -0.15196570754051208, 0.08420653641223907, 0.14219941198825836, -0.02511627972126007, 0.12042446434497833, -0.12131457030773163, -0.025724217295646667, 0.043938636779785156, 0.0489954948425293, 0.0891982764005661, 0.00021176040172576904, -0.07746963202953339, 0.007191896438598633, 0.14447171986103058, 0.13897590339183807, 0.004185393452644348, 0.02680492401123047, 0.11805085837841034, -0.035256341099739075, 0.12091244757175446, 0.137761190533638, 0.14307431876659393, -0.1055280789732933, 0.015459969639778137, -0.01039104163646698, 0.15524061024188995, 0.14203651249408722, -0.0016124695539474487, -0.03810000419616699, -0.02915196120738983, 0.007660031318664551, 0.012855291366577148, -0.10095863044261932, -0.08108016103506088, -0.16019988059997559, -0.04371964931488037, -0.12218479812145233, 0.13755173981189728, 0.16194765269756317, -0.010052800178527832, -0.06247222423553467, -0.0796925276517868, -0.08307147026062012, -0.09417061507701874, 0.12721936404705048, 0.15888918936252594, 0.16557206213474274, -0.06376683712005615, 0.09030033648014069, 0.06739835441112518, -0.0053880661725997925, -0.13315248489379883, 0.061505988240242004, 0.12323082983493805, 0.1384419947862625, -0.07396797835826874, 0.06009702384471893, -0.15432441234588623, -0.015361025929450989, -0.0029280632734298706, -0.0015742778778076172, -0.07591800391674042, 0.15084867179393768, 0.04776628315448761, 0.13484109938144684, 0.036648228764534, -0.11997350305318832, 0.09679992496967316, 0.11216332018375397, 0.10422416031360626, -0.16412219405174255, 0.07044725120067596, -0.12299422919750214, -0.1600608080625534, 0.03352682292461395, 0.05143268406391144, 0.007289454340934753, 0.13431112468242645, 0.08131496608257294, 0.052649497985839844, 0.0505375862121582, -0.11364714801311493, -0.10111602395772934, -0.03720533847808838, -0.15390782058238983, 0.027271702885627747, -0.09773671627044678, 0.04775305092334747, -0.0527527779340744, 0.11021225154399872, 0.04166293144226074, 0.12553159892559052, 0.03236334025859833, -0.10419492423534393, -0.1503148078918457, 0.056403517723083496, 0.10672964155673981, -0.1566779613494873, 0.11762110888957977, 0.051567792892456055, 0.07876241207122803, -0.04938070476055145, -0.1521407812833786, -0.1437593698501587, -0.05045720189809799, -0.08810357749462128, 0.05796520411968231, -0.09350403398275375, -0.07606375217437744, 0.024454712867736816, -0.04741089046001434, -0.06708221137523651, -0.0499316081404686, -0.10492333024740219, -0.019512340426445007, 0.08993272483348846, -0.11112161725759506, -0.12027077376842499, 0.08827300369739532, -0.13202111423015594, -0.10219871997833252, 0.04298841953277588, -0.014611318707466125, -0.001946568489074707, -0.03366823494434357, 0.05242769420146942, 0.15807105600833893, -0.11518637835979462, -0.13169372081756592, -0.1527429074048996, 0.04282200336456299, -0.09587495028972626, -0.13347730040550232, 0.05049912631511688, 0.14077581465244293, -0.08838880062103271, -0.008316874504089355, -0.06502871215343475, -0.005530044436454773, 0.07500433921813965, -0.138212651014328, -0.004775524139404297, -0.05630084127187729, -0.10767869651317596, 0.10529644787311554, -0.1408911943435669, 0.10371793806552887, 0.11519913375377655, -0.01062917709350586, -0.12075921148061752, -0.10647809505462646, -0.021335884928703308, -0.11148735135793686, -0.051174841821193695, 0.0735679417848587, 0.14489372074604034, -0.12319596856832504, 0.003756210207939148, -0.04882010072469711, 0.101923868060112, 0.12147153913974762, -0.026989221572875977, -0.021509692072868347, -0.05509531497955322, -0.11943960189819336, -0.02198326587677002, 0.13185279071331024, -0.09168815612792969, 0.08386053144931793, -0.10668115317821503, 0.10668794810771942, 0.055472537875175476, -0.035111188888549805, -0.02779082953929901, 0.11251725256443024, -0.15931682288646698, 0.04269437491893768, -0.11397739499807358, 0.08189864456653595, 0.010406255722045898, -0.14053571224212646, -0.1254664659500122, -0.0806725025177002, 0.05057716369628906, -0.07534563541412354, 0.0006338804960250854, 0.09922020137310028, 0.10131771862506866, 0.08259148895740509, 0.15868119895458221, -0.005020901560783386, 0.09329207241535187, 0.07035903632640839, -0.08441627025604248, -0.02394823729991913, 0.1261390894651413, 0.10771407186985016, -0.08409468829631805, 0.12406234443187714, -0.08167263120412827, -0.1029125452041626, 0.014995098114013672, -0.06608196347951889, 0.0976385623216629, -0.011445760726928711, 0.11769528687000275, -0.13125097751617432, -0.1485680341720581, 0.151924267411232, 0.12695570290088654, 0.14415569603443146, 0.006686612963676453, -0.06964468955993652, -0.09140777587890625, -0.02748258411884308, 0.032651424407958984, -0.05579972267150879, 0.045894429087638855, 0.05746901035308838, -0.016257405281066895, 0.026815056800842285, 0.13944430649280548, 0.13256265223026276, -0.05018230527639389, -0.003450751304626465, 0.1614014059305191, -0.024524644017219543, -0.003163650631904602, -0.006142020225524902, -0.08381712436676025, -0.003214597702026367, 0.05113522708415985, 0.03532285988330841, 0.02571094036102295, 0.03987698256969452, 0.04325389862060547, -0.15936319530010223, -0.015352651476860046, -0.022572040557861328, 0.05073380470275879, 0.007233142852783203, -0.1596192568540573, 0.07618589699268341, 0.0035372525453567505, 0.014400243759155273, -0.12498216331005096, -0.012337520718574524, -0.13803081214427948, -0.07829158008098602, -0.09054100513458252, 0.11989979445934296, 0.01654811203479767, -0.043608710169792175, -0.0660652369260788, 0.16101403534412384, 0.13720132410526276, 0.13586489856243134, 0.05064117908477783, -0.06045123189687729, -0.12247391790151596, 0.1454879492521286, -0.007640436291694641, -0.0017190426588058472, 0.029766157269477844, 0.13816823065280914, -0.07995931804180145, 0.15737716853618622, -0.09443490207195282, -0.05779179185628891, -0.10941731929779053, -0.01814691722393036, 0.1518288403749466, -0.0050828903913497925, 0.03162102401256561, 0.10834677517414093, -0.029020115733146667, -0.155330628156662, -0.09593912214040756, -0.1220862865447998, 0.024378255009651184, 0.0031501799821853638, 0.06704628467559814, -0.07334387302398682, 0.07000140845775604, -0.1280057430267334, -0.022989273071289062, -0.15907299518585205, -0.08313421905040741, 0.06948840618133545, -0.12461595237255096, -0.03775346279144287, -0.10933836549520493, 0.09353424608707428, -0.1568501889705658, -0.10081112384796143, -0.06425933539867401, -0.13093861937522888, 0.019941329956054688, 0.1270224004983902, 0.037190794944763184, 0.05285532772541046, 0.1052570790052414, -0.00497002899646759, 0.02867273986339569, -0.1557401418685913, 0.1536155492067337, 0.029639557003974915, -0.11803122609853745, 0.1247258335351944, 0.14924268424510956, 0.1436406821012497, -0.12562572956085205, -0.146510049700737, 0.030213400721549988, 0.10347573459148407, 0.10744406282901764, -0.14584240317344666, -0.04331696033477783, 0.1105835884809494, -0.16280679404735565, -0.12159132957458496, 0.11565937101840973, -0.03729049861431122, -0.11164470762014389, -0.0876004695892334, -0.10967501252889633, -0.11785750091075897, 0.09059740602970123, 0.11101330816745758, 0.03878442943096161, -0.018631145358085632, -0.0928795337677002, 0.16265638172626495, -0.04373403638601303, -0.07201385498046875, 0.06810271739959717, -0.11070513725280762, 0.10851185023784637, 0.08999080955982208, 0.05785512924194336, 0.08998717367649078, 0.07607758045196533, 0.14835192263126373, 0.1220746785402298, 0.12284727394580841, 0.1605556458234787, 0.14213766157627106, -0.06824513524770737, -0.1332087516784668, 0.08309312164783478, 0.16157187521457672, -0.0007538795471191406, 0.02786751091480255, 0.04799254238605499, -0.0797836035490036, 0.08841587603092194, -0.059195324778556824, 0.03537885844707489, -0.004669949412345886, 0.056804344058036804, -0.06398725509643555, -0.14032673835754395, 0.10997287929058075, -0.025074005126953125, -0.16018900275230408, 0.035176679491996765, 0.05791620910167694, 0.03990797698497772, 0.08519680798053741, -0.06738746166229248, 0.1451389342546463, -0.08716698735952377, 0.057070329785346985, -0.02174818515777588, 0.06996898353099823, -0.0163373202085495, -0.03089582920074463, 0.12998788058757782, 0.11971618235111237, 0.0798284262418747, 0.07366161048412323, -0.007459118962287903, -0.08550950139760971, 0.07776749134063721, 0.03918349742889404, 0.1571546345949173, -0.0635063648223877, 0.1031239777803421, 0.09564550220966339, 0.1500413566827774, 0.07231748104095459, 0.09672324359416962, 0.016834020614624023, -0.07311694324016571, -0.07410474866628647, -0.13025014102458954, -0.05373712629079819, -0.006282687187194824, -0.048248931765556335, 0.1416492909193039, 0.03993725776672363, -0.06716625392436981, -0.03254680335521698, 0.011063531041145325, -0.02372300624847412, -0.09756036847829819, -0.023276254534721375, -0.14455585181713104, -0.16367845237255096, 0.04750041663646698, 0.09126786887645721, -0.16502845287322998, 0.04083399474620819, 0.0017679929733276367, -0.14812497794628143, 0.04306821525096893, -0.0313873291015625, 0.12511135637760162, -0.03120887279510498, 0.050801798701286316, -0.1139487475156784, 0.12121923267841339, 0.1137697845697403, -0.14391998946666718, -0.15379950404167175, -0.09897136688232422, -0.03187859058380127, -0.05450725555419922, -0.15199995040893555, -0.10366146266460419, -0.07597236335277557, -0.16533410549163818, 0.037623241543769836, -0.07888102531433105, 0.007400080561637878, 0.0857645720243454, -0.006122753024101257, 0.009804368019104004, -0.12185633182525635, 0.058068081736564636, -0.08866870403289795, 0.03285987675189972, 0.10245288908481598, 0.02680182456970215, 0.13524730503559113, -0.10752706229686737, -0.0663166493177414, -0.09885776042938232, -0.14294525980949402, 0.03362631797790527, 0.03115081787109375, 0.05832760035991669, 0.017285704612731934, -0.13488554954528809, 0.15420813858509064, -0.0680580586194992, -0.0979236364364624, 0.12314887344837189, -0.04865451902151108, 0.026139259338378906, 0.014936044812202454, -0.07905983924865723, -0.13851726055145264, -0.141569584608078, 0.016806766390800476, -0.0564296692609787, 0.1505192667245865, 0.09684018790721893, -0.05171775817871094, 0.13131098449230194, 0.050148531794548035, -0.0036994218826293945, 0.1336730271577835, 0.12339045107364655, -0.10615142434835434, 0.030020996928215027, -0.0452294796705246, -0.14747416973114014, 0.014360383152961731, 0.14992718398571014, 0.02469058334827423, 0.023356273770332336, 0.02507050335407257, 0.10317189991474152, -0.012964442372322083, -0.02422352135181427, 0.060660794377326965, -0.03910095989704132, 0.1600380688905716, 0.08200287818908691, 0.16147030889987946, -0.0035812407732009888, 0.04426288604736328, 0.07028639316558838, 0.12055368721485138, -0.06505279242992401, 0.03761573135852814, 0.10984565317630768, -0.0189359188079834, -0.022901251912117004, 0.04350633919239044, 0.1088351458311081, -0.028931215405464172, -0.03454720973968506, -0.06511366367340088, -0.03821289539337158, -0.056389257311820984, 0.08748604357242584, -0.05020105838775635, -0.11267860978841782, -0.07019126415252686, 0.1639632135629654, -0.11381363868713379, -0.010553956031799316, -0.15553173422813416, 0.13163895905017853, -0.009175702929496765, 0.06800718605518341, -0.06468109786510468, -0.1369343250989914, -0.065726637840271, 0.05430746078491211, 0.05464549362659454, -0.018526434898376465, 0.1078585535287857, -0.0633736103773117, 0.14006473124027252, 0.08151257038116455, 0.006464958190917969, 0.05227808654308319, -0.1137467622756958, 0.016070008277893066, -0.14962689578533173, -0.046097323298454285, 0.0038037747144699097, 0.09178413450717926, -0.09107768535614014, 0.06407876312732697, 0.04070918262004852, 0.09517340362071991, -0.05366659164428711, -0.0491870641708374, 0.0014132708311080933, 0.11267809569835663, 0.13648919761180878, 0.07394962012767792, 0.001177072525024414, 0.1522011011838913, 0.03007356822490692, 0.15559913218021393, -0.023317933082580566, 0.09602050483226776, -0.15668141841888428, -0.08679597079753876, -0.1073898896574974, -0.011899635195732117, -0.03492350876331329, -0.16582179069519043, -0.0012156963348388672, 0.15357030928134918, -0.013764217495918274, 0.10465820133686066, 0.1589326113462448, -0.09721096605062485, -0.0758289098739624, 0.11175145208835602, 0.1401776224374771, -0.01754438877105713, 0.09826989471912384, -0.12260282039642334, -0.05390497297048569, -0.1569385975599289, -0.11358146369457245, -0.01939404010772705, -0.013194605708122253, 0.13999290764331818, -0.07011084258556366, 0.12316446006298065, 0.15163834393024445, -0.12399860471487045, -0.04030697047710419, -0.02746923267841339, -0.1311962604522705, 0.15540029108524323, 0.15527786314487457, -0.0455397367477417, 0.012903928756713867, -0.10606484115123749, -0.021512314677238464, 0.07392306625843048, -0.01833955943584442, -0.10886812210083008, -0.07666461169719696, 0.1550416201353073, -0.1036587581038475, -0.15542292594909668, -0.052288495004177094, 0.16400237381458282, 0.0034790784120559692, 0.15346433222293854, 0.0360463410615921, 0.05611447989940643, 0.13404251635074615, 0.048555612564086914, -0.12663304805755615, -0.04380377382040024, 0.08827926218509674, -0.163335919380188, 0.13904227316379547, -0.03737485408782959, -0.0635095089673996, 0.1124800592660904, -0.11941584199666977, 0.16341401636600494, -0.12094537913799286, 0.0768592357635498, 0.10603226721286774, 0.15277697145938873, 0.12634627521038055, 0.0471067875623703, 0.04040884971618652, -0.06916888803243637, -0.13450634479522705, -0.10994859784841537, 0.0836883932352066, -0.09955132007598877, 0.14926807582378387, -0.043605610728263855, -0.15353724360466003, 0.12900866568088531, 0.047402337193489075, 0.09681017696857452, -0.049742184579372406, 0.09406562149524689, 0.11708895862102509, 0.02929060161113739, -0.05458446592092514, -0.05222754180431366, 0.07172651588916779, 0.1636231690645218, 0.13784222304821014, -0.11971497535705566, 0.15329022705554962, -0.04355049133300781, 0.10031025111675262, 0.1593494862318039, 0.16606684029102325, -0.024336740374565125, 0.07901346683502197, 0.07548590004444122, -0.11563023179769516, 0.04748408496379852, 0.1066177636384964, -0.055689454078674316, -0.0813344344496727, -0.05983635038137436, -0.06799658387899399, -0.014813140034675598, 0.05969984829425812, 0.05493955314159393, 0.010773465037345886, -0.13866662979125977, 0.1250569075345993, 0.06817798316478729, -0.01743173599243164, 0.11118750274181366, -0.15542995929718018, 0.12604381144046783, -0.09113415330648422, -0.11513805389404297, 0.13073314726352692, -0.08994825929403305, -0.04193854331970215, 0.07444405555725098, 0.11067964136600494, 0.056755706667900085, -0.14281301200389862, 0.06098675727844238, 0.08519221842288971, -0.06035582721233368, -0.15419340133666992, 0.14630116522312164, 0.07264499366283417, 0.04638504981994629, -0.11719214916229248, -0.0458783358335495, 0.07543277740478516, -0.12652918696403503, 0.005962729454040527, 0.14929823577404022, 0.10090138018131256, -0.08399033546447754, -0.04085130989551544, -0.062164030969142914, 0.06579367816448212, 0.04194967448711395, -0.06967043876647949, 0.0025095492601394653, 0.12071006000041962, 0.07661409676074982, 0.14626093208789825, -0.07975392043590546, 0.15153922140598297, -0.060800157487392426, 0.028116390109062195, 0.0850011557340622, 0.06083941459655762, 0.0013306885957717896, -0.04998262971639633, 0.15534968674182892, -0.14398841559886932, 0.01701994240283966, 0.08282966911792755, -0.15963876247406006, 0.10446374118328094, -0.11264479160308838, -0.0793602466583252, 0.15661270916461945, 0.020110800862312317, 0.14224056899547577, -0.09925007820129395, -0.021976947784423828, 0.05196551978588104, 0.11024729907512665, 0.04642212390899658, -0.07950000464916229, 0.0960865467786789, 0.10735936462879181, -0.02823185920715332, 0.11201782524585724, -0.034851670265197754, -0.059071943163871765, 0.04224812984466553, 0.08819891512393951, -0.15162122249603271, 0.006863042712211609, 0.007472991943359375, -0.00970335304737091, -0.10188066959381104, -0.05068314075469971, -0.06958778947591782, 0.009090021252632141, -0.018281102180480957, -0.09489166736602783, 0.05080974102020264, 0.042633846402168274, -0.09208314120769501, 0.1241326779127121, -0.1656116247177124, 0.02242414653301239, -0.10278423875570297, -0.028540894389152527, -0.13374976813793182, -0.05306582152843475, 0.10012774169445038, 0.11907626688480377, -0.08414944261312485, 0.14476914703845978, -0.039556458592414856, 0.1355930119752884, 0.12167029082775116, -0.02804403007030487, -0.09733323752880096, 0.06470851600170135, 0.08919541537761688, -0.01716303825378418, 0.050895050168037415, 0.05931858718395233, -0.1528264284133911, 0.0645086020231247, 0.1579490453004837, 0.02544581890106201, -0.09556365013122559, -0.00998544692993164, -0.1252506971359253, 0.13601411879062653, 0.030337095260620117, -0.11833862960338593, -0.1001354455947876, 0.04418075084686279, 0.03408508002758026, 0.1106836348772049, 0.11349262297153473, 0.13307048380374908, -0.0038841962814331055, 0.0714799165725708, 0.050394460558891296, -0.09602665901184082, -0.02278764545917511, -0.13990557193756104, 0.1252717524766922, -0.0145643949508667, -0.157732293009758, -0.026192188262939453, 0.16298384964466095, -0.1256754845380783, -0.14635181427001953, 0.08916358649730682, 0.16601650416851044, 0.05332560837268829, -0.08623850345611572, 0.12071497738361359, 0.059248849749565125, 0.04739058017730713, -0.1369420737028122, 0.023434683680534363, -0.07004420459270477, 0.06590242683887482, -0.07745902240276337, 0.09414006769657135, 0.029300644993782043, -0.06056921184062958, -0.14367768168449402, 0.10917742550373077, 0.021849557757377625, -0.10867838561534882, 0.12202514708042145, -0.05570876598358154, 0.05289106070995331, 0.11326612532138824, -0.14566223323345184, 0.16048957407474518, -0.0571211576461792, -0.015463590621948242, -0.1568242758512497, 0.06579665839672089, 0.04693949222564697, -0.07927894592285156, 0.03217673301696777, -0.12382145971059799, -0.12417376041412354, 0.11420954763889313, 0.01525290310382843, 0.0637107640504837, -0.14614860713481903, -0.05449768155813217, 0.094112828373909, -0.15984027087688446, 0.042573049664497375, 0.10438375174999237, 0.13322491943836212, 0.07592730224132538, -0.05184408277273178, 0.13349033892154694, 0.0519435852766037, -0.052858397364616394, -0.16468457877635956, -0.08216818422079086, -0.002073332667350769, -0.01779763400554657, 0.02292613685131073, -0.1328067034482956, -0.11414992809295654, 0.08213014900684357, -0.15853390097618103, -0.13022682070732117, 0.01822619140148163, 0.05381171405315399, 0.15197624266147614, 0.05516369640827179, 0.15337388217449188, -0.02836775779724121, -0.0651886910200119, -0.08580871671438217, -0.14178144931793213, 0.07726609706878662, -0.07696235179901123, -0.02573220431804657, 0.020148038864135742, -0.024511098861694336, -0.09925150871276855, -0.02320830523967743, -0.09168879687786102, -0.14227597415447235, 0.0843999832868576, -0.05908413976430893, -0.034526631236076355, 0.04031161963939667, -0.047574564814567566, -0.12777742743492126, 0.053475022315979004, 0.14776678383350372, -0.000494047999382019, 0.12659554183483124, 0.03109411895275116, 0.08800189197063446, 0.12358839809894562, -0.05178777873516083, -0.15588781237602234, 0.1144903153181076, -0.09968137741088867, 0.05916289985179901, 0.07212217152118683, -0.1311396062374115, -0.15414389967918396, 0.018039464950561523, -0.07449126243591309, -0.13041481375694275, -0.09076075255870819, -0.009256675839424133, 0.046092674136161804, -0.15137498080730438, 0.15856434404850006, 0.056583091616630554, 0.10866622626781464, 0.08869998157024384, -0.11441998183727264, -0.07057730853557587, 0.11983193457126617, -0.06371848285198212, -0.13980481028556824, 0.1615210324525833, -0.15085189044475555, -0.03155863285064697, 0.14304380118846893, -0.02996020019054413, -0.0523250550031662, -0.022995755076408386, 0.1460631638765335, 0.02257843315601349, -0.1009889468550682, 0.11024646461009979, -0.047002553939819336, 0.10886712372303009, -0.03318464756011963, -0.08990609645843506, 0.13079382479190826, 0.11973561346530914, -0.03955383598804474, 0.023647978901863098, -0.01526777446269989, 0.14024288952350616, -0.07612518966197968, -0.03016538918018341, -0.07378125190734863, -0.04668998718261719, -0.022923871874809265, 0.06739063560962677, 0.13222230970859528, 0.11616425216197968, 0.1198447197675705, 0.09483863413333893, 0.020134925842285156, -0.13135680556297302, -0.14527003467082977, 0.15783251821994781, 0.023889824748039246, 0.08474116027355194, 0.08125634491443634, 0.09632496535778046, -0.1632973849773407, 0.04713781177997589, -0.1657334566116333, -0.06352206319570541, 0.08517970144748688, -0.060259029269218445, 0.0687791109085083, -0.1161661148071289, 0.004575446248054504, 0.01650230586528778, -0.015230253338813782, 0.11874385178089142, 0.01074838638305664, -0.09669308364391327, -0.16313707828521729, 0.018231511116027832, 0.06093399226665497, 0.03936421871185303, 0.088382288813591, 0.16416268050670624, 0.08661846816539764, -0.09983067214488983, 0.03202104568481445, -0.0567091703414917, -0.026139065623283386, -0.06202777475118637, -0.0838366374373436, 0.11809064447879791, 0.0902635008096695, -0.13256840407848358, -0.07017163932323456, 0.1413627415895462, -0.09546069800853729, -0.022662997245788574, 0.09832684695720673, -0.13431105017662048, 0.05591769516468048, -0.042657896876335144, 0.07993316650390625, -0.09053421020507812, -0.09997602552175522, -0.060616374015808105, 0.08328533172607422, -0.12215888500213623, 0.1265973001718521, 0.15556196868419647, -0.008635401725769043, -0.11378681659698486, -0.01775340735912323, -0.06724314391613007, -0.004576489329338074, 0.13760118186473846, 0.10028322041034698, -0.029142141342163086, 0.06365744769573212, -0.16332118213176727, -0.013629510998725891, 0.06540636718273163, -0.051811859011650085, 0.00842893123626709, 0.13423378765583038, 0.04197530448436737, -0.06029658019542694, 0.1614212542772293, 0.08436815440654755, -0.08940112590789795, 0.12392489612102509, 0.12179644405841827, -0.0011984854936599731, -0.14883553981781006, 0.1402696818113327, 0.05484473705291748, 0.07184271514415741, 0.10945110023021698, 0.16434027254581451, -0.15148334205150604, -0.11126641929149628, -0.06643255800008774, 0.01904289424419403, -0.10465478897094727, -0.05281488597393036, -0.07908511161804199, 0.061084628105163574, -0.04781317710876465, -0.16585390269756317, -0.041234418749809265, 0.042343661189079285, 0.1208227127790451, -0.16173426806926727, 0.13509918749332428, 0.09798736870288849, 0.13987495005130768, -0.04396538436412811, 0.10241799056529999, -0.03161521255970001, 0.15824835002422333, 0.14103485643863678, -0.01374518871307373, 0.0011233538389205933, 0.13880611956119537, -0.06829099357128143, 0.032215237617492676, -0.11353830993175507, 0.018317267298698425, 0.11945320665836334, 0.06406569480895996, 0.09968121349811554, -0.11828073114156723, -0.15635542571544647, -0.1447419822216034, 0.05029897391796112, 0.16436465084552765, 0.047859832644462585, -0.09896950423717499, -0.00802488625049591, -0.04595077037811279, -0.009092524647712708, 0.009945869445800781, -0.08544187247753143, -0.139820858836174, 0.010562136769294739, 0.08203904330730438, -0.07889827340841293, -0.02588336169719696, 0.09842546284198761, 0.06335850059986115, 0.153516486287117, 0.011125490069389343, 0.13991864025592804, 0.11554102599620819, 0.16070808470249176, -0.07592932879924774, -0.08271646499633789, 0.11510618031024933, 0.03264343738555908, 0.15113188326358795, 0.1661709100008011, -0.11859266459941864, -0.10896269977092743, 0.11006204783916473, -0.10227768123149872, -0.03878624737262726, -0.045807480812072754, -0.011431887745857239, 0.15430717170238495, -0.05706294625997543, -0.1476946771144867, 0.1210961788892746, -0.1319873034954071, -0.05027417838573456, 0.005679890513420105, 0.13171951472759247, -0.04499948024749756, 0.04850701987743378, -0.11009041965007782, -0.12483958899974823, -0.020819857716560364, 0.0900706797838211, 0.14777402579784393, -0.165938138961792, -0.09969334304332733, -0.10785524547100067, -0.13598021864891052, -0.10785834491252899, -0.03470019996166229, 0.09373839199542999, -0.11285758018493652, -0.08409671485424042, 0.07767026126384735, 0.1431705206632614, -0.15833859145641327, -0.0014517754316329956, -0.14377912878990173, 0.07573063671588898, -0.06885616481304169, 0.13791923224925995, -0.01146729290485382, -0.04063554108142853, 0.16319461166858673, -0.0386398583650589, -0.13447634875774384, -0.02133031189441681, -0.02983732521533966, 0.08840109407901764, 0.11983932554721832, 0.14750416576862335, -0.12287740409374237, -0.13265709578990936, -0.027223899960517883, 0.052865102887153625, 0.16006328165531158, 0.14806486666202545, -0.02883152663707733, 0.08362855017185211, -0.0897953137755394, -0.09713082015514374, 0.16010577976703644, -0.1571279764175415, 0.11526943743228912, 0.12089146673679352, -0.05640268325805664, 0.16182298958301544, -0.00010089576244354248, -0.16412076354026794, 0.01752769947052002, -0.13160018622875214, 0.09488900005817413, -0.1051177978515625, -0.04228687286376953, -0.07788725942373276, -0.10114578902721405, 0.0012263506650924683, 0.056550219655036926, 0.13961584866046906, -0.007557347416877747, 0.14240209758281708, 0.1282333880662918, 0.037804290652275085, -0.08093305677175522, -0.020723342895507812, 0.15095774829387665, 0.14385204017162323, 0.004175975918769836, 0.08798296749591827, 0.1379893571138382, -0.14380352199077606, -0.026603296399116516, -0.14469632506370544, 0.03843867778778076, -0.11164053529500961, 0.02072302997112274, 0.08911104500293732, -0.14463305473327637, 0.1098979264497757, -0.12219115346670151, 0.15141434967517853, 0.051080867648124695, 0.07738220691680908, -0.12595252692699432, -0.0008447170257568359, -0.03906254470348358, 0.1232626885175705, -0.08419378846883774, -0.12502889335155487, 0.09716351330280304, -0.14369913935661316, -0.04414927959442139, 0.02396424114704132, 0.11374141275882721, 0.04426507651805878, 0.151389017701149, 0.13039366900920868, 0.05039064586162567, -0.03603482246398926, 0.036511585116386414, -0.14043164253234863, -0.0204743891954422, -0.0704980343580246, -0.12343096733093262, 0.09755779802799225, -0.16562747955322266, 0.0527806282043457, -0.006396889686584473, 0.10170082747936249, -0.012476161122322083, 0.08191978931427002, 0.019448116421699524, 0.14842452108860016, 0.024042174220085144, -0.062140464782714844, -0.07429039478302002, -0.06893515586853027, 0.017143964767456055, 0.04731591045856476, 0.0315069705247879, -0.08881938457489014, -0.03480009734630585, -0.07143756002187729, -0.1303575038909912, 0.004883930087089539, -0.1416153907775879, -0.06810387223958969, 0.1638559252023697, 0.10077948868274689, 0.1341565102338791, -0.15601734817028046, -0.05618266761302948, -0.08136570453643799, -0.1445743292570114, -0.1459505259990692, -0.010002687573432922, 0.09884874522686005, -0.05417577922344208, 0.08794482052326202, -0.12230102717876434, -0.0989946573972702, -0.12164044380187988, -0.06525218486785889, 0.04031626880168915, 0.11283810436725616, 0.10871092975139618, 0.030066803097724915, -0.1552433967590332, -0.10950224101543427, -0.03743831813335419, -0.031097128987312317, -0.010443642735481262, 0.15419550240039825, -0.03866751492023468, 0.07298330962657928, -0.1604321449995041, 0.11670665442943573, -0.11824631690979004, 0.09590865671634674, -0.12787151336669922, -0.05037796497344971, -0.023122191429138184, -0.10308869928121567, -0.12482818216085434, -0.05523101985454559, -0.07167844474315643, -0.12716738879680634, -0.15504905581474304, 0.10587863624095917, -0.060362301766872406, 0.15489976108074188, -0.1624538153409958, -0.05421555042266846, -0.1534857451915741, 0.06997005641460419, -0.011472940444946289, -0.05705805867910385, -0.10571428388357162, 0.10653199255466461, -0.12621471285820007, -0.0024054497480392456, -0.03785140812397003, 0.13870342075824738, -0.1603947877883911, -0.08312710374593735, 0.0063250064849853516, -0.07174714654684067, -0.15623807907104492, -0.08330468833446503, 0.03855995833873749, 0.02909266948699951, -0.04634972661733627, -0.10969237983226776, 0.11058111488819122, 0.14242567121982574, 0.06787319481372833, 0.10947336256504059, -0.1543295830488205, 0.005406856536865234, 0.08538641035556793, 0.008870914578437805, 0.1635524481534958, -0.06011303514242172, 0.14051370322704315, 0.13359655439853668, -0.16472387313842773, 0.05911271274089813, -0.09826191514730453, -0.042759738862514496, 0.10779257118701935, -0.12935706973075867, 0.037642598152160645, -0.034525081515312195, -0.13868093490600586, 0.008720755577087402, 0.09990434348583221, -0.1383953094482422, 0.0951286107301712, 0.11452116072177887, -0.08047990500926971, -0.008500739932060242, -0.11879837512969971, -0.07362087815999985, 0.03557610511779785, 0.1137399822473526, -0.059176765382289886, -0.1291017234325409, -0.13263992965221405, -0.11161991208791733, 0.04689626395702362, -0.08282732963562012, 0.13786758482456207, 0.12047521770000458, 0.05587966740131378, -0.01324307918548584, -0.15553554892539978, -0.16544203460216522, 0.013899564743041992, 0.046518921852111816, -0.14095048606395721, -0.00875730812549591, 0.05925393104553223, -0.07480573654174805, -0.05873310565948486, -0.05754093825817108, 0.08309419453144073, 0.05820842087268829, -0.1551874577999115, -0.0931188315153122, 0.12005238234996796, 0.0006869286298751831, 0.1059381514787674, 0.13353709876537323, 0.062288686633110046, -0.026851773262023926, 0.1299871951341629, 0.05977161228656769, 0.01726488769054413, -0.12087874114513397, -0.16267764568328857, 0.07086364924907684, -0.11860983073711395, 0.05294959247112274, 0.1228436678647995, 0.09429924190044403, 0.018330097198486328, 0.1647099405527115, 0.10762138664722443, -0.05216328799724579, 0.06902146339416504, 0.05555538833141327, -0.07982520759105682, -0.15851593017578125, 0.11227966845035553, -0.028970077633857727, -0.12084238231182098, 0.08364774286746979, -0.05600758641958237, -0.11290185153484344, 0.005872562527656555, -0.11681036651134491, 0.08597244322299957, 0.03992927074432373, 0.03331081569194794, -0.050633907318115234, -0.16017071902751923, -0.10967918485403061, -0.10358560085296631, -0.026877880096435547, 0.0064118653535842896, -0.056468769907951355, 0.0627632886171341, -0.05729921907186508, 0.02251756191253662, -0.13659465312957764, -0.12576457858085632, -0.014214441180229187, 0.030289769172668457, -0.09485757350921631, -0.1359696388244629, -0.15705566108226776, 0.13081760704517365, 0.16345550119876862, 0.08082365989685059, -0.06792183965444565, 0.031145617365837097, 0.11710645258426666, -0.031007841229438782, -0.11546814441680908, -0.009434938430786133, 0.0628432035446167, -0.13652893900871277, 0.008431628346443176, 0.059277817606925964, 0.04793946444988251, 0.12930668890476227, -0.15305456519126892, -0.0027650147676467896, 0.13502784073352814, 0.004036068916320801, -0.0530061349272728, -0.08342842757701874, -0.11130881309509277, 0.007906317710876465, -0.02547447383403778, 0.009220793843269348, -0.11348319053649902, -0.12296247482299805, 0.13690821826457977, -0.15751433372497559, -0.039235904812812805, -0.0534282922744751, 0.11103050410747528, 0.002484723925590515, -0.04478900134563446, 0.013472914695739746, 0.09563000500202179, 0.008654117584228516, -0.054422736167907715, -0.07681810855865479, -0.07561588287353516, 0.0925954133272171, -0.12685775756835938, -0.0946967601776123, -0.07823126018047333, 0.08055587112903595, 0.06086747348308563, -0.14996831119060516, -0.12506699562072754, 0.019890829920768738, -0.13561618328094482, 0.12228398025035858, 0.05378811061382294, -0.11461198329925537, -0.15102577209472656, 0.1133842021226883, 0.14325429499149323, 0.07212233543395996, -0.10295693576335907, -0.1399998664855957, 0.15742583572864532, 0.030647993087768555, 0.1464870721101761, 0.07174305617809296, 0.040902093052864075, 0.15127743780612946, 0.13735665380954742, 0.046843886375427246, -0.051471635699272156, -0.06226396560668945, -0.05275750160217285, 0.1455102413892746, -0.12045995891094208, -0.1036887988448143, 0.12885530292987823, -0.10654445737600327, -0.055474959313869476, 0.03396797180175781, -0.027150705456733704, 0.03893546760082245, 0.05777554214000702, -0.008196994662284851, 0.16242413222789764, 0.04018290340900421, 0.0293072909116745, 0.001530289649963379, 0.044507309794425964, 0.12498451769351959, -0.15960781276226044, 0.08906345069408417, -0.06699832528829575, 0.017103031277656555, 0.11460430920124054, 0.10105808079242706, -0.06446739286184311, 0.026371285319328308, 0.15876884758472443, -0.11820285022258759, -0.006627365946769714, -0.058996520936489105, -0.10014426708221436, 0.08538277447223663, -0.16388170421123505, -0.15505480766296387, 0.04122798144817352, 0.029344961047172546, -0.09701848030090332, 0.16267581284046173, 0.14622585475444794, 0.059922024607658386, 0.15388120710849762, -0.001817271113395691, -0.15269550681114197, 0.1108742207288742, -0.15604190528392792, -0.15014593303203583, 0.07816803455352783, -0.16370117664337158, 0.023920848965644836, 0.08584828674793243, 0.1368228942155838, 0.01764686405658722, 0.03075568377971649, -0.11938679218292236, -0.15876874327659607, 0.013318821787834167, 0.10814489424228668, 0.04886825382709503, 0.05263352394104004, 0.10750846564769745, 0.02083718776702881, 0.10221020877361298, -0.13958773016929626, -0.16306337714195251, -0.12332765758037567, 0.11021454632282257, 0.10766465961933136, 0.1646721512079239, 0.05659429728984833, 0.0186183899641037, -0.06208451837301254, -0.08628889173269272, 0.1638006716966629, -0.08783476054668427, -0.09470470994710922, 0.12690748274326324, -0.037445068359375, 0.025150224566459656, 0.0025974512100219727, -0.16426488757133484, -0.11278045177459717, -0.010358095169067383, -0.04973404109477997, 0.021777033805847168, -0.04216226190328598, -0.16409818828105927, 0.07729332149028778, -0.10977383702993393, -0.007963895797729492, 0.09025616943836212, 0.16356326639652252, 0.1262027472257614, -0.05041158199310303, 0.09880854189395905, 0.05898766219615936, 0.14918650686740875, -0.06857629865407944, 0.12418736517429352, 0.10566230118274689, -0.14114706218242645, -0.16570155322551727, 0.017725035548210144, -0.06488355249166489, 0.09504611790180206, -0.1622215211391449, 0.15136615931987762, -0.00040371716022491455, 0.003061458468437195, 0.13855279982089996, -0.08542680740356445, -0.08031165599822998, -0.015604928135871887, -0.04704960435628891, -0.04366040229797363, 0.12308026850223541, 0.144530788064003, -0.04260476678609848, -0.09736895561218262, -0.04244279861450195, -0.08154802024364471, 0.16043095290660858, -0.14339026808738708, -0.1471174955368042, 0.1317378431558609, -0.1563504934310913, -0.14839164912700653, 0.006567433476448059, -0.01058967411518097, 0.03302328288555145, -0.11416471004486084, 0.04952172935009003, 0.06396801769733429, -0.07018359750509262, 0.048501014709472656, -0.03841085731983185, -0.01822786033153534, -0.09497480094432831, -0.009914159774780273, 0.01895134150981903, 0.09594349563121796, -0.05612906068563461, 0.07005949318408966, -0.10196594893932343, 0.04803283512592316, -0.04977278411388397, 0.15508748590946198, 0.003553628921508789, 0.013723209500312805, 0.03855562210083008, 0.12926729023456573, 0.03299124538898468, -0.03296220302581787, 0.05102522671222687, 0.15616817772388458, -0.14247414469718933, 0.13579656183719635, 0.15689413249492645, 0.075282022356987, -0.0838366374373436, -0.039159491658210754, 0.01230628788471222, -0.15687021613121033, 0.005001857876777649, -0.0793977603316307, -0.044170305132865906, -0.031644225120544434, -0.014343500137329102, 0.13928858935832977, 0.01516580581665039, -0.13165318965911865, 0.018972203135490417, -0.07340332120656967, -0.0074727535247802734, 0.01980777084827423, -0.15359553694725037, -0.15430288016796112, -0.03545951843261719, 0.12206999957561493, -0.0679062232375145, -0.09098061174154282, -0.05618675798177719, -0.13558325171470642, -0.08559664338827133, -0.06498508155345917, -0.14003396034240723, -0.020653530955314636, 0.09402944147586823, 0.058832570910453796, -0.11673891544342041, -0.03223729133605957, -0.08825068175792694, 0.08906324207782745, -0.037480756640434265, 0.061457470059394836, 0.014537811279296875, 0.05175201594829559, -0.006923794746398926, 0.014388322830200195, -0.03451704978942871, -0.01936204731464386, 0.13094641268253326, 0.1452946811914444, 0.04927937686443329, 0.10690619051456451, 0.020304560661315918, 0.11832208931446075, -0.10044141858816147, 0.05220480263233185, -0.03703300654888153, 0.040448665618896484, 0.15570975840091705, 0.15613342821598053, -0.05338200181722641, 0.16480888426303864, -0.10141631215810776, -0.1033216342329979, 0.08681182563304901, 0.013128355145454407, -0.06572747230529785, -0.03585346043109894, -0.13440319895744324, -0.12011063098907471, 0.15804137289524078, -0.0740005224943161, 0.1293996125459671, 0.04651670157909393, -0.07168944925069809, -0.0446598157286644, 0.13486434519290924, 0.026625707745552063, 0.04869203269481659, -0.0936603993177414, -0.10450439155101776, -0.0729350671172142, -0.1546100378036499, -0.011443302035331726, -0.06412152945995331, -0.15250670909881592, -0.12314212322235107, 0.041539475321769714, -0.08487610518932343, 0.13948078453540802, -0.11285436153411865, -0.12063996493816376, -0.07936497777700424, 0.09065128862857819, -0.1512620449066162, 0.08851651847362518, -0.11111819744110107, 0.1586555689573288, -0.1538470983505249, 0.09253372251987457, -0.10810451209545135, 0.08704690635204315, -0.11469467729330063, 0.0026116371154785156, -0.04788661003112793, -0.056927844882011414, -0.028542518615722656, 0.05074067413806915, -0.07564850896596909, 0.06590361893177032, 0.150399848818779, 0.022316768765449524, 0.15292222797870636, 0.035274937748909, -0.09685790538787842, 0.11478962004184723, -0.08278810977935791, -0.11660965532064438, 0.11019296944141388, -0.03322112560272217, -0.03880460560321808, 0.09789364039897919, -0.13389329612255096, -0.026825666427612305, 0.14511807262897491, -0.09483377635478973, -0.15608589351177216, 0.10966210067272186, 0.027103662490844727, 0.11193554103374481, 0.1650090366601944, 0.017920538783073425, 0.013352200388908386, -0.14217925071716309, -0.016760990023612976, -0.08646055310964584, 0.08781604468822479, -0.08403202146291733, 0.056313276290893555, 0.11929111182689667, -0.00476229190826416, 0.1547265201807022, -0.03810012340545654, 0.16618360579013824, 0.1581912785768509, 0.08873225748538971, -0.013027593493461609, -0.1344262808561325, -0.09857825934886932, -0.12166862189769745, -0.0958157405257225, -0.11177289485931396, 0.09741739928722382, 0.027186468243598938, 0.09361542761325836, 0.06406545639038086, -0.16390368342399597, -0.14807486534118652, 0.11028595268726349, 0.08339087665081024, 0.05627107620239258, 0.1353481560945511, -0.005635976791381836, -0.11628258228302002, -0.0540490597486496, -0.1096239909529686, -0.10064705461263657, -0.061154842376708984, 0.0649237185716629, -0.11530923843383789, 0.11391837894916534, 0.011136814951896667, 0.14110402762889862, 0.10366322100162506, -0.05537911504507065, -0.012671634554862976, -0.033818766474723816, 0.11434657871723175, -0.014125064015388489, -0.08992715924978256, 0.018621638417243958, -0.09142100811004639, 0.14686746895313263, -0.16308772563934326, -0.11494886875152588, -0.16252057254314423, -0.046094223856925964, 0.14275296032428741, -0.15806329250335693, -0.06295029819011688, 0.16368688642978668, -0.1500324010848999, -0.06481234729290009, -0.15920469164848328, -0.1363535374403, 0.12026794254779816, 0.08195729553699493, 0.16585378348827362, -0.04830341041088104, 0.03908295929431915, -0.10090907663106918, 0.06962375342845917, 0.0833032876253128, -0.14423811435699463, 0.15865685045719147, 0.060631752014160156, 0.04659564793109894, 0.12633316218852997, 0.06989546120166779, -0.026117399334907532, 0.01985006034374237, 0.16138188540935516, -0.10965140908956528, -0.11049282550811768, 0.041672781109809875, -0.11488907039165497, 0.13044731318950653, -0.0006122589111328125, -0.013257384300231934, 0.09102393686771393, 0.024153590202331543, -0.0787636861205101, -0.1540716588497162, 0.14506106078624725, -0.06343857944011688, -0.11120554059743881, -0.09423276036977768, -0.003902435302734375, -0.006402373313903809, 0.11358515918254852, -0.07473766803741455, 0.0866127461194992, 0.09611348807811737, -0.09756267070770264, -0.14631912112236023, 0.011508464813232422, 0.14842350780963898, 0.032974764704704285, -0.05056862533092499, 0.09544984996318817, 0.1354733258485794, -0.061665259301662445, 0.06201188266277313, 0.0451536625623703, -0.09871026128530502, 0.056038931012153625, -0.002399727702140808, 0.1351127177476883, 0.054448843002319336, -0.1305910050868988, 0.1282903105020523, -0.10025878995656967, 0.13497336208820343, 0.11279775202274323, -0.05031701177358627, -0.019150689244270325, 0.12186850607395172, 0.1652504950761795, 0.12795333564281464, 0.11741931736469269, 0.04309992492198944, 0.11869807541370392, -0.0010035037994384766, 0.02549712359905243, 0.12849123775959015, 0.01042206585407257, -0.15449099242687225, 0.07503621280193329, -0.03885670006275177, 0.12257663905620575, -0.11080782115459442, 0.10017041862010956, -0.006888821721076965, -0.0023450106382369995, 0.13448287546634674, -0.1463252753019333, -0.08487121760845184, 0.02931232750415802, 0.12959937751293182, -0.014691948890686035, -0.10174243152141571, -0.019312307238578796, -0.09266304969787598, -0.1239694356918335, 0.07183849811553955, 0.0792992115020752, 0.013135954737663269, 0.034850433468818665, -0.05703108012676239, -0.16190855205059052, 0.11242558062076569, 0.0001109093427658081, -0.029278874397277832, 0.017408177256584167, 0.08496178686618805, 0.08205600082874298, -0.15203583240509033, -0.05934401601552963, 0.01464235782623291, 0.0285845547914505, -0.12046532332897186, 0.11206938326358795, -0.04278489202260971, 0.004366949200630188, -0.04322366416454315, 0.0022106170654296875, -0.11333557218313217, 0.11991970241069794, 0.01969170570373535, 0.04708254337310791, -0.11216986179351807, 0.12277604639530182, 0.04328612983226776, 0.04300542175769806, -0.13693925738334656, 0.07483310997486115, 0.026227787137031555, -0.08125011622905731, -0.03957732021808624, -0.0831989049911499, -0.08754229545593262, -0.14861544966697693, -0.149078369140625, -0.05794656276702881, -0.0743105411529541, 0.10818557441234589, -0.07508858293294907, 0.15128080546855927, -0.15661609172821045, 0.05147738754749298, 0.16292347013950348, 0.014807268977165222, 0.11417560279369354, -0.12194228172302246, 0.024592116475105286, -0.10198494046926498, -0.1649315059185028, -0.029520437121391296, -0.10636353492736816, -0.0696597546339035, -0.09516513347625732, -0.16651785373687744, -0.14958171546459198, 0.11801595985889435, -0.09072180837392807, 0.12357740104198456, -0.06589695066213608, 0.12845592200756073, -0.12497230619192123, 0.1147332638502121, 0.07268226146697998, -0.12066873162984848, -0.13856598734855652, 0.14028461277484894, 0.15104131400585175, -0.08034825325012207, 0.04874543845653534, -0.09140925109386444, 0.04666082561016083, 0.12006910145282745, 0.09707094728946686, 0.11258096992969513, -0.04753975570201874, 0.013266131281852722, 0.06919758021831512, -0.11300492286682129, 0.007675483822822571, 0.07282324135303497, 0.09737111628055573, 0.017675206065177917, -0.02319049835205078, 0.10173003375530243, -0.10829798877239227, -0.13846394419670105, 0.09561838209629059, -0.017859578132629395, 0.060989975929260254, -0.05834197998046875, 0.03010427951812744, 0.010523244738578796, -0.06721346080303192, 0.12168209254741669, -0.05213650315999985, 0.08104924857616425, 0.15823666751384735, -0.16665546596050262, 0.137715145945549, 0.02984769642353058, -0.1454557180404663, 0.06963872909545898, -0.0331854373216629, 0.0747029036283493, -0.06950926780700684, -0.16111648082733154, -0.04640984535217285, 0.09605996310710907, -0.1467277705669403, -0.029712960124015808, -0.005214884877204895, -0.075742207467556, 0.08813418447971344, 0.04511916637420654, 0.15194205939769745, -0.10299722850322723, 0.04339270293712616, -0.03578627109527588, 0.02188742160797119, 0.025219440460205078, -0.11899447441101074, -0.09484025090932846, -0.06045174598693848, -0.1545376479625702, 0.03269803524017334, -0.07377668470144272, 0.0534394234418869, -0.15796852111816406, 0.08138112723827362, -0.12984275817871094, -0.02044534683227539, -0.09955203533172607, 0.005218029022216797, 0.09862209856510162, -0.16496416926383972, 0.11199097335338593, 0.05795149505138397, -0.1547505110502243, 0.04659132659435272, -0.04859928786754608, 0.015169933438301086, -0.1582459658384323, -0.0011375397443771362, -0.030768468976020813, 0.1651778668165207, -0.1251741349697113, 0.0415547639131546, -0.015486598014831543, 0.13265086710453033, 0.12727312743663788, 0.10172756016254425, -0.06418820470571518, 0.15532900393009186, -0.10659413039684296, -0.028772905468940735, 0.06741099059581757, 0.1540215164422989, -0.13765236735343933, -0.06126987934112549, -0.1452627182006836, -0.10994891822338104, 0.08291523158550262, -0.021087169647216797, -0.1113467663526535, -0.014387890696525574, 0.04442779719829559, -0.03118555247783661, 0.04645223915576935, -0.02757267653942108, 0.12160293757915497, -0.05644838511943817, 0.036891624331474304, -0.03427477180957794, 0.04972095787525177, -0.12272489070892334, -0.08099488914012909, 0.061803221702575684, -0.1310727596282959, 0.007527783513069153, -0.14210781455039978, -0.11101635545492172, 0.1509966105222702, -0.08525892347097397, -0.08093440532684326, 0.07289846241474152, 0.14756174385547638, 0.0748930424451828, -0.026283934712409973, -0.04839682579040527, 0.07887263596057892, -0.12515263259410858, 0.12909235060214996, 0.06935171782970428, -0.05842399597167969, -0.09054955095052719, 0.13964001834392548, 0.01069052517414093, 0.12485499680042267, -0.1653556078672409, -0.04095204174518585, 0.14681412279605865, -0.11214685440063477, -0.004412099719047546, 0.01790452003479004, 0.10823257267475128, 0.021965190768241882, 0.07365381717681885, -0.01923072338104248, 0.05375583469867706, 0.022676900029182434, -0.007892653346061707, -0.09696944802999496, 0.09490044414997101, 0.15380100905895233, 0.12821955978870392, -0.12154877185821533, 0.09373988211154938, 0.14354254305362701, 0.08945350348949432, 0.004530712962150574, 0.1530410200357437, -0.14997050166130066, 0.038320109248161316, -0.04035043716430664, -0.032464027404785156, 0.0897478312253952, -0.07085645198822021, -0.054939672350883484, -0.05448734760284424, 0.11407817900180817, -0.15242092311382294, -0.07439009845256805, 0.14768792688846588, -0.1405022144317627, 0.0952700823545456, 0.12654976546764374, -0.10517625510692596, -0.07842385768890381, 0.11205817759037018, -0.11697709560394287, 0.09769566357135773, 0.11330930888652802, -0.06995944678783417, 0.0046929121017456055, 0.06810109317302704, 0.03659164905548096, 0.12652163207530975, -0.08195646852254868, -0.1373177021741867, -0.14983317255973816, -0.07050232589244843, 0.1532960683107376, 0.00247974693775177, -0.10912244021892548, -0.142964169383049, -0.10210525989532471, 0.037846639752388, -0.036936476826667786, 0.007900118827819824, -0.14146816730499268, 0.03235173225402832, 0.16024978458881378, -0.1039474830031395, 0.020892977714538574, 0.13694728910923004, 0.07931168377399445, -0.10561402887105942, -0.028070762753486633, -0.08301262557506561, -0.13681578636169434, 0.14879031479358673, -0.09152277559041977, 0.16199497878551483, 0.13801945745944977, -0.11801497638225555, 0.15984703600406647, -0.03881581127643585, 0.061698123812675476, -0.024738788604736328, 0.042015716433525085, -0.061981044709682465, 0.018452048301696777, -0.010285541415214539, 0.0336257666349411, -0.048044368624687195, -0.11970961093902588, 0.14923812448978424, 0.09763927757740021, 0.120094433426857, 0.045831963419914246, 0.04076977074146271, 0.12283925712108612, 0.034958526492118835, -0.08528082072734833, -0.007510662078857422, 0.09648875892162323, 0.0024997740983963013, 0.06901077926158905, -0.08521704375743866, -0.029078006744384766, -0.0749162882566452, -0.006071373820304871, -0.034063294529914856, -0.04417320340871811, 0.0796986073255539, 0.020092129707336426, 0.15855403244495392, 0.11335523426532745, 0.009083077311515808, 0.10117773711681366, -0.12708263099193573, 0.10137952864170074, -0.0852758139371872, 0.05137486755847931, -0.0342298299074173, 0.1555481106042862, -0.14141619205474854, -0.04126334190368652, 0.09033291041851044, -0.07949837297201157, 0.06541192531585693, -0.04363151639699936, 0.045760273933410645, -0.03525988757610321, 0.005596444010734558, -0.1598704308271408, 0.12318487465381622, -0.09547333419322968, 0.06800039112567902, -0.08924822509288788, -0.13721875846385956, 0.09326012432575226, -0.15034103393554688, 0.046328380703926086, -0.10568051040172577, 0.07693140208721161, -0.11464691162109375, -0.11278136819601059, 0.1491410881280899, -0.12953898310661316, 0.08429424464702606, -0.12374448776245117, 0.10637243092060089, -0.01831202208995819, -0.03920571506023407, -0.04199099540710449, 0.10576696693897247, -0.05529686063528061, 0.09031026065349579, 0.05436320602893829, 0.06959450244903564, -0.08506850898265839, -0.14449433982372284, 0.011183977127075195, 0.09248961508274078, 0.04555864632129669, 0.15555910766124725, 0.02219279110431671, 0.10650663077831268, -0.1003648042678833, -0.05598616600036621, 0.06382520496845245, -0.026642128825187683, 0.10392574965953827, -0.013754725456237793, -0.12141792476177216, -0.034254953265190125, 0.12104268372058868, -0.006895855069160461, -0.12459548562765121, 0.06007607281208038, 0.032129570841789246, -0.12546703219413757, 0.06082241237163544, 0.1247488409280777, 0.06593549251556396, 0.14361883699893951, -0.13465754687786102, 0.09261338412761688, 0.09525473415851593, -0.0013475418090820312, 0.07323332130908966, -0.14224784076213837, -0.16365163028240204, -0.0002690553665161133, -0.05547746270895004, 0.04312308132648468, 0.15562523901462555, 0.12516392767429352, -0.13864395022392273, -0.10095064342021942, 0.10529570281505585, -0.04426848888397217, 0.02359616756439209, 0.14218397438526154, 0.12579374015331268, -0.08561241626739502, -0.04370304197072983, 0.045820191502571106, -0.019607901573181152, -0.15842966735363007, -0.14044499397277832, -0.036423131823539734, 0.1153300553560257, -0.13075241446495056, -0.09615322202444077, 0.11973397433757782, 0.13962523639202118, 0.1627432256937027, 0.038678720593452454, 0.12716837227344513, 0.02796804904937744, -0.1239243745803833, 0.09338726103305817, 0.14270074665546417, 0.03339052200317383, -0.09602634608745575, 0.15751023590564728, 0.16260065138339996, -0.08131297677755356, 0.01697695255279541, 0.08832891285419464, -0.0809611901640892, -0.002520516514778137, -0.011686563491821289, 0.02112157642841339, 0.09174768626689911, -0.09322500228881836, 0.04431915283203125, 0.12483711540699005, -0.0014015436172485352, -0.022398903965950012, -0.1647408902645111, -0.11337979882955551, 0.10382609069347382, 0.15612615644931793, -0.14723221957683563, -0.03983430564403534, -0.02496151626110077, 0.10148386657238007, 0.14062385261058807, 0.01706354320049286, -0.1191817969083786, 0.0021579712629318237, -0.035247281193733215, 0.09446267783641815, 0.02662508189678192, -0.0012657642364501953, -0.044195495545864105, -0.07326146215200424, -0.04615970700979233, 0.1052289754152298, 0.12017123401165009, -0.12598304450511932, -0.13156192004680634, -0.09729599952697754, -0.016951322555541992, -0.021758273243904114, -0.09620451927185059, -0.11470731347799301, 0.043152496218681335, -0.07182439416646957, 0.023319482803344727, -0.015180110931396484, 0.16583235561847687, 0.16482748091220856, 0.10943309962749481, 0.06486093997955322, 0.16637016832828522, 0.1571013480424881, 0.14895789325237274, 0.07444806396961212, -0.11506824195384979, -0.11996348947286606, 0.0911298543214798, 0.13999761641025543, 0.06953687965869904, 0.017007634043693542, 0.1415279358625412, 0.09773330390453339, 0.16514505445957184, 0.13592876493930817, 0.069933220744133, -0.11823856830596924, -0.006337523460388184, 0.018124625086784363, -0.034896448254585266, -0.12372478097677231, -0.04175257682800293, 0.059990525245666504, -0.14907848834991455, -0.13296377658843994, -0.08517079055309296], "convBiasB": [0.0, 0.0, 0.0, 0.0, 0.0, 0.0, 0.0, 0.0, 0.0, 0.0, 0.0, 0.0, 0.0, 0.0, 0.0, 0.0, 0.0, 0.0, 0.0, 0.0, 0.0, 0.0, 0.0, 0.0, 0.0, 0.0, 0.0, 0.0, 0.0, 0.0, 0.0, 0.0, 0.0, 0.0, 0.0, 0.0, 0.0, 0.0, 0.0, 0.0, 0.0, 0.0, 0.0, 0.0, 0.0, 0.0, 0.0, 0.0], "bnMeanB": [0.0, 0.0, 0.0, 0.0, 0.0, 0.0, 0.0, 0.0, 0.0, 0.0, 0.0, 0.0, 0.0, 0.0, 0.0, 0.0, 0.0, 0.0, 0.0, 0.0, 0.0, 0.0, 0.0, 0.0, 0.0, 0.0, 0.0, 0.0, 0.0, 0.0, 0.0, 0.0, 0.0, 0.0, 0.0, 0.0, 0.0, 0.0, 0.0, 0.0, 0.0, 0.0, 0.0, 0.0, 0.0, 0.0, 0.0, 0.0], "bnVarianceB": [1.0, 1.0, 1.0, 1.0, 1.0, 1.0, 1.0, 1.0, 1.0, 1.0, 1.0, 1.0, 1.0, 1.0, 1.0, 1.0, 1.0, 1.0, 1.0, 1.0, 1.0, 1.0, 1.0, 1.0, 1.0, 1.0, 1.0, 1.0, 1.0, 1.0, 1.0, 1.0, 1.0, 1.0, 1.0, 1.0, 1.0, 1.0, 1.0, 1.0, 1.0, 1.0, 1.0, 1.0, 1.0, 1.0, 1.0, 1.0], "bnBetaB": [0.0, 0.0, 0.0, 0.0, 0.0, 0.0, 0.0, 0.0, 0.0, 0.0, 0.0, 0.0, 0.0, 0.0, 0.0, 0.0, 0.0, 0.0, 0.0, 0.0, 0.0, 0.0, 0.0, 0.0, 0.0, 0.0, 0.0, 0.0, 0.0, 0.0, 0.0, 0.0, 0.0, 0.0, 0.0, 0.0, 0.0, 0.0, 0.0, 0.0, 0.0, 0.0, 0.0, 0.0, 0.0, 0.0, 0.0, 0.0], "bnGammaB": [1.0, 1.0, 1.0, 1.0, 1.0, 1.0, 1.0, 1.0, 1.0, 1.0, 1.0, 1.0, 1.0, 1.0, 1.0, 1.0, 1.0, 1.0, 1.0, 1.0, 1.0, 1.0, 1.0, 1.0, 1.0, 1.0, 1.0, 1.0, 1.0, 1.0, 1.0, 1.0, 1.0, 1.0, 1.0, 1.0, 1.0, 1.0, 1.0, 1.0, 1.0, 1.0, 1.0, 1.0, 1.0, 1.0, 1.0, 1.0], "convKernelC": [-0.1280955672264099, -0.3272618055343628, 0.2266479730606079, -0.3864037096500397, 0.3947603106498718, 0.3261770009994507, 0.3846958875656128, 0.3453562259674072, -0.3041432499885559, 0.30084657669067383, -0.4055434465408325, -0.032431215047836304, 0.4108927249908447, -0.428813636302948, 0.313717246055603, -0.2862735390663147, -0.3922361433506012, -0.06177601218223572, 0.42561912536621094, 0.30775338411331177, -0.03516453504562378, -0.32755547761917114, 0.1297650933265686, -0.25060880184173584, 0.3575478196144104, 0.2222825288772583, 0.07482069730758667, -0.05003786087036133, 0.33691948652267456, 0.103923499584198, 0.13034701347351074, -0.12488970160484314, -0.23666416108608246, -0.4117421507835388, 0.16526836156845093, -0.09379082918167114, 0.19949275255203247, -0.3681262731552124, 0.33922284841537476, -0.20301800966262817, -0.09057477116584778, 0.297213613986969, -0.0837363600730896, -0.4137883484363556, -0.2970152497291565, 0.093952476978302, 0.4329960346221924, 0.43367940187454224, 0.07422983646392822, -0.2624739408493042, 0.2847641706466675, -0.2528758645057678, -0.264456182718277, 0.3677681088447571, -0.23178109526634216, 0.2768680453300476, 0.18589794635772705, -0.09723278880119324, -0.2660869061946869, 0.15226256847381592, -0.33632755279541016, 0.24415487051010132, -0.33048078417778015, 0.015241056680679321, 0.02973899245262146, -0.304463267326355, -0.08489549160003662, 0.41447925567626953, -0.2254357635974884, 0.41110914945602417, -0.33895212411880493, -0.13464954495429993, -0.067603200674057, -0.19251105189323425, -0.1983555257320404, -0.4022645950317383, -0.4138536751270294, -0.18987557291984558, -0.02578139305114746, 0.22136884927749634, 0.30876171588897705, 0.26786667108535767, 0.09603464603424072, -0.26315081119537354, 0.3287442922592163, -0.3935585916042328, 0.08027076721191406, -0.020704597234725952, -0.21551504731178284, 0.2616869807243347, -0.4156690239906311, 0.31753009557724, 0.08892464637756348, 0.14036518335342407, 0.04407581686973572, 0.400556743144989, -0.002199023962020874, 0.15197384357452393, -0.39198994636535645, 0.27918893098831177, -0.20823167264461517, -0.2546193599700928, 0.20564579963684082, -0.08875641226768494, 0.14761888980865479, -0.3059828281402588, 0.4067949056625366, -0.07906842231750488, -0.31549227237701416, 0.3563516139984131, 0.3300778865814209, -0.41847389936447144, -0.3811042308807373, -0.09902063012123108, 0.24928581714630127, 0.2749713063240051, 0.00697404146194458, -0.3408404588699341, -0.07842501997947693, 0.2423812747001648, -0.044969141483306885, -0.3087407946586609, -0.37576407194137573, 0.19593381881713867, 0.22129970788955688, 0.35555171966552734, 0.4041687846183777, 0.34476208686828613, 0.20021629333496094, -0.07467490434646606, 0.3016389012336731, 0.18658024072647095, -0.08781006932258606, -0.3739488422870636, -0.18103009462356567, 0.3683144450187683, -0.26213371753692627, -0.39150768518447876, 0.3519590497016907, -0.3585524260997772, 0.26733899116516113, 0.34823471307754517, -0.21195800602436066, 0.02144920825958252, 0.06509631872177124, -0.013203263282775879, 0.01797628402709961, -0.1430957019329071, 0.054394692182540894, 0.1849002242088318, -0.10462567210197449, 0.20231127738952637, -0.17491257190704346, 0.28255707025527954, -0.1385086476802826, 0.3338155746459961, -0.010909318923950195, -0.11049479246139526, -0.2731025815010071, -0.4233000874519348, 0.09236282110214233, 0.1861555576324463, 0.42847341299057007, -0.3558271825313568, -0.11986997723579407, 0.34368830919265747, 0.12121748924255371, 0.21570146083831787], "convBiasC": [0.0, 0.0, 0.0, 0.0, 0.0, 0.0, 0.0, 0.0, 0.0, 0.0, 0.0, 0.0, 0.0, 0.0, 0.0, 0.0, 0.0, 0.0, 0.0, 0.0, 0.0, 0.0, 0.0, 0.0], "bnMeanC": [0.0, 0.0, 0.0, 0.0, 0.0, 0.0, 0.0, 0.0, 0.0, 0.0, 0.0, 0.0, 0.0, 0.0, 0.0, 0.0, 0.0, 0.0, 0.0, 0.0, 0.0, 0.0, 0.0, 0.0], "bnVarianceC": [1.0, 1.0, 1.0, 1.0, 1.0, 1.0, 1.0, 1.0, 1.0, 1.0, 1.0, 1.0, 1.0, 1.0, 1.0, 1.0, 1.0, 1.0, 1.0, 1.0, 1.0, 1.0, 1.0, 1.0], "bnBetaC": [0.0, 0.0, 0.0, 0.0, 0.0, 0.0, 0.0, 0.0, 0.0, 0.0, 0.0, 0.0, 0.0, 0.0, 0.0, 0.0, 0.0, 0.0, 0.0, 0.0, 0.0, 0.0, 0.0, 0.0], "bnGammaC": [1.0, 1.0, 1.0, 1.0, 1.0, 1.0, 1.0, 1.0, 1.0, 1.0, 1.0, 1.0, 1.0, 1.0, 1.0, 1.0, 1.0, 1.0, 1.0, 1.0, 1.0, 1.0, 1.0, 1.0], "convKernelD": [0.05817962437868118, 0.0021254122257232666, 0.016933225095272064, 0.054362379014492035, -0.07033170759677887, -0.07817891985177994, -0.050021059811115265, -0.026298202574253082, 0.04006858915090561, -0.09322048723697662, -0.018205277621746063, 0.003980323672294617, 0.06333626061677933, 0.11338797956705093, -0.028511278331279755, -0.07397696375846863, -0.003953851759433746, -0.02244066447019577, -0.016075707972049713, -0.09251528233289719, 0.01837512105703354, 0.06037702411413193, -0.003150254487991333, -0.09031951427459717, -0.07508112490177155, -0.06669747084379196, -0.012091733515262604, -0.02578192949295044, -0.05325867235660553, -0.08878174424171448, -0.014192134141921997, 0.11158939450979233, -0.07430911064147949, -0.09071417897939682, -0.09197765588760376, -0.011766329407691956, 0.092788927257061, 0.11269407719373703, 0.0616435632109642, 0.07537534087896347, -0.06476661562919617, 0.011464931070804596, -0.03928479552268982, -0.022255562245845795, 0.009102709591388702, -0.015215069055557251, 0.013977162539958954, -0.08882996439933777, 0.057559333741664886, 0.014996327459812164, -0.06578086316585541, 0.028453759849071503, 0.060449399054050446, 0.0011258795857429504, 0.003688998520374298, 0.013433776795864105, 0.04565442353487015, 0.064119853079319, -0.059682074934244156, -0.023409344255924225, 0.10740112513303757, 0.007413066923618317, -0.06376874446868896, -0.05568747967481613, -0.022737018764019012, 0.07937692850828171, -0.08534745126962662, -0.017804011702537537, -0.10870282351970673, -0.061966318637132645, -0.04715515673160553, -0.0990341380238533, -0.045612581074237823, -0.11300286650657654, -0.06652852147817612, 0.1134418174624443, -0.07434870302677155, 0.08455976098775864, -0.01598747819662094, -0.01656840741634369, -0.046649202704429626, -0.07102463394403458, -0.10930900275707245, -0.06598763167858124, 0.02512609213590622, 0.0003802776336669922, 0.06199709326028824, 0.10731463879346848, 0.10909432917833328, -0.029882676899433136, 0.04018440097570419, -0.10180293023586273, -0.010738171637058258, -0.02684178203344345, -0.08160579204559326, 0.03579593449831009, -0.04858455806970596, 0.02508798986673355, -0.08525127172470093, 0.09305386990308762, 0.04649119824171066, 0.07630322128534317, -0.054576434195041656, 0.0220092311501503, 0.044630758464336395, 0.05798422545194626, -0.10557355731725693, 0.1076890155673027, -0.0932372584939003, 0.10949113219976425, -0.10309453308582306, 0.10421460121870041, -0.06764417886734009, 0.09253627806901932, 0.0800585076212883, -0.11076270788908005, -0.04433668404817581, -0.11320649087429047, -0.024905778467655182, 0.10519664734601974, 0.09781674295663834, -0.09632954746484756, -0.11462287604808807, -0.03672850877046585, 0.10293219238519669, -0.07768285274505615, -0.08143246173858643, 0.11156793683767319, 0.09324610978364944, 0.09916187077760696, 0.06246281415224075, -0.011679820716381073, -0.07126422226428986, -0.06158638000488281, 0.1042853519320488, 0.04499358683824539, -0.04299888759851456, -0.037245482206344604, 0.01654171198606491, 0.09056857973337173, 0.07743915170431137, -0.0265483558177948, 0.020957179367542267, 0.008411578834056854, -0.07526783645153046, 0.008155502378940582, -0.09413411468267441, -0.004147753119468689, 0.053305648267269135, -0.005208760499954224, 0.002803131937980652, 0.0029886364936828613, 0.028572924435138702, 0.02222777158021927, -0.03469570726156235, 0.11019165068864822, -0.03325192630290985, -0.08254721760749817, 0.02255823463201523, 0.1132272258400917, 0.08391650766134262, -0.06589552760124207, 0.07934121042490005, -0.03319831192493439, 0.011096961796283722, 0.11252415925264359, -0.0317942351102829, 0.0035644695162773132, -0.08918821066617966, 0.0763632282614708, -0.09432728588581085, 0.005479596555233002, -0.03072328120470047, 0.10879871994256973, 0.03345591574907303, 0.0032806843519210815, 0.02697303146123886, -0.0928768739104271, 0.0036556199193000793, 0.06332462280988693, -0.03976423293352127, -0.09595084190368652, -0.10789376497268677, -0.09641257673501968, -0.0926123857498169, 0.044179148972034454, 0.03906082361936569, 0.05373439937829971, 0.016639523208141327, -0.044565826654434204, -0.02403123676776886, 0.052416764199733734, 0.09085337072610855, 0.09959685057401657, -0.017120808362960815, -0.07968929409980774, -0.03131243586540222, -0.03851783275604248, 0.11179205030202866, -0.007528156042098999, -0.003672480583190918, -0.11361938714981079, -0.042636118829250336, 0.043232522904872894, -0.006265744566917419, -0.016088292002677917, -0.034050241112709045, 0.017950482666492462, 0.007716633379459381, -0.03219634294509888, -0.07686123996973038, -0.03223787248134613, -0.06761787831783295, 0.006311967968940735, 0.09167153388261795, -0.056194644421339035, 0.11109619587659836, 0.06890054792165756, 0.10801636427640915, 0.054678790271282196, 0.03829575330018997, -0.001163475215435028, -0.055397678166627884, 0.11344087868928909, 0.05412251502275467, -0.08110849559307098, 0.11469478160142899, -0.07319819927215576, -0.007302954792976379, 0.08008567243814468, 0.07680324465036392, -0.02625085413455963, 0.0030695274472236633, -0.05673614889383316, 0.028028108179569244, -0.05026913434267044, -0.07944197952747345, 0.09792452305555344, 0.0468706414103508, -0.0731155127286911, 0.03199095278978348, 0.043795935809612274, -0.015275813639163971, 0.08301212638616562, 0.059493906795978546, 0.06396200507879257, 0.10093051940202713, -0.04900411516427994, -0.11688703298568726, -0.089999258518219, 0.10754970461130142, 0.05337100476026535, -0.08767460286617279, 0.003316819667816162, -0.09823472052812576, 0.08578746765851974, -0.008148275315761566, -0.06561710685491562, -0.10948717594146729, 0.049950338900089264, 0.016515158116817474, 0.07560745626688004, 0.009438477456569672, -0.05683064088225365, 0.11437221616506577, -0.09387845546007156, 0.0049270763993263245, -0.061017874628305435, 0.06791088730096817, 0.06882636994123459, 0.005952596664428711, -0.10771054029464722, -0.0637596994638443, 0.08370818942785263, 0.05456865578889847, 0.01466747373342514, -0.10639940947294235, 0.09212320297956467, -0.09736014902591705, 0.02725759893655777, 0.09402715414762497, 0.06358204036951065, 0.09377322345972061, -0.040362633764743805, -0.0830373615026474, -0.0389939546585083, 0.0022140592336654663, 0.08126109093427658, 0.03059002012014389, -0.03854711353778839, -0.08275693655014038, -0.09534794092178345, -0.0852520614862442, 0.05544833093881607, 0.06429754942655563, -0.052860602736473083, -0.03923090547323227, -0.07662738114595413, -0.030403979122638702, 0.11012852936983109, -0.014778509736061096, -0.05392827093601227, 0.06135501712560654, 0.11209521442651749, 0.055598579347133636, 0.07243206351995468, -0.03824837505817413, 0.08417459577322006, 0.015308015048503876, 0.11580059677362442, 0.09885627776384354, 0.08481424301862717, -0.09592945873737335, 0.04630041867494583, -0.08036867529153824, 0.10852717608213425, 0.0420728400349617, 0.10145892947912216, -0.02920045703649521, -0.03343164175748825, -0.0918678492307663, 0.03776762634515762, 0.004984542727470398, 0.10882673412561417, 0.09104756265878677, -0.06670452654361725, -0.09461568295955658, 0.10654652863740921, -0.08959515392780304, -0.007296122610569, -0.011670514941215515, 0.09693623334169388, -0.045239754021167755, 0.07350126653909683, -0.07293793559074402, 0.04978076368570328, -0.01716127246618271, -0.10542989522218704, 0.07963574677705765, -0.025103449821472168, 0.003338761627674103, -0.08797008544206619, -0.043999262154102325, -0.06240956485271454, -0.027525432407855988, -0.0895766094326973, -0.07911548018455505, -0.06838491559028625, -0.09231725335121155, -0.0437389612197876, -0.0960434228181839, -0.030511140823364258, 0.04364483803510666, 0.08658841997385025, 0.05999460071325302, 0.11649484187364578, 0.011852867901325226, -0.048291660845279694, -0.06195763871073723, 0.0842023566365242, -0.1105080246925354, -0.08028420805931091, -0.09418120980262756, 0.017247982323169708, 0.06100078672170639, -0.0949140265583992, 0.09880154579877853, 0.01698262244462967, -0.00214434415102005, 0.10663256794214249, -0.08898109942674637, -0.08185036480426788, -0.06555040180683136, 0.020702920854091644, -0.05288176238536835, -0.10883263498544693, 0.10367956012487411, -0.052479036152362823, 0.03578975051641464, -0.056204479187726974, -0.041312143206596375, 0.06464353948831558, -0.019385389983654022, -0.03714466094970703, -0.10949068516492844, -0.024314716458320618, 0.08948790282011032, 0.08671250194311142, 0.0980953797698021, 0.11510925740003586, 0.05532880872488022, -0.09531529247760773, 0.09922174364328384, 0.06254435330629349, 0.052487798035144806, 0.05400458723306656, 0.07632861286401749, 0.007092498242855072, 0.0002477392554283142, -0.0156857892870903, 0.03310682624578476, -0.06375011801719666, -0.04853852838277817, -0.1070147231221199, -0.04303159564733505, 0.069993756711483, 0.041543833911418915, -0.10675344616174698, -0.1002252921462059, 0.0022708699107170105, 0.07757236808538437, -0.03401245176792145, -0.03698936849832535, -0.1067536398768425, -0.05394507199525833, 0.020096145570278168, 0.11643221229314804, -0.003589250147342682, -0.09660308063030243, 0.01448339968919754, 0.05821570008993149, 0.09547724574804306, -0.059555716812610626, -0.0466311052441597, 0.1003478541970253, -0.0820593535900116, -0.07514558732509613, -0.009613752365112305, -0.053738102316856384, 0.05279288440942764, 0.030700601637363434, -0.10070208460092545, 0.04499822109937668, 0.03832482546567917, -0.029561690986156464, 0.05213888734579086, -0.02634844183921814, -0.01981893926858902, -0.05203300714492798, 0.043275125324726105, -0.027614668011665344, -0.006331101059913635, -0.014118067920207977, 0.060783617198467255, 0.06431608647108078, 0.02234477549791336, -0.08289411664009094, -0.07673044502735138, -0.052517473697662354, 0.06528901308774948, -0.05601712316274643, 0.0004898309707641602, -0.0014955922961235046, 0.05683466047048569, -0.021594896912574768, -0.014885365962982178, -0.06117235869169235, 0.02204524725675583, -0.007861793041229248, -0.08171551674604416, 0.015310965478420258, 0.004900328814983368, 0.06168433278799057, -0.044953495264053345, -0.1116449236869812, 0.002093799412250519, 0.061676912009716034, 0.07442014664411545, -0.04227253049612045, 0.0551040843129158, -0.08928553760051727, 0.010147534310817719, -0.10708805918693542, 0.018548570573329926, -0.06167281046509743, -0.06594453752040863, 0.02463044971227646, 0.010991193354129791, 0.08411794155836105, -0.056787651032209396, -0.005147673189640045, -0.08896840363740921, -0.043627217411994934, 0.07664010673761368, 0.07010037451982498, -0.09995206445455551, 0.040772952139377594, 0.01183464378118515, 0.016707874834537506, -0.0729035958647728, 0.0960143432021141, 0.07773443311452866, 0.0929165706038475, 0.003764726221561432, -0.05320020020008087, -0.037744611501693726, 0.07425332814455032, -0.08038230240345001, 0.0690656527876854, -0.09301691502332687, 0.055248819291591644, 0.025315620005130768, -0.09693881869316101, -0.11522316187620163, 0.03241623193025589, -0.01052277535200119, 0.043842531740665436, -0.03994031995534897, 0.022848255932331085, 0.09222783893346786, -0.05476227402687073, -0.08232751488685608, -0.0543341189622879, 0.0860820934176445, 0.1127481535077095, 0.014512844383716583, -0.10072897374629974, -0.11244748532772064, -0.1143667921423912, -0.07557901740074158, -0.03702182322740555, 0.03618756681680679, 0.11558840423822403, 0.025836296379566193, 0.0011154860258102417, 0.08931302279233932, -0.10126831382513046, 0.01292034238576889, 0.1086055114865303, -0.0708642452955246, 0.10663240402936935, -0.010940790176391602, -0.05401410907506943, 0.005789712071418762, -0.09887917339801788, -0.03330162912607193, 0.11059436947107315, -0.08452148735523224, 0.06731858104467392, -0.005875751376152039, -0.07278139889240265, 0.07691460102796555, -0.0366363450884819, -0.04029744863510132, 0.014700539410114288, 0.04926922172307968, 0.103310726583004, 0.09892172366380692, 0.032512106001377106, 0.027468867599964142, 0.055833809077739716, 0.018435262143611908, 0.003546573221683502, -0.06828582286834717, 0.07621175795793533, -0.09537991881370544, -0.10598226636648178, -0.05319679528474808, 0.011229880154132843, 0.10127671808004379, 0.06144692748785019, 0.04520227760076523, -0.09556654840707779, 0.06309694796800613, -0.08275224268436432, 0.0851154550909996, -0.08082003891468048, 0.10703327506780624, 0.09845226258039474, -0.09665992110967636, -0.0010933727025985718, 0.08859129995107651, -0.02299259603023529, -0.07852949947118759, -0.1082007959485054, 0.09435538202524185, 0.043015383183956146, 0.03643696755170822, 0.004881247878074646, 0.07286571711301804, -0.0694366842508316, -0.09723573178052902, 0.030516453087329865, -0.061986155807971954, -0.003632552921772003, -0.07917401194572449, 0.09180524200201035, 0.10307107120752335, 0.03600931912660599, 0.09061198681592941, 0.013463698327541351, 0.09925953298807144, 0.10700275748968124, 0.08542228490114212, 0.05512057989835739, -0.008921727538108826, 0.042767636477947235, -0.11446060985326767, 0.09809946268796921, 0.10516773909330368, 0.0257180854678154, -0.11768102645874023, 0.0989874079823494, -0.1056971624493599, 0.04939388483762741, -0.07563529908657074, -0.11548320949077606, -0.05765067785978317, -0.04318130016326904, 0.09822738915681839, -0.017062418162822723, -0.009735360741615295, -0.06345376372337341, 0.03901926428079605, -0.06848045438528061, 0.09990014880895615, 0.09508461505174637, -0.11120659857988358, -0.09628680348396301, -0.013389438390731812, -0.04538411647081375, -0.11657222360372543, 0.09580881148576736, 0.08071955293416977, -0.00895535945892334, -0.11533139646053314, 0.0945296511054039, 0.03287074714899063, 0.0560227707028389, -0.1036904901266098, 0.00144214928150177, -0.04945778101682663, -0.03564286231994629, 0.006059624254703522, 5.041062831878662e-05, -0.056462615728378296, 0.05728874355554581, 0.05069448798894882, -0.04319453239440918, 0.03701653331518173, -0.052368439733982086, -0.01906883716583252, -0.08394894003868103, 0.041985251009464264, -0.05908282846212387, -0.04120536893606186, 0.01596701890230179, -0.031406231224536896, 0.028561033308506012, -0.07075002789497375, -0.11104840785264969, -0.06747603416442871, 0.09310305863618851, -0.05805942043662071, 0.05050892382860184, -0.1016974225640297, 0.05477691441774368, 0.02235782891511917, -0.04042450338602066, 0.04556901007890701, 0.05330384522676468, -0.03352787345647812, -0.10202468186616898, 0.09296692162752151, -0.029323473572731018, -0.03808240592479706, -0.08418327569961548, 0.021197758615016937, -0.11414206773042679, 0.04769221693277359, -0.024785518646240234, 0.075790174305439, -0.03981412947177887, 0.06666333228349686, -0.10298759490251541, -0.0691569373011589, 0.09747492522001266, 0.09232944995164871, -0.009278491139411926, 0.05792564898729324, 0.08996262401342392, 0.002144657075405121, -0.01517227292060852, 0.05702216178178787, -0.043395183980464935, -0.03239016234874725, 0.11719032377004623, 0.01791941374540329, -0.04494967311620712, -0.09214520454406738, -0.03159378468990326, 0.11198952049016953, 0.09946931153535843, -0.015315964818000793, 0.10422865301370621, 0.06867332011461258, -0.05012482404708862, -0.06822110712528229, -0.05584465712308884, -0.11065772920846939, 0.09387039393186569, 0.012119375169277191, 0.11618118733167648, 0.06914681941270828, -0.022793211042881012, -0.032886259257793427, 0.06684648245573044, -0.10160233825445175, -0.09083261340856552, -0.09822721779346466, 0.06605953723192215, -0.08531031012535095, 0.07411467283964157, -0.04823201149702072, 0.08947023004293442, 0.04884985834360123, 0.04348722845315933, -0.11622549593448639, 0.06796165555715561, 0.10378298908472061, 0.03067851811647415, -0.11100614815950394, -0.10726463049650192, 0.10133153945207596, -0.1058574840426445, -0.07333686947822571, -0.02034951001405716, 0.08362089842557907, -0.08433134853839874, 0.08940211683511734, -0.05028349161148071, 0.09433913975954056, -0.09442796558141708, 0.1066456064581871, 0.09111570566892624, -0.07465226948261261, -0.027842208743095398, -0.0586630180478096, -0.08519257605075836, -0.06851425766944885, -0.030106477439403534, -0.010769955813884735, 0.03344046324491501, -0.0291818305850029, 0.02216058224439621, -0.07371391355991364, -0.03601790964603424, 0.03824353963136673, -0.10194401443004608, 0.05169948190450668, 0.026388056576251984, -0.00872504711151123, 0.08886674791574478, 0.07868299633264542, -0.07218603044748306, 0.11212249845266342, -0.09878325462341309, 0.039218686521053314, 0.0008257105946540833, 0.036012761294841766, 0.08885323256254196, 0.01521899551153183, 0.08562562614679337, -0.05263717472553253, -0.10376501083374023, 0.02667749673128128, -0.044838882982730865, 0.0589713379740715, 0.043232642114162445, -0.02803945541381836, 0.036315687000751495, 0.03133075684309006, -0.0740983784198761, -0.025356918573379517, 0.005648776888847351, -0.046463049948215485, 0.03615511208772659, 0.09259005635976791, 0.07813455909490585, -0.031696394085884094, -0.026504099369049072, -0.06704987585544586, -0.07110162079334259, -0.10159037262201309, 0.0026413723826408386, 0.04568018764257431, -0.02268916368484497, -0.007919587194919586, 0.09398657828569412, 0.07145630568265915, -0.033821552991867065, 0.01274571567773819, 0.0051603764295578, 0.005874425172805786, -0.08304353803396225, 0.030856885015964508, -0.10883574932813644, 0.08308155089616776, 0.04634905606508255, -0.004803277552127838, 0.020268000662326813, -0.019001543521881104, 0.032223619520664215, 0.04776660352945328, 0.03724236041307449, -0.06357680261135101, -0.0926128402352333, 0.073877714574337, -0.09157568961381912, -0.010787039995193481, -0.06175142899155617, -0.0029030442237854004, -0.06530468910932541, -0.054500512778759, -0.017045676708221436, -0.04797828942537308, -0.10357366502285004, -0.023138925433158875, -0.05452967435121536, 0.07403206080198288, -0.09447013586759567, -0.0416739359498024, -0.0839453935623169, -0.008069068193435669, -0.08794786036014557, -0.0251973494887352, -0.05118875205516815, -0.05045972764492035, -0.041307225823402405, 0.012826360762119293, -0.049079328775405884, -5.40316104888916e-05, 0.03072134405374527, -0.01749543845653534, -0.07290081679821014, 0.07104570418596268, 0.08918436616659164, -0.11630566418170929, -0.0916878879070282, -0.0007485300302505493, 0.022045858204364777, 0.06347494572401047, -0.038876816630363464, -0.07583063840866089, 0.03693988174200058, -0.001993909478187561, 0.015459738671779633, -0.02206047624349594, 0.05304630845785141, 0.06209287792444229, 0.10946520417928696, -0.08306115865707397, 0.10247384756803513, -0.10170422494411469, -0.11616171896457672, 0.05881676822900772, -0.00774364173412323, 0.035338692367076874, 0.07321912795305252, 0.006152458488941193, -0.06192897632718086, -0.07567641139030457, -0.031189456582069397, -0.07319064438343048, -0.056018754839897156, -0.04788777977228165, -0.061166174709796906, -0.1104767769575119, 0.01834491640329361, -0.06932827830314636, -0.02817758172750473, -0.10667493939399719, -0.10835142433643341, 0.08487332612276077, 0.03621082752943039, -0.038452617824077606, 0.09179622679948807, -0.02120281755924225, -0.09173643589019775, -0.04323536157608032, 0.04900585860013962, 0.02985132485628128, 0.11294587701559067, 0.07860850542783737, 0.04844268411397934, -0.019585132598876953, -0.01406744122505188, -0.11676064878702164, 0.0963444635272026, 0.0280812606215477, -0.08518260717391968, 0.01725340634584427, 0.029147349298000336, -0.03746175020933151, -0.024139128625392914, -0.031009569764137268, 0.0493791326880455, -0.029714368283748627, -0.08069922029972076, 0.03874186426401138, 0.0026271268725395203, -0.04224485158920288, -0.04067103564739227, -0.10726845264434814, -0.08930037915706635, -0.027672268450260162, 0.1112895980477333, 0.0568014457821846, -0.10172218084335327, 0.01288943737745285, 0.1139599159359932, -0.06507012248039246, 0.022774718701839447, -0.05615772679448128, 0.02380272001028061, 0.11090569943189621, -0.05437733232975006, -0.06059775501489639, -0.04239680618047714, -0.10809371620416641, 0.08214814215898514, 0.06994350999593735, -0.06293255090713501, 0.10957472771406174, -0.0018341466784477234, 0.011119581758975983, 0.10502994805574417, 0.030588187277317047, -0.11696410924196243, -0.08594588190317154, -0.020797275006771088, 0.057195402681827545, -0.10080593079328537, -0.026064962148666382, -0.004274114966392517, -0.08199669420719147, -0.09363054484128952, 0.073045514523983, 0.019939757883548737, -0.033865585923194885, 0.11026450246572495, 0.036695174872875214, 0.10739896446466446, 0.09258190542459488, -0.006690643727779388, -0.10197536647319794, 0.02147219330072403, -0.1170157790184021, -0.040685079991817474, -0.06529258191585541, -0.07439287006855011, -0.10983356088399887, 0.016823701560497284, 0.10388090461492538, -0.015535525977611542, 0.002565644681453705, -0.031302183866500854, 0.05792552977800369, -0.08921954035758972, 0.015929512679576874, 0.06872669607400894, 0.025345154106616974, -0.05700937286019325, 0.11212366074323654, 0.0722295269370079, 0.11105469614267349, 0.0012244507670402527, -0.040483735501766205, -0.00038763880729675293, 0.01330471783876419, 0.07944085448980331, 0.0005780309438705444, -0.019665129482746124, 0.04007328301668167, 0.060917533934116364, 0.08009500056505203, -0.0450902134180069, -0.11591237783432007, -0.07517952471971512, 0.013365574181079865, 0.03166579455137253, -0.07663527876138687, 0.07182028144598007, 0.08037882298231125, -0.007787026464939117, -0.10878846049308777, -0.006001710891723633, -0.01870746910572052, -0.0452459380030632, 0.09675624221563339, -0.0034021809697151184, -0.08399856090545654, 0.05742696672677994, 0.11179395765066147, 0.0690624937415123, 0.009839542210102081, -0.0494256392121315, -0.07584716379642487, -0.08749674260616302, 0.09901285916566849, -0.0054764524102211, -0.10262007266283035, 0.06574582308530807, 0.012026347219944, -0.05828231945633888, 0.03795202821493149, 0.02407950907945633, -0.060494355857372284, 0.001955360174179077, 0.03436102718114853, -0.0574682392179966, 0.0774548128247261, 0.00842972844839096, -0.01745259016752243, -0.044399820268154144, 0.01934947818517685, 0.04843350499868393, -0.01616264134645462, 0.07988563925027847, 0.03263012319803238, -0.08704102784395218, -0.08189919590950012, -0.05504260212182999, -0.11217968165874481, -0.07021757960319519, -0.0992303416132927, 0.10532227903604507, -0.11096219718456268, 0.03500758856534958, -0.06051034480333328, 0.0746229961514473, -0.044744811952114105, -0.03863649070262909, -0.027942880988121033, -0.08281099796295166, -0.07199423015117645, -0.03919738531112671, -0.026759594678878784, 0.07142002135515213, -0.017549529671669006, 0.03315561264753342, -0.002214565873146057, 0.04295485466718674, -0.07885961979627609, -0.06877090036869049, -0.07169078290462494, -0.06894361972808838, 0.09901275485754013, 0.0721122995018959, -0.11482951045036316, 0.04013689607381821, 0.027119867503643036, -0.022742189466953278, 0.08392675966024399, 0.051326848566532135, -0.09717453271150589, 0.07553283125162125, -0.11189083755016327, -0.09381778538227081, 0.10896239429712296, 0.01950117200613022, -0.07486828416585922, -0.10270953923463821, 0.05531240254640579, 0.11420135945081711, -0.11498171836137772, -0.10033391416072845, -0.061244118958711624, 0.0748826190829277, -0.026002414524555206, 0.005183890461921692, -0.045899294316768646, -0.11672898381948471, -0.08189834654331207, 0.05181584507226944, 0.04344477504491806, -0.10187989473342896, 0.06481965631246567, -0.07859623432159424, -0.07301859557628632, -0.033635854721069336, -0.07802985608577728, 0.05314285308122635, -0.08976823836565018, -0.02663607895374298, 0.09084980934858322, -0.01712564378976822, 0.0030355304479599, -0.07933646440505981, 0.08856078237295151, 0.05159265547990799, 0.020217977464199066, 0.030053772032260895, -0.060125064104795456, 0.08462648838758469, -0.02954351156949997, 0.053489021956920624, 0.059945352375507355, -0.036770567297935486, 0.10104212909936905, -0.07516929507255554, -0.0602354034781456, -0.04370366781949997, -0.10670764744281769, -0.04323016107082367, -0.0689510628581047, 0.07567857950925827, -0.07113426923751831, -0.1107901856303215, 0.061108849942684174, -0.03256832808256149, -0.03211101144552231, -0.10395149141550064, 0.10559209436178207, 0.0037578418850898743, 0.061587534844875336, -0.11294037848711014, -0.02561008185148239, -0.07274708896875381, -0.0009301528334617615, -0.10626726597547531, 0.09238120168447495, -0.047891855239868164, -0.001080252230167389, 0.005808591842651367, -0.10437804460525513, 0.07833494991064072, -0.08166519552469254, 0.05241326242685318, -0.05595362186431885, 0.047224245965480804, 0.048520512878894806, -0.04824063926935196, -0.03345642238855362, 0.10429400950670242, -0.07374148070812225, 0.04571933299303055, -0.0717160701751709, 0.04437478631734848, 0.04120390862226486, 0.052818261086940765, -0.08625245839357376, 0.019490845501422882, -0.07980935275554657, 0.04857660084962845, -0.09252584725618362, 0.09721025079488754, 0.09197341650724411, -0.08931375294923782, 0.09802458435297012, -0.08028904348611832, -0.01117793470621109, -0.0830882117152214, 0.015549547970294952, 0.005951553583145142, 0.007928349077701569, -0.018479928374290466, -0.1171775683760643, 0.11730263382196426, 0.012620873749256134, -0.0799194723367691, -0.033551812171936035, -0.11413613706827164, 0.08452055603265762, -0.06629227101802826, -0.015464156866073608, -0.01741401106119156, 0.1128576323390007, 0.05624213069677353, 0.02018243819475174, 0.07438749819993973, -0.0240156427025795, 0.08506708592176437, 0.01649469882249832, 0.07270822674036026, 0.10514045506715775, -0.10014569014310837, 0.025924526154994965, 0.041702307760715485, 0.013770870864391327, 0.02372445911169052, -0.044796958565711975, 0.008892364799976349, -0.07700678706169128, -0.0399601012468338, 0.10437462478876114, -0.044507354497909546, 0.055856265127658844, 0.043452002108097076, 0.09126726537942886, -0.02420959621667862, 0.10363449901342392, 0.015442349016666412, 0.052525199949741364, -0.08552854508161545, 0.09914683550596237, -0.07566196471452713, -0.11080370098352432, 0.011986024677753448, -0.019584067165851593, -0.012134864926338196, 0.10913654416799545, -0.002646796405315399, -0.012302212417125702, 0.011281050741672516, 0.0463327094912529, 0.05828128010034561, 0.08840636163949966, -0.09495238214731216, 0.04386863857507706, -0.10822147130966187, -0.02890186756849289, 0.05339483171701431, 0.06458844989538193, -0.036906734108924866, 0.022757329046726227, -0.09736562520265579, -0.10514922440052032, 0.019926361739635468, -0.11751128733158112, 0.1135893240571022, 0.020371906459331512, -0.055164940655231476, 0.021121017634868622, -0.0785924643278122, -0.0700167864561081, -0.04490743577480316, -0.026858806610107422, -0.013745799660682678, -0.10231582820415497, -0.1019914373755455, -0.031053178012371063, 0.03220117837190628, -0.03645193576812744, 0.11247960478067398, -0.012170210480690002, 0.08968276530504227, -0.08270299434661865, -0.004266723990440369, -0.02174847573041916, -0.06952476501464844, 0.027171872556209564, -0.06809671968221664, 0.05516407638788223, 0.08168517798185349, 0.018680043518543243, 0.10219315439462662, 0.08590007573366165, -0.09300606697797775, -0.007613241672515869, 0.07297127693891525, 0.09144604951143265, -0.0073575228452682495, -0.10161878168582916, 0.03532085567712784, -0.046411775052547455, 0.03933548182249069, 0.08408976346254349, 0.015035830438137054, -0.016429319977760315, -0.05323042720556259, 0.012975610792636871, 0.07641874998807907, 0.035928331315517426, 0.013089947402477264, -0.08581345528364182, 0.11599484831094742, -0.09613215923309326, 0.000375501811504364, -0.04407624900341034, 0.041008494794368744, 0.01904267817735672, -0.012538038194179535, 0.0750718042254448, -0.037804342806339264, 0.06936464458703995, -0.06677959859371185, -0.055390119552612305, -0.000592358410358429, 0.07748546451330185, 0.059956930577754974, -0.024948999285697937, -0.02225075662136078, 0.1087469682097435, 0.018617890775203705, -0.11781010776758194, 0.07049987465143204, 0.07777049392461777, 0.06753375381231308, 0.08549272269010544, 0.07676463574171066, -0.04140132665634155, -0.018334947526454926, 0.08170104771852493, -0.10963409394025803, -0.011530421674251556, -0.11735770106315613, -0.0014813467860221863, -0.0019685402512550354, -0.04601236432790756, -0.05936824902892113, -0.10340462625026703, -0.06040194258093834, -0.017273180186748505, 0.027525343000888824, -0.10885362327098846, -0.06594947725534439, 0.026313625276088715, -0.06865791976451874, 0.06530354171991348, 0.0031197667121887207, -0.04174412041902542, 0.03100789338350296, 0.09521051496267319, -0.07360944151878357, 0.0648685023188591, 0.00048808753490448, -0.03259982913732529, 0.06548721343278885, -0.04924606531858444, 0.10606779903173447, 0.030703328549861908, 0.016674958169460297, 0.00021986663341522217, 0.03324476629495621, 0.10604467242956161, -0.018533654510974884, -0.06635724008083344, -0.022862866520881653, 0.10062559694051743, 0.06538715213537216, 0.029076017439365387, -0.11084967106580734, -0.05532855540513992, 0.0410957857966423, -0.07213739305734634, -0.011391110718250275, -0.11771876364946365, -0.07198134064674377, -0.05835284665226936, 0.04436998814344406, 0.09346755594015121, -0.025435566902160645, -0.04546006768941879, -0.054357632994651794, -0.09692803025245667, -0.07637345790863037, -0.09653112292289734, -0.06523483991622925, 0.07384010404348373, 0.09402836114168167, 0.08426698297262192, 0.030467651784420013, -0.07029400765895844, 0.0007539764046669006, 0.07614608854055405, -0.06577911972999573, 0.09588084369897842, 0.010935835540294647, 0.03203905373811722, 0.03075798600912094, 0.11611973494291306, -0.025904856622219086, -0.081412173807621, -0.04711208492517471, 0.02220585197210312, -0.07719457149505615, 0.025518037378787994, -0.06953313946723938, -0.05644724518060684, -0.09137208759784698, 0.007902808487415314, 0.024082519114017487, 0.10926084965467453, -0.03958398103713989, 0.10636714845895767, -0.018953412771224976, 0.08462362736463547, -0.061710208654403687, 0.05435069650411606, -0.11702345311641693, 0.02871198207139969, 0.10486309975385666, 0.0958879366517067, 0.0014396831393241882, -0.11689265817403793, -0.03220600634813309, 0.027125202119350433, 0.006391257047653198, 0.11755717545747757, 0.028622828423976898, 0.04115050286054611, 0.05715084820985794, 0.11553625017404556, 0.10975255817174911, 0.0192791149020195, -0.06425051391124725, -0.083952397108078, 0.015511952340602875, -0.04467751085758209, 0.006490498781204224, 0.11558494716882706, -0.005384340882301331, -0.03382866084575653, -0.0915507972240448, 0.10793117433786392, 0.07506521791219711, 0.10660118609666824, -0.0838388204574585, -0.11507578939199448, -0.04650629311800003, 0.10132031887769699, 0.02615978568792343, 0.019287295639514923, 0.05935513228178024, -0.011580266058444977, -0.08716484904289246, 0.11725286394357681, 0.03902966529130936, 0.06797482818365097, 0.0667414739727974, -0.04030854254961014, -0.07929255068302155, -0.11324644833803177, 0.04900691658258438, -0.07923576235771179, 0.03506617993116379, -0.011508025228977203, 0.08998248726129532, -0.014352239668369293, -0.026978254318237305, -0.0084146186709404, 0.07215674966573715, 0.045828767120838165, -0.08757699280977249, 0.0008887946605682373, 0.049404315650463104, -0.06488391757011414, -0.05216866731643677, 0.00247182697057724, 0.11452425271272659, -0.08296118676662445, 0.04334741085767746, -0.02056165039539337, 0.07192303985357285, 0.046828918159008026, -0.029862500727176666, 0.030466698110103607, -0.07965616881847382, 0.021607734262943268, 0.06691967695951462, 0.022357948124408722, 0.0053336843848228455, 0.10775915533304214, -0.004087992012500763, -0.03098686784505844, -0.013829365372657776, 0.054118864238262177, 0.06572818011045456, 0.05617962032556534, -0.10404972732067108, -0.0993332639336586, 0.11730990558862686, -0.056836992502212524, 0.06276427954435349, 0.03151249140501022, -0.04053574055433273, 0.04428001493215561, 0.08081357926130295, -0.026260152459144592, 0.07898684591054916, -0.06415137648582458, 0.03890513628721237, -0.03854812681674957, -0.005414798855781555, -0.08762939274311066, -0.0338706374168396, -0.08405253291130066, -0.08893530070781708, -0.006698116660118103, -0.11278963088989258, -0.020154312252998352, -0.03143789619207382, 0.03673527389764786, -0.1117275059223175, 0.09226679056882858, -0.1049448698759079, 0.04889995604753494, 0.08697398751974106, 0.06752756983041763, -0.11409860104322433, 0.03843947499990463, -0.0898875966668129, 0.04469452053308487, -0.00532907247543335, -0.09208013117313385, 0.00498296320438385, 0.0075220391154289246, -0.09620290994644165, -0.07158605754375458, 0.009519673883914948, -0.0075363889336586, 0.0639244094491005, -0.09638220071792603, -0.08723819255828857, 0.03016432374715805, 0.06348169595003128, -0.0348145067691803, -0.0022673308849334717, 0.10156454890966415, 0.09812789410352707, 0.02001556009054184, -0.08827932924032211, -0.015005543828010559, -0.0173347145318985, 0.024403057992458344, 0.09933082014322281, -0.027691684663295746, 0.08096105605363846, -0.08045274019241333, -0.032782576978206635, -0.05875380337238312, 0.019238464534282684, 0.09418044239282608, -0.030265845358371735, 0.04459827393293381, -0.06631492078304291, -0.11693823337554932, -0.07741963118314743, 0.07817577570676804, -0.037754274904727936, 0.04915741831064224, 0.004555314779281616, -0.02278284728527069, -0.03138279914855957, -0.052940770983695984, -0.012163184583187103, -0.009608834981918335, 0.07577840238809586, 0.06357891112565994, -0.046412393450737, 0.09000597149133682, 0.06717381626367569, -0.073579803109169, 0.05967129021883011, 0.03942025452852249, -0.09616736322641373, 0.05433591455221176, 0.08516489714384079, -0.041839599609375, -0.022088177502155304, 0.009487815201282501, -0.032783448696136475, 0.08357953280210495, 0.05391442030668259, -0.09533535689115524, -0.031244046986103058, 0.021975673735141754, 0.09036500006914139, -0.10880357772111893, 0.016333363950252533, -0.05200806260108948, -0.057544246315956116, -0.03740479797124863, 0.004682205617427826, -0.11726318299770355, -0.09471787512302399, -0.09975291043519974, -0.04614051431417465, -0.05214071273803711, -0.10333766788244247, 0.03908521682024002, -0.11192958056926727, -0.00461018830537796, -0.02199413627386093, -0.05663606524467468, -0.11306752264499664, -0.02494002878665924, 0.10439877957105637, 0.11283216625452042, -0.004721321165561676, -0.04084796458482742, 0.08186376839876175, 0.0958058312535286, 0.10730647295713425, 0.06664369255304337, -0.06985808908939362, -0.07163713872432709, -0.09703496843576431, 0.0840614065527916, 0.05312969535589218, 0.09743384271860123, 0.012350790202617645, -0.03692524880170822, 0.005741775035858154, 0.06942572444677353, -0.07192879915237427, 0.07481040805578232, 0.05139238387346268, 0.08453384786844254, 0.11511576920747757, 0.0986161008477211, -0.04396095871925354, 0.053258754312992096, 0.00861310213804245, 0.026092417538166046, -0.09416263550519943, 0.027309156954288483, -0.032814666628837585, 0.09867159277200699, -0.08191970735788345, 0.11367685347795486, 0.09957791119813919, 0.09729953855276108, 0.02113223820924759, 0.04132861644029617, -0.07359173893928528, 0.10250984877347946, 0.11008534580469131, 0.0919780507683754, -0.02813667058944702, 0.028098903596401215, -0.037556663155555725, 0.04858910292387009, -0.11179342120885849, 0.03298664838075638, -0.0942877009510994, 0.03453616052865982, 0.00784679502248764, 0.11472495645284653, -0.00203569233417511, 0.07181672006845474, 0.020907141268253326, -0.040555328130722046, 0.10071166604757309, 0.015490256249904633, -0.11160058528184891, -0.04910872131586075, 0.021681495010852814, 0.08175123482942581, 0.06883712857961655, -0.08297969400882721, 0.0033229440450668335, -0.0686410591006279, -0.030301816761493683, -0.080344058573246, -0.09363947808742523, -0.10858174413442612, -0.0821683406829834, 0.09077217429876328, 0.099457286298275, -0.025511540472507477, -0.11248718202114105, 0.025967203080654144, -0.00841338187456131, 0.11059919744729996, -0.05289819836616516, 0.08455202728509903, 0.056117914617061615, 0.05584148317575455, -0.02550920844078064, 0.029900290071964264, -0.07324524223804474, 0.009869419038295746, -0.10498125106096268, 0.09304552525281906, 0.029906369745731354, -0.016532689332962036, -0.07732255756855011, -0.026707589626312256, -0.06064338609576225, 0.11421199887990952, 0.02659786492586136, -0.05199648439884186, 0.08912397176027298, -0.11291331797838211, 0.029450230300426483, 0.010062836110591888, 0.015278063714504242, 0.11662637442350388, 0.09301697462797165, 0.027368031442165375, -0.04602469503879547, -0.014123804867267609, 0.035998351871967316, -0.11140783131122589, 0.04782358556985855, -0.1142188310623169, 0.021078936755657196, 0.062400005757808685, -0.04175078123807907, 0.10753767937421799, 0.01329224556684494, -0.10742731392383575, -0.034881576895713806, -0.05866863951086998, 0.008898161351680756, 0.005443155765533447, -0.08918435871601105, -0.07261426746845245, 0.02006319910287857, 0.0655045136809349, -0.11690276861190796, -0.10666488111019135, 0.009848140180110931, 0.1087646409869194, 0.06275273114442825, 0.05749451369047165, -0.07940797507762909, 0.0584464892745018, -0.0988539457321167, 0.08781520277261734, -0.06387593597173691, 0.0035707056522369385, 0.0030055195093154907, 0.05207064002752304, -0.09371635317802429, 0.11397074908018112, 0.0012687072157859802, 0.03463491052389145, -0.028111077845096588, -0.042659975588321686, 0.05834916979074478, 0.044122882187366486, -0.00416719913482666, -0.05693100765347481, 0.0009730607271194458, 0.037064217031002045, -0.06383311748504639, 0.11137420684099197, -0.1167508140206337, 0.03309115022420883, -0.03095618635416031, 0.04958655685186386, 0.088019959628582, 0.09364863485097885, -0.04953800141811371, 0.07123523205518723, -0.03191196173429489, 0.0734114870429039, 0.1101071760058403, -0.0630006343126297, -0.07242017239332199, -0.07555893063545227, 0.029293246567249298, -0.08365163207054138, 0.01481587439775467, 0.0005881711840629578, -0.007856003940105438, -0.05651240423321724, 0.08475000411272049, 0.01528339833021164, -0.07856276631355286, -0.042179107666015625, 0.06376669555902481, -0.10417130589485168, 0.09881404787302017, 0.07506991177797318, 0.100262351334095, -0.10897407680749893, -0.06810669600963593, -0.10867879539728165, 0.06397587805986404, -0.021998435258865356, -0.11738166958093643, 0.08226045221090317, -0.02056030184030533, 0.047778792679309845, -0.0742093026638031, -0.057309094816446304, 0.03589888662099838, -0.026769764721393585, -0.04925696551799774, 0.08504048734903336, 0.07702378183603287, -0.06871307641267776, -0.03600894659757614, 0.10778117924928665, -0.02873479574918747, -0.04925893247127533, -0.00613093376159668, -0.04783403128385544, -0.07103540003299713, 0.10665404051542282, 0.03002525120973587, -0.03042842447757721, 0.04501763731241226, -0.09219086170196533, 0.05249036103487015, -0.0680808424949646, -0.016062304377555847, 0.1092592105269432, 0.06374994665384293, -0.09837889671325684, 0.05455204099416733, -0.04277016967535019, -0.01073569804430008, 0.11235552281141281, -0.056633591651916504, 0.005845010280609131, 0.0722418949007988, 0.07511886209249496, -0.08564276248216629, -0.05929010733962059, 0.10005529969930649, -0.028770647943019867, 0.08885961025953293, 0.018417634069919586, 0.013236917555332184, 0.031255148351192474, -0.03880719095468521, 0.0865228995680809, 0.006913036108016968, -0.03241129219532013, -0.027392499148845673, 0.1095007136464119, 0.05285344272851944, 0.008353732526302338, -0.06948290020227432, -0.1167994812130928, 0.012734673917293549, 0.10249605029821396, -0.05618950352072716, -0.06034453585743904, -0.027502618730068207, -0.08745934814214706, -0.03528764843940735, 0.0872139111161232, 0.012182824313640594, 0.08605574816465378, -0.06585518270730972, -0.0007464513182640076, 0.07807546108961105, 0.00661497563123703, -0.0322454571723938, -0.03184374421834946, 0.10188601166009903, -0.06265460699796677, -0.03207802027463913, 0.11401767283678055, -0.0783056989312172, -0.002940751612186432, -0.0711190402507782, -0.023407429456710815, -0.06809919327497482, 0.084615059196949, -0.05288999527692795, 0.049145303666591644, 0.019375719130039215, -0.07735750079154968, -0.06905645877122879, -0.07442034780979156, 0.06958550959825516, -0.0737958699464798, -0.06510075181722641, -0.06982527673244476, 0.005936160683631897, 0.057159580290317535, -0.03230056166648865, -0.053606972098350525, -0.07864458858966827, -0.046053022146224976, 0.06632553786039352, -0.06383946537971497, -0.11717169731855392, -0.03782567381858826, -0.11558253318071365, 0.0007968023419380188, 0.05238925665616989, -0.11476168036460876, -0.05428202450275421, 0.09695162624120712, 0.10322294384241104, -0.058870829641819, 0.08975747972726822, -0.050413280725479126, -0.11166832596063614, 0.026476122438907623, -0.039809100329875946, 0.014223463833332062, -0.07461489737033844, 0.04391760379076004, -0.0504363477230072, 0.1143001988530159, 0.07600945979356766, 0.11037459224462509, 0.07438089698553085, -0.025180749595165253, -0.08230869472026825, -0.08032481372356415, 0.03521618992090225, 0.07014211267232895, 0.10741548985242844, 0.10718879848718643, -0.03175616264343262, -0.054957665503025055, 0.05751892179250717, 0.0016381070017814636, 0.033580951392650604, -0.10228784382343292, 0.05217655748128891, 0.09723485261201859, 0.09801016002893448, 0.043907441198825836, -0.07948454469442368, 0.08727625757455826, 0.09428674727678299, 0.05454299598932266, 0.07389455288648605, 0.10433632880449295, -0.10564987361431122, -0.05541110783815384, 0.07443363219499588, 0.09521358460187912, -0.06086505204439163, -0.08041545748710632, -0.025825679302215576, 0.01632130891084671, 0.09797597676515579, 0.06624022871255875, -0.06236913055181503, 0.06352417916059494, 0.07114935666322708, -0.09066422283649445, 0.05086090415716171, -0.06895974278450012, -0.11728043109178543, -0.04275890439748764, 0.05692350119352341, -0.08388155698776245, -0.08968733996152878, -0.027295425534248352, 0.08965205401182175, 0.10697364062070847, -0.030759893357753754, -0.07008175551891327, 0.005948521196842194, -0.07875335216522217, 0.09170522540807724, 0.0909167155623436, -0.0445915088057518, -0.01360253244638443, 0.021333716809749603, 0.0014907047152519226, -0.11465322226285934, -0.034671343863010406, -0.023779138922691345, -0.06678451597690582, -0.015788264572620392, 0.044130899012088776, -0.035499416291713715, -0.0047573670744895935, 0.07388833910226822, 0.02754504233598709, -0.016751408576965332, 0.05578453093767166, 0.025172479450702667, -0.10105541348457336, 0.08358141034841537, -0.08269903063774109, -0.010989762842655182, -0.0647110641002655, -0.026480019092559814, 0.048445381224155426, -0.05908611789345741, -0.0749945342540741, 0.09183502942323685, -0.08724847435951233, -0.05225318670272827, -0.07154646515846252, 0.04722677916288376, -0.018205583095550537, 0.0666935071349144, 0.004543431103229523, 0.11624787002801895, -0.05475772172212601, -0.0063455477356910706, -0.013858392834663391, -0.0785900205373764, -0.04335284233093262, -0.10414671897888184, 0.009752072393894196, 0.0019897520542144775, -0.10413368046283722, -0.09403622150421143, 0.016810603439807892, -0.020717903971672058, -0.04590024799108505, -0.022026479244232178, -0.10468268394470215, 0.02372879534959793, -0.006921976804733276, -0.07976886630058289, 0.03928137570619583, -0.05428559333086014, -0.09435319900512695, 0.021434761583805084, -0.07387904077768326, 0.05774573236703873, 0.09619557112455368, 0.10702306777238846, 0.07375631481409073, 0.03142999857664108, -0.09910398721694946, 0.09959820657968521, 0.09075792878866196, -0.06997402012348175, -0.09245220571756363, 0.06570311635732651, 0.020672358572483063, -0.07750153541564941, 0.034308068454265594, -0.021650217473506927, -0.08004032075405121, -0.02825145423412323, 0.05622676759958267, 0.010028846561908722, 0.0032347962260246277, -0.09801848232746124, -0.11630535125732422, -0.08528751879930496, -0.04660932719707489, 0.05024131387472153, -0.05058349668979645, 0.11288679391145706, 0.05032484978437424, 0.014162518084049225, 0.1026231124997139, -0.09401846677064896, -0.10888877511024475, -0.0795152559876442, -0.09536519646644592, -0.04021983593702316, 0.07258429378271103, -0.03910733014345169, -0.11623499542474747, -0.07571959495544434, 0.009297169744968414, 0.10778727382421494, -0.0034358128905296326, -0.11721749603748322, 0.07051493972539902, 0.003193214535713196, 0.07508815079927444, -0.06301642209291458, 0.0014353841543197632, 0.09191777557134628, 0.02240770310163498, 0.04602775722742081, 0.10633639246225357, -0.01524844765663147, -0.11639762669801712, 0.025111176073551178, -0.07301635295152664, 0.0029169246554374695, -0.05034145712852478, -0.005919978022575378, -0.06524090468883514, -0.09531108289957047, 0.04136676341295242, -0.10945536196231842, 0.06854838877916336, -0.11513892561197281, 0.10122815519571304, 0.014216385781764984, 0.02736959606409073, 0.02515784651041031, 0.01868777722120285, 0.019289128482341766, 0.08972684293985367, 0.013771764934062958, -0.040766626596450806, 0.05102788656949997, -0.08175861835479736, 0.04673980921506882, -0.008058704435825348, -0.02658291906118393, -0.027041785418987274, 0.03792636841535568, 0.029172785580158234, 0.004061862826347351, -0.01904407888650894, -0.020102865993976593, 0.049742333590984344, -0.003766581416130066, -0.028472699224948883, -0.04126398265361786, -0.018728993833065033, 0.01794791966676712, 0.10125095397233963, 0.045227788388729095, 0.03615803271532059, 0.027041755616664886, 0.05714786797761917, 0.1093638464808464, -0.03255588561296463, -0.032991230487823486, -0.10969908535480499, 0.06147176772356033, -0.11417701840400696, 0.08368486911058426, 0.052934564650058746, -0.017731457948684692, -0.09927041083574295, -0.03482846915721893, -0.06421347707509995, -0.07708121836185455, -0.08121071010828018, 0.046240635216236115, 0.11329690366983414, -0.054918043315410614, -0.08934876322746277, 0.08971671015024185, -0.08859127014875412, -0.028280027210712433, -0.05766768008470535, -0.10541044920682907, 0.005362845957279205, -0.09067776799201965, -0.00629589706659317, -0.05054008215665817, 0.10126539319753647, -0.012462623417377472, 0.029811538755893707, 0.004570096731185913, -0.08097657561302185, 0.08222518116235733, -0.11552158743143082, 0.09447089582681656, 0.033556677401065826, 0.041354961693286896, -0.09147807955741882, 0.11214768141508102, 0.02089685946702957, -0.05852573364973068, -0.10597561299800873, 0.07874972373247147, -0.02005889266729355, 0.06974185258150101, -0.06423977762460709, 0.0771389827132225, 0.040773339569568634, -0.08328855037689209, -0.017677120864391327, -0.056061096489429474, -0.05959168076515198, -0.0796126127243042, -0.028542719781398773, 0.000585697591304779, -0.09081564098596573, -0.030383631587028503, 0.09607548266649246, 0.06175314635038376, 0.013616181910037994, 0.10414517670869827, -0.02665732055902481, -0.07298491150140762, -0.020822204649448395, -0.05216071754693985, -0.10915592312812805, 0.029127322137355804, -0.09002642333507538, -0.06037982925772667, 0.006646417081356049, -0.03898850083351135, -0.0023178830742836, 0.0769217386841774, -0.01932930201292038, -0.025108702480793, -0.07665809243917465, -0.0016117244958877563, -0.08271167427301407, -0.04972698539495468, 0.0973251685500145, 0.033347539603710175, -0.005367487668991089, -0.012430764734745026, 0.08095120638608932, 0.0333467498421669, 0.07362405210733414, 0.028849147260189056, 0.0641380026936531, -0.08124794065952301, -0.08153970539569855, 0.004124604165554047, 0.03920603543519974, 0.1017739400267601, 0.06595305353403091, -0.09218139946460724, -0.0336354598402977, -0.11184922605752945, 0.08090697973966599, 0.025490127503871918, -0.014384299516677856, 0.040223993360996246, -0.04118269681930542, -0.1114095151424408, 0.013256140053272247, 0.0559815838932991, 0.07181958109140396, 0.026971988379955292, -0.044293440878391266, 0.08338529616594315, 0.0683426633477211, 0.010054640471935272, 0.03194362670183182, 0.07709770649671555, -0.03771591931581497, -0.06216247007250786, -0.043792374432086945, -0.05439037084579468, -0.05614729970693588, 0.015385009348392487, -0.09983678162097931, 0.03089229017496109, -0.024341769516468048, -0.025267094373703003, -0.10024580359458923, 0.0674087181687355, 0.016076020896434784, -0.09653493762016296, -0.08796258270740509, -0.04245398938655853, 0.0016138851642608643, 0.002187952399253845, 0.012646891176700592, 0.030286364257335663, 0.059498898684978485, -0.09875630587339401, -0.09345032274723053, 0.10917913168668747, -0.09006303548812866, -0.009581580758094788, -0.07968606054782867, -0.06997160613536835, 0.06265345960855484, -0.07495808601379395, 0.08620753139257431, -0.0705711841583252, -0.09821334481239319, 0.10737165063619614, -0.06480827927589417, -0.0576874315738678, 0.022749610245227814, 0.07732918113470078, -0.03404099494218826, 0.07908671349287033, 0.03095649927854538, 0.09150614589452744, -0.023977935314178467, -0.01522526890039444, 0.07887912541627884, -0.009654998779296875, 0.06276745349168777, -0.05273902416229248, -0.1051269993185997, -0.05375558137893677, -0.017310917377471924, -0.012545570731163025, -0.015279360115528107, -0.015534736216068268, -0.056241851300001144, -0.065435990691185, 0.023569278419017792, -0.061365023255348206, -0.0020632296800613403, 0.06946415454149246, 0.056103043258190155, -0.03677992522716522, 0.1176256462931633, 0.0923602357506752, 0.02704858034849167, 0.11585763841867447, -0.10024484992027283, -0.03627545386552811, -0.04123815894126892, -0.023874811828136444, 0.0864727720618248, -0.05884832516312599, 0.005546383559703827, 0.06373303383588791, 0.035367585718631744, 0.011586613953113556, -0.06035670265555382, -0.10692296177148819, -0.04739702492952347, 0.015586264431476593, -0.014573708176612854, 0.008683852851390839, 0.014175333082675934, 0.0017944127321243286, -0.061425913125276566, 0.07769743353128433, -0.05103873461484909, 0.056662388145923615, -0.11024191230535507, 0.06357618421316147, -0.10185115039348602, 0.0915912315249443, -0.08549926429986954, -0.05535179376602173, -0.005834273993968964, 0.01526988297700882, -0.07836748659610748, -0.0576549768447876, 0.07854259759187698, -0.0595882274210453, 0.08830312639474869, 0.03988514095544815, 0.116911880671978, -0.04451049864292145, -0.05596362426877022, 0.09047115594148636, -0.09737054258584976, -0.030146516859531403, -0.029415860772132874, -0.006730176508426666, 0.06918133050203323, -0.023135021328926086, -0.009905800223350525, -0.018877685070037842, 0.06142718344926834, 0.01053578406572342, -0.029473714530467987, 0.009577564895153046, -0.0990438312292099, 0.009699709713459015, 0.04108525067567825, 0.11166635900735855, 0.06627052277326584, 0.05210421234369278, -0.05577138066291809, 0.10582267493009567, -0.10724740475416183, -0.005018144845962524, -0.04873797297477722, -0.08423233032226562, -0.07593679428100586, -0.09165365993976593, 0.028526104986667633, 0.08556819707155228, 0.05586197227239609, 0.11001982539892197, -0.11695641279220581, 0.018748514354228973, -0.06370417773723602, -0.1027909368276596, 0.023828871548175812, -0.03203101456165314, -0.09584033489227295, 0.039089687168598175, -0.07674649357795715, 0.05657888203859329, 0.019466586410999298, 0.1164623573422432, -0.00964401662349701, 0.08488383144140244, 0.0029195398092269897, -0.04941318929195404, 0.04522252827882767, 0.08583026379346848, -0.021585173904895782, -0.03764168918132782, -0.11002209782600403, 0.022211216390132904, -0.0879053995013237, 0.11438290029764175, 0.08383671194314957, 0.03959999233484268, 0.013984836637973785, 0.10453376919031143, 0.002642326056957245, 0.02617485076189041, 0.050822801887989044, -0.024727806448936462, 0.026754729449748993, 0.1026729866862297, 0.005235649645328522, 0.010089196264743805, 0.07563477009534836, 0.04591553658246994, 0.040398009121418, 0.10456366091966629, 0.10132253915071487, -0.06263904273509979, 0.07190216332674026, 0.1064518466591835, 0.05709361284971237, -0.05593075230717659, 0.017532192170619965, 0.05432332307100296, -0.010127551853656769, -0.012826688587665558, -0.10700076073408127, 0.06288022547960281, -0.046918854117393494, 0.015350140631198883, 0.021755777299404144, -0.014613799750804901, 0.07168547064065933, -0.013577945530414581, -0.029159434139728546, 0.027907900512218475, 0.042622096836566925, -0.11052823066711426, -0.07893379777669907, 0.01836242526769638, -0.10791700333356857, -0.0785503163933754, -0.08958492428064346, 0.020240552723407745, 0.00010685622692108154, 0.0111173614859581, -0.04631941765546799, -0.07824694365262985, -0.06781405210494995, 0.06657791882753372, 0.06443756073713303, 0.013436190783977509, -0.02515500783920288, 0.07168277353048325, -0.0848572850227356, -0.011345535516738892, 0.07384461909532547, -0.09327434748411179, 0.007241867482662201, 0.08096670359373093, -0.05159355700016022, -0.0558200441300869, 0.10239816457033157, 0.07575184851884842, 0.09665081650018692, -0.0606631375849247, -0.10128888487815857, -0.04584936797618866, -0.08802065998315811, 0.052741073071956635, -0.003888331353664398, -0.09389519691467285, -0.027291402220726013, 0.10821212083101273, -0.09166063368320465, -0.030706480145454407, -0.09336870163679123, 0.06572208553552628, 0.027081064879894257, -0.036781132221221924, 0.019971422851085663, -0.09270275384187698, -0.041840359568595886, -0.09790041297674179, -0.010653771460056305, -0.06728199124336243, 0.0570245161652565, -0.08897587656974792, -0.07091718912124634, 0.0311683788895607, 0.01709175854921341, 0.10570510476827621, -0.05053449422121048, -0.037129998207092285, -0.03620170056819916, -0.0690850019454956, 0.11521551758050919, 0.04941917210817337, -0.11567522585391998, -0.10568255186080933, -0.10521078109741211, -0.02445804327726364, 0.1048877164721489, 0.06667078286409378, -0.005363300442695618, 0.02347508817911148, 0.03446783870458603, -0.06737221777439117, -0.0887785404920578, -0.0005803033709526062, 0.029336966574192047, -0.06632453203201294, -0.10002514719963074, -0.0025199055671691895, -0.03304838389158249, -0.04435500502586365, 0.05406918376684189, 0.07301156967878342, -0.11643654108047485, -0.01877892017364502, -0.09057722985744476, 0.09092224389314651, -0.014619648456573486, 0.006404519081115723, 0.05853680521249771, 0.024388276040554047, 0.03640349954366684, 0.009133078157901764, -0.0171070396900177, -0.07840524613857269, 0.11531246453523636, -0.014942266047000885, -0.05342914164066315, 0.04357539862394333, 0.005430899560451508, 0.04249248653650284, -0.04552604258060455, 0.09772831946611404, 0.06133114546537399, -0.0879620760679245, 0.04342386871576309, 0.10513245314359665, 0.04331072419881821, -0.03530034422874451, 0.07050501555204391, -0.04512275010347366, 0.09654643386602402, 0.07860072702169418, 0.0054652392864227295, 0.010522834956645966, 0.11113042384386063, -0.09712038934230804, -0.07759552448987961, -0.05360185354948044, 0.09182154387235641, 0.05596328526735306, 0.08278127759695053, -0.07086169719696045, -0.08960717916488647, 0.058686234056949615, -0.061115797609090805, 0.10276146978139877, 0.06374747306108475, 0.11084187775850296, -0.07356001436710358, 0.08473829180002213, -0.019171446561813354, -0.09059867262840271, 0.0714566633105278, -0.10728317499160767, 0.087629534304142, 0.0572768971323967, -0.009034261107444763, -0.03094300627708435, 0.05092359334230423, -0.06740204989910126, 0.048527829349040985, 0.04717772454023361, 0.02635616809129715, -0.033115170896053314, 0.05245756357908249, 0.0507206991314888, 0.09478927403688431, -0.019572265446186066, 0.0038689151406288147, -0.045667462050914764, 0.11508343368768692, -0.005038097500801086, -0.07079260051250458, -0.015083454549312592, -0.08303465694189072, 0.016123615205287933, 0.055627427995204926, -0.04330206662416458, -0.07903289794921875, -0.0021312832832336426, -0.05155790597200394, 0.10093819350004196, -0.02609553188085556, 0.004712015390396118, 0.061238475143909454, 0.007573254406452179, -0.06800726056098938, -0.07048596441745758, -0.10638381540775299, -0.007047876715660095, 0.10529490560293198, -0.060851480811834335, 0.06299144774675369, -0.011480070650577545, 0.08704119175672531, 0.008616648614406586, 0.05105888098478317, -0.02604275941848755, 0.1095942035317421, 0.08669621497392654, 0.008709363639354706, -0.05666051059961319, -0.10774771869182587, -0.025252901017665863, 0.00996551662683487, 0.03193499892950058, -0.09238999336957932, -0.019234836101531982, -0.08144538104534149, 0.0696767196059227, -0.08328001201152802, -0.06408765912055969, 0.009031705558300018, 0.04166898876428604, -0.06186266615986824, -0.04846969246864319, -0.09300244599580765, 0.044784314930438995, 0.0030880719423294067, -0.06738800555467606, 0.01695648580789566, -0.09066127240657806, -0.01868847757577896, -0.06622559577226639, -0.07075461745262146, 0.08297056704759598, 0.0781969353556633, -0.00316648930311203, 0.03320137411355972, 0.02147962898015976, -0.045789092779159546, -0.09127858281135559, -0.09898355603218079, -0.10872257500886917, 0.1131429597735405, 0.08112514764070511, -0.07426165044307709, 0.028951816260814667, 0.0975056067109108, -0.04411429166793823, -0.009555675089359283, -0.05358682572841644, 0.1048845425248146, 0.09275694936513901, 0.019289545714855194, 0.10001877695322037, 0.11239971965551376, -0.05910876393318176, -0.08494076132774353, 0.08952870219945908, -0.045505866408348083, -0.1130107045173645, -0.06087339669466019, -0.03169218450784683, -0.0015251561999320984, 0.04505745321512222, 0.10530587285757065, -0.05738591402769089, 0.007389150559902191, 0.034768931567668915, 0.10870049148797989, 0.01780838519334793, 0.00888439267873764, -0.09118130803108215, -0.10064493119716644, 0.02247326821088791, -0.11131342500448227, -0.060726866126060486, 0.08114109188318253, -0.013274289667606354, 0.037249855697155, -0.10112045705318451, 0.08490044623613358, 0.025671817362308502, -0.08349689841270447, 0.04265677183866501, 0.08278197795152664, -0.027598179876804352, -0.03898288309574127, 0.11177434772253036, -0.016834549605846405, -0.021078452467918396, 0.09352775663137436, -0.04704071581363678, -0.0071812644600868225, 0.09613769501447678, -0.10076870024204254, 0.10573554784059525, 0.03631799668073654, -0.11032058298587799, 0.02262648195028305, -0.06325497478246689, 0.024591676890850067, -0.09774944186210632, -0.07685806602239609, 0.01989736407995224, 0.08713278919458389, -0.09133424609899521, -0.06261875480413437, -0.10734035074710846, 0.02101043611764908, 0.058765776455402374, 0.010742999613285065, 0.006512247025966644, 0.025471650063991547, 0.10298990458250046, 0.10494517534971237, -0.04565436393022537, 0.07955773919820786, 0.09692227095365524, -0.01699557900428772, 0.06777530163526535, 0.04808606952428818, 0.05004625767469406, -0.09777683764696121, 0.05717846006155014, -0.024543993175029755, -0.08270633220672607, 0.00574096292257309, -0.06741927564144135, 0.05248033255338669, 0.01673039048910141, 0.10553868860006332, 0.09652850776910782, -0.06536301970481873, 0.018404997885227203, -0.0691186934709549, 0.03961393982172012, 0.008587472140789032, 0.001034960150718689, 0.012174658477306366, -0.08095257729291916, -0.0781053900718689, -0.07340727746486664, -0.06995882093906403, -0.004563629627227783, -0.11509764939546585, -0.0011998116970062256, 0.0609554722905159, -0.05413273721933365, 0.06756535917520523, -0.022149071097373962, 0.030691228806972504, 0.06937772780656815, 0.08079317957162857, -0.11677225679159164, 0.023025833070278168, -0.0482727512717247, -0.002855956554412842, -0.08775462955236435, 0.11337027698755264, 0.06643899530172348, -0.07731384038925171, 0.04542691260576248, 0.01700422912836075, -0.042692676186561584, -0.087355837225914, 0.05080341547727585, -0.115506611764431, -0.05056905001401901, -0.024541296064853668, 0.04362035542726517, -0.0004031732678413391, -0.01944497972726822, 0.0405229851603508, -0.029979586601257324, 0.11659670621156693, 0.07391161471605301, -0.060241613537073135, 0.0071294233202934265, -0.08856815099716187, -0.10399173200130463, -0.04491536319255829, 0.017395295202732086, 0.08468257635831833, -0.0253145769238472, -0.10185153782367706, 0.10126606374979019, 0.03742951899766922, -0.04762967675924301, -0.0419076532125473, 0.07886015623807907, 0.040331415832042694, -0.1034289300441742, -0.11640790849924088, 0.017683885991573334, 0.055856265127658844, -0.08767431974411011, 0.09181123226881027, -0.07913938909769058, -0.03138751536607742, 0.10890320688486099, -0.09219226986169815, -0.010048456490039825, -0.008496351540088654, -0.10962291061878204, 0.06380411237478256, -0.08827896416187286, 0.039226971566677094, -0.0833553671836853, 0.011697210371494293, 0.057976700365543365, 0.04586271196603775, -0.10287090390920639, 0.04070121794939041, 0.09443043917417526, -0.11440078914165497, 0.012835122644901276, -0.0021118372678756714, -0.09002825617790222, 0.0258115753531456, -0.01925310492515564, 0.08285578340291977, -0.08120939135551453, 0.01568756252527237, -0.02540069818496704, 0.1164616122841835, -0.11055506020784378, 0.06328562647104263, 0.03146523982286453, -0.027465440332889557, 0.08289248496294022, 0.06745945662260056, 0.06224527209997177, -0.01198386400938034, 0.03497789055109024, -0.00010977685451507568, -0.027557887136936188, 0.08515997976064682, 0.0608210489153862, -0.1174379512667656, -0.03317178785800934, 0.051527075469493866, -0.029696784913539886, -0.01936475932598114, 0.05282888561487198, -0.04359357804059982, -0.09443335980176926, -0.09557025134563446, 0.03281635791063309, -0.08248646557331085, 0.10627574473619461, -0.047585926949977875, -0.03344394266605377, 0.012528829276561737, -0.060992587357759476, -0.05468323081731796, 0.05070566385984421, -0.06358428299427032, -0.11218763142824173, -0.10401072353124619, -0.1103195995092392, 0.07697231322526932, -0.0732334703207016, -0.06031343340873718, 0.004547081887722015, 0.05016269534826279, -0.05840350687503815, 0.007646419107913971, -0.05570509657263756, 0.11291994899511337, 0.07872480899095535, 0.06415338069200516, 0.007292859256267548, -0.10127606987953186, -0.035761766135692596, -0.07447901368141174, 0.044814519584178925, -0.06682278960943222, -0.02349916845560074, 0.07399293035268784, 0.09928932040929794, -0.015662498772144318, -0.10022899508476257, 0.05612771958112717, 0.06773465126752853, 0.042613305151462555, 0.1025712713599205, 0.0005746334791183472, -0.011499881744384766, 0.10911209136247635, -0.04433755576610565, -0.002698242664337158, 0.08937952667474747, 0.024497829377651215, 0.013702161610126495, 0.09690196067094803, 0.07437039166688919, -0.0978056937456131, -0.06063520908355713, -0.0913330614566803, 0.05060572177171707, -0.09527584910392761, 0.10132034868001938, 0.06803763657808304, -0.10328447818756104, 0.0789615586400032, 0.054579801857471466, -0.007087834179401398, 0.06734979897737503, -0.11764657497406006, 0.013460107147693634, 0.09224804490804672, 0.018315471708774567, -0.0928083136677742, 0.0945337787270546, -0.11153160035610199, -0.08393968641757965, 0.07394052296876907, 0.07589902728796005, 0.0055725425481796265, -0.030778326094150543, -0.023898079991340637, -0.10641146451234818, -0.015653088688850403, 0.048437438905239105, 0.07125700265169144, 0.017299674451351166, 0.018158800899982452, 0.10282409936189651, -0.034427568316459656, -0.09905408322811127, 0.020327039062976837, -0.11318837106227875, -0.018042057752609253, 0.10271159559488297, 0.09883692115545273, 0.10278717428445816, -0.09975218027830124, 0.060382552444934845, -0.07804755866527557, -0.057183943688869476, 0.025036610662937164, -0.07469262182712555, -0.102717824280262, -0.06598971784114838, -0.03689616918563843, 0.04260093718767166, 0.06867218762636185, 0.11579025536775589, -0.05950522422790527, -0.0704875960946083, 0.06507270783185959, 0.08515360206365585, -0.021920718252658844, -0.026419639587402344, 0.00036125630140304565, -0.04258862882852554, 0.07673969119787216, -0.0025612637400627136, -0.044655993580818176, 0.06900731474161148, 0.04134363681077957, -0.021270111203193665, 0.0120549276471138, 0.11089088767766953, 0.000771738588809967, -0.009791500866413116, 0.11119730025529861, -0.09401745349168777, 0.06606917828321457, 0.045748211443424225, -0.027732685208320618, -0.03267507255077362, -0.10841987282037735, -0.03742904216051102, -0.09581706672906876, 0.012914754450321198, -0.09141027927398682, 0.04600583761930466, -0.011386588215827942, 0.024329356849193573, -0.08638899028301239, -0.08278323709964752, -0.004066973924636841, -0.02082771062850952, -0.10508470982313156, 0.09409663826227188, 0.07246599346399307, 0.03287515789270401, -0.018937140703201294, -0.001680620014667511, 0.09900695830583572, 0.09631729871034622, 0.09888515621423721, 0.06678437441587448, -0.0632324367761612, 0.0034371018409729004, 0.010367415845394135, 0.09458421915769577, -0.040321752429008484, -0.09016430377960205, -0.07238451391458511, 0.026582099497318268, -0.11009698361158371, -0.1067003384232521, -0.07893042266368866, 0.027512289583683014, -0.025379739701747894, 0.040159113705158234, -0.10475922375917435, -0.09308671206235886, 0.024700380861759186, 0.07896346598863602, 0.10916557163000107, 0.09493324905633926, 0.006214722990989685, -0.061897650361061096, 0.000248834490776062, 0.023171894252300262, -0.05758644640445709, -0.050467707216739655, 0.09265970438718796, 0.01935819536447525, -0.08072613179683685, -0.0474725216627121, 0.03547019511461258, 0.11130302399396896, 0.029414348304271698, 0.11359988898038864, -0.09065289795398712, 0.042461149394512177, 0.014296941459178925, 0.0038838908076286316, -0.11439261585474014, -0.01788085699081421, 0.02549687772989273, -0.04512033611536026, -0.005612783133983612, 0.01443517953157425, -0.005799829959869385, 0.008975289762020111, 0.02432221919298172, -0.10468945652246475, 0.09717973321676254, 0.027764491736888885, 0.020705096423625946, -0.05750993639230728, -0.035389840602874756, 0.031655095517635345, -0.026496686041355133, -0.10521859675645828, -0.04507476091384888, 0.035745419561862946, 0.057120971381664276, 0.10088915377855301, -0.06023874878883362, 0.03933348506689072, -0.03723505139350891, 0.05246729403734207, 0.03579091280698776, -0.09225489944219589, -0.0974186509847641, -0.026931248605251312, 0.06301731616258621, 0.1118963435292244, 0.07297428697347641, 0.09394454210996628, 0.06539361923933029, -0.086937315762043, -0.02408408373594284, 0.039776645600795746, 0.05078714340925217, -0.027013935148715973, 0.10642711073160172, -0.032207079231739044, -0.01280348002910614, 0.08576647192239761, -0.04601803421974182, 0.03954865783452988, 0.06204967945814133, -0.03581307828426361, 0.04030323773622513, 0.08132869750261307, 0.11128353327512741, 0.05376022309064865, 0.04755762964487076, 0.07458359748125076, -0.0077285245060920715, -0.006976567208766937, 0.0326792374253273, 0.07345383614301682, 0.08475110679864883, -0.012222781777381897, -0.05858462676405907, 0.03331955522298813, -0.06246477738022804, -0.10050095617771149, -0.07752275466918945, -0.05701743811368942, 0.07776837795972824, 0.06628689914941788, 0.01327873021364212, 0.05745365470647812, 0.026100389659404755, -0.022683098912239075, 0.012040533125400543, -0.02055799961090088, 0.01562347263097763, 0.0992506816983223, 0.09548000246286392, 0.04408226162195206, -0.05327341705560684, -0.06083982065320015, -0.017828956246376038, 0.010331012308597565, -0.08913519233465195, -0.07990941405296326, -0.05413765460252762, -0.006336331367492676, -0.05191536247730255, 0.04862513393163681, -0.011262454092502594, 0.058702997863292694, -0.011713877320289612, -0.060588568449020386, -0.05344565957784653, -0.07323119044303894, 0.09019998461008072, 0.11195262521505356, -0.06032026186585426, -0.07753963768482208, -0.00408085435628891, 0.07392922788858414, 0.10044398158788681, 0.11113924533128738, 0.05402883142232895, 0.017757289111614227, -0.0977594181895256, 0.10316460579633713, 0.03542434424161911, 0.05833371728658676, 0.0927240177989006, -0.10488715022802353, 0.05063910037279129, -0.06325609982013702, 0.11703643947839737, 0.04482848197221756, 0.030802465975284576, 0.0809580609202385, -0.03982517868280411, -0.08279265463352203, 0.051300324499607086, 0.042706750333309174, -0.09725365787744522, 0.029824398458003998, -0.03159131109714508, -0.031761132180690765, 0.058142922818660736, 0.09726209193468094, -0.06608226895332336, 0.02138621360063553, 0.0893491879105568, 0.026724018156528473, -0.06440046429634094, 0.05981311947107315, 0.080776147544384, -0.060154594480991364, -0.08837011456489563, -0.08364208042621613, 0.09384220093488693, 0.019546814262866974, -0.022498719394207, 0.08498378843069077, -0.08772948384284973, -0.01728377491235733, 0.0818823054432869, 0.0211578831076622, -0.05916175618767738, -0.1162162572145462, -0.08900183439254761, -0.08816145360469818, 0.09794942289590836, 0.05979783087968826, -0.09004407376050949, -0.060256898403167725, -0.10785257816314697, 0.01253635436296463, -0.046154677867889404, -0.03679908812046051, -0.11496420949697495, -0.06359805166721344, -0.09611804783344269, 0.10633382946252823, -0.11309876292943954, -0.02667625993490219, 0.11582498997449875, 0.09221494942903519, 0.030905239284038544, -0.11511506885290146, -0.06437307596206665, 0.05439399927854538, -0.08387146890163422, 0.01724303513765335, 0.07845383137464523, -0.07930230349302292, -0.08828207850456238, 0.09118366986513138, 0.08762664347887039, 0.004727356135845184, 0.055879272520542145, -0.1167723685503006, 0.0025101229548454285, 0.09734176844358444, 0.07403639703989029, 0.02631162852048874, 0.11733784526586533, 0.03191316872835159, 0.08374819904565811, 0.02824728935956955, -0.07753078639507294, -0.03541009873151779, -0.05763033777475357, 0.11243259161710739, 0.016483180224895477, -0.07009925693273544, -0.0988057553768158, 0.0009363070130348206, 0.0013199299573898315, 0.0629844143986702, 0.05234537273645401, 0.05833692103624344, -0.06914232671260834, 0.05195748060941696, 0.029289819300174713, -0.0225592702627182, -0.00895007699728012, 0.045364148914813995, -0.04548069089651108, 0.11704377084970474, -0.08494935929775238, -0.099716916680336, 0.1144728884100914, -0.04066651314496994, 0.006540656089782715, 0.029135696589946747, 0.014879502356052399, -0.002662248909473419, 0.09560088068246841, -0.013385869562625885, 0.04838050156831741, 0.11743272095918655, 0.09384948760271072, -0.10623101890087128, 0.002897031605243683, -0.01752634346485138, 0.11436187475919724, -0.003751128911972046, -0.07498270273208618, -0.04778483510017395, -0.10585779696702957, -0.07560610771179199, 0.017702825367450714, 0.06441652029752731, 0.09132654219865799, -0.014734849333763123, -0.0805584192276001, 0.11741510778665543, -0.03227631002664566, 0.11501055210828781, 0.07068004459142685, 0.08551303297281265, -0.09066711366176605, 0.11694056540727615, 0.09038666635751724, 0.023374982178211212, -0.05030153691768646, 0.02573714405298233, -0.06692969799041748, -0.076541006565094, -0.07827150821685791, 0.03015410155057907, -0.10862080007791519, -0.07393554598093033, -0.022689223289489746, -0.08208511769771576, 0.10628131777048111, -0.11482484638690948, 0.07112974673509598, -0.056319065392017365, 0.003520585596561432, 0.09651242941617966, -0.08367683738470078, -0.051958441734313965, 0.06803383678197861, -0.010245338082313538, 0.040708430111408234, 0.046519748866558075, -0.08063487708568573, 0.0727219358086586, 0.052431605756282806, -0.06692074239253998, 0.027393482625484467, 0.0682177022099495, -0.049875542521476746, -0.011634662747383118, 0.09887119382619858, 0.10988251119852066, 0.07761836796998978, 0.022818081080913544, 0.07977347820997238, 0.04354871064424515, 0.07926445454359055, -0.03429621458053589, 0.09374026209115982, 0.09698214381933212, 0.008350558578968048, 0.02309296280145645, -0.028722912073135376, -0.11062769591808319, -0.11569090932607651, -0.001986660063266754, -0.07530108094215393, -0.01717282086610794, -0.1029072105884552, -0.06996509432792664, -0.11015303432941437, -0.06171650066971779, -0.01936383545398712, 0.10384257882833481, 0.035102479159832, -0.021357551217079163, -0.10139644145965576, 0.09401644021272659, -0.09113000333309174, 0.09949732571840286, 0.0029278025031089783, 0.02008926123380661, -0.061057381331920624, 0.05888805538415909, 0.08935489505529404, -0.019066952168941498, 0.01169867068529129, 0.03473611921072006, -0.011049076914787292, -0.05769333243370056, -0.10397939383983612, -0.007989831268787384, -0.009631596505641937, -0.08474809676408768, 0.1043403372168541, -0.022387251257896423, -0.10306478291749954, 0.05288516730070114, 0.06122826784849167, -0.04918576776981354, 0.10287756472826004, 0.04582025855779648, -0.045735567808151245, -0.10856182873249054, 0.09240969270467758, -0.05416575074195862, 0.03162641078233719, -0.06299978494644165, 0.061612196266651154, -0.1129162386059761, -0.05552810803055763, 0.04995707422494888, 0.09526041895151138, 0.024792633950710297, -0.10005585849285126, -0.1128920167684555, -0.03238389641046524, -0.0980532094836235, 0.05619802325963974, 0.09177445620298386, -0.03036876767873764, -0.0897875651717186, -0.04533053934574127, 0.11113772541284561, -0.0284634530544281, 0.11646000295877457, 0.07558933645486832, 0.07574420422315598, 0.005658075213432312, 0.0005425736308097839, -0.030529774725437164, 0.09222475439310074, 0.05441681295633316, -0.09151744097471237, -0.06016058102250099, -0.023817524313926697, 0.1140248104929924, 0.06519114226102829, 0.05711693316698074, -0.012380465865135193, 0.1127517893910408, 0.04475545138120651, 0.0880424901843071, 0.00835881382226944, -0.09477213025093079, -0.10000135004520416, 0.07866906374692917, -0.002762414515018463, -0.07198785245418549, 0.03611386567354202, 0.0027761310338974, 0.030452720820903778, -0.0945994183421135, 0.030419208109378815, -0.019909217953681946, 0.039567239582538605, 0.040972866117954254, -0.07725368440151215, 0.05447367578744888, 0.11763747781515121, 0.046763621270656586, 0.03171617537736893, 0.10896430164575577, -0.06076738238334656, -0.10019449889659882, -0.04070550948381424, 0.07081305235624313, 0.03999202698469162, -0.04036620259284973, -0.04937461018562317, 0.0009353235363960266, 0.06320259720087051, -0.05668877437710762, -0.009384416043758392, -0.03586511313915253, 0.09867864102125168, -0.025564201176166534, 0.0906723365187645, 0.02259034663438797, -0.029652558267116547, 0.07179159671068192, 0.06055904179811478, -0.10340496152639389, -0.07286229729652405, 0.007244817912578583, 0.018376357853412628, -0.030390262603759766, -0.10794872790575027, -0.08244940638542175, 0.06343457847833633, 0.10184662789106369, -0.04875820130109787, -0.06944485753774643, -0.01265290379524231, -0.03732243925333023, 0.07794011384248734, -0.10736510902643204, -0.09767360985279083, 0.10539538413286209, -0.011941581964492798, 0.08241332322359085, 0.09618967026472092, -0.012709632515907288, -0.05936785414814949, -0.0591900497674942, 0.09139599651098251, 0.03829386085271835, 0.08604655414819717, 0.07085832208395004, 0.03862345963716507, -0.10482266545295715, -0.026370353996753693, -0.0199163556098938, 0.026158861815929413, 0.05982311815023422, -0.02328256517648697, 0.057556696236133575, -0.032387495040893555, 0.0928300991654396, -0.05215483903884888, -0.10167331993579865, 0.06242849677801132, 0.08761616796255112, -0.09796902537345886, 0.077231265604496, 0.014795787632465363, -0.08437243103981018, 0.040129728615283966, 0.03567939251661301, 0.10157159715890884, 0.03508865088224411, 0.09934253245592117, -0.012532703578472137, -0.024484090507030487, 0.11481416970491409, 0.04410939663648605, -0.043358005583286285, 0.015383593738079071, -0.052407413721084595, 0.11067181080579758, -0.01671057939529419, -0.040266647934913635, -0.03427558392286301, -0.10278292745351791, -0.021477162837982178, -0.04041203111410141, -0.07050156593322754, 0.03221786767244339, 0.0011287480592727661, -0.04421873390674591, -0.04608389735221863, 0.07145310193300247, 0.08896373957395554, -0.002303384244441986, -0.05393031984567642, 0.0008305460214614868, 0.02639833837747574, -0.022170841693878174, -0.05278480052947998, -0.07988730072975159, -0.0805552750825882, -0.04639746993780136, 0.04326228052377701, 0.07712111622095108, -0.09799383580684662, -0.0388469472527504, -0.010634183883666992, -0.03591945767402649, -0.07134576141834259, -0.005358830094337463, -0.02102043479681015, -0.023794956505298615, 0.08791961520910263, -0.04363901913166046, -0.04792004078626633, -0.0029407814145088196, 0.012631066143512726, -0.03701159358024597, 0.04912445694208145, -0.03249485790729523, 0.030760787427425385, 0.06798733025789261, 0.050578974187374115, 0.016645483672618866, -0.06820183247327805, 0.046754010021686554, 0.07397755235433578, 0.03633839637041092, -0.00361507385969162, -0.08996185660362244, -0.09279955178499222, -0.020524702966213226, -0.08092781901359558, 0.06263948231935501, -0.009856797754764557, -0.08208885788917542, 0.05931287258863449, 0.09752968698740005, 0.08922833949327469, 0.11759816855192184, 0.09773600846529007, 0.0770375207066536, -0.08376646786928177, 0.11199123412370682, -0.08891540765762329, -0.09368202090263367, 0.10726704448461533, 0.04354744404554367, -0.046626217663288116, -0.028901584446430206, 0.0027138367295265198, -0.10085639357566833, -0.008269913494586945, 0.02876655012369156, -0.08198340237140656, -0.008911222219467163, 0.0008391141891479492, 0.04806598275899887, 0.041778601706027985, -0.07023493945598602, -0.07097447663545609, 0.07160831242799759, 0.11435263603925705, 0.10723448544740677, 0.0905681774020195, -0.10065622627735138, -0.09788667410612106, -0.04669443517923355, 0.03217027336359024, -0.10625290870666504, -0.10062132775783539, 0.11446887999773026, 0.0070651620626449585, -0.060475390404462814, -0.09415628015995026, 0.04284370690584183, -0.08637285232543945, 0.032086484134197235, 0.10895053297281265, -0.11645326018333435, -0.1006803959608078, -0.0642494410276413, -0.08703678101301193, 0.07620251923799515, -0.04646383970975876, 0.07701501995325089, -0.04402320086956024, -0.07061778008937836, -0.03103458136320114, 0.022427402436733246, -0.047976963222026825, 0.04694046825170517, -0.08136780560016632, 0.04738575965166092, 0.07119383662939072, -0.015881381928920746, 0.10354342311620712, 0.01210407167673111, -0.11019245535135269, -0.11433125287294388, -0.048433415591716766, -0.05623134225606918, -0.03259311616420746, -0.03184722363948822, 0.0638093426823616, -0.034635886549949646, 0.04803190380334854, -0.037116169929504395, 0.003261461853981018, -0.036250025033950806, -0.10821723192930222, -0.09908867627382278, -0.05015488713979721, -0.004202403128147125, -0.11289013922214508, 0.11357364803552628, 0.051873184740543365, -0.05745899677276611, -0.04173628240823746, -0.10716336220502853, 0.033876799046993256, -0.014483004808425903, 0.025257371366024017, 0.08147595077753067, 0.014550693333148956, -0.08494643867015839, -0.05402632802724838, 0.044468097388744354, 0.04926019161939621, -0.101027712225914, -0.008246786892414093, -0.054924651980400085, 0.018121488392353058, -0.07394911348819733, 0.059730686247348785, 0.02054012566804886, 0.08894134312868118, -0.06529195606708527, -0.011094652116298676, 0.03697896748781204, -0.014303743839263916, -0.05772707611322403, 0.11197594553232193, 0.07640498131513596, -0.11046697199344635, 0.025991402566432953, 0.05498410016298294, 0.023481421172618866, 0.09614906460046768, 0.0877288356423378, -0.0037602558732032776, -0.045768581330776215, -0.10828042030334473, 0.01766396313905716, 0.07289803773164749, -0.03176644444465637, 0.07648725062608719, 0.08874659985303879, -0.0005795732140541077, 0.10940045863389969, -0.04528704285621643, -0.025382913649082184, -0.05223025381565094, 0.04865496605634689, 0.0543757900595665, 0.08908688277006149, 0.08954241126775742, 0.10169265419244766, 0.09544005244970322, -0.00965438038110733, 0.00039752572774887085, 0.07079557329416275, -0.08786213397979736, 0.08309756964445114, -0.08558625727891922, -0.07958541810512543, 0.02210860699415207, 0.04263819009065628, -0.0873844102025032, 0.08113684505224228, 0.10649941116571426, -0.0970970094203949, -0.04631593078374863, 0.07925548404455185, -0.09384226053953171, 0.07641544193029404, -0.11649858206510544, 0.10535115748643875, 0.006010785698890686, 0.016606591641902924, -0.030994318425655365, 0.03934604674577713, 0.10938148945569992, -0.10608822852373123, 0.10017766803503036, 0.024733848869800568, -0.013345234096050262, -0.11337842047214508, 0.04651469737291336, -0.08189484477043152, -0.08479729294776917, -0.08731846511363983, -0.08432652056217194, 0.04024321585893631, 0.07838662713766098, 0.07070311158895493, -0.059519581496715546, 0.003491334617137909, 0.015786491334438324, 0.0015719905495643616, -0.08323013782501221, 0.014155633747577667, -0.014537125825881958, 0.0875336155295372, -0.11610347032546997, 0.09127666801214218, 0.09712328761816025, 0.0037707388401031494, -0.03127973526716232, 0.012709192931652069, -0.09610015153884888, -0.04796769469976425, -0.06541042029857635, -0.0859694853425026, -0.09680552780628204, -0.07265430688858032, 0.048251084983348846, -0.004452027380466461, -0.047975197434425354, -0.012024693191051483, 0.11404780298471451, -0.065205417573452, 0.01250285655260086, 0.04943261295557022, -0.07601509988307953, -0.011189311742782593, -0.0670032948255539, -0.036579251289367676, -0.07689961791038513, 0.02799629420042038, 0.11169516295194626, -0.10845190286636353, -0.1072017177939415, -0.06137840077280998, 0.11586671322584152, -0.1062391996383667, -0.11272354423999786, 0.02145659178495407, -0.06914342194795609, -0.09780038893222809, 0.1134323701262474, 0.016927950084209442, 0.04091150313615799, -0.002353258430957794, 0.0033409222960472107, 0.068511001765728, 0.01023142784833908, -0.08032436668872833, 0.029532097280025482, 0.06165067106485367, 0.04809447377920151, 0.08648055046796799, -0.03301908075809479, -0.05097801983356476, -0.006888650357723236, -0.022754013538360596, 0.0850348100066185, 0.005299009382724762, 0.04610674828290939, 0.021798260509967804, -0.03957881033420563, -0.07554429769515991, -0.026056982576847076, -0.03471079468727112, 0.10991566628217697, -0.06870639324188232, 0.07572595030069351, 0.07449377328157425, 0.0502462312579155, 0.023221276700496674, -0.10131557285785675, -0.08053332567214966, 0.06027808040380478, -0.07057821750640869, 0.044066332280635834, -0.06803926080465317, 0.08408341556787491, 0.0734749361872673, 0.10228025168180466, -0.08657614886760712, 0.030560113489627838, 0.03333566337823868, -0.0770212858915329, 0.012033604085445404, -0.04894088953733444, 0.07945487648248672, 0.057488493621349335, 0.021599523723125458, 0.06449086219072342, 0.0872722938656807, -0.07718279212713242, 0.0978185310959816, -0.07931578904390335, 0.004893980920314789, -0.07376109063625336, -0.07083772122859955, -0.04487074166536331, -0.09066560119390488, 0.08470698446035385, 0.0007807537913322449, 0.029333002865314484, 0.10640143603086472, 0.02103414386510849, 0.044489823281764984, -0.08427709341049194, 0.0607534721493721, 0.1092526987195015, -0.114861398935318, -0.03197456896305084, 0.011052422225475311, -0.11097397655248642, 0.02304539829492569, 0.0807018056511879, 0.0646619126200676, 0.08423744887113571, -0.11772333830595016, 0.06404828280210495, 0.03448554128408432, -0.06786306202411652, -0.06613017618656158, 0.002731144428253174, 0.03442329913377762, -0.009387701749801636, 0.03259412199258804, -0.11056652665138245, -0.07240002602338791, 0.005624830722808838, -0.11347915232181549, -0.009646683931350708, -0.034824617207050323, 0.054258979856967926, -0.038957566022872925, 0.07667208462953568, 0.011718712747097015, 0.10341881960630417, 0.045247845351696014, -0.030009567737579346, -0.08900950849056244, -0.08149778842926025, 0.08141551166772842, -0.040051303803920746, 0.017599843442440033, -0.036213554441928864, 0.09746571630239487, 0.009305603802204132, 0.05654356628656387, 0.06371524184942245, -0.08285766839981079, 0.0508451983332634, 0.0475296750664711, -0.09541984647512436, 0.02162574976682663, -0.0444687157869339, -0.052156075835227966, -0.004073746502399445, 0.10067468136548996, 0.09358196705579758, -0.07836215198040009, -0.07256678491830826, -0.07225121557712555, 0.04159071296453476, 0.016925252974033356, 0.08692712336778641, 0.06442674249410629, -0.0005816295742988586, 0.099857397377491, -0.009402737021446228, -0.02209945023059845, 0.002492479979991913, 0.09057813137769699, -0.03207436949014664, -0.05585072934627533, 0.09228868037462234, -0.11432827264070511, -0.05266144871711731, 0.0037375837564468384, -0.07232795655727386, -0.0007731989026069641, 0.09011378139257431, 0.025464557111263275, -0.00508437305688858, -0.03574994206428528, -0.09391329437494278, -0.06719882786273956, 0.03224214166402817, 0.1064486876130104, 0.09471964091062546, 0.07784407585859299, 0.07499531656503677, -0.07297709584236145, -0.10504680871963501, -0.06040947139263153, -0.025264114141464233, 0.04247225075960159, 0.010247834026813507, -0.053399525582790375, -0.06534846127033234, 0.015738077461719513, 0.10433893650770187, -0.011043600738048553, 0.06513641029596329, -0.09399500489234924, 0.10808736830949783, -0.10494332015514374, 0.04811827093362808, -0.011481814086437225, 0.0412946417927742, -0.011250399053096771, 0.02412060648202896, -0.04012051224708557, -0.0757063627243042, 0.1137903705239296, -0.09666045010089874, -0.09882853925228119, -0.08844159543514252, 0.09157509356737137, -0.08099697530269623, -0.04620707780122757, -0.09943821281194687, 0.0494365468621254, -0.013657599687576294, 0.10503941029310226, 0.06557265669107437, 0.02281399816274643, 0.01679854840040207, -0.11609666794538498, 0.06782897561788559, -0.03399140387773514, 0.05592340975999832, 0.04658805578947067, -0.09524347633123398, -0.03984953463077545, 0.07054660469293594, 0.016640447080135345, 0.006412133574485779, -0.0033519938588142395, -0.026324301958084106, -0.042534515261650085, -0.09353189170360565, -0.049256570637226105, -0.020818859338760376, -0.08169613033533096, 0.04795766621828079, 0.06397587805986404, -0.013446472585201263, 0.10345224291086197, -0.09293520450592041, 0.07121140509843826, -0.050899289548397064, 0.0013420432806015015, 0.09698683768510818, 0.03612566739320755, 0.02391008287668228, -0.05323217064142227, -0.032043181359767914, -0.038480326533317566, -0.029234685003757477, -0.10054038465023041, 0.013638041913509369, -0.11059717833995819, -0.0017365068197250366, -0.07794281840324402, -0.08052093535661697, 0.025610871613025665, 0.08199220150709152, -0.10175901651382446, -0.11385606229305267, 0.09269828349351883, 0.06926427036523819, -0.005256526172161102, -0.05712946504354477, -0.07560669630765915, -0.10790267586708069, -0.08858630061149597, 0.0027879029512405396, -0.006515480577945709, 0.08458507806062698, 0.10022415965795517, -0.10537631064653397, 0.023893944919109344, 0.027777694165706635, 0.07826242595911026, 0.04410170763731003, -0.11223503202199936, 0.026537679135799408, 0.05839470773935318, -0.011969983577728271, -0.1155712679028511, -0.030481189489364624, -0.08214884251356125, 0.044630877673625946, 0.04027331620454788, 0.07017400115728378, -0.00986798107624054, -0.06818300485610962, -0.047501832246780396, 0.08840995281934738, 0.05541785806417465, -0.04094471037387848, -0.017082370817661285, -0.08864923566579819, 0.027795903384685516, -0.0377383753657341, -0.042856745421886444, -0.05798069015145302, 0.07808735221624374, 0.11680959910154343, -0.015947945415973663, -0.09335796535015106, -0.07934816181659698, -0.06368812918663025, 0.02029401808977127, -0.1153133288025856, 0.0007225349545478821, -0.07986465096473694, 0.11229480057954788, 0.11272545903921127, -0.045041270554065704, 0.1104559674859047, 0.06452401727437973, -0.01495291292667389, -0.0343824177980423, 0.10908312350511551, -0.030021928250789642, 0.08194848150014877, -0.013851366937160492, -0.07140251994132996, -0.028866544365882874, -0.07563912123441696, 0.02403024584054947, 0.04093318432569504, 0.021138660609722137, 0.09758485108613968, -0.11057619005441666, 0.04207140952348709, 0.037428535521030426, 0.10117334872484207, 0.026808716356754303, 0.04032469540834427, -0.07178445160388947, -0.056844327598810196, -0.09735975414514542, -0.024487346410751343, -0.10729978233575821, -0.04133114218711853, 0.03737478703260422, -0.07784576714038849, 0.08566214889287949, 0.0815252885222435, 0.020316235721111298, 0.08617434650659561, -0.07895335555076599, 0.03765135258436203, -0.031248852610588074, 0.05055489391088486, -0.08239686489105225, 0.007715605199337006, -0.05625356733798981, 0.0801411047577858, -0.04465992748737335, 0.022280625998973846, -0.06041750684380531, -0.018318787217140198, -0.017167702317237854, 0.058739833533763885, -0.10301083326339722, 0.1133352592587471, -0.11290100961923599, -0.0026687979698181152, 0.11564134806394577, 0.08453112095594406, 0.07134263962507248, 0.06303181499242783, 0.011828280985355377, 0.0016896426677703857, 0.0868840143084526, 0.06990150362253189, -0.06161962077021599, -0.07650591433048248, -0.01849810779094696, 0.10331130772829056, -0.042955733835697174, 0.06886527687311172, -0.06285789608955383, -0.09348581731319427, 0.06466764956712723, 0.07566999644041061, 0.0998200848698616, -0.0865490585565567, -0.07724340260028839, -0.013331972062587738, -0.05707472935318947, -0.053361475467681885, 0.09307513386011124, -0.04820166528224945, 0.09371615201234818, -0.053156957030296326, -0.09526275098323822, 0.08573130518198013, 0.08101139217615128, -0.07997707277536392, -0.07374448329210281, 0.060408152639865875, -0.017320334911346436, -0.07575522363185883, -0.02664554864168167, -0.012799352407455444, 0.006867490708827972, -0.041534312069416046, -0.057721346616744995, 0.061860837042331696, 0.06723726540803909, 0.10606380552053452, -0.004877008497714996, -0.022175200283527374, -0.0420626699924469, -0.1010272353887558, 0.03732713311910629, 0.020723752677440643, 0.06269922107458115, 0.10311760753393173, 0.06477691978216171, 0.08745316416025162, 0.01291646808385849, -0.00042110681533813477, 0.10732989758253098, -0.10342001914978027, 0.015562780201435089, -0.08887070417404175, -0.07756124436855316, 0.041981883347034454, 0.01020156592130661, -0.02867761254310608, 0.09211603552103043, 0.054269663989543915, -0.0031042248010635376, 0.06138315051794052, 0.08458990603685379, 0.026538126170635223, -0.032414667308330536, 0.09429826587438583, 0.029696859419345856, -0.09968187659978867, 0.05574125796556473, 0.08964552730321884, -0.006752096116542816, 0.011481143534183502, 0.08019190281629562, -0.09054595977067947, 0.07789286226034164, 0.03911500424146652, 0.08774588257074356, -0.04142419993877411, -0.028767384588718414, -0.11744076013565063, 0.09666211158037186, -0.07712797820568085, -0.10694397985935211, 0.00592399388551712, -0.026480868458747864, 0.06870017200708389, 0.10989872366189957, 0.023044131696224213, 0.057724855840206146, -0.018919892609119415, 0.01554679125547409, -0.07862482964992523, 0.006860211491584778, 0.10722170025110245, 0.10783147066831589, 0.11485429853200912, 0.08531343191862106, 0.03829524666070938, 0.050958938896656036, -0.02874637395143509, -0.028042122721672058, -0.006933942437171936, -0.10779023170471191, -0.051446862518787384, -0.10871177911758423, -0.0003181546926498413, 0.0002701878547668457, -0.05977103114128113, -0.030380040407180786, 0.057942114770412445, 0.10598190873861313, -0.04309672862291336, 0.004158824682235718, 0.07111511379480362, 0.011085934937000275, 0.043386779725551605, -0.03786652535200119, -0.043826088309288025, -0.07841682434082031, 0.03631079941987991, -0.06961768865585327, 0.005905956029891968, 0.09231416136026382, -0.0817013531923294, -0.10671421885490417, -0.08593720197677612, 0.11655152589082718, -0.0997660905122757, 0.05134984105825424, -0.03445319086313248, -0.11157355457544327, 0.10845648497343063, 0.10250798612833023, -0.012741386890411377, -0.06807848811149597, 0.10800430923700333, 0.10417739301919937, 0.07577637583017349, -0.11593291163444519, -0.052096374332904816, 0.03880278021097183, -0.06841209530830383, -0.044462449848651886, 0.08492747694253922, 0.001292504370212555, 0.06574638932943344, 0.05309724062681198, -0.04808879643678665, 0.009462304413318634, -0.07830901443958282, 0.010834865272045135, 0.08903703838586807, -0.09254208952188492, 0.061243899166584015, 0.044479481875896454, 0.06652512401342392, -0.025975048542022705, 0.0698542669415474, -0.04531744122505188, -0.025612249970436096, 0.01345110684633255, 0.0104680135846138, -0.016048140823841095, 0.04866298288106918, 0.07985686510801315, -0.06860338151454926, -0.10290835797786713, 0.002183571457862854, -0.05311579257249832, -0.060934703797101974, -0.03980249911546707, 0.08656338602304459, 0.0237945094704628, -0.11246341466903687, -0.04450833797454834, -0.045554086565971375, -0.061396241188049316, 0.09299137443304062, -0.11562928557395935, 0.03691490739583969, 0.014846868813037872, 0.007646091282367706, 0.0190337672829628, -0.10546836256980896, -0.036375030875205994, 0.10670781880617142, 0.0016011297702789307, 0.03160131722688675, 0.020000509917736053, -0.10522716492414474, 0.06218663603067398, -0.07681701332330704, 0.030408449470996857, -0.01822693645954132, 0.0249837264418602, -0.08704136312007904, -0.05941860005259514, 0.06492244452238083, -0.025845065712928772, 0.027419649064540863, -0.012916378676891327, -0.11655129492282867, 0.03400874882936478, -0.06521837413311005, -0.007591351866722107, 0.10769941657781601, 0.008650921285152435, -0.10366455465555191, 0.04358319193124771, 0.11403035372495651, 0.03099743276834488, -0.10959102213382721, 0.11043950170278549, 0.09134500473737717, -0.08135876059532166, 0.065271757543087, 0.029884539544582367, -0.08782540261745453, -0.04143035411834717, -0.10462525486946106, -0.060231778770685196, -0.0699705109000206, -0.023699678480625153, 0.04376528412103653, 0.027590475976467133, -0.07679501175880432, 0.10185603052377701, 0.06900281459093094, -0.04057041555643082, 0.037712208926677704, 0.08589845150709152, -0.05827914550900459, 0.02454812079668045, 0.00974244624376297, 0.041487835347652435, -0.04805462807416916, -0.11249347776174545, -0.025611236691474915, -0.07771819829940796, -0.05692344903945923, 0.02480488270521164, 0.030378662049770355, 0.036160923540592194, 0.11276312917470932, 0.08437413722276688, 0.10611941665410995, -0.06414613127708435, 0.0054599568247795105, 0.002995319664478302, 0.10549142211675644, 0.0736205205321312, 0.017812155187129974, -0.0409054309129715, 0.05249328166246414, 0.013932488858699799, 0.014764465391635895, -0.11482296139001846, -0.05834627151489258, 0.030268438160419464, -0.0929008424282074, -0.023206979036331177, -0.0803394764661789, -0.041894473135471344, 0.06496293097734451, 0.0729316994547844, 0.03247758001089096, -0.026778899133205414, 0.01422186940908432, -0.03394268453121185, 0.09223832935094833, -0.028182558715343475, 0.02809474617242813, 0.041851796209812164, -0.07878392934799194, -0.08368846774101257, -0.058793533593416214, 0.0646347776055336, -0.06572601199150085, 0.07789213210344315, -0.054508574306964874, 0.03402573615312576, -0.076703280210495, 0.05064366012811661, 0.024733908474445343, 0.029941745102405548, 0.05212908238172531, 0.04244516044855118, -0.019753582775592804, 0.005943126976490021, 0.07616966217756271, 0.09163016825914383, -0.01800858974456787, -0.09872463345527649, -0.07277971506118774, 0.028704948723316193, 0.07742562144994736, 0.05565971881151199, -0.0069362446665763855, 0.10369942337274551, -0.01562296599149704, -0.02581106871366501, -0.044013164937496185, -0.0844573974609375, -0.10336387902498245, 0.017632998526096344, -0.09131123125553131, 0.06686175614595413, -0.0017036870121955872, 0.0290333554148674, 0.09734027832746506, 0.11523760110139847, 0.00738178938627243, 0.07428283244371414, 0.038346581161022186, 0.09136597067117691, -0.04062419384717941, -0.08761006593704224, -0.046249449253082275, -0.014850080013275146, -0.006213203072547913, -0.11478938907384872, 0.0013681426644325256, -0.00431639701128006, -0.04403488337993622, -0.07590459287166595, 0.09514772146940231, -0.06472755968570709, -0.038514018058776855, 0.01599486917257309, -0.037227779626846313, -0.11577104032039642, 0.02292417734861374, 0.06235649436712265, 0.03581360727548599, 0.03910542279481888, -0.0915364921092987, 0.09968539327383041, 0.06463859230279922, 0.05600760132074356, -0.04109314829111099, 0.10126844793558121, -0.06665914505720139, -0.0030120685696601868, 0.11428194493055344, 0.00979430228471756, 0.054355718195438385, -0.04808811843395233, 0.019211597740650177, 0.0412006750702858, -0.03810642659664154, -0.06198250502347946, 0.083403579890728, -0.10257624089717865, -0.04625304788351059, -0.10987456142902374, 0.004926688969135284, -0.000775359570980072, 0.013883091509342194, -0.07030931860208511, -0.11396243423223495, -0.06893038749694824, 0.03136806935071945, -0.02444227784872055, 0.07653733342885971, -0.004498526453971863, -0.08430007100105286, 0.030883334577083588, -0.10557141900062561, -0.0006936788558959961, 0.10516072064638138, 0.08524905890226364, 0.026232250034809113, 0.057215072214603424, -0.05056306719779968, 0.03250294178724289, -0.022047661244869232, -0.08321653306484222, -0.10083594173192978, 0.05754663795232773, 0.05897682160139084, 0.11382701247930527, 0.02935010939836502, 0.07379750162363052, 0.05793539434671402, -0.07493866980075836, 0.06541011482477188, -0.021058760583400726, -0.07485856115818024, 0.03177378326654434, -0.0172652006149292, 0.0761108323931694, -0.07448148727416992, -0.08748148381710052, 0.03850387781858444, 0.05783272534608841, 0.08998113125562668, 0.0042586550116539, -0.01411411166191101, 0.019455574452877045, 0.03623797744512558, -0.03449244797229767, -0.008868709206581116, 0.07754278928041458, -0.06140130013227463, 0.09617545455694199, -0.056329403072595596, -0.01996763050556183, 0.04969138652086258, 0.010544322431087494, 0.03867136687040329, 0.09787563234567642, 0.07853394001722336, -0.008970588445663452, 0.07904649525880814, -0.011727191507816315, -0.10700157284736633, 0.04926120489835739, 0.11222297698259354, -0.029560953378677368, -0.06494160741567612, -0.11300927400588989, 0.02652250975370407, -0.034344933927059174, -0.03786051273345947, 0.07091400772333145, -0.024439752101898193, -0.021885253489017487, -0.06154476851224899, -0.07570576667785645, 0.04809396713972092, -0.0750809907913208, -0.033113040030002594, 0.01314554363489151, 0.02821534126996994, -0.03701097518205643, 0.01576513797044754, 0.11589250713586807, -0.10507015883922577, -0.022033333778381348, -0.09337443113327026, -0.08571500331163406, 0.10757479816675186, 0.01373281329870224, 0.11155121773481369, 0.11453057080507278, -0.035016924142837524, -0.0800650492310524, -0.025131240487098694, 0.0024055764079093933, -0.0842057466506958, -0.041396692395210266, 0.0803062692284584, 0.056122519075870514, -0.07217589020729065, -0.09770229458808899, 0.05187591165304184, -0.1073572114109993, -0.11620799452066422, -0.002514086663722992, 0.02962445467710495, -0.028232209384441376, -0.013283252716064453, 0.06766989082098007, 0.03840047866106033, -0.11059782654047012, -0.10714029520750046, 0.0075927600264549255, -0.08883634209632874, -0.02762194722890854, 0.08465062826871872, 0.020878426730632782, 0.08359167724847794, -0.09661555290222168, -0.08237927407026291, -0.04801374673843384, 0.07895950227975845, -0.08978315442800522, 0.1111445501446724, 0.08732085675001144, 0.08259152621030807, 0.006261110305786133, 0.067165307700634, 0.014211662113666534, 0.046756498515605927, -0.02576473355293274, -0.05879946053028107, 0.06475099176168442, -0.02967028319835663, -0.02724791318178177, -0.0037426427006721497, 0.0840071514248848, 0.039771683514118195, -0.02416534721851349, -0.047263674437999725, -0.00200478732585907, 0.11507623642683029, 0.03740585595369339, 0.0076825544238090515, -0.08874235302209854, -0.044597916305065155, -0.018797554075717926, 0.05529019981622696, -0.06748868525028229, 0.0719924345612526, 0.011805109679698944, 0.02448178082704544, 0.09476963430643082, -0.05160721391439438, 0.06328771263360977, 0.012651242315769196, -0.04702908545732498, 0.043952666223049164, -0.06635675579309464, 0.09742317348718643, 0.04942985624074936, 0.06435849517583847, 0.01786085218191147, -0.0452154204249382, 0.045543380081653595, 0.053191713988780975, -0.06176598370075226, -0.047677889466285706, 0.005246944725513458, -0.09210291504859924, -0.08656841516494751, 0.029046200215816498, -0.08300352096557617, 0.041854046285152435, 0.07958955317735672, 0.1113230362534523, -0.06767673790454865, -0.10711014270782471, 0.06195760518312454, -0.006464734673500061, 0.01372344046831131, -0.023595154285430908, 0.10626662522554398, 0.04804735630750656, -0.05138585716485977, -0.028410881757736206, 0.08177947252988815, -0.09651044011116028, -0.09256152808666229, -0.08501750230789185, -0.07379688322544098, 0.042247332632541656, -0.08977609872817993, -0.08854800462722778, 0.043728820979595184, 0.026280276477336884, -0.061970870941877365, 0.1048678532242775, 0.09718012064695358, 0.05490972846746445, 0.048348478972911835, -0.10840166360139847, 0.08009708672761917, 0.08099517971277237, -0.10554720461368561, 0.09754068404436111, 0.045267872512340546, 0.01087535172700882, -0.11338803172111511, -0.016114063560962677, 0.020419396460056305, -0.09055270254611969, 0.08843418210744858, 0.11645980924367905, 0.10235533863306046, -0.05362537503242493, 0.014676205813884735, 0.053587861359119415, -0.04036330431699753, -0.0980168804526329, 0.08854297548532486, 0.031370602548122406, -0.039328403770923615, 0.02051135152578354, 0.028381772339344025, -0.10604366660118103, 0.10862400382757187, 0.1070999726653099, 0.012693844735622406, 0.0034986957907676697, -0.08615723252296448, 0.09764967113733292, 0.06446243077516556, 0.021966315805912018, 0.02986975759267807, 0.05179145187139511, 0.10155858844518661, 0.06429076939821243, -0.021686211228370667, 0.013475559651851654, -0.0024533644318580627, -0.09256409108638763, 0.08133240789175034, -0.00681101530790329, -0.07325828075408936, -0.07892078906297684, 0.08107898384332657, 0.04254458099603653, -0.09745093435049057, -0.1163875088095665, 0.01832640916109085, 0.040166907012462616, -0.009445220232009888, -0.04882799834012985, -0.02089657634496689, 0.02900577336549759, 0.11496362835168839, 0.04968973249197006, -0.031136348843574524, 0.11694825440645218, 0.07789043337106705, -0.015591442584991455, 0.09518706053495407, -0.009169667959213257, 0.02833617478609085, 0.08132585138082504, 0.10408268123865128, -0.0901966467499733, 0.0013994425535202026, 0.1085495725274086, 0.07220994681119919, 0.03833157569169998, 0.008268900215625763, -0.07811418175697327, 0.09139709919691086, 0.11070659011602402, 0.08542469888925552, -0.028391830623149872, -0.06495298445224762, 0.10926205664873123, -0.055791329592466354, -0.02909102290868759, 0.009645722806453705, 0.031759537756443024, 0.07931635528802872, 0.08862689882516861, 0.020435579121112823, -0.06057516485452652, 0.08199255913496017, -0.04627024382352829, -0.0014052316546440125, 0.019165880978107452, -0.03941132128238678, 0.1161787137389183, -0.09819050133228302, 0.06393580883741379, -0.027638442814350128, -0.0012043863534927368, -0.10700736194849014, 0.09913023561239243, 0.026121430099010468, 0.09831308573484421, -0.004217863082885742, 0.07471262663602829, 0.048433758318424225, 0.07904321700334549, -0.06914819777011871, -0.04438476264476776, 0.06404469162225723, 0.0753951147198677, 0.1016678437590599, -0.03582751750946045, -0.0001967698335647583, -0.02128424495458603, 0.07246405631303787, -0.023524992167949677, -0.1173391044139862, -0.060527145862579346, -0.07263877242803574, -0.10084206610918045, 0.024948187172412872, -0.018035560846328735, -0.06408782303333282, 0.0659051164984703, -0.08818157762289047, 0.06604529172182083, -0.0709770917892456, 0.03509020060300827, -0.07385186851024628, 0.109438456594944, -0.09229693561792374, 0.10588280111551285, -0.05322745442390442, -0.014536336064338684, -0.04103875160217285, -0.09220488369464874, 0.028152234852313995, -0.09933388233184814, 0.11732826381921768, -0.01696772873401642, -0.021207958459854126, -0.034229956567287445, -0.055381689220666885, -0.06299099326133728, 0.01551402360200882, -0.06218292564153671, 0.006517477333545685, 0.04472929984331131, 0.05572136491537094, 0.10672425478696823, 0.06999801844358444, -0.04344972223043442, -0.05465766042470932, 0.0854591652750969, -0.023695774376392365, -0.06221717968583107, -0.008832015097141266, 0.026716627180576324, 0.02886027842760086, 0.09971492737531662, 0.10048196464776993, -0.007623553276062012, 0.051254309713840485, 0.04988003522157669, 0.08103231340646744, 0.08082205802202225, -0.05526019632816315, -0.0650264322757721, 0.06129441410303116, 0.07907625287771225, -0.050172142684459686, 0.06033264845609665, -0.031166188418865204, 0.08647308498620987, 0.018705524504184723, -0.09182609617710114, 0.06042992323637009, -0.08540089428424835, -0.0027033016085624695, -0.10185451805591583, -0.0705278068780899, 0.0892365351319313, -0.10089559853076935, -0.10863594710826874, -0.04971909523010254, 0.0010605305433273315, 0.006720848381519318, 0.07789214700460434, -0.08787477016448975, -0.018410921096801758, -0.04197744280099869, 0.10041054338216782, 0.07671993225812912, -0.022156767547130585, -0.014289550483226776, -0.0716293603181839, 0.042706362903118134, -0.0816880613565445, 0.020383037626743317, 0.06846775859594345, 0.08727145940065384, -0.020736388862133026, 0.09150642901659012, 0.07572180777788162, 0.10926539450883865, 0.045000337064266205, -0.009920187294483185, -0.06079668924212456, 0.10021194070577621, -0.010248571634292603, 0.023528866469860077, 0.05021920055150986, 0.0663323625922203, -0.01783466339111328, -0.005346186459064484, -0.026874996721744537, 0.010000966489315033, 0.020134396851062775, 0.07365263253450394, 0.017690442502498627, 0.016902320086956024, 0.09581077843904495, -0.11097212135791779, 0.05972801893949509, 0.04030761867761612, -0.03422880172729492, 0.10789107531309128, 0.06917200237512589, 0.0002549588680267334, -0.035064466297626495, -0.00927828997373581, -0.06244676560163498, 0.036215491592884064, 0.014337845146656036, -0.09889381378889084, -0.028031669557094574, 0.012496821582317352, -0.01626811921596527, 0.10666128247976303, 0.061932943761348724, 0.10697906464338303, -0.05513148009777069, 0.04848635941743851, -0.05654482915997505, 0.06608041375875473, 0.04973963648080826, -0.0801110714673996, -0.029655955731868744, -0.11204301565885544, -0.034639738500118256, -0.07830122858285904, -0.07272385060787201, -0.03273087739944458, 0.09634030610322952, -0.022991470992565155, -0.0413513109087944, -0.05968581140041351, 0.007192529737949371, 0.06703073531389236, 0.041109226644039154, -0.02032405138015747, -0.017803475260734558, 0.04801284521818161, 0.10027170926332474, -0.02836395800113678, 0.06900543719530106, -0.09162424504756927, -0.08158840239048004, 0.03315619379281998, -0.002929180860519409, 0.006139218807220459, -0.03612923622131348, -0.016239464282989502, 0.06843752413988113, -0.026193395256996155, -0.06348355114459991, -0.017348401248455048, -0.04695627838373184, 0.0918399766087532, -0.09924349188804626, 0.08624512702226639, 0.06843825429677963, 0.03441835194826126, -0.004348933696746826, -0.025608904659748077, 0.0453193262219429, 0.05208302289247513, -0.09821589291095734, -0.09219963103532791, -0.10929863899946213, 0.009032018482685089, -0.011712640523910522, 0.08133886009454727, 0.058021180331707, 0.030661500990390778, 0.10514175146818161, 0.11075188964605331, -0.08986927568912506, -0.01945040374994278, 0.09668009728193283, 0.08938124030828476, -0.056370481848716736, 0.09229452162981033, 0.041928015649318695, -0.02085212618112564, -0.06787887215614319, 0.08357874304056168, -0.07907959818840027, 0.04468371719121933, -0.11066632717847824, 0.06800689548254013, -0.10885854065418243, -0.06130514666438103, 0.007826142013072968, -0.006923489272594452, 0.09369733184576035, 0.020394407212734222, 0.05216766148805618, 0.016747690737247467, 0.021416865289211273, 0.04640559107065201, 0.06550078839063644, 0.11258869618177414, 0.015030182898044586, -0.05013235658407211, 0.012044869363307953, 0.051306821405887604, 0.03462613373994827, -0.09792688488960266, 0.039230264723300934, -0.09520868957042694, 0.02530471235513687, 0.11007391661405563, -0.06023936718702316, -0.017375491559505463, 0.09613058716058731, -0.06638673692941666, -0.0568276084959507, 0.04452488571405411, 0.06478001922369003, -0.014794468879699707, 0.11692676693201065, 0.07724390178918839, -0.09380435943603516, -0.004122301936149597, -0.028056256473064423, -0.01566159725189209, 0.07648337632417679, -0.047280192375183105, -0.015473514795303345, 0.036834947764873505, -0.11249114573001862, -0.11079108715057373, -0.1108786091208458, -0.08663570880889893, -0.0683365911245346, 0.04289678484201431, -0.03765225410461426, 0.04173419624567032, -0.06519471108913422, 0.06436113268136978, 0.06080128997564316, -0.018748238682746887, 0.02930382639169693, 0.06370420008897781, 0.04827117174863815, 0.07015169411897659, -0.1076732873916626, -0.07080347836017609, 0.07011569291353226, -0.08201535046100616, -0.07232882082462311, -0.06695669889450073, 0.09773898869752884, 0.10313192754983902, -0.11616935580968857, 0.11431431025266647, 0.008764944970607758, 0.0631936714053154, 0.05038798600435257, -0.03293430805206299, -0.06049429997801781, 0.008320175111293793, -0.02121562510728836, -0.10951327532529831, 0.11530239135026932, -0.04383721947669983, 0.037587858736515045, 0.10236924141645432, -0.10659623891115189, 0.001534394919872284, -0.01110847294330597, 0.04327840358018875, 0.11573060601949692, 0.03231403976678848, -0.0055270567536354065, -0.0006732791662216187, -0.09565909951925278, 0.025640197098255157, 0.0983395054936409, -0.09473007172346115, -0.021520234644412994, -0.11529849469661713, -0.07669436931610107, -0.0022029876708984375, -0.07138316333293915, -0.017216764390468597, -0.03300780802965164, -0.08545630425214767, -0.11025936156511307, -0.09962573647499084, -0.01597101241350174, 0.02455272525548935, 0.049073658883571625, -0.09911699593067169, 0.08392985910177231, 0.07719450443983078, 0.009127460420131683, 0.007633127272129059, -0.07616947591304779, 0.04450622946023941, 0.11057784408330917, 0.02399822324514389, -0.07681404054164886, -0.034681856632232666, -0.06911808252334595, -0.011536292731761932, 0.011053241789340973, -0.018776170909404755, -0.10293713212013245, -0.08764965832233429, 0.029023729264736176, 0.03355827182531357, 0.04545537382364273, 0.005984403192996979, -0.014859937131404877, 0.020438916981220245, -1.3515353202819824e-05, -0.013676933944225311, -0.03645437955856323, -0.0366244912147522, -0.06102091073989868, 0.05553960055112839, -0.036647528409957886, -0.0775534063577652, 0.03988061100244522, 0.06268078833818436, -0.003173239529132843, -0.04532921314239502, 0.08933890610933304, -0.07385251671075821, -0.04403463751077652, -0.10663554817438126, 0.014538832008838654, 0.047568418085575104, 0.1122390553355217, -0.028969667851924896, -0.05544859170913696, 0.11419396847486496, 0.03158634155988693, 0.0014496520161628723, 0.07341880351305008, -0.09018130600452423, -0.05573246255517006, 0.10249408334493637, -0.021017342805862427, -0.09141390025615692, -0.07176369428634644, -0.06015883758664131, 0.10057393461465836, 0.106481172144413, -0.024316906929016113, -0.04691542685031891, 0.01834205538034439, 0.08576928824186325, -0.08216601610183716, -0.06281189620494843, 0.06884906440973282, 0.016168199479579926, -0.015169352293014526, -0.11345288157463074, 0.10979288071393967, 0.009931065142154694, 0.09026121348142624, -0.07851853966712952, -0.05732463300228119, -0.11499214172363281, -0.028210856020450592, -0.0609932616353035, 0.005518339574337006, 0.07813415676355362, 0.10975629836320877, 0.02305039018392563, 0.07209617644548416, 0.04637453705072403, 0.027605511248111725, -0.05751892924308777, 0.0353202149271965, 0.1077660396695137, 0.07990371435880661, 0.07128045707941055, -0.08409349620342255, -0.03761350363492966, -0.06894724071025848, 0.0032479465007781982, 0.11459413915872574, 0.08921260386705399, 0.042274110019207, 0.05090255290269852, -0.05851086974143982, -0.08915795385837555, -0.09894034266471863, -0.0376652330160141, 0.05525996536016464, -0.09681698679924011, -0.05132041871547699, -0.0667375698685646, 0.00025706738233566284, 0.032748498022556305, 0.09690549224615097, -0.0019960999488830566, 0.08997588604688644, 0.03865128010511398, 0.07647236436605453, -0.07251086831092834, -0.021114028990268707, -0.03047914057970047, -0.022177673876285553, -0.07884208858013153, -0.11322101950645447, -0.05884326621890068, 0.08554447442293167, 0.055706389248371124, -0.10097317397594452, -0.0053420290350914, -0.00016569346189498901, 0.04427122324705124, -0.05988617613911629, 0.07311051338911057, 0.02765088528394699, -0.05149339139461517, -0.09353509545326233, 0.03885691612958908, -0.05969038978219032, 0.06653236597776413, -0.11750485002994537, -0.07552788406610489, 0.0208277627825737, -0.10697134584188461, 0.041160859167575836, -0.05766475573182106, 0.06482671946287155, 0.0722363218665123, -0.04213131219148636, -0.10447338223457336, 0.006861507892608643, -0.1072477400302887, -0.04565815627574921, -0.03705783933401108, -0.03676120936870575, 0.07794303447008133, -0.048860616981983185, 0.06544860452413559, -0.09184059500694275, 0.08302799612283707, 0.11638084799051285, 0.11776914447546005, 0.11567627638578415, 0.047776006162166595, -0.01535303145647049, 0.09829629212617874, 0.09505029767751694, 0.09086217731237411, -0.024702154099941254, 0.0022977590560913086, -0.07935850322246552, -0.10238508880138397, -0.11179740726947784, -0.06789309531450272, 0.07364790886640549, 0.057347677648067474, -0.0646868422627449, 0.04440847784280777, -0.11384779959917068, -0.012567825615406036, 0.0363176092505455, -0.11387111991643906, 0.10768041759729385, -0.04135895520448685, 0.06955573707818985, -0.10337798297405243, -0.10385163128376007, -0.11096405237913132, -0.10007768869400024, -0.0909309834241867, 0.034920625388622284, 0.04257377237081528, -0.10344643145799637, 0.04274909943342209, -0.09752963483333588, 0.0735478475689888, -0.018991008400917053, 0.021140016615390778, -0.11169305443763733, -0.06105044111609459, 0.11741260439157486, -0.06915283203125, -0.04118853807449341, 0.09987372905015945, -0.06767769157886505, 0.05771603435277939, -0.11584620177745819, -0.06453041732311249, 0.06686434894800186, -0.11309533566236496, -0.02486841380596161, 0.07490742951631546, 0.10882159322500229, -0.049329936504364014, -0.024645648896694183, 0.10631556063890457, -0.006780385971069336, 0.04852072149515152, -0.100306436419487, -0.05319111794233322, -0.11579594016075134, 0.03195779770612717, 0.11407435685396194, -0.07251115143299103, -0.0013731420040130615, 0.07088642567396164, 0.07500559836626053, -0.09009245783090591, -0.09513619542121887, -0.04615981876850128, 0.022504784166812897, 0.043099142611026764, -0.08471749722957611, 0.05377710610628128, -0.062358736991882324, -0.039211347699165344, -0.06870231032371521, 0.08992824703454971, 0.029073648154735565, 0.04359372705221176, -0.025260068476200104, -0.0358864963054657, 0.057232730090618134, 0.00022191554307937622, 0.010503746569156647, 0.028314955532550812, 0.10664322227239609, -0.014974437654018402, 0.03975307196378708, 0.10600792616605759, -0.04106895625591278, -0.106326162815094, 0.0752531960606575, 0.026485197246074677, 0.06005776673555374, -0.07349980622529984, 0.07030471414327621, 0.06887377053499222, -0.07282447069883347, 0.11505620926618576, -0.04329945147037506, 0.10808191448450089, -0.013904832303524017, -0.010839693248271942, -0.04717918485403061, 0.02878401428461075, -0.06464183330535889, 0.09765564650297165, 0.08829519897699356, -0.007133804261684418, -0.046469852328300476, -0.0526762530207634, 0.11676102131605148, 0.07529637962579727, -0.025892101228237152, 0.1158633753657341, 0.09630715101957321, 0.022475875914096832, -0.025865353643894196, 0.031893499195575714, 0.08365767449140549, -0.013656452298164368, -0.06462118029594421, 0.10570957511663437, 0.0439148023724556, 0.11142390221357346, -0.07624536752700806, -0.11498087644577026, 0.0962921753525734, 0.05074503272771835, 0.06925097852945328, 0.08695108443498611, -0.03665132075548172, -0.05943677946925163, -0.04510063678026199, -0.019581176340579987, -0.07859182357788086, -0.1052880510687828, -0.05138307809829712, 0.09129940718412399, -0.024829551577568054, -0.07672049850225449, -0.01290033757686615, 0.06395205110311508, 0.11043556779623032, 0.05334838479757309, -0.048444345593452454, 0.02881472557783127, 0.006591908633708954, 0.012610144913196564, 0.028779558837413788, -0.011473074555397034, -0.09608430415391922, 0.02889396995306015, -0.04073318839073181, 0.10558325797319412, -0.04117994010448456, 0.09951452165842056, -0.06594397127628326, -0.11613047122955322, -0.07712853699922562, 0.02027840167284012, -0.08232678472995758, 0.07837169617414474, -0.044192686676979065, 0.08455809205770493, -0.0649881362915039, 0.024734802544116974, 0.08778756111860275, 0.10652854293584824, -0.11150002479553223, -0.04602275788784027, 0.059239648282527924, 0.08527321368455887, 0.0973222479224205, 0.02908416837453842, 0.044319458305835724, 0.050450704991817474, -0.022330552339553833, 0.07018520683050156, 0.08453870564699173, -0.10451221466064453, 0.0928807184100151, 0.1094389334321022, 0.112665094435215, 0.07117413729429245, 0.0019407793879508972, -0.054092615842819214, -0.11000838875770569, 0.09299758821725845, 0.0022109076380729675, 0.05501566082239151, 0.01790361851453781, 0.017657898366451263, 0.04673171788454056, 0.06153324991464615, -0.055131956934928894, -0.07896563410758972, -0.036273181438446045, 0.056934066116809845, 0.02151475101709366, 0.07612105458974838, 0.09755329042673111, -0.06892675906419754, -0.09061752259731293, 0.023078598082065582, -0.006406575441360474, 0.09033916145563126, 0.06685533374547958, 0.11373164504766464, 0.04736050218343735, 0.1136973574757576, 0.10547447949647903, -0.046080805361270905, -0.11343076825141907, -0.05811755359172821, -0.06683546304702759, 0.008827321231365204, -0.0362686812877655, 0.045414067804813385, -0.035355083644390106, -0.10134482383728027, -0.038127779960632324, -0.03788799047470093, 0.0605061873793602, 0.09104689210653305, -0.05278383940458298, 0.060445018112659454, 0.031708814203739166, 0.10899613052606583, -0.040854938328266144, -0.06389307975769043, 0.034914083778858185, -0.10877534002065659, 0.0018583685159683228, 0.013835631310939789, -0.06543323397636414, -0.10465206205844879, 0.011602498590946198, 0.05251609534025192, 0.07728119939565659, 0.11746720224618912, 0.055916838347911835, -0.008281543850898743, -0.08331906795501709, -0.032982438802719116, 0.0942235216498375, 0.08481847494840622, 0.043568216264247894, -0.020183026790618896, 0.09616851061582565, -0.03552909195423126, -0.10586664825677872, 0.030918501317501068, -0.0708991214632988, 0.07293304055929184, -0.024631716310977936, -0.05715180188417435, 0.10603921860456467, -0.047132402658462524, -0.028065219521522522, -0.03719156235456467, -0.08395612984895706, -0.006407812237739563, 0.10400741547346115, -0.006083756685256958, -0.11625649034976959, -0.05637062340974808, -0.04189994931221008, -0.027595818042755127, -0.046060383319854736, 0.023732952773571014, -0.031825676560401917, -0.10931240022182465, -0.11559928208589554, 0.07268112152814865, -0.023493438959121704, -0.0015724152326583862, 0.09041915088891983, -0.06967281550168991, -0.055422376841306686, 0.01900317519903183, -0.0453372523188591, 0.053245849907398224, -0.05071581155061722, -0.052467040717601776, -0.05347508192062378, -0.06681300699710846, 0.06614310294389725, -0.07668688893318176, 0.08284404128789902, -0.06697044521570206, -0.06839963793754578, 0.061231501400470734, 0.0954374298453331, -0.03432152420282364, -0.007462494075298309, 0.03843579441308975, -0.047854602336883545, 0.07322574406862259, 0.10966797918081284, -0.09927591681480408, -0.0875532478094101, -0.06279453635215759, -0.10899936407804489, 0.11615995317697525, -0.11566086858510971, -0.07747916877269745, -0.021830715239048004, 0.042332328855991364, 0.0965917780995369, 0.09073101729154587, 0.1017855629324913, 0.090932197868824, -0.04248598963022232, -0.07900437712669373, -0.0034568533301353455, -0.08033490180969238, 0.0005422905087471008, 0.09207529574632645, -0.11550326645374298, -0.028411947190761566, 0.028836138546466827, 0.02330804616212845, -0.05116040259599686, -0.10807685554027557, -0.029446937143802643, -0.04373957961797714, 0.0811634436249733, 0.03813769668340683, 0.0525345578789711, -0.09144245088100433, 0.08969301730394363, 0.026683248579502106, 0.08008567243814468, -0.006318174302577972, -0.059605251997709274, -0.0827689915895462, 0.015036247670650482, 0.030408836901187897, 0.09766439348459244, -0.060178592801094055, 0.01485375314950943, 0.09255153685808182, -0.05344697833061218, -0.02444402128458023, -0.09993501007556915, -0.05169384181499481, -0.06690952181816101, 0.09878771752119064, -0.08445349335670471, -0.11300792545080185, -0.03896195441484451, -0.008996382355690002, 0.11660734564065933, 0.07267212122678757, 0.04634546488523483, 0.004507802426815033, -0.023154355585575104, -0.010394252836704254, -0.03274248540401459, -0.05249864608049393, 0.014477334916591644, 0.010876618325710297, -0.05920010805130005, -0.005141325294971466, 0.0344906821846962, -0.03409168869256973, -0.10908851772546768, 0.04702705889940262, 0.07044213265180588, 0.08186358958482742, -0.010236598551273346, 0.05858223885297775, 0.08202456682920456, -0.05644216015934944, -0.06445646286010742, 0.09064916521310806, -0.06715316325426102, -0.02588004618883133, -0.02601567655801773, 0.06897405534982681, 0.021966688334941864, 0.005303278565406799, -0.09056298434734344, 0.07437502592802048, -0.05812612548470497, 0.10273546725511551, -0.0742180198431015, 0.10212060064077377, 0.015474162995815277, -0.0009595975279808044, 0.06677625328302383, -0.10295721888542175, -0.016588017344474792, 0.09620537608861923, -0.09817619621753693, -0.0006857886910438538, -0.01068723201751709, 0.1028975173830986, -0.11287516355514526, 0.07562027126550674, -0.11243520677089691, 0.0059022456407547, 0.05859626084566116, -0.04851590842008591, 0.008585907518863678, 0.03244643658399582, -0.055541567504405975, 0.09896481782197952, 0.117000050842762, -0.01891455054283142, -0.012596935033798218, -0.05024334043264389, 0.09159479290246964, -0.0029548630118370056, -0.09488896280527115, 0.012616075575351715, -0.06297534704208374, -0.04897303879261017, -0.05239342153072357, 0.008876748383045197, -0.06860149651765823, 0.03466738015413284, 0.0763828232884407, -0.060898881405591965, -0.05035250633955002, 0.0011794120073318481, 0.11159620434045792, -0.03725876659154892, 0.04204327613115311, 0.10300248116254807, 0.01070847362279892, -0.03846307098865509, -0.048071034252643585, 0.11451802402734756, 0.04772495478391647, -0.0735335499048233, 0.11176344007253647, 0.10292480140924454, 0.05306830257177353, -0.03258504718542099, -0.08114375174045563, -0.062034063041210175, -0.06809014081954956, -0.014528773725032806, -0.09710642695426941, -0.0340922474861145, -0.013899020850658417, -0.028680875897407532, 0.03530377894639969, 0.019381679594516754, -0.06357188522815704, 0.09439849108457565, 0.07594191282987595, 0.0642017051577568, -0.09428413212299347, 0.042594052851200104, 0.013323567807674408, 0.054572559893131256, 0.03818357735872269, -0.06403831392526627, 0.009690172970294952, 0.006782129406929016, -0.09634086489677429, -0.03830448538064957, 0.06732829660177231, -0.10513826459646225, -0.03797405958175659, -0.013817228376865387, -0.034036584198474884, -0.041487619280815125, 0.07266560941934586, -0.009476244449615479, 0.03260011225938797, 0.021580137312412262, 0.10556391626596451, -0.08951783180236816, -0.07114115357398987, 0.00862448662519455, -0.09598464518785477, 0.11736948043107986, -0.08092105388641357, 0.04938197880983353, 0.051720596849918365, -0.023562557995319366, 0.04541996866464615, -0.03899982571601868, -0.05058015137910843, -0.0028703659772872925, 0.021571747958660126, -0.09116315841674805, 0.06295483559370041, 0.013116516172885895, -0.07716444134712219, -0.06720750033855438, 0.11410506814718246, -0.08085985481739044, 0.08046583086252213, -0.05197487771511078, 0.09093789011240005, 0.030919767916202545, -0.06831809878349304, 0.0331694558262825, 0.015168599784374237, 0.054985739290714264, -0.11691959947347641, -0.09691827744245529, 0.05987625569105148, -0.026193931698799133, 0.044012583792209625, 0.11363419145345688, -0.04501769691705704, -0.06720070540904999, -0.04649460315704346, -0.07563968002796173, -0.01529422402381897, 0.022892571985721588, 0.09690507501363754, 0.018205948173999786, 0.07193539291620255, -0.09652569890022278, -0.05237260460853577, 0.04383229464292526, -0.011074870824813843, -0.0221870020031929, 0.11440428346395493, -0.11668239533901215, -0.08508864045143127, 0.025595836341381073, -0.04993406683206558, 0.06807629019021988, 0.09594114869832993, -0.09734747558832169, 0.019788004457950592, 0.04711402207612991, -0.04387607425451279, 0.0519183948636055, 0.017458267509937286, 0.03935810178518295, -0.06053057312965393, -0.06235300377011299, 0.10865785926580429, 0.10295896977186203, -0.02926463633775711, -0.07344678044319153, -0.01822482794523239, -0.11389525234699249, -0.0017049536108970642, -0.05168052017688751, -0.055276744067668915, 0.07160889357328415, -0.10935567319393158, -0.10248152166604996, 0.10852149873971939, 0.049581803381443024, -0.022524818778038025, -0.037329547107219696, -0.059034667909145355, -0.07623187452554703, -0.007205680012702942, -0.09946350008249283, -0.1129082590341568, -0.07688849419355392, 0.054992251098155975, -0.029117822647094727, -0.10068811476230621, -0.05333026498556137, 0.07256656140089035, 0.0024797767400741577, -0.05044148862361908, 0.0914720967411995, -0.08741447329521179, 0.054632119834423065, -0.11283385753631592, 0.03128405660390854, 0.05850691348314285, 0.039230041205883026, 0.08229450136423111, 0.04688618332147598, 0.09350293129682541, -0.08633458614349365, -0.0007427111268043518, -0.0782800167798996, 0.0369693860411644, -0.033715344965457916, 0.03216535598039627, 0.07008624821901321, -0.0360182449221611, 0.06922867149114609, -0.013486713171005249, -0.05500447750091553, -0.03372332453727722, 0.003380231559276581, 0.03441876918077469, -0.0600561685860157, -0.09309634566307068, 0.03872891515493393, -0.11079751700162888, -0.056885264813899994, 0.05233883112668991, 0.081177718937397, -0.021163590252399445, 0.010238848626613617, 0.037165991961956024, 0.1125597134232521, -0.014508068561553955, -0.01757144182920456, 0.004554666578769684, -0.08229194581508636, -0.11161679774522781, -0.10333213210105896, 0.10143203288316727, -0.07163455337285995, 0.08627692610025406, 0.07736969739198685, -0.02124577760696411, -0.08174335956573486, 0.0989096388220787, -0.008573092520236969, -0.018840543925762177, 0.10089574009180069, 0.07082437723875046, 0.019822202622890472, -0.01932837814092636, 0.04953373223543167, 0.09194248169660568, 0.09940426796674728, -0.09510141611099243, -0.09803891181945801, -0.08781605213880539, 0.0003900304436683655, -0.030012182891368866, -0.043199002742767334, 0.10981052368879318, -0.05059614032506943, 0.11653999239206314, 0.05154966562986374, 0.006409920752048492, -0.016801759600639343, -0.07018344104290009, -0.1135687604546547, -0.04364362359046936, -0.06382448971271515, 0.019322864711284637, -0.040532372891902924, 0.03631589561700821, 0.055146001279354095, 0.032288216054439545, 0.04018617421388626, -0.04097747057676315, 0.008617393672466278, -0.06811512261629105, 0.08024195581674576, 0.05783215910196304, 0.03536637872457504, 0.06475798040628433, -0.008439764380455017, 0.09494639188051224, 0.012005157768726349, -0.07663058489561081, 0.06105078011751175, -0.06200537458062172, 0.11524105817079544, 0.09688543528318405, -0.037012405693531036, 0.03205885738134384, 0.07125785201787949, 0.04505275934934616, 0.02214699238538742, -0.09365074336528778, -0.010693922638893127, -0.10039098560810089, -0.10336663573980331, 0.00953296571969986, 0.07157474011182785, 0.013701580464839935, -0.06600769609212875, 0.0403909757733345, -0.036775849759578705, -0.09034162759780884, 0.0587046816945076, 0.11359646171331406, 0.027152232825756073, 0.10417675226926804, -0.04444410651922226, -0.039028994739055634, 0.035372279584407806, -0.041491180658340454, -0.06355756521224976, -0.01825728267431259, 0.0907515212893486, -0.06661981344223022, -0.10740306973457336, 0.013941116631031036, -0.0643654614686966, -0.04068081080913544, -0.02475997805595398, -0.0031553655862808228, -0.03485991060733795, 0.061518557369709015, 0.059005312621593475, -0.035459183156490326, -0.0686013251543045, -0.034608714282512665, -0.007164314389228821, 0.05693729966878891, 0.011311732232570648, -0.10298385471105576, 0.07278592139482498, -0.10599452257156372, -0.023211196064949036, -0.06360830366611481, -0.04778499901294708, 0.032085128128528595, 0.04883774369955063, -0.06903845071792603, 0.07052817195653915, -0.07935389131307602, -0.013181343674659729, 0.031173162162303925, 0.06462553888559341, -0.0012019425630569458, 0.06568572670221329, 0.06502334028482437, -0.019266366958618164, -0.04333530366420746, 0.07217856496572495, -0.05880752578377724, 0.11466740816831589, -0.08184608817100525, 0.11658290773630142, -0.004455119371414185, 0.014294363558292389, -0.1087120920419693, 0.07333003729581833, 0.012648068368434906, -0.11681518703699112, -0.0711619183421135, -0.0173293799161911, -0.11655435711145401, -0.10709494352340698, -0.06169677525758743, -0.01593782752752304, -0.07370562106370926, -0.08587987720966339, 0.08299610763788223, 0.004419177770614624, 0.11188317090272903, 0.06691168993711472, 0.004577375948429108, 0.07625506073236465, 0.04745442420244217, 0.1013331338763237, 0.002240501344203949, 0.0026446878910064697, -0.0038721412420272827, 0.05340784043073654, 0.0944545790553093, -0.08306154608726501, -0.05601372569799423, 0.04360414296388626, 0.024579279124736786, -0.09956397861242294, 0.03986198455095291, -0.11363748461008072, -0.061249036341905594, 0.10174373537302017, 0.022595740854740143, -0.0961034968495369, -0.056883662939071655, -0.06150118634104729, -0.11113104224205017, 0.07782211154699326, -0.06916261464357376, 0.01507028192281723, -0.055262528359889984, -0.0043382346630096436, -0.11746450513601303, -0.10166744142770767, 0.009180702269077301, -0.07305397093296051, -0.09076790511608124, 0.062393300235271454, -0.10794667899608612, 0.08929101377725601, -0.07876695692539215, -0.08806255459785461, -0.06213316693902016, 0.11297159641981125, -0.023320384323596954, 0.004605136811733246, -0.07866352796554565, -0.0003705248236656189, -0.09841042011976242, 0.0831245705485344, 0.05847684293985367, 0.004346325993537903, 0.03155102580785751, -0.07676149904727936, 0.010751433670520782, -0.11316957324743271, 0.07164200395345688, 0.060427285730838776, 0.07755888253450394, 0.0715557411313057, 0.08241001516580582, -0.10066491365432739, 0.014750443398952484, 0.11664284020662308, 0.11762797087430954, -0.08233886957168579, 0.016449011862277985, -0.04045204073190689, -0.044163234531879425, 0.05798105150461197, -0.060299102216959, 0.0075880661606788635, 0.09018068760633469, -0.10490182042121887, 0.06813066452741623, 0.01287928968667984, 0.03830140084028244, -0.04169725626707077, 0.013394124805927277, 0.058320142328739166, -0.04844280332326889, 0.09220898896455765, 0.003406226634979248, 0.022468872368335724, -0.0299203023314476, -0.019612275063991547, -0.050443120300769806, 0.039194487035274506, -0.028520263731479645, 0.09474294632673264, 0.039538271725177765, 0.011333562433719635, -0.07900910079479218, -0.08370041102170944, -0.11232315003871918, 0.002805069088935852, 0.05263189226388931, -0.007287189364433289, 0.11172334104776382, 0.11055871099233627, -0.02861838787794113, 0.023058317601680756, 0.10471954196691513, 0.07806552201509476, 0.10363215953111649, -0.06100000441074371, -0.013555802404880524, 0.045364029705524445, 0.10685164481401443, -0.04186803102493286, -0.09397943317890167, 0.07004452496767044, -0.02033616602420807, -0.0028811022639274597, 0.013112001121044159, 0.013701014220714569, -0.11045922338962555, -0.04316385090351105, 0.06369537860155106, -0.03866594284772873, 0.05165023356676102, 0.06750115007162094, 0.006696321070194244, -0.010558262467384338, -0.01113899052143097, -0.08728151768445969, 0.007178701460361481, 0.05197706073522568, -0.010867394506931305, 0.0355612114071846, 0.042138077318668365, -0.04351566731929779, -0.01006963849067688, 0.026847265660762787, 0.06309393793344498, -0.05551110953092575, 0.06389366835355759, 0.11232484132051468, 0.053793542087078094, -0.11047661304473877, 0.08530890196561813, -0.011703535914421082, -0.03482796251773834, 0.07577719539403915, -0.08855825662612915, 0.09882514923810959, 0.03512301295995712, 0.004535898566246033, -0.05681914836168289, -0.0992327630519867, 0.02932136505842209, -0.06858643889427185, 0.0408366397023201, -0.023671075701713562, 0.08108896762132645, -0.06256593018770218, 0.003898046910762787, 0.1098688617348671, 0.05505941063165665, -0.10674156248569489, -0.051893167197704315, -0.049755506217479706, 0.07736427336931229, -0.1082816869020462, 0.09461268037557602, -0.10562795400619507, 0.10400450974702835, 0.035756684839725494, 0.0037083327770233154, -0.06111610680818558, -0.06183366850018501, -0.03355507552623749, 0.06975314766168594, 0.055848754942417145, 0.08575894683599472, -0.02810860425233841, -0.002496190369129181, -0.021465055644512177, 0.006772071123123169, -0.11683303117752075, 0.11469820886850357, 0.015378989279270172, 0.04661651700735092, 0.019313938915729523, -0.019470244646072388, 0.03384172171354294, 0.04953988641500473, 0.11335956305265427, -0.0007245913147926331, -0.009153537452220917, -0.0040017589926719666, -0.08924712985754013, 0.07131338864564896, -0.05580034852027893, 0.08384879678487778, 0.10722925513982773, -0.026666954159736633, -0.0793706625699997, -0.02008836716413498, -0.02761101722717285, -0.08423502743244171, 0.10858211666345596, -0.0434291809797287, 0.07532509416341782, 0.029302574694156647, -0.08897393941879272, -0.056251123547554016, -0.11407185345888138, 0.029594145715236664, -0.044104062020778656, -0.04212968051433563, -0.02703551948070526, -0.09954515099525452, -0.09611015766859055, -0.10162392258644104, 0.11318372935056686, -0.10498467832803726, -0.019111178815364838, 0.029746226966381073, -0.07047700881958008, 0.022361747920513153, 0.042424462735652924, -0.04094153642654419, 0.012101374566555023, -0.05586707964539528, -0.013313740491867065, -0.08994688093662262, 0.0008642077445983887, 0.08906526118516922, -0.10536830127239227, 0.011025004088878632, 0.03295602649450302, -0.09344077110290527, 0.11205000430345535, 0.027424894273281097, -0.01094452291727066, -0.002854295074939728, 0.030451856553554535, -0.0020837411284446716, 0.09825686365365982, 0.11524232476949692, -0.03598742187023163, 0.04268590360879898, -0.043438903987407684, -0.021608099341392517, 0.03230991214513779, 0.06987787038087845, 0.049036167562007904, 0.04397004097700119, 0.031046710908412933, -0.11657461524009705, -0.057577118277549744, 0.05053500086069107, -0.02729826420545578, 0.04023074358701706, 0.04606195539236069, 0.0490904226899147, -0.013850688934326172, -0.0907159224152565, 0.047945357859134674, -0.0014545470476150513, 0.0265144482254982, -0.0401468425989151, 0.078246109187603, 0.07118936628103256, 0.0383254811167717, 0.07128473371267319, -0.09763474762439728, -0.01919730007648468, 0.02887100726366043, -0.08321400731801987, 0.04827820509672165, 0.11587593704462051, -0.07259266078472137, -0.04108061641454697, -0.01349688321352005, -0.07649905979633331, 0.007849536836147308, 0.043032921850681305, -0.10726036131381989, -0.05048725754022598, -0.08371324837207794, -0.02840183675289154, -0.0846150815486908, -0.03338289260864258, -0.04218576103448868, 0.09260126203298569, 0.03681544214487076, -0.03719858080148697, -0.04323617368936539, -0.11397291719913483, -0.09395414590835571, -0.0072910115122795105, -0.07484942674636841, 0.04896002262830734, -0.05447930097579956, 0.029707886278629303, -0.024909712374210358, -0.08950330317020416, -0.026176512241363525, -0.04844353348016739, -0.11257901042699814, -0.027478650212287903, 0.1041141226887703, 0.04725723713636398, -0.04196295142173767, 0.024419493973255157, 0.058147333562374115, 0.052220530807971954, -0.0002616196870803833, -0.084914430975914, 0.09999994188547134, -0.026174485683441162, 0.03650768846273422, 0.06577049940824509, -0.08341161906719208, -0.0812019407749176, 0.062135301530361176, -0.1147865504026413, 0.05718953162431717, 0.04151270538568497, -0.07047605514526367, -0.016111984848976135, 0.02807173877954483, -0.019118256866931915, -0.06843265891075134, 0.04760686308145523, 0.07089481502771378, -0.05884329602122307, -0.10448142141103745, -0.02518167346715927, -0.08051995187997818, -0.06661331653594971, -0.05162258446216583, 0.015247546136379242, 0.08180717378854752, 0.0052863359451293945, 0.065679632127285, 0.04768621176481247, -0.07049192488193512, -0.1068776398897171, -0.07131774723529816, -0.0938480794429779, 0.04237999767065048, -0.11059954017400742, 0.03564951568841934, 0.07884279638528824, 0.10799809545278549, -0.056539490818977356, 0.014180310070514679, 0.09435928612947464, -0.06927129626274109, 0.046757690608501434, -0.1097768098115921, 0.056938908994197845, -0.01651487499475479, 0.013959743082523346, -0.1134190782904625, -0.0607202909886837, -0.07769498974084854, -0.045573584735393524, 0.0684388056397438, 0.10247247666120529, -0.10732175409793854, -0.025961443781852722, -0.08727415651082993, -0.08745971322059631, -0.06877033412456512, 0.08488283306360245, -0.09248527884483337, -0.02618855983018875, -0.08916284143924713, -0.015210911631584167, -0.07742376625537872, 0.012644000351428986, -0.024671725928783417, 0.0575733557343483, -0.014760106801986694, -0.040573060512542725, -0.03257552534341812, -0.11045399308204651, 0.09780976921319962, -0.06054310500621796, -0.0812663733959198, -0.07723741233348846, -0.04064897447824478, -0.08819006383419037, 0.10839036852121353, -0.013559848070144653, 0.03620704263448715, -0.10772150009870529, 0.06863493472337723, 0.024127833545207977, -0.07213835418224335, -0.08568069338798523, 0.003925301134586334, -0.09598062932491302, 0.01040763407945633, 0.033438585698604584, 0.034112922847270966, -0.029620245099067688, 0.020406179130077362, 0.008157752454280853, 0.05522433668375015, -0.11514979600906372, 0.06626563519239426, -0.013805113732814789, 0.06887722760438919, 0.039489321410655975, 0.03506847470998764, -0.019644394516944885, 0.10648148506879807, -0.06324420869350433, -0.06242600083351135, -0.05995122343301773, 0.09794475883245468, 0.043004222214221954, 0.029509149491786957, 0.04533728212118149, 0.01815309375524521, 0.010491274297237396, 0.07782047241926193, -0.07145775854587555, -0.013190530240535736, -0.07167279720306396, 0.07863349467515945, 0.0386350080370903, 0.08728713542222977, 0.0359237864613533, 0.009122036397457123, -0.1168215423822403, -0.0714658796787262, -0.03571091592311859, 0.06238725036382675, 0.001888372004032135, 0.07654904574155807, -0.0682372897863388, 0.0916334018111229, -0.06146112084388733, -0.0025866329669952393, -0.03228164464235306, 0.07474628835916519, 0.01826304942369461, 0.06518178433179855, 0.06287919729948044, 0.010342277586460114, -0.0812634527683258, 0.10576619952917099, 0.021144427359104156, -0.04275081306695938, -0.0021439790725708008, 0.02620648592710495, 0.0644192323088646, 0.03402664512395859, 0.06223476678133011, 0.09681541472673416, -0.11151061207056046, 0.003151826560497284, -0.035629257559776306, -0.10040463507175446, -0.00018426775932312012, 0.11011799424886703, 0.02350672334432602, 0.08020427078008652, -0.10281181335449219, 0.0901951864361763, -0.04805024713277817, -0.11472968012094498, -0.04087521880865097, 0.05864093452692032, 0.050834037363529205, 0.033345915377140045, 0.03960981220006943, -0.012613795697689056, -0.07459750771522522, 0.05568649619817734, -0.021362245082855225, -0.09862326085567474, -0.11767557263374329, -0.041985176503658295, 0.0506325289607048, -0.09243003278970718, -0.06232664734125137, 0.07962223142385483, 0.0020895302295684814, 0.01772744208574295, -0.007110707461833954, -0.03980027884244919, 0.05116618424654007, -0.05302424728870392, 0.004793219268321991, -0.01425471156835556, 0.07239320129156113, 0.0798783078789711, 0.01083410531282425, 0.00451187789440155, -0.08896098285913467, -0.05242376774549484, -0.0873725563287735, -0.006471984088420868, 0.10711561888456345, -0.025108225643634796, -0.08690129220485687, 0.08457423001527786, 0.09634166210889816, 0.060341812670230865, 0.11120400577783585, -0.06920453906059265, 0.06969816237688065, -0.02300698310136795, -0.08795949071645737, 0.11412214487791061, -0.010501958429813385, 0.08097409456968307, -0.06494736671447754, 0.039800308644771576, -0.05565067008137703, 0.096686951816082, -0.1157803162932396, 0.10984072834253311, -0.08592003583908081, -0.05060361325740814, 0.034850336611270905, -0.08604040741920471, -0.09220434725284576, 0.0735204890370369, 0.1064148023724556, -0.11126402765512466, 0.09147866815328598, 0.04310212284326553, 0.10839290171861649, 0.10367723554372787, 0.008353613317012787, 0.1028132513165474, 0.07183129340410233, -0.0776994526386261, -0.049994029104709625, -0.10281495749950409, -0.036352358758449554, 0.002163030207157135, -0.08255241811275482, 0.061259858310222626, 0.04823712259531021, -0.065334752202034, 0.025150038301944733, 0.021819360554218292, -0.0022096186876296997, 0.013446874916553497, -0.03078170120716095, 0.08712054044008255, 0.07150853425264359, 0.05751333385705948, 0.015340827405452728, -0.042819902300834656, -0.06681627035140991, -0.0010428279638290405, -0.06236809119582176, 0.00875314325094223, 0.08607203513383865, -0.02088140696287155, -0.029248088598251343, -0.02316915988922119, -0.010243259370326996, -0.08156027644872665, -0.058671336621046066, -0.08849489688873291, 0.012592516839504242, 0.06805979460477829, 0.09921593219041824, 0.07469598203897476, 0.11567520350217819, -0.0005936771631240845, -0.05407361686229706, 0.005875833332538605, 0.018383942544460297, -0.012581117451190948, 0.03828113526105881, -0.07621254026889801, -0.07552088797092438, 0.04082254320383072, 0.04303533583879471, -0.010678350925445557, -0.053853221237659454, 0.05860907584428787, -0.09446533024311066, 0.06944797188043594, 0.046546779572963715, -0.083160400390625, 0.02923554927110672, -0.10775724053382874, -0.020557858049869537, 0.05500846356153488, 0.11531790345907211, 0.02392091602087021, 0.06392606347799301, 0.06512447446584702, -0.023587733507156372, -0.05390753597021103, 0.0898895338177681, -0.04625788331031799, 0.10411415249109268, -0.026633746922016144, 0.04668300598859787, -0.11274130642414093, 0.05789659172296524, -0.03411062806844711, 0.10371274501085281, -0.06543637812137604, 0.08654976636171341, -0.02103383094072342, -0.07892590761184692, 0.04545518010854721, 0.01751645654439926, 0.11573249846696854, -0.03453785181045532, 0.08919059485197067, 0.06764384359121323, -0.06563177704811096, 0.026325590908527374, 0.047088317573070526, -0.09546713531017303, -0.058809295296669006, 0.001107819378376007, 0.049686186015605927, -0.09815666824579239, -0.0503256693482399, -0.10737794637680054, -0.024734914302825928, 0.000879243016242981, 0.031156860291957855, -0.004916876554489136, -0.06939849257469177, 0.026299215853214264, -0.06365065276622772, 0.02191513031721115, -0.09015250205993652, 0.04206738620996475, -0.02495425194501877, -0.03378519415855408, 0.05708318203687668, 0.08309105783700943, -0.054354093968868256, 0.09866934269666672, 0.053705789148807526, -0.014888010919094086, -0.09470020234584808, 0.10442308336496353, -0.034414276480674744, 0.01625613123178482, 0.08945179730653763, 0.016225896775722504, -0.07888749241828918, -0.08864960074424744, 0.032720647752285004, 0.062332384288311005, -0.024226486682891846, -0.08891383558511734, 0.03534359484910965, 0.01355888694524765, -0.0812276303768158, 0.04951006919145584, -0.05724671483039856, 0.033224694430828094, 0.10426849871873856, 0.013504661619663239, -0.06134223937988281, 0.030158959329128265, 0.07596155256032944, 0.020104385912418365, -0.06346461176872253, -0.10775367170572281, -0.0325072780251503, 0.04604092985391617, -0.06042158231139183, 0.09910910576581955, 0.041077278554439545, -0.01121288537979126, 0.11599882692098618, 0.0897856280207634, -0.08412235975265503, 0.09265478700399399, 0.072722427546978, 0.11001380532979965, 0.11703146249055862, 0.0875372365117073, -0.11385738104581833, -0.10740472376346588, -0.07365229725837708, -0.08488012850284576, -0.06757701933383942, -0.11091044545173645, 0.1115761324763298, -0.0758383646607399, -0.01134132593870163, -0.06543003022670746, 0.08030823618173599, 0.00690208375453949, 0.08716505020856857, -0.014278873801231384, -0.10105285793542862, 0.003810584545135498, 0.05079018324613571, -0.09773171693086624, -0.011935427784919739, -0.017442531883716583, 0.04751310497522354, -0.10386694967746735, -0.10545872151851654, 0.049777500331401825, -0.009253032505512238, -0.0691886618733406, 0.0060320571064949036, -0.02151096612215042, 0.013650916516780853, -0.10632037371397018, -0.10201065987348557, -0.07895813137292862, -0.055204838514328, -0.10898197442293167, -0.06458886712789536, -0.1160077154636383, 0.029218308627605438, 0.022456519305706024, -0.07507750391960144, 0.08774616569280624, -0.02367272973060608, -0.07547972351312637, -0.055305853486061096, -0.034389667212963104, 0.07367459684610367, 0.11412125080823898, 0.0705874040722847, -0.08052978664636612, -0.027506522834300995, 0.021879129111766815, -0.051857396960258484, -0.03270915895700455, -0.09148743748664856, 0.01634005457162857, -0.045028820633888245, 0.09193141013383865, -0.08747483044862747, 0.09064260870218277, 0.047155581414699554, -0.02165123075246811, -0.05033137649297714, 0.11271803826093674, 0.04121517390012741, -0.0613504983484745, -0.01518683135509491, 0.09581319242715836, 0.09840782731771469, 0.031854189932346344, 0.10190368443727493, -0.04392670840024948, 0.040980033576488495, -0.03934529423713684, 0.017153151333332062, 0.06901226192712784, 0.017483912408351898, 0.0034789666533470154, -0.017814233899116516, -0.05781201645731926, 0.08211001008749008, 0.11658849567174911, 0.061389558017253876, -0.05821603536605835, 0.08076252788305283, -0.1115109771490097, -0.013128802180290222, -0.05996673181653023, -0.0009737014770507812, 0.016748376190662384, 0.021306581795215607, -0.02291751652956009, -0.0785413533449173, 0.03163199871778488, -0.0008888766169548035, -0.010831207036972046, -0.04722826927900314, 0.082870252430439, -0.07057596743106842, -0.019238516688346863, -0.09734323620796204, 0.011728905141353607, 0.019638724625110626, 0.04336727410554886, -0.024432219564914703, 0.019467152655124664, -0.053836531937122345, -0.04070264846086502, -0.07401034235954285, -0.02952473610639572, -0.03737950325012207, -0.03824562579393387, -0.03259974718093872, 0.09868644922971725, -0.039239585399627686, 0.001939341425895691, -0.04433629661798477, -0.012472517788410187, 0.0627746656537056, -0.043353401124477386, 0.0037205517292022705, -0.0906575620174408, -0.02378026396036148, 0.014583848416805267, -0.09321514517068863, -0.00550331175327301, 0.014060549437999725, 0.09215585142374039, -0.03893905133008957, -0.020291969180107117, -0.09406137466430664, -0.015269860625267029, -0.08883850276470184, 0.007665015757083893, 0.007272668182849884, -0.058366864919662476, -0.057709068059921265, -0.05786925181746483, 0.10548373311758041, -0.04273861646652222, 0.07225503772497177, 0.018142051994800568, 0.07501175254583359, 0.06920468062162399, -0.04730778932571411, 0.10969846695661545, -0.10939399898052216, 0.014956958591938019, 0.11527404934167862, -0.01356552541255951, -0.03800496459007263, 0.08641061931848526, -0.04370114207267761, 0.04041609913110733, -0.003988020122051239, 0.09570009261369705, -0.0908941775560379, -0.036941878497600555, -0.10530103743076324, 0.0917729064822197, -0.08121880888938904, -0.035099923610687256, -0.08735606074333191, 0.019167326390743256, 0.0068258196115493774, 0.035777948796749115, 0.10044816881418228, 0.11108029633760452, -0.07915608584880829, 0.03778167814016342, 0.05622462183237076, -0.05719847232103348, 0.027182556688785553, 0.10628446191549301, -0.04554717242717743, -0.06522654742002487, 0.09392599016427994, 0.01737838238477707, 0.11163211613893509, 0.005943886935710907, -0.012329496443271637, -0.02969253808259964, -0.026185892522335052, 0.06252599507570267, -0.10096406936645508, -0.09163865447044373, 0.11009251326322556, 0.044334910809993744, -0.09852848947048187, -0.07243037223815918, -0.09663623571395874, -0.007507450878620148, -0.08639033138751984, 0.07178810983896255, -0.09885133057832718, 0.06621407717466354, 0.03457816690206528, 0.09452111274003983, 0.10099086910486221, 0.052822671830654144, -0.007040351629257202, -0.05872118100523949, 0.018323175609111786, -0.010902740061283112, -0.02392398566007614, -0.042704202234745026, 0.02002059668302536, -0.05277977138757706, -0.01984304189682007, 0.07674803584814072, 0.07671939581632614, 0.015229262411594391, -0.011771894991397858, -0.04138955473899841, 0.07173293083906174, 0.03317085653543472, -0.046351559460163116, 0.10912597924470901, 0.08992119878530502, -0.09524302929639816, -0.0032594427466392517, -0.023587964475154877, 0.07712317258119583, 0.11547171324491501, 0.05570945888757706, 0.05698121339082718, 0.044686950743198395, -0.06667429208755493, -0.001901388168334961, -0.05358744412660599, -0.09507724642753601, -0.0849577933549881, -0.009739324450492859, -0.07094825804233551, 0.1120145246386528, 0.016500525176525116, 0.07033746689558029, -0.04194943606853485, -0.0706971287727356, 0.09953872114419937, -0.028148196637630463, -0.0709322988986969, -0.09347617626190186, -0.05417918413877487, 0.1175120398402214, -0.01833188533782959, -0.03793272376060486, -0.10826890170574188, 0.0455610528588295, -0.10658859461545944, -0.033939287066459656, 0.05141761153936386, -0.01919800043106079, -0.0012436136603355408, 0.026956193149089813, -0.08353230357170105, -0.07764516770839691, -0.11091151088476181, -0.025700420141220093, 0.059851355850696564, 0.02369707077741623, 0.08192577213048935, -0.0018340647220611572, -0.06337641179561615, -0.08310192823410034, 0.026807330548763275, 0.09666899591684341, 0.04440347105264664, 0.09334497898817062, 0.07153455168008804, 0.029952101409435272, -0.07252674549818039, -0.006209075450897217, 0.006665579974651337, 0.08991237729787827, 0.11752783507108688, -0.043898552656173706, -0.1139211356639862, 0.053942568600177765, -0.010537974536418915, 0.06428816169500351, -0.06246744468808174, -0.0023513436317443848, 0.08372237533330917, 0.07360539585351944, -0.050390295684337616, 0.11155230551958084, 0.03597966581583023, -0.020373396575450897, -0.01161232590675354], "convBiasD": [0.0, 0.0, 0.0, 0.0, 0.0, 0.0, 0.0, 0.0, 0.0, 0.0, 0.0, 0.0, 0.0, 0.0, 0.0, 0.0, 0.0, 0.0, 0.0, 0.0, 0.0, 0.0, 0.0, 0.0, 0.0, 0.0, 0.0, 0.0, 0.0, 0.0, 0.0, 0.0, 0.0, 0.0, 0.0, 0.0, 0.0, 0.0, 0.0, 0.0, 0.0, 0.0, 0.0, 0.0, 0.0, 0.0, 0.0, 0.0], "bnMeanD": [0.0, 0.0, 0.0, 0.0, 0.0, 0.0, 0.0, 0.0, 0.0, 0.0, 0.0, 0.0, 0.0, 0.0, 0.0, 0.0, 0.0, 0.0, 0.0, 0.0, 0.0, 0.0, 0.0, 0.0, 0.0, 0.0, 0.0, 0.0, 0.0, 0.0, 0.0, 0.0, 0.0, 0.0, 0.0, 0.0, 0.0, 0.0, 0.0, 0.0, 0.0, 0.0, 0.0, 0.0, 0.0, 0.0, 0.0, 0.0], "bnVarianceD": [1.0, 1.0, 1.0, 1.0, 1.0, 1.0, 1.0, 1.0, 1.0, 1.0, 1.0, 1.0, 1.0, 1.0, 1.0, 1.0, 1.0, 1.0, 1.0, 1.0, 1.0, 1.0, 1.0, 1.0, 1.0, 1.0, 1.0, 1.0, 1.0, 1.0, 1.0, 1.0, 1.0, 1.0, 1.0, 1.0, 1.0, 1.0, 1.0, 1.0, 1.0, 1.0, 1.0, 1.0, 1.0, 1.0, 1.0, 1.0], "bnBetaD": [0.0, 0.0, 0.0, 0.0, 0.0, 0.0, 0.0, 0.0, 0.0, 0.0, 0.0, 0.0, 0.0, 0.0, 0.0, 0.0, 0.0, 0.0, 0.0, 0.0, 0.0, 0.0, 0.0, 0.0, 0.0, 0.0, 0.0, 0.0, 0.0, 0.0, 0.0, 0.0, 0.0, 0.0, 0.0, 0.0, 0.0, 0.0, 0.0, 0.0, 0.0, 0.0, 0.0, 0.0, 0.0, 0.0, 0.0, 0.0], "bnGammaD": [1.0, 1.0, 1.0, 1.0, 1.0, 1.0, 1.0, 1.0, 1.0, 1.0, 1.0, 1.0, 1.0, 1.0, 1.0, 1.0, 1.0, 1.0, 1.0, 1.0, 1.0, 1.0, 1.0, 1.0, 1.0, 1.0, 1.0, 1.0, 1.0, 1.0, 1.0, 1.0, 1.0, 1.0, 1.0, 1.0, 1.0, 1.0, 1.0, 1.0, 1.0, 1.0, 1.0, 1.0, 1.0, 1.0, 1.0, 1.0]}