[{"roundsDim": 6, "typeRoundChannelsDim": 2, "typesDim": 3, "singleChannelsDim": 1, "className": "hyception", "roundChannelsDim": 1, "typeChannelsDim": 2}, {"inputChannelsDim": 14, "bnVariance": [2.1593923568725586, 1.229481816291809, 9.839241981506348, 1.5250848531723022, 1.5964696407318115, 0.7403708696365356, 1.1320372819900513, 1.3521995544433594, 0.6557366847991943, 4.448465347290039, 0.9622629284858704, 0.6303040385246277], "roundsDim": 6, "convBias": [0.0030546081252396107, 0.005038343835622072, -0.0014739527832716703, -0.0020121836569160223, 0.0033542111050337553, 0.0033618074376136065, 0.0032812587451189756, -0.002067162422463298, 0.0018121112370863557, -0.010806046426296234, 0.0008529596379958093, 0.0010035127634182572], "bnBeta": [-1.6748559474945068, -0.912561297416687, -0.7705202698707581, 0.47276389598846436, -1.5830808877944946, 0.29571032524108887, -0.6902219653129578, -1.4804905652999878, -0.9616638422012329, -1.2000386714935303, -0.7746962904930115, 0.4950598478317261], "typesDim": 3, "kernelRoundsDim": 1, "className": "ception", "upsamplingRoundsDimFactor": 1, "bnGamma": [1.0367132425308228, 1.2184762954711914, 2.8047993183135986, 1.4920636415481567, 1.248146414756775, 0.9335338473320007, 1.3742883205413818, 1.2336223125457764, 1.7486283779144287, 2.5273427963256836, 1.1327769756317139, 1.4767732620239258], "channelsDim": 12, "convKernel": [0.23470893502235413, -0.5728402137756348, 0.39526647329330444, -0.009157984517514706, 1.267034649848938, 0.8943436145782471, -0.6634659767150879, 1.093322515487671, 4.404268264770508, 0.1638888120651245, 1.4466025829315186, -1.238792896270752, 1.2800997495651245, -0.6300591826438904, 0.1206761971116066, -1.8177605867385864, -0.5090969204902649, -0.9285097718238831, 0.7163417339324951, 1.1840792894363403, -0.32140839099884033, 0.4650253653526306, 2.6424126625061035, 4.903816223144531, -0.5739613175392151, 4.38808012008667, -8.226806640625, 0.10166142880916595, -1.4752858877182007, -1.1601964235305786, 1.959144949913025, -1.3300889730453491, -0.2172810286283493, 0.49401554465293884, -0.8755888938903809, 0.43900927901268005, -4.018796443939209, 0.30309972167015076, -0.6374537348747253, 3.2874786853790283, -0.5136032700538635, 1.9028915166854858, -3.185122013092041, -2.1168394088745117, -0.07328253984451294, 0.13775013387203217, 0.761865496635437, -0.3417544662952423, 0.5447940230369568, 0.3588675558567047, -8.686850547790527, 0.0856143906712532, 1.4357123374938965, -0.2710755467414856, -1.2998502254486084, 0.5122562646865845, 0.18972453474998474, -1.2674822807312012, 0.564741313457489, -0.15827251970767975, -1.794137954711914, -1.0119391679763794, 0.00825811829417944, -0.6460023522377014, -0.31456589698791504, -0.6806985139846802, 1.5998437404632568, -1.074550747871399, 0.05509442463517189, 0.28862112760543823, 0.15632405877113342, 0.09846760332584381, -1.477309226989746, 0.21764124929904938, -0.4365839660167694, -2.242063283920288, -2.911180257797241, 1.38236665725708, -1.247290015220642, 0.3403678834438324, 0.04478730633854866, -0.7623854875564575, -3.506432056427002, 0.9783691763877869, -0.6288459300994873, 1.1886199712753296, -0.40061071515083313, 0.819919228553772, 0.12383798509836197, 1.5620514154434204, 0.6279993057250977, -1.0341993570327759, -3.6573562622070312, -0.10150741785764694, -2.3600494861602783, -2.9745655059814453, 2.174808979034424, -0.9961622357368469, 0.09374282509088516, 1.7955875396728516, 0.2454974502325058, -1.4714632034301758, -0.42168334126472473, -3.3550002574920654, -0.17993147671222687, 0.17249639332294464, -0.3209993541240692, 0.17841419577598572, 1.0000343322753906, -2.0587525367736816, 0.27659180760383606, -1.7226698398590088, 0.020706746727228165, 0.17660512030124664, 0.7311410307884216, 0.9981620907783508, -0.0807204470038414, -0.02121099829673767, 0.09810501337051392, -0.056763071566820145, -0.4690053164958954, -0.1267135888338089, -0.397189199924469, -0.2694903612136841, -0.6244425773620605, -0.1319573074579239, 0.21484993398189545, -0.3452446162700653, 0.09492518752813339, -1.513617753982544, 0.6281644105911255, 0.08232678472995758, 0.277141273021698, -0.23753099143505096, 0.0401080921292305, 0.09333790093660355, -0.07225155830383301, -0.31939753890037537, -0.2886045277118683, 0.03387681767344475, 0.04004223644733429, -0.5260752439498901, -0.3497096598148346, 0.03851946443319321, -0.09298663586378098, 0.32824310660362244, 0.20090225338935852, 0.1509072184562683, -2.5278964042663574, 1.964345932006836, 1.18834388256073, -0.0841883048415184, 0.10533509403467178, -6.495614528656006, 0.018374061211943626, 0.20988331735134125, -0.007960370741784573, 0.04411127045750618, 0.9356817007064819, -0.01136680506169796, 1.1652424335479736, -0.07182000577449799, -0.050872161984443665, 0.006005560047924519, 0.07764248549938202, -0.3105601370334625, 0.059280745685100555, 0.03571959212422371], "bnMean": [-1.142674446105957, -1.14625883102417, -1.6700847148895264, 0.570712149143219, -1.174514651298523, 1.1018390655517578, -0.6815414428710938, -2.502147912979126, -1.1551988124847412, -2.218478202819824, -0.4321657717227936, 0.5046518445014954], "kernelTypesDim": 1, "upsamplingTypesDimFactor": 1}, {"bnMeanD": [-0.5256255269050598, 10.034110069274902, 4.997828960418701, 7.19062614440918, -10.825723648071289, 21.464282989501953, 7.028717517852783, -3.6200437545776367, -5.92771053314209, 14.345049858093262, -7.543685436248779, -10.501933097839355, -14.317267417907715, -3.9738965034484863, -3.12424898147583, -11.853561401367188, 4.6375603675842285, -7.405418395996094, -18.477535247802734, 18.698545455932617, 9.908563613891602, -12.97374153137207, -3.2978811264038086, 0.43063196539878845, 3.3340375423431396, -7.7009358406066895, -1.6739643812179565, 20.123088836669922, -7.787167549133301, 5.637940883636475, -3.1020007133483887, -0.6646732091903687], "convBiasA": [0.0026361907366663218, -0.0017900699749588966, -0.0026074014604091644, 0.0022896856535226107, 1.860423435573466e-05, 0.0007710561621934175, 0.002633391646668315, -0.004102226812392473, 0.0027583527844399214, 0.004332865588366985, 0.0014385508839040995, -0.0009436691761948168, 0.0017020213417708874, 0.008850163780152798, 0.0029365327209234238, 0.0010165560524910688], "bnVarianceB": [5.81748104095459, 57.57155990600586, 26.164796829223633, 60.98624038696289, 135.7865753173828, 10.082426071166992, 65.32266235351562, 11.06472110748291, 48.716121673583984, 7.398336410522461, 93.86450958251953, 49.93381881713867, 155.85137939453125, 121.49170684814453, 6.627431392669678, 51.81843948364258, 6.289681911468506, 4.580021858215332, 14.433527946472168, 4.397584915161133, 29.421262741088867, 28.68442726135254, 179.799560546875, 51.42125701904297, 55.59999084472656, 18.904977798461914, 117.38555145263672, 41.018211364746094, 45.87971878051758, 25.564035415649414, 65.33924865722656, 33.18788528442383], "bnBetaA": [-1.2171677350997925, 0.49003177881240845, -2.6462204456329346, -2.7422139644622803, -0.9111805558204651, -2.589197874069214, 0.7808484435081482, -0.5852518677711487, -2.2252964973449707, -0.6504509449005127, 2.9501216411590576, -1.635969877243042, 0.44464945793151855, -2.204261064529419, -2.444181442260742, -1.029077172279358], "convKernelC": [-1.1843469142913818, -1.0311440229415894, 1.4573084115982056, -1.1100002527236938, -0.5474241375923157, 0.0088493088260293, -1.9256947040557861, -1.827317476272583, 0.32070136070251465, 1.6190954446792603, 0.8570351004600525, 1.4693293571472168, 0.8565332889556885, -0.8844358325004578, -5.4072699546813965, 0.13622690737247467, 1.2163392305374146, 0.39422085881233215, -0.8656209111213684, 0.6431623697280884, 1.7390124797821045, 1.5684564113616943, -3.056584596633911, -0.48295843601226807, -1.0675976276397705, -0.3339804708957672, 0.5511034727096558, -2.3216636180877686, -0.6358285546302795, 0.1915770322084427, -0.9207128882408142, -2.5836808681488037, 2.2361702919006348, -0.5218022465705872, 0.39254820346832275, 0.11732787638902664, -2.2936346530914307, 5.351677894592285, -0.43882158398628235, -0.8113847374916077, -0.286460816860199, -0.12036632001399994, 0.1355503797531128, 3.0765762329101562, -0.8313696384429932, 0.01112738624215126, 0.6942747831344604, -3.324136972427368, -1.177734375, -0.40827494859695435, -1.3031909465789795, 2.665550470352173, -0.46514761447906494, 0.5310106873512268, 0.4508487582206726, 0.7895063757896423, -0.5683832168579102, -1.629616141319275, -1.2173112630844116, 0.1240023821592331, 0.5774418115615845, 0.8138999938964844, -1.4992891550064087, -0.7411808967590332, 0.7002739906311035, -1.3871175050735474, -0.707886815071106, -1.1619333028793335, 0.8526661992073059, 1.1178228855133057, 0.4864504635334015, -1.631866455078125, 0.4255838692188263, 1.4372037649154663, -3.7827136516571045, -0.4546966850757599, 0.35283946990966797, 0.28239381313323975, -2.0538957118988037, 1.5719674825668335, -0.3479457199573517, 0.2498641461133957, -1.9794195890426636, 1.441563367843628, -1.5457937717437744, 0.10549834370613098, -0.6743294596672058, -1.283781886100769, -1.1365289688110352, -0.27252912521362305, -0.26384615898132324, 1.1966588497161865, -1.3118852376937866, 0.4208836853504181, 0.45748087763786316, -0.5643571615219116, -1.115468144416809, -0.2206970602273941, 0.29327961802482605, -1.0058424472808838, 0.7535611987113953, 1.4225884675979614, 2.1159443855285645, 0.07340236753225327, -1.233250379562378, -0.7380455732345581, -0.35646066069602966, -1.4123364686965942, -1.6817487478256226, 0.5376940965652466, 0.05842934921383858, -0.7854489088058472, -0.0023431272711604834, -1.466707468032837, 1.204987645149231, 0.0735538899898529, -1.0324865579605103, -0.30517977476119995, 0.06414654105901718, -1.1667356491088867, -0.2874619960784912, -0.9494016766548157, -0.24229004979133606, -0.7828356027603149, 0.023843370378017426, -0.42974746227264404, -0.04027426987886429, 0.01376948133111, 2.061204671859741, -0.9626003503799438, 1.4271777868270874, 0.06684686988592148, -0.8136221170425415, 0.4735727608203888, 0.46655580401420593, -0.9415404796600342, 3.7073323726654053, -0.4748978912830353, -3.4839859008789062, 0.04970245435833931, -0.7064286470413208, -7.253297328948975, -0.6064302325248718, 0.21595537662506104, 1.1722298860549927, -0.9453033804893494, 0.31326520442962646, 0.41556188464164734, 1.153226375579834, -0.24419182538986206, 1.2528316974639893, -2.713226795196533, 0.4191197454929352, 2.6451737880706787, -1.2231645584106445, -0.8036832809448242, 2.1263809204101562, 0.17172789573669434, 0.2107151746749878, 0.07977737486362457, -0.010489223524928093, -2.5953381061553955, 0.1251925677061081, 1.153104305267334, -0.579755425453186, -0.7462109923362732, 0.17111435532569885, -0.1990509331226349, 0.6509762406349182, -1.132833480834961, -1.4861195087432861, 1.2131823301315308, -0.960101842880249, -0.9133692383766174, 0.783616840839386, 0.4734189510345459, 0.0007114962209016085, -2.461467981338501, 1.537423014640808, 1.397598147392273, 0.007434781175106764, 0.581436812877655, -0.4697718620300293, 1.1626418828964233, -0.32274574041366577, 0.06682568043470383, -0.42353150248527527, -0.8741748929023743, -1.6783199310302734, 0.791046142578125, 0.7347055077552795, -0.48049458861351013], "convBiasB": [0.0001491252623964101, -0.001025899313390255, 0.0006516355206258595, 0.0006978478631936014, -0.0037836714182049036, 0.00021823814313393086, 0.00020443082030396909, 7.550097507191822e-05, 0.0035992891062051058, 4.9247322749579325e-05, -0.002781432354822755, 0.00039206136716529727, 0.0004921762738376856, 0.00724782282486558, 0.00018902002193499357, 0.0038658862467855215, -0.00011211738456040621, -0.00012555373541545123, 0.0014535504160448909, 0.00017013555043376982, -0.00011204420297872275, -0.0003759231767617166, 0.0012956029968336225, 7.637406815774739e-05, 0.002836228348314762, -0.0020056606736034155, 0.0003789355978369713, 0.004259015899151564, 0.0002675997093319893, 0.0011042725527659059, 0.002024437766522169, 0.0005061021656729281], "bnGammaB": [0.00457896338775754, 0.28546687960624695, 0.2945749759674072, 0.738943338394165, 1.961995244026184, 0.1719021201133728, 0.6170733571052551, -0.007538926787674427, 1.7952563762664795, -0.0355476550757885, 0.9566983580589294, 0.1979505866765976, 2.8790886402130127, 2.628369092941284, -0.007917474023997784, 0.657669723033905, -0.05013658478856087, 0.1916702538728714, 0.25904610753059387, 0.06905841827392578, 0.28617367148399353, 0.1922580450773239, 1.0627890825271606, 0.766441822052002, 0.3628990650177002, 0.2524585723876953, 0.5896198749542236, 0.4832237660884857, 0.27274295687675476, 0.05973408743739128, 2.1982321739196777, 0.7885217070579529], "bnGammaA": [1.7330683469772339, 2.0651872158050537, 1.374789834022522, 1.1835864782333374, 2.840975761413574, 2.3067355155944824, 2.0856869220733643, 2.216721296310425, 4.886353969573975, 1.0685869455337524, 1.0043846368789673, 1.0389224290847778, 1.3584544658660889, 1.9209517240524292, 1.204181432723999, 2.307201623916626], "bnGammaD": [2.2102720737457275, 2.527114152908325, 1.9701342582702637, 1.6417630910873413, 2.2679991722106934, 2.1260745525360107, 2.5906822681427, 2.963412284851074, 1.9345026016235352, 2.032268524169922, 2.0458977222442627, 2.0452961921691895, 1.7778711318969727, 1.5343120098114014, 2.0258777141571045, 1.6236881017684937, 1.5537415742874146, 2.43595290184021, 1.4702398777008057, 2.5128607749938965, 1.8763797283172607, 1.4436492919921875, 1.9874683618545532, 3.378214120864868, 2.1429502964019775, 1.1268097162246704, 3.2930636405944824, 1.5002809762954712, 1.7637330293655396, 2.626131057739258, 2.6532528400421143, 2.0877528190612793], "convBiasC": [-0.004057791084051132, 6.0589714848902076e-05, -0.0018355469219386578, -0.004224533215165138, 0.0016611748142167926, 0.003371619386598468, -0.00249113910831511, -0.0007413366693072021, -0.004988928325474262, 0.00457517197355628, -0.0018677216721698642, 0.0009348071180284023, 0.00044752625399269164, -0.004856655839830637, -0.0015998714370653033, 0.00486023910343647], "convBiasD": [-0.00034336422686465085, 0.0014467783039435744, 0.004011290147900581, 0.001238943776115775, -0.001341634662821889, -0.005374358035624027, -0.0012089330703020096, 0.0008466644212603569, -0.005933544598519802, -0.004400499165058136, -0.0011327678803354502, 0.007267852313816547, 8.563794835936278e-05, 0.0020788712427020073, 0.0016765707405284047, -0.0011205921182408929, 0.00316208740696311, -0.0007728755008429289, -0.004331736359745264, -0.0030235014855861664, -0.0010016298620030284, -0.0005233703996054828, 0.00231755618005991, 0.003565718187019229, -0.0013665923615917563, -0.001740754465572536, -0.001062316121533513, 0.005269900429993868, 0.0004658413236029446, -0.0024480242282152176, 0.001939059467986226, 0.0006403239676728845], "bnVarianceC": [7.717888355255127, 12.31533432006836, 9.838761329650879, 8.702336311340332, 10.562736511230469, 14.28913402557373, 6.0291643142700195, 6.128913879394531, 10.655878067016602, 9.790237426757812, 12.18620777130127, 23.135868072509766, 14.246920585632324, 41.756351470947266, 11.188093185424805, 4.359126091003418], "convKernelA": [1.8724466562271118, -0.22870789468288422, 0.6401894092559814, 4.207338333129883, -1.1262856721878052, 0.42211660742759705, 1.1286005973815918, 5.162249565124512, 0.736585259437561, -3.03945255279541, -2.5762767791748047, 3.703673839569092, -3.0553863048553467, 0.5148618221282959, 0.16635209321975708, -2.929952383041382, -0.7361394166946411, -2.619255781173706, 0.9150487780570984, 1.3170440196990967, -0.2954018712043762, 0.727242112159729, -0.5618352890014648, -0.9272223114967346, 1.1837929487228394, -0.15831702947616577, -0.10114656388759613, 0.6358007192611694, -0.5629528760910034, -0.7969051003456116, 0.21812810003757477, 0.5788508653640747, 0.05470888316631317, 0.6864182353019714, 0.21092042326927185, 0.5916257500648499, -0.2337462306022644, -0.06827118992805481, -0.39682894945144653, -0.10017096996307373, -0.2785271406173706, 0.04389003664255142, -0.15911461412906647, -0.005392744671553373, -0.9225067496299744, -0.22323447465896606, -0.012112963013350964, 0.9309669137001038, -1.7297582626342773, 1.025504469871521, 0.5207539796829224, -0.2565096914768219, 4.344872951507568, -0.8400172591209412, -0.296869695186615, 0.035202931612730026, -0.5850157141685486, 1.5168750286102295, 2.711292028427124, -1.7359484434127808, 1.464165210723877, 0.8075851798057556, 2.023282527923584, 1.1244473457336426, -0.652776300907135, 1.6484884023666382, 1.3152728080749512, 0.4111068844795227, 0.8033788204193115, 0.17757950723171234, 0.3774769604206085, -0.08754012733697891, -0.6668038964271545, 0.6233487725257874, -0.7825747132301331, -0.047507256269454956, -0.4219646155834198, 0.7607764005661011, -1.0815976858139038, 1.937933325767517, -1.9151719808578491, 1.0841723680496216, 0.2805864214897156, -0.8090032935142517, -0.3818206191062927, 1.5872217416763306, 1.2922420501708984, -1.1223533153533936, -1.4751923084259033, -0.6052368879318237, -0.5238264203071594, 0.6317555904388428, -1.0111128091812134, -0.9149606227874756, -0.13787071406841278, -0.9547383189201355, 1.2514647245407104, -1.3184897899627686, 0.9871882796287537, -0.7770968079566956, 0.29167523980140686, -1.5572667121887207, -2.342574119567871, 1.1615597009658813, 1.5211209058761597, 0.2848494052886963, 0.2694914937019348, -0.17281539738178253, -0.5724430680274963, 1.9406399726867676, 0.2494901567697525, 1.3711434602737427, -0.20786790549755096, -1.364763855934143, 2.7724130153656006, 0.21699994802474976, -1.583297848701477, -0.14438726007938385, -0.2572002410888672, -0.29823267459869385, 0.842995285987854, 1.5495039224624634, 1.2660852670669556, -1.0135246515274048, -2.6481480598449707, -0.012431182898581028, 2.6489648818969727, 1.5335184335708618, 0.28476443886756897, 0.7944779396057129, -0.9740960001945496, -0.11489693820476532, -0.1649899035692215, -0.008637784980237484, -2.2807788848876953, 0.8170922994613647, -1.4841673374176025, 0.6328626871109009, 0.10206788033246994, -0.06052292883396149, 0.42875316739082336, -0.6738442778587341, 0.04146174341440201, -1.2856078147888184, -0.511042058467865, -0.8544470071792603, 1.0830624103546143, -0.054839834570884705, 0.2697373926639557, 0.6075517535209656, -0.4509802460670471, -1.1805957555770874, -0.06409495323896408, -0.5643773674964905, -1.2896819114685059, -1.1310055255889893, 0.19447483122348785, -0.2405136227607727, -0.48859623074531555, 0.6415742039680481, -1.543696403503418, 0.29333844780921936, -1.2747597694396973, -0.519216001033783, -0.2031020075082779, -2.0130951404571533, -0.19947481155395508, 0.49867555499076843, -0.2673358619213104, -2.6812868118286133, -1.4458211660385132, -0.5815820097923279, -1.0650460720062256, 2.4045462608337402, -0.3554505407810211, 0.5047940015792847, -0.2057359665632248, -0.9831520915031433, 0.5524998307228088, -0.5973007082939148, 0.2646292448043823, -1.82794988155365, 0.43106284737586975, 0.08336710929870605, 1.991058111190796, 1.0364221334457397, 2.0755836963653564, -1.54081130027771, 0.19570539891719818, 0.9078016877174377, 0.3937150537967682, 0.06359299272298813], "inputChannelsDim": 12, "bnBetaB": [-2.1161017417907715, -2.316152811050415, -3.2327685356140137, -0.8797900676727295, 0.022885827347636223, -2.461918830871582, -2.885925054550171, -2.46724796295166, -2.6601297855377197, -1.9808213710784912, -1.5417726039886475, -2.1420953273773193, -3.72473406791687, -3.997830629348755, -2.3892295360565186, -2.0424394607543945, -2.02605938911438, -2.254345655441284, -1.9709763526916504, -2.103935956954956, -2.1541945934295654, -3.0076611042022705, -1.3633204698562622, -0.49355196952819824, -2.042426824569702, -2.870208978652954, -0.33289048075675964, -1.5708929300308228, -2.053056478500366, -1.5050798654556274, -2.2490460872650146, -1.758385419845581], "roundsDim": 6, "bnVarianceD": [284.8851013183594, 220.11888122558594, 337.8882751464844, 312.28216552734375, 404.03216552734375, 304.93206787109375, 656.5808715820312, 746.8020629882812, 352.9980163574219, 347.1281433105469, 326.8352966308594, 171.79742431640625, 289.3233642578125, 280.8908386230469, 192.5922393798828, 401.4085388183594, 221.70977783203125, 252.84996032714844, 270.57244873046875, 135.2859344482422, 275.9644470214844, 345.5164794921875, 738.6693115234375, 829.159423828125, 409.99578857421875, 290.0631103515625, 899.4938354492188, 271.25958251953125, 264.3644714355469, 440.9696044921875, 167.6769256591797, 246.26914978027344], "typesDim": 3, "className": "reception", "bnMeanA": [-2.388141393661499, 1.3636354207992554, -1.8720073699951172, -4.237974166870117, 4.34160041809082, -1.02341890335083, 0.7708687782287598, -3.9200046062469482, -0.4356195330619812, 3.1289210319519043, 5.175912857055664, -4.021258354187012, 4.979830741882324, -0.6507378816604614, 0.6763243079185486, 0.33995702862739563], "convKernelB": [-0.42310288548469543, -1.4764446020126343, -1.1413135528564453, -2.1120078563690186, 1.0399144887924194, -0.4949111044406891, -1.5200175046920776, 0.23320631682872772, 0.5740361213684082, 0.643147349357605, -0.515733003616333, -1.895082712173462, 0.4422397017478943, 0.04088204354047775, 0.42247042059898376, -1.8432098627090454, 0.24541214108467102, 0.2999834716320038, -0.24635671079158783, 0.4820365905761719, -1.6096419095993042, -1.2694069147109985, 0.7790904641151428, -0.09494364261627197, 1.1268049478530884, -0.19971777498722076, 1.7310831546783447, -1.093833088874817, -1.517578125, 0.5307946801185608, 0.9434347748756409, 2.3965375423431396, -0.1382405012845993, -0.7741453647613525, 0.25849783420562744, 1.017595887184143, -0.014888294041156769, -0.07228598743677139, -0.11036790907382965, -0.0883050337433815, -2.248215913772583, -0.0831575095653534, -1.7207571268081665, 0.4386112093925476, -2.7927746772766113, -1.6241815090179443, -0.06542359292507172, 0.16145449876785278, -0.25784915685653687, -0.11876300722360611, 0.4101925492286682, -0.14801426231861115, -0.025584572926163673, -0.28740110993385315, 0.017472578212618828, 0.04524153098464012, 0.3879550099372864, -0.27946874499320984, 0.5329130291938782, -0.10170706361532211, 0.22322013974189758, 0.21175329387187958, -0.46399641036987305, -0.10501222312450409, 0.21456539630889893, 0.28789201378822327, 0.46453186869621277, 1.3041021823883057, -1.089972972869873, 0.12808629870414734, 0.7321186661720276, -0.021510597318410873, -0.5060595870018005, -0.49986812472343445, -1.5511001348495483, 0.2838805019855499, 1.524073839187622, 0.7348355054855347, -0.051007747650146484, -0.3118285834789276, -0.2433905154466629, -0.26754647493362427, 0.4887756407260895, 0.0027121249586343765, 0.5604943037033081, 0.4047161936759949, -0.03312201797962189, 1.8469206094741821, 1.1936869621276855, 0.15898695588111877, 0.8514098525047302, 1.16560697555542, 0.37499678134918213, -0.3636888563632965, -0.9769330620765686, 0.5421987175941467, -0.1280517280101776, -0.23723046481609344, -0.04116664454340935, 1.7985140085220337, 0.5305139422416687, 0.36697760224342346, -0.1706072837114334, 0.4030306339263916, 0.2756442725658417, 0.32672420144081116, 0.9740317463874817, 0.26043808460235596, 0.3642539381980896, 1.042641043663025, 0.10857889801263809, -0.7879711985588074, 0.04575252905488014, 0.3754488527774811, -0.6082816123962402, 0.030457211658358574, 0.7046085000038147, -0.29533129930496216, 0.49179312586784363, 0.003278160933405161, 0.02278802916407585, 0.4868811070919037, -0.7131139636039734, -1.0871315002441406, 0.5149185061454773, -0.38104331493377686, 1.75990629196167, 1.25129234790802, 0.36117395758628845, 0.3146653175354004, 0.7658279538154602, 1.2457557916641235, -2.4446914196014404, 0.2986341118812561, 0.6328840255737305, -0.7729759812355042, -0.06393559277057648, -0.33092737197875977, -1.3323453664779663, 0.6587885022163391, 0.2815072238445282, 0.34936386346817017, -0.12535035610198975, 0.9090889692306519, -0.24478201568126678, -0.3547556400299072, 0.319219172000885, -0.12339262664318085, 0.7113171219825745, 0.5836139917373657, -0.7464343905448914, 0.4195975959300995, 0.30698850750923157, 0.09919410943984985, 0.07916533201932907, 0.26566365361213684, 0.7920528650283813, 0.06055162101984024, -1.2078125476837158, -0.4480002820491791, 0.19156987965106964, 0.12594541907310486, 0.4024132788181305, 0.5437539219856262, 1.1518714427947998, 0.42092686891555786, 0.391457200050354, 0.03618936240673065, 1.413720726966858, -0.04517941176891327, -0.37493062019348145, -0.05195828154683113, -0.347300261259079, -0.5905150175094604, 0.01188981719315052, -1.0105633735656738, -0.4178440570831299, 0.17683537304401398, -0.1529845893383026, 0.12775510549545288, 0.06074894964694977, 0.37179210782051086, -1.1105985641479492, -0.3212003707885742, -0.9071043133735657, -0.20570334792137146, -1.8152415752410889, -0.04746188223361969, -0.05103115364909172, -0.6473895907402039, 1.9072461128234863, 0.42432448267936707, 0.19976674020290375, -0.1545649766921997, 0.001260078395716846, -0.06026657670736313, -0.24688252806663513, -0.21720893681049347, 0.519926905632019, -0.47010472416877747, -2.215333938598633, -0.49015191197395325, -0.7456316351890564, -0.10736668854951859, -0.37815290689468384, -0.7158188819885254, -0.5190302729606628, -1.2256273031234741, -0.14039793610572815, 0.3440117835998535, -0.05214735120534897, -0.20298664271831512, -0.15253490209579468, 0.32544344663619995, -1.0879628658294678, -1.7701144218444824, -0.887685239315033, 0.23556619882583618, -1.223085880279541, -1.0767802000045776, -0.5242905616760254, -0.9332098960876465, 0.3103380799293518, 1.480384111404419, -0.0995936244726181, -0.6916497945785522, -0.5443747639656067, 0.632216215133667, 1.6047542095184326, 0.01122252270579338, -0.5919291377067566, 0.3702152669429779, -0.8167171478271484, 0.0846322700381279, 0.09727120399475098, -0.5498800873756409, 0.1393844485282898, 0.3308560252189636, -0.014008008874952793, -0.6317167282104492, 0.15095920860767365, 0.3693214952945709, -0.4644390046596527, 0.15084479749202728, 0.01993604190647602, -0.3858701288700104, 2.2574005126953125, -0.9771204590797424, -0.255513995885849, 0.43457937240600586, 0.5266953706741333, -1.034775733947754, -0.46113574504852295, -0.13336977362632751, 1.794216275215149, -0.22824957966804504, 0.13613878190517426, -0.4001612365245819, 0.23417647182941437, -0.2983861565589905, -0.14174717664718628, -0.05378803610801697, -0.19911585748195648, -0.6623834371566772, -1.0049571990966797, -0.48395150899887085, -0.9467281699180603, -0.01950833387672901, -3.6995420455932617, -3.3249313831329346, -0.4381074607372284, -0.26631468534469604, 0.02929740399122238, -0.27402642369270325, 0.538298487663269, -0.34902021288871765, -0.38690564036369324, -0.18068353831768036, -0.5675725936889648, -1.1699286699295044, 0.6100532412528992, -0.8126018643379211, -0.1922888308763504, -1.3163104057312012, -0.6605057120323181, 0.04631805792450905, -0.006842482835054398, 1.265771746635437, -0.3277488350868225, -1.003795862197876, -0.4228019416332245, -2.022279739379883, -0.8926061987876892, -0.660868227481842, -0.4231164753437042, -0.09616012126207352, 0.6071186661720276, 0.32597610354423523, -1.6633704900741577, -0.5474019050598145, 0.09950375556945801, -0.23391258716583252, 0.5243389010429382, -0.2750259041786194, 0.15670134127140045, -0.03560333698987961, 0.043145280331373215, 0.08710888773202896, -0.9826657772064209, -0.7369293570518494, -0.14246925711631775, 0.4521172046661377, 1.1921586990356445, -0.474901020526886, 1.765168309211731, 0.9256424307823181, -1.2556270360946655, 1.0659055709838867, -0.6481410264968872, 0.7713048458099365, -0.2203214168548584, -0.5610217452049255, 0.15473349392414093, -0.9833724498748779, -1.22010338306427, -0.8104786276817322, -0.5578703284263611, -0.13600410521030426, 0.6647058725357056, 0.09786780923604965, -1.5522178411483765, 0.05654546618461609, 0.15559022128582, 1.16831374168396, 0.10484269261360168, 1.4321264028549194, 0.12407645583152771, -0.10218754410743713, 0.1788143664598465, -0.2852918803691864, -0.6017438173294067, -0.21559615433216095, -0.437029093503952, -0.9938254356384277, 0.913637101650238, -1.403289556503296, 0.5622622966766357, 0.1114051565527916, -0.36208853125572205, 0.4828374683856964, -1.408807396888733, 0.31165939569473267, 0.0453408882021904, 0.045819591730833054, -0.2960364818572998, 0.545149564743042, 1.7054052352905273, -0.07970667630434036, -0.16857895255088806, 0.3951268196105957, -0.2374328076839447, 0.09574399143457413, 1.5483354330062866, -0.3304983079433441, -0.3909914791584015, 0.3270849883556366, 0.21596314013004303, -0.21822099387645721, 0.05503972992300987, 0.2610348165035248, -0.53062903881073, 0.13171762228012085, 0.30197086930274963, -0.2189755141735077, 1.8613436222076416, 0.4178577959537506, -0.305084764957428, 0.36601579189300537, -0.31752240657806396, -0.09736517071723938, -0.0518166609108448, -0.3555506765842438, 0.8041932582855225, -0.7390642166137695, -0.05545927956700325, -0.1427006721496582, -0.18498438596725464, 0.11132039874792099, -1.1730237007141113, -0.11003711819648743, -0.3265899419784546, 0.2062264382839203, 1.7951385974884033, 0.04891941696405411, 0.3486805856227875, -0.05071986839175224, -0.29931584000587463, -0.12306665629148483, -0.08604904264211655, -0.2618009150028229, -0.06250625848770142, 0.14277400076389313, -0.06769895553588867, 0.06572462618350983, -0.41252008080482483, -0.01476416178047657, -0.5084261894226074, -0.7020410299301147, 0.7699954509735107, -0.25302204489707947, 0.3369651138782501, -0.47799646854400635, -0.5264081954956055, 0.06873693317174911, -1.0542242527008057, 0.32554343342781067, 0.20343272387981415, 0.2964867353439331, -0.1900765597820282, 0.9497966766357422, 0.49806997179985046, 0.13541553914546967, 0.18850435316562653, 0.01958952285349369, 0.277652382850647, -0.48754823207855225, -0.2269611358642578, 0.15470728278160095, 1.0851157903671265, 0.7608031034469604, -0.46639499068260193, 0.7102460861206055, -0.1192333921790123, -0.035723987966775894, -0.2928451597690582, -0.282058984041214, 0.3413515090942383, 0.2322510927915573, 1.2880990505218506, -0.25154879689216614, -0.5654096007347107, -0.20500797033309937, -0.9817461371421814, -0.10132616013288498, 0.4775453507900238, -0.43352532386779785, 2.0589637756347656, -1.1327970027923584, -0.015926368534564972, -0.8232314586639404, 0.2963428199291229, -0.483472615480423, -2.0584330558776855, -0.346212238073349, -0.07814504951238632, -0.19187124073505402, 0.23874595761299133, -0.025885658338665962, -1.3905068635940552, -0.36589154601097107, -0.3290274441242218, -0.17391328513622284, -0.049499817192554474, -0.1905905157327652, -0.2750084698200226, -0.05261552706360817, 0.33870065212249756, 0.09841671586036682, -0.8371050357818604, -0.4965360760688782, 0.2373427450656891, 0.9463406205177307, 1.0452055931091309, 0.0727868378162384, 1.758911371231079, 1.183379888534546, -0.3372146487236023, 0.44771355390548706, -1.6224043369293213, 0.6550993919372559, 0.16072499752044678, 0.04788128659129143, 0.3144463002681732, 0.03846539184451103, -1.0174139738082886, 0.5338305830955505, 0.22814598679542542, -0.3404195010662079, 1.0224652290344238, -0.19576947391033173, -1.5003191232681274, -0.01445247232913971, 0.5551849603652954, -0.5359971523284912, 0.1514967381954193, 0.0208391435444355, 0.007812745869159698, -0.5809043049812317, 0.9096640348434448, -0.05824792757630348, -0.05862273648381233, 0.12330176681280136, -1.1248509883880615, 1.977892279624939, 1.1457035541534424, 0.025988183915615082, 1.0333880186080933, 1.128599762916565, -0.10541260242462158, 0.16584628820419312, 0.7988141775131226, 0.5537512302398682, -0.055729907006025314, -1.1191282272338867, -0.5525850653648376, -1.9310945272445679, 0.959271252155304, -0.31857773661613464, -0.8274202346801758, -0.13495534658432007, 0.6437156200408936, 0.2914731204509735, -0.31992608308792114, -1.8021305799484253, 0.4213969111442566, -0.01333493273705244, 0.32786184549331665, -2.036367654800415, -0.3350260555744171, 0.3627833127975464, -0.5118048191070557, 0.019203558564186096, -1.3212741613388062, -0.5150755047798157, 0.843856155872345, -0.42094793915748596, 1.178226113319397, 0.16157619655132294, 1.97996985912323, -0.22510497272014618, -1.9277074337005615, 0.6138865351676941, 0.9038282036781311, 2.1263954639434814, -0.18368329107761383, -0.25723883509635925, 0.13479512929916382, 0.9802222847938538, -0.08523868024349213, -0.048002567142248154, -0.33292970061302185, 0.019638247787952423, -2.323098659515381, 0.032417185604572296, -1.6095861196517944, 0.15185542404651642, -2.3648204803466797, -1.7036784887313843, -0.16751603782176971, -0.5131790041923523, 0.05844433233141899, -0.46051347255706787, 0.6929542422294617, 0.061949584633111954, 0.33236590027809143, -0.22584092617034912, -0.16118469834327698, -0.14858382940292358, -0.02817753329873085, 0.18403080105781555, 0.1583017259836197, -0.12806566059589386, 0.62140291929245, 0.2949647009372711, -0.5124216675758362, -0.23434516787528992, 0.18931171298027039, 0.1762217879295349, 0.3220936954021454, 1.2090109586715698, -1.2780392169952393, 0.418395459651947, 0.6444464325904846, -0.2888985872268677, -0.5484737157821655, -0.232439324259758, -1.2164101600646973, 0.08507663011550903, 1.5205011367797852, 0.6986910700798035, -0.1674441695213318, -0.49702009558677673, -0.34546470642089844, -0.39973315596580505, 0.48057764768600464, 0.09804469347000122, 0.17924882471561432, 0.22971343994140625, -0.45478469133377075, 1.2571114301681519, 0.8235587477684021, 0.007401160430163145, 0.7391297817230225, 1.2570236921310425, 0.5902947187423706, -0.29181933403015137, -0.9846121668815613, 0.12780918180942535, 0.14670194685459137, -0.027444733306765556, 0.19407451152801514, 1.7511354684829712, 0.3477901816368103, 0.631450355052948, 0.20115666091442108, 0.6886265277862549, 0.164762482047081, 0.1661885529756546, 0.6062610745429993, -0.2556121051311493, 0.32486072182655334, 0.8872058987617493, 0.231500506401062, -0.7609454393386841, 0.03963306546211243, 0.3345192074775696, -0.46331220865249634, -0.06515613198280334, 0.5475058555603027, 0.03620088845491409, 0.9169390797615051, -0.39309075474739075, -0.16176265478134155, 0.46275633573532104, -0.822222888469696, -0.8178119659423828, 0.2288648784160614, -0.3266212046146393, 1.910343885421753, 1.0960794687271118, 0.21621014177799225, -0.3211457431316376, 0.6343516707420349, 1.4071853160858154, -2.4116811752319336, 0.4568065404891968, 0.45664501190185547, -0.4874105751514435, -0.05154329538345337, -0.5057597756385803, -1.2210123538970947, 0.8037853837013245, 0.37322595715522766, 0.2767927646636963, -0.06399830430746078, 0.7149215340614319, -0.16485244035720825, -0.14476627111434937, 0.4081970751285553, 0.0071706208400428295, 0.45353564620018005, 0.6321588158607483, 0.023370962589979172, 0.3037636876106262, 0.00516367144882679, 0.046560317277908325, -0.1216147318482399, 0.30966636538505554, 0.7578871250152588, -0.04418504238128662, -1.3226673603057861, -0.6939519643783569, 0.15589161217212677, 0.7180487513542175, 0.2706376612186432, 0.24507279694080353, 1.4774376153945923, 0.4341197907924652, 0.6818391680717468, -0.2122562825679779, 1.4097048044204712, -0.5350151062011719, -0.3887726962566376, -0.18218638002872467, -0.4510774314403534, -0.5031061172485352, -0.0548267737030983, -0.4545830190181732, 0.046015433967113495, 0.03198269382119179, 0.07006490230560303, -0.05418471246957779, 0.14456841349601746, 0.5153459906578064, -0.6169543266296387, -0.38902047276496887, -0.9149025082588196, 0.0545925572514534, -1.7290287017822266, 0.08552716672420502, 0.07505006343126297, -0.44206327199935913, 1.7525432109832764, 0.7065044641494751, 0.22362148761749268, -0.0996372252702713, 0.3826944828033447, 0.16445930302143097, -0.2041688859462738, 0.09356201440095901, 0.5667930245399475, -0.5466515421867371, -2.225109338760376, -0.489530086517334, -0.9940624833106995, 0.08437514305114746, -0.3656042814254761, -0.5212743878364563, -0.49651458859443665, -0.6927021741867065, -0.11830338835716248, 0.19280844926834106, -0.5422713756561279, -0.15244042873382568, -0.22983266413211823, 0.44609335064888, -0.8370822668075562, -1.8281975984573364, -0.4321058690547943, -0.23766706883907318, -1.032082200050354, -1.2668544054031372, -0.23738382756710052, -0.6810715198516846, 0.3396613895893097, 1.250285267829895, -0.34377288818359375, -0.3844302296638489, -0.4394184648990631, 0.7782717943191528, 1.7045761346817017, 0.24718008935451508, -0.22483959794044495, 0.32422423362731934, -0.886669933795929, 0.1396719068288803, 0.022381536662578583, -0.4688401520252228, 0.16294614970684052, 0.3625545799732208, 0.15684154629707336, -0.749194860458374, 0.2045222669839859, 0.25402000546455383, -0.456590861082077, 0.16050003468990326, -0.13924144208431244, -0.055282529443502426, 2.3657238483428955, -0.9056400656700134, -0.16510477662086487, 0.19755123555660248, 0.5300804972648621, -1.252977967262268, -0.1322982758283615, -0.07287414371967316, 1.779792070388794, -0.1885843425989151, -0.09118538349866867, -0.8040322065353394, -0.009011102840304375, -0.46288222074508667, -0.12735983729362488, -0.2659686505794525, -0.36396899819374084, -0.4252200722694397, -0.9568795561790466, -0.4262560307979584, -0.8988380432128906, -0.18074262142181396, -3.4244039058685303, -3.2959086894989014, -0.5877014994621277, -0.8098338842391968, -0.03983309119939804, -0.09272165596485138, 0.25338664650917053, -0.06747803837060928, -0.4639197289943695, -0.12682409584522247, -0.6080571413040161, -1.261422872543335, 0.6504172086715698, -0.6870970129966736, -0.2994580566883087, -1.5640997886657715, -0.5891490578651428, 0.012773674912750721, -0.002559083513915539, 1.0932639837265015, -0.4764644503593445, -1.0531597137451172, -0.2965348958969116, -1.4743093252182007, -0.8452920913696289, -0.5793735980987549, -0.7182333469390869, 0.033283185213804245, 0.6654161810874939, 0.4174623489379883, -1.726008653640747, -0.8475791215896606, 0.0012275584740564227, -0.2540852129459381, 0.5032805800437927, -0.6990469694137573, 0.37912699580192566, -0.2604331970214844, -0.2191735953092575, 0.2996889352798462, -1.0241754055023193, -0.4533272683620453, -0.36766350269317627, 0.3150184154510498, 1.1207181215286255, -0.26379039883613586, 2.0688960552215576, 0.9327897429466248, -0.9252306818962097, 1.6099181175231934, -0.6099146008491516, 0.7772799730300903, 0.14103876054286957, -0.14277037978172302, 0.1636137217283249, -1.0737580060958862, -1.2904480695724487, -0.8374480605125427, -0.6850560307502747, -0.4087256193161011, 0.682620108127594, -0.24343165755271912, -1.229575276374817, 0.29958319664001465, 0.14669421315193176, 1.1861016750335693, 0.014862662181258202, 1.47041916847229, 0.16972465813159943, -0.14311882853507996, 0.0030028275214135647, -0.08973728865385056, -0.5056665539741516, -0.1383228749036789, -0.6585652232170105, -1.1180089712142944, 0.309821218252182, -1.253369927406311, 0.6817550659179688, -0.07934776693582535, -0.13885626196861267, 0.9297710061073303, -1.410088300704956, 0.05374347046017647, -0.14291983842849731, -0.007122294045984745, -0.3508124351501465, 0.5359337329864502, 1.8112201690673828, 0.07602637261152267, -0.11569269001483917, 0.4799342453479767, -0.05417173355817795, 0.13959623873233795, 1.3985810279846191, -0.20367173850536346, -0.5167037844657898, 0.20676277577877045, 0.08503128588199615, -0.17235706746578217, 0.13017942011356354, 0.34634119272232056, -0.5180782079696655, 0.060733821243047714, 0.14982885122299194, -0.32424286007881165, 2.0623340606689453, 0.17068734765052795, -0.6460310816764832, 0.3575156331062317, -0.3171519935131073, 0.2946394085884094, 0.12163791060447693, -0.3424643576145172, 0.6932002902030945, -0.3096483051776886, -0.08617819100618362, -0.2013382911682129, -0.25093477964401245, -0.12137548625469208, -1.3418406248092651, -0.32095402479171753, -0.5202522277832031, 0.05016271024942398, 1.8965873718261719, 0.10284145176410675, 0.4892154633998871, -0.1552625149488449, -0.4292762577533722, -0.24587485194206238, -0.26273366808891296, -0.13450998067855835, 0.18011368811130524, 0.15377944707870483, -0.08688949048519135, -0.1000821590423584, -0.352757066488266, -0.31982654333114624, -0.5306322574615479, -0.7907464504241943, 0.7688747644424438, -0.5368776321411133, 0.2620745599269867, -0.6770502328872681, -0.4409103989601135, 0.13412965834140778, -0.973024845123291, 0.45389702916145325, 0.24375788867473602, 0.37841278314590454, 0.05210409685969353, 1.3337807655334473, 0.4648492634296417, 0.1953018605709076, 0.5267460346221924, -0.18522585928440094, 0.23454000055789948, 0.0721820741891861, -0.15634608268737793, 0.5013337731361389, 0.6408237218856812, 0.8760796785354614, -0.5289635062217712, 0.7131942510604858, -0.28355127573013306, -0.18098805844783783, -0.40257126092910767, -0.13212628662586212, 0.8111795783042908, 0.323212593793869, 0.9924010038375854, 0.154432475566864, -0.6072458028793335, -0.08589177578687668, -0.5133228302001953, 0.1956058144569397, 0.5206433534622192, -0.7560811638832092, 2.030219554901123, -0.6418114304542542, -0.07463756948709488, -0.5489092469215393, -0.0019292837241664529, -1.0352448225021362, -2.183171033859253, 0.004115471616387367, -0.16644927859306335, 0.009080277755856514, 0.21720300614833832, -0.16138765215873718, -1.0126159191131592, 0.18788766860961914, -0.3204180598258972, -0.10210375487804413, 0.15835313498973846, -0.21368667483329773, 0.01836058683693409, 0.11238717287778854, 0.5059523582458496, 0.09416943043470383, -0.5245075225830078, -0.2114589363336563, 0.2560412585735321, 0.7839425802230835, 0.8941469788551331, -0.05122540891170502, 1.7097642421722412, 1.1212503910064697, -0.0631958469748497, 0.4434589445590973, -1.681754469871521, 0.1681678146123886, 0.0420820377767086, -0.05164065584540367, 0.4251469671726227, 0.20340709388256073, -1.0472837686538696, 0.44963693618774414, 0.660766065120697, -0.5173643827438354, 1.0304044485092163, -0.20288193225860596, -1.6457844972610474, 0.03380459174513817, 0.3829258382320404, -0.4661060869693756, -0.18347835540771484, -0.3702787458896637, -0.24328173696994781, -0.49740806221961975, 0.9696274399757385, 0.10652508586645126, -0.14938105642795563, 0.10421543568372726, -0.8519189357757568, 1.9944698810577393, 0.9363757371902466, 0.36094290018081665, 0.8357630968093872, 1.470790982246399, -0.07379849255084991, 0.2482982873916626, 0.8464301824569702, 0.5137976408004761, -0.5543851256370544, -1.2328811883926392, -0.6191394925117493, -2.3444764614105225, 0.9825980067253113, -0.2978881001472473, -1.1150689125061035, 0.16666929423809052, 0.6170656681060791, 0.050772737711668015, -0.36335083842277527, -1.983879566192627, 0.6091490983963013, -0.08850734680891037, 0.05014277249574661, -2.05381441116333, 0.23367412388324738, 0.3065726161003113, -0.33066678047180176, 0.42879408597946167, -1.5281256437301636, -0.535753071308136, 0.911031186580658, -0.37927043437957764, 0.637615442276001, 0.28143310546875, 1.4927958250045776, -1.490188717842102, -1.5438414812088013, 0.5914987921714783, 0.8531376123428345, 2.001969337463379, -0.14006564021110535, -0.34803149104118347, 0.369671106338501, 0.9412512183189392, -0.0264670941978693, 0.21134614944458008, 0.09730589389801025, -0.2197350710630417, -2.33284592628479, 0.10663868486881256, -1.819512128829956, 0.39026859402656555, -2.508300542831421, -1.676986813545227, 0.04208774119615555, -0.22012411057949066, -0.38602346181869507, -0.13429716229438782, 0.546935498714447, 0.07544730603694916, 0.4100889265537262, -0.12688393890857697, -0.13320353627204895, -0.15544554591178894, 0.12929844856262207, -0.011562676168978214, 0.4793197214603424, 0.20360229909420013, 0.5697811841964722, -0.08396975696086884, -0.5184494256973267, 0.025225171819329262, 0.3407362401485443, 0.16213274002075195, 0.2925660014152527, 1.4070569276809692, -1.1818974018096924, 0.41283056139945984, 0.4003412425518036, -0.31412601470947266, -0.4577953815460205, -0.17442980408668518, -1.939810037612915, 0.11003106087446213, 1.7090388536453247, 0.4017123878002167, -0.2969091236591339, -0.24043013155460358, -0.027660835534334183, -0.22180980443954468, 0.5097053647041321, -0.2852146029472351, 0.28891754150390625, 0.24545502662658691, -0.4466809630393982, 1.8035917282104492, 0.844534158706665, 0.14068420231342316, 0.5022467970848083, 1.0092051029205322, 0.2930227518081665, -0.0940069630742073, -0.896881103515625, 0.4795267581939697, -0.23089827597141266, -0.05002891644835472, -0.24095940589904785, 1.477189302444458, 0.44735419750213623, 0.2843638062477112, 0.04644060879945755, 0.8298201560974121, 0.07782324403524399, 0.30678996443748474, 0.885338544845581, -0.1306082159280777, 0.592402458190918, 0.7421674728393555, -0.1056000292301178, -0.3694002032279968, 0.1307286024093628, 0.3002006709575653, -0.34224647283554077, 0.08378615975379944, 0.28075557947158813, -0.008138914592564106, 0.8088655471801758, -0.32281219959259033, -0.651702344417572, 0.39620476961135864, -1.1016637086868286, -1.325256586074829, 0.33826714754104614, -0.505190908908844, 1.6445578336715698, 1.6588102579116821, 0.33447641134262085, 0.295957088470459, 0.5663520693778992, 1.0139373540878296, -2.466402769088745, 0.40980687737464905, 0.43995553255081177, -0.34936416149139404, -0.06855569779872894, -0.2212790995836258, -1.4150290489196777, 0.6861217617988586, 0.3098815977573395, 0.24532343447208405, -0.2581521272659302, 0.932249903678894, -0.279878169298172, -0.2993942201137543, -0.06472447514533997, -0.15433822572231293, 0.41320425271987915, 0.4995647966861725, -0.29017531871795654, 0.05487141013145447, 0.25118666887283325, 0.2960222363471985, -0.10079386085271835, 0.4054459035396576, 0.7201352119445801, 0.02667410857975483, -1.2924602031707764, -0.47083231806755066, 0.3880169987678528, 0.5902218222618103, 0.4930956959724426, 0.29043880105018616, 1.2236887216567993, 0.36147934198379517, 1.261208176612854, -0.02706150710582733, 1.4727370738983154, -0.47347965836524963, -0.17490512132644653, 0.02647821418941021, -0.33527204394340515, -0.6822184324264526, -0.4252709150314331, -0.8311545252799988, 0.34960782527923584, -0.21844036877155304, 0.04147672280669212, 0.06662695854902267, 0.20900386571884155, 0.2572169601917267, -1.2197067737579346, -0.2415321171283722, -0.9547430872917175, 0.1634596437215805, -2.4313206672668457, 0.18145573139190674, 0.020206574350595474, -0.4079761803150177, 1.8511428833007812, 0.39638739824295044, -0.07808909565210342, -0.0698680430650711, 0.34259915351867676, 0.027118070051074028, -0.10015160590410233, 0.1594853550195694, 0.7977095246315002, -0.34367090463638306, -2.0799362659454346, -0.3427985906600952, -0.8022283315658569, 0.018028458580374718, -0.3860018253326416, -0.8089526891708374, -0.21923620998859406, -0.9592340588569641, 0.2303011268377304, 0.24685537815093994, -0.18301136791706085, -0.2541085481643677, -0.4424740672111511, 0.4457203149795532, -1.246476411819458, -1.8829784393310547, -0.8898517489433289, 0.006166841369122267, -1.3560961484909058, -1.5303406715393066, -0.6190726161003113, -0.7005964517593384, 0.23213502764701843, 1.6622909307479858, -0.2955058217048645, -0.7133821249008179, -0.5667427182197571, 0.826202929019928, 1.679489016532898, 0.016514834016561508, -0.4152275323867798, 0.3813181519508362, -0.8072372674942017, -0.04713274911046028, 0.15245451033115387, -0.37343448400497437, 0.04758283123373985, 0.3549789786338806, 0.18347178399562836, -0.9291319847106934, 0.10406898707151413, 0.43043437600135803, -0.5976532101631165, -0.15914033353328705, -0.09567444026470184, -0.17691969871520996, 2.1878957748413086, -0.9016457796096802, -0.3945038914680481, 0.556287407875061, 0.7058451175689697, -0.8488305807113647, -0.30672794580459595, -0.17838305234909058, 1.8002012968063354, -0.2714855670928955, -0.012531041167676449, -0.9289817214012146, -0.07523704320192337, -0.4949387311935425, -0.12586450576782227, -0.04266849905252457, -0.21698600053787231, -0.5257958769798279, -1.002501130104065, -0.312689870595932, -0.8966776728630066, -0.0625450611114502, -3.530336380004883, -3.3335039615631104, -0.3072793483734131, -0.6102449893951416, 0.28898173570632935, -0.0561622716486454, 0.5365432500839233, 0.19975197315216064, -0.5106216073036194, -0.2966919541358948, -0.6746398210525513, -1.5075396299362183, 0.7382141947746277, -0.9185642600059509, -0.20300418138504028, -0.9921627044677734, -0.8864654302597046, -0.052372708916664124, -0.009586439467966557, 1.1096659898757935, -0.48993656039237976, -0.857282817363739, -0.15447025001049042, -1.5271130800247192, -0.9886547327041626, -0.42062273621559143, -0.9270353317260742, 0.08378765732049942, 0.5805125832557678, 0.36318621039390564, -1.470603346824646, -0.359354704618454, 0.12576663494110107, -0.5060527324676514, 0.49242547154426575, -0.22128775715827942, 0.03535111993551254, -0.5125777721405029, 0.031498029828071594, 0.0533023402094841, -0.6659884452819824, -0.8360366225242615, -0.3320663273334503, 0.6624828577041626, 1.236793041229248, -0.010164889506995678, 1.7192715406417847, 0.5854446887969971, -1.1934443712234497, 0.8820316791534424, -0.5751283764839172, 0.22661495208740234, 0.12904705107212067, -0.025167953222990036, -0.011802155524492264, -0.927702784538269, -1.3371548652648926, -0.7095537781715393, -0.6011638045310974, -0.03440489619970322, 0.6264394521713257, -0.27978307008743286, -1.2909079790115356, 0.15304774045944214, 0.2912597060203552, 1.2124706506729126, -0.14835387468338013, 1.3356891870498657, -0.0931260883808136, 0.0012940275482833385, 0.2630176544189453, 0.03898654878139496, -0.47194352746009827, -0.04868312552571297, -0.5596114993095398, -0.7153846025466919, 0.6876516342163086, -1.0057075023651123, 0.7800288796424866, -0.17465436458587646, -0.15432092547416687, 0.446134090423584, -1.3598970174789429, 0.2179262489080429, -0.014184807427227497, 0.45455583930015564, -0.07043435424566269, 0.4736698567867279, 1.6284422874450684, 0.03200646489858627, -0.290138840675354, 0.2738822400569916, -0.055875323712825775, 0.18157535791397095, 1.2818752527236938, -0.18772920966148376, -0.3606492280960083, 0.11851818114519119, 0.06688053160905838, 0.08507952094078064, 0.06325524300336838, 0.17127206921577454, -0.5562477707862854, 0.18581485748291016, 0.46307769417762756, 0.0359988659620285, 1.8110535144805908, 0.6367155313491821, -0.5144792795181274, 0.3895608186721802, -0.5858516097068787, 0.3600587844848633, 0.24394464492797852, -0.4395788013935089, 0.9471023678779602, -0.6170496940612793, -0.22216355800628662, 0.14898544549942017, -0.3223206400871277, 0.04128187522292137, -1.3129568099975586, 0.14848311245441437, 0.037830278277397156, 0.1647568792104721, 1.7561310529708862, -0.034894250333309174, 0.7483100891113281, 0.027632001787424088, -0.2377976030111313, -0.29978668689727783, -0.06173750385642052, 0.12208010256290436, -0.06466756016016006, 0.32801079750061035, -0.2760043740272522, -0.0049109430983662605, 0.08643479645252228, -0.03833044692873955, -0.720192015171051, -0.7813320755958557, 0.5640405416488647, -0.15844100713729858, 0.25027942657470703, -0.1334671676158905, -0.30571308732032776, -0.38846683502197266, -1.0450332164764404, 0.37289959192276, 0.2202368825674057, 0.33029839396476746, -0.06447320431470871, 1.141093134880066, 0.4123622477054596, 0.214181050658226, 0.26197290420532227, -0.1840800791978836, 0.10820280015468597, -0.2012380063533783, -0.48283514380455017, 0.3214297592639923, 0.9117217063903809, 0.8833491206169128, 0.02769281715154648, 0.6886671185493469, -0.3548046052455902, 0.025584010407328606, -0.5583921670913696, 0.14086773991584778, 0.5843584537506104, 0.011477607302367687, 0.8363589644432068, 0.6285671591758728, -0.9478928446769714, -0.3163332939147949, -1.1670935153961182, 0.7089738249778748, 0.31017497181892395, -0.5117964148521423, 2.111339569091797, -1.5595226287841797, 0.11353094130754471, -0.13423673808574677, 0.004592519253492355, -0.19657158851623535, -2.0218403339385986, -0.24415437877178192, -0.22771109640598297, -0.028811801224946976, 0.409560889005661, 0.09066333621740341, -1.7200695276260376, -0.04555119201540947, -0.3811710476875305, -0.09874705970287323, 0.23345404863357544, -0.46861371397972107, -0.028529377654194832, 0.09494190663099289, 0.4928363561630249, -0.14930014312267303, -0.6661301255226135, -0.08872849494218826, 0.11746487021446228, 0.8248729705810547, 1.0230114459991455, -0.18372473120689392, 1.4489898681640625, 1.3033244609832764, -0.2805520296096802, 0.44566360116004944, -1.6931133270263672, -0.16223669052124023, 0.1946115642786026, 0.08383824676275253, 0.4449150860309601, 0.08324486762285233, -1.1234896183013916, 0.4314022660255432, 0.29213860630989075, -0.11078456789255142, 1.0554497241973877, 0.06213662028312683, -1.1437082290649414, -0.009272606112062931, 0.6264077425003052, -0.5966379642486572, 0.21060249209403992, -0.0243531484156847, -0.3252134323120117, -0.36415842175483704, 0.9559704661369324, -0.15395332872867584, 0.08820115774869919, 0.17468754947185516, -1.4057832956314087, 1.8664259910583496, 0.5924241542816162, 0.18015961349010468, 0.9433774948120117, 0.9044911861419678, -0.10371547937393188, -0.04561224579811096, 0.8790461421012878, 0.024828633293509483], "scaleFactor": 2, "bnMeanB": [-0.46877455711364746, -3.8423030376434326, 2.1114437580108643, -11.599510192871094, -16.12742042541504, -8.43758773803711, -5.274119853973389, -5.774296760559082, -9.739834785461426, -3.203152894973755, -15.911200523376465, 4.652107238769531, -15.667250633239746, -4.642346382141113, -2.6759703159332275, 13.72547721862793, 0.688004195690155, -1.1034457683563232, 3.3122506141662598, -2.3905580043792725, -5.894261837005615, 0.2878718972206116, -15.951536178588867, -24.16549301147461, 3.8505709171295166, -13.661267280578613, 3.0220351219177246, -11.300397872924805, -3.4665515422821045, 4.785794734954834, -22.06697654724121, 2.938703775405884], "bnBetaD": [-2.4326717853546143, -1.6168056726455688, -1.6700228452682495, -1.602757453918457, -1.935245156288147, -2.608884334564209, -0.3802284896373749, -2.2659707069396973, -0.8664384484291077, -0.9855408072471619, -2.3291969299316406, -1.4326632022857666, -2.2404353618621826, -0.9839416146278381, -3.375962257385254, -2.3575963973999023, -0.3385823965072632, -2.419935464859009, -1.6504261493682861, -2.1407158374786377, -2.349045991897583, -1.001069188117981, -1.4163063764572144, -1.8689721822738647, -3.908134698867798, -1.1662529706954956, -1.0485838651657104, -1.2763152122497559, -2.0418248176574707, -2.4683821201324463, -2.4239892959594727, -3.046180248260498], "bnVarianceA": [8.448830604553223, 18.306926727294922, 5.560188293457031, 2.2764387130737305, 29.449499130249023, 8.456204414367676, 8.284526824951172, 10.000982284545898, 15.539942741394043, 1.7812696695327759, 3.3362061977386475, 7.501468181610107, 8.831986427307129, 8.653076171875, 2.1905276775360107, 6.545460224151611], "convKernelD": [0.29787999391555786, 1.9500612020492554, 1.2019234895706177, 1.9677590131759644, -0.5830202698707581, -0.9881283640861511, -0.09057272225618362, -3.252497911453247, -2.2356464862823486, 1.4518228769302368, -0.6542947292327881, -2.249668836593628, -1.2053366899490356, -1.1924911737442017, 2.3483662605285645, -2.526772975921631, 0.11608495563268661, -1.7674946784973145, -0.6702056527137756, 0.22720356285572052, -0.008792267180979252, -0.027004346251487732, -1.2643861770629883, 2.5295677185058594, -1.1818485260009766, -0.7895283102989197, 0.2737782597541809, 2.272956609725952, -0.06879132241010666, -1.4374521970748901, -1.0291521549224854, 0.16827495396137238, 1.3545154333114624, 0.5219910740852356, 1.0204267501831055, 0.6659863591194153, 0.9814565181732178, -0.5517577528953552, -0.7388953566551208, -0.22123762965202332, 2.1243438720703125, 0.23659130930900574, -0.6837149858474731, -0.09330019354820251, -0.6298688054084778, -0.8516005873680115, -0.24815337359905243, 0.37381869554519653, 0.48909837007522583, 1.998713493347168, 0.9848657846450806, -0.8830506205558777, -2.690532684326172, 0.487833172082901, -0.9312926530838013, -0.6514993906021118, -0.5113525390625, 1.432580828666687, -1.504463791847229, -0.5608459115028381, 2.5380101203918457, 2.4550740718841553, 1.240800380706787, -0.21661190688610077, 0.7174152731895447, -0.688414990901947, 0.6183311343193054, 0.7136068940162659, -1.77621328830719, 0.9872565269470215, 0.19511370360851288, 2.7156472206115723, 1.1043345928192139, -0.26853644847869873, -0.3124774694442749, -1.3922024965286255, -1.1894629001617432, -2.2431020736694336, 2.098358154296875, -0.44352802634239197, 0.7806956171989441, -0.194041907787323, 0.008907961659133434, -2.3274433612823486, 0.04032057151198387, -1.0010520219802856, -0.2689710855484009, -0.6864576935768127, -1.278112530708313, 0.19016027450561523, 2.600712299346924, 1.6410540342330933, -1.1699538230895996, 0.5872051119804382, -3.4094138145446777, 1.0647419691085815, -1.4917938709259033, -2.7764029502868652, -2.8069939613342285, 1.025670051574707, 1.3787767887115479, 3.4265201091766357, 0.18957774341106415, 0.21999947726726532, -0.005735067185014486, -0.5641813278198242, 1.2953683137893677, 1.7566807270050049, 1.441890001296997, -0.4457958936691284, -4.091897010803223, 3.7461600303649902, -3.09789776802063, 1.1676727533340454, 0.32885411381721497, -0.8326263427734375, -1.0287164449691772, -0.6248816251754761, 0.5065208077430725, -0.07671374082565308, 2.1216208934783936, 0.6939409375190735, -0.3637406527996063, -2.0297255516052246, -1.893338680267334, -1.4628323316574097, 2.050384521484375, -1.8548554182052612, 0.8739503622055054, -0.5498353242874146, 1.1742281913757324, -2.498243570327759, -3.778237819671631, 1.4626973867416382, -1.4590965509414673, 0.45791375637054443, 0.7116242051124573, 0.10098963975906372, -1.7912808656692505, -0.8762590885162354, 0.3614819049835205, -1.103902816772461, 1.5434327125549316, -0.3285306990146637, 2.2266018390655518, 1.2179546356201172, -0.39193961024284363, -1.535797357559204, -0.1475590467453003, -1.1574262380599976, 1.4564225673675537, -2.0676937103271484, -0.35650634765625, -0.3602040112018585, -0.3314804136753082, -0.3374426066875458, 0.8056479096412659, -1.5714056491851807, 0.8494843244552612, -1.0233368873596191, -1.6448742151260376, 1.226473331451416, 1.8387861251831055, 3.049386978149414, -1.5462931394577026, 0.11006376147270203, 0.15686698257923126, 1.0232149362564087, -0.23840239644050598, -0.26117801666259766, -1.4620441198349, -1.4702305793762207, -0.7604527473449707, -1.3078457117080688, 1.89461088180542, -1.3294315338134766, 0.50308758020401, -2.456296682357788, -0.3468821942806244, -0.6588505506515503, 0.68974369764328, -1.0151094198226929, 0.023609839379787445, 0.03546106070280075, -1.9622390270233154, -0.7750493288040161, 1.1090925931930542, 2.7433228492736816, -0.972253680229187, -0.11666713654994965, -3.4324090480804443, 0.3419138789176941, -0.10872252285480499, -0.6959430575370789, -1.047223687171936, 0.4470386207103729, 1.3638421297073364, 1.3594443798065186, -1.020367980003357, 1.502665400505066, 2.270470142364502, -1.3981040716171265, 1.3367918729782104, 0.37981438636779785, 0.6583487391471863, -1.7581578493118286, 0.9012551307678223, 1.729748249053955, -1.1618068218231201, 1.2302268743515015, -1.0575119256973267, 0.7533339262008667, -1.9475270509719849, -0.17312711477279663, 1.011092185974121, 0.03919067606329918, 2.5828890800476074, -1.0453780889511108, 0.2310955971479416, -0.8379606008529663, -1.3302041292190552, -2.405062437057495, 2.3322935104370117, -0.9783414602279663, 0.09188630431890488, -0.6990975141525269, -1.9439587593078613, 1.1822785139083862, 1.3332291841506958, -0.8977370858192444, 1.1834248304367065, 5.854994773864746, 0.08296223729848862, 1.9187198877334595, 1.9700911045074463, 1.7530031204223633, -1.4615122079849243, 1.502512812614441, -1.4902604818344116, 0.168345645070076, 0.7333084344863892, 0.2477622777223587, -2.703153133392334, -2.0854604244232178, 7.017641544342041, 0.3496535122394562, -0.05325760692358017, -1.9159876108169556, 1.27518630027771, 1.020737886428833, -0.13615617156028748, -2.1547553539276123, 0.35202881693840027, 2.99748158454895, -0.8575155138969421, 0.9333939552307129, 0.7625920176506042, -1.6956396102905273, -2.09122896194458, 0.21143274009227753, 0.1606806516647339, -0.3387346863746643, 4.01869535446167, 0.32085877656936646, -0.25239434838294983, 1.3349905014038086, 0.6271498203277588, -0.7072781324386597, 1.4252179861068726, 1.4332647323608398, 0.055162347853183746, 0.31043991446495056, -2.6742217540740967, 1.5041340589523315, -0.0470711849629879, -2.762510061264038, 0.30194878578186035, -0.9301725029945374, 1.3086262941360474, 3.5105979442596436, 0.22400419414043427, -1.3782720565795898, 1.4741042852401733, -1.4787572622299194, 1.8202972412109375, -2.158109188079834, -1.140879511833191, 0.8258644342422485, -0.5999579429626465, -0.5737677812576294, 0.6949256062507629, 1.1834640502929688, -0.98497074842453, -0.1841631978750229, -1.8181325197219849, -1.3799386024475098, 0.24023950099945068, -0.26602357625961304, 0.2034893035888672, -1.879347324371338, -0.9052749276161194, 0.01802094839513302, 0.6385254263877869, -3.6711337566375732, 1.2227210998535156, -0.04829861596226692, -1.214130163192749, -1.9040300846099854, 0.7086663246154785, -0.23426301777362823, -1.0609790086746216, -0.09074802696704865, -0.6756011843681335, 0.20448116958141327, 0.7994880080223083, 1.7144063711166382, 1.0927140712738037, -0.6207152009010315, 0.968544065952301, -0.18492178618907928, 2.5105607509613037, 2.0262160301208496, -0.9001988768577576, 0.11771505326032639, -1.0846209526062012, -0.6625158190727234, -0.4305892586708069, 0.026785576716065407, 2.4197728633880615, -1.4156702756881714, -0.17899751663208008, -1.8038032054901123, -1.5447040796279907, -0.706352710723877, 0.17148613929748535, -1.9803829193115234, 3.153639793395996, -2.623218059539795, -0.6216154098510742, -1.0135339498519897, -0.983695924282074, 0.9158554673194885, -0.2669731676578522, -0.008553796447813511, -0.18448755145072937, 2.0453929901123047, 2.012967348098755, -0.529318630695343, 0.4239950180053711, 5.9307026863098145, -0.8438555002212524, -3.012357234954834, -0.7463889122009277, 1.1339055299758911, 0.08959118276834488, -0.1728236973285675, 0.8922659158706665, 0.6074453592300415, 0.6138507127761841, 0.37053781747817993, -0.5942381620407104, 0.6406002044677734, -1.2318800687789917, -0.3733789920806885, 0.5511342287063599, 0.11101225018501282, -0.6678290963172913, -0.7338329553604126, -1.2319166660308838, -3.0394020080566406, 0.001788125722669065, 0.8544568419456482, 0.8321176171302795, 0.5130342841148376, -0.36672890186309814, 1.1050506830215454, 0.21319428086280823, -0.9365588426589966, -0.5701014399528503, 0.7377820014953613, -0.11085061728954315, 0.6853739023208618, -1.6390715837478638, 0.12883397936820984, 0.4689551293849945, -0.25507593154907227, 0.6624845862388611, -0.6340034008026123, -0.9538935422897339, 0.3422386050224304, -0.4564477801322937, -2.2107508182525635, 0.5901896953582764, 0.34193623065948486, -1.0837095975875854, 1.4089088439941406, 1.3080095052719116, 1.5037754774093628, -0.06612389534711838, -0.30667877197265625, -0.3429217040538788, 1.502590298652649, -2.108159065246582, 2.2874867916107178, -1.6118524074554443, -0.15962181985378265, 1.8583416938781738, -0.12045059353113174, 2.097818374633789, -1.7445101737976074, -2.6740546226501465, -0.71044921875, 0.4222656190395355, -1.8412623405456543, 4.084332466125488, -1.4414063692092896, -0.6675436496734619, -0.7756873965263367, 0.5260826349258423, -0.15014494955539703, -0.299233078956604, 1.9387743473052979, -3.599658727645874, 0.7616841793060303, -0.1667603701353073, -1.5510081052780151, -0.34876132011413574, 0.9044370651245117, -0.8947300314903259, -1.061729073524475, -0.3237628638744354, -0.7999473810195923, 0.9724997878074646, -1.3401150703430176, -0.3645748198032379, -0.6721686720848083, 0.3121192157268524, 1.3568435907363892, 0.3944879472255707, -2.872434377670288, -0.6203615665435791, 0.4397605359554291, 1.1839628219604492, 0.2858421206474304, -1.6062889099121094, 1.229885220527649, 1.0940624475479126, -0.928148627281189, 1.0125160217285156, 0.01703384518623352, -1.6160180568695068, -0.26677319407463074, 0.016460981220006943, -1.0846753120422363, -1.026890754699707, -2.373783588409424, -0.29902535676956177, -0.7404040098190308, 0.5080517530441284, -1.2757281064987183, -1.0326451063156128, 0.529556930065155, -1.2997617721557617, -0.9733480215072632, 0.529035210609436, -0.6345800161361694, 0.6232293844223022, -1.093353271484375, -0.5611390471458435, -0.19732220470905304, -2.2958834171295166, 1.8353209495544434, 1.9376354217529297, 0.42490074038505554, 1.6314918994903564, 0.056722674518823624, 0.2340511977672577, 1.667537808418274, 0.5059735774993896, -1.238125205039978, 0.6573333144187927, -1.229347586631775, -2.5048670768737793, -0.03743453696370125, -1.7213996648788452, -2.0285563468933105, 1.3311893939971924, -1.771156907081604, 0.8469318151473999, 1.2576647996902466, -0.5164467692375183, 1.5552922487258911, 0.30699625611305237, 1.2153899669647217, 0.18604788184165955, 0.7390558123588562, -0.8741229772567749, 2.9024765491485596, -0.19938690960407257, -2.2103564739227295, 0.728168249130249, -0.3594900369644165, 1.7033973932266235, -0.3781139552593231, 0.3501053750514984, 0.8539031744003296, -1.1738978624343872, -2.4215869903564453, 0.9165359139442444, -1.8938270807266235, 1.9861124753952026, -0.8653748035430908, 0.9231455326080322, 1.9495412111282349, 0.8299990296363831, -0.4263928234577179, -0.7628316283226013, 0.03686986863613129, -1.063018798828125, -3.567173957824707, -0.743775486946106, -0.10707671195268631, -0.5998064279556274, 0.44530320167541504, -0.11160696297883987, -1.8699177503585815, 0.397210955619812, -0.39177489280700684, 0.8510794043540955, -0.018363669514656067, -0.9904711246490479, -0.27604466676712036, -0.3023407757282257, -0.2333880513906479, -0.34441399574279785, 1.5625877380371094, 0.4255131483078003, -0.2476513683795929, 0.6517631411552429, 0.665101945400238, -0.09597650915384293, 0.2006496638059616, -1.261804461479187, -0.8906193375587463, -0.46850162744522095, -0.09426911175251007, -0.34853750467300415, 0.09255573898553848, 1.0230761766433716, -2.4379563331604004, -1.6002360582351685, -0.4170359671115875, -1.4192328453063965, 0.9660777449607849, 0.16089507937431335, 0.22910910844802856, -0.2269682139158249, -0.5626364350318909, -0.7706051468849182, 0.14314581453800201, 0.2863040864467621, 0.19135944545269012, 0.8185288906097412, 0.1975446492433548, -0.10243533551692963, 1.0551718473434448, -0.7963129878044128, -1.5996791124343872, -0.1780906617641449, 0.10735790431499481, -0.8152855038642883, 0.6263139247894287, 1.3323379755020142, 1.13841712474823, 1.67637300491333, -1.2733098268508911, 1.6072218418121338, -0.7182373404502869, -0.2926231324672699, 0.21205607056617737, 0.3003462553024292, 0.9293618202209473, 0.5044757127761841, 2.0927090644836426, -0.04958476126194, 0.9372233152389526, 1.308395504951477, 1.3615810871124268, -1.7881264686584473, -0.2549513578414917, -0.16465026140213013, -0.6724115610122681, -0.23903091251850128, -0.011851786635816097, -0.8524165749549866, 0.4337276518344879, -0.17073869705200195, -0.3062944710254669, 1.1057590246200562, -0.9908820986747742, 0.31778016686439514, 0.8502958416938782, -0.3722444772720337, -0.38815566897392273, 0.3582911789417267, -0.7877050042152405, 0.3334265649318695, -0.6233576536178589, -0.4630123972892761, 0.7810539603233337, 1.9495034217834473, -0.909721851348877, -0.8091832399368286, 3.2593185901641846, 0.5374506711959839, 0.015508422628045082, -0.11833494901657104, -1.00125253200531, -1.0987275838851929, -0.037128448486328125, 0.40245550870895386, 0.1986001878976822, -1.0590180158615112, -0.06385749578475952, 0.1053442731499672, -0.6948193311691284, 0.546816349029541, -0.864305853843689, -0.8319631218910217, -0.7444272637367249, 0.013382896780967712, -0.40147238969802856, 0.22411146759986877, 1.1050012111663818, -0.5612424612045288, -1.7485603094100952, 0.2733599841594696, 0.655269980430603, -1.7661092281341553, 0.31746289134025574, 1.6922776699066162, -0.47075480222702026, 0.5840758681297302, -3.232959270477295, -1.5227478742599487, 1.6765892505645752, -0.37169349193573, 0.1707914024591446, -0.14891275763511658, 0.268850177526474, -0.3934294581413269, -0.7027924656867981, -0.1609801948070526, -1.8928757905960083, -0.9264572858810425, 0.42105114459991455, -0.455673485994339, 0.548600435256958, 0.15215744078159332, -0.782509446144104, -0.961794376373291, -1.9186558723449707, 0.8433799147605896, -0.47293251752853394, 0.8038676977157593, -0.19420653581619263, 0.3324403762817383, -0.14334338903427124, 0.1575947403907776, -1.6034966707229614, 0.19964154064655304, 0.22938768565654755, -0.918897807598114, 0.5287973880767822, 1.1271007061004639, 2.8409533500671387, -1.1016932725906372, -0.3462800979614258, 0.6289646625518799, 0.7100257873535156, -0.5331458449363708, 0.29118239879608154, -0.962824821472168, -1.0983867645263672, -0.3957257568836212, -0.7405549883842468, 1.2720803022384644, -0.7965712547302246, -3.8363170460797846e-05, -1.897911548614502, -0.45855775475502014, -0.0043947394005954266, 0.3427278697490692, -0.714786171913147, 0.479509562253952, -0.12003099173307419, -1.0562794208526611, -0.4010385572910309, 0.7953798174858093, 1.930700421333313, -0.3667928874492645, -1.2380211353302002, -1.4793118238449097, -0.6734907627105713, 2.037310838699341, -0.21712249517440796, 0.9577178955078125, -0.27477896213531494, -0.1683340221643448, 0.07972965389490128, 1.1447240114212036, -1.3795130252838135, 0.9281236529350281, -0.4387769401073456, 0.17208755016326904, -1.2384452819824219, -0.499503493309021, -1.6823196411132812, 0.24185597896575928, -0.5584970712661743, -2.235417127609253, 1.1374714374542236, -0.3297821581363678, 0.3240428864955902, 0.2539275288581848, -1.2665050029754639, 0.1844157576560974, -0.022616427391767502, 1.0686800479888916, -0.6168484687805176, -1.226963758468628, 0.9426388144493103, -0.3655488193035126, -1.8677082061767578, 0.893448531627655, 1.4599508047103882, -2.3183867931365967, 1.2249958515167236, -0.0847233235836029, -0.35436928272247314, 0.5301081538200378, -2.09867525100708, -0.9436655640602112, 2.189493417739868, -0.18000735342502594, 1.0632504224777222, 0.5490028262138367, -0.5037558674812317, -1.2740074396133423, 0.07511565834283829, 0.31658172607421875, -1.955370306968689, 1.6919968128204346, 1.3296736478805542, -2.6833643913269043, 0.01531501766294241, 3.01755952835083, 2.502713918685913, 0.6504285931587219, -1.6460700035095215, 0.8186234831809998, -0.13666817545890808, -0.6116442680358887, -0.47159063816070557, 0.2264072448015213, 0.5911638140678406, 2.900832176208496, 0.9419445395469666, 0.06902670860290527, -0.7092490196228027, -0.02764762192964554, -0.8477171659469604, 0.682435929775238, -0.451986163854599, 0.5386554598808289, 0.5171523094177246, -1.9247727394104004, 0.22306384146213531, 0.18700851500034332, -1.0058083534240723, -0.6062524318695068, -0.8904394507408142, 0.12085064500570297, -0.1134921982884407, -0.6790629625320435, 0.5852950811386108, 0.24296976625919342, -1.2734969854354858, 0.9165641665458679, 0.3523041307926178, 1.4303557872772217, 1.1519509553909302, -1.0227229595184326, -1.8428970575332642, -0.4572395384311676, -1.725854516029358, 0.4033129811286926, -0.6367931365966797, 0.9578503966331482, 1.4121649265289307, 2.394307851791382, 1.1454930305480957, 0.4246734082698822, -0.8127380609512329, -0.04801412299275398, 1.9056479930877686, 0.30769866704940796, -0.8877061009407043, -0.44180047512054443, -0.6308030486106873, -0.8631861805915833, 0.3746430575847626, -0.48834341764450073, 0.3269605040550232, -1.9347748756408691, -0.9635004997253418, -0.28067895770072937, -1.036605715751648, -0.7324813008308411, -1.214022159576416, -0.4966311752796173, -3.1204841136932373, -2.083988904953003, 0.1640184372663498, -0.06579417735338211, 2.119044780731201, 1.172442078590393, 0.8169040679931641, 0.8106039762496948, 1.1276289224624634, -3.160867214202881, -0.27236250042915344, 0.3583812117576599, 0.9594898819923401, -0.035458438098430634, -1.3771418333053589, 0.37212008237838745, -1.5860085487365723, -1.7561622858047485, -0.3890954852104187, 0.9084495902061462, -0.3267296552658081, 1.1215983629226685, 1.0123122930526733, -0.634462296962738, 1.406554102897644, -0.6159541606903076, -0.7463942170143127, 1.643325686454773, -1.2717918157577515, -0.8325213193893433, -0.25343284010887146, -1.3299524784088135, 1.163533091545105, -0.6182335019111633, -1.328414797782898, 0.6068558692932129, 0.5526440143585205, -0.47502222657203674, -0.5064511299133301, -1.1866203546524048, 1.7650600671768188, 2.398073196411133, -2.82350492477417, -1.9977439641952515, 0.6304445862770081, -0.15524360537528992, 1.0058614015579224, 0.5782154202461243, 0.8718976378440857, 0.6052453517913818, 0.5607435703277588, -1.0423004627227783, 0.6089547276496887, -1.4286926984786987, -1.1791777610778809, 0.8781286478042603, 1.1075080633163452, 0.350079208612442, -0.7510979175567627, -0.18460442125797272, -2.58471941947937, -0.03676920011639595, 0.7902840971946716, 0.9224271178245544, 1.020835041999817, 0.08156022429466248, 1.3909766674041748, -0.5983648896217346, -1.5883926153182983, -0.1257624626159668, 1.0415304899215698, -0.16666239500045776, 0.6939699053764343, -1.9750665426254272, -0.2167610377073288, 1.564124345779419, -1.1054415702819824, 0.18283697962760925, 1.3421127796173096, -0.8536159992218018, 1.1547915935516357, 2.040349006652832, -0.4299508035182953, 2.578291416168213, -1.7650597095489502, -0.5533753633499146, 0.7876452803611755, 0.47247326374053955, -0.9764668345451355, -0.769075870513916, 0.22097888588905334, -0.8374740481376648, 0.21599964797496796, -1.1721967458724976, -0.58213871717453, 0.35637202858924866, -3.4070465564727783, 0.9727846384048462, -0.6436684727668762, 0.6057783961296082, -0.42502593994140625, 0.37199893593788147, -0.7955995798110962, 0.3054845929145813, 0.5382858514785767, -1.5378236770629883, -0.3567512035369873, 1.0308372974395752, 0.31232118606567383, 1.3101741075515747, -0.09010052680969238, -0.756876528263092, 2.700200080871582, -1.9763513803482056, 0.5177183747291565, 0.3197520971298218, -1.9206572771072388, -0.9839575290679932, -0.0018679985078051686, -1.1463115215301514, -1.3797657489776611, -0.1586730033159256, -0.6855973601341248, 1.011993408203125, -1.8562266826629639, 0.19859112799167633, -0.41404616832733154, -0.48284777998924255, -0.8387831449508667, -0.753757894039154, -2.197798013687134, -0.8840697407722473, 1.0230059623718262, 1.2564932107925415, 1.3154163360595703, -1.7671995162963867, 1.235500693321228, -2.0092711448669434, -0.5744617581367493, 1.3006888628005981, 1.3239030838012695, -0.17447669804096222, 0.2118389755487442, 0.046473756432533264, -1.5101009607315063, -1.128706693649292, -3.1667404174804688, 0.13846275210380554, -0.9245277047157288, 0.2788529694080353, -0.1735249012708664, -1.056311011314392, -0.5082618594169617, -0.8355611562728882, -1.7312164306640625, 0.3104802966117859, -0.6020709872245789, 0.8128322958946228, 0.09920640289783478, -1.6154016256332397, -0.4435901939868927, -2.972789764404297, 0.866195023059845, 0.11320535838603973, 0.6531347632408142, 0.1720007359981537, 1.1418367624282837, 0.12012206017971039, 0.601941704750061, -0.552665650844574, -1.195373296737671, 0.8326093554496765, -1.0712878704071045, -1.6387546062469482, -0.5701231360435486, -0.007387419231235981, -1.5240395069122314, 0.45193150639533997, -1.0879297256469727, 0.6422317028045654, 1.0059340000152588, 0.45311054587364197, 1.038653016090393, -0.481507807970047, -0.5330557227134705, -0.34610292315483093, -0.46562230587005615, -0.9019980430603027, 1.200478196144104, -0.1973121613264084, -0.4858017861843109, -0.7247851490974426, -0.055340610444545746, 0.2118070125579834, -0.8854963183403015, 0.21329277753829956, 0.44438785314559937, -1.4583892822265625, -2.812162160873413, 0.3143842816352844, -0.9386587142944336, 1.6409647464752197, -0.3409430980682373, 1.4447343349456787, -1.162522315979004, -1.3402314186096191, 0.3441966772079468, 0.18066632747650146, -1.3689924478530884, 0.6157425045967102, -1.4357635974884033, 1.0418952703475952, 0.8886868357658386, 0.0911196693778038, -0.014666561968624592, -0.257546603679657, -1.5128389596939087, 0.40363559126853943, 1.18916916847229, -0.05986231192946434, 0.05685795843601227, -0.28871390223503113, 0.9115340709686279, 0.07414353638887405, -0.9767757058143616, -0.14548176527023315, -0.03469255939126015, 1.0688116550445557, 0.7146002650260925, -1.0287127494812012, -0.902411162853241, -0.9573663473129272, 0.38161253929138184, 0.7630357146263123, 1.0026311874389648, 0.23188142478466034, -0.8515020608901978, -0.534167468547821, -0.5216126441955566, -0.25971415638923645, -1.17340087890625, 0.6223984360694885, 0.663751482963562, -4.253219127655029, 0.5200725197792053, 0.2932138442993164, -0.38504281640052795, 0.12880317866802216, 1.5260515213012695, -0.26054760813713074, 0.49281951785087585, 0.12389790266752243, -0.5484589338302612, 0.059199996292591095, 0.4107656180858612, 0.49945446848869324, 0.5339785218238831, -0.4813675284385681, 0.013280034065246582, -1.410630464553833, 1.3645199537277222, -0.8508874177932739, 0.06414145231246948, -0.6466017365455627, 0.5998678207397461, -0.33374595642089844, -2.1155295372009277, -1.2736709117889404, 0.05519131198525429, -0.05175020173192024, 1.0285454988479614, 0.0440017431974411, -0.989708662033081, 0.9904579520225525, 0.38092750310897827, 0.14956015348434448, 1.0047327280044556, -0.15762780606746674, -0.14988654851913452, -0.494890421628952, 0.5645416975021362, 0.07079067081212997, -0.6994696259498596, 0.7537053227424622, -0.49338218569755554, -1.664646863937378, 0.20660188794136047, 0.3798849880695343, 0.2583574652671814, 0.2897873520851135, -0.6254265308380127, -0.5692132115364075, 0.5730366110801697, -0.8715043663978577, -0.24871845543384552, 0.7917466759681702, 0.48804715275764465, -0.139671191573143, -0.45884057879447937, 0.24043715000152588, 0.6793091297149658, 0.7504773736000061, -1.6563688516616821, -0.7702765464782715, -0.12848488986492157, -0.17502161860466003, -0.40160754323005676, -0.849355161190033, 0.06245006248354912, -0.0383748896420002, 0.47125953435897827, -0.1029786467552185, 1.5563987493515015, -0.9881790280342102, 0.11331441253423691, 0.20077332854270935, 0.8038127422332764, 0.00011546697351150215, -0.2990853488445282, 0.41132476925849915, 0.36024680733680725, -0.14275452494621277, 0.17757487297058105, 0.6964127421379089, -0.09525231271982193, -1.8274996280670166, 0.2714754641056061, -0.6395037770271301, 0.3907354474067688, -0.25424328446388245, -0.8938530683517456, -0.16303984820842743, -4.0317535400390625, -0.10588778555393219, -0.4432908594608307, 0.5768316388130188, 0.6096259355545044, -0.1098966971039772, -0.12989412248134613, -0.3051871359348297, 1.4768797159194946, 0.31387588381767273, 0.04444953426718712, 0.2724926173686981, -0.42699822783470154, -0.8763353824615479, 1.2828850746154785, -1.5901756286621094, -1.4331698417663574, 0.23460188508033752, -0.08961693942546844, -0.5604526400566101, -0.7484306693077087, -0.3130546510219574, 0.7896096706390381, -0.20009241998195648, -0.5102920532226562, -1.2584104537963867, -0.24961811304092407, 0.6255428194999695, -0.9249979257583618, -1.1690073013305664, -1.2406419515609741, 0.4503908157348633, -1.0670626163482666, -1.4215753078460693, 0.9333729147911072, 1.8455195426940918, 0.09444931894540787, -1.044630527496338, 1.0129245519638062, -0.560181200504303, -0.7555640935897827, 2.0046708583831787, 0.35463929176330566, -0.07768778502941132, -0.07020843029022217, 0.036102309823036194, -1.4288069009780884, 0.2315329760313034, 0.8145943880081177, 0.4095759391784668, -0.47711390256881714, -1.4495676755905151, -1.0421481132507324, 0.6330015659332275, -1.0170607566833496, -0.1360788494348526, 0.013766802847385406, -0.2096385508775711, 0.0986420288681984, -0.5534152388572693, 0.3485775887966156, 0.13022248446941376, 0.3016536831855774, -3.1145551204681396, 0.882179319858551, 0.6214685440063477, -0.8899853825569153, -0.6402002573013306, 0.18419229984283447, -0.442047119140625, -1.4572504758834839, -0.6756241917610168, 0.3934161365032196, -0.31020602583885193, 0.15590718388557434, -0.15197424590587616, -0.4233667552471161, 1.9014254808425903, 0.4499739706516266, -0.9624990224838257, -0.4767744839191437, 0.3295084238052368, -0.2199000120162964, -0.26099488139152527, -0.5783891081809998, 1.2305649518966675, 0.5688221454620361, -0.38980406522750854, 1.6689954996109009, 0.12781143188476562, 0.6904664039611816, -0.6432510614395142, -1.8428926467895508, -0.30744224786758423, 0.48439618945121765, 0.10427121818065643, -1.1667921543121338, 0.3053251802921295, 0.5749919414520264, -1.3477630615234375, 1.7148553133010864, 0.35822317004203796, 0.14085614681243896, 0.5637797713279724, 0.29156503081321716, -0.8504452109336853, -0.09283694624900818, 0.909636378288269, 0.2420218139886856, 0.6271377801895142, 0.2699964642524719, -0.22573238611221313, -0.48487773537635803, -2.0949130058288574, 0.27264097332954407, 1.182055115699768, -0.43915852904319763, -0.05147043243050575, 0.13833476603031158, 0.44967472553253174, -1.1287387609481812, -0.1814035177230835, -0.012213108129799366, 0.7230299711227417, 0.3293008804321289, -0.7003805637359619, -0.515897274017334, 0.180622398853302, 0.7211036682128906, -0.35107120871543884, 0.2337745577096939, -0.5035218596458435, -0.08394911140203476, -1.2199249267578125, -0.1615460366010666, 0.43173670768737793, -0.048476267606019974, -0.21067427098751068, -0.7603926658630371, 0.3285154700279236, -0.8431111574172974, 0.21518152952194214, -0.313397616147995, 0.21069452166557312, -0.4196765124797821, -2.227893829345703, 2.002368688583374, 0.7530032396316528, -0.148231640458107, 0.29316848516464233, -2.813225269317627, 0.7238898277282715, -0.7302350997924805, -4.02522611618042, 0.6266685128211975, -0.8975395560264587, 0.03721398487687111, -0.3774091899394989, -0.029985444620251656, 1.283598780632019, 0.5736649036407471, 0.3680817484855652, -1.5170754194259644, -0.07856199145317078, -1.1616501808166504, 0.7823898792266846, 0.9048923850059509, -1.0110881328582764, 0.19929900765419006, -0.8978496789932251, 0.13709743320941925, -1.2584255933761597, -0.16686542332172394, -1.6333837509155273, -0.8897855281829834, 0.1345420926809311, 1.1039687395095825, 0.18134714663028717, -0.5388409495353699, -0.6119256615638733, -1.8121769428253174, -1.0174634456634521, 0.17921771109104156, 0.925226628780365, 0.9645261168479919, 0.2732098400592804, 1.402003526687622, -0.3936915695667267, 1.3646553754806519, 0.4173920452594757, 1.1391931772232056, -1.305273175239563, 0.03768240660429001, -1.8178889751434326, -0.4359983205795288, -0.20280061662197113, -0.7121303081512451, 0.39064058661460876, -1.6606113910675049, -0.6710852980613708, 0.03146016225218773, 0.9904897809028625, -0.8682300448417664, 0.964074432849884, 1.385377287864685, -0.2648170590400696, -0.7859182953834534, 0.20106087625026703, 0.8520041704177856, 0.3312366008758545, 0.5895538330078125, -0.07643357664346695, -1.0279319286346436, -1.0148893594741821, 0.6855930089950562, -1.1474895477294922, -0.45479387044906616, 0.49753960967063904, -0.29605498909950256, -0.3940204083919525, 0.4825838506221771, 0.2429310530424118, -0.6229594349861145, -1.8362916707992554, -0.08672847598791122, -1.3031162023544312, -0.24077267944812775, 2.499873161315918, 0.37024882435798645, -0.09633704274892807, -0.5461206436157227, 0.18801136314868927, 0.14948658645153046, 1.6898616552352905, 0.7068564891815186, -0.5052217841148376, 0.07437789440155029, 1.0366175174713135, -0.7032330632209778, -0.8233200311660767, 1.0346720218658447, 0.07133810222148895, 0.12246675044298172, 0.09236137568950653, 0.6333816647529602, 0.7518512010574341, -0.12131379544734955, 1.0792230367660522, -0.8621196150779724, -0.07270102202892303, -0.9752247929573059, 0.42134177684783936, -0.16443563997745514, 0.5898320078849792, 1.5335032939910889, 0.724643886089325, 1.5610296726226807, 1.573420524597168, -0.9339257478713989, -0.37480422854423523, 0.19676171243190765, 1.4327020645141602, 1.3199598789215088, -0.5481632947921753, 0.45510393381118774, -0.7314397096633911, 0.21034279465675354, -1.5907585620880127, -0.2934491038322449, -0.10145854949951172, -1.072296380996704, 0.7999468445777893, 0.29547303915023804, -0.5640255212783813, -0.13762816786766052, 0.45997434854507446, -0.6365273594856262, -0.005499523598700762, 0.3409518897533417, 0.07950703054666519, -0.3279154896736145, -0.33279120922088623, 0.44324252009391785, 1.7668551206588745, -0.36426863074302673, -0.4976353645324707, 1.5325955152511597, 0.11055900901556015, 0.7816877961158752, -0.30216848850250244, 0.5665007829666138, 0.26351845264434814, 0.929890513420105, 0.8268991708755493, 0.7096123695373535, -0.29441356658935547, 2.335129499435425, 0.45196667313575745, -2.0707521438598633, -0.7904350757598877, -0.08872678875923157, 0.7484632730484009, -0.1576451063156128, 0.6772810220718384, 0.7487229704856873, 0.8169967532157898, 2.0755386352539062, 0.4712206721305847, -0.5218715667724609, -0.340562641620636, 0.5852680802345276, 0.8966526389122009, 0.18073244392871857, -0.5607377290725708, 2.8653767108917236, -0.5040795803070068, -0.7135093808174133, 0.8709300756454468, -0.13266852498054504, 1.0409705638885498, 0.9618274569511414, -1.3158749341964722, -1.0965195894241333, 0.2973710000514984, -0.1623377650976181, -0.816612720489502, -2.078049421310425, 1.6464552879333496, -0.7141753435134888, 0.8065758347511292, 0.154767245054245, 0.22862990200519562, -0.6422527432441711, -0.40902000665664673, -1.131534218788147, -0.4087946116924286, -0.551385223865509, 0.1716093122959137, -1.2076457738876343, 0.2962152659893036, 2.2621383666992188, -1.8056319952011108, 0.11043410003185272, -0.02742724120616913, 0.4202736020088196, 0.28212782740592957, 0.37853872776031494, -0.8964968919754028, 1.278849720954895, 0.2067578136920929, -1.2713580131530762, -0.047009482979774475, 0.563021719455719, 2.3999245166778564, -0.11184065788984299, -1.298777461051941, 0.47394415736198425, -0.2123844176530838, 0.27558591961860657, 0.3328325152397156, -0.8815932869911194, -1.9440069198608398, -1.6601967811584473, 0.6686422228813171, 0.582051157951355, 0.09406254440546036, -1.1287155151367188, 1.1034513711929321, -2.1125826835632324, -1.697450876235962, -0.4527798891067505, -0.5625600814819336, -1.0699809789657593, 0.7844708561897278, 0.6425783634185791, 0.007121770177036524, -1.1609188318252563, 0.8713622093200684, -0.08074620366096497, -0.4462782144546509, 0.1934042125940323, -0.3122195303440094, -1.5428427457809448, -0.3867959678173065, -1.0663410425186157, -2.6313257217407227, 0.252247154712677, 1.2367236614227295, -0.5046865344047546, 0.0857616662979126, 0.28056344389915466, 0.5100158452987671, 0.5311237573623657, 0.781001091003418, 0.4815491735935211, 0.4627935290336609, -1.7628509998321533, -0.527518630027771, -0.6843054890632629, 0.30959123373031616, 0.22417192161083221, 0.2645582854747772, 0.734705924987793, -0.32025375962257385, -0.028214622288942337, -0.81336909532547, -0.4921834468841553, 1.155131459236145, 0.938733696937561, -0.6774293780326843, -0.6023112535476685, -0.759404718875885, 0.7277002334594727, -0.03137126564979553, -0.035300470888614655, -0.39649972319602966, -0.5381640791893005, -0.6066700220108032, -0.24088270962238312, -0.16194511950016022, -1.7660870552062988, 0.8128055930137634, 0.3180025815963745, -2.984353542327881, 0.3459920287132263, 0.06137678399682045, -0.4647373557090759, 0.019965900108218193, 1.4439467191696167, 0.09597636759281158, -0.10514728724956512, -0.652440071105957, -0.23867753148078918, 0.1730775386095047, 0.13824361562728882, -0.6392911672592163, 1.5961414575576782, -0.144195556640625, -0.5533766746520996, -0.5234453678131104, 0.9490185379981995, -0.622266411781311, 0.7192149758338928, -0.8009248971939087, -0.06657202541828156, 0.23257258534431458, 0.09778816998004913, -2.479396104812622, 0.21104399859905243, -0.18924137949943542, 1.2969701290130615, -0.8604699969291687, -0.7409145832061768, 0.3508094847202301, 0.3345468044281006, 0.21029333770275116, -0.5382874608039856, -0.3618684709072113, -0.36768847703933716, -0.2209290862083435, 2.0754456520080566, -0.28930747509002686, -0.15606844425201416, -0.06539024412631989, 0.43646958470344543, -1.8551936149597168, 0.20566828548908234, 0.14832042157649994, -0.3337641656398773, -0.05943894758820534, -0.14563901722431183, -0.33018672466278076, 0.38816186785697937, -0.5609398484230042, -0.7000976800918579, 1.3459510803222656, -0.3230365216732025, 0.6055357456207275, 0.4997823238372803, 1.569892406463623, 0.9005396962165833, -0.5096496343612671, -1.5247364044189453, -0.9053090214729309, -0.24573200941085815, -0.7894721031188965, -0.9135667085647583, -1.3205434083938599, -0.33416348695755005, -0.3598555624485016, 0.49972572922706604, -0.6198455095291138, 1.7200977802276611, 0.6947184205055237, 0.1824103444814682, 0.3823126554489136, -0.15750476717948914, -0.3971221446990967, 0.2577507495880127, -0.10342202335596085, -0.9018250703811646, -0.5581259727478027, -0.14423580467700958, -0.26819881796836853, -0.6529056429862976, -0.2588156759738922, 0.21159766614437103, -0.5801545977592468, 0.6844895482063293, -0.5144999623298645, 0.47840431332588196, -0.06707156449556351, -0.2531334459781647, -0.8229467272758484, 0.43725088238716125, 0.8844360113143921, -0.010516989976167679, 0.5599514245986938, -0.03632595017552376, -0.4701538681983948, 1.3148871660232544, 0.5689387917518616, 0.23299691081047058, 0.5072532296180725, -0.5524408221244812, -0.8790180087089539, 0.1710171401500702, -1.0996880531311035, -2.0974390506744385, -0.5304225087165833, -0.23708131909370422, -0.7784587144851685, 0.3484385907649994, -1.356544017791748, 0.2613089382648468, -0.25539088249206543, -1.2055354118347168, -0.4532274007797241, -0.37948399782180786, 0.6039150357246399, -0.6991825699806213, -1.318634033203125, 0.5248765349388123, -0.277448832988739, -1.1707043647766113, -1.3355308771133423, 1.1063464879989624, 1.8782073259353638, 1.0747753381729126, -0.42985114455223083, 0.9110435843467712, -0.0954163670539856, -1.0020965337753296, 2.717301845550537, 0.0832151472568512, 0.5717244148254395, 0.42875733971595764, 0.5368379950523376, -0.9023573398590088, -0.394931823015213, 0.560198962688446, -0.6010789275169373, -0.2929860055446625, -1.8948719501495361, -0.3130190670490265, 1.192750096321106, -0.4570104777812958, -1.0310282707214355, 0.2698601484298706, -0.16831915080547333, 0.3130440413951874, -0.7530328631401062, -0.39876773953437805, -0.1613636612892151, 0.12220817804336548, -2.9300684928894043, 0.6509271264076233, 0.10095775872468948, 0.35551702976226807, -0.9025437235832214, 0.05271657183766365, -0.5976048707962036, -0.6092708706855774, -2.0104594230651855, 0.5242131948471069, 0.14099860191345215, -1.3022772073745728, 1.231781244277954, 0.24946226179599762, 1.4286699295043945, 0.4080131947994232, -0.2603977620601654, 0.14110437035560608, 0.14838764071464539, 0.02917773649096489, -1.6126939058303833, 0.3745545744895935, 1.6269747018814087, 1.3475189208984375, -0.47630640864372253, 1.6290236711502075, 0.7510502338409424, 0.06801271438598633, -0.4478915333747864, -0.2796221077442169, 0.07961627095937729, 0.19910979270935059, 0.2188418209552765, -0.04634419083595276, 0.17241142690181732, 1.1729050874710083, -1.3122127056121826, 1.160536527633667, 0.4550310969352722, 0.20627160370349884, -0.04035375639796257, 0.7084178328514099, -1.287136197090149, -0.2810921370983124, -0.1805042326450348, 0.1408202201128006, 0.3021221160888672, 0.3597649931907654, -0.4330536723136902, -0.6714958548545837, -1.8183372020721436, -0.27556732296943665, 0.07112809270620346, -0.32601478695869446, 0.22683347761631012, -0.21858447790145874, 0.08204532414674759, -1.1159639358520508, 0.23036304116249084, 0.1904211789369583, 0.24614159762859344, 0.7897922396659851, -0.21671020984649658, 0.1917535662651062, 0.07644978910684586, 1.2642213106155396, -0.10609415173530579, -0.2649371027946472, -0.34259268641471863, 0.15517933666706085, -1.2596862316131592, 0.05777017027139664, 0.35565948486328125, 0.5313525795936584, -0.39339494705200195, -1.349089503288269, 0.33721959590911865, -0.9999034404754639, -0.005117373540997505, -0.03101099096238613, 0.4780222773551941, -0.0646124854683876, -0.10762566328048706, 1.9455395936965942, 0.3348982334136963, 0.21275343000888824, 0.3178894519805908, -2.7015721797943115, 1.606488585472107, -0.4269406199455261, -3.9499881267547607, 0.9164008498191833, -1.4206650257110596, 0.6848548650741577, -0.16998715698719025, -0.5160024166107178, 0.40648335218429565, 0.5631374716758728, -0.013593118637800217, -0.9882155656814575, 0.1517636626958847, -1.4942195415496826, -0.14057177305221558, 0.3274213373661041, -0.34498387575149536, 0.5010653734207153, -0.5869882106781006, -0.6105870008468628, -0.4870729446411133, -2.2847933769226074, -0.6111605167388916, -0.2988671362400055, 0.5319176912307739, 0.645950436592102, -0.11403713375329971, -0.21434758603572845, -1.0353200435638428, -1.2388745546340942, -0.45106184482574463, 0.0973460003733635, 0.3208238482475281, 0.30742523074150085, -0.18328599631786346, 0.4414379894733429, 0.27921709418296814, 0.3423749506473541, -0.26581716537475586, 0.7678167819976807, -1.297523856163025, 0.3732295334339142, -1.2585947513580322, -0.43223974108695984, -0.09709621965885162, 0.06912390887737274, 0.745867133140564, -1.1672248840332031, -1.33455228805542, 0.5924315452575684, 1.4354974031448364, -1.437729835510254, 1.4654312133789062, 1.8011342287063599, -0.9868467450141907, -1.120522141456604, -0.49082911014556885, 1.4880645275115967, -0.33301809430122375, 0.23936091363430023, 0.4740898311138153, -0.37028780579566956, -0.34290340542793274, 0.5022154450416565, -1.6564606428146362, -0.6933287382125854, 0.45145487785339355, -1.4644854068756104, 0.25556233525276184, 1.062495470046997, 0.11223404854536057, 0.7386474013328552, -0.4731190502643585, 0.12215296179056168, -1.473512887954712, -0.3648450970649719, 3.3685576915740967, -0.8003543019294739, 0.033192913979291916, -0.021303856745362282, -0.17042334377765656, 0.24546201527118683, 1.7626216411590576, 0.5824668407440186, -0.394164115190506, 0.6125894784927368, 0.13726140558719635, -0.48623940348625183, -0.10943854600191116, 1.6963979005813599, -0.06753481924533844, -0.12080243974924088, 0.28785818815231323, -0.08320628851652145, 0.6981266736984253, -0.08897195011377335, 1.1878454685211182, -0.6462777256965637, -0.44971325993537903, -0.9063323736190796, 0.9367745518684387, 0.44135770201683044, 0.7608789801597595, 0.0689900666475296, 0.05245855450630188, 0.6086388826370239, 0.2725394368171692, -2.0043551921844482, -0.7724144458770752, 0.6982707381248474, 1.6941038370132446, 0.9896490573883057, -0.5554355382919312, 0.37123584747314453, -0.6090483069419861, -0.13064663112163544, -1.5687183141708374, 0.3329578638076782, 0.4344283938407898, -0.5357487201690674, 1.210898756980896, -0.20744459331035614, -0.15021425485610962, -0.2394120842218399, 0.6398352980613708, -0.9376973509788513, 0.3785611093044281, 0.8555641174316406, 0.05897413194179535, 0.0732186809182167, -0.30524542927742004, -0.3458746671676636, 1.5207127332687378, -0.33186060190200806, -0.033926721662282944, 0.24578794836997986, 0.4244224727153778, 1.1647917032241821, -0.6378084421157837, 0.7581122517585754, -0.43367964029312134, -0.4329913854598999, 1.1780904531478882, -0.12863926589488983, 0.7362020611763, 2.141946792602539, 0.8477452993392944, -1.783786654472351, -1.4855927228927612, -0.9386889934539795, 0.5109400749206543, 0.2012973576784134, 0.14348335564136505, 0.4344567358493805, -0.617782711982727, 2.556450366973877, 0.8363827466964722, -1.15094792842865, -1.0965789556503296, 1.3436698913574219, 0.6377569437026978, -0.10551583021879196, -0.7310932278633118, 0.9128148555755615, -0.3463563621044159, -0.5805243253707886, 0.43516024947166443, 0.14595942199230194, 0.36368587613105774, -0.6466233134269714, -0.9033478498458862, -0.8065330982208252, 0.8198596239089966, 0.07602499425411224, -1.335883378982544, -1.077285885810852, 1.5555098056793213, -0.4429819881916046, 1.366965889930725, -0.3303585350513458, 0.9576123356819153, -0.9423847198486328, 0.16088373959064484, -0.7473034262657166, -1.2278645038604736, -0.3237650692462921, -0.1689343899488449, -0.12744809687137604, -0.3422704041004181, 1.2762482166290283, -0.0005716912564821541, 0.12184596806764603, 0.22597523033618927, 0.994625449180603, -0.33826306462287903, 0.04240984469652176, -1.1099414825439453, 0.3624526262283325, -0.09414776414632797, -2.412889242172241, -0.4992256462574005, 0.5037953853607178, 2.6904139518737793, -0.23867879807949066, -1.0541690587997437, 0.8439218401908875, -0.4414640963077545, 1.0320478677749634, -0.24681171774864197, -1.2371790409088135, -0.9305557012557983, -1.4125443696975708, -0.0024557143915444613, 0.41188937425613403, -0.6979062557220459, -0.347893089056015, 1.1826244592666626, -1.8213698863983154, 0.06835027039051056, -0.5141693353652954, -0.3800285756587982, -1.6865403652191162, 0.9364258050918579, -0.03103671595454216, -1.3226107358932495, -0.6297953724861145, 0.27192291617393494, -0.5232219696044922, -0.14268675446510315, 0.5201099514961243, -0.9070112109184265, -0.07998676598072052, 0.6318529844284058, -0.7054232954978943, -2.1815855503082275, 0.5949201583862305, 1.3500453233718872, 0.11605097353458405, -0.6053069829940796, 1.1065657138824463, 0.923361599445343, 0.21581901609897614, 1.293629765510559, -0.012346596457064152, 0.5507674813270569, -0.9609432220458984, -0.08923003077507019, 0.23051060736179352, 0.6371433734893799, -0.03462418541312218, 1.178790807723999, 0.9623953700065613, -1.5213991403579712, 0.09308339655399323, 0.12043656408786774, -1.2797558307647705, 0.7317216396331787, 0.7553259134292603, -1.003204584121704, -0.26207321882247925, -0.7456477880477905, 0.2593778669834137, -0.4637887179851532, -0.9010154008865356, 0.06501758843660355, -1.4242713451385498, 0.058736950159072876, -0.5331584215164185, -0.36139851808547974, -1.709485411643982, 0.7350946068763733, 0.6785045862197876, -2.846191167831421, 0.5133958458900452, 0.5988432168960571, -0.5318999886512756, 0.5303229093551636, 1.6699899435043335, 0.12652644515037537, -1.0443528890609741, 0.18232844769954681, -0.21383346617221832, 0.41728541254997253, 0.6147232055664062, -1.043318748474121, 0.9137072563171387, -0.054067112505435944, -0.3623755872249603, -0.928697407245636, 0.8095421195030212, -0.8929510712623596, 1.3510785102844238, 0.08862227201461792, -0.9422362446784973, -0.38043084740638733, -0.6391828656196594, -2.5819268226623535, -0.4186323285102844, 0.6557304859161377, 2.1326868534088135, -1.3385226726531982, -0.3564565181732178, 0.3330933451652527, -0.03158234432339668, -0.24180173873901367, -1.7252155542373657, -0.35006263852119446, 0.45542269945144653, 0.7935704588890076, 2.3707003593444824, -0.02534434199333191, -0.1527685672044754, -0.619749128818512, -0.1761447936296463, -2.0931499004364014, 0.31297868490219116, 0.7282517552375793, -0.1000743880867958, -1.6822597980499268, 0.5134536027908325, -0.7091317176818848, -0.17063865065574646, -1.373008370399475, -0.8696179389953613, 2.1052849292755127, -1.6407793760299683, 0.5234105587005615, 0.17507019639015198, 0.9086418151855469, 0.5403198003768921, -1.068439245223999, -2.082136392593384, -0.08152808994054794, -1.2541626691818237, -0.8768430948257446, -0.7895927429199219, -1.7940196990966797, -0.28998085856437683, -0.6493802070617676, 1.0062062740325928, -0.4139070510864258, 1.7434370517730713, 0.6351975202560425, -0.20457494258880615, -1.0319700241088867, 0.35318252444267273, -0.5153551697731018, -0.3332323133945465, -0.26808691024780273, -0.18174508213996887, -0.7993904948234558, 0.006629799958318472, -0.18060503900051117, -1.6380548477172852, -0.2542085349559784, 0.20029662549495697, -0.45166024565696716, 0.40440648794174194, -0.30806633830070496, 0.846753716468811, 0.7496446967124939, -0.12620484828948975, -0.7843553423881531, -0.5442520976066589, 0.5249724984169006, -0.5332226753234863, 0.48384973406791687, -0.060862332582473755, -0.21508599817752838, 1.4226932525634766, -0.09666799008846283, 0.635016918182373, 0.5622296333312988, 0.269851952791214, -1.673360824584961, -0.4659227430820465, -1.9353578090667725, -3.0068588256835938, -0.49272119998931885, -0.18495142459869385, -0.2674243748188019, 0.8014858365058899, -1.3822908401489258, -0.29795360565185547, 0.10952673107385635, -1.4932013750076294, -0.30235913395881653, -1.1494606733322144, 0.8924816250801086, -0.3292520046234131, -1.3912204504013062, 1.1684339046478271, -0.08382607251405716, -1.8653247356414795, -1.9669760465621948, 0.9319879412651062, 1.7390847206115723, 1.7869693040847778, 0.010134177282452583, 0.16343329846858978, -0.8027211427688599, -0.9925370812416077, 3.153693199157715, 0.08449166268110275, -0.2946399450302124, 0.5272232294082642, 0.14545992016792297, 0.7362444400787354, -0.13924925029277802, 0.4090644419193268, -1.3260480165481567, -0.19328129291534424, -2.15617036819458, 0.06339015066623688, 0.6997416615486145, -0.2612461745738983, -2.0838124752044678, -0.5762068033218384, -0.4020099639892578, 0.1746862381696701, 0.36124277114868164, -0.8324041962623596, 0.8278681635856628, -0.26202476024627686, -3.2474799156188965, 0.331737756729126, -0.6789157390594482, -0.11748231202363968, -1.0558112859725952, -1.152994990348816, -0.6327645778656006, -0.1211143210530281, -2.1229746341705322, 0.8011674880981445, -0.06575566530227661, -0.6312469244003296, 1.3684334754943848, 0.04184131696820259, 0.6573286652565002, 0.5057932138442993, -0.7922210097312927, 0.9039124846458435, 0.4364512860774994, -0.13105563819408417, -1.6886547803878784, 0.3663627803325653, 1.716692328453064, 1.1761059761047363, 0.16452667117118835, 2.626927375793457, -0.4830653965473175, -0.3512417674064636, -1.1431771516799927, -1.1409046649932861, 1.0706641674041748, -0.01567198894917965, 0.3052976131439209, -0.4408898651599884, 0.2599465250968933, 1.9430437088012695, -0.8390365839004517, 0.41114819049835205, 1.0853509902954102, 0.11695995181798935, 0.7176110744476318, 0.8111200928688049, -0.42644384503364563, -0.7113372683525085, -0.628738522529602, -0.2397988736629486, 0.9731093645095825, 0.2995745539665222, 0.031280357390642166, -0.2506159245967865, -0.6259890198707581, 0.10698772966861725, -0.07747992873191833, 0.4132799208164215, -0.12451592087745667, -0.1581316441297531, -0.9677640199661255, -1.2388030290603638, 0.30165988206863403, 0.3664005696773529, 0.24723197519779205, 0.49790000915527344, -0.19107596576213837, -0.4818732440471649, -0.0857444554567337, 1.6199043989181519, -0.0038162441924214363, 0.1263999342918396, -0.8241740465164185, 0.260799765586853, -1.8425164222717285, 0.42009660601615906, 0.3167223036289215, 0.8012668490409851, -0.44270408153533936, -1.6165651082992554, -0.6335999965667725, -0.6934898495674133, -0.06558709591627121, 0.2974013686180115, 0.636160671710968, 0.23153166472911835, 0.629840612411499, 2.5613765716552734, 0.23634329438209534, 0.07725267112255096, 0.986911416053772, -2.8780438899993896, 1.999499797821045, 0.5224979519844055, -4.174561977386475, 1.0697519779205322, -1.4457800388336182, 0.7947800159454346, -0.41167667508125305, -1.379357933998108, -0.32250332832336426, 1.348438024520874, 0.0466933436691761, -1.3613183498382568, 0.5407871007919312, -0.9311724901199341, -0.8152163028717041, 0.7935378551483154, -0.6443045139312744, 1.2093108892440796, -1.442513346672058, 0.11878529191017151, 0.38229209184646606, -2.9798014163970947, -2.2247397899627686, 0.4990924298763275, -0.4158959984779358, -0.480332612991333, 0.5041840076446533, -0.3297567069530487, -1.5760993957519531, -1.7735861539840698, 0.08920291066169739, 0.2774753272533417, 0.776530921459198, 0.4430219531059265, -0.017026420682668686, -0.32658520340919495, -0.15987518429756165, -0.27249211072921753, -0.05220082402229309, 0.4122021794319153, -0.8828471302986145, 1.2406402826309204, -0.6730626821517944, -0.6442887783050537, -0.1842658519744873, 0.7752607464790344, 0.7583854794502258, -1.018986463546753, -2.6505589485168457, 0.25830918550491333, 0.40142056345939636, -1.3273712396621704, 0.8386318683624268, 1.4237301349639893, -0.8881592154502869, -0.5419594049453735, -0.49831363558769226, 1.3197076320648193, -0.12721748650074005, 0.7082022428512573, 0.9489912390708923, -1.1745140552520752, -0.08922501653432846, 1.0740805864334106, -0.34130948781967163, -0.667022168636322, 0.5495648980140686, -1.4279872179031372, 1.5388976335525513, 1.4129291772842407, 0.3367609679698944, 0.30576980113983154, -0.6106194853782654, -0.043111350387334824, -1.7770732641220093, -1.3014088869094849, 2.638671875, -0.55507892370224, 0.7843212485313416, -0.3016458749771118, -0.4020939767360687, 0.42652297019958496, 2.0723659992218018, 0.044202785938978195, -1.9434837102890015, -0.017129844054579735, 0.2505902945995331, -0.11719463765621185, 0.05388106405735016, 2.3472301959991455, 0.5642136931419373, -0.226225346326828, 0.49488565325737, -0.540026843547821, 0.9332039952278137, -0.9074873924255371, -0.008290905505418777, -0.9000191688537598, 0.2532660961151123, -0.7827040553092957, 0.4370807409286499, 0.8725150227546692, 0.40038055181503296, 0.7859285473823547, 0.047630805522203445, 0.6971113085746765, 0.6548343896865845, -3.0377776622772217, 0.17583638429641724, 0.13720150291919708, 1.1267783641815186, 1.4809150695800781, -1.7608031034469604, 0.4228365123271942, -2.054257392883301, -0.5070282220840454, -1.0610240697860718, 0.2692018151283264, 0.2743019461631775, -1.1405946016311646, 1.482210397720337, -0.310543417930603, 0.08410673588514328, -0.8853132724761963, 0.5263095498085022, 0.12140826135873795, 0.5380712747573853, 1.0008655786514282, -1.0212550163269043, -1.2442253828048706, -0.31547674536705017, -1.5082048177719116, 0.6594215035438538, -0.7320120930671692, -0.34899216890335083, 0.5685327649116516, 0.030797753483057022, 0.9929187297821045, -0.7139662504196167, 1.0674306154251099, 0.07720503211021423, -0.07458039373159409, 1.0195720195770264, -0.6308735609054565, 0.6915818452835083, 2.119981288909912, 0.6841549277305603, -1.8694093227386475, -1.2059568166732788, -1.1792329549789429, 0.04729313775897026, 0.8012624382972717, 0.20211215317249298, 0.7954453229904175, -0.11754170805215836, 2.239926815032959, -0.09887129068374634, -0.845352292060852, -0.7262899875640869, 1.013445496559143, -0.22269988059997559, -0.04056170955300331, -0.5757615566253662, 1.002835750579834, -0.6575559377670288, -0.42397013306617737, 0.1330501288175583, 1.2244007587432861, -0.01095818541944027, 0.13675972819328308, -0.40627166628837585, -0.8952994346618652, 0.47165605425834656, 0.6928898692131042, -1.0128213167190552, -1.3557699918746948, 1.3753622770309448, 0.13001219928264618, 0.6950528025627136, -0.07119850814342499, 1.8475226163864136, -0.6228955984115601, -0.26490533351898193, -0.8766655921936035, -0.4834494888782501, -0.4373405873775482, 0.0525389239192009, -0.8858978748321533, -0.7365195751190186, 1.511878252029419, -0.44346287846565247, 0.07828521728515625, 0.5713180303573608, 1.3156781196594238, -0.2591698169708252, -1.073261022567749, -0.6368432641029358, 0.3912754952907562, 0.7673270106315613, -2.2881932258605957, 0.2145480364561081, 0.6240731477737427, 2.5751516819000244, -0.1235726848244667, -1.7089587450027466, 1.4128799438476562, 0.27555975317955017, 0.655052661895752, -0.39368897676467896, -1.4305987358093262, -1.6624337434768677, -2.5562057495117188, -0.03211702033877373, 0.20855805277824402, -1.1391702890396118, -0.20593897998332977, 1.0324708223342896, -2.68522310256958, 1.4290239810943604, -0.36121225357055664, 0.04723050817847252, -0.9617035984992981, 1.2469319105148315, 0.04462417960166931, -1.0171042680740356, -0.64667809009552, -0.3128388226032257, -1.4746464490890503, -0.49624669551849365, 0.23845098912715912, -0.987134575843811, -0.1243729367852211, -0.17123651504516602, -0.8748745918273926, -2.4369778633117676, 0.9541281461715698, 1.2544938325881958, -0.2668652832508087, -1.969194769859314, 1.2959210872650146, 0.48165079951286316, 0.3162699341773987, 1.0851742029190063, 0.17772023379802704, 0.46852126717567444, 0.2123485654592514, -0.3347208797931671, -0.9771726727485657, 0.6251472234725952, -0.45717644691467285, 1.2844635248184204, 0.6872016191482544, -0.7545003890991211, -0.9191428422927856, 0.5317398309707642, -3.456465005874634, 0.6245732307434082, 1.0774106979370117, -1.2543741464614868, 0.43566635251045227, 0.9388608932495117, -0.4170176088809967, 0.28745824098587036, 0.5170283913612366, -2.5561935901641846, -0.2452283352613449, -1.236964225769043, 2.8551034927368164, -1.8742427825927734, -2.0350005626678467, 1.8094305992126465, -0.5316702723503113, -2.426623821258545, -0.4058009386062622, 0.3457249104976654, 0.904888391494751, -4.059723377227783, -1.1353307962417603, -0.9735756516456604, -3.6510086059570312, 1.0883866548538208, -0.10285322368144989, -0.7977265119552612, -0.5881542563438416, 0.7463699579238892, -0.38737958669662476, 2.7472546100616455, 0.5784485340118408, 0.6638332605361938, 0.6270473003387451, 0.15749689936637878, 0.7328336238861084, -2.99485445022583, -2.088310956954956, 0.12033775448799133, -3.3390297889709473, -0.19079743325710297, 1.2180585861206055, 0.9719585180282593, -0.5452964305877686, -0.03356558084487915, 0.41100892424583435, -4.471863269805908, 0.5346034169197083, 1.414916753768921, -0.11508815735578537, -0.2981089651584625, -1.0171678066253662, 0.3982570767402649, 0.5872290730476379, -1.4922502040863037, 2.1534056663513184, -4.333760738372803, 0.16400198638439178, -0.5234696269035339, 0.4932194650173187, -1.0049856901168823, -4.72367525100708, -2.3311145305633545, -0.25881925225257874, -1.667259693145752, 0.7469086050987244, -1.119126558303833, -0.3034284710884094, 2.341724157333374, 0.5473976731300354, 0.169181689620018, 1.2754215002059937, 0.7805370688438416, -0.2493767887353897, -0.22741985321044922, 0.6294662952423096, 1.1151819229125977, -0.7018914222717285, 1.5666282176971436, -0.5107666850090027, 0.48209258913993835, 0.694457471370697, 1.1958943605422974, -0.7879433035850525, -1.916140079498291, 0.41230177879333496, 4.917540073394775, -0.45001649856567383, 2.2820522785186768, 0.39977702498435974, -0.22767063975334167, 0.029937341809272766, 0.21536898612976074, 0.6670135855674744, -0.7329016923904419, -0.14280618727207184, -1.6680294275283813, -1.5889205932617188, 0.0417051799595356, 0.06167076900601387, -2.607025623321533, -0.03327450156211853, -0.8832494616508484, -0.1743670552968979, -0.788628101348877, 0.2139364331960678, -1.5982342958450317, -1.2956421375274658, 0.17203684151172638, 0.9089194536209106, -0.402825266122818, 0.311797559261322, -0.2242964506149292, 2.4311604499816895, 0.6564039587974548, 1.167008399963379, -0.061783481389284134, 1.0513430833816528, -2.322725534439087, -0.46769845485687256, -3.028742551803589, -2.6779165267944336, -0.5386950373649597, -0.7006890773773193, 1.0199249982833862, -0.5210137367248535, -0.6141267418861389, 1.1614910364151, 0.28403380513191223, 0.5409172773361206, -0.919981062412262, 0.3995651304721832, 1.029645323753357, -0.14974026381969452, -1.5717999935150146, 0.7680701017379761, 0.3653769791126251, -2.4813716411590576, -1.8160111904144287, 0.42095065116882324, 1.732548475265503, 1.4239592552185059, -0.003921923227608204, -0.39940911531448364, -0.6255127191543579, -0.02691381424665451, 2.2930681705474854, 0.5935686230659485, 0.6726071238517761, 0.11936879903078079, -0.49313995242118835, 0.3597804307937622, -0.6863031387329102, -0.05498199909925461, -0.8596769571304321, -0.7799825668334961, 0.08812037110328674, -0.8652108907699585, -0.8090912103652954, -0.5577415823936462, -2.1578383445739746, 0.9938825964927673, -0.12386331707239151, -0.1652047336101532, 1.2948286533355713, -0.824749231338501, -1.157565951347351, -0.3983018398284912, -3.5569281578063965, -0.05719199776649475, -0.978644847869873, 0.6651698350906372, -1.1842721700668335, -2.0735931396484375, 0.7173206806182861, 0.5243890285491943, -2.8646204471588135, -0.885023295879364, -0.16952286660671234, -1.5276377201080322, -0.3234705626964569, -0.6266558766365051, -2.166154146194458, 1.9348424673080444, -3.0552308559417725, 0.7387482523918152, 1.2903460264205933, -0.41839033365249634, -1.0765480995178223, -1.3941673040390015, 1.282787799835205, 1.3842717409133911, 0.23269721865653992, 1.9101691246032715, -0.10717082023620605, 0.3570011258125305, -0.09813954681158066, -0.4749365448951721, -0.7999411821365356, -1.514039158821106, 0.6834797859191895, 0.2693633735179901, 0.14642111957073212, 1.1704143285751343, -0.37780386209487915, 0.034842055290937424, 0.5311175584793091, 0.6180184483528137, -0.9783102869987488, 1.6927522420883179, -0.7293680906295776, -1.581282615661621, 1.4280415773391724, -0.7018430829048157, 1.777096152305603, 1.1678677797317505, 0.014633328653872013, -0.6983686685562134, -1.4462528228759766, -0.398286908864975, -0.5236774682998657, 0.614523708820343, 0.1804436594247818, -0.06845100224018097, -1.5553698539733887, -0.8086776733398438, 0.13548438251018524, 1.8858717679977417, 0.5332313776016235, 1.0080357789993286, -1.0498472452163696, 1.1218172311782837, -0.01992037333548069, 1.7608568668365479, 0.07609999179840088, 0.7977744936943054, -0.05282854661345482, 0.2603156268596649, -1.8249202966690063, 0.8785035014152527, 0.9565762281417847, -0.12946125864982605, 0.12002163380384445, -1.7818821668624878, -1.3956142663955688, -0.25421300530433655, 0.15858173370361328, 1.2426071166992188, 0.39305436611175537, -0.016619669273495674, 0.8251572847366333, 2.569174289703369, 0.08259075880050659, -0.678902804851532, 0.5287817120552063, -1.7979964017868042, 2.254972219467163, 0.5176093578338623, -4.6022114753723145, 1.0282833576202393, -0.9130083322525024, 1.263551115989685, -0.13413113355636597, -2.581275224685669, -0.8075334429740906, 1.50287926197052, 1.4644944667816162, -2.0433595180511475, 0.14026156067848206, 1.5839569568634033, -3.386998176574707, 2.728031635284424, 1.08512282371521, -2.9674072265625, -1.1953197717666626, 0.3307432532310486, 0.06436436623334885, -1.2425016164779663, -1.4955135583877563, -1.4683572053909302, -0.5625590682029724, -0.9470522403717041, 1.694301962852478, 0.7941948175430298, -1.6073718070983887, -1.2897679805755615, -0.5458948612213135, -1.2655268907546997, 1.0410224199295044, 1.357918620109558, 1.2219011783599854, -0.5724654197692871, 0.9967594146728516, -0.4579557478427887, 0.8312184810638428, 2.069195032119751, -1.3663874864578247, 2.559688091278076, -0.017886590212583542, -0.09809379279613495, 0.46854299306869507, 0.6574844121932983, 0.19525830447673798, -1.0760082006454468, -0.9764580726623535, 0.33055379986763, 0.0701010450720787, -0.7335824370384216, -0.7513154149055481, -0.008790381252765656, 0.7773937582969666, -1.5761464834213257, -0.7665262222290039, 1.2071659564971924, -0.7550938725471497, 0.25412726402282715, 0.8012589812278748, -1.6305720806121826, 0.6771296858787537, 1.8665192127227783, -1.8103748559951782, -0.2565290331840515, 0.4928346872329712, -0.9480935335159302, 0.19054189324378967, 0.43306735157966614, 0.10437575727701187, 0.7779313921928406, -1.600510835647583, 0.21090945601463318, -1.9603873491287231, 0.34260550141334534, 2.172213554382324, -1.0059542655944824, -0.0333230122923851, -0.3024928867816925, -1.1147613525390625, -0.6425048112869263, 2.183962106704712, -0.5266525745391846, -0.6296743750572205, -1.1891326904296875, 1.2272231578826904, 1.0314170122146606, 0.9395120143890381, 2.926582098007202, 0.2138911932706833, 0.2992461919784546, -0.40474823117256165, 0.5699193477630615, 2.0433547496795654, -1.249295711517334, 0.48492157459259033, -1.385140299797058, -0.10185869038105011, -1.0312559604644775, 0.4276667833328247, 0.4350544810295105, 1.2801847457885742, 0.5293980240821838, 0.28634288907051086, 0.48151203989982605, 0.35912442207336426, -0.5902078151702881, 0.44620493054389954, -0.2062750905752182, 1.015600562095642, 1.4720524549484253, -0.4965006113052368, -0.18874509632587433, -1.4008997678756714, -1.8497427701950073, -0.6069135665893555, 2.1741957664489746, -0.25592631101608276, -0.8130050897598267, 1.445278286933899, -0.8839127421379089, 1.9782485961914062, -1.0263139009475708, -0.29025405645370483, -0.25443750619888306, 1.1029062271118164, -0.16386684775352478, 0.20589730143547058, -1.279287576675415, -0.4049248695373535, -1.1984330415725708, 0.11934348195791245, 1.126114845275879, 0.29344332218170166, -3.5621256828308105, 0.4364672601222992, -0.3865305483341217, -1.0914510488510132, 0.411724716424942, 0.9536478519439697, 0.18888048827648163, 0.8978263735771179, -0.921970546245575, 0.6795331239700317, 2.2011451721191406, 0.27982965111732483, -3.236042022705078, 0.48786982893943787, 0.054487597197294235, 0.34422579407691956, 0.502068042755127, 0.31788522005081177, 0.7726738452911377, 1.3032562732696533, 2.2493977546691895, -0.8469064831733704, -1.396159052848816, -1.1806385517120361, 0.8219408392906189, -0.2237105816602707, 1.071560025215149, -0.3805159628391266, 1.2007945775985718, -0.5447962284088135, 0.9985640645027161, 0.7496994137763977, 1.0999517440795898, 0.9686043858528137, -0.945385754108429, -1.5640158653259277, 0.1833895593881607, 0.7979089617729187, 0.20589159429073334, -1.7554861307144165, -1.3564891815185547, -0.7146902680397034, -0.2883704602718353, 0.8456637263298035, 1.5446093082427979, 1.607966661453247, 0.5655611157417297, 0.3656451404094696, 0.18111857771873474, -1.594656229019165, 0.6776528358459473, 1.357968807220459, -0.4339865744113922, 0.20258532464504242, 1.0828105211257935, -0.292746901512146, 0.3811987340450287, -0.3916981518268585, 1.7917147874832153, 0.9731840491294861, 1.053612232208252, -0.35587427020072937, 0.5421594381332397, 1.7248789072036743, -0.965173602104187, -0.7225480675697327, 1.2442588806152344, 2.690661668777466, 0.305869996547699, -1.3228340148925781, 1.364289402961731, -0.2139396220445633, 0.46197831630706787, -1.2825473546981812, -2.6207661628723145, -1.414703130722046, -1.2257730960845947, -0.34744951128959656, -0.17685547471046448, 0.14627788960933685, 1.7245267629623413, 1.6910244226455688, -2.1242823600769043, 2.068573236465454, -1.1492122411727905, 0.5096571445465088, -0.8632512092590332, 1.3641401529312134, -0.4509599804878235, -0.22588422894477844, 0.5101872682571411, -0.5071523785591125, -0.47130653262138367, -0.29888594150543213, -2.097318172454834, -1.2910864353179932, 1.0239282846450806], "bnGammaC": [2.2883410453796387, 2.605293035507202, 1.6922484636306763, 2.2533459663391113, 1.5427218675613403, 1.9538387060165405, 2.309311628341675, 2.101151466369629, 3.0906331539154053, 1.8974980115890503, 2.8742663860321045, 2.0865132808685303, 2.244760751724243, 3.7723922729492188, 1.8778085708618164, 2.1155707836151123], "bnBetaC": [-1.025539755821228, -1.017784595489502, -1.1772422790527344, -0.987322211265564, -0.0017889172304421663, -1.3748770952224731, -0.8919678926467896, 0.3839929699897766, -1.823654294013977, -0.34062251448631287, -0.4286597669124603, -0.6261110901832581, 0.4892064332962036, 0.7612369656562805, -1.5591439008712769, -2.12023663520813], "bnMeanC": [-0.6801619529724121, 1.2727997303009033, -1.8373839855194092, 4.521587371826172, -1.4702706336975098, 1.0661948919296265, 1.0864782333374023, 4.207902908325195, -1.9374185800552368, -2.133727788925171, 1.8641595840454102, 1.106481909751892, -1.506232500076294, 3.7508058547973633, 5.1781415939331055, -2.254166841506958]}, {"inputChannelsDim": 76, "bnVariance": [56.5629768371582, 56.65045166015625, 95.00550842285156, 124.12936401367188, 70.67133331298828, 58.068912506103516, 79.4925537109375, 89.91234588623047, 65.72056579589844, 61.418121337890625, 81.7618637084961, 38.457298278808594, 42.77334976196289, 23.688249588012695, 167.63449096679688, 44.024688720703125, 85.51261138916016, 94.46806335449219], "roundsDim": 6, "convBias": [-0.0012338352389633656, 0.003320606891065836, 0.0012509874068200588, 0.0028440773021429777, 0.0012064706534147263, -0.002712422050535679, 0.0009484789916314185, 0.0030874027870595455, -0.0036123215686529875, 0.0006784155266359448, 0.0016908474499359727, 7.16933500370942e-05, 0.00548601383343339, -0.0008806689293123782, 0.0032646339386701584, 0.000642822531517595, 0.0004512383311521262, -0.0005116002866998315], "bnBeta": [-2.1480348110198975, -2.8810532093048096, 0.6325600147247314, -3.139805793762207, -0.9459922909736633, 0.17602045834064484, -1.9475306272506714, -0.9781011939048767, -1.2450190782546997, -1.5565507411956787, -2.1324760913848877, -2.154125213623047, -3.6920056343078613, 0.9918754696846008, -1.2786141633987427, -1.2982418537139893, -0.12124885618686676, 1.041707992553711], "typesDim": 3, "kernelRoundsDim": 1, "className": "ception", "upsamplingRoundsDimFactor": 1, "bnGamma": [2.2884678840637207, 2.001383066177368, 1.5508195161819458, 3.086578130722046, 1.3341337442398071, 1.5334991216659546, 1.9239706993103027, 2.0634026527404785, 1.8352919816970825, 2.03869891166687, 2.532700777053833, 1.8265656232833862, 1.984167218208313, 0.6610920429229736, 2.5597434043884277, 1.4791641235351562, 1.4907774925231934, 1.3742668628692627], "channelsDim": 18, "convKernel": [-1.501814365386963, -0.12093726545572281, -2.8323235511779785, -2.1342813968658447, -0.40948447585105896, 1.768752098083496, -0.21961216628551483, -0.3273913562297821, 1.2429193258285522, -3.6899631023406982, -1.654533863067627, 3.8016345500946045, -1.1562200784683228, -0.8354749083518982, 0.2078213095664978, 0.4290432333946228, 1.1123660802841187, 0.6877380013465881, 0.21299466490745544, 1.02825927734375, 0.06805817037820816, 0.7964099645614624, 0.09641613811254501, 0.11573457717895508, 0.899307131767273, 0.8083276748657227, -0.7606433629989624, 0.4079749882221222, 0.7851886749267578, -0.32367634773254395, 0.3453211486339569, 0.8620636463165283, -0.5477264523506165, -0.9214470982551575, -0.45449745655059814, 0.5279673337936401, -0.45694929361343384, 0.2569243609905243, -0.381613552570343, 0.6203666925430298, 1.0944056510925293, 0.12053483724594116, -0.05655950307846069, 0.16830283403396606, -0.28434425592422485, -0.42897382378578186, 1.4337401390075684, -0.22509756684303284, -0.21623679995536804, 0.6517202258110046, 0.6805884838104248, 0.23825107514858246, 0.4113348722457886, 0.6516723036766052, -0.0315021313726902, -0.5010748505592346, 1.0716571807861328, 3.2332634925842285, 1.3895572423934937, -0.8337752223014832, 0.7879413366317749, 1.068160891532898, -1.477483868598938, 0.9429124593734741, -1.9840505123138428, -1.6684671640396118, -0.6232317686080933, 1.422088861465454, -2.8212907314300537, 0.2760004699230194, -1.497280478477478, 1.2160875797271729, 0.12523776292800903, 0.39013150334358215, -0.5181517004966736, -0.5231634378433228, 1.1142584085464478, 1.0843086242675781, -0.3590845763683319, -0.34473156929016113, -1.3896119594573975, -1.1832135915756226, 1.59539794921875, -0.563430905342102, 1.0169034004211426, -0.1444726288318634, -0.2799757719039917, -2.5079355239868164, 0.3242453634738922, 0.8058710098266602, 1.0060245990753174, 0.13832877576351166, 1.4643537998199463, 0.0038876240141689777, -0.9608073234558105, -3.2828869819641113, 2.221902847290039, 2.3616788387298584, -0.7389916777610779, -0.34800395369529724, 0.2263757884502411, -2.4051010608673096, -0.8984785079956055, 1.8286291360855103, -0.5541506409645081, 1.8780843019485474, -1.5886565446853638, -0.8468416929244995, -1.3501081466674805, -0.9660683870315552, 1.2300819158554077, -2.868957281112671, -0.21249322593212128, 0.33740946650505066, -0.6292876601219177, -1.4477558135986328, 0.23549902439117432, -1.0463311672210693, -1.2745248079299927, 1.0324583053588867, 0.9074482321739197, 2.326883554458618, 0.4343145787715912, -0.19423961639404297, -1.692723274230957, -0.34713712334632874, 0.9453186392784119, -2.3294620513916016, -0.037886831909418106, -2.0588743686676025, -0.3224252164363861, 0.23183804750442505, 2.0410242080688477, -1.6793855428695679, 0.3936294913291931, 0.5749538540840149, -0.5730121731758118, 0.823418915271759, 0.48232501745224, 0.4595721662044525, 2.0648868083953857, -2.666710138320923, -0.22016826272010803, 0.9632871150970459, -1.3887213468551636, 0.18117566406726837, 0.3605378270149231, 0.30679813027381897, -0.059690315276384354, -0.7348984479904175, -0.296805739402771, 0.3961138129234314, 0.41006869077682495, 0.506595253944397, -0.2495654821395874, -0.35367706418037415, -0.8621408343315125, -0.15756289660930634, 1.5219424962997437, -0.5426614880561829, -0.21140438318252563, -0.1331639140844345, 3.825981378555298, 3.145871162414551, -0.2710135579109192, -0.14107346534729004, 1.2413067817687988, -0.505207896232605, -1.900575876235962, -0.7189504504203796, 0.1743970662355423, 2.3299825191497803, 3.798792386078276e-05, 0.5485438704490662, 0.5878921151161194, 1.9767757654190063, 1.5595401525497437, 0.7996107339859009, 0.4964086413383484, 0.1078776866197586, 0.7714950442314148, 0.34946128726005554, -1.9145159721374512, 3.1639564037323, -0.7970934510231018, 2.979348659515381, 0.8953301906585693, 0.6008316278457642, 1.7827426195144653, -1.9836848974227905, -0.9614803791046143, -0.09002569317817688, 0.18454444408416748, 0.5858957767486572, -1.2933439016342163, -0.3771633505821228, -0.103325255215168, 1.8713808059692383, 0.2721339762210846, 1.1782770156860352, 0.2426299899816513, 1.0392541885375977, 0.03973863646388054, 1.5830179452896118, -1.3991003036499023, -1.7834097146987915, 3.1100995540618896, -3.3371217250823975, 0.8701325058937073, -0.6632170081138611, 0.7789574861526489, 3.0975706577301025, 1.5119946002960205, 0.292508989572525, -4.137462139129639, -1.3733463287353516, 0.2099168449640274, 0.21870994567871094, -0.02095852605998516, 0.00931787583976984, 0.054149728268384933, 0.03900662809610367, -0.06717708706855774, -0.007629568688571453, -0.03129253908991814, -0.00906894076615572, 0.06857506930828094, -0.10243828594684601, 0.05829113721847534, 0.13952365517616272, -0.0009169106488116086, 0.08232369273900986, -0.14061374962329865, -0.0028336518444120884, 0.8828882575035095, 0.8066973090171814, -0.1392575055360794, 0.027392348274588585, 0.06146501004695892, 0.9237809181213379, -0.5684991478919983, 0.5004311203956604, 0.30578985810279846, -0.28179970383644104, 0.14718982577323914, 0.2247314602136612, 0.7820243239402771, 0.9500239491462708, -0.20459631085395813, -0.046259745955467224, -1.1619441509246826, -0.04452039301395416, 1.0235052108764648, 0.6788230538368225, 0.029070517048239708, 0.3584020435810089, 0.21153077483177185, 0.40335559844970703, -0.3019985556602478, 0.03988553211092949, 0.11020909249782562, -0.08776726573705673, 0.2082064002752304, -0.6017012596130371, -0.034589286893606186, 0.18859747052192688, 0.17477740347385406, -0.14282222092151642, -0.7423980832099915, 0.017445813864469528, 1.4537421464920044, 1.7418608665466309, -0.8384180068969727, 0.005929120816290379, 0.28567156195640564, 0.9508043527603149, 0.3150795102119446, 0.11610148102045059, 0.9999215006828308, -0.6676483154296875, 0.6096631288528442, 0.6266042590141296, 0.6081258058547974, 1.113396167755127, 0.18879476189613342, 0.7280662059783936, -0.9336513876914978, -0.20863868296146393, -0.8013665080070496, -1.7876170873641968, -2.3636696338653564, -2.5076820850372314, 0.24098868668079376, -0.0972454696893692, 0.31124305725097656, -0.1776198446750641, 2.0379958152770996, -0.7848812937736511, -1.6150071620941162, 1.8198217153549194, 0.19953466951847076, 0.08413289487361908, -0.020558979362249374, 0.6848158836364746, 0.6675856113433838, 0.2174525111913681, 0.3951447010040283, 1.0432984828948975, -0.325467973947525, -0.09392237663269043, 0.47386953234672546, 0.32450324296951294, 0.014113284647464752, 0.0940580666065216, 0.3169490396976471, -0.025464698672294617, 0.20506778359413147, 0.20466715097427368, -0.11232249438762665, 0.8000962138175964, -0.164221853017807, -0.1357586830854416, -0.048785820603370667, -0.23214532434940338, 1.7992445230484009, 1.226351261138916, -0.3640615940093994, 0.13331905007362366, 0.33074596524238586, 0.9148954749107361, -0.4442753493785858, 0.09051559865474701, 0.28856155276298523, -0.49970975518226624, 0.08038166910409927, -0.12011324614286423, 0.5153635144233704, 0.4090611934661865, -0.11232426017522812, -0.0043722232803702354, -0.8154444694519043, 0.027067219838500023, -0.3472028076648712, 0.02103715017437935, 0.04805555194616318, -0.24541263282299042, -0.16837523877620697, -0.03973057493567467, 0.06034072861075401, 0.02379629947245121, -0.034854400902986526, -0.21852491796016693, 0.05184217914938927, 0.3371961712837219, 0.2203391194343567, -0.04573877155780792, 0.07644147425889969, 0.0626998171210289, 0.0736994594335556, 0.26025280356407166, -0.7545508742332458, 0.5057858824729919, 1.2246460914611816, -0.6636361479759216, -0.3689418137073517, 0.23407799005508423, -1.1182835102081299, 0.6539173126220703, 0.21859507262706757, 1.7865498065948486, -1.5647501945495605, -1.0252971649169922, 1.61319899559021, 0.8324072360992432, 1.247784972190857, -1.6773790121078491, -1.79489266872406, -0.4288803040981293, -0.30211108922958374, -0.04515713453292847, 0.0951693058013916, -0.04568874463438988, -0.056909941136837006, 0.0155425313860178, 0.04583117738366127, 0.06476408243179321, -0.024217499420046806, -0.12027370184659958, -0.01990767940878868, 0.016488216817378998, 0.1290743350982666, -0.047783806920051575, -0.00011754567822208628, -0.18503552675247192, 0.19873756170272827, 0.027024900540709496, -0.7696452736854553, -1.0773630142211914, -1.017170786857605, -1.4010921716690063, -0.5736133456230164, -0.05922161415219307, -0.12684494256973267, 0.797787070274353, 0.5337982773780823, -0.226885586977005, -0.3766462206840515, 2.4881300926208496, 0.767766535282135, 0.4784529209136963, -0.2662311792373657, 0.29502519965171814, 0.005133794154971838, 0.17495571076869965, 1.0389257669448853, 0.806157112121582, -0.11018050462007523, 0.7758498191833496, 0.14385168254375458, 0.6613884568214417, -0.15034770965576172, 0.23374499380588531, 0.22701309621334076, -0.21154402196407318, 0.2508205771446228, -0.006414228118956089, 0.06324757635593414, 0.6408563256263733, 0.12565746903419495, 0.12500746548175812, -0.9009945392608643, 0.056130100041627884, 0.8017387390136719, 0.3451748192310333, 0.8135207295417786, -1.0185703039169312, -1.1448521614074707, 0.9669753313064575, -1.9157394170761108, -1.916359305381775, 0.1956695318222046, -1.5754001140594482, 0.2512758672237396, 0.5942487716674805, 4.314424514770508, -0.6537389159202576, -0.7179251313209534, -0.27789509296417236, 0.15298034250736237, -0.42100051045417786, -0.975677490234375, 0.5061138272285461, 0.5557151436805725, 1.1048223972320557, -1.2452772855758667, 0.7984132766723633, -0.42506226897239685, -1.4728600978851318, -0.37739232182502747, -1.31478750705719, -0.515498161315918, -0.28595274686813354, 3.9522390365600586, -1.0752981901168823, -0.2563355267047882, 0.7681156992912292, 0.5613107681274414, -0.6355911493301392, -0.27278855443000793, -0.1925867199897766, 0.262416809797287, -0.11691959202289581, -0.11580095440149307, -0.11857724189758301, 0.1855238825082779, 0.03632836416363716, 0.001967167481780052, -0.34970587491989136, -0.007074899040162563, 0.1691163033246994, 0.2088441252708435, -0.06131778657436371, 0.1066247895359993, -0.3531792163848877, 0.36796900629997253, 0.2672168016433716, 0.6394501328468323, -0.07750871777534485, -0.1164480447769165, 1.2057945728302002, 0.007536889985203743, 0.3148110806941986, 0.5591882467269897, 0.7482461333274841, -0.1921759396791458, 0.5736371278762817, 0.02319387160241604, -0.44262799620628357, 0.7300657033920288, 0.22040729224681854, 0.21553823351860046, -0.3607954680919647, -2.0054125785827637, 0.9087681770324707, 0.14508062601089478, -0.014242620207369328, 0.19206096231937408, -0.0460650660097599, 0.06394107639789581, 0.053300052881240845, 0.12093738466501236, -0.12181304395198822, -0.023989049717783928, -0.013022319413721561, -0.059017207473516464, 0.11115752160549164, 0.04927275702357292, -0.044422928243875504, -0.0043786377646028996, 0.18841584026813507, 0.00876354705542326, -0.11960935592651367, 0.174751877784729, -0.06909853965044022, -0.17088229954242706, -0.08824363350868225, -0.2671450674533844, -0.11098092794418335, -0.03513787314295769, 0.024765271693468094, -0.0378170907497406, -0.028497889637947083, 0.13233038783073425, 0.11467935144901276, 0.09699002653360367, -0.36911648511886597, 0.027412600815296173, 0.30076563358306885, 0.04437267407774925, 0.15153728425502777, -0.03350812941789627, 0.5627721548080444, 0.1968727856874466, 0.030710753053426743, 0.5427178144454956, 0.04443344846367836, 0.056146956980228424, -0.31314539909362793, -0.16348673403263092, 0.2857924997806549, -0.0067781140096485615, -0.410349577665329, -0.4022465646266937, 0.3811571002006531, -0.138431578874588, -0.4896487295627594, 0.20613105595111847, -0.5404630303382874, -0.19734175503253937, 0.03094751015305519, -0.05474730581045151, 0.04256628081202507, -0.049216412007808685, 0.02268732152879238, 0.054435841739177704, 0.07980499416589737, 0.04525180906057358, -0.04863959923386574, 0.036594223231077194, -0.08030908554792404, 0.052163489162921906, -0.01809384673833847, -0.1353675276041031, -0.1749894767999649, 0.00035570666659623384, 0.009180138818919659, 0.6933708786964417, 1.1313695907592773, -0.3697657287120819, 0.1904754489660263, 0.1702309399843216, 0.9556267261505127, -0.16646574437618256, 0.33960986137390137, 0.33097898960113525, -0.5129503011703491, 0.5235358476638794, 0.5703151226043701, 0.40238478779792786, 1.1805198192596436, 0.07912956178188324, 0.274556964635849, -0.8991129398345947, 0.005935817491263151, 1.0756447315216064, 0.6319941878318787, -0.3706096112728119, 0.20061735808849335, -0.19014519453048706, 0.5000722408294678, -0.2870149314403534, 0.15530653297901154, 0.2701260447502136, -0.15066073834896088, 0.26077282428741455, 0.03455635905265808, 0.25149011611938477, 0.30127668380737305, 0.1414688229560852, 0.32080185413360596, -0.8151557445526123, -0.04429441690444946, -0.9251077771186829, -0.3490232527256012, -1.004693627357483, -0.1289752870798111, -0.14548850059509277, -0.44915443658828735, 1.9032868146896362, -0.4336519241333008, -0.013455268926918507, 0.5021103024482727, -1.7156068086624146, 0.5647182464599609, 0.4334782660007477, 0.07891575247049332, -0.4936395287513733, 0.08971007168292999, 0.9200944304466248, 0.7857092022895813, 0.23601134121418, 1.7801315784454346, 1.2619500160217285, -0.2460716813802719, 0.35594362020492554, 0.1111418679356575, -0.9489306807518005, -0.020164022222161293, -0.6373379230499268, -0.3541317284107208, 0.8700408935546875, 1.104278802871704, 0.5462333559989929, 2.082520008087158, -0.23976878821849823, -1.934572458267212, 0.6554151177406311, 0.6057251691818237, -0.727786123752594, -0.6007469296455383, 0.9614756107330322, -0.5260443091392517, 0.24394802749156952, -0.8833438754081726, 0.12879087030887604, -0.12285804748535156, -1.7288892269134521, 0.264371395111084, 0.05209948122501373, -0.9070936441421509, -0.2967606484889984, -0.4422992169857025, -0.3762897849082947, -1.1929012537002563, 0.014144623652100563, -0.5449544787406921, 0.40686529874801636, 0.5970677137374878, -0.5057156085968018, -0.3982278108596802, -0.21257582306861877, 0.6319751143455505, 0.022965101525187492, -0.179323211312294, 0.14220918715000153, -0.3138774037361145, 0.4443642795085907, 0.5057780146598816, -0.1481965035200119, 0.7447408437728882, -0.20722198486328125, -0.10375994443893433, 0.6110226511955261, 0.45707717537879944, -1.7338364124298096, -0.6040657162666321, 1.227004885673523, -1.2205917835235596, -0.2745927572250366, -1.413087010383606, 0.8300756216049194, -0.5886805653572083, -1.4815702438354492, 0.183506041765213, -0.29590868949890137, 0.0841532051563263, -0.22055278718471527, -0.8171917200088501, 0.07496608793735504, -1.0683541297912598, 0.6694216728210449, 0.5994845628738403, 0.5939152240753174, 1.1572649478912354, 1.265196681022644, -0.3398449122905731, 0.1375124752521515, 0.08234251290559769, -0.5280978083610535, 0.05301373079419136, -0.928691565990448, -0.2410905659198761, 0.9658213257789612, 0.3755090832710266, 0.2896275520324707, 1.5590859651565552, 0.10304251313209534, -1.8472031354904175, -0.5481008291244507, 0.6447843909263611, 0.8053663372993469, 1.0970027446746826, -0.39155784249305725, 0.2788317799568176, -0.20849283039569855, 1.0344483852386475, -0.13997900485992432, 0.1561216562986374, 0.1820797324180603, -0.3803039491176605, 0.6747670769691467, 0.25964653491973877, 0.5518671274185181, 1.1898722648620605, 0.22617752850055695, 0.17104147374629974, -1.0616669654846191, 0.03343595191836357, -1.160157561302185, -0.26908063888549805, 0.319507360458374, -0.04900810122489929, 0.004560622852295637, -0.47946667671203613, 0.2684967517852783, -0.12818223237991333, -0.22856396436691284, 0.06793761998414993, -0.15705545246601105, -0.2642812132835388, -0.13100659847259521, -0.5050292015075684, 0.07524310052394867, -0.6202744841575623, 0.4011326730251312, 0.18946854770183563, 0.8893527388572693, 0.763554036617279, -3.379507541656494, 0.6346608996391296, 0.444975346326828, 0.1647912561893463, 0.48922380805015564, 0.2769854664802551, 2.6081485748291016, 1.6010923385620117, -1.3375484943389893, -1.4630047082901, 0.9920486807823181, -0.10113931447267532, -1.0656088590621948, 0.9429020285606384, 1.5906040668487549, 0.44792014360427856, -0.4299956262111664, -1.5809693336486816, 0.33388903737068176, -0.5456050038337708, 0.2976635992527008, -0.00689539173617959, -0.46727341413497925, 0.9530574679374695, -1.533160924911499, 0.5035058856010437, 0.1399233192205429, -1.297836184501648, 0.6370248198509216, -0.1292688250541687, -0.00026160257402807474, 0.16352345049381256, 0.2713215947151184, -0.5269626379013062, 0.06922934204339981, 1.0178601741790771, 0.517159104347229, -0.39742976427078247, 1.142174482345581, -0.10583161562681198, -2.0946784019470215, -0.569266676902771, 0.8981679081916809, 1.4019672870635986, 1.0982998609542847, 0.46949660778045654, -0.2049444168806076, 3.0283219814300537, -0.40799328684806824, 0.02610432542860508, -1.8021432161331177, 2.346738815307617, -0.8468440175056458, 0.5108610391616821, -0.5405958890914917, 0.8031888008117676, -1.848819375038147, 0.9100518226623535, -0.8687267303466797, -0.647310197353363, 0.13387525081634521, -1.8037933111190796, 0.8688851594924927, -0.7284026145935059, 0.09666352719068527, -1.0207773447036743, 1.1413516998291016, 0.19991114735603333, -0.12714767456054688, 1.4696705341339111, 1.0240176916122437, -0.25905144214630127, -1.4797712564468384, 1.3927220106124878, 1.6648017168045044, 0.27959612011909485, 0.3871394395828247, -0.17659935355186462, -0.3289732038974762, -0.31845200061798096, 2.3808088302612305, -0.2941908538341522, -0.09776581823825836, -1.8221325874328613, 0.9199073910713196, -0.9569894075393677, 0.2646106779575348, 1.0289855003356934, 0.4338543713092804, 0.937425971031189, -0.5580382943153381, 0.8988128900527954, 1.4143941402435303, -0.21800114214420319, -1.1395689249038696, 1.0515857934951782, -0.5905010104179382, -0.429928719997406, -1.5815767049789429, -1.9287151098251343, 0.6425084471702576, 0.33098486065864563, -0.8623192310333252, 0.9551213979721069, 1.5177326202392578, 0.29149794578552246, -0.3938547670841217, 0.14253343641757965, -1.5120069980621338, -0.057432182133197784, 2.6726150512695312, 0.7702442407608032, -0.5713417530059814, -0.6021233797073364, -0.5017520189285278, 0.5430006980895996, 0.5489967465400696, 0.17176823318004608, -0.48876139521598816, 0.2517014443874359, 0.3122950792312622, -1.7795990705490112, 0.40008917450904846, 1.2059733867645264, -0.4546850919723511, -0.1758151352405548, 0.05162065476179123, -1.0536094903945923, 1.6024478673934937, 0.6385357975959778, -2.080281972885132, 0.9393172860145569, -0.8167324662208557, -1.423703670501709, 0.14871691167354584, 1.8273935317993164, 1.6170275211334229, -0.10139692574739456, -1.0933979749679565, -0.5595801472663879, -0.4075153172016144, 2.197638750076294, 0.22949141263961792, -0.15640060603618622, -0.5102470517158508, 0.008608811534941196, 1.212473750114441, 0.46946313977241516, -1.1196807622909546, -2.6716511249542236, -0.13490916788578033, 1.4997433423995972, 0.6141111254692078, 0.3864189088344574, 0.3158338665962219, 1.1071531772613525, -0.9664314985275269, 0.47614967823028564, 1.5422873497009277, -0.022842328995466232, -2.117694854736328, -1.4361933469772339, -0.8911281228065491, -1.0763846635818481, 0.8406418561935425, 0.31860610842704773, 0.22282956540584564, 1.140312910079956, 0.7454773783683777, -0.42497342824935913, 0.6312219500541687, -0.6290602087974548, -0.21936070919036865, 0.36364296078681946, -3.7249481678009033, 1.0083097219467163, 0.280690997838974, -0.062201786786317825, 0.193159818649292, -0.8333083391189575, 0.7474857568740845, 0.6142547726631165, 1.1173337697982788, 0.6739945411682129, 0.25321850180625916, 1.5081130266189575, -0.38300180435180664, -1.8837361335754395, -1.6238139867782593, 2.574699878692627, -0.6790162324905396, 0.690312385559082, 0.6625936627388, 0.17526432871818542, -1.1278778314590454, -0.329018771648407, -0.36632034182548523, -0.3855629563331604, -0.45187199115753174, 0.2878718078136444, 0.7618954181671143, -0.3228500485420227, 1.389325737953186, -2.9000048637390137, 0.028828412294387817, 0.7323148250579834, 0.676341712474823, -0.43661800026893616, -0.48378708958625793, -0.5071184635162354, -2.5587704181671143, -0.34868210554122925, -1.0855157375335693, -1.3077222108840942, 0.18799033761024475, 0.6419774889945984, -0.764452338218689, 0.7794677019119263, 3.1583385467529297, 0.007748858537524939, 0.25484293699264526, 0.20040954649448395, -0.4174674451351166, -0.33857235312461853, 0.2720281779766083, 0.3327305316925049, 0.20922261476516724, -0.5495477318763733, 0.8635689616203308, 1.1239653825759888, 1.114781141281128, -0.8468941450119019, 0.4074026346206665, -0.24386756122112274, -0.6069017052650452, -0.6277528405189514, 1.7832597494125366, -0.2363259196281433, -0.5954777598381042, -0.7085073590278625, 0.2905348241329193, 0.1721188873052597, 1.9841206073760986, -0.3579140901565552, 0.04487859830260277, -0.7685492634773254, 0.9589360952377319, 1.2862029075622559, 0.06515542417764664, -2.026883602142334, 1.1651275157928467, 1.0159943103790283, 0.13230301439762115, -0.5708976984024048, -0.8875969052314758, -0.4869076907634735, 0.473873496055603, 0.5810089111328125, 1.7366032600402832, -0.5893081426620483, 1.021941065788269, 1.0689319372177124, -0.5203368067741394, 0.20335328578948975, -0.5502979755401611, 0.14005586504936218, -2.4229793548583984, 0.6610907912254333, 0.3066003918647766, 0.9936028718948364, 0.05283987894654274, -1.5161657333374023, -0.32820412516593933, -2.912318468093872, 1.3128583431243896, -1.324599266052246, -0.03081025369465351, 0.07161834836006165, 0.6516328454017639, -0.2530967593193054, 0.00441353814676404, 1.0117998123168945, -0.44929149746894836, 0.36766013503074646, 0.6036698222160339, 0.6365159153938293, -1.201155185699463, 1.2744617462158203, -0.651808500289917, 1.649735689163208, -0.2750214636325836, -0.37015300989151, 2.6970789432525635, 0.6841211318969727, 0.08622952550649643, -1.076441764831543, 0.015293722972273827, -1.077425479888916, -0.20493441820144653, 0.9297025203704834, 0.26885953545570374, 1.3686782121658325, -0.7268803715705872, 0.22008371353149414, 1.5447827577590942, 1.1373964548110962, 1.2332689762115479, -1.7199705839157104, 0.0842912569642067, 0.6993981003761292, 0.26319751143455505, -0.30030447244644165, 1.8870644569396973, -0.981374204158783, -0.136384516954422, 1.0885217189788818, -1.249566912651062, -1.3594340085983276, 0.3489162027835846, 1.4302921295166016, 0.3621669113636017, 1.7332483530044556, 0.5947685837745667, 1.8702013492584229, 0.9217492938041687, 0.7271938920021057, -2.047555446624756, -0.3614571988582611, 1.5996135473251343, 1.7521932125091553, -0.48813867568969727, 1.3890866041183472, 0.24759115278720856, -0.22173988819122314, 0.37421566247940063, -0.7354423403739929, 0.4338911771774292, -0.3186735510826111, -0.5828391909599304, -1.0952672958374023, -0.5120683908462524, -0.07981797307729721, 1.7562861442565918, 0.49173566699028015, 0.4843842685222626, -0.7777400612831116, -0.6797309517860413, -1.3200712203979492, 0.7080154418945312, -0.22379031777381897, 1.1265242099761963, -0.8374877572059631, 0.4803406298160553, 0.15764887630939484, -2.2228810787200928, 0.6126322150230408, 0.6592432856559753, -2.543301820755005, -0.7455466985702515, -0.7240179181098938, 1.0692018270492554, -0.17955748736858368, -1.5123217105865479, 0.7921662926673889, -0.19584877789020538, -0.7229031324386597, -0.10114899277687073, 0.6622065305709839, -0.7493528127670288, -1.2209157943725586, 0.018295172601938248, -0.8186857104301453, 0.7932509183883667, -1.885908842086792, 1.1369737386703491, 0.5387825965881348, -0.047165680676698685, 0.013385574333369732, 0.4955977499485016, 0.36255964636802673, 1.748470664024353, 1.8423823118209839, -0.7260894179344177, -2.099015474319458, 0.029533304274082184, -0.0558391697704792, 0.9748193621635437, -0.6069612503051758, -0.32991495728492737, -0.6832686066627502, 0.6101125478744507, 1.8299003839492798, -1.4224685430526733, -1.8137236833572388, -0.7535707950592041, -0.6908555030822754, -1.6495546102523804, -1.1648787260055542, 0.23308533430099487, -1.5108287334442139, 1.5879751443862915, 0.5202111005783081, 1.0510772466659546, 1.3835982084274292, -1.406734824180603, -0.9320815205574036, 1.1035194396972656, -1.0207935571670532, -0.8360547423362732, -0.16043683886528015, 0.30854082107543945, -1.2903721332550049, 1.664981484413147, 2.390101909637451, -0.3068292737007141, -0.038699764758348465, 1.5469658374786377, -0.12181751430034637, 1.7915189266204834, -0.11543945968151093, -0.02757941372692585, -1.3925749063491821, 0.1774478256702423, 0.24055561423301697, -0.26401326060295105, 1.0410062074661255, 0.0028760426212102175, 0.5807565450668335, -1.4249298572540283, -0.9050639271736145, 0.635499119758606, -0.5951001644134521, 1.9646060466766357, -0.5334981083869934, -0.4934876561164856, 0.484011709690094, 0.7073185443878174, -0.5743641257286072, -0.2622421979904175, -0.8039641380310059, 1.4379899501800537, -0.2413860261440277, 1.0784069299697876, 0.5974723100662231, -1.6130266189575195, 1.454246997833252, 0.15678496658802032, 1.0289429426193237, -1.2806285619735718, -1.5065032243728638, -0.8179344534873962, 0.6755881905555725, 1.3170106410980225, -1.7316919565200806, -0.8230107426643372, -0.19714723527431488, -1.073844075202942, 0.48296526074409485, 1.4585145711898804, -0.6766119599342346, -0.14241787791252136, -0.5619252324104309, -2.510127305984497, 2.2493977546691895, 0.27557799220085144, -0.5550427436828613, 0.6723628640174866, 0.5042673945426941, 2.1922011375427246, -1.571324348449707, -0.7181326746940613, -0.6837822794914246, -0.6830145716667175, 1.1445420980453491, 0.8729029297828674, 0.8610758185386658, 2.301835298538208, -1.0599908828735352, -1.267480731010437, 0.015079689212143421, -1.0571157932281494, 0.09125767648220062, -2.1172614097595215, -0.10771216452121735, -0.4026177227497101, -0.5747140645980835, 0.08526958525180817, -0.49138501286506653, 0.8821569681167603, 0.15523697435855865, -2.3880996704101562, 1.0259183645248413, 0.46313148736953735, 0.4217824935913086, -0.6106567978858948, 0.5828482508659363, 0.14919883012771606, 0.09416257590055466, 1.0407648086547852, -0.07745544612407684, 0.6064716577529907, -0.3986111879348755, -0.41526949405670166, 0.5416774749755859, 1.1536155939102173, 0.5784898996353149, 1.1071950197219849, 2.2251105308532715, 0.03545660153031349, -1.5560400485992432, -1.7534314393997192, 0.2544650435447693, 1.699495553970337, 0.4047347605228424, -1.2917475700378418, -2.1063833236694336, -0.6264535784721375, 2.0594778060913086, -0.19784137606620789, 0.2470465451478958, -0.13312464952468872, -0.6055569648742676, -1.468199372291565, 1.5208362340927124, 0.4273398220539093, -0.41761791706085205, 0.027817098423838615, 0.49840423464775085, 0.3405589759349823, -0.1751304417848587, -1.222121000289917, -1.2346562147140503, -0.08400905877351761, 0.4934810996055603, 1.6206529140472412, 0.7918756604194641, 0.29155367612838745, 0.8741575479507446, -0.722713828086853, -0.6875059008598328, -1.7494773864746094, -0.10327953100204468, -0.2595307528972626, -1.928256630897522, 0.7858755588531494, -1.3650267124176025, -1.6581847667694092, -1.7008305788040161, 1.0192656517028809, -0.5614656805992126, 1.2328931093215942, -1.06943941116333, 0.14298518002033234, -1.1579428911209106, -0.061077553778886795, 0.05640895292162895, 1.5522488355636597, 0.43200570344924927, 1.0554428100585938, 0.046082962304353714, 0.04154278710484505, -1.502418041229248, -1.8080073595046997, 2.021228551864624, -0.2695307433605194, 0.14553609490394592, 1.3439505100250244, 0.4769018888473511, 1.0918352603912354, 0.11152198165655136, 0.4305923581123352, 0.7976658344268799, -1.934640884399414, 1.5749391317367554, 1.0416574478149414, -0.996519923210144, 0.4306507110595703, -1.7813516855239868, -1.515952229499817, 0.7249037027359009, 1.3972487449645996, -0.35441944003105164, 0.08119817078113556, -1.5282495021820068, -0.10780826956033707, -1.9195572137832642, 0.18325810134410858, -0.549321174621582, -0.2440023422241211, 0.14566001296043396, -0.3204306960105896, -3.7026374340057373, -0.2713576853275299, 0.05354957655072212, -0.020934194326400757, 0.6689134240150452, 0.4467496871948242, -0.40197890996932983, -1.744186520576477, -0.26834937930107117, -1.1332052946090698, 0.8590103387832642, -1.796403408050537, -0.8377206325531006, -2.873135805130005, -0.32145172357559204, -0.46677878499031067, -2.406067371368408, -0.9827393889427185, -1.3860344886779785], "bnMean": [-5.34501838684082, -9.855966567993164, 3.388352394104004, 7.3944525718688965, -3.1482574939727783, -6.205296516418457, 4.013585090637207, -0.9859640598297119, -1.219313621520996, 6.957118511199951, -4.133304119110107, -1.1121227741241455, -12.595882415771484, -2.3571929931640625, 0.7753268480300903, 7.644531726837158, 6.0570783615112305, -3.814160108566284], "kernelTypesDim": 1, "upsamplingTypesDimFactor": 1}, {"bnMeanD": [1.2008939981460571, 13.416147232055664, -0.19981633126735687, 3.5301575660705566, 0.823034405708313, 4.671070575714111, -2.5066325664520264, -16.68486976623535, 11.625266075134277, -4.706607818603516, -5.745698928833008, -2.275455951690674, -5.878123760223389, -3.8623831272125244, 6.725983619689941, 0.5852823257446289, -14.853002548217773, -11.264395713806152, -2.888697862625122, -17.2917423248291, 1.6376594305038452, 4.194372653961182, -5.874522686004639, 2.6822307109832764, -0.828968346118927, 1.2519820928573608, -13.782394409179688, -4.794102668762207, 2.2861826419830322, -5.122869968414307, -0.47008684277534485, 3.359745979309082], "convBiasA": [-0.0008053547353483737, -0.0009170254343189299, 0.0016812363173812628, -0.0006579607725143433, 0.00358876446262002, 8.481646364089102e-05, 0.0012671926524490118, -0.0023413514718413353, 0.0006531513063237071, 0.000280314648989588, 0.007455028127878904, 0.0017587017500773072, 0.0029853296000510454, 0.004480356816202402, 0.00018266252300236374, -0.00018827633175533265], "bnVarianceB": [24.410419464111328, 28.506620407104492, 3.4017484188079834, 85.12801361083984, 45.60015869140625, 83.27037048339844, 115.31470489501953, 100.86357879638672, 55.649200439453125, 315.29364013671875, 13.553628921508789, 16.694849014282227, 127.13211822509766, 16.029808044433594, 20.950239181518555, 25.25312042236328, 27.077667236328125, 4.52798318862915, 89.92407989501953, 120.30414581298828, 38.336063385009766, 65.83013916015625, 44.29416275024414, 151.67665100097656, 13.337244987487793, 118.14549255371094, 125.26952362060547, 121.40798950195312, 38.47551345825195, 34.93409729003906, 77.40199279785156, 138.09808349609375], "bnBetaA": [-3.8518130779266357, -2.8174479007720947, -3.97434663772583, -1.7559211254119873, -2.3705708980560303, -2.1417734622955322, -1.8979333639144897, -2.666855812072754, -2.488290786743164, -2.4701240062713623, 0.0017620978178456426, -0.02562572807073593, 0.11514781415462494, -2.5788662433624268, 0.9443305730819702, 0.5006829500198364], "convKernelC": [0.4424780011177063, -1.7926640510559082, 1.2564544677734375, -0.5520426630973816, 0.5689321756362915, 2.280269145965576, 0.7105076909065247, -0.46536770462989807, -0.6528674364089966, 2.054713487625122, 0.8286423087120056, 1.0116441249847412, 1.9148017168045044, 0.1767774075269699, -1.9557952880859375, -0.24630390107631683, 1.2663766145706177, -1.5443190336227417, -0.17372998595237732, -0.438874214887619, 4.716248035430908, 0.9495260119438171, 1.2736493349075317, 1.0794302225112915, 0.7707954049110413, 0.7989097237586975, 1.2903518676757812, 1.5362284183502197, 1.183807611465454, 1.6196213960647583, -0.10775091499090195, -2.4106225967407227, 1.7475814819335938, 0.3325809836387634, -0.8173382878303528, -0.8899351358413696, 0.5930701494216919, -1.276376724243164, -1.3081364631652832, 0.450442373752594, -0.09436767548322678, 0.4132797420024872, -1.3120216131210327, -1.125999927520752, 1.3982058763504028, -0.920880138874054, 2.6194510459899902, -2.4943766593933105, -0.42310816049575806, 2.4493160247802734, 0.6439075469970703, -2.5564146041870117, 0.8568633794784546, -0.2371322512626648, -1.4778059720993042, 0.6277147531509399, 0.990131139755249, 0.16348257660865784, 0.5274983644485474, -0.40102067589759827, 1.9996297359466553, 2.334193229675293, 1.3067489862442017, 1.2524739503860474, 0.6129222512245178, 0.5897936224937439, -0.1822754591703415, -0.17277981340885162, -0.6961030960083008, 0.3003729283809662, 0.24195367097854614, -0.4292835295200348, 0.3642486035823822, -0.6926195621490479, 1.437233805656433, 0.8974273800849915, 0.5971869230270386, 0.756301760673523, 0.3452039659023285, -0.14426212012767792, -2.084035873413086, -1.4878240823745728, 0.39477699995040894, 0.6946320533752441, 0.044834066182374954, -1.4591810703277588, 0.773048460483551, 0.07889696210622787, -0.8064901232719421, 1.393914818763733, -0.23519879579544067, -1.1934722661972046, 0.40743958950042725, 0.7428510785102844, -0.6182547807693481, -0.38738346099853516, -1.1780575513839722, -1.362370491027832, 0.9460948705673218, 0.37440720200538635, -0.210032120347023, -0.5695205330848694, -4.451826572418213, -0.7639548778533936, 1.1646637916564941, -0.7832862138748169, 1.2270259857177734, 1.0916796922683716, -0.035406410694122314, 0.9502118825912476, -0.47530287504196167, 1.7635560035705566, -0.10698574781417847, -1.0678914785385132, 1.966206431388855, -0.9573556780815125, -0.4028259217739105, 2.159782886505127, 0.18248584866523743, 0.07272114604711533, -1.1674352884292603, 0.5620205998420715, -0.8304724097251892, 0.10655273497104645, -1.0009856224060059, 0.7394283413887024, 0.7044628262519836, 0.5126767158508301, -1.724795937538147, 1.8388545513153076, 0.9192987680435181, -1.4430018663406372, -0.47589173913002014, 0.34091097116470337, 0.17093874514102936, -0.5000171065330505, 1.273115873336792, 0.8775612711906433, 0.45780256390571594, -1.0210310220718384, -0.8079485893249512, -1.1395597457885742, -0.3570757508277893, -1.1799942255020142, 0.6202634572982788, -0.8223000764846802, 0.7373817563056946, -0.34438738226890564, -0.22733455896377563, 0.37283214926719666, -0.7583299279212952, -2.900421142578125, -1.8967431783676147, 0.9187688231468201, -1.0540416240692139, 0.7296689748764038, -2.0305309295654297, -1.7652137279510498, 1.7725026607513428, -0.38727760314941406, 1.4754066467285156, 0.13265685737133026, -0.04558341205120087, -1.733535885810852, -1.1909277439117432, -0.3157878518104553, -0.4800114631652832, -0.3953070640563965, -0.352964848279953, 0.40057137608528137, 2.1337430477142334, 1.5912781953811646, 1.886734127998352, 1.9201806783676147, -0.2060253769159317, 0.15511351823806763, -1.036337971687317, -0.7517702579498291, -0.005661532282829285, 1.2555692195892334, -0.6000009179115295, -0.7126991152763367, 0.6204776167869568, -1.4921640157699585, 1.9778395891189575, 0.777800977230072, 0.7280129194259644, 0.4461311995983124, 0.1048445925116539, -0.5261844992637634, -0.3794252872467041, 3.287292242050171, 0.8909581303596497, -0.7867766618728638, -0.3143579661846161, -0.39890578389167786, -0.5377870202064514, 0.32242780923843384, 0.6860951781272888, 1.083759069442749, 0.11736266314983368, 2.0494425296783447, 0.853303074836731, -0.27721020579338074, 0.008712519891560078, 0.17886830866336823, -1.5985521078109741, -0.8530556559562683, -0.11942102760076523, 0.4591723680496216, -0.09616025537252426, 1.085396409034729, -0.006219301838427782, 0.39288368821144104, 0.19880135357379913, 2.488598108291626, 1.5869991779327393, 2.8391780853271484, -0.022332916036248207, 0.8170632719993591, -0.6133373379707336, 0.9816533923149109, 0.21929672360420227, -0.1905018389225006, -0.5301917791366577, -0.6151208877563477, -2.152103900909424, 0.47623714804649353, 1.175545573234558, 0.9138806462287903, -0.5885355472564697, -0.6078366041183472, -0.14099198579788208, -0.1663396656513214, 1.2045338153839111, 0.5343649983406067, 0.9060584902763367, -0.35574740171432495, -0.4937586188316345, -0.17827564477920532, -0.6101699471473694, -0.13343220949172974, 1.1240415573120117, 2.5886142253875732, 0.5152229070663452, -1.6886392831802368, -0.7463940978050232, 0.6523572206497192, -0.5898256301879883, 1.2199289798736572, 0.877996027469635, -0.5161144137382507, 0.5682475566864014, -1.250989556312561, 0.16220594942569733, -0.09277625381946564, 0.8483273983001709, -1.1327561140060425, 0.0011089206673204899, 0.03441562503576279, 0.652815580368042, 0.7489078044891357, -0.7073119282722473, -2.2167611122131348, -2.43922758102417, 0.1687348335981369, -0.604927122592926, 1.9720120429992676, -0.7557156085968018, -0.5979105234146118, -1.483903408050537, -0.32338380813598633, 1.1826471090316772, -0.8147264122962952, 1.8149352073669434, 0.7249059677124023, 0.3439289629459381, -1.2956323623657227, -0.3733750581741333, 0.12514348328113556, 0.4763564467430115, 0.9274563789367676, 0.12122706323862076, 1.6354057788848877, -0.6327013969421387, -0.5036979913711548, -0.06480924040079117, -0.6260553002357483], "convBiasB": [-0.00014302284398581833, 0.0009562539053149521, -2.358172605454456e-05, -0.0006329445750452578, 0.002299348823726177, 0.0034931220579892397, -0.004720006138086319, 0.0020053270272910595, 0.005385281052440405, 0.002289756201207638, 9.556871373206377e-05, -0.00022297834220808, -0.004809692967683077, 0.001536677940748632, 0.0001302857999689877, -0.0018826635787263513, 0.000777132750954479, -6.278353976085782e-05, 0.0023374531883746386, 0.00014227040810510516, 0.0010357702849432826, -0.002624237909913063, 0.0008855922496877611, -0.004405918996781111, 0.0011215780396014452, 0.00025358283892273903, 0.0012495912378653884, -0.0020011677406728268, -0.0002714431320782751, -0.0012944376794621348, -0.001785621396265924, -0.0010918260086327791], "bnGammaB": [0.0752650797367096, 0.2940600514411926, -0.009676927700638771, 0.41546857357025146, 0.851483166217804, 1.5691189765930176, 1.3328782320022583, 1.295690894126892, 2.3740556240081787, 2.7634899616241455, 0.037234675139188766, 0.13420021533966064, 1.9693738222122192, 1.0732176303863525, 0.015985772013664246, 0.4726232588291168, 0.502409040927887, -0.016848929226398468, 2.5208489894866943, 2.772833824157715, 1.1776946783065796, 1.6441794633865356, 1.2117724418640137, 2.113335371017456, 0.2189958393573761, 1.2035365104675293, 0.81671142578125, 0.7882304787635803, 0.48136061429977417, 0.6164919137954712, 1.5106273889541626, 1.5744386911392212], "bnGammaA": [2.3096354007720947, 2.1148762702941895, 1.314664602279663, 1.6289443969726562, 1.6838332414627075, 2.643742084503174, 1.1712357997894287, 1.1545124053955078, 1.1150671243667603, 2.2139194011688232, 1.0637929439544678, 0.7980694770812988, 1.2245807647705078, 2.2996811866760254, 1.2868108749389648, 1.5840576887130737], "bnGammaD": [1.7783492803573608, 2.1509554386138916, 0.906805157661438, 1.953816533088684, 2.853071928024292, 2.0131688117980957, -0.06587456166744232, 1.263953447341919, 1.587827444076538, 2.344238042831421, 1.9787788391113281, 1.0567344427108765, 1.972859263420105, 2.42695951461792, 2.4708144664764404, 1.8155909776687622, 1.2197670936584473, 1.5957492589950562, 1.5208775997161865, 1.6763131618499756, 1.8814493417739868, 1.6979087591171265, 2.7477266788482666, 1.9754177331924438, 2.1347596645355225, 0.9316189885139465, 1.545034408569336, 0.8224756121635437, 0.998720645904541, 1.532981038093567, 1.1693856716156006, 0.13701634109020233], "convBiasC": [0.004399840719997883, 0.005037190392613411, 0.0031610229052603245, -0.006797177251428366, 0.0011016540229320526, 0.006644390057772398, -0.003076450666412711, -0.0011463519185781479, -0.0016270895721390843, -0.0013988057617098093, 0.004710718523710966, 0.0023257052525877953, -0.0006342069827951491, 0.0038735028356313705, -0.005274913739413023, -0.002676153089851141], "convBiasD": [-0.0003452430246397853, 0.0003196671896148473, 0.0037453400436788797, 0.0008615599945187569, 0.003023629542440176, -0.00030940244323574007, -0.00032739475136622787, 0.00550078647211194, 0.005230695474892855, 0.0006616414175368845, -0.004890076350420713, 0.0009509672527201474, -0.0031233071349561214, 0.0010289658093824983, -0.005719042848795652, -0.0019509578123688698, 0.001981686567887664, 0.003912059590220451, 0.009574918076395988, -0.0009266700362786651, -0.0020831336732953787, -0.00044202455319464207, 0.002630149247124791, -0.007133093662559986, -0.0028478754684329033, 0.002890342613682151, 0.002843967406079173, -0.0021584518253803253, -0.004871828947216272, 0.00011950488260481507, 0.003180732252076268, 0.0011997369583696127], "bnVarianceC": [27.588821411132812, 10.828145027160645, 20.451026916503906, 7.131842613220215, 10.153180122375488, 15.064306259155273, 23.16207504272461, 28.66242027282715, 17.396692276000977, 23.125089645385742, 14.561394691467285, 17.397912979125977, 37.25949478149414, 18.10239028930664, 17.8745174407959, 14.863579750061035], "convKernelA": [-0.01122499443590641, -0.5721110701560974, 0.5573585033416748, -0.06423855572938919, 1.1500554084777832, -1.0054638385772705, -0.33279159665107727, 1.6771438121795654, 1.404697060585022, -0.19545069336891174, 0.9027639031410217, -0.3693794906139374, -0.07290200889110565, 0.8416573405265808, -0.6917802691459656, -1.5235787630081177, -1.517275094985962, 1.1199755668640137, 0.7701298594474792, -0.33970406651496887, 0.5743153691291809, 0.8450645804405212, 0.8119211196899414, 0.7065814137458801, 0.6280137300491333, -0.03857869282364845, 1.2775074243545532, 0.05119498819112778, -1.7326446771621704, 0.21108093857765198, 0.12107988446950912, -0.5924764275550842, 0.27674078941345215, 0.7693294286727905, 1.8772077560424805, 0.39558377861976624, 0.09231186658143997, 1.6125000715255737, 1.946759819984436, -0.7037333846092224, -0.839339554309845, -0.49335014820098877, 0.18580281734466553, -0.46317145228385925, -1.1933948993682861, -0.06312834471464157, -0.15925559401512146, 0.981896698474884, -0.3707769811153412, -1.559982419013977, 2.159644365310669, 2.872020959854126, -1.6398913860321045, -0.2643578350543976, 1.0154521465301514, -0.5055511593818665, -0.7134372591972351, -2.174673318862915, 0.1524120718240738, -0.562786877155304, 0.971716582775116, -0.12066047638654709, -2.643075466156006, -0.2660803198814392, -0.3535681664943695, 1.3383644819259644, 2.137054204940796, 0.2512078583240509, 1.3211783170700073, -1.4446007013320923, -0.5657716989517212, 0.3160122036933899, -0.3965555727481842, 1.9983625411987305, -0.15978001058101654, -1.1961525678634644, -0.15236353874206543, -0.5793606042861938, -1.2059154510498047, -0.5506651997566223, 3.4365153312683105, 1.653415560722351, -0.3784900903701782, -0.4616686701774597, 0.460156112909317, -0.3034238815307617, -0.7137876152992249, 1.7775803804397583, -0.3641127645969391, 0.19832703471183777, -0.8906146883964539, -0.774980902671814, -0.7349781394004822, -0.25460612773895264, -0.5302781462669373, -1.4433232545852661, -0.44698917865753174, 0.020028818398714066, 0.4593658745288849, 0.8915136456489563, -1.1651191711425781, 0.584479033946991, 2.8191146850585938, -1.7443516254425049, 0.06752853095531464, -0.20654325187206268, -0.5164673328399658, 1.6397355794906616, -2.839655876159668, -1.324753761291504, 1.3123610019683838, 0.7649338245391846, 1.158823847770691, -1.847790241241455, 0.1795659363269806, 0.260461688041687, 0.4397884011268616, -0.6526063084602356, -0.03515606001019478, -1.6606426239013672, 0.23619279265403748, -0.811865508556366, -0.8642978072166443, -0.38383060693740845, 1.8788174390792847, 1.224165916442871, 0.08981390297412872, 1.2013154029846191, 0.7750287055969238, -1.6147619485855103, 0.9554196000099182, 1.7488304376602173, 1.4365590810775757, 0.6503955125808716, 1.0122191905975342, 0.3483305871486664, -0.39317595958709717, -0.65226149559021, -1.8998303413391113, 0.11584416031837463, 0.0033276726026088, 1.7430305480957031, -0.8809989094734192, -0.5625295042991638, -0.7741829752922058, -0.31290775537490845, 0.7036949992179871, 0.48557963967323303, -0.05445745214819908, -1.1987946033477783, 0.5617977380752563, 0.9110553860664368, -0.7056110501289368, -0.516157865524292, 1.3693753480911255, -0.2429071068763733, -0.843608021736145, 1.7907164096832275, -1.235446572303772, -1.0030157566070557, 1.3729139566421509, -1.60708487033844, 0.6320070028305054, -1.0798877477645874, 1.0209249258041382, 0.040901072323322296, 0.8700955510139465, -0.6358558535575867, 1.8432024717330933, -1.141241192817688, -2.325878381729126, -2.3996527194976807, -2.8747658729553223, 0.2540266215801239, -2.4531190395355225, 0.023653285577893257, 1.2275424003601074, -0.2983252704143524, -0.38843441009521484, 0.6511572003364563, 0.7836573719978333, -0.19155244529247284, -1.1198829412460327, 1.0579493045806885, 0.3884011507034302, 0.8140673637390137, -0.41502952575683594, -1.3102353811264038, -0.09673526883125305, 0.16438494622707367, -1.2129366397857666, -1.458727478981018, 1.0114753246307373, 0.4726996123790741, 0.9731811881065369, 0.742058277130127, 0.5516011714935303, -2.2910165786743164, 0.6797190308570862, 0.20361337065696716, 1.2981586456298828, 1.8554096221923828, -0.49619942903518677, 0.7791541218757629, -2.2189977169036865, -2.3143646717071533, -0.5368119478225708, -2.3293585777282715, -0.8516579270362854, 1.8314619064331055, -0.7883141040802002, -0.18295881152153015, 0.5548102855682373, 0.5892174243927002, 0.39529046416282654, 0.058591168373823166, -0.2791268825531006, 1.0095735788345337, 0.1047096997499466, 0.9293943643569946, 1.3200554847717285, 0.1267768293619156, 0.36302536725997925, 0.763593316078186, 0.19868183135986328, 0.12401756644248962, 0.7052685022354126, 1.320985198020935, 2.2252726554870605, 0.3697037696838379, 0.4941166937351227, 0.7538726925849915, -0.669441282749176, 0.006012993864715099, 1.6561262607574463, 0.9920980334281921, 0.36518868803977966, 2.515256404876709, -0.1046183779835701, -1.6739612817764282, -1.1176773309707642, 0.9284197688102722, 1.4493845701217651, 1.395749807357788, 1.2734184265136719, 1.081563949584961, 0.9996116161346436, -0.22855912148952484, -2.1689982414245605, 1.553348422050476, -1.0110633373260498, -1.297945261001587, 0.5330861806869507, 0.13620053231716156, -1.1056485176086426, 0.007583979982882738, -0.26214101910591125, -1.0213234424591064, 0.6674575805664062, 1.66090989112854, 0.5632489323616028, -0.07795777171850204, -0.03990408405661583, 1.1852068901062012, 0.3956950604915619, -0.41187265515327454, 0.6169117093086243, -1.3822510242462158, -0.1307975798845291, -1.6432842016220093, -0.7582485675811768, -1.6982425451278687, 0.09548769146203995, 0.711222767829895, 0.5506885051727295, 0.6256701946258545, -0.7516992688179016, -3.4733996391296387, -0.4908114969730377, 0.8416726589202881, 1.7899342775344849, -0.9366758465766907, -1.4066013097763062, 0.0034689714666455984, 0.7535690665245056, -0.4131726324558258, 1.216791033744812, -0.6363095641136169], "inputChannelsDim": 18, "bnBetaB": [1.9120231866836548, -2.1537766456604004, -1.5618332624435425, 0.1247592493891716, -1.7215354442596436, -2.957379102706909, -1.0612242221832275, -1.1130043268203735, -1.5397838354110718, 1.5590559244155884, -1.261462926864624, -1.9702147245407104, -0.013324313797056675, -2.424030303955078, -0.340902715921402, -1.8638180494308472, -1.7660245895385742, -1.8972675800323486, -2.218264102935791, -1.8651816844940186, -1.577521562576294, -2.3395793437957764, -1.9252915382385254, -3.587796926498413, -1.8990733623504639, -0.2084047645330429, 0.12635450065135956, -0.34085768461227417, 1.7330039739608765, 0.7056794166564941, -0.18347610533237457, -1.1202138662338257], "roundsDim": 6, "bnVarianceD": [117.97496032714844, 224.70164489746094, 39.76782989501953, 173.76434326171875, 110.98160552978516, 121.00812530517578, 7.33704948425293, 64.34358978271484, 60.34817886352539, 137.62942504882812, 89.32356262207031, 62.225677490234375, 92.1325454711914, 158.77513122558594, 209.9107666015625, 124.42059326171875, 40.17668151855469, 73.82308959960938, 52.29169845581055, 166.42288208007812, 96.93839263916016, 116.86691284179688, 176.22695922851562, 139.75621032714844, 239.70687866210938, 111.9246597290039, 120.19992065429688, 57.87023162841797, 33.625389099121094, 64.23493957519531, 139.2930450439453, 35.571956634521484], "typesDim": 3, "className": "reception", "bnMeanA": [1.0112111568450928, 4.691856384277344, -3.8481287956237793, -2.92470121383667, -2.223085641860962, -0.460879385471344, -2.3352770805358887, 0.482461541891098, -0.3048945963382721, -1.1254175901412964, -0.6775807738304138, 1.9227217435836792, 5.900060176849365, -0.42042550444602966, 6.410144805908203, 4.14651346206665], "convKernelB": [-1.274823784828186, -0.10419496893882751, 0.46677258610725403, -1.795372724533081, 0.5234770774841309, 1.1053643226623535, 0.8405673503875732, 0.9678147435188293, -1.3158552646636963, -0.7486434578895569, 0.7393749356269836, 0.18711407482624054, -2.2628493309020996, 1.2098361253738403, -0.20502828061580658, 0.057601120322942734, 0.8056931495666504, 0.3521208167076111, -0.5680949687957764, 0.5255140066146851, -0.4183519780635834, 0.26376402378082275, -0.5287129878997803, 1.378326416015625, -0.17182625830173492, -1.5199416875839233, 0.4286538362503052, 1.1940133571624756, -0.5375843644142151, -2.190288543701172, -0.08774939924478531, 1.5723730325698853, 0.7701083421707153, 0.7807030081748962, 0.15621693432331085, -0.967907190322876, 0.6182321906089783, -0.28127387166023254, -1.3552180528640747, 0.38979020714759827, 0.7083355784416199, -0.7265337705612183, 0.24368399381637573, -0.23224611580371857, 0.04464690387248993, 1.1465095281600952, 0.7412596344947815, -0.31920599937438965, 0.09699754416942596, 0.10102452337741852, -0.7154970169067383, 0.4386684000492096, -0.9627452492713928, -1.1072800159454346, 0.885552167892456, -0.013934371992945671, 0.4516044855117798, -0.554505467414856, 0.20357735455036163, 0.0022663637064397335, 0.9671875834465027, 0.37579867243766785, 1.726650357246399, -1.9492288827896118, -0.4322541058063507, -0.23137050867080688, 0.18875575065612793, 0.5447779893875122, 0.14232313632965088, 1.7885814905166626, -1.5117781162261963, -1.4247263669967651, 0.751491904258728, -1.629535436630249, 0.31942567229270935, -0.1435287892818451, 1.003406047821045, 1.2615302801132202, -0.4089151620864868, -0.3924834430217743, 0.5603213906288147, 0.26163631677627563, 1.3297820091247559, -0.4306262731552124, 0.002517414279282093, -0.3671160042285919, -0.652681827545166, 0.30849549174308777, 0.29265499114990234, -0.6015126705169678, -1.4381632804870605, -0.4032692313194275, -1.3529146909713745, -1.4356712102890015, -0.4312235116958618, -0.0849827229976654, -0.757816731929779, -1.428391695022583, 0.00551479309797287, 0.1999177783727646, -0.249815434217453, 2.297396421432495, 0.029686633497476578, -2.331164598464966, -0.0349431149661541, -1.8017427921295166, -0.42536094784736633, -0.37526020407676697, 1.26021146774292, -0.537503182888031, -0.30005475878715515, -0.4638204872608185, 0.35202911496162415, 0.3677787780761719, 1.0319817066192627, -0.6617408394813538, -0.37635353207588196, 0.05634765326976776, -1.171608328819275, 1.0205419063568115, -0.32456910610198975, -0.03884323686361313, -2.801004409790039, -0.8448107242584229, -0.6653192043304443, -0.18972110748291016, -0.5592235326766968, 0.9625383019447327, -0.248943492770195, -0.23129865527153015, 0.4364071488380432, -0.4753711521625519, 0.7604483366012573, 1.371090292930603, 0.6701709628105164, -1.5515345335006714, 0.5610489845275879, -1.8638908863067627, 0.0632346048951149, -0.04659143090248108, -0.8825873732566833, 1.0763425827026367, 0.20728206634521484, -0.38888654112815857, 0.2345387041568756, 0.29113706946372986, -0.1310039907693863, -0.6559171676635742, -0.5121020674705505, -0.07130259275436401, 0.6902658939361572, 1.115814208984375, 0.6902052164077759, -1.4312790632247925, -2.0768370628356934, -0.19502656161785126, -0.6324259042739868, -0.8355821371078491, 1.0221604108810425, 0.5047749876976013, 1.0928829908370972, 0.3520132899284363, -0.29208531975746155, 0.827105700969696, -1.2553550004959106, -0.2700789272785187, -0.36390551924705505, -1.591914415359497, -0.7619844079017639, 1.2813390493392944, -0.780613124370575, -0.7546072006225586, 1.0078113079071045, -0.03655401989817619, -0.3920900821685791, -0.334193617105484, -1.1032800674438477, -0.2070164531469345, 1.8360259532928467, -1.2674158811569214, 0.95345139503479, 1.174880862236023, 0.8927396535873413, 1.0536633729934692, -0.48007529973983765, 0.38243594765663147, 0.8917557597160339, -2.564110517501831, 1.4052475690841675, 1.5727837085723877, -0.14884184300899506, -1.526589035987854, 0.3835033178329468, 0.036994438618421555, -0.004227845463901758, 0.4518806040287018, -1.0484665632247925, 0.725779116153717, -0.292402982711792, 0.04183853417634964, -0.23848551511764526, 0.5938406586647034, 0.47118133306503296, -0.029706601053476334, 0.7478985786437988, 1.0249531269073486, -0.4205108880996704, 0.07661285251379013, -0.10869532823562622, -0.24412965774536133, 0.9896716475486755, 0.6708356738090515, -0.746016263961792, -0.7639033794403076, -0.636879563331604, 1.839672565460205, -0.08640548586845398, -0.11764728277921677, -0.06675297766923904, -0.028331289067864418, 0.2316817194223404, 0.5262368321418762, -0.18660157918930054, -0.9528356790542603, -0.3523354232311249, 0.09167123585939407, 0.24771584570407867, -0.13590693473815918, 0.2962046265602112, 0.9943555593490601, 0.10028117150068283, -0.20822253823280334, -0.26917213201522827, -0.09584323316812515, 0.29146575927734375, 0.21672695875167847, -1.0484225749969482, 0.5657323598861694, 0.0775914117693901, -0.08222590386867523, 0.4206303656101227, 0.250725120306015, -0.7724507451057434, -0.424195259809494, -0.060618527233600616, 0.26781514286994934, 0.013655856251716614, 0.7711815237998962, 0.2678753435611725, -0.5899919271469116, -0.7634022235870361, 0.2454642504453659, -0.7383680939674377, -0.6441656947135925, -0.006721410434693098, 1.0851901769638062, 0.15237338840961456, 0.053431808948516846, 0.1707245409488678, -0.21443089842796326, -0.5089424252510071, -0.5991067290306091, -0.09653964638710022, -0.8111675977706909, -0.7306786775588989, 0.6646236777305603, -0.025415295735001564, 0.6003502607345581, -0.0345955416560173, 0.4783993661403656, -0.1965143233537674, 0.5610160827636719, 0.03895051032304764, -0.11908527463674545, -0.2769296169281006, 1.2625646591186523, 0.7099236845970154, 0.17300035059452057, -0.0750482901930809, -0.05600611865520477, -0.058403849601745605, 0.43174076080322266, -0.336267352104187, -0.4998055100440979, 0.3567102551460266, 0.21685540676116943, -0.6951220035552979, -0.2626452147960663, 0.3164786398410797, 0.7706807851791382, -0.24473819136619568, -1.363069772720337, -1.0609365701675415, 0.06543003022670746, 0.996086835861206, -0.2033982276916504, 0.2264070361852646, -1.6462563276290894, 0.40409889817237854, 0.23468603193759918, -1.2043122053146362, -0.18650080263614655, 0.5930323004722595, -0.2903021275997162, 0.14030033349990845, -0.10242564976215363, -0.8683019280433655, 1.9519057273864746, -0.16530741751194, -0.40857064723968506, 1.418400526046753, -0.706185519695282, 0.36784565448760986, -1.272310495376587, -0.4699000418186188, 0.40685057640075684, 0.5748634934425354, -0.09850212186574936, 1.240729570388794, 0.7425742745399475, 0.33431103825569153, 0.3769420087337494, 0.11348045617341995, -0.5943703651428223, 0.458585649728775, 0.21514540910720825, -1.1486924886703491, 0.9311732649803162, 1.242271065711975, -0.21645712852478027, 0.38443300127983093, -0.35053929686546326, -1.223528504371643, -0.41505616903305054, 0.37709394097328186, -0.4743979275226593, 0.13762390613555908, 0.22219659388065338, 1.3690123558044434, 0.7154374122619629, -1.7007596492767334, -1.3417444229125977, -0.40756359696388245, 0.03878007084131241, 0.20639465749263763, -0.5302348732948303, -0.06127239391207695, 0.8568704724311829, 0.266889363527298, -0.8067067265510559, -0.2864443063735962, -0.719123125076294, 0.8756148219108582, -0.10387367010116577, -0.11238135397434235, -0.4437783658504486, -0.4434907138347626, -0.36920100450515747, -0.13201043009757996, 0.1326046884059906, 1.2696259021759033, 0.7760192155838013, -0.1628420650959015, -0.1017702966928482, 0.41976818442344666, -1.0210778713226318, 0.27962905168533325, 0.11495806276798248, -0.34923142194747925, -0.20636512339115143, -0.4081832766532898, 0.7382414937019348, -1.5282704830169678, -1.3280037641525269, -0.9123839139938354, 1.9065489768981934, -0.23334901034832, 0.34905868768692017, 0.18330706655979156, -0.6273007392883301, 1.3201920986175537, 0.6100476384162903, 0.30320441722869873, -0.7273560762405396, 0.060915738344192505, -0.27935394644737244, 0.07591644674539566, 0.8824554085731506, 0.3555099368095398, -0.0887821838259697, 1.0141724348068237, -0.8239466547966003, 2.0115299224853516, 0.42497605085372925, -0.05773093178868294, -0.11279625445604324, 0.9150020480155945, 1.0514642000198364, -0.06671355664730072, -0.5274477601051331, 0.573419988155365, -0.055909764021635056, -0.7708471417427063, -2.116387128829956, 1.2098124027252197, 0.671349823474884, -0.10488305985927582, -0.10779333859682083, 0.582004725933075, 1.5098108053207397, -0.4337857961654663, -0.5192232131958008, -0.3662019371986389, 0.4331143796443939, 0.5667331218719482, -0.4565097689628601, 0.6007447242736816, 0.3108515739440918, 0.16867630183696747, -0.8524405360221863, 1.131762981414795, 0.3751610517501831, 0.8389319777488708, -0.5775728225708008, 2.252312183380127, -1.586626410484314, 0.538273811340332, -0.12272694706916809, -1.056654691696167, 1.4466333389282227, 0.7335848212242126, 0.5909928679466248, 0.8651313781738281, 0.6872538924217224, -0.36036601662635803, -0.7714882493019104, -1.3967176675796509, -0.3106720447540283, 0.49964383244514465, -0.18658412992954254, 1.0988911390304565, -0.6716014742851257, -0.2655143141746521, 0.25613126158714294, 0.5615693926811218, 0.6505194902420044, 1.7840083837509155, -0.5460636019706726, 0.2301308661699295, 0.19297443330287933, -0.21569795906543732, 0.16977226734161377, 0.7413444519042969, 0.3038668930530548, -1.3123987913131714, -0.19745206832885742, 0.5156304240226746, 0.9192073941230774, 0.0398796908557415, -0.5281911492347717, 0.6797696352005005, -0.029691854491829872, -0.05926062911748886, -0.9008533358573914, 0.09902859479188919, 0.09717492014169693, -1.9892750978469849, -0.15684281289577484, -1.3571523427963257, -2.5960583686828613, -0.5307806134223938, 1.4675805568695068, -0.075910285115242, 1.1054679155349731, -0.08086921274662018, -0.46723952889442444, 0.10478692501783371, 0.2402293086051941, -0.15689857304096222, -2.0041139125823975, -0.7724368572235107, 0.22668273746967316, -0.16426028311252594, 0.7003127932548523, 0.952857494354248, 0.4320083558559418, -1.1505675315856934, -0.5817659497261047, 0.07049018889665604, 1.3260554075241089, -0.31520208716392517, -0.39225825667381287, 1.2124303579330444, -0.010608959011733532, -0.5524778366088867, -1.1183034181594849, 0.25733232498168945, 0.15635129809379578, 0.07457122951745987, -1.4710134267807007, -0.10354776680469513, -0.8143289685249329, 1.3274405002593994, 1.3741247653961182, -0.003834740724414587, 0.8933127522468567, -0.0242405217140913, -0.8629052042961121, -1.5110729932785034, -1.2581264972686768, -1.1265939474105835, 0.435430109500885, -1.1107935905456543, 0.09454414248466492, 0.31564444303512573, -2.006082534790039, 0.039473239332437515, 1.1587215662002563, 0.7205100655555725, 0.9297312498092651, -1.0980738401412964, -0.9637736082077026, 0.4563845694065094, -0.016031241044402122, -2.2735774517059326, 1.1007802486419678, -0.26388686895370483, 0.5025975704193115, 1.0436391830444336, 0.3379535377025604, -0.2610306143760681, 0.389214426279068, -0.5418497323989868, 0.1678287237882614, -0.5278355479240417, 1.769808292388916, 0.2820095717906952, -1.3892887830734253, 0.6642388105392456, 0.9156702160835266, -0.3177304267883301, -2.333735227584839, 0.24130870401859283, 1.2474457025527954, 0.6409328579902649, 0.4550389051437378, 0.13784410059452057, -0.7225027680397034, 0.2766300141811371, -0.05321154370903969, -1.1312024593353271, 0.6045497059822083, 0.6560529470443726, -0.66187584400177, 0.5411707162857056, -0.0501079224050045, -0.05580686777830124, 2.0041630268096924, 0.9548096656799316, -0.32457074522972107, 0.36171379685401917, 0.0723549872636795, -0.41019219160079956, 0.5700640082359314, -0.7124823331832886, -1.2248461246490479, 0.7479225993156433, -0.49475812911987305, 0.6764429807662964, -0.18630672991275787, 0.23573856055736542, 0.2035026252269745, 0.7325552105903625, 0.46495726704597473, 1.6928491592407227, -1.5652464628219604, -0.3551943600177765, -0.22317005693912506, -0.010147136636078358, 0.7494360208511353, 0.49507424235343933, 1.7563743591308594, -1.0624412298202515, -1.2587841749191284, 0.9971489310264587, -1.3721781969070435, 0.09831739962100983, 0.09958083927631378, 1.3244391679763794, 1.5035797357559204, -0.19028593599796295, -0.40678367018699646, 0.3259360194206238, 0.4029092490673065, 1.5467567443847656, -0.836431622505188, 0.5598477721214294, -0.41552698612213135, -1.0112515687942505, -0.09449400752782822, 0.27860206365585327, -0.4185759723186493, -1.1655192375183105, -0.19329644739627838, -1.2852309942245483, -1.158354640007019, -0.7476910948753357, -0.09486505389213562, -0.38715311884880066, -1.3119938373565674, -0.2827214300632477, 0.3693098723888397, 0.2855502665042877, 2.1248252391815186, -0.06549014151096344, -2.05053448677063, 8.908951713237911e-06, -1.8061922788619995, -0.29382529854774475, -0.47301608324050903, 1.227974772453308, -0.7786703109741211, -0.4615315794944763, -0.4550224840641022, 0.005660490598529577, 0.36170142889022827, 0.9473114013671875, -0.5735370516777039, -0.5559014678001404, 0.17290084064006805, -1.3487937450408936, 0.9421941041946411, 0.16820308566093445, 0.01132773607969284, -2.4541068077087402, -0.6383888721466064, -0.9178451895713806, -0.22998791933059692, -0.4931879937648773, 1.125046968460083, -0.39365512132644653, -0.09137937426567078, 0.03083701804280281, -0.4976235628128052, 0.6090584993362427, 1.5031588077545166, 0.618725061416626, -1.646162509918213, 0.2706846594810486, -1.6620407104492188, 0.3615994453430176, 0.007413492538034916, -0.8674688935279846, 1.1896791458129883, 0.1987147480249405, -0.4910939335823059, 0.2460511177778244, 0.17369407415390015, -0.38893041014671326, -0.6307907700538635, -0.2262653261423111, -0.2216903567314148, 0.7800230383872986, 0.7801321744918823, 0.6976853609085083, -1.3144862651824951, -1.6097968816757202, -0.07022860646247864, -0.7064612507820129, -0.9715497493743896, 1.228346347808838, 0.41434478759765625, 1.2204034328460693, 0.29736098647117615, -0.23536060750484467, 0.9049023389816284, -1.2567404508590698, -0.28027838468551636, -0.3887730538845062, -1.7512191534042358, -0.48240721225738525, 1.2494394779205322, -0.7502111196517944, -0.6236632466316223, 0.840060830116272, 0.023599032312631607, -0.2990289628505707, 0.16571258008480072, -0.9623116850852966, -0.2505394518375397, 1.763056993484497, -0.6364683508872986, -0.34618502855300903, 1.1628553867340088, 1.0290093421936035, 1.3640211820602417, -0.36273467540740967, 0.5265225768089294, 0.9411274194717407, -2.26819109916687, 1.5013960599899292, 1.8474743366241455, -0.10270868241786957, -1.231541395187378, 0.37461069226264954, 0.043878816068172455, -0.1374617964029312, 0.43414831161499023, -0.39253735542297363, 0.5925808548927307, -0.5491570830345154, -0.03103206306695938, 0.21121296286582947, 0.8071792125701904, 0.2411683201789856, 0.15360715985298157, 0.7838042378425598, 1.020981788635254, -0.47556769847869873, -0.09391219913959503, -0.21508893370628357, -0.0744602382183075, 1.141967535018921, 0.4910225570201874, -1.2160335779190063, -1.223543405532837, -0.8945779204368591, 1.791764497756958, -0.1523865908384323, -0.17409951984882355, -0.045710425823926926, -0.313198447227478, -0.006465365644544363, 0.11378507316112518, -0.2917333245277405, -1.1015982627868652, -0.5006084442138672, 0.07717110216617584, 0.2593305706977844, -0.21308603882789612, 0.2563721835613251, 1.0161844491958618, 0.5052670836448669, -0.5706185102462769, -0.4795335829257965, 0.25929373502731323, 0.6133353114128113, 0.31133177876472473, -0.9984750151634216, 0.6186525225639343, -0.17161841690540314, -0.09463740140199661, 0.5552489161491394, 0.15776586532592773, -0.9484544396400452, -0.4679498076438904, 0.0064804283902049065, 0.1849205195903778, -0.07486443966627121, 0.7873026132583618, 0.23664236068725586, -0.03973449021577835, -0.4279978275299072, 0.7743367552757263, -0.640591561794281, -0.5965026021003723, -0.14905190467834473, 0.9500432014465332, 0.3059976398944855, 0.24339459836483002, 0.18567988276481628, -0.4366118907928467, -0.43903815746307373, -0.28367412090301514, 0.11002366244792938, -0.7926285266876221, -0.4263201355934143, 0.12620486319065094, -0.07310398668050766, 0.4634833335876465, -0.20801052451133728, 0.6306369304656982, -0.09321976453065872, 1.0147058963775635, 0.05374176800251007, -0.19491077959537506, 0.007285981439054012, 1.705220103263855, 1.1389647722244263, 0.40003883838653564, 0.19096602499485016, -0.2775370180606842, -0.006877509877085686, 0.11515170335769653, -0.45964324474334717, -0.4512574076652527, 0.7537288665771484, 0.4459712505340576, -0.6905078887939453, -0.3424036204814911, 0.43554607033729553, 1.0236504077911377, -0.1325143426656723, -1.3800363540649414, -0.6115317940711975, 0.07963865250349045, 1.1071555614471436, -0.13342349231243134, 0.11817219853401184, -1.6282105445861816, 0.22513587772846222, 0.12465053051710129, -1.2213457822799683, -0.058863166719675064, 0.5251853466033936, -0.3096279203891754, 0.20458154380321503, -0.048405442386865616, -0.734103262424469, 1.8777297735214233, -0.13228517770767212, -0.4733758568763733, 1.5558140277862549, -0.82225501537323, 0.5303183794021606, -1.1694831848144531, -0.30213087797164917, 0.3675430119037628, 0.44050484895706177, -0.3996802866458893, 1.1025694608688354, 0.47778546810150146, 0.28537386655807495, 0.370364248752594, 0.08867897093296051, -0.7907971739768982, 0.4181828200817108, 0.34761160612106323, -1.0909873247146606, 0.6077699065208435, 1.2967238426208496, -0.38015544414520264, 0.22193150222301483, -0.2746542990207672, -1.3083235025405884, -0.37987416982650757, 0.4811365008354187, -0.21715527772903442, 0.17444723844528198, 0.1694639027118683, 1.1524758338928223, 0.3146452009677887, -2.035081624984741, -1.38359534740448, -0.14372853934764862, 0.39996016025543213, 0.06523659825325012, -0.2622598111629486, 0.01984911412000656, 0.6105539202690125, 0.03688310459256172, -0.6022876501083374, 0.3678171932697296, -1.2141163349151611, 0.3854649066925049, 0.08141952753067017, -0.1690884530544281, -0.657635509967804, 0.07107391953468323, 0.046008702367544174, -0.10552565008401871, -0.06782840937376022, 1.2340484857559204, 0.6319659948348999, -0.08827507495880127, -0.27066943049430847, 0.13210472464561462, -0.7637607455253601, 0.2732947766780853, 0.08834809809923172, -0.25058212876319885, -0.07094259560108185, -0.5010160803794861, 0.9023235440254211, -1.6493561267852783, -1.2494635581970215, -0.9883902668952942, 1.8245069980621338, -0.3843206465244293, 0.4521358013153076, 0.13730794191360474, -0.4311249256134033, 0.8925029039382935, 0.7037543654441833, 0.45769813656806946, -0.8293965458869934, 0.0820322036743164, -0.3420749008655548, -0.09842511266469955, 0.8905225992202759, 0.6694884896278381, -0.13439705967903137, 0.9141862988471985, -0.7612882256507874, 1.8945410251617432, 0.24111071228981018, -0.25839442014694214, -0.23139052093029022, 1.2174413204193115, 0.7773385047912598, 0.2675541341304779, -0.8905082941055298, 0.9066998362541199, 0.26978790760040283, -0.930036187171936, -1.8192731142044067, 0.5497042536735535, 0.5265379548072815, -0.22235099971294403, -0.1738976091146469, 0.3610904812812805, 1.675572156906128, -0.18666991591453552, -0.4862099587917328, -0.14270195364952087, 0.8098520040512085, 1.0809799432754517, -0.3804980218410492, 0.13413865864276886, 0.07091137766838074, 0.18560712039470673, -1.0062904357910156, 1.2921264171600342, 0.4170456826686859, 0.7890322804450989, -0.4420548677444458, 2.2387518882751465, -1.6708388328552246, 0.546524703502655, -0.024599863216280937, -1.2044583559036255, 1.5346624851226807, 0.696357011795044, 0.17823877930641174, 0.8914821743965149, 0.4917624890804291, -0.11022669821977615, -0.914107084274292, -0.36924025416374207, -0.11902953684329987, 0.35539230704307556, 0.43568792939186096, 1.0725762844085693, -0.6877421736717224, -0.06486950814723969, 0.282259076833725, 0.5529207587242126, 0.18548916280269623, 1.7321542501449585, -0.4666145145893097, 0.08785532414913177, 0.25392723083496094, -0.1755007654428482, 0.16280987858772278, 0.3543817698955536, 0.2786308526992798, -1.4269626140594482, -0.22962479293346405, 0.6212900876998901, 1.0922759771347046, -0.2018502950668335, -0.4524751603603363, 0.44774407148361206, 0.09921970218420029, -0.0542275607585907, -0.6285881996154785, 0.08109144866466522, -0.03475063294172287, -2.029745578765869, -0.17449131608009338, -1.1806832551956177, -2.3223211765289307, -0.6880024075508118, 1.2487061023712158, 0.2712614834308624, 0.8848652243614197, 0.2206937074661255, -0.8309853076934814, 0.05423704534769058, 0.09140878915786743, -0.4514257311820984, -1.8130086660385132, -0.9133853316307068, 0.48836955428123474, -0.02972862496972084, 0.5862664580345154, 0.7231059074401855, 0.4458887577056885, -1.5969939231872559, 0.07045818120241165, 0.04593661054968834, 1.3042200803756714, -0.14588245749473572, -0.5683863162994385, 0.9366548657417297, 0.03513755276799202, -0.7716228365898132, -1.8925583362579346, 0.08701442182064056, -0.03144198656082153, 0.15487676858901978, -1.662759780883789, 0.4274578392505646, -0.3536430299282074, 1.1667100191116333, 0.9719840884208679, -0.06306611746549606, 0.31084585189819336, 0.050751905888319016, -0.438232421875, -1.6165651082992554, -1.0431138277053833, -1.4498262405395508, 0.44768083095550537, -1.2973271608352661, -0.043956633657217026, 0.5785635709762573, -1.6682437658309937, 0.39070892333984375, 0.7997057437896729, 0.8539131879806519, 1.149629831314087, -1.196287751197815, -0.9232590198516846, 0.6912370324134827, 0.22835902869701385, -1.9856990575790405, 1.190158724784851, -0.2698865234851837, -0.1208447739481926, 0.911027193069458, 0.3752577304840088, -0.5854868292808533, 0.27642691135406494, -0.9055652618408203, -0.02720058150589466, -0.7178899645805359, 2.0574216842651367, 0.0393807552754879, -1.3024779558181763, 0.35460931062698364, 1.2018853425979614, -0.49931615591049194, -2.337310552597046, -0.056423671543598175, 1.6260641813278198, 0.5571317076683044, 0.681938886642456, 0.2389262616634369, -0.8277583122253418, 0.4847066402435303, -0.1697676181793213, -1.1081668138504028, 0.311272531747818, 0.5501193404197693, -0.7427165508270264, 0.34558629989624023, -0.3882013261318207, -0.2002914398908615, 1.8716497421264648, 0.7723761796951294, -0.1399732083082199, 0.14016079902648926, 0.2989993095397949, -0.540202796459198, 0.29232755303382874, -1.2340832948684692, -0.6947135329246521, 1.1893599033355713, -0.36349108815193176, 0.5085357427597046, -0.6379075050354004, 0.30485790967941284, -0.02343175746500492, 1.1577202081680298, 0.20359525084495544, 2.0750889778137207, -1.6183569431304932, -0.4861271381378174, -0.3766205310821533, -0.16493596136569977, 1.0158839225769043, 0.1836802065372467, 1.7743278741836548, -1.4411054849624634, -1.305510401725769, 0.2563971281051636, -1.7587718963623047, 0.01978970319032669, -0.31252723932266235, 1.5110474824905396, 1.393936276435852, -0.22310218214988708, -0.843748152256012, 0.38790830969810486, 0.24514879286289215, 1.1626642942428589, -0.6810667514801025, -0.159773051738739, -0.9150089621543884, -0.8601898550987244, 0.1229894682765007, 0.16868789494037628, -0.17651152610778809, -1.2207671403884888, -0.5321155786514282, -1.4024032354354858, -0.7706944346427917, -0.6947026252746582, 0.499593585729599, -0.4753049910068512, -1.1312751770019531, -0.22047562897205353, 0.7830656170845032, -0.034614820033311844, 2.1720378398895264, -0.14799939095973969, -2.094141721725464, -0.34108906984329224, -2.064941167831421, -0.38816678524017334, -0.2891394793987274, 1.4629113674163818, -0.6976497173309326, -0.3257012963294983, -0.5356185436248779, 0.10090919584035873, 0.22801777720451355, 0.8431363701820374, -0.5678694844245911, -0.6476663947105408, 0.33929115533828735, -1.0184025764465332, 0.8889282941818237, -0.09377459436655045, -0.2780247926712036, -2.773587226867676, -1.1238270998001099, -1.0383899211883545, -0.3340475857257843, -0.554779589176178, 1.1313436031341553, -0.38842782378196716, -0.18889416754245758, 0.23007941246032715, -0.6756243109703064, 0.5315775275230408, 1.4877320528030396, 0.2533358037471771, -1.7236372232437134, 0.476626455783844, -1.8241722583770752, 0.18978382647037506, -0.1047535389661789, -1.0527329444885254, 0.8880282044410706, 0.11013816297054291, -0.2819862365722656, 0.10157865285873413, 0.13182172179222107, -0.1847589910030365, -0.41416025161743164, -0.9589471817016602, -0.04248783737421036, 0.6672243475914001, 0.6205299496650696, 0.2446010261774063, -1.5979328155517578, -1.561572790145874, 0.020760687068104744, -0.7003040909767151, -0.8182938694953918, 1.0949699878692627, 0.6889537572860718, 1.2393527030944824, 0.15495285391807556, -0.3240453004837036, 0.9531115293502808, -1.0698503255844116, -0.2880306839942932, -0.6977388858795166, -1.6511931419372559, -0.5351400971412659, 1.3180296421051025, -0.5655574798583984, -0.6856096982955933, 1.046331524848938, 0.24686968326568604, -0.29849767684936523, -0.31271299719810486, -0.8631368279457092, -0.19804158806800842, 1.7991688251495361, -1.1128804683685303, 0.734373927116394, 1.3555434942245483, 1.0839176177978516, 1.0366640090942383, -0.47176772356033325, 0.6795346140861511, 0.7239179611206055, -2.672877550125122, 1.5625345706939697, 1.5957589149475098, 0.06449049711227417, -1.5585672855377197, 0.22663819789886475, -0.4983140230178833, -0.09811363369226456, 0.6925689578056335, -0.509922981262207, 0.781886100769043, -0.2975846230983734, -0.1493159383535385, -0.4329085350036621, 0.7068673968315125, 0.1728115975856781, -0.13419531285762787, 0.6730062961578369, 1.066387414932251, -0.1977020800113678, -0.019018935039639473, -0.18471759557724, 0.12580031156539917, 0.912011981010437, 0.7134976387023926, -1.2054139375686646, -1.1105719804763794, -1.5219535827636719, 1.8808106184005737, -0.3351956605911255, -0.4389705955982208, -0.11866436898708344, -0.13539698719978333, -0.3576017916202545, 0.09926798939704895, -0.2732228636741638, -0.9707502722740173, -0.3932073414325714, 0.05761786550283432, 0.35129448771476746, -0.3029279112815857, 0.2256443053483963, 1.1742007732391357, 0.16530655324459076, -0.6646057367324829, -0.2023373395204544, 0.05302536115050316, 0.3740890324115753, 0.4291808307170868, -1.1606098413467407, 0.8896044492721558, -0.22141146659851074, 0.003181097097694874, 0.5608330368995667, 0.09222503006458282, -0.5762324929237366, -0.47563636302948, -0.06512939184904099, 0.1969963014125824, -0.022753793746232986, 1.221286416053772, -0.18062517046928406, -0.3809453845024109, -0.6381257772445679, 0.6183030605316162, -0.5061410069465637, -0.4048389196395874, -0.04922522231936455, 0.8684276938438416, 0.10674029588699341, 0.3075083792209625, -0.12169592082500458, -0.2947588264942169, -0.23369649052619934, -0.3250376582145691, 0.44241398572921753, -0.5919835567474365, -0.47886115312576294, 0.40526083111763, 0.07316691428422928, 0.5348957777023315, -0.20056770741939545, 0.0856860876083374, -0.24733400344848633, 0.7941849827766418, 0.21502819657325745, 0.1429923176765442, 0.40004217624664307, 1.783897042274475, 0.4623193144798279, 0.21251919865608215, 0.09804868698120117, 0.18817397952079773, -0.03441917151212692, 0.5533130168914795, -0.1614990085363388, -0.07769069820642471, 0.4137933552265167, -0.05945177003741264, -0.4505481421947479, -0.3015674352645874, 0.5112467408180237, 0.9303933382034302, 0.10244166105985641, -1.4573687314987183, -1.2157915830612183, -0.02880917489528656, 0.8636741638183594, -0.28519272804260254, 0.30586525797843933, -1.6221144199371338, 0.2977367043495178, -0.0336298868060112, -1.3265694379806519, -0.1886141151189804, 0.6144897937774658, -0.2587415277957916, -0.03335094824433327, 0.10993320494890213, -0.751061201095581, 1.8673967123031616, -0.054113149642944336, -0.8186935186386108, 1.4378687143325806, -0.6806784868240356, 0.42491286993026733, -1.2399601936340332, -0.12073706090450287, 0.37316030263900757, 0.7253860831260681, -0.07972703874111176, 1.0643354654312134, 0.9491378664970398, 0.33818164467811584, 0.47100815176963806, 0.06570199131965637, -0.5964622497558594, 0.5539361834526062, -0.12576593458652496, -1.0911885499954224, 1.0099897384643555, 1.2982333898544312, -0.12769339978694916, 0.33858415484428406, 0.03952939435839653, -1.1705043315887451, -0.07243461161851883, 0.5889292359352112, -0.5557602047920227, 0.03962218761444092, 0.01771308295428753, 1.3960435390472412, 0.41928672790527344, -1.440787434577942, -1.3974974155426025, -0.34363484382629395, 0.24505823850631714, -0.11202032119035721, -0.3982554078102112, 0.005195390433073044, 0.9646780490875244, -0.10699976235628128, -0.7894827723503113, 0.19656093418598175, -0.6582979559898376, 0.7645732760429382, -0.158491313457489, 0.1752857267856598, -0.6830342411994934, -0.13480401039123535, 0.02189776673913002, -0.42860016226768494, -0.16147953271865845, 1.4343316555023193, 0.6198312044143677, 0.03836771473288536, -0.15285132825374603, 0.03772975131869316, -0.4248262345790863, 0.3859570026397705, 0.2919606864452362, -0.11625310778617859, -0.2110743224620819, -0.37346798181533813, 0.8583436012268066, -1.6314839124679565, -1.5437114238739014, -0.8842819929122925, 2.315687656402588, -0.014856432564556599, 0.3972283601760864, 0.05326910689473152, 0.11423474550247192, 1.214851975440979, 0.37161219120025635, 0.4435654580593109, -0.7214463353157043, -0.09438483417034149, -0.5353522896766663, -0.36029374599456787, 0.907485842704773, 0.876042366027832, -0.16901801526546478, 1.1278632879257202, -0.8631143569946289, 2.100132942199707, 0.35529690980911255, -0.3753000795841217, -0.24232879281044006, 0.9797045588493347, 0.8837449550628662, 0.30612626671791077, -0.5096430778503418, 0.7458473443984985, 0.26529058814048767, -1.118882417678833, -1.887841820716858, 0.6396723389625549, 0.3680550456047058, -0.24257712066173553, -0.17299675941467285, 0.8461950421333313, 1.8643649816513062, -0.4983387291431427, -0.517198920249939, -0.4093080163002014, 0.5103359818458557, 0.9272864460945129, -0.5181742310523987, 0.5984143018722534, -0.0011061251861974597, 0.22464482486248016, -1.1900930404663086, 1.0470302104949951, 0.4487760365009308, 1.057052493095398, -0.35391584038734436, 2.145059823989868, -1.4011926651000977, 0.4298619031906128, -0.02436136268079281, -1.1069529056549072, 1.555176019668579, 0.8052225708961487, 0.49343907833099365, 0.9442043900489807, 0.4899006485939026, -0.0715203806757927, -0.6063858270645142, -1.0669183731079102, -0.2053966373205185, 0.3344181180000305, 0.5174047946929932, 0.5399008989334106, -0.5876646041870117, 0.039451081305742264, 0.19597487151622772, 0.7435868978500366, 0.7183204889297485, 1.8882877826690674, -0.2292158007621765, 0.22341686487197876, 0.11887188255786896, -0.06465693563222885, 0.11908140778541565, 0.7242085337638855, 0.268068790435791, -1.180346965789795, -0.1663820743560791, 0.44352471828460693, 0.8358316421508789, 0.033191170543432236, -0.2660812735557556, 0.6550229787826538, 0.44945028424263, 0.18738465011119843, -0.6032534241676331, 0.10221223533153534, 0.012769683264195919, -2.039553642272949, -0.1322546750307083, -1.068550944328308, -2.5579116344451904, -0.24438995122909546, 1.180321216583252, 0.3677976429462433, 1.0957322120666504, -0.17171476781368256, -0.3171035647392273, 0.13763700425624847, 0.33627673983573914, -0.416812539100647, -1.8723878860473633, -0.8524313569068909, 0.0772058293223381, -0.04021136090159416, 0.6100988388061523, 0.7459979057312012, 0.5629026293754578, -1.8945814371109009, -0.23921477794647217, -0.04092991352081299, 1.221920371055603, -0.26821374893188477, -0.4635223150253296, 1.1861125230789185, 0.3692599833011627, -0.7274294495582581, -1.3068766593933105, 0.002568267285823822, -0.06642844527959824, -0.023990266025066376, -1.5143342018127441, -0.08751863986253738, -0.5721797347068787, 0.9359792470932007, 1.176210880279541, 0.043782416731119156, 0.6642393469810486, -0.1002667173743248, -0.5034376978874207, -1.5784735679626465, -1.099885106086731, -1.5344949960708618, 0.1605551689863205], "scaleFactor": 2, "bnMeanB": [0.5089300274848938, 0.44901493191719055, -3.042734146118164, 9.978476524353027, 3.307788372039795, -15.479108810424805, -6.367844104766846, 11.86230754852295, 2.567060708999634, 22.188222885131836, -5.565218925476074, -2.931805372238159, 10.793081283569336, -17.22532844543457, -1.4470255374908447, -4.651820182800293, -5.076300621032715, -3.5074429512023926, -9.585169792175293, -8.03528881072998, 2.756434440612793, -5.312252044677734, 0.3684620261192322, -6.625723361968994, -3.427619218826294, 17.626800537109375, 11.637081146240234, -1.6261911392211914, -0.7812381982803345, 6.5081024169921875, -9.28809928894043, -7.824805736541748], "bnBetaD": [-1.6772221326828003, -1.8102847337722778, -2.3105263710021973, -2.1503024101257324, -2.171586036682129, -1.855362892150879, -1.3286832571029663, -2.326777219772339, -1.9893391132354736, -2.420910358428955, -1.6179617643356323, -2.0499048233032227, -2.4495739936828613, -0.9359694123268127, -2.760777235031128, -0.09315115213394165, -2.339229106903076, -2.650839328765869, -1.5479289293289185, -1.6334972381591797, -1.2139427661895752, -1.6856462955474854, -2.22528338432312, -2.625491142272949, -1.8613096475601196, 1.2068250179290771, -2.7636966705322266, -2.3531105518341064, -1.634908676147461, -2.401317596435547, -0.707866370677948, 0.23880280554294586], "bnVarianceA": [28.781736373901367, 18.746299743652344, 12.129107475280762, 18.773820877075195, 23.336441040039062, 30.29775619506836, 19.258506774902344, 23.329360961914062, 11.671738624572754, 14.201702117919922, 19.471580505371094, 16.210968017578125, 25.493732452392578, 28.17543601989746, 15.603081703186035, 30.29100227355957], "convKernelD": [-0.5411694645881653, -1.075889229774475, 0.8852510452270508, 0.2196418195962906, 0.17397579550743103, -0.14074580371379852, 0.27702245116233826, 0.7201525568962097, 0.762301504611969, -0.2616116404533386, -2.2650952339172363, 0.1852828711271286, 1.90631902217865, 0.5587339401245117, -0.9023295044898987, 1.2435810565948486, -0.6289324760437012, 0.6941858530044556, 1.109601616859436, 0.1696036159992218, 0.9406229257583618, 0.8029899597167969, -1.1649409532546997, 0.237635537981987, -1.5463392734527588, 0.7925776839256287, -1.1336928606033325, 0.11773834377527237, 0.42361027002334595, -0.42797771096229553, 0.012313557788729668, 0.7635992765426636, 0.5157870650291443, 0.04427436366677284, -0.8553262948989868, -0.705612301826477, 0.7261401414871216, -0.6504601240158081, -0.2241705060005188, -0.9834623336791992, 0.472616970539093, -1.867018222808838, 0.3646749258041382, -0.7313766479492188, -0.3313339650630951, -1.0004750490188599, -0.8218011856079102, 0.7000229954719543, 0.906474232673645, -1.6001427173614502, -0.5208635926246643, -0.3628690838813782, 1.440391182899475, -1.1608911752700806, -1.643676996231079, -0.5851094126701355, -0.1080714613199234, 0.8444138765335083, -0.680342435836792, -1.2215641736984253, -1.129601240158081, -0.6405965089797974, -0.2739753723144531, 0.42139002680778503, -0.8676549196243286, -2.490551233291626, 0.5737828612327576, -0.8007504940032959, -1.3655115365982056, 1.0342659950256348, -0.16859014332294464, -0.7007907032966614, -1.2237062454223633, 0.8249044418334961, 1.412129282951355, 0.6382221579551697, -1.1678149700164795, 1.0792375802993774, 0.9632240533828735, -1.3729822635650635, -0.34356147050857544, 0.17609485983848572, -0.8316741585731506, 0.19648581743240356, -1.3267914056777954, 0.7803087830543518, 1.7574937343597412, -0.47246551513671875, -0.640496551990509, -0.1900143325328827, -0.07429136335849762, 0.0035832892172038555, 0.5345614552497864, 0.2850446105003357, -0.11511263996362686, -0.2687003016471863, -0.008263817988336086, -0.8288344144821167, -0.31045612692832947, -0.47594404220581055, -0.15283320844173431, 1.4421740770339966, -0.02279525063931942, -0.2943281829357147, -0.9646754264831543, 0.9677848219871521, 0.906372606754303, 0.28764110803604126, 0.8654078245162964, 0.651735782623291, -1.020924687385559, -0.5970001816749573, 0.8529972434043884, 0.016687026247382164, 0.13737529516220093, 0.13688118755817413, -0.8149240016937256, -0.46136903762817383, 2.1083600521087646, 1.3067563772201538, 1.5264972448349, -1.2571731805801392, 1.5201470851898193, 0.21113929152488708, -0.3221348226070404, -0.14227984845638275, 0.2401573657989502, 0.33890002965927124, -0.3087269961833954, 0.6008462905883789, 0.26816362142562866, -0.8918821811676025, -1.9497212171554565, -0.7782942056655884, 0.06055586040019989, 1.6000385284423828, -0.5425093770027161, 1.0172938108444214, 0.12065853923559189, 0.3383410573005676, 0.26703494787216187, 0.0595967061817646, -0.4739409387111664, -1.589709758758545, -1.1639846563339233, -0.2112342268228531, 0.7094037532806396, -0.8059672713279724, 0.36573517322540283, -0.5928519368171692, -0.7103983163833618, -1.500848650932312, -0.9068024158477783, 0.5425057411193848, -0.436133474111557, 0.8237460851669312, 0.1233351081609726, -1.3743000030517578, -1.1838326454162598, 0.30327117443084717, 0.5806083083152771, -0.9709766507148743, -0.21462292969226837, -0.48865124583244324, -5.6675511586945504e-05, -0.9718917608261108, 0.2952750027179718, 1.4386593103408813, -0.24309588968753815, 2.4731075763702393, 0.6283270120620728, -0.1916898638010025, 0.5953459143638611, 0.6046954989433289, 1.3384599685668945, -1.275902509689331, 0.4157806932926178, -0.9885291457176208, 0.928881049156189, 1.4511321783065796, 0.4371519684791565, -1.5232465267181396, -0.30778422951698303, -0.43572425842285156, -1.267768144607544, 0.4735102951526642, -1.0277163982391357, 0.011865612119436264, -0.3544403314590454, -0.7451622486114502, 0.544575572013855, -0.4018889367580414, 0.6351155042648315, -0.2340508997440338, 0.2282632291316986, -0.4491175413131714, -3.0745296478271484, -0.30132418870925903, 0.076585553586483, 0.37043848633766174, 1.57755708694458, 0.39304453134536743, -0.08701726049184799, 0.387801855802536, -0.9617143273353577, 0.3904589116573334, 1.1001185178756714, -0.43864917755126953, -0.6554262042045593, 0.5524178743362427, 0.05532291531562805, -0.9317920207977295, -0.4262581765651703, -0.05096918344497681, -0.15755611658096313, 0.04139091446995735, -0.06713584065437317, 0.03607628494501114, -0.22220471501350403, 0.24345973134040833, -0.0945209488272667, 0.6190208196640015, 0.6299882531166077, -0.00040671462193131447, -3.246853828430176, -1.3244472742080688, -0.45537900924682617, -0.4791313111782074, -1.1068705320358276, -1.3437283039093018, -0.006941512692719698, 0.0484774075448513, -0.3438442349433899, -0.1708647906780243, -1.2395097017288208, -0.4856288731098175, 1.226278305053711, 0.6248008012771606, 0.47667866945266724, 1.4669513702392578, -0.3272695541381836, -0.8187808990478516, 1.4611221551895142, -0.6990115642547607, 2.000990867614746, -0.5581052303314209, -1.6865915060043335, -0.0010997094213962555, -0.4688590466976166, -0.5934464335441589, -0.32026761770248413, -0.4018019735813141, -0.698472261428833, -1.313808560371399, 0.3933504521846771, 0.8509541153907776, -1.5988723039627075, 0.29769986867904663, -0.452176958322525, -0.5693613290786743, -0.4828079342842102, -0.7210441827774048, -0.3197743892669678, 0.12009824067354202, -0.40463587641716003, 0.09697562456130981, 1.0115214586257935, -0.2980915606021881, -0.18115659058094025, 0.22754058241844177, 0.6091512441635132, 1.3973649740219116, -0.01400462631136179, -0.7187578678131104, 0.47254836559295654, -0.04456634446978569, 0.7060177326202393, -0.41797786951065063, -0.776738166809082, 0.9878402948379517, -0.2167765498161316, -0.308485209941864, -0.15058816969394684, -0.0842299833893776, -0.444315105676651, -0.8191132545471191, 0.4348168969154358, -0.03708712011575699, 1.8424025774002075, -1.8072372674942017, 0.3125748932361603, -0.2733971178531647, -1.1139750480651855, -0.5209805369377136, 0.08711637556552887, -0.1303033083677292, -1.3343979120254517, 0.5173941254615784, 0.9611266851425171, 0.7640520930290222, -0.40551990270614624, 1.6035059690475464, -0.8516224026679993, -0.9842417240142822, -1.140525221824646, -0.5724561214447021, -2.1801722049713135, -1.515912652015686, -1.4544589519500732, 1.3915125131607056, -1.4585603475570679, 0.9799447655677795, -1.2355949878692627, -0.8202314376831055, -1.0212409496307373, 0.7451406121253967, 1.4479304552078247, 0.3746282458305359, -1.428296446800232, 0.12069742381572723, -0.24264179170131683, 1.4077991247177124, -0.6279029250144958, 0.47500190138816833, -0.696697473526001, -0.26223334670066833, 0.028607981279492378, 0.14798764884471893, 2.728419542312622, -1.4622423648834229, 0.3872063159942627, -0.5638129711151123, 0.7190907597541809, -0.7891708612442017, -0.07461093366146088, -1.1995196342468262, 0.2931886315345764, 0.7282479405403137, -0.47794827818870544, -0.2628420889377594, 1.4904019832611084, 0.2453676164150238, -0.8091381192207336, -0.9604372382164001, 0.7349289059638977, 0.27791282534599304, 0.4119855463504791, 0.07326272130012512, -0.3174176514148712, -0.4248458743095398, -1.0402439832687378, -1.1558946371078491, 1.7382397651672363, 0.3989097774028778, 0.307832807302475, 0.9473240971565247, -1.7983901500701904, 0.000862149812746793, 0.2120797336101532, 1.1235672235488892, 0.7227060794830322, 0.9615727663040161, 0.24296878278255463, -0.0599726103246212, 0.5844316482543945, -0.7781590819358826, -0.6406447887420654, -3.5120797157287598, -0.8119063973426819, 0.4664373993873596, -2.385497808456421, 1.0402476787567139, 0.29828283190727234, 0.5113298296928406, 0.22297412157058716, -0.31889811158180237, -1.094770073890686, 0.9839032292366028, -0.7581493258476257, 0.19121474027633667, 0.17598234117031097, -1.0486074686050415, 0.49956873059272766, -0.24367384612560272, 0.4391031861305237, 0.29448482394218445, 0.48300644755363464, -0.9387672543525696, -0.8943332433700562, -0.9383054971694946, 0.07107909768819809, -0.4651010036468506, 1.338749647140503, -2.178201198577881, -0.4254779517650604, 0.10511086136102676, 0.3371901214122772, -0.6804521679878235, -1.725201964378357, -1.9998458623886108, -0.2814096510410309, -0.16177372634410858, 0.4786874055862427, -1.598408579826355, 1.6473532915115356, 0.8108382225036621, -1.9026943445205688, -1.7578753232955933, -1.0214974880218506, 0.3383680284023285, 0.11442118138074875, 0.4842718839645386, 0.8659663200378418, 1.212630033493042, -0.4167041480541229, -0.4106927216053009, -0.856702446937561, 1.0650423765182495, -0.3185971677303314, -0.1886046677827835, -0.6620407104492188, -1.4382529258728027, -0.18468941748142242, -0.3866824507713318, 2.134211301803589, -0.04448801651597023, 0.18392255902290344, -0.26763132214546204, 0.6656749844551086, -0.7630812525749207, -0.16244012117385864, -1.1136478185653687, -0.21748873591423035, -0.629023551940918, -0.3759489953517914, -0.9796507358551025, 2.6007561683654785, -0.8579559922218323, -1.5261011123657227, -0.7365707755088806, 0.737130343914032, 0.37248072028160095, -0.015251816250383854, 0.12341172248125076, -0.28997305035591125, -1.851209282875061, -0.7258501648902893, -0.45742297172546387, 0.2194114625453949, -0.49728578329086304, -0.3591161072254181, -0.1384575217962265, -0.3683691620826721, -0.9027129411697388, -0.1361493617296219, -0.750087320804596, -0.42672690749168396, 0.910555899143219, -0.9257657527923584, -0.5688415765762329, -0.601922869682312, 1.8049840927124023, -2.3473007678985596, 0.7432857751846313, 0.011364522390067577, -1.5241827964782715, 1.2176573276519775, -0.34145477414131165, 1.200381875038147, -1.959826111793518, -1.2019407749176025, -0.6731861233711243, -1.095610499382019, 0.14112809300422668, -0.5721235275268555, -0.38214924931526184, -0.40510037541389465, -0.6421037316322327, 0.07363168895244598, 0.4369107186794281, 0.7670760154724121, 1.1848044395446777, -0.6338902115821838, 1.0780316591262817, 1.0123305320739746, 0.9038823246955872, -0.11543960869312286, -0.28901275992393494, -0.09316473454236984, -0.6164910793304443, 2.8644988536834717, -0.39303120970726013, 0.7910262942314148, -0.9642229676246643, 0.7803881168365479, 0.13914363086223602, 1.236276626586914, -0.47164443135261536, -0.4395894408226013, 0.07043519616127014, 0.15816931426525116, 0.005410732701420784, 4.793745517730713, 1.095460057258606, 1.2731349468231201, -0.458890825510025, 0.7821062207221985, -0.4677891433238983, -1.0583317279815674, -1.2425094842910767, 0.008175402879714966, -0.29999324679374695, -0.3557415008544922, -0.49490323662757874, 0.4775864779949188, 0.8764375448226929, 1.810988187789917, 1.3756426572799683, 0.16326618194580078, -0.46221083402633667, -0.5720841288566589, -0.8702632784843445, 0.28661128878593445, 0.04300566762685776, 1.6412428617477417, -0.9962273240089417, -1.3225053548812866, 1.5269933938980103, 0.39762693643569946, 0.062491875141859055, -0.3635886609554291, -0.22177726030349731, -0.1314072161912918, 1.0932352542877197, 0.1179901510477066, 0.9913371205329895, -0.29993340373039246, 0.36532503366470337, -0.6529101729393005, 0.06333925575017929, 0.5627621412277222, -0.04657856002449989, 0.2902769148349762, 0.04790715500712395, 1.8592803478240967, 0.7282004952430725, -0.38265445828437805, -0.9704924821853638, 0.4374469220638275, -0.3590121567249298, -0.0760449543595314, 0.25810477137565613, -0.5607346892356873, -1.3225483894348145, 0.024759113788604736, -0.2733914256095886, -0.2300797700881958, -1.2509657144546509, -0.5345408320426941, -0.002961087739095092, -0.34680959582328796, -0.21627195179462433, -0.6018111705780029, 0.961431622505188, 0.678540825843811, -0.46488919854164124, -0.7398840188980103, 0.09447682648897171, 0.558461606502533, 0.2568126320838928, -0.6132094860076904, -0.4827307462692261, -0.1770169585943222, -0.12429624050855637, 1.054195523262024, 0.20001913607120514, -2.3383095264434814, -1.5324201583862305, 0.5396597981452942, -1.234614610671997, -1.9558329582214355, -0.11652813851833344, 0.01158018410205841, 1.2823385000228882, -1.1014853715896606, 1.269288420677185, 1.019284725189209, 0.4877788722515106, -1.0993088483810425, 0.4851441979408264, 1.3081324100494385, -0.9334605932235718, -0.645484209060669, 0.9375571012496948, 0.6506862640380859, 1.0162373781204224, -0.7484844326972961, 0.6523364186286926, 1.9328014850616455, -0.8188571333885193, -0.7756772041320801, -0.08470797538757324, -0.373428076505661, -0.17600740492343903, 0.28763383626937866, 0.5751429200172424, 0.6413379907608032, 0.036963142454624176, -0.33786827325820923, -0.44374141097068787, -0.34498265385627747, -1.389427661895752, -1.1848605871200562, -0.44318053126335144, 0.03973256051540375, -0.1845598965883255, 1.129472255706787, 1.2967780828475952, 0.2561679482460022, -0.14318522810935974, 0.9598528742790222, 1.0116204023361206, -1.8809216022491455, -0.5217443108558655, 0.45037198066711426, -0.8033239841461182, 0.8460054397583008, -0.9725546836853027, 1.6373950242996216, -1.0579679012298584, -0.9542453289031982, 0.5548423528671265, -0.2722916305065155, -1.7523754835128784, 0.35591238737106323, -0.19285349547863007, -0.5700064301490784, -0.2610541582107544, -2.016352653503418, -0.32909804582595825, -0.8463879823684692, 0.6520047783851624, -0.4249536097049713, 2.0630414485931396, 1.7381378412246704, 0.9065808057785034, 0.06265830993652344, -0.04740188270807266, 0.3624439835548401, -0.783710241317749, 0.3474358320236206, -0.14701703190803528, -0.6333779692649841, -1.12101411819458, -1.944184422492981, 2.841001272201538, 0.9223880171775818, -0.9082964658737183, 0.22628061473369598, -1.3539584875106812, -2.1900153160095215, 0.1267300546169281, 1.3282521963119507, 2.2356791496276855, 0.954361081123352, -0.008752220310270786, 0.440364271402359, 0.21627141535282135, 0.02274465374648571, -0.5755541920661926, -1.7583686113357544, -0.17362593114376068, -1.3682518005371094, -1.3154138326644897, -0.5123326778411865, 1.9816077947616577, 1.8385813236236572, 0.04099370539188385, 0.4959884583950043, -0.17219531536102295, -0.4826444983482361, -0.664901077747345, 0.25923749804496765, -0.4561121463775635, 0.5236063599586487, -0.13985256850719452, -0.3272535502910614, 2.1375269889831543, 2.605825185775757, -0.05836523696780205, 0.11150767654180527, -0.16135269403457642, -0.6551353931427002, -0.10053229331970215, 1.6160513162612915, 1.4017322063446045, 0.2145792692899704, -0.5212526917457581, -0.10000595450401306, -0.42872804403305054, -0.6062145829200745, -0.3016144633293152, -0.38336122035980225, -0.5595400929450989, 0.3530104160308838, -0.7759819030761719, 0.13428306579589844, 0.9219630360603333, 0.2832557260990143, 0.5030925869941711, 0.31798845529556274, -0.5287752151489258, 0.7677963376045227, 0.6385517716407776, 0.0903056412935257, 0.36598801612854004, -1.38639497756958, 0.47675663232803345, 1.395931363105774, 0.84123295545578, 0.1693776249885559, -0.26446080207824707, -0.6068474054336548, -1.7503926753997803, -1.5084105730056763, 0.1582537442445755, 0.3239014148712158, 1.297479271888733, 0.7156256437301636, -0.4836728572845459, 0.05346325784921646, 0.2865108847618103, 0.06512381881475449, 0.5040630102157593, 0.38637667894363403, -0.41961586475372314, -0.9803159832954407, -0.9006888270378113, -0.5245857238769531, 0.8774527907371521, 1.4589543342590332, -0.4001258313655853, 0.017686404287815094, 0.14565356075763702, -0.35061320662498474, -1.0130513906478882, -0.4394066035747528, -0.6083144545555115, -0.6209359169006348, -0.5311441421508789, 1.8706319332122803, 1.3108755350112915, -0.1590510904788971, -0.23819369077682495, -1.4414900541305542, -0.8297262191772461, -1.2192891836166382, -0.8254877924919128, -0.025281110778450966, 1.5830464363098145, 0.4656088948249817, 0.0588575154542923, 0.30007204413414, -0.49844035506248474, -0.6068196296691895, -0.7494246959686279, 0.6986775398254395, -0.08725890517234802, 0.0410766676068306, 0.16747815907001495, -0.1623474657535553, 0.43652886152267456, 0.6740928888320923, 0.6217899322509766, -0.12460269033908844, -0.6114709973335266, -0.20756866037845612, 0.2690427005290985, 0.021180113777518272, 0.03916074335575104, -1.0265761613845825, -0.4266050457954407, 1.6429622173309326, 0.29929280281066895, -0.4383762776851654, -0.12015319615602493, -0.028304921463131905, 0.38959819078445435, -0.788926899433136, -1.0125255584716797, -0.010015398263931274, 1.3418537378311157, 0.131064310669899, -0.20126374065876007, 0.18349823355674744, 0.13169434666633606, -0.3739297688007355, -0.5139997005462646, 1.1856153011322021, -0.16895121335983276, -0.04718594625592232, -0.9707191586494446, 0.21677297353744507, 1.5675365924835205, 0.8486772179603577, 0.660606324672699, -0.060070887207984924, -1.9165672063827515, 0.33674922585487366, -1.6461315155029297, -0.5049617290496826, 0.6696537137031555, -0.41967692971229553, -0.3219214379787445, -1.3417283296585083, 1.172020673751831, 0.027562452480196953, -1.2377170324325562, -0.5802842378616333, -0.7120090126991272, 0.20376822352409363, 0.2039681077003479, 1.1491230726242065, 2.8726837635040283, 0.8496452569961548, -0.3341819941997528, -0.07587118446826935, 0.3653644025325775, 0.7634222507476807, 0.9094177484512329, -1.0328090190887451, -0.1062590703368187, 0.3566286563873291, -0.30769938230514526, -0.450106143951416, 0.8535838723182678, 1.3418450355529785, 1.1165982484817505, 0.13336831331253052, 0.4034007489681244, 1.017094612121582, -0.4886457622051239, 0.18787486851215363, -0.15141737461090088, -0.4086475372314453, -1.0615259408950806, -0.25211676955223083, -0.41047403216362, 0.4526441693305969, 0.16391843557357788, -0.8487396240234375, 0.3355277180671692, 0.1106504574418068, -0.46198898553848267, -0.10145852714776993, 0.008595268242061138, 0.3712788224220276, 0.2981656789779663, 0.6899127960205078, 0.1797911524772644, -0.392240971326828, -0.0830816775560379, -0.2832069396972656, -0.8949320912361145, 0.12397382408380508, -0.8259406685829163, -0.1804495006799698, 2.1533524990081787, 0.6056928038597107, 2.212158679962158, 0.15359222888946533, -0.07184982299804688, 0.5364214777946472, 0.3657185435295105, 0.41503408551216125, -0.29126882553100586, 0.30223003029823303, -0.13562819361686707, -1.5549243688583374, 1.114113688468933, 0.44659224152565, -0.8385584950447083, -1.0391662120819092, 0.2805403470993042, -0.705254316329956, 0.48522594571113586, 0.5045881271362305, 0.27389851212501526, -1.001671314239502, 1.0952731370925903, -0.5362369418144226, -0.3520422875881195, -0.40437760949134827, -0.7932935357093811, -0.2765375077724457, 0.4940651059150696, 0.4843977093696594, -1.1832865476608276, 0.4434870183467865, -0.22879470884799957, 0.571502685546875, 0.5931309461593628, 0.379233717918396, -0.17690812051296234, 0.08795740455389023, -0.9441685080528259, 0.4466593563556671, 0.17446307837963104, 0.0026263727340847254, -1.2830820083618164, -1.9272876977920532, -0.44834208488464355, 0.37312257289886475, -0.26475122570991516, -0.9970692992210388, -1.3276773691177368, 0.1522282361984253, 0.9074795246124268, 0.004702169913798571, -0.39952901005744934, 0.08031606674194336, -0.3677779734134674, 1.1246016025543213, 0.39013537764549255, 0.6233674883842468, 1.9135856628417969, -0.3195043206214905, -1.2019851207733154, 0.48288336396217346, -0.3488229513168335, -0.13280820846557617, 1.2646926641464233, 2.420891046524048, 0.908332109451294, 0.0806904286146164, -0.18859738111495972, 0.3116513192653656, -1.3034987449645996, -0.6455159783363342, -0.01748039945960045, -0.8926177024841309, -1.3369030952453613, -0.2721512019634247, 0.9110697507858276, 0.18501394987106323, -0.6836961507797241, -0.4023931622505188, 0.14008161425590515, -1.4065768718719482, -0.4465251863002777, -0.46563979983329773, 1.1943143606185913, 0.8791217803955078, -0.40622782707214355, 0.7062763571739197, 0.3677750527858734, 0.26794731616973877, -0.6508944034576416, -0.10316726565361023, -0.3433677554130554, 0.47825804352760315, 0.07836862653493881, -0.450187087059021, -0.8079321384429932, 0.6589835286140442, -0.8987621665000916, -0.16446110606193542, -0.4133993983268738, -0.8777658939361572, -0.21307839453220367, 0.10959096252918243, -0.6448708772659302, 0.498678058385849, -0.48484161496162415, -1.6088727712631226, 0.36330488324165344, 0.23171178996562958, -0.9330326318740845, 0.24481289088726044, -1.165509581565857, -0.15676340460777283, -1.4017293453216553, -1.0463544130325317, -0.7329028844833374, -0.13394668698310852, 0.35054466128349304, -0.302918940782547, -0.27816927433013916, -0.12789802253246307, -0.05608204007148743, 0.4956923723220825, -0.14819185435771942, 0.5884902477264404, -0.10707245022058487, -0.15296143293380737, 0.2800993025302887, -1.461464285850525, 0.6025214195251465, -0.25009509921073914, -0.6443384289741516, -0.33723732829093933, -0.013330779038369656, 0.7627421021461487, -0.3994254767894745, -0.5024740695953369, 1.047913670539856, -0.8371728658676147, -0.5481628775596619, 0.0003296069335192442, -1.4719383716583252, -0.26162388920783997, 0.014065979979932308, 0.48863571882247925, -0.8411375284194946, 1.2123897075653076, 0.2516085207462311, 0.20068079233169556, -0.757758378982544, 0.40994614362716675, -0.5092217922210693, -0.4566567838191986, -0.8004176020622253, -1.4871491193771362, 0.1290363073348999, 0.026026064530014992, -1.5981119871139526, 0.4046049118041992, 0.3730636537075043, 0.14356650412082672, 1.917726993560791, 0.2604122757911682, -0.04258862882852554, -0.7453486919403076, -0.7534274458885193, -0.6799479126930237, 0.1401977837085724, 0.021660642698407173, -1.6035888195037842, -0.3845171332359314, -0.22580325603485107, 0.4314374029636383, -0.5348841547966003, 0.03795395791530609, -0.34753042459487915, 0.10655080527067184, 0.8438555598258972, 0.7873144149780273, -0.10254034399986267, -0.5569944381713867, 0.3784768581390381, -0.858618438243866, 0.046047721058130264, 0.4004387855529785, -0.2916727364063263, -0.33846503496170044, 0.006885649636387825, 1.293096899986267, 0.5096355080604553, -0.1200747862458229, -1.7183932065963745, -0.47039657831192017, 0.18481287360191345, -0.029408631846308708, 0.09524890780448914, -0.30373185873031616, -0.7169012427330017, -0.05920448526740074, -0.1398586481809616, 1.0093713998794556, -0.7067288756370544, -0.8379909992218018, -0.8516777753829956, -0.29664313793182373, 0.4905851185321808, 0.1780869960784912, 1.412645936012268, 0.4346388578414917, -0.10857606679201126, -0.27188771963119507, -0.8032706379890442, 1.3107969760894775, 0.43347617983818054, -0.15000487864017487, -0.2973160147666931, -0.39934781193733215, 1.0424093008041382, 0.8717226386070251, 0.35486891865730286, -1.8688827753067017, -0.6883893013000488, 0.32479751110076904, -1.0525280237197876, -0.8714800477027893, 0.027818836271762848, -0.08174148947000504, 1.1835795640945435, -0.3686830699443817, 0.5381354689598083, 0.5494207143783569, 0.1990191787481308, -0.956157386302948, 0.09312704205513, 0.5631664991378784, 0.2006489783525467, -0.25911155343055725, 0.16228899359703064, 0.4803483784198761, 0.719702959060669, 0.5325039029121399, 0.04851165786385536, 1.0885844230651855, -0.12431566417217255, -0.8241931796073914, 0.20183688402175903, -0.20348766446113586, -0.32796624302864075, -0.1344471424818039, 0.49859949946403503, -0.094091035425663, 0.0675463154911995, -0.21175485849380493, 0.41993534564971924, -0.5073285102844238, -0.7607590556144714, 0.9587379097938538, -0.6706907153129578, -0.05279587209224701, 0.10657325387001038, 0.22996973991394043, -0.424660861492157, 0.6464711427688599, -0.3200114369392395, 0.8614124059677124, 1.3185726404190063, -1.675019383430481, 0.4333702623844147, 0.3471648097038269, 0.4627777636051178, 0.12349296361207962, -0.6967949271202087, 0.31719908118247986, 0.1768934577703476, -1.718423843383789, 0.8339069485664368, -0.5434989333152771, -1.3969982862472534, 0.31807762384414673, -0.1380193680524826, -0.2664128541946411, 0.3753035068511963, -0.7833597660064697, -0.6900861263275146, 0.15782798826694489, 1.1719233989715576, 0.9153934121131897, -0.4959607422351837, -0.49783143401145935, -0.46673887968063354, 0.14119888842105865, -0.03600051626563072, 0.5983243584632874, -1.6507648229599, 0.2328079342842102, 0.7589501142501831, 0.22126269340515137, -1.5134402513504028, -0.6913406848907471, 1.1771507263183594, 0.9067201018333435, 0.6089896559715271, -0.10942094773054123, -0.040156424045562744, -0.911631166934967, 0.8337879776954651, -0.27160191535949707, 0.559701144695282, 0.3641301095485687, 0.30856168270111084, 0.47301235795021057, 0.7497254014015198, 0.22402288019657135, 0.1860719472169876, -0.17026934027671814, -0.7030768394470215, -0.5884358286857605, -0.38991856575012207, -0.12662050127983093, -0.15277895331382751, 0.6998841762542725, -1.684640645980835, 0.21117401123046875, 0.07208888977766037, -0.5399331450462341, 0.11447718739509583, -0.6400151252746582, -0.1101250946521759, 0.7882993817329407, -0.44976097345352173, 1.274792194366455, 0.6663131713867188, 2.0139033794403076, -0.19172132015228271, -0.4988080859184265, -0.2891330420970917, -0.40281805396080017, -0.9599006175994873, 1.276987075805664, -0.4117692708969116, 0.028696060180664062, 0.10350710898637772, -0.25813889503479004, -0.0822555348277092, -0.6582382917404175, -0.8023766875267029, 0.024493252858519554, -0.5542203187942505, 0.7981089949607849, -0.2885659337043762, 0.47868111729621887, 0.4543304443359375, 2.674551248550415, 0.14774644374847412, 0.3338206708431244, -1.183292031288147, 0.6880502104759216, -0.23645193874835968, -0.11190129071474075, 0.7943371534347534, -1.061557412147522, 0.6548675894737244, 0.30042681097984314, 1.4332225322723389, 0.17351961135864258, -0.8348969221115112, -0.5967139005661011, -1.3071240186691284, -1.4046680927276611, 0.918074905872345, 0.11659517139196396, 0.8875634670257568, 0.9574068188667297, -0.2087530940771103, 0.10727637261152267, 0.5056454539299011, 0.45830416679382324, 0.2522823214530945, 0.8200674057006836, 0.004529284313321114, 0.32340550422668457, -0.5826503038406372, -0.07468707114458084, 0.5361393094062805, 0.2578812539577484, 0.42025721073150635, 0.12992532551288605, -0.14613188803195953, -0.40684953331947327, -1.2763930559158325, -0.16292838752269745, -0.0367899127304554, -0.3421495854854584, 0.22511710226535797, 1.2592898607254028, -0.21681195497512817, 0.2199254184961319, 0.2552229166030884, -1.3101439476013184, -0.12172547727823257, -1.500006079673767, -0.038259685039520264, -0.5008253455162048, -0.058043256402015686, -0.485060453414917, 0.00934526789933443, -0.18423819541931152, 0.09347032010555267, -0.2279089391231537, -0.3753691613674164, 0.6496210694313049, 0.2624204158782959, 0.0100712226703763, 1.2254637479782104, -0.01587880402803421, 0.011668617837131023, -0.7597475051879883, 1.4948502779006958, -0.11051855236291885, -0.901298999786377, 0.10406477004289627, -1.0087000131607056, -0.07173052430152893, 0.2976462244987488, 0.5733202695846558, 0.04786095768213272, 1.1776849031448364, -0.5251210331916809, -0.3279879093170166, 1.0504003763198853, 0.4857432544231415, 0.9193800091743469, -0.4877088665962219, 0.557777464389801, -0.2541761100292206, -0.10153304040431976, -0.2095116227865219, -0.0503842793405056, -0.2073022872209549, 0.005660312250256538, 0.2670665383338928, 0.715251624584198, 2.2920360565185547, -0.05548408254981041, 0.178605854511261, 0.20083145797252655, 0.5398748517036438, 0.12625662982463837, 0.6303615570068359, 0.3067716956138611, 0.09243915975093842, 0.03772611543536186, 0.40918123722076416, -2.060427188873291, -0.04849154129624367, 0.7094843983650208, 0.28086256980895996, -1.722192406654358, -0.5082740187644958, 0.40729206800460815, 0.18798473477363586, 0.3423452377319336, 0.6345064640045166, 0.4839177131652832, 0.4598081707954407, -0.6800007820129395, 0.7207791209220886, 0.7301836609840393, 0.593666136264801, 1.7781665325164795, -0.21311931312084198, 0.4370574951171875, -0.18420705199241638, 0.15986327826976776, 1.2905341386795044, 0.5291975736618042, 0.4877641797065735, 0.018703827634453773, -0.12223409116268158, 0.04033096507191658, -0.1520446240901947, 0.8742055296897888, 0.15188339352607727, 0.5898014903068542, -0.35088640451431274, -0.7699407339096069, -0.02690659649670124, 0.27154767513275146, -0.06274878233671188, -1.3336868286132812, 0.10420819371938705, -0.6810088157653809, 0.18967315554618835, 0.8827494978904724, -0.3888173997402191, 0.7741526365280151, -0.10027933120727539, 0.14014026522636414, -1.1797031164169312, -0.8272217512130737, -0.3047785758972168, 0.7197251319885254, 0.06622404605150223, 0.567226767539978, 0.31537678837776184, 0.21159860491752625, 0.982555627822876, 0.0389457605779171, 0.2267245352268219, -0.421690970659256, 0.20153851807117462, 0.48777666687965393, 0.755760133266449, 0.08866553753614426, 0.03604453429579735, -0.2491685003042221, 0.2186155468225479, -0.38044390082359314, 0.2969558537006378, 0.46641242504119873, -1.2899199724197388, -0.049005527049303055, -0.24871158599853516, -0.22862888872623444, -0.5406531095504761, -1.6325914859771729, -1.4209873676300049, -0.19411487877368927, 0.21429897844791412, 0.07912185043096542, -1.6392487287521362, 0.7421810626983643, -2.204458713531494, 1.0507434606552124, -0.8249146342277527, 0.2176792174577713, -0.11714333295822144, -0.6581117510795593, 0.320708304643631, 0.23736171424388885, -0.5917555093765259, -0.7844184637069702, 0.4586282968521118, 0.39424195885658264, 0.7350658178329468, 2.2858681678771973, 0.05961259454488754, -0.7724916934967041, -0.052574194967746735, -0.6493807435035706, -0.11902373284101486, 0.5370089411735535, 0.03534259274601936, -2.5950934886932373, -1.3859376907348633, 0.561862587928772, 1.0458996295928955, -0.7468987107276917, 0.371122807264328, -0.8980154991149902, -0.22954818606376648, 0.04642675817012787, -0.726797342300415, -0.6400133967399597, -0.8156828284263611, 0.8290961980819702, 0.5392965078353882, 0.39274775981903076, 0.22021223604679108, 0.3668915331363678, 0.2305108904838562, 0.13871295750141144, 0.18336080014705658, -0.6814512610435486, 0.5772994756698608, 0.36128705739974976, -1.8100199699401855, 0.6657596826553345, -0.035323720425367355, 0.09331933408975601, -0.3449327051639557, -0.5395902395248413, -0.03220909833908081, 0.6452456116676331, 0.5451291799545288, -0.4075949788093567, 0.21558354794979095, -0.7977054715156555, -0.7778245806694031, 1.2825692892074585, 0.3097250461578369, 1.132876992225647, 0.10463349521160126, 0.3930847644805908, -0.26421454548835754, -0.3320152461528778, -0.16025897860527039, 0.44530680775642395, -0.3096897602081299, 0.7731821537017822, 0.636350154876709, 0.6229121685028076, 1.154378056526184, 0.4652421772480011, 0.4734668433666229, -1.2124568223953247, -0.7914749979972839, -0.14715957641601562, -2.1192221641540527, 0.4660668671131134, 0.012372867204248905, 0.20774304866790771, -0.31690338253974915, 1.7977259159088135, 0.05204249173402786, -0.7941051721572876, -0.3679397702217102, 0.4505437910556793, -0.28796616196632385, -0.42512932419776917, 0.38373178243637085, -0.45726945996284485, 1.1847801208496094, -1.0372185707092285, -0.25109896063804626, -1.0967648029327393, 0.9941548109054565, -0.2103448212146759, -1.1661865711212158, 0.03977369889616966, 0.02840818651020527, -0.514610230922699, -0.5053911209106445, 0.14203590154647827, -0.10100951790809631, 0.016837451606988907, 0.4429716169834137, 1.3171273469924927, -0.2213517427444458, -1.0273808240890503, -0.9358274340629578, 0.839341938495636, -0.10466038435697556, -0.44492772221565247, 0.6151084303855896, -0.502721905708313, -0.025441434234380722, -0.4979707896709442, 0.19290043413639069, 0.9221234917640686, -0.7735885977745056, -0.3318041265010834, -0.1350800096988678, 1.028454303741455, 0.03769394010305405, 0.7101852893829346, -0.13888390362262726, 0.2651854157447815, -1.579684853553772, -1.0658303499221802, -1.1885960102081299, 0.4052260220050812, -1.236396312713623, -0.3742542266845703, -0.17972496151924133, 1.2245935201644897, 0.5210971832275391, 0.4456905722618103, 0.34556111693382263, -1.9473764896392822, -0.054945942014455795, 0.9094704389572144, -0.7858023643493652, 0.9278213381767273, -0.05496109649538994, -0.17200784385204315, -0.8597609400749207, -0.9933379292488098, -0.6283962726593018, 0.0037877438589930534, 0.21851372718811035, -1.1748135089874268, 0.5211559534072876, -0.2189110815525055, -0.3806501030921936, 0.584666907787323, 0.5512190461158752, 0.44892674684524536, 0.938283383846283, -0.39775577187538147, 0.7772012948989868, -0.5687733888626099, -0.3673757016658783, 1.0735430717468262, -0.43916693329811096, 0.09048106521368027, -0.27663174271583557, -0.5775156617164612, 1.2081888914108276, 0.6337676048278809, 1.464015007019043, 1.1938732862472534, -0.09447197616100311, -1.5708675384521484, -0.3174273371696472, 1.1534141302108765, -0.09747619926929474, -0.1350148618221283, 0.4386194050312042, -1.5703935623168945, 0.5054715871810913, -0.07657460123300552, 1.154406189918518, -1.0673173666000366, -1.0469179153442383, -1.068594217300415, -0.16023503243923187, 1.0303510427474976, 1.161774754524231, 0.6545903086662292, 0.03376517817378044, 0.4325929582118988, 0.2797231376171112, -0.9292458295822144, 1.2719981670379639, 0.97806715965271, -0.480862557888031, -0.27533385157585144, -0.1536286622285843, 1.0899074077606201, 1.084229826927185, 0.3656870126724243, -0.9986190795898438, -0.657004714012146, 0.10683290660381317, -1.3436312675476074, 0.21481667459011078, -0.24918444454669952, -0.11451764404773712, 0.904231071472168, -0.1782962828874588, 0.13648325204849243, 0.4754262864589691, 0.052101876586675644, -0.7663388848304749, -0.05568751320242882, 0.4545815587043762, 0.5803560614585876, 0.1390969306230545, 0.8115329742431641, 0.0728599950671196, -0.1427639275789261, 0.8652822375297546, 0.5737367868423462, 0.4707809388637543, 0.42206087708473206, -0.3665051758289337, -0.40770837664604187, 0.3857136070728302, -0.021214991807937622, 0.11021393537521362, 0.8462719321250916, -0.3455730974674225, 0.28952208161354065, -0.1080550029873848, -0.3332782983779907, -0.5024893879890442, 0.571018397808075, -0.2371269017457962, -0.650212824344635, 0.22579742968082428, 0.6686363220214844, 0.06656479090452194, 0.6215091347694397, 0.09210846573114395, -0.027672450989484787, 0.23534135520458221, 0.9519725441932678, -1.7273000478744507, -0.2105698436498642, 0.31695058941841125, 0.0883174017071724, -0.4504722058773041, -0.43060633540153503, -0.6026079654693604, 0.22515618801116943, -0.7569748163223267, -0.150577574968338, -1.1522631645202637, -1.2711050510406494, -0.11460413038730621, 0.3111661970615387, 0.2203427255153656, -0.21289511024951935, -1.097206473350525, -0.4429788291454315, 1.5688817501068115, 0.7806154489517212, 0.7842313051223755, -0.49265551567077637, -0.30535054206848145, 0.3341076672077179, 0.3558233082294464, 0.33669859170913696, -0.733001172542572, -1.1236323118209839, -0.5841876864433289, 0.5908887386322021, -0.1692366600036621, -1.1054247617721558, 0.12496097385883331, 0.26877063512802124, 0.33399471640586853, -0.012940162792801857, -0.7289854288101196, 0.6554732918739319, -1.1866698265075684, 1.2057323455810547, -0.3728308379650116, -0.8431003093719482, 0.5866660475730896, 0.02614951692521572, 0.7468357086181641, 0.5389047265052795, 0.6349724531173706, -0.2624276280403137, -0.12948431074619293, -0.6274901628494263, 0.3346295952796936, -0.1018175408244133, -0.0009490365628153086, -0.03165961056947708, 0.6609776020050049, 0.18294736742973328, 0.30967727303504944, 0.9577037692070007, -0.5414284467697144, 0.9931194186210632, -0.2724575996398926, -0.2892511188983917, -0.669175386428833, 0.7152148485183716, 1.8320751190185547, 0.36278587579727173, 0.8624968528747559, -0.08368203043937683, -0.6068262457847595, 0.06537692993879318, -1.0440735816955566, -0.634814441204071, -0.3151093125343323, -0.11140015721321106, 0.05519725754857063, 0.21516811847686768, 0.17864713072776794, 0.05509528890252113, -0.2973919212818146, -0.5672214031219482, 0.6529150605201721, -0.3606977164745331, -0.13019278645515442, 0.07775676995515823, 0.5471170544624329, -0.45342540740966797, 0.6159760355949402, 0.2839187681674957, 0.2757895886898041, -0.6306856870651245, 0.3906252086162567, 0.5703088641166687, -0.0047633228823542595, 0.6869890093803406, -0.1901301145553589, 0.09618759155273438, 0.28723862767219543, -0.104002445936203, -0.3123825192451477, -1.8395825624465942, -0.4929945468902588, -0.99004727602005, -0.5316142439842224, 0.8737363815307617, 0.5396794676780701, -0.2736999988555908, 0.07075490057468414, -0.1168358325958252, 0.13927240669727325, 0.36487290263175964, 0.21271055936813354, -0.7317174077033997, -0.14551782608032227, -0.33012083172798157, -0.3825877010822296, -1.0374174118041992, -0.18586252629756927, -0.7300273776054382, -0.7414656281471252, 0.7059711813926697, 0.09213783591985703, 0.05130539834499359, 0.19853922724723816, -0.22583691775798798, 0.35394287109375, -0.18156272172927856, -0.9705173373222351, 0.5997097492218018, 1.17752206325531, -0.8024576306343079, -0.161977618932724, 0.658096432685852, -1.8012322187423706, -0.6122216582298279, -1.1263190507888794, 0.1991470456123352, -0.21056044101715088, 0.4519261419773102, -0.5252007246017456, 0.21649184823036194, -0.2998199760913849, -0.15857400000095367, -0.3361680507659912, -0.4937448501586914, 0.04137078672647476, -0.031909018754959106, -1.3659037351608276, 0.7585802674293518, -0.057939622551202774, -1.228171467781067, -0.4843098223209381, 0.8539376258850098, -0.2138938009738922, -0.6702924966812134, -0.8072238564491272, -0.3707287907600403, 0.33383315801620483, 0.05546499416232109, 1.4028578996658325, 0.14958953857421875, 0.12221785634756088, -1.3388949632644653, -0.07592639327049255, -0.0929882675409317, 1.179307222366333, 0.7257775664329529, -0.32946887612342834, 0.23358450829982758, -0.32582414150238037, -0.5881703495979309, -0.6401609778404236, -0.6612096428871155, -0.3988821506500244, 0.1336311399936676, -0.1365123987197876, 0.3604782819747925, 0.9215961694717407, -0.40943703055381775, 0.1208757534623146, 0.852349042892456, 0.14548765122890472, -1.0041594505310059, 0.29606929421424866, -0.7390035390853882, -0.04363724961876869, 0.505431056022644, -1.429171085357666, -1.8956456184387207, 0.23206503689289093, 0.5075396299362183, 1.0113537311553955, -2.7244575023651123, 0.11588717997074127, 0.9544501304626465, -0.2864378094673157, 0.7151666879653931, 0.7605592608451843, 0.8083311915397644, 1.5386892557144165, -1.03682279586792, 0.513988733291626, -0.28595471382141113, -0.04309022054076195, -0.015434852801263332, 1.0311933755874634, 0.5430375337600708, -0.21801505982875824, 0.9100398421287537, 0.98809814453125, 0.4754227101802826, 0.01944165676832199, 0.1778343766927719, -0.27719762921333313, -1.6346923112869263, -0.1511966437101364, -0.5999244451522827, 0.029099415987730026, 0.3225499987602234, -0.868791401386261, 0.7015866637229919, 0.6701251268386841, -0.030952876433730125, 0.3700881600379944, 0.4359338581562042, 0.055203016847372055, 0.275942862033844, -0.35257354378700256, 0.5722827315330505, 0.0873812586069107, 0.4896208941936493, 0.5193280577659607, 0.2201879769563675, -0.6109887957572937, -0.24393720924854279, -0.09506440162658691, -0.49956926703453064, 0.20899902284145355, 0.417095810174942, 0.298115998506546, 0.45377251505851746, 0.5329380035400391, -0.39082834124565125, -0.05144547298550606, -0.9175827503204346, -0.4001218378543854, -0.3108789622783661, 0.4873579740524292, -0.7538312673568726, 0.13515129685401917, 0.3730715811252594, 0.15809158980846405, 1.0907174348831177, -0.12689028680324554, -0.014943198300898075, -1.0866646766662598, 0.45813000202178955, -0.36196476221084595, 0.2316742241382599, 0.44444623589515686, -0.6431475877761841, -0.8875339031219482, 0.45033591985702515, 0.05116716027259827, 0.01751057431101799, -1.5287781953811646, 0.5087780356407166, -2.122156858444214, -0.05385163053870201, 0.08474364131689072, 0.007238616235554218, -0.3073371350765228, -0.4152666926383972, 0.1399935781955719, 0.5393993258476257, 0.5163260102272034, -0.25033003091812134, 0.04607990011572838, -1.4932032823562622, -0.12759897112846375, 0.5014269948005676, 0.1365845650434494, -0.5980365872383118, -0.5060197114944458, -0.3674004077911377, 0.050535671412944794, 0.15585367381572723, -0.17699028551578522, -0.4590502679347992, -0.12848491966724396, 0.6982008814811707, 0.6406304240226746, -0.028709862381219864, -0.8809733390808105, -0.47912657260894775, 0.5059710741043091, -0.22811061143875122, -0.9915347695350647, 0.39919033646583557, -0.004695456940680742, 0.3349340558052063, 0.9570205211639404, 0.4158885180950165, 0.15948966145515442, 0.6630573272705078, 0.2594735026359558, 0.11512400954961777, 0.01091393269598484, -0.7775233387947083, 0.21490739285945892, -1.53937566280365, -0.4779411852359772, 1.2409104108810425, 0.04237570986151695, 0.293130099773407, -0.12035804241895676, 0.6176624894142151, -0.6200392842292786, 0.2940863072872162, 0.5988581776618958, 0.2685904800891876, 1.1031434535980225, 0.12046985328197479, -0.47948744893074036, 0.8536762595176697, -0.6841148734092712, -0.09374705702066422, -0.2541011571884155, 1.112261414527893, -0.56072998046875, 0.16074396669864655, -0.33443909883499146, -0.8804968595504761, -0.07194549590349197, 0.6477277278900146, 0.6384226083755493, 0.9745706915855408, -0.4405299425125122, 0.09300058335065842, 0.994331955909729, -0.11980412155389786, -0.8661153316497803, 0.13034449517726898, -1.629366159439087, 1.0043704509735107, -0.10426516830921173, -0.3971831798553467, 0.12492656707763672, 0.5545369386672974, 0.10156916081905365, -0.618500292301178, 0.7672236561775208, 0.2924811542034149, -0.3826446831226349, 0.14491520822048187, 0.8293575048446655, -0.04449370875954628, 0.3855988085269928, -0.5485007762908936, -0.17467838525772095, -0.22211232781410217, 0.7468605637550354, 0.9115105271339417, -0.6897652745246887, 0.48733821511268616, 0.11927065253257751, -0.8444218635559082, -0.6857908964157104, -0.2632761001586914, 0.3727276027202606, 0.2698270380496979, -0.5169735550880432, 1.3714882135391235, 0.24577149748802185, -1.5278819799423218, -0.3125605881214142, 0.31074824929237366, 0.026414526626467705, -0.4403734505176544, 0.5168119072914124, -0.27762681245803833, -0.06480984389781952, -0.8427538275718689, -0.55742347240448, 0.14244966208934784, -0.16397666931152344, 0.06556345522403717, 0.1278647780418396, -1.0805383920669556, 0.03683033213019371, 0.37835630774497986, -0.32660776376724243, 0.3349156081676483, -2.251762628555298, -0.2216230034828186, -1.2551926374435425, 0.044456783682107925, -1.406309962272644, -0.2061627060174942, -0.1445784717798233, 0.6243079304695129, -0.48551228642463684, -0.2175935059785843, -0.9772418737411499, -2.1136538982391357, 0.26613467931747437, 1.1887904405593872, -0.7297912240028381, 0.650109589099884, -0.09210393577814102, 0.022388555109500885, -0.9176982641220093, -0.5437464714050293, -0.06729476898908615, 0.45685723423957825, -0.23923245072364807, -0.20133398473262787, 0.0813751071691513, -0.743306040763855, -0.43844518065452576, -0.2625710368156433, 0.2358744889497757, 0.7539325952529907, 0.5368833541870117, -0.5109633207321167, 1.1215039491653442, -0.5469902753829956, 0.4104216992855072, -0.14231663942337036, 0.33529508113861084, 0.3668297529220581, 0.259418785572052, 0.42857083678245544, 1.111236810684204, 0.41164225339889526, 0.49805429577827454, 0.987177848815918, 0.3766489028930664, -0.027664508670568466, -0.8435325622558594, 1.164902687072754, 0.05130566656589508, 0.25654593110084534, -0.5461807250976562, -0.9415328502655029, 0.9471529126167297, 0.10340181738138199, 1.005322813987732, -0.636452853679657, 0.17051921784877777, -0.4813419282436371, -0.2675967216491699, 0.9758126139640808, 0.5390141606330872, 0.9729174375534058, -0.005235634278506041, 0.5489945411682129, 1.572454810142517, -1.7853648662567139, 0.4296002984046936, 1.0605556964874268, -0.6341028809547424, 0.03825733810663223, 0.06288571655750275, 0.8189793825149536, 1.6185481548309326, 0.4700355529785156, -1.4801394939422607, -1.0158157348632812, 0.8673198819160461, -0.639359712600708, 0.7599146366119385, -0.163985937833786, 0.06263314932584763, -0.07381454110145569, -0.007145463954657316, -0.3057416081428528, 0.8644092082977295, 0.500931441783905, -1.614568829536438, 0.5963850021362305, 1.01681387424469, 0.9111745357513428, 0.2737300992012024, 0.8261409997940063, -0.2722807824611664, 1.0435292720794678, 0.7440493702888489, -0.3160988688468933, 0.12406176328659058, 0.8929615616798401, -0.2311004102230072, 0.4084620177745819, 0.8130179643630981, 0.25704675912857056, -0.177043154835701, 0.23438432812690735, -0.6697036027908325, 0.383299857378006, 1.254906177520752, -1.2813419103622437, -0.6247290968894958, 0.18906675279140472, -0.5044176578521729, -0.5093908309936523, 0.28497937321662903, 1.2383034229278564, -0.9277291893959045, -1.3533098697662354, -0.018470559269189835, -0.4138132333755493, -0.7139706611633301, 0.640307605266571, -1.0812665224075317, -0.22574520111083984, 0.0933733880519867, 0.8978410363197327, -0.06121254712343216, -0.3544074594974518, -0.5797848701477051, 2.1355648040771484, -0.03442230448126793, 0.07622237503528595, -2.2762019634246826, -1.6592702865600586, -0.6942269206047058, -0.023852454498410225, 0.2141658514738083, -0.9625159502029419, -1.356082797050476, -0.4870114028453827, 1.7451574802398682, -0.48771631717681885, 0.382902592420578, -0.6962919235229492, -0.2748415768146515, -1.3552980422973633, 0.20338831841945648, 1.0701141357421875, -0.9667475819587708, 0.45392781496047974, 0.5023451447486877, 0.2979104220867157, -0.7602445483207703, -0.13583000004291534, 0.5746737122535706, 0.8962693214416504, 1.4252793788909912, -0.6656599044799805, -1.2401158809661865, 0.7261393666267395, -1.5859929323196411, -0.053701549768447876, -0.3812711536884308, -0.27678030729293823, 1.7306989431381226, 0.016665371134877205, 1.2200664281845093, 0.2969095706939697, 0.22966787219047546, 0.2025049477815628, -0.7389218211174011, -1.0501799583435059, 0.7019939422607422, -0.5111749172210693, 0.2956130802631378, 0.640618622303009, -0.3545638918876648, -0.7271482348442078, 0.01571100763976574, 1.2867814302444458, -1.0296134948730469, 1.1197395324707031, -0.6833610534667969, -0.059225697070360184, 0.3672028183937073, 0.9562830328941345, 1.1483006477355957, 0.6887395977973938, 1.3637428283691406, 0.49462786316871643, 0.20352135598659515, 1.3125396966934204, -0.4297124147415161, -1.1560485363006592, -1.3203647136688232, -1.207526445388794, -0.048971258103847504, 0.8565832376480103, 0.38056090474128723, -0.10300786048173904, -0.810470461845398, -0.3879159092903137, 0.7384952902793884, 0.14114566147327423, 1.3650180101394653, -0.4090024530887604, -0.06960774958133698, -0.7031940817832947, 0.35975977778434753, 0.6828899383544922, 0.20614807307720184, -0.5545780062675476, -0.10276521742343903, 1.0959322452545166, -0.00567763764411211, -0.09264342486858368, -0.12623165547847748, 0.16118721663951874, 0.48631733655929565, 0.3894548714160919, 0.15444745123386383, -1.2949386835098267, -0.4978334307670593, -1.3458040952682495, 0.08090607076883316, 1.1298282146453857, -0.18324556946754456, -0.8861430287361145, 0.22032703459262848, -0.1722351610660553, -0.16521213948726654, -0.09500466287136078, -0.24158990383148193, -1.1250770092010498, -0.3189740478992462, -0.49521496891975403, -1.4905771017074585, -1.2964682579040527, -0.4873732328414917, -0.5071119070053101, -1.17903470993042, 0.5784122347831726, 0.1631525605916977, -0.25385117530822754, 0.4155344069004059, 0.3383333384990692, 0.6300528049468994, -0.9671339392662048, -1.4540138244628906, 0.011053756810724735, 1.0903425216674805, -0.779319703578949, -0.057474784553050995, 0.12497913837432861, 0.39762169122695923, -1.0001814365386963, -0.13768421113491058, -0.5759182572364807, -0.25112631916999817, 0.3433767259120941, -1.7502533197402954, 0.60481196641922, -1.181296944618225, -0.3694336712360382, -0.5900843739509583, -0.35791531205177307, -0.15269321203231812, -0.14317373931407928, 0.7170995473861694, 0.4964105188846588, -0.38431623578071594, -0.9074608087539673, -0.9666224122047424, 1.6298975944519043, 0.09668917953968048, -0.1893797218799591, -0.782865583896637, 0.22685416042804718, 0.6069865822792053, -0.34388765692710876, 0.9370025396347046, -0.9554290771484375, 0.16331544518470764, -1.3975783586502075, -0.09929617494344711, 0.5966790318489075, 0.026349635794758797, 0.17207840085029602, -0.31602227687835693, 1.1247749328613281, -0.23394913971424103, -0.38135311007499695, -0.9365584850311279, -0.8124510049819946, -0.8679154515266418, -0.43831855058670044, -0.05642898380756378, -0.6112443804740906, 0.17070883512496948, -0.2281499058008194, 0.02299938164651394, -0.09989889711141586, 1.314612865447998, 0.33834391832351685, -0.3776053786277771, -1.1705611944198608, 0.07827488332986832, -0.19701960682868958, -0.7471712827682495, -1.1427141427993774, 0.4757976531982422, 1.478916883468628, 1.0731450319290161, -2.4870431423187256, -0.007143094204366207, -0.7626323699951172, 0.15874148905277252, 0.9552749395370483, 0.7713086009025574, 1.7157989740371704, 1.0530486106872559, -1.6932958364486694, 0.7828513979911804, -0.5990176200866699, 0.5478606224060059, 0.7777976393699646, 1.2358438968658447, 0.4118596911430359, -1.1774226427078247, 0.6877353191375732, 1.07371985912323, 0.05919056385755539, 0.4223194718360901, 0.20617815852165222, -0.0036254359874874353, -0.9474482536315918, -1.6970847845077515, -1.1308338642120361, 0.0012617281172424555, 0.2704288363456726, -0.07904105633497238, -0.41034361720085144, 0.8081488609313965, 0.33132660388946533, 0.49811986088752747, -0.1695747822523117, 0.6567724943161011, -0.9033846259117126, -0.40438681840896606, 0.9539623260498047, -0.20914314687252045, 1.3632941246032715, 0.05284522473812103, 0.10050300508737564, -0.08951815962791443, -0.47355595231056213, -0.07640625536441803, 0.023237599059939384, -0.003954932559281588, 0.27457374334335327, -0.06092841178178787, 0.34691768884658813, 1.4074252843856812, -0.37058690190315247, -0.857483446598053, -1.0602755546569824, -0.5830692648887634, -0.9409164786338806, 1.3723928928375244, -1.6620516777038574, 0.019910961389541626, 0.1685030162334442, -1.1170530319213867, 0.4425869584083557, 0.7975613474845886, -0.028672419488430023, -1.346781849861145, 1.9548568725585938, -1.012840986251831, 0.5957469344139099, -0.22435003519058228, -0.928651750087738, -0.4802057147026062, 0.07053113728761673, -0.03948623687028885, -1.1641819477081299, -1.029923915863037, 1.962512493133545, -1.132304310798645, -1.4082708358764648, 0.6770212054252625, 0.37860438227653503, -0.029634317383170128, 0.2527395188808441, -1.2876065969467163, -7.449816621374339e-05, -0.3844996988773346, -0.021032653748989105, 0.015648014843463898, -0.524016797542572, -1.3092031478881836, 0.007132368627935648, 0.15452249348163605, -0.9608784914016724, 0.6226491332054138, -0.6505086421966553, -0.43765193223953247, -0.08124230802059174, 0.2912898063659668, 0.5049347877502441, 0.14318203926086426, -1.017792820930481, 0.6857185363769531, -0.6450781226158142, -0.18493284285068512, 0.29980218410491943, 0.30940693616867065, -0.7239053249359131, -0.8402225971221924, -0.3404460549354553, 1.2051955461502075, 0.25913354754447937, 1.1887949705123901, 0.209050714969635, -0.5112387537956238, 0.5547168254852295, 0.7582780718803406, -0.013258473016321659, -1.225760579109192, -1.3386350870132446, 0.09510715305805206, 0.7307918071746826, -0.7472697496414185, 1.311867356300354, -0.019039763137698174, 0.2512531280517578, 0.3833754062652588, 0.1097128614783287, -0.5094884037971497, 0.43293219804763794, -0.018594596534967422, -0.6880231499671936, 1.3275927305221558, -0.14325080811977386, -0.17251555621623993, 1.0070605278015137, -0.04175746068358421, 0.044453978538513184, -0.08996734023094177, -1.5804766416549683, 1.231923222541809, 0.42129725217819214, -0.22036130726337433, 0.5361496210098267, 1.1068278551101685, 0.8502628207206726, 0.5219111442565918, 1.3327243328094482, 0.3567727208137512, 0.28774532675743103, 0.5998551249504089, 0.059719447046518326, -0.43169713020324707, -0.5567741394042969, -0.8645620346069336, 0.378225713968277, -0.10684768110513687, -0.41001778841018677, 0.40910857915878296, -0.5020862817764282, -0.4600273668766022, -0.47317391633987427, 0.32583120465278625, 0.7100239396095276, -1.4852890968322754, 0.339450865983963, 0.8024030327796936, -0.47142523527145386, 0.21254904568195343, -0.30619755387306213, -0.2937231957912445, 0.5181024670600891, 0.4431302547454834, 1.4298205375671387, -0.41326504945755005, -0.7385293245315552, 0.2836098074913025, -0.7224043607711792, -0.027127090841531754, 0.5620800256729126, 0.3331606388092041, -0.0551995187997818, 0.5655786991119385, 1.94667387008667, -0.6210694313049316, -1.0022474527359009, -0.4964633285999298, -0.08745656162500381, -0.005122072529047728, -0.0063530150800943375, 0.5181013941764832, -1.0694386959075928, -0.5866279602050781, -0.64919513463974, 0.14912280440330505, -0.17238175868988037, 0.6836010217666626, -0.2692941725254059, -0.198610320687294, 0.982415497303009, 0.11614742875099182, -0.1789219230413437, 0.529994785785675, 0.8780204653739929, -2.049530267715454, -0.2002486139535904, -1.14896821975708, 0.11270441114902496, -1.4664568901062012, -0.3324972689151764, -0.39845502376556396, -0.9518417716026306, -0.5258042812347412, 0.052349191159009933, -0.8133404850959778, -1.229746699333191, 1.4036550521850586, 1.4293208122253418, 0.04118402302265167, -1.3227859735488892, 0.06233210861682892, 1.3069946765899658, -1.0531303882598877, 0.24575310945510864, 2.493518114089966, 1.6301687955856323, 0.02665744349360466, 1.623847484588623, 1.837692141532898, -1.664293646812439, -0.16508848965168, 1.2090376615524292, 0.42283064126968384, 0.9521793127059937, -2.0897088050842285, 2.282052993774414, 1.170452356338501, -0.8958659768104553, -1.1782968044281006, -2.6600756645202637, 0.9060828685760498, 0.7367951273918152, 0.37783223390579224, -0.5148339867591858, -0.290399432182312, -0.1417810618877411, 1.6936060190200806, -1.2013616561889648, -0.48645731806755066, -0.17808130383491516, 1.4795211553573608, 0.478353351354599, 0.055307984352111816, 2.292091131210327, -1.4572328329086304, 0.760720431804657, -2.4190919399261475, -0.7744551301002502, -3.4179086685180664, -0.4373322129249573, -0.6764563322067261, 0.31332075595855713, 0.18443895876407623, 1.6649527549743652, -0.6000730991363525, 0.6141890287399292, -1.7625036239624023, 0.35399383306503296, -0.30215340852737427, -0.389007031917572, 0.003272842615842819, -0.3200700581073761, -0.49524518847465515, -0.6888875365257263, -0.3888760507106781, 0.36964133381843567, -0.2943590581417084, 0.043422725051641464, 0.0403737872838974, -1.6490143537521362, 0.561834454536438, -0.38469186425209045, 0.861314594745636, 1.1500686407089233, 0.08587663620710373, 0.5016464591026306, -0.7511963248252869, -0.756743311882019, 0.09293994307518005, 0.2870829403400421, -0.7690584063529968, 0.8911440968513489, 0.2986830174922943, -0.42331981658935547, 2.4322428703308105, 0.23321367800235748, -0.6994245052337646, -0.44433119893074036, 0.45606863498687744, 0.15134035050868988, -0.280795693397522, 0.6713636517524719, 0.6405606865882874, 0.7955688834190369, 1.5792582035064697, 0.2926212549209595, 0.4845646619796753, -0.24120405316352844, -0.633041501045227, 0.3439825475215912, 0.42512795329093933, -0.2954872250556946, 0.22708314657211304, 1.0351895093917847, -1.5060313940048218, -0.4914182424545288, 0.09922157973051071, -0.790523886680603, -1.0722577571868896, -0.5590470433235168, -0.09105656296014786, 0.4812791049480438, 2.173529624938965, -1.5728764533996582, -1.7221040725708008, 0.41030481457710266, 0.8696208596229553, -1.4597269296646118, -0.8146514892578125, 0.936318576335907, 0.2131010890007019, -2.8528497219085693, 0.5910448431968689, 0.1369294673204422, -0.709272563457489, -0.4362458884716034, -0.21976426243782043, 0.8786383271217346, 0.9865223169326782, 0.07533980906009674, 0.25017979741096497, 0.3080225884914398, -0.2689650058746338, -0.6783873438835144, 0.7167351245880127, -0.5822346806526184, 0.9224950671195984, -0.07685200870037079, 0.025089263916015625, 1.3833675384521484, -0.3986096978187561, 1.5170810222625732, 0.9373985528945923, 0.8383393287658691, 0.44273778796195984, 0.13540010154247284, 0.4523056745529175, -0.025007929652929306, 0.2509348392486572, 1.5034855604171753, 0.18868538737297058, 0.4863322377204895, 0.589235246181488, 0.45171746611595154, 1.46688973903656, -0.8562089800834656, 0.9663533568382263, -0.43316876888275146, 0.5013077259063721, 0.7125040888786316, 0.5152662396430969, 1.1701059341430664, -0.06559792906045914, -0.11508417874574661, 1.517891764640808, -0.552196204662323, 0.07606180757284164, 0.15930156409740448, 0.9582259058952332, -0.7714555263519287, 0.4935343861579895, 1.393900752067566, -1.683087706565857, 2.1250998973846436, 1.0101855993270874, -0.02956307679414749, 0.7533987164497375, 1.3774195909500122, -0.31100544333457947, -0.23563164472579956, 0.4740089178085327, -0.5782474279403687, -0.18536818027496338, 0.599267840385437, -0.970332682132721, 0.6544177532196045, -0.809612512588501, 0.5671330094337463, 1.4737364053726196, -1.3594908714294434, 1.760120153427124, 0.393555223941803, -0.004298183135688305, 0.15053391456604004, -1.3195539712905884, -0.646862804889679, 0.03265625610947609, 0.6408296227455139, -0.5208982229232788, -2.547571897506714, -0.7140098810195923, 0.6084607839584351, -0.04406149685382843, -0.7050652503967285, -0.3832618296146393, -0.7078795433044434, 1.834328055381775, -0.23537947237491608, -1.4332910776138306, -1.0187925100326538, -0.29951074719429016, 0.9533466696739197, -0.9726276993751526, -0.2951575517654419, -1.3757069110870361, -1.1218268871307373, -0.6443060636520386, 0.12351512908935547, -0.9672804474830627, -0.692036509513855, -0.2440282702445984, -1.7172712087631226, -2.1418027877807617, -0.3710826337337494, -0.2647579312324524, -0.6043925285339355, -1.3394076824188232, -0.6495407819747925, -0.31211403012275696, -0.586685061454773, -0.6310635209083557, 0.4480324685573578, 0.4857596457004547, 0.06567748636007309, -0.1718462109565735, 1.0646419525146484, -0.6243342161178589, 0.7549211382865906, 2.319258689880371, -0.7528731226921082, -3.1539487838745117, -0.7689064741134644, 0.3023340106010437, -1.8763446807861328, -0.20416247844696045, 0.18166087567806244, -1.2791448831558228, -0.5104736685752869, -0.23010900616645813, 0.21295303106307983, -0.4487484395503998, 0.7121787667274475, -2.491957187652588, -1.5090723037719727, -0.49845266342163086, -0.3055357336997986, -0.6688200235366821, -0.12037317454814911, -2.0700972080230713, -0.6973118782043457, -0.8745597004890442, -1.2118600606918335, -0.7575392723083496, -0.370065301656723, 0.11066766828298569, 1.9339548349380493, -0.3124121129512787, -0.5163471698760986, -1.5881253480911255, -0.3418996334075928, 0.7775613069534302, -0.3304392397403717, -3.088059186935425, -1.8901742696762085, 0.16112536191940308, 1.143545389175415, -0.049142319709062576, 0.6383788585662842, -0.2872248888015747, -1.210303783416748, -0.9210320115089417, -0.4656457006931305, -0.6977815628051758, 0.6825583577156067, -2.991398572921753, -1.6009297370910645, -0.9598391056060791, -0.04998571053147316, 0.682947039604187, 1.005017876625061, -0.7904084920883179, -0.4842776358127594, -2.330244302749634, -0.21772806346416473, -0.06711617857217789, -1.2512552738189697, -1.265046238899231, -0.5267419219017029, -0.15847955644130707, -0.8975416421890259, -0.8687742948532104, -1.6757500171661377, -0.024808110669255257, -0.1971186399459839, 0.779587984085083, -0.7121537327766418, 0.3343358337879181, -0.2904141843318939, 0.09936089813709259, -0.1717277318239212, 0.5224149227142334, -1.775597095489502, 0.7336330413818359, -1.0681229829788208, -0.7650905251502991, 0.31030648946762085, -1.0732942819595337, -0.9841740131378174, -0.7501546740531921, -0.06037020683288574, 0.10658617317676544, -0.8499701619148254, -1.498881220817566, 0.4014389216899872, -2.3477749824523926, -0.8196166157722473, -0.3864169120788574, -1.0317652225494385, -0.1565663367509842, -1.4855942726135254, 0.0973002165555954, 1.409358263015747, -0.5189419984817505, 1.30452299118042, -1.216426968574524, 0.03536731004714966, 0.4021311104297638, 1.724614143371582, -0.19938665628433228, 1.2705894708633423, -0.12355200946331024, 1.3986732959747314, 0.31784820556640625, 0.646625280380249, -0.6440524458885193, 0.3218482434749603, -0.6846594214439392, -0.04966399073600769, -1.3899049758911133, -0.43682289123535156, -0.6578121185302734, 0.25702017545700073, 0.6162289977073669, -0.5942510366439819, 0.4983425736427307, -0.08984947949647903, -1.6061842441558838, -0.5049690008163452, -0.10050475597381592, -0.11675693839788437, -1.6676089763641357, -2.3414816856384277, -0.051017291843891144, -0.46287858486175537, 0.22504284977912903, 0.25196927785873413, -2.1907522678375244, 0.7883508205413818, 0.897331178188324, 0.2857903838157654, -0.2146563082933426, 0.8671989440917969, -0.34797558188438416, -0.7679344415664673, 2.4301717281341553, 1.1211293935775757, 2.4089436531066895, -1.5014845132827759, 0.5946476459503174, 0.6593730449676514, -0.9812833666801453, 0.4195076525211334, 0.00794902816414833, 0.5391982197761536, 0.21937671303749084, -0.9810411930084229, 0.7669392228126526, 1.3214894533157349, -1.3989272117614746, -0.8802825212478638, 0.05239689350128174, 0.1452237218618393, 0.22886502742767334, -1.7980451583862305, 0.05981042608618736, 1.1219178438186646, -0.7134388089179993, 0.39782705903053284, 2.1032679080963135, 0.5088926553726196, -1.116071343421936, 4.156290531158447, 0.008836922235786915, -0.482199102640152, 0.20253302156925201, 2.4953818321228027, 1.2139736413955688, 1.2031443119049072, -0.7184007167816162, 3.0735042095184326, 0.5891555547714233, -0.6391783356666565, 0.03687829151749611, -2.645106077194214, 0.8170855045318604, 0.32431554794311523, -0.07326361536979675, 1.296938180923462, -0.8608481884002686, -0.6143260598182678, -2.105865001678467, -2.242516040802002, 0.31351470947265625, 0.5504602193832397, 1.4747294187545776, -1.0845164060592651, 0.7239149212837219, 2.548259973526001, -2.563203811645508, 2.457995653152466, -0.5915147066116333, 0.44356679916381836, 0.7648440003395081, 3.4351391792297363, 0.905071496963501, 0.8398159742355347, -0.5478136539459229, 2.7875893115997314, 1.601948618888855, 1.4665518999099731, -2.9095897674560547, 1.3720815181732178, -1.0660781860351562, 0.29329371452331543, -0.7881418466567993, -2.3614680767059326, -0.7856981158256531, 0.9122916460037231, 1.1468837261199951, 1.455368995666504, -1.1214165687561035, 0.43632516264915466, 0.9046816229820251, -0.39219382405281067, 0.38592931628227234, 2.244122266769409, 1.5343986749649048, 1.3522850275039673, 0.15934397280216217, 2.1013617515563965, -1.0105113983154297, 0.05237552896142006, -2.3570878505706787, 0.10648567229509354, -0.20860151946544647, 0.9313163757324219, -0.4556049108505249, 1.4990298748016357, 1.1495412588119507, 1.2862529754638672, 0.7357566356658936, 0.38459980487823486, -3.1576874256134033, 1.3217189311981201, 1.0620155334472656, 1.228238582611084, -1.1289952993392944, 1.441942572593689, 0.27194133400917053, -0.0304360780864954, -0.3744422495365143, -0.41582340002059937, 1.114772915840149, 0.6605295538902283, -0.7456035017967224, 1.323861837387085, 0.19029928743839264, -0.6120039224624634, 0.3179139494895935, -0.23242099583148956, -0.1074184700846672, 0.18453112244606018, -1.838637113571167, 0.8629319667816162, -1.350950002670288, 0.7815931439399719, 0.8548264503479004, -0.3276098072528839, 1.6430573463439941, 0.16914422810077667, -0.9230310916900635, 0.4453228712081909, 0.9119901061058044, 1.3865275382995605, -1.261265754699707, -2.5939550399780273, -1.3595484495162964, 0.30820417404174805, -1.3715147972106934, 0.6159451603889465, -1.8617100715637207, 0.7731466889381409, 1.1597603559494019, 0.16364504396915436, 1.782755732536316, 0.48788830637931824], "bnGammaC": [2.284073829650879, 1.867172360420227, 1.2939716577529907, 1.4138702154159546, 2.2130327224731445, 2.048861265182495, 1.209681749343872, 1.572136640548706, 0.8314559459686279, 2.653703212738037, 1.336668610572815, 2.3844563961029053, 2.537919759750366, 2.5890769958496094, 2.0187549591064453, 1.7676115036010742], "bnBetaC": [-0.9308834075927734, -1.391666293144226, -1.658831238746643, -1.6435720920562744, -3.0401644706726074, -3.3605549335479736, 0.548439621925354, -0.38864198327064514, 0.04649219661951065, -1.388845443725586, -2.9211809635162354, -1.544215202331543, -2.296379804611206, -3.1246464252471924, -1.8800770044326782, -0.5474281907081604], "bnMeanC": [1.2942931652069092, 0.6933320760726929, -0.6961207389831543, 3.532282829284668, -1.7787612676620483, -3.6478614807128906, 0.4096441864967346, 3.2553179264068604, -0.9037968516349792, 0.40050554275512695, -6.204566478729248, -1.1621452569961548, -3.633608818054199, -2.9894161224365234, 2.972438097000122, -3.7558276653289795]}, {"inputChannelsDim": 82, "bnVariance": [92.96247100830078, 6.344951629638672, 53.321189880371094, 154.35975646972656, 21.568965911865234, 187.9220733642578, 23.091083526611328, 63.50819778442383, 124.31074523925781, 118.38507843017578, 55.257835388183594, 90.8666000366211, 64.87458801269531, 94.79585266113281, 72.6175537109375, 45.36174011230469, 252.470947265625, 44.01140213012695, 63.68764114379883, 80.5028305053711, 5.937126159667969, 22.489749908447266, 127.75179290771484, 270.38916015625], "roundsDim": 6, "convBias": [0.0005148305208422244, -0.00010186595318373293, 0.002245429903268814, -9.808379400055856e-05, 0.004519532900303602, -0.0012838145485147834, 0.0027592896949499846, 0.0008321767090819776, -0.0012287308927625418, 0.0045976778492331505, -0.0009633086156100035, 0.0021962886676192284, -0.0012393088545650244, 0.001969572389498353, -0.0009018200798891485, 0.00045664209756068885, 9.727357974043116e-05, 0.005767240189015865, -0.005806743633002043, 0.003629049751907587, 0.000697517825756222, 0.00040396474651061, 0.001998485065996647, 0.0004622752603609115], "bnBeta": [-0.2639281451702118, -1.6262353658676147, -2.7682547569274902, -0.07550013810396194, -2.5602986812591553, 0.44506600499153137, -2.868020534515381, -1.8339455127716064, -1.2592358589172363, -2.0079591274261475, -0.02152935601770878, -2.126089572906494, -2.546262264251709, -1.5406429767608643, -1.9725960493087769, -2.1772708892822266, 2.765072822570801, -1.2373688220977783, -1.870714545249939, -0.46865299344062805, -2.1004159450531006, -1.435835838317871, -1.6573128700256348, -0.1358390748500824], "typesDim": 3, "kernelRoundsDim": 1, "className": "ception", "upsamplingRoundsDimFactor": 1, "bnGamma": [1.6203445196151733, 0.22520360350608826, 1.2648135423660278, 2.12785005569458, 0.9560850858688354, 2.0761220455169678, 0.6818339228630066, 1.8327882289886475, 1.9890108108520508, 2.7435882091522217, 0.5212882161140442, 1.8473351001739502, 1.5577118396759033, 1.961120367050171, 1.352726936340332, 1.335693597793579, 2.1389849185943604, 1.194779396057129, 1.7070356607437134, 0.9807618856430054, 0.10443360358476639, 0.23233559727668762, 1.9115889072418213, 1.415988564491272], "channelsDim": 24, "convKernel": [1.518140196800232, 0.11035867780447006, 0.3743496835231781, 1.0481966733932495, -0.006360229104757309, -0.2859363853931427, 0.8551691770553589, -1.5104073286056519, -1.1805378198623657, 0.0045943111181259155, -0.2478707730770111, -1.0940207242965698, -1.5911942720413208, -0.4059791564941406, 0.5151033997535706, -0.11752481013536453, -1.6452569961547852, 0.5764198303222656, -0.6184694766998291, 2.375284433364868, 0.1595245748758316, 0.6987443566322327, -0.24807700514793396, -3.111455202102661, -0.7354730367660522, -0.018047915771603584, 0.8927474617958069, 1.3251577615737915, 1.5558902025222778, 0.37058568000793457, 0.7363423705101013, 1.1697947978973389, 0.7639448046684265, -0.0015299792867153883, 1.0664952993392944, 1.4469852447509766, -1.4138158559799194, 0.3616166412830353, -0.018210776150226593, -0.2864290773868561, -1.2894030809402466, -0.7126477360725403, 0.3982984721660614, 0.666039764881134, 0.5672173500061035, 0.007709663826972246, 1.0551997423171997, -0.1810632050037384, -1.2151423692703247, -0.6433920860290527, 0.7686482071876526, 3.499967575073242, -0.35002651810646057, 1.9073249101638794, -0.3386624753475189, -1.1168419122695923, 0.7598115801811218, 1.1425732374191284, -1.9353500604629517, 1.2336864471435547, -0.37515726685523987, -0.15084294974803925, 0.4000558853149414, 1.3677194118499756, -0.02479611337184906, 0.8329904675483704, 1.6271923780441284, -0.5729759931564331, 0.7009567618370056, 0.47765329480171204, -0.3410741090774536, -0.0017372737638652325, 0.20649059116840363, 0.33052870631217957, -1.2532997131347656, -0.33942893147468567, 1.1329396963119507, -0.06536813080310822, 0.21715936064720154, 0.7983328104019165, 1.7888507843017578, -1.077546238899231, 1.2366037368774414, 0.9548447728157043, 0.42501094937324524, 1.5830830335617065, 0.19867201149463654, -1.0272711515426636, 0.2221549153327942, 0.5384458899497986, -1.0898747444152832, 1.774008870124817, 0.3635569214820862, 0.48980948328971863, 0.5345184206962585, -0.5089194178581238, 1.4535768032073975, -0.05752168595790863, 0.04703444242477417, -1.1568500995635986, 0.7404712438583374, 0.5963453054428101, 1.1223058700561523, -1.015057921409607, 0.5442780256271362, -1.1548115015029907, -0.617348313331604, 0.4089813530445099, 2.2010672092437744, 1.7490720748901367, 0.325449675321579, 0.613353967666626, 0.9812575578689575, 0.7354270219802856, -0.4481668770313263, 0.6174899339675903, -0.2666493356227875, -0.006176325026899576, 0.07962198555469513, 0.09976734966039658, 1.9418261051177979, -0.37954941391944885, 0.7807525396347046, -0.5652674436569214, -0.19263657927513123, -1.0097277164459229, -0.7714705467224121, -1.5735831260681152, -1.6894567012786865, -0.49750635027885437, 0.24015085399150848, -0.0019880575127899647, 0.11855388432741165, 1.4211419820785522, 0.6467610001564026, 1.641252040863037, 0.44646671414375305, -0.2321077138185501, 0.2869042754173279, 1.0543133020401, 0.45470041036605835, 0.24494819343090057, -2.4577105045318604, -0.34272444248199463, -0.8485972881317139, 0.14593084156513214, 0.2839500308036804, -2.1154515743255615, 0.5355270504951477, 0.03909629210829735, -0.004935964941978455, 2.1499204635620117, 1.162731647491455, 0.4704529345035553, 0.49515730142593384, 0.7158765196800232, -0.6086785197257996, -0.4987356960773468, -0.5416950583457947, -0.6507752537727356, -0.9742359519004822, -0.08823338896036148, -0.1262315958738327, -0.6093920469284058, -0.3004101812839508, -1.334161639213562, 1.3958803415298462, 1.0609822273254395, 2.2194395065307617, 0.4514945447444916, -2.110389232635498, -0.6068743467330933, -1.1941019296646118, -2.3309240341186523, -0.07490765303373337, -0.7985823154449463, 0.6599164009094238, -1.081453561782837, 0.5454525351524353, 1.5205702781677246, 1.0260207653045654, -0.7610924243927002, -1.4651315212249756, 1.2266799211502075, -1.155624270439148, 0.9909610748291016, -0.21193112432956696, 1.2222025394439697, 0.36637017130851746, 0.19445253908634186, -0.42605212330818176, 1.6256855726242065, -0.4148905277252197, 0.0693095475435257, 0.9216322898864746, -1.7107065916061401, -0.7355827689170837, -2.662964105606079, 0.35336995124816895, -1.1832895278930664, -0.4442947506904602, -2.9360358715057373, -0.3228399157524109, -0.23501679301261902, -0.5303342938423157, -0.8765935897827148, 3.224266767501831, 0.6931662559509277, -0.9175677299499512, 0.25947803258895874, -0.32844361662864685, 1.216728925704956, 0.019524719566106796, 0.33252277970314026, -2.4972028732299805, 1.5006141662597656, -1.102820634841919, -0.9370115995407104, 0.41053369641304016, -0.11355224251747131, -0.035513658076524734, 1.3706095218658447, -0.7573867440223694, 1.0899159908294678, -0.3473562002182007, 0.5925477147102356, 0.3967286944389343, -2.740124225616455, -1.4075158834457397, 1.3098533153533936, -0.051976948976516724, 0.17681312561035156, 1.143223524093628, -1.1219477653503418, -1.0006344318389893, -1.5445876121520996, -0.2787356376647949, -0.6564530730247498, 0.22776687145233154, 0.04694613441824913, 0.6084802746772766, 0.3077581822872162, 0.7413324117660522, 0.1881229430437088, -0.08018018305301666, -0.9659793972969055, 0.04936617612838745, 0.47149938344955444, 0.687218964099884, 1.1947581768035889, 1.9746372699737549, -0.624953031539917, 2.3974175453186035, -1.6832103729248047, 1.1424039602279663, 0.029043588787317276, -1.0299925804138184, -0.5326269268989563, -0.7601354718208313, -0.722215473651886, -0.14189785718917847, 0.6186001300811768, 0.06225935369729996, 0.7906519174575806, 0.0875837504863739, 0.11323704570531845, 1.4177640676498413, 0.7251495718955994, 0.2831888794898987, 0.6234171390533447, 0.4438723027706146, -1.0159928798675537, -2.8224687576293945, -0.8074538111686707, 1.729325294494629, -0.5321065187454224, -0.28253108263015747, -0.398409903049469, 0.28486838936805725, 0.6276909708976746, 1.1015551090240479, 0.07182818651199341, -0.538402259349823, 1.6161887645721436, 0.04899400845170021, 0.9462384581565857, -2.9960501194000244, -0.35974806547164917, -1.324039101600647, 0.20738652348518372, 0.021006571128964424, 0.7932010889053345, 0.6062102317810059, 0.7520303726196289, 0.4456190764904022, 1.643876314163208, 0.25830745697021484, -0.44932159781455994, 0.6959815621376038, 1.5284504890441895, 0.6800152063369751, -1.517579436302185, 0.4725385308265686, 0.5326606631278992, 0.04068105295300484, 0.02669534832239151, 0.7961941361427307, 0.3135533630847931, 0.16242779791355133, 0.21167270839214325, -0.6450149416923523, -0.09017246216535568, -0.8147864937782288, -0.21006348729133606, 0.2725813388824463, 0.5303717851638794, 0.15764451026916504, -0.7807205319404602, 0.4364328682422638, -0.8552303910255432, -0.3820909261703491, -0.47372743487358093, -3.0329647064208984, -1.2244303226470947, -1.3180127143859863, -0.7202625870704651, 0.5702211260795593, 1.041162133216858, -0.42120641469955444, -0.20874668657779694, -0.9501827359199524, 0.0784449651837349, -0.23069755733013153, -0.7825362682342529, 0.8438155055046082, -1.6503092050552368, -0.10371657460927963, 0.19559338688850403, 3.6814723014831543, 1.1772961616516113, 0.6559272408485413, 2.273954153060913, 0.4599032402038574, -0.08761146664619446, 0.6968187689781189, 1.188363790512085, -1.4463365077972412, -0.8228185176849365, -1.255330204963684, 1.6228927373886108, 0.0882706567645073, -0.8868078589439392, 2.2192885875701904, -0.8145230412483215, 0.06343704462051392, -0.10056351125240326, 0.04389030486345291, 0.4363612234592438, -0.0802454873919487, -2.2670035362243652, -0.6755408048629761, 0.019463350996375084, -1.0666141510009766, -0.7210679650306702, -0.8997888565063477, -2.162849187850952, 0.49371376633644104, 2.1352338790893555, 1.145465612411499, -0.19768700003623962, -0.33356913924217224, 0.37905746698379517, 0.4188544452190399, -1.330016016960144, 0.9928014874458313, 1.1894843578338623, -1.3787860870361328, -0.4567810893058777, 0.004498110618442297, 1.338822603225708, 0.19714386761188507, -0.04494442418217659, 0.4396539628505707, 0.8413476347923279, -0.7941092252731323, 0.25203388929367065, -0.8996416330337524, -1.2924588918685913, 0.4509297013282776, -0.1763075292110443, 0.7316426038742065, -0.27502477169036865, -2.042541742324829, 0.1718812882900238, -1.3210554122924805, -2.1796581745147705, -1.804823875427246, 1.1006652116775513, 2.0913469791412354, -0.19260841608047485, 0.4624992609024048, -0.18729496002197266, -1.3272382020950317, 0.5228025317192078, 0.13738471269607544, -0.0371972993016243, 0.1437104493379593, -0.3603185713291168, -1.155820369720459, -0.026297729462385178, -0.2585068345069885, 0.5871394276618958, 0.13413271307945251, -1.1259831190109253, -0.643890380859375, -1.8138238191604614, -0.1699705272912979, 0.28608936071395874, -0.06690946966409683, -0.5204377174377441, 0.1576247215270996, -2.125488519668579, 0.07508185505867004, -0.13998906314373016, -0.6081496477127075, 0.31095176935195923, -0.8688985705375671, 0.12045120447874069, 0.04679807648062706, -0.3047940731048584, -1.1478075981140137, 0.4075744152069092, 0.06892982125282288, -0.020532751455903053, 0.11498948186635971, -0.014179997146129608, 0.43413403630256653, -0.10566439479589462, 0.3158890902996063, 0.5457615256309509, -0.07184160500764847, 0.21943260729312897, -0.07156626880168915, -0.29161617159843445, -0.8153321743011475, -0.5135828852653503, -1.1009392738342285, -1.13800847530365, -0.2701941132545471, -0.1553238332271576, 0.9298294186592102, 0.20372261106967926, 0.13245074450969696, -0.31337249279022217, -0.5066685080528259, -0.42855310440063477, 0.7086395621299744, -0.23654425144195557, -0.27782341837882996, -0.45311957597732544, 0.16783985495567322, 0.3758182227611542, 0.34290385246276855, -0.08626005053520203, -0.46125757694244385, 0.7381038665771484, 0.23529691994190216, 0.3733184039592743, -0.07043971866369247, -0.36640453338623047, -0.4112086892127991, 0.8176994919776917, -0.4025847017765045, -0.23784439265727997, 0.25232985615730286, 0.5296894907951355, 0.19662047922611237, -0.31604039669036865, -0.01605641096830368, -0.0861799418926239, 0.03158343583345413, 0.2239508181810379, 0.22268258035182953, 0.138942688703537, -0.1881583333015442, -0.021962352097034454, -0.09711145609617233, -0.037142254412174225, 0.049981892108917236, -0.02907879650592804, 0.03031935542821884, 0.16589891910552979, -0.1283506602048874, -0.16704750061035156, 0.0428803451359272, 0.38513579964637756, 0.14646077156066895, 0.11023414880037308, -0.3124741017818451, -0.007473664823919535, -0.0019981027580797672, 0.12843911349773407, 0.10876109451055527, -0.16394071280956268, 0.12651918828487396, 0.229482963681221, 0.01582036353647709, -1.0360674858093262, -0.035874996334314346, -1.2161144018173218, -0.17915868759155273, 0.19490616023540497, -0.21019703149795532, -0.5860918760299683, 0.08639725297689438, -0.32380762696266174, 0.016442645341157913, 0.7576131224632263, -0.7626304030418396, -0.4695923626422882, -0.1901942491531372, -0.7095971703529358, 0.07876736670732498, -0.1309080570936203, -0.12399370968341827, -0.635883092880249, -0.1142626479268074, 0.32655951380729675, -1.036928415298462, 0.10368495434522629, 0.12646904587745667, -0.9153398871421814, 0.20532965660095215, -0.33288976550102234, 0.5464351177215576, -0.6187949776649475, -1.249744176864624, 0.09773265570402145, 0.38431650400161743, 0.034706104546785355, 0.8838025331497192, 0.9588094353675842, 1.20699942111969, 0.016066910699009895, -0.3870306611061096, 0.25502729415893555, 0.28885141015052795, 0.5732203125953674, 0.011057824827730656, 0.6848247051239014, -0.04450776427984238, -0.404295951128006, -0.746452271938324, 0.05759461224079132, 0.1139073520898819, 0.513240396976471, 0.172725647687912, 0.24105104804039001, 0.8844972252845764, -0.3505443334579468, -1.2923150062561035, -0.3855794668197632, 0.20810535550117493, -0.5797434449195862, 0.8473584651947021, -0.017070526257157326, 1.7229875326156616, 1.0695430040359497, -1.5144751071929932, 0.6371454000473022, -0.49282076954841614, 0.47223401069641113, 0.3853205740451813, 0.16484355926513672, -0.16556821763515472, 0.42638832330703735, -1.6194188594818115, 0.17320071160793304, -0.3043081760406494, -0.5269249677658081, -1.3259755373001099, -0.5613840222358704, -1.110323429107666, -1.449010968208313, -1.016693115234375, -0.09673606604337692, 0.6765630841255188, -1.271181344985962, -1.3415111303329468, -0.7853760123252869, 0.34194234013557434, -0.01474346499890089, 0.6992361545562744, -0.4059014916419983, -0.4631785452365875, -0.018692001700401306, 0.08073323965072632, -0.11379803717136383, -0.8323264718055725, -0.743969738483429, -0.26726746559143066, -0.3014640212059021, -0.7548516392707825, 1.8617650270462036, -0.4619639217853546, 1.2213096618652344, -0.1714968979358673, -0.5227600932121277, -0.10303869843482971, -0.12622658908367157, 0.08448846638202667, -0.3759702444076538, -0.840573251247406, 0.09352895617485046, 0.08919329196214676, 0.7476041316986084, -0.362763375043869, 0.008648483082652092, -1.0579770803451538, -0.4184354245662689, -0.09605320543050766, -0.24234159290790558, -0.5756028890609741, -1.0125941038131714, -1.4566779136657715, 0.38421937823295593, -0.19034765660762787, -0.0850692018866539, 0.40659087896347046, -0.43854543566703796, 0.8235626220703125, -0.6807560324668884, -0.5544013381004333, -0.21412859857082367, -0.3305239677429199, -2.371689796447754, -0.8880504369735718, 1.6488559246063232, 0.6952410936355591, -0.298309326171875, -0.23921361565589905, 0.8919169306755066, 0.35289883613586426, 1.5429537296295166, 0.26838383078575134, 1.0589770078659058, 0.47221335768699646, -2.8933281898498535, 0.26099446415901184, 0.7874838709831238, -0.04689813405275345, -0.3142450749874115, 0.14244337379932404, -1.0927269458770752, 1.2985403537750244, -0.5872721672058105, -0.2953996956348419, 0.318686306476593, 1.8930890560150146, -0.8223903179168701, 0.3905133306980133, 0.07600786536931992, 1.4318301677703857, 0.6237841248512268, -2.574471950531006, -0.03965393453836441, -2.6591856479644775, 0.6466537117958069, 0.5300461053848267, 0.6344175934791565, 0.0005330814165063202, 1.9363654851913452, 0.114747054874897, 0.11156093329191208, 0.10215099155902863, 0.061052583158016205, -0.1124415323138237, 0.22721120715141296, 0.21503862738609314, -0.17471913993358612, 0.04411623254418373, 0.009201010689139366, 0.10504741221666336, 0.10484321415424347, 0.03199781849980354, -0.3250458538532257, -0.04492885246872902, 0.11539867520332336, 0.1034451425075531, 0.1995043158531189, -0.19389016926288605, 0.5987734198570251, 0.14832375943660736, 0.16780203580856323, 0.2227509766817093, -0.4682002067565918, 0.14244621992111206, -0.028653252869844437, 0.11135686933994293, 0.5464085936546326, -0.023789862170815468, -0.06630409508943558, 0.10903438925743103, -0.6085010170936584, 0.20441065728664398, -0.14201584458351135, 0.5004214644432068, -0.09548352658748627, 0.17986293137073517, -0.3855874240398407, -0.18412421643733978, -0.09736407548189163, 0.36661842465400696, -0.08811883628368378, -0.3214867413043976, 0.2534067928791046, -0.00032535535865463316, 0.057421181350946426, 0.06933443993330002, -0.5022080540657043, -0.1659013330936432, 0.2822049856185913, -0.008556808345019817, -3.0293054580688477, -0.2138698697090149, -2.240321636199951, 0.27438461780548096, -0.40836405754089355, -0.9004814624786377, -1.0903760194778442, -0.5472855567932129, -0.22866599261760712, -0.24976465106010437, 0.9429154396057129, -1.234664797782898, -0.5655101537704468, -0.06812403351068497, -1.0220446586608887, -0.2657127380371094, 0.08587826788425446, -0.4471622705459595, -0.5060114860534668, -0.0666787177324295, 0.723099946975708, -0.4608444273471832, 0.29595258831977844, 0.2600873112678528, -0.845196545124054, 0.8458186388015747, 0.9780681133270264, 1.623241662979126, -0.037608157843351364, -1.127532720565796, 0.37040844559669495, -0.815180778503418, 0.526588499546051, 1.1330050230026245, -0.4929004907608032, 0.47868919372558594, 0.49411216378211975, -0.8818279504776001, 0.644472599029541, 0.527614176273346, 1.0805553197860718, 0.025923071429133415, 0.20125335454940796, 0.2672150135040283, -1.973516821861267, -0.017491374164819717, 0.020177576690912247, 0.11830101162195206, -0.05562668666243553, 0.1997254192829132, 0.02494734339416027, -0.06888306885957718, 0.10584121942520142, -0.1601521372795105, 0.06854604929685593, -0.36604753136634827, -0.07476131618022919, -0.3248694837093353, -0.09911540150642395, -0.014359628781676292, -0.6016189455986023, 0.03483507037162781, 0.3616606891155243, 0.21113447844982147, 0.1896529495716095, -0.06535358726978302, 0.003019551746547222, -0.20332548022270203, -0.3793383240699768, -0.8366603851318359, 0.22965535521507263, 0.17197737097740173, 0.34225693345069885, 0.02652335725724697, 0.14033837616443634, 0.04896758496761322, 0.03591294586658478, 0.5059311985969543, -0.18839570879936218, 1.4710742235183716, -0.16842077672481537, -0.01622934825718403, -0.5413710474967957, 0.04713065177202225, -0.4800323247909546, 0.6911296248435974, -0.5613048076629639, -0.3634966313838959, -0.17766700685024261, -0.01319526694715023, 0.12391450256109238, -0.4818286895751953, -0.5228761434555054, -0.6509458422660828, 0.0755443200469017, 0.26533493399620056, -0.24482138454914093, 0.2751688063144684, 0.13201384246349335, 0.4629044532775879, -0.5864521265029907, -1.186918020248413, -0.08441492915153503, -0.17575500905513763, -0.08959294110536575, 0.20582690834999084, 0.05487557873129845, 0.4499296545982361, 0.04554153233766556, -0.24542252719402313, 0.11908148229122162, -0.5884026885032654, 0.3797624409198761, 0.17658887803554535, 0.3611181080341339, -0.13958416879177094, -0.6001472473144531, -0.22055824100971222, 0.002895913552492857, 0.14874933660030365, -0.08763682097196579, 0.12882468104362488, -0.09496963769197464, 0.06252529472112656, 0.04787950962781906, -0.12034823000431061, 0.06857413053512573, -0.1425410509109497, -0.012075096368789673, 0.21071314811706543, -0.03223928436636925, 0.3227030038833618, -0.02145286463201046, -0.03612067922949791, 0.17570389807224274, 0.16391371190547943, 0.2698923349380493, 0.1316826194524765, 0.18447978794574738, 0.10590668767690659, -0.2847042679786682, -0.17321884632110596, -0.17195665836334229, -0.7236305475234985, -1.088732123374939, -0.46961739659309387, -2.071648359298706, 0.07732606679201126, -0.9495744705200195, 0.5035555958747864, -0.7406108975410461, 0.6618437170982361, -0.7616177201271057, 0.6947256922721863, -1.8324801921844482, -0.06524892151355743, -0.9437673091888428, -0.962729275226593, -1.7439221143722534, -1.1054216623306274, -2.1029860973358154, -0.1116919219493866, -0.28136104345321655, -3.1966755390167236, 1.2025038003921509, -0.6919066905975342, 0.38971132040023804, -1.438333511352539, 0.1784558892250061, 0.7482224106788635, 1.095211386680603, 0.3718056380748749, -1.0440300703048706, -2.184030771255493, -0.9217837452888489, 1.7562222480773926, -1.8717896938323975, -0.41269993782043457, -0.13601554930210114, -0.572278618812561, -1.7563430070877075, 1.625733733177185, -1.7632426023483276, 0.15436804294586182, 0.7463581562042236, 0.17385348677635193, 0.29414302110671997, -0.1799716353416443, -1.9898793697357178, -0.2890574038028717, -0.07501813769340515, -0.30083131790161133, 0.35358381271362305, -0.47839489579200745, -0.8492123484611511, -0.4144187569618225, -0.8653866052627563, -0.3509371280670166, -0.7586427330970764, 0.9769320487976074, 1.1992429494857788, 2.20330810546875, -0.18542125821113586, -0.5681833624839783, -0.418599933385849, 0.18236616253852844, -0.9625489711761475, 1.3388969898223877, -0.6091331839561462, -0.21900051832199097, -0.021478500217199326, 0.8636334538459778, -0.6242552399635315, -1.1178237199783325, 0.023289944976568222, 0.5821488499641418, -0.9222962856292725, 0.23923806846141815, -1.9223263263702393, -0.49189937114715576, 0.17906492948532104, 0.3068768382072449, -0.5459172129631042, 0.6084470748901367, 0.27477312088012695, -1.007481575012207, 0.2446514219045639, 0.748366117477417, 0.48240289092063904, 0.9244143962860107, -0.6171216368675232, 1.9388498067855835, -0.5836927890777588, 0.0019041637424379587, -0.22561267018318176, -1.1886066198349, 0.18963396549224854, 0.38942989706993103, 0.06789811700582504, -0.45968374609947205, -1.2728222608566284, 0.2948910892009735, -0.18168635666370392, 0.22159278392791748, -0.06371384114027023, -0.7217916250228882, 1.9657326936721802, -1.1493557691574097, -0.09658690541982651, 0.3886771500110626, -0.40086692571640015, -0.4597075581550598, 1.0782850980758667, -0.5040631890296936, -0.8843212723731995, 0.3937072157859802, -0.2867701053619385, 0.3642129600048065, -0.07279446721076965, 0.519081711769104, -0.13564108312129974, 0.8438381552696228, -0.22448140382766724, -0.09654634445905685, -0.8370216488838196, -0.16530050337314606, -1.5015875101089478, -0.024230772629380226, -1.2888671159744263, 0.43512168526649475, -3.309601306915283, 0.38336148858070374, -0.2781406342983246, 0.0886666476726532, -1.5614140033721924, -0.028220539912581444, 0.4667666554450989, -2.9014365673065186, 0.5571174025535583, -0.638691246509552, -1.426261067390442, -0.07262081652879715, -0.8489187955856323, -1.7233926057815552, -0.6416388750076294, -0.40119823813438416, 0.12038398534059525, 0.10156100243330002, -0.41919606924057007, 0.1493859440088272, -0.04241035878658295, 0.570395827293396, -0.12276394665241241, -0.8896624445915222, 0.26881811022758484, -0.2268310785293579, 0.07688174396753311, 0.25589415431022644, -0.1235942468047142, -0.20679111778736115, -0.15218375623226166, -0.22990509867668152, 0.35692286491394043, 0.0871538296341896, 0.6436619758605957, 0.3971824049949646, 0.6058676242828369, -0.012395399622619152, -0.6215954422950745, -1.0370622873306274, 0.5007739067077637, 0.01759321242570877, -0.890367865562439, -0.044229231774806976, -1.1362124681472778, 0.25803142786026, -0.8276144862174988, -1.5563747882843018, -0.20001059770584106, 0.2242344170808792, -0.7168939709663391, 0.3581690192222595, 1.023185133934021, -0.46764689683914185, -1.3260349035263062, -0.5182024240493774, -0.27430111169815063, -0.26365694403648376, 0.39399680495262146, 0.0022026028018444777, 0.487111896276474, 0.19122880697250366, 1.0605404376983643, 0.30964556336402893, -0.3766123056411743, 0.1709698885679245, 1.5998883247375488, -0.4671019911766052, 0.6339038610458374, 0.17136617004871368, -0.2376377284526825, 0.262649804353714, 0.9055800437927246, -0.05793491378426552, -0.36162352561950684, -0.012203574180603027, -0.0671778991818428, 0.4265524744987488, 0.5109610557556152, -0.9125903248786926, -0.060037072747945786, -0.4211447238922119, -0.8049930334091187, -0.06897899508476257, -0.30412572622299194, 0.33051425218582153, 0.7630748152732849, -0.06317127496004105, -0.15674911439418793, -0.8007006049156189, 0.47076180577278137, 0.018050795421004295, 0.6078463196754456, -0.29744240641593933, -1.1478919982910156, -0.2040136307477951, -0.3347657322883606, 0.5872781276702881, -0.5400667190551758, -0.17256011068820953, -0.4121529757976532, -0.22336260974407196, 0.43469110131263733, 0.18234401941299438, 0.13227854669094086, -1.9392151832580566, 0.17607517540454865, -0.11038265377283096, -0.42090463638305664, -0.5278462171554565, -2.045562744140625, -0.2236177772283554, -0.020503856241703033, 0.37839850783348083, 0.3976154029369354, 0.4436039328575134, 0.3034026324748993, 0.3988278806209564, 1.0059207677841187, 0.22724848985671997, 0.8805453181266785, -0.05367482453584671, -0.2040412724018097, -0.6332454681396484, -1.440224528312683, -1.170547366142273, -2.1569159030914307, -0.11629423499107361, -0.1990504115819931, 1.1347169876098633, -0.09871894866228104, 0.20296643674373627, -0.33602625131607056, -0.6755226850509644, -0.3559499680995941, -0.06618355959653854, -0.381439745426178, 0.2891403138637543, 0.07500600069761276, 0.30174559354782104, -0.3087806701660156, 0.44822701811790466, 1.0725092887878418, -0.32656151056289673, 0.24825334548950195, -0.5047608613967896, -0.47123128175735474, -0.5799764394760132, -0.262456476688385, -1.4772253036499023, -2.449916362762451, -0.5464200973510742, -0.38279128074645996, 2.133476972579956, -0.6786611676216125, 0.15797345340251923, 0.3048817813396454, -1.0596272945404053, -0.01130257174372673, -1.319218397140503, -0.11812523752450943, -0.1441347450017929, -0.9165027141571045, 0.5220901966094971, 0.19655033946037292, 0.9524360299110413, -0.13522100448608398, -1.4324359893798828, 0.49390628933906555, -0.47578197717666626, -0.6672075986862183, -0.5141717195510864, -0.6581582427024841, -0.36170893907546997, -1.0335237979888916, 0.36031562089920044, -0.16183914244174957, 0.4700467884540558, 1.1676477193832397, 0.048067960888147354, 0.10626067221164703, 0.1325564980506897, -2.23581600189209, -1.0898404121398926, 0.19724063575267792, -0.6729929447174072, 0.2096199095249176, -0.6597414016723633, -1.0325493812561035, -0.05807944014668465, -2.7277982234954834, -0.5773183703422546, -1.5386345386505127, 1.0718930959701538, -0.7486473321914673, -0.09921391308307648, 0.37844082713127136, 1.691715121269226, 0.7159051299095154, 0.34151947498321533, 0.11708157509565353, -0.8000355362892151, 0.35563230514526367, 0.16125477850437164, 0.326018363237381, 0.14341777563095093, -0.1934288591146469, 0.8941941857337952, -0.4307765066623688, 0.04050213471055031, -2.1429731845855713, 0.5444834232330322, -1.1575589179992676, -0.020398138090968132, 0.7953604459762573, 1.5235921144485474, -0.31969884037971497, -0.11046142131090164, 0.42610159516334534, -0.7434170842170715, 1.3231102228164673, -1.8347371816635132, -1.4882652759552002, -0.29677802324295044, 0.18629670143127441, -0.09044390171766281, -2.120702028274536, -0.0884966030716896, -0.6892298460006714, 1.059981107711792, -0.4351654648780823, 0.8469157814979553, -0.3850760757923126, -0.10603580623865128, 1.8581839799880981, 0.18431299924850464, 1.7551261186599731, -0.11684677749872208, -0.1648276150226593, 0.6258907914161682, 0.9371337890625, 0.5194563269615173, -0.644421398639679, -0.6577691435813904, 2.1138107776641846, 1.0106180906295776, 1.0428862571716309, 0.3654419183731079, -0.6733273863792419, -0.9540038704872131, 0.20840609073638916, 0.1729324758052826, 0.03631245344877243, 1.2973295450210571, -1.3461540937423706, -0.11799554526805878, 0.2856415808200836, 1.0473467111587524, -0.722308874130249, 0.3270498514175415, -1.1002358198165894, 0.6929828524589539, 0.5798913240432739, -0.11619651317596436, -0.1751444935798645, -0.4688912630081177, -0.3895112872123718, -0.0317637100815773, -0.38082677125930786, 0.4363594055175781, -1.1743981838226318, -0.12339029461145401, -0.3122836649417877, 0.4717145562171936, -0.07796682417392731, -0.13123832643032074, 0.051415059715509415, 0.731219470500946, -0.48383620381355286, 0.888806164264679, 0.12986695766448975, -0.562969982624054, -0.059217583388090134, -0.07600424438714981, -0.3073614537715912, 1.0132555961608887, 0.555581271648407, -1.7486213445663452, -0.9167081117630005, -0.10418763756752014, -0.17989954352378845, 0.22158727049827576, 0.5819351673126221, 0.1518605351448059, 1.1850636005401611, -0.7773904204368591, -1.4118387699127197, -1.0050573348999023, 0.40345850586891174, -0.3913409411907196, -0.264127641916275, 1.3854578733444214, -2.0813992023468018, 2.3338563442230225, 0.10181310772895813, 0.5675825476646423, 0.9804128408432007, 0.6875509023666382, -0.12284593284130096, 0.7993862628936768, 0.03519930690526962, -2.508575201034546, -3.090381383895874, 1.059442162513733, -2.4184083938598633, 0.0014311979757621884, 0.9630194902420044, -0.40146926045417786, -0.6382158398628235, 0.3239884674549103, -0.7729508876800537, -0.50888991355896, -0.8285295367240906, 0.40363869071006775, 0.7305271029472351, -0.8163604736328125, -0.005680023226886988, 0.9208593368530273, 0.027064017951488495, -0.4364990293979645, 1.0598124265670776, 0.9909294843673706, -0.5734745264053345, 0.10679174959659576, 0.4019845426082611, -1.4487591981887817, -0.7610216736793518, 0.13260214030742645, 0.6582304239273071, 1.217649221420288, -0.4264043867588043, -1.0038055181503296, 1.9799466133117676, -1.9113517999649048, 1.5816792249679565, -0.37562811374664307, 0.1575518697500229, -0.19302253425121307, -0.43926194310188293, -0.22020742297172546, 0.0481913797557354, 0.1462397575378418, 0.0037354922387748957, 0.30810657143592834, 0.04725002869963646, 0.17694133520126343, -0.17292387783527374, -0.01587611995637417, 0.022142259404063225, 0.06636671721935272, 0.015504425391554832, -0.3098601698875427, 0.06954990327358246, -0.12085863947868347, 0.05738955736160278, 0.3198241591453552, -0.07930880784988403, 0.027076968923211098, 0.06205521151423454, -0.022093359380960464, -0.21911057829856873, 0.2752067744731903, 0.02437935769557953, -0.014851708896458149, -0.10834662616252899, -1.0541621446609497, 0.26190441846847534, 0.4952051639556885, 0.373847097158432, 1.2697460651397705, 0.16530661284923553, 0.16560111939907074, -0.8300825953483582, 1.3964751958847046, 0.6441665291786194, 0.05251441150903702, 0.3582756817340851, -1.1969876289367676, 1.0294570922851562, -0.21847356855869293, -0.025871261954307556, -1.3533769845962524, 0.7568218111991882, 0.16152341663837433, -1.4579983949661255, 0.521248459815979, 0.10869231075048447, 0.9128391146659851, -0.04394235461950302, 1.7502270936965942, 0.23845992982387543, 0.3845613896846771, -1.1433051824569702, -0.18879413604736328, 0.806316614151001, 0.05245499312877655, 0.23528628051280975, 1.0441834926605225, 0.7704318165779114, 2.491783380508423, 0.2858731150627136, 0.8147157430648804, 0.7653986811637878, -0.02172892726957798, -0.8988851308822632, 0.29865026473999023, -0.8226040601730347, 0.08980390429496765, 0.5194277167320251, 0.014595015905797482, 0.1282094120979309, -0.3236273229122162, 0.9572077989578247, -1.2056094408035278, -0.2084115892648697, -0.011400382034480572, 1.2810255289077759, 0.3434047996997833, -0.5385968685150146, -0.04852081835269928, -1.5388317108154297, 0.48783478140830994, -0.2794026732444763, -0.9057610034942627, 0.6517928838729858, -0.7433845400810242, -2.033611297607422, -0.7388880252838135, 0.10893187671899796, -0.9552938938140869, 0.9252456426620483, -1.3221677541732788, 0.25208723545074463, 0.2855696380138397, -0.37722235918045044, 0.4748072326183319, 1.3149315118789673, -0.5958313941955566, -0.17049634456634521, 0.04827415943145752, 0.976209282875061, 0.5691193342208862, 0.8518016338348389, 1.3764086961746216, -0.508274495601654, -0.24059619009494781, -1.3776308298110962, -1.1794472932815552, -0.5616238117218018, -1.2861047983169556, -2.2646608352661133, 0.009832320734858513, 1.032935380935669, 0.507477343082428, -0.9613739848136902, 0.7764721512794495, -1.2474273443222046, 0.013112779706716537, -0.40669944882392883, -0.9178267121315002, 0.2208862453699112, -0.16288605332374573, 0.3176746666431427, 1.1649419069290161, -1.3934826850891113, 0.323967307806015, -0.8176989555358887, 0.9987021684646606, 0.030908070504665375, -0.4324677586555481, -0.022447263821959496, -0.2085799276828766, 0.11108909547328949, 0.1066218838095665, -0.6033895611763, 1.0018190145492554, -1.1931089162826538, 0.2581327557563782, -0.5044577121734619, 0.42454883456230164, -0.2820664942264557, 0.033838339149951935, -0.24866752326488495, 0.6983885169029236, -0.6916618347167969, -0.47074782848358154, -0.22440622746944427, -0.8995800018310547, -1.2428932189941406, -0.24559496343135834, -0.9665346741676331, -0.012915718369185925, -2.7913646697998047, -0.5264569520950317, 1.4956328868865967, -0.900615394115448, -0.7445234060287476, -1.4605852365493774, 0.4933387041091919, 0.6523177027702332, 0.00775561248883605, 1.303505539894104, -0.5235912203788757, -0.39670467376708984, -0.03159172460436821, 0.10533574223518372, 0.35892999172210693, -0.03472587466239929, -1.1411243677139282, 0.273231565952301, -0.6928724646568298, 0.09865368902683258, 0.2589888870716095, 0.956879198551178, -0.5389663577079773, -0.46650269627571106, -0.503066897392273, 0.3503137528896332, -1.178837537765503, -1.6511549949645996, -0.30045488476753235, -0.5307016372680664, -1.2587933540344238, -0.12097437679767609, -0.7150323390960693, -1.3554644584655762, 1.106031060218811, -0.3214099705219269, -0.08706790953874588, -0.2738937437534332, -0.8311544060707092, 1.1837496757507324, 0.21322664618492126, -1.3744823932647705, 0.3278696537017822, 1.1056784391403198, -0.25917115807533264, 1.1378754377365112, 0.3831538259983063, 1.1537572145462036, -0.028068499639630318, -0.28298383951187134, 1.48288094997406, 0.0249418243765831, 1.64175283908844, 1.2542279958724976, -0.6736491322517395, 0.0942222848534584, -1.9033745527267456, -0.13779999315738678, -1.1064701080322266, 2.54227876663208, -1.3186168670654297, -0.12855809926986694, -0.17377734184265137, 0.684963047504425, 1.4383643865585327, 0.5156729817390442, -0.1826712042093277, 0.15897749364376068, -0.6316447854042053, -0.51777583360672, 0.19897542893886566, 0.10574882477521896, -0.433419406414032, -3.7890400886535645, -0.5896210670471191, 1.234950304031372, -0.6968646049499512, 1.051108717918396, 0.3237999975681305, 1.7601057291030884, 0.363659530878067, 0.13747522234916687, -1.0473204851150513, 0.5217004418373108, 1.1684770584106445, 0.48805004358291626, 0.8294296860694885, -0.3463895320892334, -0.18280594050884247, 1.71566641330719, 0.08712062984704971, 0.7793778777122498, 0.514672040939331, 0.1433296948671341, 0.5871077179908752, 0.6132674813270569, -0.3144383430480957, -0.12013974040746689, -0.7240722179412842, 0.31061840057373047, -0.7900446057319641, 0.6947119235992432, 1.1535146236419678, 0.09270081669092178, 1.2974966764450073, 0.14549914002418518, -0.5782353281974792, 0.8312384486198425, 0.7940639853477478, 0.2338123619556427, 0.03193986788392067, -0.3967880308628082, 0.2941441237926483, -1.8135994672775269, 0.24849772453308105, 0.34344807267189026, 0.8681018352508545, 0.885105311870575, -0.5563824772834778, 0.12367165088653564, -1.1521151065826416, 0.06018708273768425, 0.34179601073265076, -0.026833536103367805, 0.6705033779144287, 0.032343726605176926, -0.1689150482416153, -0.43499425053596497, -1.220127820968628, -1.5602827072143555, 1.3392627239227295, -0.41934239864349365, -0.6148362755775452, 0.09070669114589691, 0.03909677267074585, -0.509276270866394, 0.26284199953079224, -0.27278801798820496, 0.29774704575538635, -0.14951977133750916, 0.1641951948404312, -0.17763866484165192, 0.7575485110282898, 0.26359134912490845, -0.4660801589488983, -0.8095465898513794, 1.622611403465271, 1.6326109170913696, -0.40565717220306396, 0.2860346734523773, -0.5501986742019653, 1.0854617357254028, -0.19221597909927368, -0.5608890652656555, -0.5249996185302734, -1.8074895143508911, -0.40106165409088135, 0.2532285749912262, 0.20117561519145966, 0.8171595931053162, 0.07783038169145584, -1.4298192262649536, -0.09137953072786331, -0.09005534648895264, -0.9177722930908203, 0.47530001401901245, 0.7413507103919983, 0.5209552645683289, -0.040022559463977814, 0.450343519449234, -0.11031356453895569, -0.21368122100830078, -0.21762636303901672, -1.1574783325195312, -0.33893299102783203, 0.309790700674057, -1.097391128540039, -1.0870352983474731, -0.495584636926651, -0.0861290991306305, -0.874045729637146, -0.14581038057804108, -0.43654876947402954, 2.057185411453247, 0.22736087441444397, 0.6528255939483643, -0.05606384202837944, 0.6595242023468018, -1.2413477897644043, -1.895540714263916, 0.7393280267715454, -0.05894039571285248, -0.11957245320081711, -1.4057202339172363, 1.32515549659729, 1.0949479341506958, -2.048661947250366, -1.5162755250930786, -1.6585702896118164, 0.8139058351516724, 0.0430140346288681, 0.838842511177063, -1.159072756767273, -0.40629082918167114, -0.3472819924354553, -0.5127061605453491, -0.11920605599880219, -0.49206891655921936, 0.006018598563969135, 0.6690859198570251, 0.789908766746521, -0.3613985478878021, 0.21800260245800018, 0.485581636428833, -0.48053446412086487, 1.074729084968567, -0.6612146496772766, 0.9839626550674438, -2.1659457683563232, -0.13049975037574768, -1.0287460088729858, -0.5963459610939026, -0.24415521323680878, -0.09704715758562088, -0.35931503772735596, -1.5377907752990723, 0.40935176610946655, -0.30822449922561646, -2.0161168575286865, 0.06426090747117996, 0.10660231113433838, 0.3757299482822418, 0.1461944729089737, -0.750928521156311, 0.5104918479919434, 0.38583672046661377, 1.3341630697250366, 0.17162185907363892, 0.7487356066703796, 0.23682460188865662, 0.0842064917087555, -0.10767139494419098, 1.7572664022445679, 0.23098048567771912, -1.329418420791626, -0.9351226091384888, 0.9983865022659302, -0.9905585646629333, 1.7932746410369873, 1.4812315702438354, -1.964207410812378, -1.4084718227386475, 1.5377384424209595, 0.37726157903671265, 0.9566451907157898, 1.387369155883789, -1.7340656518936157, 0.8407738208770752, -0.4066128134727478, -0.46141815185546875, -0.4193122684955597, -0.8098526000976562, -0.2798160910606384, -0.07934799790382385, -1.7119539976119995, -2.0317373275756836, -1.6105870008468628, 0.06143217533826828, -1.4862494468688965, -0.6065853238105774, -0.8883641958236694, -0.055434633046388626, 1.2446943521499634, 0.3602721691131592, -1.7822195291519165, -1.2508949041366577, 0.3447389304637909, 0.1148330420255661, -0.06513875722885132, -1.4627288579940796, -0.12971670925617218, 0.821923553943634, -0.08871738612651825, 0.4672381281852722, 0.18906192481517792, -0.29954347014427185, -0.13950049877166748, -0.3104660212993622, -1.7380574941635132, -1.384121298789978, 0.008092968724668026, 0.23117101192474365, -0.18287916481494904, 1.0020842552185059, 1.6426459550857544, -1.1400885581970215, -0.23964515328407288, 1.8620890378952026, 0.6091853380203247, 0.786349892616272, 0.5522361993789673, 0.5983892679214478, 0.9024217128753662, -0.4082651436328888, -0.25079286098480225, 1.486768126487732, 0.014080552384257317, 0.5328713059425354, -0.7186183333396912, 0.6629191040992737, -0.48385971784591675, 0.8044682741165161, 1.702122688293457, -0.779942512512207, 0.8301427364349365, 1.1396963596343994, 1.244370460510254, 0.9118334054946899, -0.4224993586540222, -0.09298800677061081, 0.7425577044487, -0.34382814168930054, 0.5838093757629395, 1.4817509651184082, 0.8679795861244202, 0.01255869958549738, 0.3673173487186432, 1.042990803718567, -0.8251732587814331, 0.04842375963926315, 0.2603065073490143, 1.7763521671295166, 0.39867305755615234, 0.5768548846244812, -1.284954309463501, 0.7395011782646179, -0.40507858991622925, -0.8945703506469727, -0.24718232452869415, -1.2022255659103394, 0.662904679775238, 1.0048166513442993, 1.332116961479187, -1.1179590225219727, -0.3551219701766968, 0.9213401675224304, 0.7607437372207642, 1.363637924194336, 1.332790493965149, 0.40198075771331787, 0.5030009150505066, 0.9379794001579285, -0.588834285736084, -0.3017626106739044, 0.01349726878106594, 1.287091612815857, -0.9285637736320496, 0.6822927594184875, -0.7663271427154541, 0.9641544818878174, -0.560621440410614, -0.30201542377471924, 0.21633782982826233, -0.49437665939331055, -0.034022897481918335, -0.11131301522254944, -0.8172170519828796, 0.1982031613588333, -0.2211076021194458, -0.060370393097400665, -0.4684569835662842, 0.841371476650238, -0.35396456718444824, 0.12095974385738373, -0.33372411131858826, 0.63173907995224, -0.971776008605957, -0.19005195796489716, 0.1015830934047699, 0.8718780875205994, -0.9565132856369019, -0.15178640186786652, -0.5439707636833191, 0.5746814012527466, -0.6109334826469421, 0.05250190943479538, -0.006346969865262508, -0.938218355178833, 0.06031138449907303, 0.04154512658715248, -1.1702158451080322, -0.9824999570846558, -0.985435426235199, -0.2759256064891815, -0.2734901010990143, -0.06343403458595276, -0.7540594339370728, 0.010752420872449875, -0.007883887737989426, 0.44223928451538086, -1.1588793992996216, -2.5459651947021484, 0.2646612524986267, 1.4326918125152588, 0.36105403304100037, -0.08604803681373596, -0.6122296452522278, 0.27615970373153687, -0.050207994878292084, 0.03316834196448326, -0.07077623158693314, -1.641112208366394, 0.14144578576087952, -0.07556088268756866, -1.1385382413864136, -0.6739822626113892, -1.707428216934204, -0.4484366178512573, 0.303658127784729, 0.2640936076641083, 0.5965620875358582, 0.2938251197338104, -0.0025142894592136145, -0.6952067613601685, 0.026424868032336235, -0.12034156918525696, -0.2982584834098816, 0.19912995398044586, -0.14940659701824188, 0.9865362048149109, 0.29328685998916626, 0.4132973551750183, 0.38641369342803955, -1.5009856224060059, 1.1861052513122559, 0.4420970678329468, 2.196403741836548, 1.568490982055664, 0.023747459053993225, -0.834108293056488, -1.0242186784744263, -0.28289562463760376, 0.17673033475875854, 0.9396979212760925, 0.08624191582202911, 0.015241358429193497, 0.045977212488651276, 1.1365396976470947, -0.2634190022945404, -0.026495637372136116, -0.3170619308948517, -0.15152963995933533, -0.5050244331359863, -0.0004914356395602226, 0.0574188306927681, 0.20410092175006866, 0.03324953839182854, -1.0813628435134888, 0.1805654913187027, 0.15799425542354584, 0.18332979083061218, -0.05132262408733368, -0.0328141525387764, 0.40228813886642456, 0.5078746676445007, 0.018378565087914467, 0.21080036461353302, 0.04084121808409691, 0.5784679055213928, -0.21865788102149963, 0.1961367428302765, 0.1797035038471222, 0.02109062485396862], "bnMean": [6.213031768798828, -2.494931936264038, -5.6594109535217285, 5.1754536628723145, -5.089716911315918, 1.8258832693099976, -7.964235305786133, 9.73108196258545, 4.512315273284912, 8.374643325805664, -5.796278476715088, -1.2353885173797607, -3.8827714920043945, -1.335052728652954, -4.269382953643799, -1.759979009628296, -0.06345584243535995, 4.431997299194336, 2.758455276489258, 0.40970736742019653, -1.688029170036316, -2.344654083251953, -4.49116849899292, 11.437784194946289], "kernelTypesDim": 1, "upsamplingTypesDimFactor": 1}, {"inputChannelsDim": 24, "roundsDim": 6, "bnVarianceB": [21.34026527404785, 19.738449096679688, 331.20355224609375, 1428.875732421875, 351.4620666503906, 1161.189208984375, 200.13046264648438, 208.72303771972656, 205.33099365234375, 1864.92431640625, 1055.9921875, 781.3119506835938, 15.02833366394043, 17.971813201904297, 370.6199035644531, 74.2344970703125, 453.4958801269531, 1494.2750244140625, 388.2855224609375, 732.4006958007812, 366.17156982421875, 402.17877197265625, 10.940539360046387, 365.629150390625, 942.0521850585938, 1228.5548095703125, 54.84846496582031, 1126.7509765625, 1094.767822265625, 983.1234741210938, 2178.06494140625, 374.19403076171875], "bnGammaA": [0.21696510910987854, 0.6458864808082581, 1.2592989206314087, 0.10618021339178085, 0.9849327206611633, 1.2989295721054077, 0.1269734501838684, 1.4866578578948975, 0.753595769405365, 1.1231077909469604, 0.029497025534510612, 1.5199660062789917, 1.742558240890503, 0.5461032390594482, 1.2685827016830444, 0.7148225903511047, 0.9164443016052246, 0.903225839138031, -0.028849104419350624, 2.349424362182617, -0.06259680539369583, 0.42397692799568176, 2.259178876876831, 0.2546781599521637, 0.13025808334350586, 0.3967016935348511, 0.07907521724700928, 1.2572057247161865, 0.2731892168521881, 1.4390263557434082, 0.06455762684345245, 1.586771011352539], "typesDim": 3, "convBiasB": [-1.070578582584858e-05, 6.119216413935646e-05, 9.964595619749161e-07, -0.0008423675317317247, -0.0017308838432654738, -0.0007646518060937524, 0.0011623207246884704, -0.0016896151937544346, 4.27420309279114e-05, -0.0017453384352847934, -0.000608676637057215, -0.0014797699404880404, 1.7090704204747453e-05, 2.7567328288569115e-05, -0.0030650843400508165, 4.638151222025044e-05, -0.0021126242354512215, -0.001292517175897956, -2.2174852347234264e-05, -0.0002509577898308635, -0.0015030731447041035, -3.613656008383259e-05, 1.9593378965510055e-05, 0.00048346008406952024, -0.0018038757843896747, -0.0004151792381890118, -1.8153132259612903e-05, 0.00011826981062768027, 0.0005771753494627774, -0.0004014071309939027, -7.826101864338852e-06, -6.180837954161689e-05], "convBiasA": [0.0016452510608360171, 0.0020482116378843784, -0.0022434869315475225, -0.00010220014519290999, -0.001973888371139765, 0.0012754884082823992, 0.0005834908224642277, -0.0019829366356134415, -0.004214890766888857, 0.005104331765323877, -0.0003973250277340412, 0.0016966016264632344, 0.0006902311579324305, 0.0015492693055421114, 0.0023500469978898764, 0.0049179014749825, 0.004115953575819731, -0.001257574767805636, 0.0007712262449786067, 0.0014156707329675555, 0.000582772889174521, -0.00514355069026351, 0.002145842183381319, 0.0003381547285243869, 0.0001403758069500327, 0.0005851906025782228, -0.00012921413872390985, -0.0029491574969142675, 0.0008513933862559497, 0.003954574465751648, -4.302118395571597e-05, 0.0009285634732805192], "className": "finception", "masterInputChannelsDim": 14, "bnBetaA": [-0.8263594508171082, -0.8029563426971436, -2.4279367923736572, -1.4848588705062866, -1.5638700723648071, -2.771136522293091, -1.706083059310913, -3.0573694705963135, -2.2174150943756104, -2.6243674755096436, 0.6858306527137756, 0.1314239501953125, -2.009935140609741, -2.166623592376709, -1.1339524984359741, -1.8222579956054688, -0.7693102955818176, -2.7022833824157715, 1.7342733144760132, -0.2391711324453354, 0.9204063415527344, 2.4726881980895996, -0.9151889085769653, -2.1183128356933594, -1.5488543510437012, -2.2595341205596924, -0.912314236164093, -1.1544615030288696, -2.1899402141571045, -1.5970135927200317, -1.4632865190505981, -0.1845206320285797], "bnBetaB": [-0.3698193430900574, -0.47743797302246094, 1.6292153596878052, -0.42926737666130066, -3.5903940200805664, -0.3015824854373932, -4.530630111694336, -3.898714542388916, -0.34418341517448425, 0.4015148878097534, -0.8026899099349976, -1.5418351888656616, -2.963177442550659, -2.5901293754577637, -1.6439663171768188, -1.888533592224121, -2.4449949264526367, 0.2832150459289551, 0.06774073839187622, -0.008224796503782272, -2.4847960472106934, -0.227759450674057, -0.888532280921936, -1.3066240549087524, -0.9012330174446106, -0.25461599230766296, -0.294089674949646, -0.8992521166801453, -0.02227521501481533, 0.07653605192899704, 2.866856813430786, -2.5113961696624756], "scaleFactor": 2, "bnGammaB": [-0.000329604372382164, 0.0003973939747083932, 0.04271409660577774, 1.3388822078704834, 2.046066999435425, 1.0142852067947388, 2.037397623062134, 1.9624272584915161, 0.06025879085063934, 1.9961695671081543, 1.7460453510284424, 2.358128786087036, -3.0809518648311496e-05, -6.887159997859271e-06, 1.4088115692138672, 0.044736433774232864, 2.8879342079162598, 1.5979578495025635, 0.16718558967113495, 0.600654125213623, 2.1694133281707764, 0.2611260414123535, 0.0003883152676280588, 1.0130109786987305, 2.399268388748169, 2.680558919906616, 0.0004992235917598009, 1.9996610879898071, 1.5756847858428955, 0.7597347497940063, 2.32519268989563, 2.2189550399780273], "bnMeanB": [1.1217176914215088, -1.7374846935272217, -0.5629779696464539, -7.400681495666504, -18.10483169555664, -13.25313663482666, -3.1568760871887207, 19.046348571777344, -3.1956627368927, 4.0829081535339355, 6.57903528213501, -2.120415449142456, -3.4659576416015625, -9.542715072631836, 42.133304595947266, 12.10372257232666, 15.013472557067871, 0.6039366126060486, 8.846729278564453, -3.538475513458252, 51.222389221191406, -14.498568534851074, -7.961534023284912, -16.996986389160156, 40.147335052490234, 13.061746597290039, 0.24576808512210846, 25.220300674438477, 6.439764976501465, -6.227558612823486, 8.611976623535156, 27.806074142456055], "bnMeanA": [6.783490180969238, 9.441696166992188, 3.268911123275757, 3.2360634803771973, -10.326201438903809, -21.063838958740234, -3.607520580291748, -14.234599113464355, -3.8724193572998047, 2.1072897911071777, 4.500720977783203, -12.819793701171875, -21.379314422607422, 3.2387287616729736, -0.5981096029281616, -2.350914716720581, 12.790608406066895, -12.607965469360352, -0.06864214688539505, 1.5718077421188354, 1.7102183103561401, 6.523863792419434, -4.595401763916016, 4.307370662689209, -4.641878604888916, 8.315630912780762, -7.879132270812988, 1.4856396913528442, 0.38213589787483215, 5.091512680053711, -6.233892917633057, 4.219705104827881], "bnVarianceA": [133.74777221679688, 145.32101440429688, 56.87685012817383, 16.525020599365234, 86.41312408447266, 44.44758987426758, 12.048318862915039, 68.65554809570312, 45.57756423950195, 71.9050064086914, 19.669221878051758, 247.02517700195312, 108.72078704833984, 46.48784637451172, 111.33138275146484, 20.785554885864258, 77.69400787353516, 38.22513198852539, 31.748083114624023, 223.63427734375, 9.56771183013916, 40.96809387207031, 190.3217010498047, 13.066350936889648, 4.534350395202637, 36.2381591796875, 172.5023956298828, 54.30211639404297, 14.752745628356934, 130.21139526367188, 14.20213508605957, 159.82701110839844], "convKernelB": [0.023285798728466034, 0.1587432324886322, -0.0530543327331543, 0.43210136890411377, -0.4176692068576813, 0.355499804019928, -0.8680185079574585, -0.08720868825912476, 0.13869577646255493, 0.0651075690984726, 0.3761245012283325, -1.101094365119934, -0.09342088550329208, -0.11026911437511444, -0.2755400836467743, 0.2782362997531891, 0.1786697655916214, 0.3290931284427643, 0.020156538113951683, 0.09878342598676682, 0.5474098324775696, 0.14994284510612488, 0.039378076791763306, 0.5657969117164612, -0.1994597315788269, 0.4637599289417267, 0.07473207265138626, 0.131929412484169, 0.1307440847158432, 0.07365377992391586, -0.08508063107728958, 0.7549728155136108, -0.042314719408750534, -0.054409462958574295, 0.18302825093269348, -0.049187641590833664, 0.05720178037881851, -0.219736710190773, -0.007856911979615688, -0.052912719547748566, -0.11438100039958954, -0.01957245171070099, 0.02420727163553238, 0.39770689606666565, -0.1361140012741089, -0.029020272195339203, -0.007853427901864052, -0.13767419755458832, 0.18128672242164612, 0.15843772888183594, -0.07023202627897263, 0.14128538966178894, 0.16013123095035553, 0.06600873917341232, 0.04198547452688217, 0.1885460913181305, -0.09629549831151962, 0.17091135680675507, 0.021275386214256287, 0.2547683119773865, 0.07846642285585403, 0.06563688069581985, 0.2884601354598999, 0.38639843463897705, -0.012352567166090012, -0.13535882532596588, 0.17807848751544952, -0.30065733194351196, -0.06521405279636383, -0.15713250637054443, -0.05751708522439003, 0.4859699010848999, -0.052667323499917984, -0.3055556118488312, -0.25937777757644653, 0.6539661884307861, 0.21084970235824585, 0.21038426458835602, -0.3117577135562897, -0.050587259232997894, -0.37332069873809814, -0.40580374002456665, 0.32736140489578247, -0.07784532010555267, 0.26324233412742615, 0.01559873390942812, 0.1556033492088318, 0.6395360827445984, -0.4493066966533661, 0.4698028862476349, -0.2577185332775116, 0.07199843972921371, 0.5331444144248962, -0.15922285616397858, 0.7990695238113403, 0.6335546970367432, -0.12936431169509888, -0.1064230352640152, -0.3130117356777191, -0.37606164813041687, -0.07942967861890793, -0.2698555886745453, -1.6612743139266968, -0.05335994437336922, 0.06097893416881561, 0.5628600120544434, -0.17529745399951935, 0.06827623397111893, 0.004160494077950716, 0.028673706576228142, -0.16090963780879974, -0.08692057430744171, -1.896051049232483, 0.5044158697128296, -0.3864697515964508, 0.29242151975631714, 1.0678826570510864, 0.21458011865615845, -0.036440663039684296, -0.7235555052757263, -0.04544271156191826, 0.4189518392086029, 0.15565215051174164, 0.1325635015964508, -1.1941649913787842, 0.4481593072414398, -0.9835960865020752, 0.310484379529953, -0.0026015285402536392, -0.06441858410835266, -0.011010521091520786, -0.06999771296977997, -1.0216478109359741, 0.1201259195804596, -0.12795673310756683, -0.16565780341625214, -0.09079286456108093, 0.4349416494369507, 0.21507322788238525, 0.9415005445480347, -0.010631744749844074, 0.030929744243621826, -0.06761762499809265, -0.07719001173973083, -0.3275687098503113, 0.35423263907432556, -0.15586836636066437, 0.23715949058532715, 0.18946439027786255, 0.21896307170391083, 0.10840194672346115, 0.3579699397087097, -0.4118672311306, 0.5069199204444885, -0.06355629116296768, 0.30491286516189575, 0.0037526448722928762, 0.10211995244026184, -0.7842746376991272, -0.15191426873207092, -0.016321349889039993, -0.0657530426979065, -0.33450186252593994, -0.4792838990688324, -0.36686792969703674, -0.42058438062667847, -1.500605583190918, -1.2015202045440674, 0.12754985690116882, 0.12175734341144562, -0.2715321481227875, 0.6934503316879272, 0.11441706120967865, -0.04461732134222984, -0.000948480621445924, -0.3016468584537506, -1.0908255577087402, 0.13568434119224548, -0.19654327630996704, 0.2054489701986313, 0.7792611718177795, 0.04530607536435127, -0.07659688591957092, -0.5558899641036987, 0.08041824400424957, -0.10570264607667923, 0.05553234741091728, -0.1663169115781784, -0.12018609791994095, 0.05877644941210747, -0.5447912812232971, 0.1107788160443306, 0.010236074216663837, -0.08428660780191422, -0.018776094540953636, -0.1840185821056366, -0.3450019955635071, -0.19498217105865479, 0.3186802566051483, 0.1547306776046753, -0.1678571254014969, -0.14419905841350555, -0.03940530866384506, 0.06199038773775101, 0.12297672033309937, 0.12310752272605896, -0.029100744053721428, 0.10780400037765503, 0.04245539754629135, 0.041323862969875336, 0.08319995552301407, -0.16240622103214264, 0.10264907032251358, -0.02247859723865986, 0.15286888182163239, 0.39746952056884766, -0.5563021898269653, -0.3953164219856262, -0.01893170364201069, 0.20297856628894806, 0.20892919600009918, -0.19264189898967743, 0.128385990858078, 0.2230137586593628, -0.0031050413381308317, -0.09172938019037247, -0.11376076191663742, 0.23784708976745605, -0.5045352578163147, 0.4542415738105774, -0.7086665630340576, -0.5352527499198914, 0.023431576788425446, 0.17563138902187347, 0.022882679477334023, -0.493831992149353, 0.07862266153097153, 0.050277456641197205, -0.2542240619659424, -0.1300349086523056, 0.44169896841049194, 0.14536172151565552, -0.23812416195869446, 0.14756226539611816, -0.10499653220176697, 0.12095022946596146, 0.059252601116895676, 0.10439379513263702, 0.21574850380420685, 0.3970765471458435, -0.03074771724641323, -0.8417860269546509, -0.027553655207157135, 0.26047757267951965, -0.8603953719139099, -0.12293674051761627, 0.14466895163059235, 0.12287494540214539, 0.11391930282115936, 0.2617616057395935, 1.150915503501892, 0.15845970809459686, 0.8781920075416565, 1.254959225654602, 0.06187497451901436, -0.05692393705248833, 0.22155256569385529, 1.3856582641601562, -0.14210860431194305, 0.06544014811515808, 0.9235497713088989, 0.03722650185227394, -0.11583541333675385, -0.0021841847337782383, -0.15741145610809326, 0.10957926511764526, 1.0240914821624756, 0.11591536551713943, 0.16007667779922485, -0.24534529447555542, 0.5827952027320862, -0.32930809259414673, 0.003530219430103898, 0.018248116597533226, -0.4502532184123993, 0.19242897629737854, -0.031085433438420296, 0.6103832721710205, -0.1085117757320404, -0.11660280078649521, -0.11599843949079514, -0.20031477510929108, -0.4733540415763855, -0.26347616314888, 0.9459858536720276, -0.018692096695303917, 0.04737131670117378, -0.3051069378852844, -0.41722288727760315, 0.751656174659729, 0.1764233559370041, 0.11837131530046463, 0.9180970788002014, -0.15742233395576477, -0.2665480971336365, -0.2828459143638611, -0.1862967163324356, 0.1530119627714157, -0.5809102654457092, 0.06294261664152145, 0.08021650463342667, -0.3298742473125458, 0.8246657252311707, -0.8441624641418457, 0.07472485303878784, -0.5098716020584106, -0.3711398243904114, 0.1294003278017044, -0.45067718625068665, 1.4847458600997925, -0.15986691415309906, 0.02779194340109825, -0.09316544234752655, 0.42658379673957825, 0.5552560687065125, 0.5074781179428101, 0.43924736976623535, 0.7669269442558289, 0.15682284533977509, 0.4357284605503082, 0.07032491266727448, 0.3118997812271118, 0.054041340947151184, 0.04615425318479538, 0.1341456025838852, 0.011602521874010563, -0.12380800396203995, 0.5644295811653137, -0.22554638981819153, 0.2688450813293457, -0.10939404368400574, 0.14768578112125397, 0.13996928930282593, -0.4741159975528717, -0.5020125508308411, 0.2558304965496063, 0.05728176236152649, -1.0096577405929565, -0.9987620711326599, 0.4776138663291931, -0.8791838884353638, 0.6712440252304077, 0.16800130903720856, -0.0727756917476654, 0.23982283473014832, -0.41591572761535645, 0.1615326851606369, -0.3174077272415161, -0.3404649794101715, 0.14029167592525482, -0.09681146591901779, -0.7064197659492493, -0.6109066605567932, -0.04984264820814133, -0.13130547106266022, 0.056700848042964935, 0.5554766654968262, -0.11861160397529602, -0.10051959753036499, -0.6714224219322205, 0.18825499713420868, -0.2053440362215042, -0.8776766657829285, -0.024950142949819565, 0.06895138323307037, 0.48477280139923096, 0.6292374730110168, -0.49697673320770264, 0.15295924246311188, -0.026069143787026405, 1.4272135496139526, -0.243153378367424, 0.13091062009334564, 0.2620392143726349, -0.06043887138366699, 0.0527895987033844, 0.29954609274864197, -0.547581672668457, 0.10562606155872345, -0.3763207197189331, -0.2164795845746994, 0.23706193268299103, 0.01231657899916172, -0.8014293909072876, -0.8293678760528564, -0.5727295875549316, 0.06468916684389114, -0.04485990107059479, -0.13255666196346283, -0.012216107919812202, -0.5648369193077087, -0.5319331288337708, 0.1360398828983307, -0.20346759259700775, -0.6666730642318726, -0.25356006622314453, 0.06031732261180878, 0.33924782276153564, -0.07391394674777985, -0.7196670174598694, 0.003268882632255554, -0.25432470440864563, 0.29432424902915955, -0.3986203372478485, 0.4062007665634155, 0.7528008222579956, -0.013180793263018131, -0.08752880990505219, 0.062020059674978256, -1.202471137046814, -1.9486758708953857, -0.9803434610366821, 0.11479918658733368, -0.4724099636077881, -0.4928470253944397, -1.1166200637817383, -0.7883235216140747, -0.27430790662765503, 0.022980952635407448, 0.016319599002599716, -0.8768773674964905, 0.0025523658841848373, 1.023927092552185, -1.0192420482635498, 0.14424856007099152, -0.548856258392334, -0.0005845120176672935, -0.4043180048465729, -0.18170028924942017, 0.4842442274093628, -1.4513155221939087, -1.657802700996399, -0.2052265703678131, -0.6436523795127869, 0.46247583627700806, -0.2925299108028412, 0.2825404703617096, 0.26692527532577515, 0.0058761718682944775, 0.023839281871914864, -0.03267136588692665, -0.7267656922340393, 0.30786097049713135, -0.3154744505882263, 1.5048174858093262, 0.5149621367454529, 0.04525448754429817, -0.9030851721763611, -0.5695692896842957, 0.6208270788192749, -0.07676137983798981, -0.08194227516651154, 0.4572705924510956, 0.1612851917743683, 0.2655802071094513, -0.6779927611351013, 0.36737945675849915, -0.44046837091445923, -2.40596079826355, -0.23652350902557373, 0.0452599935233593, 0.09865400940179825, 0.6918433904647827, -1.5509119033813477, -0.05126949027180672, 0.6206487417221069, 0.25859227776527405, -0.5090650320053101, 0.9324372410774231, -0.36291876435279846, -0.053781017661094666, -0.2121979296207428, 0.05036591365933418, -0.15216055512428284, -0.9337642788887024, -0.17957568168640137, -0.15722645819187164, -0.523925244808197, -0.18399964272975922, 0.29940083622932434, -0.06272155046463013, 0.519584059715271, -0.25000253319740295, -0.006244523450732231, -0.2641831636428833, -0.12017253786325455, -0.8478493690490723, 0.4064638018608093, -0.10439450293779373, -0.08502478152513504, -0.46412742137908936, 0.056469086557626724, 0.024657737463712692, -0.3503212332725525, 0.5793517231941223, 0.058473143726587296, -0.12811529636383057, 0.5540297031402588, -0.4217093586921692, 0.25635862350463867, -0.07226438820362091, -1.1540439128875732, 0.08946622908115387, 0.06210092082619667, 0.26847901940345764, -0.26799365878105164, 0.8725753426551819, -0.3241437077522278, -0.3981882333755493, 0.3695811927318573, -0.06508169323205948, -0.06887513399124146, -0.062385205179452896, 0.3406216502189636, 0.028648272156715393, -0.12405853718519211, 0.742599368095398, 0.08613253384828568, -0.7231724858283997, 0.017429713159799576, 0.1047476977109909, 0.09781705588102341, 0.09707749634981155, -0.09374620765447617, -0.14525462687015533, -0.5739437937736511, 1.4017688035964966, -0.11735346168279648, 0.10272926092147827, 0.9021060466766357, 0.03389964997768402, 0.12800750136375427, 0.22177299857139587, 0.04111125320196152, -0.10378524661064148, -0.00911983847618103, 0.2595033049583435, -0.4284519851207733, -0.22639110684394836, -0.338913232088089, -0.8403550982475281, -0.42955848574638367, -0.07064267992973328, -0.834248423576355, -0.31878983974456787, 0.3232593834400177, -0.003959950525313616, 0.1377035528421402, -0.12578506767749786, 0.10650647431612015, 0.17295265197753906, -0.5463300347328186, 0.033040136098861694, -0.30544430017471313, -0.41705581545829773, -0.06880320608615875, 0.11742154508829117, 0.29862964153289795, -0.09244739264249802, -0.7542804479598999, -0.12945018708705902, 0.483135461807251, 0.6910340785980225, -0.26783105731010437, 0.42851582169532776, -0.09216321259737015, -0.02983931452035904, -0.16359843313694, -0.029378756880760193, -0.3378943204879761, -0.9205823540687561, -0.3126714825630188, -0.5610553622245789, -0.9528837203979492, -0.04383726418018341, -0.13511262834072113, -0.2712961435317993, 0.35976308584213257, -0.04732436686754227, -0.040405306965112686, -0.3447767496109009, -0.2008858174085617, -0.2302391529083252, -0.12543047964572906, -0.11930697411298752, 0.10961759835481644, 0.5001241564750671, 0.06385961920022964, 0.0750722885131836, -0.04761834070086479, 0.2258416712284088, 0.062422219663858414, 0.07592955976724625, 0.580464780330658, 0.40214744210243225, 0.10066918283700943, -0.38521072268486023, -0.9013394117355347, -0.042287711054086685, 0.006895579397678375, 0.096157506108284, -0.28994566202163696, -0.7869662642478943, -0.4295785129070282, 0.11941802501678467, -1.8404357433319092, 0.02703164331614971, -0.5599777698516846, -0.18998730182647705, 0.7334495782852173, -0.24138620495796204, -0.0894428938627243, -0.6464470028877258, 0.008527632802724838, -0.43082118034362793, -0.1352166086435318, 0.22659705579280853, -0.004496733658015728, 0.30052635073661804, -0.09427525848150253, 0.0028772761579602957, -0.11891844868659973, -0.0010951112490147352, -0.5038191080093384, -0.11542699486017227, 1.364561676979065, 0.33574044704437256, 0.07015349715948105, 0.13542185723781586, -0.6913961172103882, -0.14038707315921783, -0.07394076883792877, -0.00686175050213933, -0.19058196246623993, -0.2896483242511749, -0.1571989357471466, -0.10489118844270706, -0.18930736184120178, -0.15992149710655212, 0.03225800022482872, -0.04741804674267769, 0.037351228296756744, -0.14321540296077728, -0.027888985350728035, 0.05554598569869995, -0.06644570082426071, -0.2270108461380005, 0.0014820985961705446, -0.1068735420703888, 0.0480806827545166, -0.02171996235847473, 0.07319283485412598, -0.06029519438743591, 0.10167252272367477, -0.11388790607452393, -0.05907445773482323, 0.014010819606482983, 0.04539185389876366, -0.0942985936999321, 0.16170655190944672, -0.11775247007608414, -0.15229977667331696, 0.032255593687295914, 0.0926111489534378, -0.030499469488859177, -0.11401131004095078, -0.12404918670654297, -0.14011210203170776, 0.020320028066635132, -0.11770529299974442, -0.03666621074080467, -0.011961203068494797, -0.11910193413496017, 0.0770195871591568, -0.08371276408433914, 0.004565894603729248, -0.20456193387508392, -0.08712586760520935, -0.37069547176361084, 0.054900459945201874, 0.06821320205926895, 0.08588019013404846, 0.35150226950645447, 0.018941400572657585, 0.0339910052716732, -0.13401345908641815, -0.1273089349269867, 0.030703773722052574, -0.010866129770874977, -0.010369748808443546, -0.23935534060001373, 0.16392315924167633, -0.35219451785087585, -0.07882259041070938, 0.022542277351021767, 0.0003374314692337066, -0.237685889005661, -0.12500986456871033, -1.0384942293167114, -0.08290666341781616, 0.21475109457969666, -1.4547054767608643, -0.15546604990959167, 0.07290654629468918, -0.10987154394388199, 0.13611039519309998, 0.10801263153553009, -0.0278412327170372, -0.1125604659318924, -0.12680615484714508, 1.5650378465652466, -0.17989353835582733, -0.20726338028907776, -0.12856997549533844, -0.8423326015472412, -0.025949910283088684, 0.1624523401260376, -0.5627418756484985, -1.202269434928894, -0.07861477881669998, -0.11551369726657867, -0.9728885293006897, -1.2560946941375732, -0.010489847511053085, -0.637008547782898, 0.11195823550224304, -0.0032375906594097614, -9.003121522255242e-05, 0.08185137808322906, 0.9891241192817688, -0.7961942553520203, 0.5278646945953369, -1.0496701002120972, 0.08061756193637848, 0.2068377137184143, 0.5305144190788269, 0.7299333214759827, -0.7627511620521545, -0.021924661472439766, -0.010112539865076542, 0.20359036326408386, -0.01121498178690672, -0.5596338510513306, 0.36512067914009094, -0.08652090281248093, 0.14697687327861786, 1.2108595371246338, 0.24001123011112213, -0.03260577470064163, 0.005532923620194197, -0.1133919283747673, 0.7567149996757507, 0.006564307026565075, -0.33111390471458435, -0.5293770432472229, 0.11603835225105286, -0.10217950493097305, 1.0266026258468628, -0.0968124121427536, 0.1782427728176117, 0.0017387447878718376, -0.3472678065299988, 0.08027829229831696, -0.3278956413269043, -0.16687847673892975, -0.6437470316886902, 0.13634951412677765, 0.1932286024093628, -0.04882938042283058, -0.08603715896606445, -0.02212933823466301, 0.22542639076709747, -0.2788476347923279, -0.26492634415626526, -0.5947970747947693, 0.4409174621105194, -0.14774534106254578, 0.11694608628749847, 0.12357363849878311, -0.03437346592545509, -0.1480022668838501, -0.6508204340934753, 0.41503697633743286, 0.1765558421611786, 0.03662002459168434, 0.4324893355369568, -0.3867848217487335, 0.3591908812522888, -0.07591062784194946, -0.4712730646133423, -0.22702918946743011, 0.014751370996236801, -0.337830126285553, -0.14665274322032928, -0.07727924734354019, -0.06777377426624298, -0.04048784077167511, -0.9616819620132446, 0.0021843272261321545, 0.7622801065444946, -0.19538749754428864, -0.09589797258377075, 0.17264704406261444, 0.09398694336414337, -0.15989641845226288, -0.14622439444065094, -0.5221198797225952, 0.5731052160263062, -0.419531911611557, 0.5085254907608032, 0.015083285048604012, 0.2040243297815323, 0.06300900131464005, -0.5843937993049622, 0.22860915958881378, 0.18902258574962616, 0.07801700383424759, 0.2604578733444214, -0.37711870670318604, 0.4640771448612213, -0.7459033727645874, -0.5353829860687256, -0.13463051617145538, -0.03701699525117874, -0.22471389174461365, 0.22087110579013824, -0.46532896161079407, 0.23238006234169006, -0.2765415608882904, -0.9105613231658936, -0.009553808718919754, 0.3167594075202942, -0.06988503038883209, 0.36492371559143066, 0.21242737770080566, 0.1335442215204239, 0.04816753789782524, -0.1559423953294754, -0.7026790976524353, 0.4629976749420166, -0.11149503290653229, 0.3851454555988312, -0.523385226726532, 0.25885576009750366, 0.010488692671060562, -0.34809935092926025, -0.2698448896408081, -0.5177597403526306, -0.04964475333690643, 0.1220317929983139, -0.9083586931228638, 0.45207566022872925, -0.571836531162262, 0.5165141224861145, -0.15319496393203735, 0.04382413625717163, -0.1404607743024826, 0.1991935819387436, 0.23851734399795532, 0.09459603577852249, 0.1280113160610199, 0.13568726181983948, -0.009992439299821854, -0.0905265137553215, 0.050341565161943436, -0.02270030975341797, 0.06410099565982819, 0.06878502666950226, 0.25187432765960693, 0.031083140522241592, 0.2700311839580536, -0.06489008665084839, 0.021579008549451828, -0.049269452691078186, -0.003633287735283375, 0.05232713371515274, -0.014018583111464977, 0.13530339300632477, -0.20166993141174316, 0.08532413840293884, -0.11061283200979233, -0.2585453391075134, -0.07056617736816406, -0.134672150015831, 0.12304555624723434, 0.31829243898391724, -0.02339136227965355, -0.08178605884313583, 0.06887208670377731, -0.11931456625461578, 0.46081769466400146, -0.146788090467453, 0.46372249722480774, 0.3678709864616394, -0.12401428073644638, -0.30973243713378906, -0.6031997203826904, -0.7284781336784363, -0.046491943299770355, -0.026794444769620895, 0.27980414032936096, 0.008068286813795567, 0.4467228651046753, -0.25999337434768677, 0.013645158149302006, -0.017468679696321487, -0.8248732686042786, -0.04663442447781563, 0.0859265923500061, 0.3771858215332031, -0.1482340544462204, -0.5875144600868225, -0.09980054199695587, -0.2510148286819458, 0.13797926902770996, -0.1847434788942337, 0.2543710172176361, 0.4999274015426636, -0.15850920975208282, 0.06897612661123276, 0.07063678652048111, -0.2534674406051636, -1.5134414434432983, -0.07059632241725922, -0.11165177822113037, -0.3263466954231262, -0.0549212247133255, -0.3359934091567993, -0.2872598171234131, -0.49813127517700195, 0.06848155707120895, 0.2031373828649521, -0.2993391454219818, 0.06967855244874954, 0.7496435046195984, -0.37480470538139343, 0.1061013862490654, -0.10032876580953598, -1.258290410041809, -0.1224009320139885, -0.011059350334107876, 0.30904632806777954, -0.6207748651504517, -0.44077977538108826, -0.030183954164385796, -0.4908134639263153, 0.5049624443054199, -0.24366559088230133, -0.08907895535230637, -0.06915701925754547, -0.04959660395979881, -0.029342493042349815, 0.06440100073814392, 0.08494475483894348, -0.1146143227815628, 0.027493132278323174, 0.049147896468639374, 0.03747373819351196, 0.05018272250890732, -0.18628299236297607, -0.1589396595954895, -0.1872878521680832, -0.03064958192408085, 0.03130539506673813, 0.1172383576631546, -0.17702673375606537, -0.010523109696805477, -0.16902503371238708, 0.015076090581715107, -0.005800895858556032, 0.028270093724131584, -0.04713594913482666, -0.003948570229113102, 0.054452527314424515, 0.015338360331952572, -0.15551719069480896, -0.059158600866794586, -0.12743344902992249, 0.052911438047885895, -0.08612596988677979, 0.19418872892856598, 0.30956125259399414, 0.04515374079346657, -0.016887778416275978, -0.01962587982416153, 0.30388352274894714, -1.6187629699707031, 0.15854230523109436, -0.32358989119529724, -1.1069884300231934, 0.09917332231998444, 0.02086310088634491, 0.30587586760520935, 0.6033608913421631, 0.026400938630104065, 0.21089015901088715, 0.8473599553108215, 0.1350511759519577, -1.4711545705795288, 0.07913769036531448, -0.0670497789978981, -0.2055574655532837, -1.4086999893188477, 0.1539946049451828, 0.06337252259254456, 0.08087558299303055, 1.1042780876159668, 0.35715869069099426, 0.07282980531454086, 0.0972827821969986, -0.04555924981832504, -0.14296451210975647, -1.0969491004943848, 0.06319157779216766, 0.0619342178106308, 0.11823044717311859, 0.10933194309473038, -0.06567374616861343, 0.14520585536956787, -0.01922798343002796, -0.07915182411670685, 0.02876259572803974, -0.0009452608064748347, -0.09160807728767395, -0.33196988701820374, -0.6209803819656372, -0.04340376332402229, 0.1674201488494873, 0.4406663179397583, 0.062428347766399384, 0.5241462588310242, -0.20142756402492523, -0.04608200490474701, -0.08346244692802429, -0.7497210502624512, 0.09150715917348862, 0.14614182710647583, -0.07507386058568954, 0.24263572692871094, -0.27222561836242676, 0.014467693865299225, -0.16083893179893494, -0.0403895266354084, -0.08909691125154495, 0.268148809671402, 1.0866835117340088, -0.10822674632072449, 0.031988415867090225, -0.046209752559661865, -0.016445722430944443, -0.11146785318851471, 0.0656522810459137, -0.14899010956287384, 0.05726511776447296, -0.16728702187538147, -0.09643633663654327, -0.07125204801559448, -0.7079442739486694, 0.11711630970239639, 0.11797508597373962, -0.09184744954109192, 0.13168610632419586, 0.6378892660140991, -0.048339273780584335, -0.09339193254709244, 0.135286346077919, -0.6338732242584229, -0.0299837663769722, 0.11182858049869537, 0.12743733823299408, -0.48246246576309204, -0.1461430937051773, -0.009883196093142033, -0.3995077311992645, -0.009258121252059937, -0.0514131635427475, 0.03937045857310295, 0.6989237666130066, -0.0370979830622673, -0.010349802672863007, -0.11663542687892914, 0.13964654505252838, 0.22372715175151825, -0.04685116931796074, 0.24648699164390564, 0.3063853085041046, 0.08591246604919434, -0.17236310243606567, 0.07798673957586288, -0.010203983634710312, 0.15089741349220276, 0.23504973948001862, 0.18698564171791077, 0.2889663577079773, -0.09846805036067963, -0.10525153577327728, -0.005582406185567379, -0.11827991902828217, 0.21066564321517944, -0.02757149003446102, -0.021662801504135132, 0.12964580953121185, -0.34411951899528503, 0.04039634391665459, -0.004208181984722614, -0.14594706892967224, -0.009897240437567234, -0.1434573382139206, 0.030822589993476868, 0.14738743007183075, -0.05723295733332634, -0.12459566444158554, -0.04664229601621628, -0.04698130115866661, -2.452169895172119, -0.0028279980178922415, -0.08578414469957352, -2.404536008834839, -0.11220267415046692, 0.15516899526119232, -0.14011642336845398, -0.004275408107787371, -0.17957806587219238, -0.059396158903837204, -0.27481043338775635, -0.11036001890897751, -0.09453252702951431, 0.1484018862247467, -0.06408091634511948, 0.21594059467315674, 0.38394007086753845, -0.039145443588495255, -0.06528216600418091, -0.36717745661735535, -0.44200387597084045, 0.03869849815964699, -0.03316515311598778, -0.33833828568458557, -0.43432146310806274, 0.07017174363136292, -0.2178851068019867, 0.35961875319480896, 0.04444245994091034, 0.0283399298787117, 0.0407465398311615, -0.8514494895935059, 0.011415759101510048, -0.621531069278717, -0.7484139204025269, 0.03812345862388611, -0.20533502101898193, -0.6851913928985596, -1.2079592943191528, -0.5228691697120667, 0.0265982523560524, 0.1177743524312973, -0.5481457710266113, 0.04438841715455055, -0.07268519699573517, -0.4823272228240967, 0.0364542119204998, -0.17479799687862396, -0.6630680561065674, -0.3405914604663849, -0.06608472764492035, 0.4337669312953949, -0.6933993697166443, -1.3869106769561768, 0.0628974661231041, -0.6812022924423218, 0.36118778586387634, -0.32667097449302673, 0.17540369927883148, -0.03170580789446831, -0.1550302803516388, -0.056616928428411484, -0.15482988953590393, 0.1546027660369873, -0.8146824836730957, 0.3086276948451996, -0.18477600812911987, -0.2947950065135956, 0.08375304937362671, 0.2769755721092224, 0.2223435491323471, 0.3830902874469757, 0.22867512702941895, 0.006222905125468969, 0.04346015676856041, -0.11621903628110886, -0.6988188624382019, 0.1666293889284134, -0.2280913144350052, 0.17382484674453735, -0.7123981714248657, 0.26933375000953674, -0.001087074400857091, -0.11231748014688492, -0.05117020383477211, -0.009499740786850452, -0.033538930118083954, 0.06577932089567184, -0.15193533897399902, 0.1508607119321823, 0.04576924443244934, 0.07826386392116547, -0.18966417014598846, -0.13535794615745544, -0.261205792427063, 0.03254149109125137, 0.009083603508770466, 0.09256137907505035, -0.36872658133506775, -1.2280067205429077, 0.17350326478481293, 0.5059575438499451, 0.12916810810565948, 0.35603538155555725, 0.03368515521287918, 0.08314096182584763, 0.11457837373018265, -0.13495789468288422, -0.39321091771125793, 0.5200620889663696, -0.3033458888530731, 0.3120308220386505, 0.4616202116012573, 0.051142241805791855, 0.03161538019776344, -0.5483999252319336, 0.5171524882316589, 0.40156614780426025, -0.01820916123688221, 0.6321088671684265, -0.49367964267730713, 0.295536607503891, -0.7134894728660583, 0.19306284189224243, -0.0427875816822052, 0.0983230471611023, 0.053970713168382645, -0.13558149337768555, -0.3885815441608429, 0.043734557926654816, -0.13913631439208984, 0.0015150860417634249, 0.08849351853132248, -0.04425639286637306, -0.11176653951406479, -0.14710165560245514, -0.053237639367580414, -0.012757000513374805, -0.144732266664505, -0.1788269579410553, -0.781256914138794, 0.009915854781866074, -0.06386745721101761, 0.15131919085979462, -0.10864958167076111, 0.08506196737289429, -0.01818879134953022, -0.0679965391755104, -0.2175092101097107, -0.3787122070789337, 0.14400742948055267, -0.6416948437690735, -0.5775532722473145, 0.07884037494659424, -0.14318397641181946, 0.18090862035751343, -0.09491296112537384, -0.07132390141487122, -0.24827398359775543, -0.11399028450250626, 0.12599414587020874, 0.040791235864162445, -0.5729894638061523, -1.217097520828247, 0.08808247745037079, 0.660595715045929, -0.19996629655361176, -0.19893550872802734, 0.11497027426958084, 0.05440623685717583, 0.07166526466608047, -0.032236967235803604, -0.5686189532279968, 0.39481595158576965, -0.2164354771375656, 0.23204021155834198, -0.21193952858448029, 0.11317160725593567, 0.11595062166452408, -0.25419652462005615, 0.5949354767799377, -0.1311538815498352, -0.06150532513856888, 0.8930002450942993, -0.14680448174476624, 0.1755610853433609, -0.3889406621456146, 0.07605031877756119, -0.04235463961958885, 0.06447091698646545, 0.11559519171714783, -0.15586815774440765, 0.21785084903240204, -0.13367313146591187, -0.0898485779762268, 0.2285703867673874, -0.03731470927596092, -0.35564514994621277, -0.20028799772262573, 0.10025306791067123, 0.012705319561064243, 0.1127077043056488, 0.25337135791778564, -0.08147014677524567, 0.619810163974762, -0.08313295245170593, 0.012551715597510338, -0.024031484499573708, -1.220575213432312, -0.018237803131341934, 0.012350959703326225, 0.2849530279636383, 0.06626316905021667, -0.4901043772697449, 0.08453776687383652, 0.0067390017211437225, 0.3554345965385437, -0.0017113240901380777, 0.6443120837211609, 0.5186770558357239, -0.06672754138708115, -0.10309349000453949, -0.22006715834140778, 0.13348960876464844, 0.49114471673965454, -0.015297533944249153, 0.17796802520751953, 0.2716541290283203, -0.06295649707317352, -0.03263874724507332, 0.14148679375648499, 0.042488887906074524, 0.13147670030593872, 0.1348440796136856, 0.09465272724628448, 0.20036275684833527, -0.16504503786563873, 0.05384320765733719, 0.13255754113197327, -0.005589386448264122, 0.15188835561275482, 0.004349646158516407, 0.10769093036651611, 0.292122483253479, -0.16633424162864685, 0.1842663586139679, -0.08776819705963135, -0.015160663984715939, 0.15677684545516968, -0.01812761276960373, -0.11229714751243591, 0.14635199308395386, -0.10364867746829987, -0.0727093443274498, -0.04100748896598816, 0.3986750841140747, 0.6899036169052124, 0.3515385389328003, 1.0898120403289795, -0.2163442224264145, -0.06335148215293884, 0.21418054401874542, -0.08638515323400497, -1.1680902242660522, -0.019399797543883324, -0.014880395494401455, 1.0890063047409058, 0.002733643166720867, 0.19437353312969208, 0.37135079503059387, -0.6493433117866516, 0.16123507916927338, 0.028684761375188828, 0.1367676705121994, 0.18999314308166504, -0.45876544713974, 0.8341400623321533, 0.0495205819606781, -0.018163450062274933, -0.06712258607149124, -1.1965574026107788, 0.1913808435201645, -0.6213710904121399, 1.6527384519577026, -0.35399872064590454, -0.0888359397649765, -0.18521127104759216, -0.05011821538209915, 0.3358372747898102, -0.020949412137269974, 0.11752074956893921, 0.09828712791204453, -0.09178099036216736, 0.07140125334262848, 0.1231134682893753, 0.21861837804317474, 0.36877918243408203, 0.2669984698295593, 0.09632876515388489, 0.23238632082939148, 0.08253409713506699, 0.052383989095687866, -0.004045033827424049, -0.03336483612656593, -0.24662120640277863, -0.06333945691585541, 0.19978076219558716, 0.16328519582748413, 0.04276418313384056, 0.1532856523990631, -0.15400151908397675, 0.09676170349121094, -0.06101633980870247, 0.22014884650707245, -0.24347375333309174, -0.005913455504924059, -0.332965612411499, -0.20203140377998352, -0.39606422185897827, 0.03593232482671738, 1.3342982530593872, -0.14025133848190308, 0.3880947232246399, 1.9777512550354004, 0.05018050596117973, 0.0057921335101127625, 0.4632800817489624, 0.8955749273300171, 0.3115083873271942, 0.4088318645954132, 0.40316736698150635, 0.2911880314350128, 0.31875428557395935, 0.19019417464733124, -0.07491875439882278, 0.11429765075445175, 0.33746060729026794, -0.18827113509178162, 0.1369323581457138, -0.06891990453004837, 0.5136292576789856, 0.6030981540679932, -0.04691310599446297, 0.304095596075058, -0.5940082669258118, -0.01843327097594738, -1.1289520263671875, 0.4316607117652893, 0.06475325673818588, -0.013440093956887722, 0.23128141462802887, -0.6089204549789429, -1.9584267139434814, -0.7879705429077148, -0.7817527055740356, -1.2318954467773438, -0.2100888043642044, -0.5835255980491638, -0.9520572423934937, 0.08029092103242874, -0.17022688686847687, 0.007646867539733648, -0.24679891765117645, -0.11513292044401169, -0.03666606917977333, -0.4464165270328522, 0.09011863172054291, -0.36769339442253113, 1.025792121887207, -0.2902573347091675, -0.012712853960692883, -0.1130119040608406, -0.3036779761314392, -1.0844837427139282, -0.10264608263969421, -0.5570896863937378, -0.05495176091790199, -0.40197914838790894, 0.19932307302951813, 0.32995375990867615, -0.08376017212867737, 0.042394451797008514, -0.07155459374189377, 0.04730907455086708, -0.30100464820861816, 0.04788131266832352, -0.033390793949365616, -0.03237235173583031, -0.09805547446012497, -0.07339920848608017, -0.06446234881877899, -0.17164084315299988, 0.0264627356082201, 0.18003112077713013, -0.010926701128482819, 0.02182563953101635, -0.06554112583398819, -0.09557785838842392, -0.028314534574747086, 0.008041099645197392, -0.5168076753616333, 0.21554706990718842, 0.0027558906003832817, 0.027512026950716972, -0.0836428552865982, -0.07408669590950012, -0.044140011072158813, -0.19513337314128876, -0.015153920277953148, 0.04603009298443794, 0.1353694349527359, 0.11035329848527908, -0.19358298182487488, 0.03409003093838692, -0.06386560201644897, 0.16648222506046295, -0.2242286056280136, 0.1572859138250351, 0.03691008314490318, 0.01046933513134718, 0.06329929083585739, -0.12519995868206024, 0.04546476900577545, 0.2492925226688385, -0.016714295372366905, 0.17406430840492249, 0.289593905210495, 0.08905602246522903, 0.26483482122421265, 0.04394582659006119, -0.03220308944582939, -0.05626649409532547, 0.03452466055750847, 0.14286257326602936, 0.21723201870918274, 0.1393785923719406, 0.16077254712581635, 0.07383166998624802, 0.05541854724287987, 0.11923547089099884, 0.025264734402298927, 0.009360467083752155, 0.07189097255468369, 0.1509503871202469, -0.02256898209452629, -0.13172249495983124, -0.18822024762630463, 0.10927478969097137, 0.4558194577693939, 0.05211492255330086, 0.18017539381980896, 0.16806402802467346, -0.029698221012949944, 0.0028770084027200937, -0.17890669405460358, -0.2654474079608917, 0.14186449348926544, 0.03552747517824173, -0.03049040026962757, -0.029477300122380257, 0.1005469560623169, 0.008935448713600636, -0.16964848339557648, 0.00607654033228755, -0.6017792224884033, 0.07061198353767395, 0.05895501375198364, 0.03251167759299278, -0.35118189454078674, -0.4341159760951996, -0.10189828276634216, -0.33190760016441345, -0.24225029349327087, 0.123586006462574, -0.020361268892884254, 0.07768578082323074, 0.062314122915267944, 0.07592179626226425, 0.1199585422873497, 0.254351943731308, 0.47872239351272583, 0.22383491694927216, 0.5466256141662598, 0.21756698191165924, 0.010217249393463135, -0.21587766706943512, -0.08570315688848495, -0.3703807294368744, 0.03101567178964615, 0.04553234949707985, 0.49357345700263977, -0.06613340973854065, 0.18423599004745483, -0.01766285113990307, 0.08599577099084854, -0.013755811378359795, 0.025868400931358337, -0.00843236967921257, 0.016431482508778572, 0.0026687351055443287, 0.13270804286003113, -0.012105857953429222, 0.13301485776901245, -0.14374753832817078, -0.046130888164043427, -0.011991335079073906, 0.23947924375534058, 0.5331074595451355, -0.005248484667390585, -0.0371609665453434, 0.03360239788889885, -0.11070115119218826, 2.601351737976074, 0.036237526684999466, 1.1204445362091064, 2.0968549251556396, -0.0952797532081604, 0.07298009842634201, 0.13361385464668274, 1.2103904485702515, 0.003598551033064723, 0.08989357203245163, 0.654278576374054, 0.14560942351818085, 0.5008237361907959, 0.15779896080493927, 0.14220228791236877, -0.07468438893556595, -0.222579225897789, -0.0147554287686944, 0.060621462762355804, 0.3942321240901947, 0.05008762702345848, 0.054341115057468414, -0.0574365071952343, -0.12102711945772171, -0.11573038250207901, 0.0066690826788544655, 0.057892780750989914, 0.09397510439157486, 0.025449344888329506, -0.02914201095700264, 0.04414265975356102, 0.16974762082099915, -0.5808285474777222, 0.11924339085817337, -0.38823607563972473, -0.13484591245651245, 0.10206516087055206, -0.12300198525190353, -0.04359045252203941, -0.16950105130672455, 0.09874266386032104, 0.19797588884830475, -0.025108449161052704, -0.1696782410144806, -0.3072451651096344, -0.16718821227550507, 0.010568146593868732, -0.0075330473482608795, -0.43368032574653625, 0.1748228669166565, -0.02574663609266281, -0.10271365940570831, 0.04438282549381256, -0.2563220262527466, 0.02481088601052761, -0.35097014904022217, 0.020980823785066605, 0.11881830543279648, 0.3272538185119629, 0.3437730371952057, -0.03840342164039612, 0.007832939736545086, 0.1985759735107422, 0.03700189292430878, 0.5692728757858276, 0.00893562100827694, 0.732345461845398, 0.6602218151092529, -0.028220944106578827, -0.22099542617797852, -0.18089282512664795, -0.864909827709198, 0.014012386091053486, 0.09033137559890747, -0.07007095962762833, 0.0084395045414567, 0.7783786058425903, -0.10352475196123123, 0.09550421684980392, -0.1546589732170105, -0.07555728405714035, -0.0020946660079061985, 0.13675980269908905, 0.25053340196609497, -0.5465769171714783, -0.17544016242027283, -0.10840258747339249, -0.40786856412887573, -0.029260538518428802, -0.04245463013648987, 0.4364629089832306, 0.6905297040939331, -0.0030701500363647938, 0.07523969560861588, 0.1671450436115265, 0.1574806272983551, -0.02050081640481949, 0.04007861018180847, 0.05980388820171356, -0.07211533188819885, -0.03869065269827843, -0.17809803783893585, -0.02121848799288273, 0.061589211225509644, 0.05960606038570404, 0.11526618897914886, 0.144248828291893, -0.03688666597008705, 0.053889937698841095, -0.03312914818525314, -0.02794608287513256, 0.0677197054028511, -0.2185821235179901, 0.020013246685266495, 0.05772353336215019, -0.03938641399145126, 0.10548532009124756, 0.06670619547367096, -0.04162260890007019, -0.13433480262756348, 0.14266029000282288, 0.1316748559474945, 0.10590572655200958, 0.1626949906349182, 0.022926349192857742, -0.03280196711421013, -0.17485877871513367, -0.5130939483642578, -0.04369775950908661, -0.2718542516231537, 0.14492936432361603, -0.47196438908576965, 0.18234319984912872, 0.09515269100666046, 0.05397411063313484, 0.16914092004299164, 0.01530514843761921, -0.004652284551411867, -0.31663331389427185, -0.18784980475902557, -0.9978253841400146, 0.06832700967788696, -0.27470019459724426, 0.26842281222343445, 0.06404450535774231, 0.023745767772197723, 0.018243195489048958, -0.8913393020629883, 0.5188413858413696, 0.24223217368125916, 0.12998631596565247, -0.1467607468366623, -1.0199475288391113, 0.1800488978624344, -0.7916058301925659, -0.6515231132507324, -0.09717203676700592, -0.054833363741636276, -0.08942152559757233, 0.05792292207479477, -0.02382628619670868, 0.07091382890939713, 0.05519632250070572, 0.013704165816307068, 0.0029088258743286133, -0.04639569669961929, 0.010968521237373352, 0.007391452789306641, 0.025070518255233765, 0.07389237731695175, 0.003902226686477661, -0.02310146391391754, -0.08422175794839859, -0.013487860560417175, -0.06564027070999146, 0.040616475045681, -0.05287599563598633, -0.07305602729320526, 0.09443209320306778, -0.06935615092515945, 0.05303797870874405, -0.0737045556306839, -0.05131484195590019, 0.07396123558282852, -0.036971233785152435, 0.0937427207827568, 0.037474773824214935, -0.08324147760868073, -0.2499299794435501, 0.060210030525922775, 0.004339404404163361, -0.1346505731344223, -0.9805927872657776, -0.25013574957847595, -2.132046699523926, -0.37374141812324524, 0.023387646302580833, -0.4693056046962738, 0.9876413941383362, 0.6275802850723267, -0.09991215169429779, -0.31014057993888855, 0.45447784662246704, -0.13601262867450714, -1.5053637027740479, -0.026832766830921173, 0.16608786582946777, 0.012539817951619625, 0.19222186505794525, 0.12388256192207336, 0.011695853434503078, 0.11029422283172607, 1.6418769359588623, 0.4157174229621887, -0.08804453164339066, 0.09276442974805832, 0.12105494737625122, 0.12144329398870468, -0.2813635468482971, -1.1521059274673462, -0.08412273228168488, -0.01368483155965805, 0.025836467742919922, 0.07710685580968857, 0.04757343977689743, 0.036197729408741, 0.012215465307235718, 0.021869175136089325, 0.06612706929445267, 0.05096092075109482, -0.09521700441837311, 0.03284180909395218, -0.01657295972108841, -0.048241689801216125, -0.07555930316448212, 0.08752012997865677, 0.020802170038223267, -0.049179546535015106, -0.08129919320344925, -0.04788430407643318, -0.02854914218187332, 0.07582259923219681, -0.05763622000813484, -0.022871151566505432, -0.007239639759063721, -0.032380931079387665, -0.07710438221693039, 0.014374792575836182, -0.023214541375637054, -0.038149621337652206, -0.0351191982626915, -0.0094619020819664, 0.13237343728542328, -0.03973781317472458, -0.026790065690875053, 0.31000906229019165, -1.489581823348999, -0.05057648941874504, 0.3342428207397461, 0.12540239095687866, 0.10739124566316605, -0.03822815418243408, -0.01262085884809494, 0.31615152955055237, -0.04310931637883186, -0.0617406964302063, 0.7915323376655579, -0.4359169006347656, -0.3894727826118469, 0.05961187183856964, 0.1666771024465561, 0.09936552494764328, 1.7705987691879272, -0.10635949671268463, -0.05684007704257965, 0.35379138588905334, 1.5233755111694336, 0.22566132247447968, -0.006373194977641106, 0.3592979609966278, 0.3909865617752075, 0.08010165393352509, -0.38125404715538025, -0.6298450827598572, -0.018157057464122772, -0.005949139595031738, 0.0766633078455925, -0.026202797889709473, 0.030829288065433502, -0.024524815380573273, -0.0460972785949707, -0.08669524639844894, 0.00964655727148056, 0.02009863406419754, 0.02948673814535141, -0.08065925538539886, -0.07823427766561508, 0.04792468994855881, 0.06022731214761734, 0.03195568174123764, -0.048426177352666855, -0.08878876268863678, 0.049848489463329315, -0.09307347238063812, 0.016556337475776672, -0.06869657337665558, -0.08434158563613892, 0.04858475178480148, -0.09718415141105652, 0.08057288080453873, 0.07293512672185898, -0.04524188116192818, -0.037899598479270935, -0.01673606038093567, 0.020085744559764862, 0.0702848955988884, 0.1525621861219406, -0.1053074523806572, -0.041081152856349945, 0.20782765746116638, -0.026445945724844933, -0.046789851039648056, -0.5109301805496216, -0.7163187265396118, 0.036344073712825775, -0.2349238395690918, -0.1366279125213623, -0.26810118556022644, -0.14310875535011292, -0.10874388366937637, -0.06815674901008606, -0.219771146774292, -0.21866291761398315, -0.11633733659982681, 0.2649649977684021, 0.05550738424062729, 0.9687482714653015, 0.02195822447538376, -0.17134566605091095, 0.33862394094467163, -0.8102958798408508, 0.09450963139533997, 0.06647681444883347, -0.9865663647651672, 0.5975023508071899, 0.012386116199195385, 0.3814842998981476, -0.04140753298997879, 0.3309832215309143, 0.13602031767368317, -0.42867448925971985, 1.5034528970718384, 0.16446445882320404, 1.4869500398635864, -0.5232872366905212, -1.0391864776611328, 0.38582906126976013, 2.0303220748901367, -0.3726847171783447, 0.05506189540028572, 0.09196212887763977, 0.24199028313159943, 0.9733511805534363, 0.42952960729599, -3.50467586517334, 0.9978058934211731, -0.222555011510849, 1.0033626556396484, 0.9716318845748901, 0.9464578032493591, -0.08643822371959686, -1.160523772239685, 0.32785147428512573, 3.0644888877868652, 0.138535276055336, 0.15660646557807922, -0.1617434024810791, 1.0538338422775269, -1.9266538619995117, 2.374706268310547, -0.11355262249708176, 0.04439420625567436, -0.0734880194067955, -0.09157395362854004, -0.9142389893531799, -0.1763940453529358, -2.137789249420166, -0.39545944333076477, -0.06253410875797272, -0.3787272274494171, 0.9741830229759216, 0.5120287537574768, -0.2615678608417511, -0.20890596508979797, 0.43012070655822754, -0.2061389535665512, -1.6370253562927246, -0.16211730241775513, 0.13024520874023438, -0.03476587310433388, 0.18422831594944, 0.13666890561580658, -0.06718495488166809, 0.0591011680662632, 1.5666906833648682, 0.39684122800827026, -0.1063898578286171, -0.09824884682893753, 0.16970138251781464, 0.01794290542602539, -0.20220410823822021, -1.0577698945999146, -0.29495325684547424, 0.14396390318870544, -0.45427942276000977, 0.25869402289390564, 0.5403195023536682, 0.35697561502456665, 0.23853342235088348, 0.03746592253446579, 0.4144710600376129, 0.8220728635787964, 1.4447133541107178, 1.008514404296875, 0.02334347367286682, 0.2242833822965622, 0.7752549648284912, -0.09502682089805603, 1.1854397058486938, 1.2697218656539917, -0.27520129084587097, 0.8000960350036621, 2.31355357170105, 0.4248679280281067, 0.08858554810285568, -1.1475112438201904, 0.03789851441979408, 1.490810513496399, 0.06631319969892502, 0.3951962888240814, -1.5427360534667969, 0.585089385509491, -1.0871833562850952, 2.573124885559082, 0.16679273545742035, -0.09530194103717804, 0.05830032378435135, 0.22505728900432587, -1.552797555923462, -0.11846170574426651, 0.2917661666870117, 0.2681885361671448, 0.10869155079126358, -0.10250025242567062, -0.045123323798179626, 0.35019102692604065, -0.054193634539842606, -0.060635488480329514, 0.7877737879753113, -0.5210555791854858, -0.5117903351783752, 0.2092961072921753, 0.005559430457651615, 0.18196657299995422, 1.702515721321106, -0.12458065897226334, -0.16405268013477325, 0.37456756830215454, 1.54203462600708, 0.32663843035697937, -0.023629536852240562, 0.38289085030555725, 0.2851622700691223, 0.056650228798389435, -0.4200412333011627, -0.5157232284545898, -0.16938382387161255, -0.02095809392631054, 0.02589341253042221, 0.5725244283676147, -0.052531514316797256, 0.05129096284508705, 1.594571828842163, 0.003104801056906581, -0.042810920625925064, 0.05808863788843155, 1.0629172325134277, 1.9025585651397705, 0.059798963367938995, 0.3629048466682434, 1.340207576751709, 0.07671598345041275, 1.4905428886413574, -0.18590858578681946, 0.5523495674133301, -0.13714805245399475, 2.824202299118042, -0.13156846165657043, 0.21178577840328217, 0.5035264492034912, 1.0130058526992798, 1.17229425907135, -0.0012457177508622408, 1.8624030351638794, 0.5737181305885315, 0.028824593871831894, 0.2749424874782562, 1.877281904220581, 0.1401870846748352, -0.08104869723320007, -0.11253427714109421, 0.18052896857261658, -0.008634781464934349, 0.025380326434969902, -0.5209460854530334, -0.595552921295166, 0.046979524195194244, -0.09784232825040817, -0.06081802025437355, -0.18447919189929962, 0.0004135716299060732, -0.09441492706537247, -0.08535950630903244, -0.1612311601638794, -0.14421869814395905, -0.25130611658096313, 0.21709640324115753, -0.053690530359745026, 1.0094012022018433, 0.0618789903819561, -0.06133981794118881, 0.35774269700050354, -0.8161755204200745, 0.1944379210472107, -0.015483545139431953, -0.9098097085952759, 0.6343069076538086, 0.04710454121232033, 0.4406825304031372, -0.14252997934818268, -0.02824777364730835, -0.08765348047018051, 0.018919609487056732, 0.054354168474674225, -0.004339434206485748, 0.011486321687698364, 0.09466061741113663, 0.06402536481618881, 0.08204594999551773, -0.09599700570106506, -0.053303562104701996, 0.034813039004802704, -0.07553412020206451, 0.08041117340326309, -0.004277624189853668, 0.02867043763399124, 0.08269701153039932, -0.064708411693573, -0.03671516850590706, 0.056397683918476105, -0.03062702715396881, 0.010924004018306732, 0.09592681378126144, -0.05903490632772446, 0.055759988725185394, 0.08767694979906082, -0.04076942428946495, -0.015092872083187103, -0.0754106268286705, -0.01594921201467514, -0.07449682801961899, -0.07225463539361954, 0.04330389201641083, 0.0748894065618515, -0.049855563789606094, -0.1794506162405014, 1.8224846124649048, -0.11544892936944962, -0.7547250390052795, 1.97966730594635, -0.08058574795722961, 0.12504303455352783, 0.28922849893569946, -0.4427492916584015, 0.07504762709140778, -0.12658283114433289, 0.5037847757339478, -0.0714908167719841, -0.3351002037525177, -0.06289990991353989, -0.07408881932497025, 0.2971704304218292, -0.2404724657535553, 0.06451611965894699, -0.11746934056282043, -0.18669822812080383, 0.6517546772956848, 0.48411840200424194, 0.08847099542617798, -0.6199122667312622, 0.21896716952323914, 0.2385975420475006, -0.3696747124195099, 0.14904090762138367, 0.07778631895780563, -0.005170099437236786, -0.04921797290444374, 0.3830450773239136, -0.46155035495758057, 0.17242057621479034, -0.4746367335319519, 0.35680338740348816, -0.06082407385110855, -0.05329497158527374, 0.31551864743232727, -1.7132807970046997, -0.04928882420063019, -0.11349806189537048, -0.39702603220939636, 0.16371093690395355, 0.14275097846984863, 0.17721527814865112, 0.0510108508169651, -0.05476803332567215, 0.154409259557724, -0.020560258999466896, -0.02403993159532547, 0.39280885457992554, -0.23691512644290924, 0.346378892660141, 0.043360110372304916, 0.10641856491565704, 0.4431192874908447, -0.09153986722230911, 0.22198717296123505, 0.10754735767841339, -0.008761506527662277, -0.14549870789051056, 0.1291392296552658, -0.12314775586128235, 0.10272018611431122, -0.16415297985076904, 0.015030300244688988, -0.13750047981739044, 0.05292322486639023, -0.03407884016633034, 0.0031057794112712145, 0.07272325456142426, -0.14711931347846985, 0.011454309336841106, -0.0365682914853096, -0.08520735800266266, 0.06952378898859024, -0.029720621183514595, 0.11300968378782272, 0.11891241371631622, 0.24895606935024261, 0.18409624695777893, 0.15503789484500885, 0.04109837859869003, 0.01412319578230381, -0.07013359665870667, -0.025671180337667465, 0.14637364447116852, -0.07905430346727371, 0.05810490995645523, 0.18965676426887512, 0.3516002595424652, -0.04671303182840347, -0.1684633493423462, 0.26892343163490295, -0.36087316274642944, 0.4725027084350586, -0.4298928678035736, -0.09554482251405716, 0.47909969091415405, -0.17079608142375946, -0.5940899848937988, -0.475614458322525, 0.2920681834220886, 0.1757367104291916, 0.08481013774871826, -0.12218762934207916, 0.09792228788137436, 0.1991940438747406, -0.4808076322078705, 0.4078926146030426, -0.2526981234550476, -0.22335489094257355, -0.07337752729654312, 0.19259260594844818, 0.8327648639678955, -0.12856779992580414, 0.23267792165279388, -0.18977975845336914, 0.06440404802560806, 0.8417752981185913, -0.3678964078426361, 1.3515019416809082, 0.5325888991355896, 0.0010140640661120415, -0.134649857878685, -0.09794159233570099, -1.0934902429580688, 0.023410527035593987, -0.7828094959259033, -0.2866399586200714, 0.6905567049980164, -0.0871320515871048, -0.09223274141550064, -0.9090496897697449, -1.0977237224578857, -0.0787200927734375, -0.07424293458461761, 0.12926970422267914, 0.06331239640712738, -1.440985083580017, -0.05923043191432953, -0.013603012077510357, -0.04356258735060692, -0.05470778048038483, -0.21881836652755737, -0.026619011536240578, -0.3076576292514801, 0.23672853410243988, -0.10129031538963318, -0.08476950228214264, 0.22507348656654358, -0.36738303303718567, 0.007436321582645178, -0.03254469856619835, -0.11341572552919388, -0.13257230818271637, -0.13013024628162384, 0.02369982749223709, -0.37319356203079224, -0.19269579648971558, -0.3569336533546448, 0.1483977884054184, 0.3283308446407318, -0.1459144651889801, -0.3613181710243225, -0.47976934909820557, -0.19844134151935577, 0.03792963922023773, 0.04332560673356056, -0.10808873921632767, -0.1061541736125946, 0.4547410011291504, -0.23801639676094055, 0.12189581245183945, -0.09779039025306702, -0.6719986200332642, 0.07075494527816772, 0.015156366862356663, 0.5939047932624817, -0.2482430338859558, -0.5266953110694885, -0.11502058058977127, 0.42808055877685547, 0.5037925243377686, -0.19162243604660034, 0.3947865068912506, 0.13807077705860138, -0.10020408779382706, -0.07987278699874878, -0.06794128566980362, -0.472768098115921, 0.9486182332038879, -0.28952836990356445, -1.2156634330749512, -0.4242998957633972, 0.019691092893481255, 0.07700607925653458, -0.27415165305137634, 0.3873623013496399, -0.03058295138180256, -0.009677085094153881, 0.026889875531196594, 0.058155082166194916, -0.5779812335968018, 0.12209050357341766, -0.06474805623292923, -0.09860841929912567, -0.3175255358219147, 0.05238695070147514, 0.028780389577150345, 0.18026629090309143, -0.057153649628162384, -0.21895650029182434, 0.06890486925840378, -0.38197797536849976, 0.36719557642936707, -0.08830492198467255, -0.07104428112506866, -0.3560304045677185, 0.06456467509269714, 0.012628928758203983, 0.07975677400827408, -0.42222124338150024, 0.6396803259849548, -0.3446420133113861, 0.29478979110717773, 0.1610718071460724, -0.09503164887428284, -0.3449361026287079, -0.4599362015724182, -0.5023337602615356, -0.014395035803318024, 0.0883253961801529, -0.018808560445904732, 0.06781256198883057, 0.19723238050937653, -0.10629884898662567, 0.2222098708152771, -0.19586439430713654, -0.3894273638725281, -0.21664072573184967, 0.03968939557671547, 0.44401663541793823, -0.2873908281326294, -0.7162432670593262, -0.11367211490869522, 0.2849096655845642, 0.5123448967933655, -0.2516368627548218, 0.7959259152412415, 0.2208821177482605, -0.15922848880290985, -0.10656315088272095, -0.3384576737880707, 0.25812092423439026, -0.3477749824523926, 0.3684852421283722, -0.22924789786338806, -0.061399560421705246, -0.013484648428857327, 0.18731339275836945, -0.01084836758673191, -0.26508161425590515, 0.07356531172990799, 0.11791560053825378, 0.3235945403575897, -0.0641322061419487, 0.14998865127563477, 0.22757959365844727, -0.25372567772865295, 0.10505445301532745, -0.24855071306228638, 0.10861776024103165, -0.04414229467511177, -0.08930271118879318, 0.6201053261756897, 0.338970810174942, 0.13378368318080902, -0.2590254843235016, -0.6166398525238037, 0.1881120651960373, -0.8110496401786804, 0.40945881605148315, 0.06460623443126678, 0.04570583254098892, 0.059533651918172836, 0.12689128518104553, -0.10612917691469193, -0.10383512079715729, 1.3029063940048218, 0.9376444816589355, 0.10284630209207535, -0.14085079729557037, 0.341990202665329, 1.5128363370895386, -0.059560880064964294, 0.08122752606868744, 1.2252899408340454, -0.035178255289793015, 0.6799249649047852, 0.05545099824666977, -0.0847175121307373, 0.052561987191438675, 1.9132165908813477, -0.05739590525627136, 0.057306304574012756, -0.5402531623840332, 0.9855048656463623, -0.02080104686319828, 0.038993630558252335, 0.44612860679626465, -0.27919355034828186, 0.1891976147890091, 0.13539819419384003, 0.567193329334259, -0.09853071719408035, -0.08367850631475449, -0.3550492525100708, 0.12930364906787872, -1.367385745048523, -0.00787761528044939, 0.7773827910423279, -0.9506084322929382, 0.08160562068223953, 0.03803335875272751, -0.010050427168607712, 1.3421698808670044, 0.041728805750608444, 0.02578788250684738, 0.12472571432590485, -0.08452792465686798, -0.26774805784225464, 0.18919724225997925, -0.1425623893737793, 0.31362834572792053, 0.16690930724143982, 0.26735299825668335, 0.09710495173931122, -0.24297353625297546, 0.33217284083366394, -0.36396342515945435, 0.01089044101536274, -0.348478227853775, -0.41956475377082825, 0.30630970001220703, -0.24451526999473572, 0.23186130821704865, -0.029179953038692474, 0.1876002997159958, -0.0831880271434784, 0.18100278079509735, 0.5618533492088318, 0.22239336371421814, 0.0715218186378479, 0.44308555126190186, 0.010338532738387585, 0.15094511210918427, -0.34976106882095337, -0.11874884366989136, 0.0749400332570076, 0.1062113493680954, 0.10882681608200073, 0.06600357592105865, -0.018580762669444084, 0.24674788117408752, -0.3043985366821289, 0.15854249894618988, -0.46622520685195923, 0.0905948057770729, 0.05416364595293999, -0.4793700575828552, -0.3171895742416382, -0.2741735577583313, 0.04137025028467178, -0.8992970585823059, -0.731443464756012, 0.40640318393707275, -0.8574485182762146, 0.39394068717956543, -0.014473571442067623, 0.02981513924896717, 0.0463850237429142, 0.08211026340723038, -0.008102944120764732, -0.04890194162726402, -1.064640998840332, -0.12377089262008667, -0.04483950510621071, -0.3812579810619354, -0.0818130373954773, 0.5247741341590881, -0.0614946149289608, -0.09823774546384811, -0.1817428171634674, 0.01487890537828207, -0.45168209075927734, -0.28052687644958496, 0.24057702720165253, 0.04712406545877457, -1.3402159214019775, 0.1271980106830597, 0.08209805190563202, 0.6145409345626831, 0.08344036340713501, 0.05117565020918846, 0.08747930079698563, -0.0074763065204024315, 1.4379857778549194, -0.21558409929275513, -0.2272259145975113, -0.47201237082481384, 0.011294850148260593, 0.03607960045337677, 0.16375577449798584, -0.2644813358783722, -1.4136416912078857, -0.15270264446735382, -0.6949422359466553, -0.34183672070503235, -0.033786892890930176, -0.4585499167442322, -0.7570249438285828, -0.31971457600593567, 0.028765272349119186, -0.080021433532238, -0.49645400047302246, -0.14149849116802216, -0.5649194121360779, -0.17789623141288757, 0.07950767129659653, -0.1403617560863495, -0.35696813464164734, -0.06320834904909134, -0.023133376613259315, 0.05501023679971695, -0.8151968717575073, -0.26438143849372864, 0.11253727972507477, -0.8007414937019348, 0.2459821254014969, -0.0364651158452034, -0.20585614442825317, -0.008584149181842804, 0.13139623403549194, 0.08758942782878876, 0.28693604469299316, -1.3958219289779663, -1.166359543800354, -1.1811782121658325, 0.337665319442749, 0.05039048194885254, -0.39589929580688477, -1.2359176874160767, -1.021443247795105, -0.45863211154937744, 0.013316905125975609, -0.10281869769096375, -0.6872996687889099, -0.1114133968949318, 0.6937370300292969, -1.0656300783157349, 0.24544040858745575, -0.6394810676574707, -0.5255866050720215, -0.4860183894634247, -0.20259474217891693, 0.43151384592056274, -1.2437255382537842, -2.0344080924987793, -0.1091388538479805, -0.6965318322181702, 0.44451722502708435, -0.41352126002311707, 0.48764467239379883, 0.5718966126441956, -0.059022244065999985, 0.021186649799346924, -0.05982336401939392, -0.4140753746032715, 0.4675063192844391, 0.006172707304358482, 0.4311285614967346, -0.8710429072380066, 0.0071907187812030315, -0.22361405193805695, -0.4514846205711365, 0.6491464376449585, 0.004057439509779215, -0.07995626330375671, 0.07907713204622269, 0.1080390214920044, -0.15090134739875793, -0.15697188675403595, 0.23710624873638153, -0.3675801455974579, -1.1154019832611084, -0.11818131059408188, -0.004644881002604961, -0.08077511191368103, 0.39216962456703186, -0.7968922257423401, 0.011785144917666912, 0.700167179107666, 0.1204938068985939, -0.3375607430934906, -0.04516123980283737, -0.2890275716781616, 0.0009785533184185624, -0.07234733551740646, 0.031837839633226395, -0.3393535912036896, -0.3509324789047241, -0.16082406044006348, 0.2437993288040161, -1.0736666917800903, -0.20921194553375244, 0.40614575147628784, -0.29656967520713806, 0.14787867665290833, -0.2579726278781891, -0.11289249360561371, -0.6694510579109192, -0.13498593866825104, -0.7140467166900635, 0.5275400280952454, -0.13295955955982208, 0.07456241548061371, 0.15487857162952423, 0.08824481070041656, 0.049363359808921814, -0.6129370331764221, 0.17147289216518402, -0.4290844798088074, -0.02181260660290718, 0.10396593064069748, -0.5066704750061035, 0.2568294405937195, -0.1201295256614685, -1.2303318977355957, 0.12125526368618011, 0.10097751021385193, 0.11597933620214462, -0.16620509326457977, 0.35736197233200073, -0.19737043976783752, -0.2394770383834839, 0.1598685383796692, -0.013249525800347328, 0.04300374537706375, -0.08153153955936432, 0.4885883033275604, -0.08929087221622467, -0.08590548485517502, 0.8384754061698914, -0.028182927519083023, -0.9011033773422241, 0.2539271116256714, 0.03222765401005745, 0.04349035397171974, 0.39081475138664246, -0.042076874524354935, -0.1050528734922409, -0.8329583406448364, 0.9716821312904358, -0.008648931980133057, -0.044057074934244156, 0.18363027274608612, -0.41694512963294983, 0.1852594017982483, -0.07895572483539581, 0.7322561144828796, -0.029925739392638206, -0.039644692093133926, 0.18026399612426758, -0.796558141708374, 0.12771856784820557, -0.4830825626850128, -0.4050404131412506, -0.08241468667984009, -0.04777425155043602, -0.958640992641449, -0.5089694261550903, -0.07730992883443832, 0.07015539705753326, 0.13768576085567474, -0.359968900680542, -0.011930725537240505, 0.08036843687295914, -0.7329148650169373, 0.03434501215815544, -0.32251375913619995, -0.9282302856445312, -0.2512170076370239, 0.057106856256723404, 0.35162779688835144, -0.5652878880500793, -0.9549157619476318, 0.007499172352254391, 0.3069324791431427, 0.9924572110176086, -0.328655868768692, 1.0954525470733643, -0.3521956205368042, 0.006899126805365086, -0.1583554893732071, 0.04930407926440239, -0.0809641107916832, -0.03191844001412392, -0.14689312875270844, 0.023836107924580574, -0.9233929514884949, -0.11018051207065582, -0.07881052792072296, -0.19041451811790466, 0.3914511203765869, 0.009427478536963463, 0.12852926552295685, -0.6471143364906311, -0.14225485920906067, -0.026615099981427193, 0.0059904903173446655, 0.024414794519543648, -0.033412866294384, 0.5191032290458679, 0.072242870926857, 0.022098306566476822, 0.1485377997159958, -0.40445569157600403, -0.02206380106508732, 0.04490874335169792, 0.20967665314674377, 0.47502437233924866, 0.054738156497478485, -0.2822872996330261, -1.1303093433380127, 0.029077762737870216, 0.09387796372175217, 0.24127709865570068, -0.7634825110435486, 0.3554687201976776, -0.7162068486213684, 0.4584830701351166, -1.2167487144470215, -0.06117646396160126, -0.8047597408294678, -0.9626717567443848, -0.7181995511054993, -0.16816459596157074, -0.1302497684955597, -0.8039931654930115, 0.03547950088977814, -0.548750638961792, -0.4107535481452942, 0.2624660134315491, -0.22576890885829926, 0.2380257546901703, -0.11441128700971603, -0.021288298070430756, -0.02162822335958481, -0.7439031600952148, -1.2607520818710327, -0.022933676838874817, 0.6139175295829773, 0.2543288469314575, -0.10702177882194519, 0.5328512787818909, -0.3027743995189667, -0.17758119106292725, -0.07706683874130249, 0.11207514256238937, -0.09853017330169678, -0.233925923705101, -0.23694545030593872, 0.055434662848711014, -0.10648281127214432, -0.03039189614355564, -0.0923367515206337, -0.14658601582050323, -0.1972423493862152, -0.2000197321176529, 0.020314006134867668, -0.08006671071052551, -0.1456420123577118, -0.06282060593366623, 0.036120425909757614, -0.06310173869132996, 0.1294383555650711, 0.03720869868993759, 0.10492104291915894, 0.028292441740632057, 0.031852610409259796, -0.34346550703048706, -0.19059279561042786, -0.0008069376344792545, -0.11241338402032852, 0.13732750713825226, 0.15126076340675354, 0.04418766871094704, -0.16427424550056458, -0.03280132636427879, -0.03888150304555893, 0.15980321168899536, -0.1148776113986969, 0.12937785685062408, -0.10042280703783035, 0.15243279933929443, -0.14775614440441132, 0.00546738225966692, -0.17978595197200775, -0.2512856423854828, -0.3543680012226105, 0.0030441333074122667, -0.022149531170725822, -0.16485480964183807, -0.057231415063142776, -0.041470952332019806, -0.06309821456670761, -0.0007818537415005267, -0.08200732618570328, 0.3803730010986328, -0.08874953538179398, -0.033929385244846344, 0.0358116589486599, -0.2689476013183594, -0.21841469407081604, -0.06435825675725937, -0.11042074859142303, -0.08984190225601196, 0.03285858407616615, 0.20820780098438263, 0.025816474109888077, 0.03501591831445694, 0.0017626923508942127, -0.10572091490030289, -0.4030686318874359, 0.6917397975921631, -0.2619052529335022, 0.3512190580368042, 0.2507617771625519, -0.0896226316690445, -0.4479161202907562, -0.7862280607223511, -0.9863161444664001, 0.03522051125764847, 0.15099328756332397, 0.17043492197990417, -0.04266198351979256, 1.179271936416626, -0.37684768438339233, -0.344113826751709, -0.14748547971248627, -1.6090867519378662, -0.08688687533140182, 0.07491781562566757, -0.4892403185367584, -1.1200045347213745, -0.7494932413101196, -0.20748895406723022, -1.5871068239212036, -1.2158571481704712, -0.08533592522144318, -0.3909588158130646, 0.7131391167640686, -0.11247344315052032, 0.05618920549750328, -0.04705996438860893, 0.872676432132721, -0.5167379975318909, 0.44182926416397095, -1.5375263690948486, -0.4878756105899811, 0.10589645057916641, 0.37716639041900635, 0.8831958174705505, -0.008550218306481838, 0.07568527013063431, 0.13005052506923676, 0.22792623937129974, 0.0033501009456813335, -0.639072060585022, 0.29619190096855164, -0.25523319840431213, 0.15516912937164307, 1.0367788076400757, 0.18799233436584473, 0.08837208896875381, -0.37612032890319824, 0.6436887383460999, 0.6751754283905029, 0.10182017832994461, 0.4568299353122711, -0.7951810359954834, 0.1946057379245758, -0.5464560389518738, 0.3621828854084015, 0.06497666984796524, 0.12157119065523148, 0.19024962186813354, -0.28063228726387024, 0.6198788285255432, -0.3768879473209381, 0.31969213485717773, -0.26525068283081055, 0.04014833644032478, -0.023804105818271637, -0.160706028342247, -0.07587641477584839, 0.06222708895802498, 0.08562110364437103, -0.09322371333837509, -0.04983903840184212, -0.15941357612609863, 0.43580079078674316, -0.03216896578669548, 0.16107112169265747, -0.1386023759841919, 0.033746618777513504, -0.04398360103368759, -0.45561084151268005, 0.22730174660682678, 0.09314648807048798, 0.01673831231892109, 0.13849066197872162, -0.4405623972415924, 0.1682751178741455, 0.01735709421336651, -0.10908696800470352, -0.059755370020866394, 0.01542999129742384, -0.1819421797990799, -0.24954058229923248, 0.6020960211753845, -0.05753215029835701, 0.39752721786499023, -0.65771484375, 0.09069684892892838, 0.616059422492981, -0.23254288733005524, 0.01573973149061203, 0.2269863784313202, 0.1469733566045761, 0.012196045368909836, -0.05044334754347801, 0.0768883153796196, 0.5120493769645691, -0.25791382789611816, 0.39925602078437805, -0.20412738621234894, 0.14293158054351807, 0.14106659591197968, -0.30985990166664124, 0.27320554852485657, 0.04676458239555359, 0.08799142390489578, 0.08205918222665787, -0.46567869186401367, 0.25341716408729553, -0.7055748105049133, 0.07629796117544174, -0.0560922734439373, -0.0634169653058052, -0.16177742183208466, 0.28793865442276, -0.24855159223079681, 0.1762990951538086, -1.3452949523925781, -0.5171397924423218, 0.05589032918214798, 0.4417959153652191, 0.18212273716926575, 0.8889849185943604, 0.2020200937986374, 0.3133229911327362, 0.13102522492408752, 0.008565317839384079, -1.4346506595611572, 0.6551312208175659, -0.1958940625190735, 0.33348608016967773, -0.899206817150116, 0.08057443052530289, 0.034562330693006516, -0.19177737832069397, 0.171343132853508, -0.13544818758964539, 0.06637349724769592, 0.8718723058700562, -0.8108946681022644, 0.3958643078804016, -0.4197514057159424, 0.29063817858695984, -0.027965303510427475, 0.11459414660930634, -0.0918847844004631, 0.294571191072464, 0.055304497480392456, 0.18398116528987885, 0.04079723730683327, -0.0017507196171209216, 0.18411928415298462, -0.11539597064256668, 0.07586431503295898, -0.05368286371231079, 0.009254486300051212, 0.008398636244237423, 0.14305786788463593, 0.033524543046951294, 0.199957475066185, 0.06580246239900589, -0.12849347293376923, -0.08672440052032471, 0.2883325219154358, -0.0868758112192154, 0.06482959538698196, -0.04730939120054245, 0.12556453049182892, 0.16657254099845886, -0.06335384398698807, 0.028382200747728348, -0.0979345291852951, 0.02928152307868004, 0.012770218774676323, 0.27378302812576294, -0.12373990565538406, -0.010370139963924885, -0.10387098044157028, -0.08447448909282684, -0.13639134168624878, 0.11211276054382324, -0.2663339674472809, -0.4418852627277374, -0.08783313632011414, -0.18698719143867493, 0.03484361618757248, -0.2551087737083435, 0.07712671160697937, -0.056641094386577606, 0.10111431777477264, -0.06884754449129105, -0.28656521439552307, -0.19403302669525146, -0.09442981332540512, 0.10808313637971878, -0.591992974281311, 0.08313317596912384, 0.0365535244345665, 0.12717218697071075, 0.11493533849716187, -0.29085737466812134, 0.10074365139007568, -0.08680230379104614, 0.005519512575119734, -0.008008434437215328, -0.3725559413433075, 0.21123799681663513, -0.0789112001657486, 0.05262899026274681, 0.15487246215343475, -0.4501371383666992, -1.1357249021530151, -0.19918882846832275, -0.08600009977817535, -0.23378373682498932, -0.2076863795518875, -0.6546828746795654, -0.660246729850769, -0.9667479395866394, 0.07257720828056335, 0.21406316757202148, -0.3835473954677582, 0.037264540791511536, 0.9936950206756592, -0.46659424901008606, 0.16527144610881805, -0.316487193107605, -1.7009449005126953, -0.25702542066574097, 0.14448347687721252, 0.5712723731994629, -0.8512605428695679, -0.6741666197776794, 0.020928896963596344, -0.5407416224479675, 0.6724118590354919, -0.4360910952091217, 0.26667359471321106, -0.2333393692970276, -0.014189436100423336, 0.09347210824489594, -0.008353008888661861, 0.12127756327390671, -0.09738617390394211, 0.0844237431883812, -0.0899578183889389, -0.004687831737101078, 0.002582302549853921, -0.14983950555324554, 0.03650480508804321, 0.052105456590652466, -0.030923984944820404, 0.13768258690834045, -0.08088713884353638, -8.60973377712071e-05, 0.0007773477700538933, 0.01211512740701437, 0.046046510338783264, 0.0884770005941391, 0.17643989622592926, 0.1040012463927269, 0.02915646694600582, -0.0585089735686779, 0.0097072534263134, 0.047856640070676804, -0.04229918122291565, -0.014902411960065365, 0.015494352206587791, -0.02430659532546997, 0.16707375645637512, -0.030477959662675858, 0.09322904795408249, -0.03736612945795059, -0.10814648866653442, 0.46090710163116455, 0.20411771535873413, 0.19860520958900452, 0.14955055713653564, -0.5758050680160522, 0.1121421605348587, 0.20156963169574738, 0.42266395688056946, 0.8066757321357727, 0.21657605469226837, 0.27214688062667847, 0.8917890787124634, 0.23830509185791016, -0.8408151865005493, 0.17026352882385254, 0.17742906510829926, -0.04461285471916199, -1.9019837379455566, 0.15526318550109863, 0.10436265170574188, 0.39851757884025574, 1.3653494119644165, 0.8473684787750244, -0.09775491058826447, 0.485024094581604, 0.03245827555656433, -0.08323181420564651, -0.49549269676208496, 0.23513147234916687, -0.0057140071876347065, 0.08864936232566833, -0.01934279315173626, 0.17641925811767578, 0.10970854759216309, 0.24895137548446655, -0.6267836093902588, -0.05534413829445839, 0.0855025202035904, 0.047517623752355576, 0.20688287913799286, 0.08758344501256943, 0.005882784258574247, 0.09998028725385666, 0.257345587015152, 0.04126855358481407, -0.2033061385154724, 0.20226256549358368, -0.2541807293891907, 0.12980376183986664, -0.9200941920280457, 0.27359333634376526, 0.17396757006645203, -0.0007232396164909005, 0.5391307473182678, 0.011763494461774826, 0.1483212411403656, 0.1084262803196907, -0.10389884561300278, 0.028834883123636246, -0.3761410117149353, 0.5430991053581238, -0.13533635437488556, -0.033478982746601105, -0.0017971692141145468, 0.12032118439674377, 0.027969080954790115, 0.04900852590799332, -0.2725554406642914, -0.0548250749707222, -0.10175487399101257, -0.18163572251796722, 0.01542399637401104, -0.45165586471557617, 0.2616496980190277, 0.26597052812576294, -0.030723437666893005, 0.0028354825917631388, 0.3397444188594818, -0.04716530069708824, -0.028152545914053917, 0.09959635138511658, -0.7677515745162964, 0.05778835341334343, 0.0686863586306572, 0.06691165268421173, -0.13878485560417175, -0.23927287757396698, -0.08954331278800964, -0.12187311798334122, -0.27504053711891174, -0.02104337140917778, 0.031881172209978104, 0.9005624651908875, -0.13128605484962463, 0.0257805697619915, -0.1504868119955063, 0.2077684998512268, -0.1408369541168213, -0.007307180669158697, 0.009054292924702168, 0.19909654557704926, -0.0159240011125803, -0.14666704833507538, 0.23595689237117767, -0.057162005454301834, 0.03528008237481117, 0.117518350481987, 0.29837310314178467, 0.2531706690788269, 0.10796263813972473, 0.0033869463950395584, 0.007632148917764425, -0.08750278502702713, 0.5336313843727112, 0.08130104094743729, 0.05406937748193741, 0.06962445378303528, 0.035048823803663254, 0.2254011034965515, -0.0242001973092556, 0.12329578399658203, -0.008094456046819687, -0.11695090681314468, -0.07770507037639618, 0.1291104108095169, -0.05976875126361847, 0.007390644866973162, 0.11906272172927856, -0.3088103234767914, -1.36903715133667, -0.3135169446468353, 0.0772799402475357, -2.205824136734009, -0.09022967517375946, -0.27325648069381714, -0.47620317339897156, -0.6202520728111267, -0.10871170461177826, 0.10099218785762787, -0.22594773769378662, 0.03651050478219986, 0.20186027884483337, -0.1963135153055191, 0.10600623488426208, -0.11653684079647064, 0.39490294456481934, -0.07388771325349808, 0.01971791498363018, -0.03301379829645157, -0.10255146026611328, -0.6213670372962952, 0.053936801850795746, 0.17370566725730896, 0.1289094239473343, -0.10396842658519745, 0.26483938097953796, -0.2207401841878891, 0.029897643253207207, 0.08211848139762878, 0.1783127784729004, -0.7645837664604187, 0.982931911945343, -0.6069462299346924, -0.7859147191047668, 0.3223997950553894, -0.0684577003121376, -0.4183557331562042, -1.027622938156128, -0.5868082046508789, 0.042062051594257355, -0.005959715694189072, -1.0336259603500366, 0.009101707488298416, -0.24005155265331268, -0.40539902448654175, 0.17416837811470032, -0.2667488157749176, -1.06083083152771, -0.3928142488002777, 0.09981223940849304, 0.736024022102356, -1.7073734998703003, -1.013109564781189, -0.07497737556695938, -0.7622197866439819, 0.8680102825164795, -0.19777661561965942, 0.5722581148147583, -1.1876507997512817, -0.09697315096855164, 0.05769242346286774, -0.24060103297233582, 0.13877162337303162, -0.3912164568901062, 0.18768276274204254, -0.36859849095344543, -0.18840661644935608, -0.011155172251164913, 0.19802258908748627, 0.41038841009140015, 0.6465873718261719, 0.21039675176143646, 0.10599717497825623, 0.21634668111801147, 0.0235754307359457, -0.6521223187446594, 0.26306626200675964, -0.1116132065653801, 0.24266397953033447, -0.9409193396568298, 0.299730509519577, 0.14189743995666504, 0.1310061514377594, 0.17736810445785522, 0.2218494862318039, -0.018753157928586006, 0.17604674398899078, -0.11269231885671616, 0.09348175674676895, 0.18793687224388123, -0.0055802627466619015, -0.15444770455360413, -0.07368917763233185, -0.14832155406475067, 0.06913502514362335, 0.578792154788971, 0.08059847354888916, 0.17072351276874542, -1.245100975036621, 0.1789136677980423, 0.5135183930397034, 0.2057037353515625, 0.5548608899116516, 0.08316708356142044, 0.025298500433564186, 0.18575641512870789, 0.0686340257525444, 0.15092012286186218, 0.7009215354919434, -0.22131411731243134, 0.21219666302204132, 0.3274775743484497, 0.19277498126029968, 0.014824033714830875, -0.42378777265548706, 0.4231370687484741, 0.31591635942459106, 0.039622627198696136, 0.37492600083351135, -0.5348606109619141, 0.28187423944473267, -0.7007374167442322, 0.13132871687412262, -0.005860083270817995, 0.07541963458061218, 0.08729797601699829, -0.04461565241217613, -0.26060786843299866, -0.048657990992069244, 0.07489266991615295, -0.010256319306790829, 0.06737925112247467, 0.05338618531823158, 0.17391623556613922, 0.08897922933101654, -0.04070451855659485, 0.004845529329031706, -0.4028381407260895, -0.16697853803634644, -0.3514353334903717, 0.12199717015028, 0.08806303888559341, 0.018821923062205315, -0.38131463527679443, 0.1884317696094513, -0.0005548172048293054, 0.030557729303836823, -0.019352653995156288, -0.045022714883089066, 0.14517635107040405, -0.20098000764846802, -0.3823525607585907, -0.018924133852124214, 0.3452085256576538, -0.8211748600006104, -0.10597321391105652, 0.0023684180341660976, -0.21345536410808563, -0.02563101425766945, 0.4010627269744873, 0.008536969311535358, -0.21187803149223328, -0.6975446343421936, 0.03800205886363983, 0.4643253684043884, -0.584333062171936, -0.5057012438774109, 0.20788972079753876, 0.11717141419649124, 0.09665624052286148, -0.046308644115924835, -0.3295384347438812, 0.4982278347015381, -0.21743042767047882, 0.25711336731910706, 0.03818267211318016, -0.02625705674290657, 0.1316826343536377, -0.20599575340747833, 0.4323236644268036, -0.35543617606163025, 0.06253716349601746, 0.38740357756614685, -0.37972331047058105, 0.13254521787166595, -0.49918922781944275, 0.1507265269756317, -0.030407801270484924, 0.0630563348531723, 0.10889791697263718, -0.08117875456809998, -0.03928095102310181, 0.06814438104629517, -0.6456301808357239, -0.2940533459186554, 0.049945466220378876, -0.08854276686906815, -0.19905176758766174, 0.25931841135025024, 0.050323840230703354, -0.024675974622368813, 0.03504147380590439, 0.0368962287902832, -0.12581194937229156, 0.07350651919841766, 0.08062531054019928, 0.03604203835129738, -0.8203245401382446, -0.03656400367617607, 0.023419708013534546, 0.16812649369239807, 0.11866778135299683, -0.2294190526008606, -0.0920930951833725, 0.0953136757016182, 0.3660939931869507, 0.011591624468564987, 0.040778566151857376, -0.0017141606658697128, -0.009741839952766895, -0.13017968833446503, -0.2276487648487091, 0.11165037751197815, -0.019452957436442375, -0.12650395929813385, -0.0835689902305603, 0.13369545340538025, 0.07449577003717422, -0.1535433530807495, 0.0737181156873703, 0.0861673504114151, 0.21578297019004822, 0.25856253504753113, 0.14086337387561798, 0.18792769312858582, 0.11800517141819, -0.06467732042074203, -0.07281718403100967, -0.12322651594877243, 0.46613627672195435, -0.06762733310461044, -0.06642606109380722, 0.26805129647254944, 0.09863011538982391, 0.11522872000932693, 0.011739472858607769, 0.11636000871658325, 0.25506076216697693, -0.009472250007092953, -0.04671698436141014, 0.14634275436401367, -0.2592299282550812, -0.09321068972349167, -0.43136683106422424, 0.7806416749954224, -0.7325778007507324, 0.6664360165596008, 0.2868135869503021, -1.543839454650879, 0.19218550622463226, 0.4662233591079712, 0.7217483520507812, -0.14852601289749146, -0.002108111511915922, 0.1351810246706009, 0.8780899047851562, -0.1761603206396103, -0.18598820269107819, 0.5108197331428528, -0.9982609152793884, 0.4729501008987427, 0.9823164343833923, 0.29034194350242615, 0.07617057114839554, -1.2642594575881958, 0.958573579788208, 0.6750137209892273, 0.17369982600212097, 0.49631035327911377, -1.8525255918502808, 0.6270020008087158, -1.4317879676818848, 1.3097100257873535, -0.23507477343082428, 0.0061048101633787155, -0.20911867916584015, -0.16885723173618317, 0.08727782964706421, -0.1582445651292801, 0.11577385663986206, 0.035981204360723495, -0.08760173618793488, -0.06388906389474869, 0.014980381354689598, -0.1332271695137024, 0.2658129036426544, 0.16584187746047974, 0.023605380207300186, 0.11992402374744415, -0.0341474786400795, -0.05284932628273964, 0.03709319978952408, 0.07626291364431381, 0.09724928438663483, -0.10032188147306442, 0.06869111210107803, 0.08232144266366959, 0.02671918086707592, -0.010355372913181782, -0.0924023911356926, -0.06861666589975357, 0.007532360963523388, 0.12856516242027283, 0.04783899709582329, 0.07104017585515976, -0.3369561433792114, -0.11337663233280182, -0.27204614877700806, -0.22907103598117828, -0.14698433876037598, -0.2551804780960083, 0.5063302516937256, 1.14817214012146, -0.009514611214399338, -0.1505149006843567, -0.0869310051202774, 0.34966734051704407, 0.23636634647846222, 0.24810077250003815, 0.3662366271018982, 0.22741009294986725, 0.9802765846252441, -0.18219056725502014, 0.0064367796294391155, 0.017655476927757263, 0.14102891087532043, -0.30378416180610657, 0.22309184074401855, -0.05917845666408539, 0.14925631880760193, 0.3106361925601959, -0.10142996162176132, 0.06293924897909164, -0.14186447858810425, -0.11726202070713043, -1.1180875301361084, 0.3697824776172638, 0.01187120471149683, -0.08495497703552246, 0.2389460653066635, -0.8292637467384338, -0.9863911271095276, -0.981355607509613, -0.8062669038772583, -0.7463862299919128, -0.27278903126716614, -0.7723166346549988, -0.9803358316421509, -0.08458367735147476, -0.24342623353004456, 0.08458589017391205, -0.5147616863250732, -0.04947073757648468, 0.35472387075424194, -0.7737436294555664, 0.24866648018360138, -0.4997636377811432, 0.975452721118927, -0.4051227867603302, -0.0465165376663208, -0.036389559507369995, -0.5465319752693176, -1.1901092529296875, -0.19764812290668488, -0.10806143283843994, 0.6458221077919006, -0.43491265177726746, 0.5392382144927979, -0.3129447102546692, -0.10660389065742493, 0.004914274904876947, -0.055199794471263885, 0.16937896609306335, -0.10103859007358551, 0.1310967057943344, -0.2501792311668396, -0.05902707204222679, 0.07768335193395615, 0.052657440304756165, 0.2400461882352829, 0.1550934761762619, 0.027341090142726898, 0.11928988248109818, 0.15006142854690552, 0.053971067070961, 0.017260532826185226, -0.07577799260616302, -0.15943123400211334, 0.08887447416782379, -0.5934500098228455, 0.2592863440513611, 0.032712340354919434, 0.14916566014289856, 0.14252756536006927, 0.12500450015068054, -0.007040505297482014, -0.1138724535703659, -0.07520388066768646, 0.06127633899450302, 0.013649104163050652, 0.07010999321937561, -0.11447808891534805, 0.04319366440176964, -0.06559482961893082, 0.12546290457248688, 0.033752571791410446, -0.03148047626018524, 0.055383965373039246, -0.006478618364781141, -0.06394289433956146, -0.07293926179409027, 0.06365738809108734, 0.14596344530582428, 0.06774800270795822, 0.2349429577589035, 0.21074655652046204, 0.2308489978313446, 0.1297491490840912, 0.1112176850438118, -0.03561374172568321, -0.11048542708158493, -0.2244766652584076, 0.07415736466646194, 0.09794433414936066, 0.19840018451213837, 0.060224391520023346, -0.04502635821700096, -0.012224473059177399, 0.006563082337379456, 0.15409566462039948, -0.11008847504854202, 0.049914080649614334, 0.13164526224136353, -0.06979188323020935, -0.1049882024526596, -0.0900946632027626, 0.1506972461938858, 0.14009547233581543, 0.21502859890460968, -0.16132062673568726, 0.020053161308169365, -0.013286747969686985, 0.12055613845586777, 0.026150396093726158, 0.03387351334095001, 0.1330004632472992, 0.1436270922422409, 0.09036306291818619, -0.10852071642875671, -0.17732390761375427, 0.18848858773708344, -0.11588815599679947, 0.10794208198785782, -0.3959580957889557, 0.04549606144428253, 0.10038524121046066, 0.006667958572506905, -0.06669801473617554, -0.05589330196380615, -0.09474791586399078, -0.19215552508831024, -0.3671233355998993, 0.18224336206912994, -0.15719333291053772, 0.2326410859823227, 0.09995997697114944, -0.024994462728500366, 0.03330777585506439, 0.3544498085975647, -0.13497678935527802, 0.2162536382675171, 0.07853970676660538, -0.3982049226760864, 0.12439288198947906, 0.03444322943687439, 0.1556222289800644, -0.014744524843990803, -0.08521035313606262, 0.06773565709590912, 0.17410559952259064, -0.06159975752234459, 0.14700783789157867, -0.00044626372982747853, 0.04668897017836571, 0.07287289947271347, 0.33939579129219055, 0.04317950829863548, -0.034435346722602844, 0.03388310596346855, 0.22671955823898315, 0.19840238988399506, -0.006581571418792009, 0.12893518805503845, 0.10097833722829819, 0.08756658434867859, -0.23617976903915405, 0.17648939788341522, -0.15352457761764526, -0.06078527867794037, -0.13566534221172333, 0.017163651064038277, 0.9986668229103088, 0.24719706177711487, -0.29914891719818115, -0.044991783797740936, 0.0734606608748436, 0.43076616525650024, 0.3081953823566437, 1.8400720357894897, 0.087105393409729, 0.018297625705599785, 0.5051159858703613, 0.004601610358804464, 0.4296645224094391, 0.2600724995136261, 0.04247737303376198, -0.022294452413916588, 0.250091552734375, -0.02642492763698101, 0.03546493127942085, -0.1108986958861351, 0.9511328339576721, 0.1947641670703888, 0.06278291344642639, -0.050847869366407394, -0.2089778184890747, 0.007635142654180527, -0.8810921311378479, 0.18044602870941162, 0.020984292030334473, 0.04797583073377609, 0.021206151694059372, 0.4530286490917206, -0.10265447944402695, 0.10305316746234894, -0.5606683492660522, -0.1476249098777771, 0.06768467277288437, 0.07002687454223633, 0.23576487600803375, 0.24381834268569946, 0.19883041083812714, 0.206272691488266, 0.08176445960998535, -0.1056932583451271, -0.1078043133020401, 0.07658495754003525, -0.041645511984825134, 0.1688288450241089, -0.4424530565738678, 0.13206499814987183, 0.07645498961210251, 0.16588635742664337, 0.09911906719207764, 0.12526072561740875, -0.029403984546661377, -0.056743115186691284, -0.0504019521176815, 0.03307219594717026, 0.24114979803562164, -0.042408037930727005, 0.01305556669831276, -0.020304720848798752, 0.001694754813797772, 0.23397454619407654, -0.28212350606918335, 0.19093193113803864, 0.5301011800765991, -0.08925893902778625, -0.10253436863422394, -0.10325009375810623, 0.12170523405075073, -0.18241915106773376, 0.10907093435525894, 0.003282036865130067, 0.15422210097312927, 0.1308743804693222, 0.14665110409259796, -0.08315842598676682, -0.03055678680539131, -0.09558839350938797, 0.7237415313720703, 0.056066010147333145, 0.14775168895721436, -0.06381233781576157, 0.003575280075892806, 0.21670976281166077, -0.0752134919166565, -0.05874674394726753, -0.5654094219207764, -0.030694423243403435, -0.17736555635929108, 1.0889416933059692, 0.07056043297052383, 0.0757506936788559, 0.17912589013576508, 0.05450940877199173, -0.17276854813098907, 0.002841926645487547, -0.03946429118514061, -0.0853738859295845, 0.004640838596969843, -0.10747100412845612, -0.026974448934197426, 0.04762135446071625, 0.031095433980226517, -0.0005984781892038882, -0.0011973081855103374, -0.16426299512386322, 0.018535463139414787, 0.07689240574836731, 0.04514886066317558, -0.0516500286757946, -0.1460500955581665, -0.039052028208971024, -0.08854299038648605, 0.0033185777720063925, 0.04599050059914589, 0.0176271740347147, 0.09170455485582352, -0.05931437388062477, 0.15146364271640778, 0.08759169280529022, 0.09793812781572342, -0.04286561533808708, -0.021538423374295235, -0.04743765667080879, -0.33897674083709717, -0.021648801863193512, 0.7464784383773804, 0.03022591397166252, 0.9669302105903625, -0.47761696577072144, 0.12059241533279419, 0.337831974029541, 0.515131413936615, 0.5987211465835571, -0.06121343374252319, -0.01820308156311512, -0.12051273137331009, 0.009562723338603973, -0.49098289012908936, 0.31439152359962463, -0.28100916743278503, 0.12372742593288422, -0.6652713418006897, 0.23539812862873077, -0.1299269199371338, -0.4651237428188324, 0.4551346004009247, 0.5361188054084778, 0.07522843778133392, -0.13394667208194733, -0.9907879829406738, 0.18604271113872528, -0.5825340747833252, -0.5762415528297424, -0.27689486742019653, -0.0015057523269206285, -0.09459176659584045, 0.25568097829818726, 1.04136061668396, 0.3395399749279022, -0.9258825182914734, 0.35792070627212524, 0.19596745073795319, 0.22153089940547943, -0.019766299054026604, 0.26172563433647156, 0.11015912145376205, 0.26954835653305054, 0.10585042089223862, -0.31631842255592346, -1.936119556427002, 0.20522694289684296, -0.5271233916282654, -0.04003405570983887, -1.9734740257263184, 0.1450665444135666, 0.092505544424057, -0.48284804821014404, 1.1938369274139404, -0.3694159984588623, -0.06849296391010284, -0.22331778705120087, -0.6012238264083862, 0.0010565761476755142, -1.7592741250991821, 1.1769251823425293, -0.13607916235923767, 0.033293671905994415, 0.09554902464151382, -0.23253075778484344, -1.5446420907974243, -0.34087029099464417, -0.7037595510482788, -0.23656898736953735, -0.22491122782230377, -0.48379552364349365, 0.547271728515625, -1.2157801389694214, -0.14457887411117554, -0.1979016810655594, 0.21777260303497314, 0.08021000027656555, -0.6388592720031738, -0.454581618309021, 0.08386575430631638, 0.18206052482128143, 1.2842624187469482, -0.08762206137180328, 0.21646417677402496, 0.09436589479446411, 0.5121921300888062, -0.31060197949409485, -0.12738969922065735, -0.24440646171569824, 0.5767444968223572, -0.10559789091348648, 0.4491807818412781, -0.7999399304389954, -0.1262315809726715, -0.125846728682518, -0.09281927347183228, 0.3262656629085541, 1.447073221206665, 0.37817955017089844, -1.9235316514968872, 0.5880932211875916, 0.20232470333576202, 0.24257667362689972, -0.4201706051826477, -0.026132453233003616, 0.024184631183743477, 0.2726331949234009, 0.1257580667734146, -0.23801837861537933, -4.131049156188965, 0.23475144803524017, -0.5806580781936646, 0.014253177680075169, -3.3683180809020996, 0.1345577985048294, 0.07493694126605988, -0.6006054878234863, 1.1907011270523071, -0.7910827398300171, -0.08188262581825256, -0.2821868658065796, -0.7772347927093506, 0.11370096355676651, -1.9535925388336182, 1.2248815298080444, 0.04539450630545616, -0.16530285775661469, 0.010082556866109371, -0.20326447486877441, -2.1934633255004883, -0.3933657109737396, 0.8732013702392578, 0.245686873793602, -0.15829136967658997, -0.26207777857780457, -0.8700434565544128, -1.8874801397323608, -0.014471537433564663, 0.0037094540894031525, 0.08297528326511383, -0.06718368828296661, -0.7131242156028748, -0.5179915428161621, 0.0219748392701149, 0.04184294119477272, 2.3671932220458984, -0.2064332664012909, 0.10560432076454163, 0.08659478276968002, -0.11408121883869171, -0.4810625910758972, -0.027577996253967285, -0.13479509949684143, 0.6582503318786621, -0.15640655159950256, 0.02271425724029541, -1.0680311918258667, -0.2846597731113434, -0.09139516204595566, -0.4389795958995819, 0.8697872161865234, 0.9547783136367798, 0.6873815655708313, -2.2851243019104004, 0.21851810812950134, 0.2631855309009552, 0.8081632256507874, 0.04443032294511795, 0.2070436030626297, -0.03986324369907379, 0.07662376016378403, -0.46897268295288086, -0.5053122043609619, -4.862696170806885, 0.8433557152748108, -0.7290433049201965, 0.31031912565231323, -2.85191011428833, 0.40567564964294434, -0.06102478876709938, -0.7156774401664734, 0.5475956201553345, -0.11612874269485474, 0.15190954506397247, -1.0586602687835693, -0.8253509998321533, 0.37867283821105957, -2.9947426319122314, 0.6806920170783997, -0.003223240841180086, -0.11165210604667664, 0.006997399963438511, 0.6803843379020691, 1.3566755056381226, 0.39585429430007935, -1.827536702156067, -0.6746581792831421, 0.041344016790390015, -0.0642014667391777, 0.35810232162475586, 0.049597520381212234, 0.02280028536915779, -0.1338178962469101, -0.46193215250968933, -0.010096283629536629, -1.163382887840271, -0.19425556063652039, 0.3932531774044037, -0.006255656015127897, 0.286172479391098, 0.17630422115325928, -0.1131414920091629, 0.6224737167358398, -0.2661251425743103, 0.588262140750885, 0.03609040379524231, -0.4624335765838623, 1.3340120315551758, 0.019414586946368217, 0.5556507110595703, -1.7480217218399048, 0.39299213886260986, 0.10134677588939667, -0.2818816602230072, 1.641045331954956, 0.1918022781610489, 1.455844521522522, -0.4863780438899994, -0.8997268676757812, 0.4509332478046417, 2.169772148132324, -0.34516793489456177, 0.019272280856966972, -0.01300243753939867, 0.32299309968948364, 0.8660531640052795, 0.37243884801864624, -3.52951717376709, 1.0357799530029297, -0.23026823997497559, 0.9968353509902954, 1.0529800653457642, 0.9252888560295105, -0.16215629875659943, -1.187327265739441, 0.4223325848579407, 2.986203670501709, 0.07604971528053284, 0.21814827620983124, -0.2597285211086273, 0.8968522548675537, -1.9388238191604614, 2.4468376636505127, -0.21312212944030762, -0.0647289976477623, -0.002109882887452841, -0.06296278536319733, -0.9311864972114563, -0.13719406723976135, -2.2657716274261475, -0.2242426723241806, -0.04371405020356178, -0.4020901620388031, 0.8447364568710327, 0.4638017416000366, -0.19756436347961426, -0.2636120319366455, 0.5099281072616577, -0.06534780561923981, -1.5507595539093018, -0.121196448802948, -0.005530263297259808, 0.0715164765715599, 0.18596746027469635, 0.007226681802421808, 0.008285828866064548, 0.06401877105236053, 1.6534442901611328, 0.4013979434967041, -0.051523737609386444, -0.011964973993599415, 0.09278275072574615, -0.02044752985239029, -0.21788540482521057, -1.1382137537002563, -0.2984590232372284, -0.017063992097973824, -0.5493285655975342, 0.30072036385536194, 0.6013654470443726, 0.2492298185825348, 0.20736108720302582, -0.07983208447694778, 0.44843873381614685, 0.7590166330337524, 1.4894189834594727, 0.9746490120887756, -0.033365555107593536, 0.11448081582784653, 0.8864376544952393, 0.0710754543542862, 1.2238091230392456, 1.2833627462387085, -0.2957151234149933, 0.7999346256256104, 2.2591888904571533, 0.38112521171569824, 0.027878379449248314, -1.2824323177337646, -0.1328028291463852, 1.4613834619522095, 0.15583361685276031, 0.36832454800605774, -1.6770946979522705, 0.6755333542823792, -1.0941447019577026, 2.6169824600219727, 0.11304331570863724, -0.08093990385532379, -0.032839786261320114, 0.2792433798313141, -1.5741889476776123, -0.1720748245716095, 0.28823667764663696, 0.2396755814552307, -0.04304685816168785, -0.10295633226633072, -0.08051875978708267, 0.18786917626857758, -0.11260504275560379, -0.18049588799476624, 0.6196174621582031, -0.41178420186042786, -0.48619067668914795, 0.07742276787757874, 0.13704441487789154, 0.134802907705307, 1.6499282121658325, -0.11230015009641647, -0.029420988634228706, 0.32724231481552124, 1.4511663913726807, 0.3484191596508026, 0.020847348496317863, 0.4050537049770355, 0.35318851470947266, 0.20117123425006866, -0.3665609061717987, -0.5926087498664856, -0.07913069427013397, -0.14150527119636536, 0.027585864067077637, 0.6330442428588867, -0.05655347928404808, -0.035683002322912216, 1.5735137462615967, -0.1282535046339035, -0.162681445479393, 0.23825472593307495, 1.183990716934204, 1.847449541091919, 0.08658245950937271, 0.3288741111755371, 1.3495988845825195, 0.10609637945890427, 1.6355185508728027, -0.2320440113544464, 0.5320658087730408, -0.1415429413318634, 2.7822787761688232, -0.202787846326828, 0.13259272277355194, 0.6235663890838623, 1.0083413124084473, 1.208431363105774, -0.031622521579265594, 1.830534815788269, 0.536102831363678, -0.0733465850353241, 0.2973247468471527, 1.8904669284820557, 0.02470754086971283, 0.04587540030479431, 0.0009679244831204414, 0.23465079069137573, 0.06087144464254379, 0.02555692382156849, -0.5763927102088928, -0.5589998960494995, -0.035229407250881195, -0.2749733030796051, -0.057436998933553696, -0.21749041974544525, 0.007918791845440865, -0.007955646142363548, -0.11773672699928284, -0.05746527016162872, -0.2123907059431076, -0.128126859664917, 0.1758987456560135, 0.05315816402435303, 0.9416003227233887, 0.11619090288877487, -0.1441764235496521, 0.41763779520988464, -0.8531168103218079, 0.11646711081266403, 0.01712615042924881, -0.9257858991622925, 0.5382697582244873, 0.08931875973939896, 0.31383031606674194, -0.036096829921007156, -1.1223064661026, 0.010455857031047344, -1.5880126953125, 3.6978230476379395, 1.182640790939331, 2.765714645385742, -2.539990186691284, -0.8435770869255066, 1.320764183998108, 3.5915911197662354, 3.8020222187042236, 6.139680862426758, -0.24762025475502014, -0.3418901562690735, -2.640902519226074, -1.1873303651809692, -3.5271012783050537, 4.037517547607422, -1.3733030557632446, 1.7489938735961914, 1.2017652988433838, 1.7829078435897827, -0.6735582947731018, -0.7264654636383057, -2.085937738418579, 5.618170261383057, 0.5534532070159912, -1.650410771369934, -1.774354100227356, 1.855627417564392, -6.449470520019531, -2.8344061374664307, -0.020166317000985146, -0.051907021552324295, -0.08929183334112167, -0.012791607528924942, 1.7476311922073364, -0.11701556295156479, -0.8146348595619202, 2.164893388748169, 0.03158978372812271, 0.19881044328212738, 0.3202771842479706, -0.43941935896873474, 0.04294002801179886, -0.052981309592723846, 0.6082006692886353, -0.24047540128231049, -0.2661358416080475, 0.039565037935972214, -0.006682546343654394, 0.12193778157234192, -0.08745366334915161, 0.05786915123462677, 0.017736416310071945, -0.13835516571998596, 0.6795198321342468, 0.5007877349853516, 0.046272505074739456, -0.6255539655685425, 0.2073432207107544, 0.2713390290737152, -0.28479549288749695, 0.10679163038730621, 0.14709964394569397, 0.0959470346570015, 0.2674054801464081, -0.04493394121527672, 0.025054089725017548, -0.12408269196748734, -0.3213037848472595, 0.4783271849155426, -0.12740390002727509, -0.26539871096611023, 0.3853820264339447, -0.721779465675354, -0.011316151358187199, -0.12447109818458557, -0.40271449089050293, 0.18365927040576935, -0.0435982421040535, 0.017248721793293953, 0.3400830328464508, -0.1304555982351303, 0.6081759929656982, -0.17176522314548492, 0.002833240432664752, 0.28121981024742126, -0.7473635077476501, 0.29717743396759033, 0.10447772592306137, -0.6232591867446899, 0.19671499729156494, -0.28558608889579773, 0.5126129984855652, 0.3844303488731384, 0.026014110073447227, 0.06129827722907066, 0.04210442304611206, 0.010143835097551346, -0.00646064430475235, -0.034005120396614075, 0.10954343527555466, -0.20597387850284576, 0.13208572566509247, 0.03349032625555992, 0.051459379494190216, 0.36953508853912354, 0.043453749269247055, 0.04021710529923439, -0.15044721961021423, -0.11243189871311188, -0.06948487460613251, 0.20151163637638092, -0.14454074203968048, 0.21615003049373627, 0.5974696278572083, 0.1707431823015213, 0.12135288119316101, -0.11062777042388916, -0.19372707605361938, 0.2080058753490448, 0.1345824897289276, 0.3122369945049286, -0.0566818043589592, 0.23046326637268066, 0.09773114323616028, 0.28532952070236206, -0.09456084668636322, 0.01577111892402172, 0.19691260159015656, -0.04055233299732208, 0.20032121241092682, -0.05431142821907997, 0.06008705869317055, 0.2723771631717682, -0.03909238427877426, -0.31108158826828003, 0.1396940052509308, 0.6511818766593933, 0.21889451146125793, 0.12415387481451035, -0.18876442313194275, 0.0990273579955101, -0.1862703561782837, -0.4825330376625061, 0.34099140763282776, -0.22172227501869202, -0.3203316628932953, -0.010439543053507805, 0.072621189057827, 0.7122436761856079, -0.19086319208145142, 0.9069278836250305, -0.17033010721206665, 0.19475607573986053, 0.7770428657531738, -0.25023218989372253, 1.3197181224822998, 0.5198505520820618, -0.011908294633030891, -0.08143328130245209, 0.172958105802536, -1.3001813888549805, -0.6544039249420166, -0.863136887550354, -0.1835208386182785, 0.442786306142807, -0.19486701488494873, -0.43722474575042725, -0.9387125968933105, -0.7086443901062012, -0.14090731739997864, -0.06791405379772186, -0.34276333451271057, 0.215554341673851, 0.19003109633922577, -0.3412243723869324, 0.20406901836395264, -0.264542818069458, -0.32446151971817017, -0.3675564229488373, -0.04899563267827034, 0.27481916546821594, -0.7083353400230408, -0.680696964263916, -0.20370003581047058, -0.13855062425136566, 0.6367067694664001, -0.3883805572986603, 0.6605079770088196, 0.921984076499939, -0.10296736657619476, 0.0026261357124894857, 0.10507164895534515, -0.0919501781463623, 0.19334009289741516, -0.3128523528575897, 0.1794983297586441, 0.2703613042831421, -0.09214246273040771, -0.4019339382648468, -0.05038445070385933, 0.5492154955863953, 0.045123275369405746, 0.1265324354171753, -0.10342923551797867, -0.03382246568799019, 0.637624979019165, -0.04596560075879097, 0.029996663331985474, -0.09152395278215408, -0.6056240797042847, 0.020237093791365623, 0.04259589686989784, 0.6594343781471252, -0.33738744258880615, -0.1285036951303482, -0.08787655085325241, 0.21982955932617188, 0.6106209754943848, -0.1991175264120102, 0.4047427773475647, 0.04153290018439293, -0.0648314505815506, -0.08402636647224426, 0.14890414476394653, -0.9107016921043396, 0.3908460736274719, -0.9429870247840881, -0.2497735172510147, 0.47698917984962463, -0.2837897539138794, -0.9205009937286377, -0.4148454964160919, 0.7853890061378479, 0.11500411480665207, 0.0569714792072773, 0.15768931806087494, 0.167986199259758, 0.26896631717681885, -0.7896258234977722, 0.21597634255886078, -0.34444162249565125, 0.019461050629615784, -0.1450732797384262, -0.08841663599014282, 0.5481880903244019, -0.03949097543954849, -1.334644079208374, -0.0330134741961956, -0.415066123008728, 1.4855579137802124, -0.37499335408210754, 0.37410324811935425, -0.38064447045326233, -0.0965682864189148, -0.03936358541250229, -0.026078684255480766, -0.150959312915802, -0.18882644176483154, 0.052129197865724564, 0.07470276951789856, 0.2632218301296234, -0.15158481895923615, 0.0005375657929107547, -0.04409550130367279, 0.4012317955493927, 0.06874492019414902, 0.1027178093791008, -0.08008080720901489, 0.005351766012609005, -0.5990877747535706, 0.09353364259004593, 0.14006294310092926, -0.007725268602371216, -0.1329958140850067, -0.1226598396897316, 0.09291237592697144, 0.50145423412323, -0.5722308158874512, 0.11933982372283936, -0.12397107481956482, 0.0227943267673254, 0.39660945534706116, -0.13314616680145264, 0.24277308583259583, -0.15887701511383057, -0.12399209290742874, -0.09900521486997604, -0.4164687991142273, 0.5973847508430481, 0.25013381242752075, 0.5746249556541443, 1.1135203838348389, 0.40163666009902954, 0.012917909771203995, 0.5130075812339783, 0.48479071259498596, 0.3254616856575012, 0.1772160828113556, 0.15867753326892853, 0.172815203666687, -0.05657818168401718, 0.9279578328132629, 0.3300180733203888, -0.1858673244714737, 0.29452499747276306, 0.3527657389640808, 0.2415006160736084, 0.05657927691936493, -0.2707703113555908, 0.5073652863502502, 0.8439790606498718, 0.06650765985250473, -0.36303988099098206, -0.4773235619068146, 0.19037263095378876, -1.0374974012374878, -0.049967434257268906, 0.05531017854809761, 0.14404402673244476, -0.07066264003515244, 0.5109162926673889, 0.18353334069252014, 0.3359101116657257, 0.7940134406089783, 0.6215313076972961, 0.18891645967960358, 0.48802366852760315, 0.5649480819702148, 0.9332927465438843, -0.13074111938476562, 0.002145437290892005, 0.9981551170349121, -0.045476000756025314, -0.08421109616756439, 0.4035533368587494, -0.2511644959449768, 0.41351667046546936, 1.178551435470581, 0.043050188571214676, 0.07224027812480927, -1.1840624809265137, 1.022441029548645, 0.7297064065933228, 0.059007007628679276, -0.15696758031845093, -1.5433484315872192, 0.4347168803215027, -0.3498401343822479, 0.8120971322059631, -0.04050823301076889, 0.031182177364826202, -0.3685452938079834, 0.2556260824203491, -2.0738420486450195, 0.18858008086681366, 0.037614721804857254, -0.5353659987449646, 0.1458549052476883, 0.13828729093074799, 0.03319711610674858, 1.1507748365402222, 0.005760774482041597, 0.013454573228955269, 0.462952196598053, -0.22096601128578186, -0.8953098654747009, 0.04935886338353157, -0.35347434878349304, 0.42168179154396057, 0.573097825050354, 0.30174964666366577, 0.07080671191215515, -0.5800224542617798, 0.9411797523498535, -0.10131984949111938, 0.10115263611078262, -0.24074387550354004, -0.7365157604217529, 0.4080204367637634, -0.7855592966079712, 0.2984366714954376, -0.07400776445865631, 0.06267140060663223, -0.08863368630409241, 0.24904248118400574, 0.6585158705711365, 0.25139686465263367, -0.4720560908317566, 0.12105637043714523, 0.017454007640480995, 0.08070097118616104, -0.2793302536010742, 0.1658274531364441, 0.04585997015237808, 0.03468180075287819, 0.08028963208198547, -0.02554299496114254, -0.4590282738208771, 0.2798489034175873, -0.1520671844482422, 0.0955766960978508, -0.007224369328469038, 0.06533797085285187, 0.08304088562726974, -0.5311456918716431, -0.3090629279613495, -0.21116948127746582, 0.11555631458759308, -0.7967516183853149, -0.7524392604827881, 0.24422356486320496, -0.837704598903656, 0.13208521902561188, 0.08030661940574646, -0.03561563044786453, 0.09142763167619705, -0.021777812391519547, -0.12127528339624405, -0.09540712833404541, 0.39536628127098083, -0.8579606413841248, 0.09424429386854172, -0.3743131458759308, 0.023848600685596466, 0.7469914555549622, 0.10846976190805435, 0.07198232412338257, 0.24208983778953552, 0.07749065011739731, -0.09062395989894867, -0.3503893315792084, 0.16145527362823486, -0.0820719450712204, -0.8259814381599426, 0.028437992557883263, 0.01958119496703148, 0.5641024112701416, 0.5627970695495605, 0.08887560665607452, 0.10906660556793213, 0.20271363854408264, 0.9239692091941833, -0.15354791283607483, 0.1330079585313797, -0.3622523844242096, 0.005961270071566105, -0.03177289664745331, 0.10389427840709686, -0.16658693552017212, -1.2373888492584229, -0.08202755451202393, -0.30745917558670044, -0.8177433609962463, 0.03724689036607742, -0.20270465314388275, -0.4849417507648468, 0.4445938766002655, 0.03609513118863106, 0.07914821803569794, -0.5963349342346191, -0.15413683652877808, -0.6218817234039307, -0.021172568202018738, 0.11389707773923874, -0.006244075950235128, 0.15320859849452972, -0.050141192972660065, 0.09620397537946701, 0.2258937805891037, -0.9031069278717041, 0.05477476865053177, -0.004360840190201998, -0.9268876910209656, 0.3801570534706116, -0.03637833893299103, -0.18745940923690796, -0.12789419293403625, 0.004123155493289232, -0.015030968002974987, 0.1331741213798523, -0.6667250394821167, -1.5344616174697876, -0.5227273106575012, 0.3152611553668976, 0.0656672790646553, -0.1746823489665985, -0.792275607585907, -0.167524054646492, 1.061000943183899, -0.024507081136107445, -0.0993390679359436, -0.9932243227958679, 0.05419798567891121, 0.7373411059379578, -0.6656989455223083, 0.06369296461343765, -0.22157347202301025, 0.10054002702236176, -0.0836305022239685, -0.18498273193836212, 0.3778355121612549, -1.1176412105560303, -1.0472257137298584, -0.10485543310642242, -0.6032178401947021, 0.16226622462272644, -0.15699660778045654, -0.003121871966868639, -0.16911311447620392, 0.05036738142371178, 0.13640323281288147, -0.2412005513906479, -0.09349943697452545, -0.6707391142845154, 0.17890317738056183, 0.39740288257598877, -0.45439061522483826, 0.22307756543159485, 0.13394366204738617, -0.44115355610847473, 0.5990372896194458, 0.06408876180648804, -0.040194399654865265, -0.33733677864074707, -0.053212571889162064, 0.43113839626312256, 0.007363535929471254, -0.35555046796798706, -0.07781288027763367, -0.5336422920227051, 0.13885512948036194, -0.017978833988308907, -0.13891558349132538, 0.02460532821714878, -0.5407824516296387, 0.12186909466981888, 0.8079119920730591, -0.31548255681991577, -0.1487618386745453, 0.05358177423477173, 0.38484489917755127, -0.11826014518737793, -0.08563787490129471, 0.20297867059707642, -0.8041021227836609, -0.6373928189277649, -0.6247884035110474, -0.7333737015724182, -0.5461122989654541, -0.41352853178977966, -0.2428656667470932, -1.1063668727874756, -0.4143303632736206, -0.2870691120624542, -0.011664620600640774, -0.6713229417800903, -0.2179560661315918, -0.23239566385746002, -0.07145673036575317, 0.12841910123825073, -0.177103191614151, -0.5721110105514526, -0.10850666463375092, -0.063813216984272, -0.21179674565792084, -0.16536761820316315, -0.9199607968330383, -0.08684758841991425, 0.4788562059402466, -0.2066510021686554, -0.11126155406236649, 0.750521183013916, -0.04381176084280014, 0.2349032759666443, 0.03900143504142761, 0.2684518098831177, -0.4604850113391876, -0.1897142380475998, -0.532600462436676, 0.2711704969406128, -0.3574942946434021, -0.1763683408498764, -0.5167580842971802, -0.5784168839454651, 0.209939107298851, 0.02891075424849987, -0.14575175940990448, 0.5517016053199768, 0.10605800151824951, -0.01868431270122528, -0.22173430025577545, 0.18641234934329987, -0.07084932178258896, 0.4497263729572296, -0.19640395045280457, 0.022253049537539482, -0.2627889811992645, 0.6551200151443481, -0.8579244613647461, -0.05084743723273277, 0.3262782692909241, 0.29197463393211365, -0.057698190212249756, 0.21960477530956268, 0.44413265585899353, 0.017623674124479294, 0.000518211571034044, -0.015145217068493366, -0.09408438205718994, -0.6560818552970886, -0.11212939769029617, -0.8200452923774719, -0.8540722727775574, -0.14715050160884857, -0.36096855998039246, 0.07269177585840225, 0.8741965889930725, -0.06858455389738083, 0.07919660955667496, -0.2318570762872696, -0.013852683827280998, 0.41790667176246643, -0.3044445812702179, 0.11959567666053772, -0.19152316451072693, -0.4079214036464691, -0.06299006938934326, 0.05433989316225052, 0.34084051847457886, -0.710237979888916, -0.12916487455368042, -0.04072295501828194, 0.1805141568183899, 0.6618012189865112, -0.2644868493080139, 0.5152342915534973, -0.41056570410728455, -0.03125125169754028, -0.0983760729432106, 0.053131911903619766, 0.39136216044425964, -0.4370568096637726, -0.0267025176435709, -0.961686909198761, -0.7740551233291626, -0.1404026597738266, -0.2233523726463318, 0.5725089311599731, 1.6336075067520142, 0.028903689235448837, -0.03785864636301994, -1.2720024585723877, -0.12267549335956573, 0.16571269929409027, 0.10858296602964401, 0.09773176908493042, 0.08439485728740692, 0.47337597608566284, 0.14253869652748108, -0.021307295188307762, 0.6245020627975464, -1.3257313966751099, 0.6362645030021667, -0.025401107966899872, 0.059546712785959244, 1.0572426319122314, 0.0014358743792399764, -0.10657332837581635, -1.8704915046691895, -0.07653115689754486, 0.0828808844089508, 0.2944978177547455, -0.44120511412620544, 0.935822606086731, -0.40544208884239197, 0.2136048823595047, -1.001133680343628, -0.1271315962076187, -1.0146195888519287, -0.6099545359611511, 0.6739407777786255, -0.1244250163435936, -0.139342799782753, -0.9763709902763367, 0.01700337789952755, 0.413488507270813, -0.5718159079551697, 0.2757664620876312, -0.41276639699935913, -0.23018212616443634, -0.14757013320922852, -0.09457750618457794, 0.6523849368095398, -1.4364627599716187, -0.889362633228302, -0.05715872347354889, 0.8747515082359314, 0.6824851036071777, -0.2920478880405426, 0.9364210963249207, 0.40943071246147156, -0.02474118582904339, -0.20037487149238586, 0.13225315511226654, -0.07543274760246277, -0.13418586552143097, -0.26268213987350464, -0.1365971565246582, -0.027256540954113007, -0.17669548094272614, -0.16269627213478088, -0.1489318609237671, -0.010675904341042042, -0.1153704822063446, -0.03403012454509735, -0.13252310454845428, 0.0027048804331570864, -0.067287877202034, 0.056753527373075485, -0.027217300608754158, 0.1717323660850525, -0.15822266042232513, 0.0690411776304245, -0.050371091812849045, 0.3081320524215698, -0.25676462054252625, -0.06740637868642807, 0.011146406643092632, 0.07720134407281876, 0.15468478202819824, 0.09996820241212845, 0.14785686135292053, -0.23337222635746002, -0.02225927822291851, -0.012472139671444893, 0.033382683992385864, -0.15370775759220123, -0.08902113884687424, -0.03703339025378227, -0.21560516953468323, -0.23252591490745544, -0.008622221648693085, -0.16103236377239227, -0.15263983607292175, 0.0978476032614708, -0.0019050362752750516, -0.03639104962348938, -0.3078111410140991, -0.012280031107366085, 0.017816519364714622, 0.05225800350308418, 0.11579293012619019, -0.07941126078367233, -0.0443929024040699, -0.11168397963047028, -0.07376645505428314, 0.22573086619377136, -0.4292442500591278, -0.19747227430343628, -0.08396174013614655, -0.17237785458564758, 0.20735126733779907, 0.03920738026499748, 0.39019694924354553, -0.046534083783626556, -0.12929697334766388, 0.039647940546274185, -0.25242123007774353, -0.07869526743888855, 0.4506205916404724, -0.09372928738594055, 0.7851271629333496, 0.2196023315191269, -0.1425786316394806, -0.1623937040567398, -0.027129147201776505, 0.04289686307311058, 0.13687776029109955, 0.04153921827673912, 0.4735729694366455, -0.11583057045936584, 1.48807692527771, -0.2819698452949524, -0.2531887888908386, -0.1592772901058197, 0.15945789217948914, 0.05440754070878029, 0.027867773547768593, -0.33784160017967224, -0.4681960344314575, -0.22702071070671082, -0.1677969992160797, -1.2492622137069702, -1.1463543176651, -0.03153979778289795, -0.6552892923355103, 1.02114999294281, 0.02251027338206768, 0.046121980994939804, -0.22161827981472015, 0.776713490486145, -0.7425584197044373, 0.7186384201049805, 0.28502172231674194, -0.38733452558517456, 0.26837611198425293, 0.8030216097831726, 0.9819098114967346, -0.02722497284412384, -0.011991987004876137, 0.05134129524230957, 0.9107309579849243, -0.11312366276979446, -0.9780932664871216, 0.47232019901275635, -0.30992698669433594, 0.40842926502227783, 1.5101885795593262, 0.16252468526363373, 0.004953220020979643, -1.0866423845291138, 1.1471467018127441, 1.041076898574829, 0.09352471679449081, 0.7208653092384338, -1.7072962522506714, 0.35886436700820923, -0.4242798686027527, -0.0387488417327404, -0.04056696221232414, 0.1857474148273468, 0.26982077956199646, -0.617813229560852, 0.008689149282872677, -0.621002197265625, -0.022424940019845963, -0.11166569590568542, 0.014739357866346836, -0.6669924259185791, -0.38268357515335083, 0.23377080261707306, 0.11292925477027893, 0.043083902448415756, -0.4462684094905853, -0.09774953871965408, -0.0579228401184082, -0.3462204337120056, 0.1736951768398285, -0.02819988690316677, 0.21959732472896576, -0.10229698568582535, -0.09296153485774994, -0.16590458154678345, -0.3822915554046631, -0.999842643737793, -0.01687442511320114, 0.10017581284046173, 0.46625375747680664, -0.005586856976151466, 0.14844104647636414, -0.6853310465812683, -0.05719609931111336, -0.009322353638708591, -0.10652633756399155, -0.8283112049102783, 0.11992859095335007, -0.5617187023162842, 0.2026645839214325, 0.007771607488393784, -0.0793946236371994, -0.5465847253799438, -0.8183602094650269, 0.25598302483558655, 0.33644047379493713, 0.20806655287742615, -0.5162811875343323, -0.06241586431860924, 0.20342962443828583, -0.466144323348999, 0.026412226259708405, 0.23492556810379028, 0.5062963962554932, 0.06451983749866486, 0.0216955728828907, -0.0806412622332573, -0.4137377142906189, -1.4594389200210571, 0.0481867715716362, -0.005244289059191942, 0.549411952495575, -0.03193780407309532, -0.08485983312129974, -0.5479936599731445, -0.0022979923523962498, 0.07729814201593399, -0.022982416674494743, -0.24743451178073883, 0.1635272055864334, -0.29532501101493835, 0.40188488364219666, 0.5703094601631165, -0.012100580148398876, -0.2583141624927521, -0.5576367378234863, -0.07957366108894348, 0.3433421552181244, 0.28955134749412537, 0.24977989494800568, -0.1398351937532425, -0.9876938462257385, -0.21767312288284302, -0.08905849605798721, 0.010317064821720123, -0.1476852297782898, 0.019567901268601418, 0.11668936163187027, -0.27882322669029236, 0.2189517617225647, -0.9407762885093689, -0.11989489942789078, 0.6661530137062073, -0.5425553321838379, 0.0760527029633522, 0.24376627802848816, 0.2021874189376831, -0.08560545742511749, 0.13820227980613708, -0.19398048520088196, 0.28433194756507874, 0.031303275376558304, 0.10961684584617615, 0.16746462881565094, 0.013402589596807957, 0.00859448965638876, 0.001546169980429113, 0.17916452884674072, -0.056235626339912415, 0.04393531009554863, 0.16645045578479767, 0.12338001281023026, 0.08181696385145187, 0.08850613236427307, -0.047582097351551056, -0.13876111805438995, -0.07040629535913467, 0.32176193594932556, -0.0919957309961319, 0.0863327905535698, -0.12008742988109589, 0.25619277358055115, 0.15669867396354675, -0.05435289815068245, -0.03382708877325058, -0.34712743759155273, -0.051817864179611206, -0.017655646428465843, 0.12848038971424103, -0.1447083055973053, -0.013675922527909279, -0.047440074384212494, -0.03749782592058182, 0.06564566493034363, 0.08454339951276779, -0.05476338416337967, -0.023481523618102074, -0.1584888994693756, 0.039262693375349045, -0.06485911458730698, 0.013436755165457726, 0.048727937042713165, 0.1293678730726242, -0.03644384443759918, 0.1060435026884079, -0.6537351608276367, -0.07749776542186737, -0.1331159472465515, 0.18003760278224945, -0.8061333894729614, -0.02645268104970455, 0.14206640422344208, 0.04607526212930679, 0.018689222633838654, -0.14259807765483856, -0.016634447500109673, -0.12014704942703247, -0.10112564265727997, -0.000573908444494009, -0.3942641019821167, 0.0034593292511999607, 0.018749278038740158, 0.035680171102285385, 0.1120254248380661, -0.29780271649360657, -1.097995638847351, -0.23339392244815826, 0.32116779685020447, -0.46585407853126526, -0.16093339025974274, -0.7453729510307312, -0.5640637278556824, -0.21366846561431885, 0.10545848309993744, 0.10144612938165665, -0.4590536057949066, 0.08881203085184097, 1.0421241521835327, -0.6249170303344727, 0.1612597405910492, -0.4185364544391632, -1.5438671112060547, -0.15154173970222473, 0.017528891563415527, 0.7558495402336121, -1.1060274839401245, -0.8652678728103638, -0.09886877983808517, -0.8854488730430603, 0.9999756813049316, -0.43925759196281433, 0.6756964921951294, -0.2241058647632599, 1.2416884601407219e-05, 0.026503965258598328, -0.05747082456946373, 0.1842895895242691, -0.0783550813794136, -0.054956045001745224, -0.10551538318395615, 0.007866212166845798, -0.03549807518720627, -0.09652744233608246, -0.007004999089986086, -0.01486239954829216, 0.01712808944284916, 0.12071556597948074, -0.08934810757637024, -0.19104507565498352, -0.3193719983100891, 0.01310133095830679, 0.013280327431857586, 0.06346088647842407, -0.030954129993915558, 0.03325924277305603, 0.0005174693651497364, 0.007254731375724077, 0.026128778234124184, 0.07353559881448746, -0.03075793944299221, 0.049253299832344055, -0.0828409269452095, 0.06465858221054077, -0.1628705859184265, -0.19562757015228271, 0.021656211465597153, 0.06375021487474442, -0.23303216695785522, 0.9269483685493469, 0.3977630138397217, 0.5249284505844116, 0.21190862357616425, 0.25742337107658386, 0.3109486699104309, 0.49923357367515564, 0.931228756904602, 0.7239429354667664, 0.33766433596611023, 0.20695291459560394, 1.1049494743347168, 0.32715141773223877, -1.8864623308181763, 0.5417342782020569, 0.029961027204990387, 0.03594502434134483, -1.2495275735855103, 0.3361511528491974, 0.248917356133461, 0.08717752993106842, 1.71117103099823, 1.1956191062927246, 0.075962595641613, 0.790917158126831, -0.46656104922294617, 0.03440342843532562, -0.82966548204422, 0.1692585051059723, -0.062265969812870026, 0.055812086910009384, -0.061152081936597824, -0.019192922860383987, 0.24069778621196747, 0.2956358790397644, -0.11760822683572769, 0.028609666973352432, -0.08724648505449295, 0.10303360223770142, 0.06146072596311569, 0.3192480802536011, 0.04273629188537598, 0.185863196849823, 0.23474574089050293, 0.12157108634710312, -0.616458535194397, 0.10373324900865555, -0.12861473858356476, -0.027839932590723038, -0.7858633399009705, 0.14084118604660034, 0.11767514050006866, -0.01694231480360031, 0.4212605357170105, -0.05182526260614395, 0.15284118056297302, 0.09314953535795212, -0.1099933311343193, -0.03913653641939163, -0.2762377858161926, 0.07047109305858612, -0.14390721917152405, -0.03494096174836159, -0.21876221895217896, 0.04096827656030655, -0.5649051666259766, 0.1381480097770691, 0.034251779317855835, -0.15460464358329773, -0.016022952273488045, 0.08262356370687485, -0.06349378079175949, -0.35044264793395996, 0.29489681124687195, 0.20769138634204865, 0.01572609879076481, -0.03294810280203819, -0.25445449352264404, 0.12871584296226501, -0.23704639077186584, 0.1937846839427948, 0.5855755805969238, -0.024384630843997, 0.13096046447753906, -0.2168925255537033, -0.16158941388130188, -0.06784960627555847, -0.009942061267793179, -0.24734759330749512, -0.5772117972373962, 0.1360601782798767, -0.5063125491142273, 0.3516083359718323, -0.03120073303580284, -0.027625946328043938, -0.21644392609596252, 0.2091044783592224, 0.06640800833702087, 0.07215900719165802, 0.1111951544880867, -0.02850356139242649, 0.09477408975362778, -0.08610797673463821, 0.10300904512405396, -0.2692108452320099, 0.18638797104358673, 0.08691579103469849, 0.3604598641395569, 0.15185542404651642, 0.1176324412226677, 0.07385087758302689, -0.11151975393295288, 0.03819071874022484, 0.05572021007537842, -0.0316157266497612, 0.06307997554540634, 0.057008687406778336, 0.21492791175842285, 0.28965991735458374, -0.09320580959320068, 0.07811576873064041, -0.25126147270202637, -0.12677398324012756, -0.09155792742967606, 0.09685606509447098, -0.03567655757069588, -0.07376675307750702, 0.18379230797290802, -0.5743589401245117, -1.4104464054107666, -0.3669123649597168, -0.7822471261024475, -1.6411702632904053, -0.13225312530994415, -0.20763929188251495, -0.4524144232273102, -0.835736095905304, -0.014540654607117176, 0.006843102164566517, -0.0029293308034539223, -0.18576905131340027, -0.05089261382818222, -0.28956079483032227, 0.12344367802143097, -0.1787915676832199, -0.5129760503768921, -0.28574302792549133, 0.043336957693099976, -0.019395459443330765, 0.11990518867969513, -0.5648503303527832, -0.02918781340122223, 0.43578973412513733, 0.06283587217330933, -0.28187960386276245, 0.6208893060684204, 0.45975908637046814, 0.010694902390241623, -0.02198783867061138, 0.04747233912348747, -0.44734686613082886, 0.09136049449443817, -0.34173575043678284, -1.2387471199035645, 0.5245348811149597, 0.01956377923488617, -0.13783317804336548, -0.7061151266098022, 0.05460317060351372, -0.08458523452281952, 0.05277840793132782, -0.5266525149345398, -0.0528666190803051, -1.088070034980774, 0.00894556101411581, 0.13163577020168304, 0.05393410101532936, -0.8745884895324707, -0.11655314266681671, 0.05618307739496231, 0.5321220755577087, -0.8822633624076843, -0.5349288582801819, 0.06395910680294037, -0.853429913520813, 0.4420623779296875, 0.03149081766605377, -0.0871967151761055, -0.31961873173713684, -0.021078014746308327, 0.030407419428229332, -0.1841469407081604, -0.09347021579742432, -0.18125680088996887, 0.012896996922791004, 0.18635205924510956, 0.34610414505004883, -0.00897532794624567, 0.007569588255137205, 0.15817706286907196, 0.2243346869945526, 0.20283739268779755, 0.20960775017738342, 0.38115328550338745, 0.014846483245491982, -0.8938832879066467, -0.0999198704957962, -0.06047087907791138, 0.29992207884788513, 0.0964265689253807, 0.20545488595962524, 0.028088560327887535, -0.13141818344593048, 0.4495571553707123, -0.07797949761152267, 0.06859085708856583, 0.13854724168777466, -0.34401631355285645, 0.1310121715068817, 0.12402951717376709, 0.02180321328341961, -0.06555468589067459, 0.06706877052783966, -0.05732002481818199, -0.23810012638568878, -0.43936729431152344, -0.33755552768707275, -0.008695865981280804, -0.6258036494255066, -0.03254469111561775, -0.2668102979660034, -0.13433443009853363, 0.540569007396698, 0.15521284937858582, 0.09247328341007233, -0.09133290499448776, -0.034322742372751236, -0.30107879638671875, -0.1329837441444397, 0.05207452178001404, 0.08829762041568756, 0.7107033729553223, -0.025341957807540894, 0.09615601599216461, -0.3116600811481476, 0.16785697638988495, -0.8039274215698242, 0.001907680882140994, 0.03747083619236946, 0.03305025026202202, 0.09832403808832169, -0.13239480555057526, -0.5772253274917603, 0.02594185248017311, 0.047017842531204224, -0.0010360490996390581, -0.014386512339115143, -1.2767058610916138, 0.08299340307712555, -0.0905681699514389, 0.15594199299812317, 0.09584276378154755, 0.3982718586921692, 0.2542411983013153, -0.18752843141555786, 0.052759040147066116, 0.10359254479408264, -0.3154330849647522, -0.20219986140727997, -1.1683851480484009, -0.006305735558271408, 0.026454051956534386, 0.24532249569892883, -0.2589399218559265, 0.07181240618228912, 0.12679003179073334, -0.20290279388427734, 0.016041094437241554, -0.2079262137413025, -0.014955165795981884, -0.2110123336315155, -0.31410861015319824, 0.0818806067109108, -0.0019874894060194492, -0.7968973517417908, -0.021271437406539917, -0.0005322099896147847, 0.007439181674271822, -0.602863609790802, 0.12294526398181915, -0.3423592150211334, -0.2665756344795227, 0.04013397917151451, -0.10562864691019058, -0.3943210542201996, -0.7681130766868591, -0.2139471173286438, 0.097900390625, 0.18630942702293396, -0.1464579999446869, 0.018182413652539253, -0.34918755292892456, -0.3149232864379883, 0.08726386725902557, -0.02544703148305416, 0.4880119860172272, -0.15517379343509674, 0.10781067609786987, -0.14374753832817078, -0.07907064259052277, -1.2537182569503784, -0.09453178942203522, -0.027461443096399307, 0.20708727836608887, -0.16314585506916046, -0.02709263563156128, 0.0384153388440609, -0.1283779889345169, 0.015960171818733215, 0.13687725365161896, 0.0492449589073658, -0.19883915781974792, -0.03620997443795204, -0.6524088382720947, -0.12013249099254608, 0.12377365678548813, 0.13187706470489502, -0.13824975490570068, 0.5649787187576294, -0.029258430004119873, 0.18712198734283447, 0.07853513956069946, -0.057169925421476364, -1.2090986967086792, 0.12267211824655533, 0.08501624315977097, 0.008067375980317593, -0.44987836480140686, -0.020348668098449707, 0.018347838893532753, 0.15976832807064056, 0.07445953041315079, 0.16908355057239532, -0.07747901231050491, -0.22736777365207672, 0.2590275704860687, 0.019236993044614792, 0.1986086666584015, -0.28016945719718933, -0.12095335125923157, -0.008256743662059307, -0.13396355509757996, 0.05637000501155853, 0.06419090926647186, -0.022216325625777245, 0.0018593729473650455, 0.23575018346309662, -0.106142058968544, -0.042675938457250595, -0.04876946285367012, -0.31647416949272156, 0.14527511596679688, 0.2862508296966553, 0.38144397735595703, 0.12289019674062729, 0.1405603587627411, 0.04157106578350067, -0.09336182475090027, -0.03753531724214554, -0.2100466936826706, -0.09620296955108643, -0.03963324800133705, 0.2386975735425949, 0.11815092712640762, 0.23573866486549377, -0.10463041067123413, 0.38375332951545715, -0.01796114817261696, -0.119204081594944, -0.17172491550445557, 0.3288630545139313, -0.16349755227565765, -0.06677212566137314, -0.18477311730384827, 0.1029997318983078, -0.10592427104711533, 0.08803959935903549, 0.7490811347961426, -0.4985352158546448, 0.06891349703073502, -0.04025144875049591, 0.03330607712268829, -0.6750535368919373, 0.08148465305566788, 0.040952615439891815, 1.2644197940826416, -0.14360778033733368, -0.11589670926332474, 0.0980418398976326, -0.39904487133026123, 0.16080814599990845, 0.21110674738883972, -0.09911160916090012, 0.06270066648721695, -0.8764117360115051, 1.2371798753738403, -0.10424043238162994, 0.03685913234949112, 0.7417370676994324, -1.1384775638580322, 0.24488328397274017, -0.5066836476325989, 0.89790940284729, -0.27227234840393066, 0.0003624339587986469, -0.30287933349609375, -0.16024786233901978, -0.042206667363643646, -0.14848792552947998, -0.10577194392681122, -0.0982695147395134, -0.1886945515871048, -0.1430489718914032, -0.13151921331882477, -0.14411823451519012, 0.1894303858280182, 0.21306701004505157, 0.05217061936855316, 0.11080069094896317, 0.10673505812883377, 0.0780605599284172, 0.05112700164318085, 0.025309652090072632, -0.18235762417316437, -0.13114221394062042, 0.12656044960021973, 0.22114159166812897, -0.08881726115942001, 0.15102499723434448, -0.07494551688432693, 0.025805920362472534, 0.05640020594000816, -0.003935788758099079, -0.17893913388252258, 0.12035509943962097, -0.2534579038619995, -0.17999501526355743, -0.2897494435310364, -0.05731745436787605, -0.19311687350273132, -0.17214235663414001, -0.06419770419597626, 0.06092127040028572, -0.12886826694011688, -0.037338580936193466, -0.05267886444926262, 0.21403063833713531, 0.2693629562854767, 0.24751712381839752, 0.046675026416778564, 0.2592880427837372, 1.903624176979065, 0.0044974093325436115, -0.08031658828258514, -0.11822021752595901, -1.0572693347930908, -0.13591501116752625, 0.037497881799936295, 0.24883237481117249, -0.7994457483291626, 0.4277932047843933, -0.03054918721318245, -0.039850734174251556, -0.29354801774024963, -0.05863424763083458, -0.7076539397239685, 0.6460941433906555, -0.021012118086218834, 0.03610900044441223, 0.3130323886871338, -0.6800178289413452, -0.6868829727172852, -0.7760797739028931, -0.5093104839324951, -0.518827497959137, -0.2506204843521118, -0.45555222034454346, -0.9885619282722473, -0.7751548290252686, -0.20141813158988953, 0.0941784605383873, -0.14173737168312073, -0.31651243567466736, 0.10083478689193726, -0.5262670516967773, 0.15041735768318176, -0.29419296979904175, -0.3976241946220398, -0.28548482060432434, 0.09330588579177856, -0.4226875901222229, 0.2997443675994873, -0.9085602760314941, -0.19135546684265137, -0.12196668237447739, 0.37437257170677185, -0.33054670691490173, 0.4491880536079407, 0.2588011920452118, -0.05300378426909447, -0.1274862289428711, -0.045599836856126785, -0.0006841170834377408, -0.08323327451944351, -0.054314929991960526, 0.2094954252243042, 0.07318495959043503, -0.10400909185409546, 0.08200816065073013, 0.10932586342096329, -0.10685501992702484, 0.12264588475227356, 0.09916628897190094, 0.18590036034584045, -0.008520925417542458, -0.24298690259456635, -0.06645677238702774, -0.0428660549223423, -0.03251093626022339, 0.29861828684806824, 0.1406107246875763, 0.03246235474944115, 0.10083616524934769, 0.25535446405410767, 0.06232421100139618, -0.11505104601383209, -0.13864994049072266, -0.18745598196983337, -0.0009454274550080299, 0.004790660925209522, 0.0925266370177269, -0.10136458277702332, -0.07921972870826721, -0.07072393596172333, 0.08467120677232742, -0.12401584535837173, -0.014638369902968407, 0.10886308550834656, -0.025672778487205505, -0.061959169805049896, 0.031072445213794708, 0.1210327222943306, 0.13904181122779846, -0.02500699646770954, 0.18818949162960052, 0.08671368658542633, 0.13470056653022766, -0.11241237819194794, 0.04229830577969551, -0.011607932858169079, 0.030018819496035576, 0.06645439565181732, 0.12216553092002869, 0.08661191910505295, -0.02299804799258709, -0.024901678785681725, 0.057972252368927, 0.08044523745775223, 0.045135367661714554, 0.1316293627023697, 0.07947761565446854, 0.05370115488767624, -0.03897642716765404, 0.003593027126044035, -0.12528064846992493, -0.16301308572292328, -0.136565700173378, -0.19208462536334991, 0.09529417753219604, 0.32317572832107544, 0.05839109048247337, -0.11915989965200424, -0.05165086314082146, -0.12331962585449219, -0.29451656341552734, 0.10599574446678162, 0.21218900382518768, 0.19765396416187286, -0.09855139255523682, -0.32911229133605957, 0.1193443238735199, -0.19728782773017883, 0.13933438062667847, 0.5346753001213074, -0.0897190198302269, 0.13505619764328003, -0.06993918120861053, 0.10325774550437927, -0.33513203263282776, -0.02338317222893238, -0.18960469961166382, -0.5333318710327148, 0.1623900681734085, -0.13928382098674774, -0.04227152466773987, 0.0982167199254036, 0.09288021177053452, 0.053990304470062256, 0.2627210319042206, -0.1284727305173874, 0.15028415620326996, -0.0064782751724123955, -0.18974104523658752, -0.030404694378376007, 0.10608754307031631, 0.17969274520874023, -0.3609599769115448, -0.08086208999156952, 0.08204250037670135, 0.45855623483657837, -0.12143175303936005, -0.13814236223697662, 0.16550233960151672, 0.10299073904752731, 0.00864566769450903, 0.032056812196969986, 0.019763045012950897, -0.030742237344384193, -0.22922833263874054, 0.38646480441093445, 0.22063210606575012, 0.016812458634376526, 0.17483219504356384, -0.2591516375541687, 0.0011956817470490932, -0.01789810322225094, 0.22404150664806366, -0.10594607889652252, -0.09515875577926636, -0.1621328741312027, 0.1882990598678589, 0.22355376183986664, 0.368120014667511, 0.28735560178756714, -0.27926507592201233, 0.1099991723895073, 0.4149119257926941, -0.23081164062023163, 0.6343993544578552, 0.025254225358366966, -0.010199771262705326, 0.10242261737585068, -0.08398124575614929, 0.8979411125183105, 0.3292803168296814, -0.12369745969772339, 0.20276930928230286, -0.6456988453865051, 0.13017040491104126, 0.13687731325626373, -0.13539229333400726, -0.01626303233206272, 0.06700347363948822, 0.05430637672543526, 0.15283602476119995, -0.5602591037750244, 0.27723708748817444, -0.3879968225955963, 0.13914205133914948, 0.051206074655056, -0.03955068439245224, 0.01992405578494072, 0.24211446940898895, 0.01585514098405838, 0.06707599759101868, -0.015610620379447937, 0.09541229158639908, -0.02679610252380371, -0.0979149118065834, 0.1777733415365219, 0.09494473785161972, 0.19045601785182953, 0.06464018672704697, 0.116864874958992, -0.06171558052301407, -0.4872089624404907, -0.039084188640117645, -0.11420223116874695, 0.02531844563782215, 0.21699798107147217, 0.07943019270896912, 0.09319201856851578, -0.11682245880365372, 0.312688410282135, 0.007277689874172211, -0.08026713877916336, -0.08439283072948456, -0.20526473224163055, 0.04011690616607666, 0.04525887593626976, -0.008015770465135574, -0.0656302198767662, -0.0343654528260231, 0.0027201822958886623, 0.10719574242830276, -0.9263231754302979, 0.16492003202438354, -0.1417439877986908, -0.32611846923828125, 0.01716388203203678, 0.07529088109731674, 0.10955576598644257, -0.4992752969264984, 0.0770510733127594, 0.05616128072142601, -0.11869125068187714, -0.029219506308436394, -0.6453211307525635, 0.10689225047826767, -0.05919927358627319, -0.040992747992277145, 0.9656611084938049, 0.107650026679039, -0.019712431356310844, -0.4338383972644806, -0.1279543936252594, 0.315662682056427, -0.046906352043151855, -0.35354921221733093, -0.9378479719161987, -0.07568354904651642, -0.3796111047267914, -0.08882569521665573, 0.10967180132865906, 0.02108745649456978, 0.12548664212226868, 0.011661570519208908, -0.00797310471534729, -0.005530168302357197, -0.06733577698469162, -0.13318607211112976, 0.12889645993709564, -0.12606951594352722, 0.12182070314884186, 0.17242556810379028, 0.05658400431275368, 0.11447082459926605, -0.09044235199689865, -0.19131365418434143, -0.26136043667793274, 0.04510461911559105, 0.1157628744840622, 0.08161464333534241, -0.2699674665927887, 0.0038318191654980183, 0.024711966514587402, -0.08167564123868942, -0.0007132698083296418, 0.10335282236337662, -0.04181297868490219, -0.14739765226840973, 0.11415275186300278, 0.05858389288187027, 0.0780000165104866, -0.05061578378081322, 0.10244287550449371, 0.04180622473359108, -0.1983432173728943, -0.41866862773895264, -0.6200169920921326, -0.4463415741920471, 0.27565258741378784, -0.5455976724624634, 0.09384225308895111, -0.32377439737319946, 0.04945407435297966, 0.4365796446800232, -0.009555070661008358, 0.04161657765507698, -0.6683188676834106, -0.0852685496211052, -0.35812288522720337, -0.2800198197364807, -0.20489813387393951, 0.020812781527638435, 0.14988191425800323, -0.024187341332435608, 0.04953785985708237, -0.32752275466918945, 0.19323210418224335, -0.5502446889877319, 0.09305606782436371, 0.2791292071342468, 0.07072478532791138, -0.017337091267108917, -0.20962944626808167, -1.5736533403396606, -0.049423281103372574, 0.1987922340631485, -0.36235401034355164, 0.7997928857803345, 0.41050297021865845, 0.6173148155212402, -1.5450856685638428, -0.6777647137641907, 0.28772351145744324, 0.8825628757476807, 0.9059029221534729, 1.5870684385299683, -0.012429704889655113, -0.03956110030412674, 0.12308227270841599, -0.0488610714673996, -3.040097713470459, 0.593831479549408, -0.06517323851585388, 0.30489403009414673, 0.6093755960464478, 0.4082225263118744, -0.07511116564273834, -0.7699122428894043, 0.5530181527137756, 0.8029738664627075, 0.09173936396837234, 0.3134320080280304, -0.2038026601076126, 0.38392606377601624, -1.1837217807769775, -0.641960620880127, 0.015393216162919998, -0.09338972717523575, 0.34646546840667725, -0.2417127639055252, -0.21398517489433289, -0.41411855816841125, -2.91556978225708, -0.047641802579164505, -0.1382213681936264, -0.4100377559661865, 0.6063632369041443, -0.6624026894569397, 0.0151421669870615, -0.03921180218458176, -0.42560744285583496, 0.2036973237991333, -1.2759149074554443, -0.5005143284797668, 0.5945300459861755, -0.18346191942691803, 0.07612653821706772, -0.012183097191154957, 0.09130479395389557, 0.8040768504142761, -1.1888788938522339, 0.0816439837217331, -0.15227049589157104, -0.39006707072257996, 1.0734103918075562, -0.37347733974456787, 0.9230337738990784, -0.8044941425323486, 0.13298355042934418, 0.09107332676649094, -0.1962113231420517, 0.6875104308128357, 1.1201082468032837, 0.448131799697876, 1.108535647392273, -0.9325639605522156, 0.23527075350284576, 1.0067960023880005, 0.6224822998046875, 1.961601734161377, -0.015114684589207172, -0.004236259032040834, 0.4966055154800415, -0.04080531373620033, 1.569601058959961, 0.8220677375793457, -0.43870747089385986, 0.5081555843353271, -0.11362503468990326, 0.3035363554954529, 0.012212483212351799, -0.5450690388679504, 1.6584479808807373, 0.4735759198665619, 0.23114104568958282, 0.7939943075180054, -0.4954349994659424, 0.37298956513404846, -1.6016792058944702, 0.7497681379318237, 0.24338500201702118, -0.08503188192844391, 0.43939241766929626, -0.2610337734222412, -0.365928053855896, -0.49830684065818787, -1.446061611175537, 0.17775903642177582, -0.164909228682518, -0.5053848028182983, -0.21722519397735596, -0.5110074877738953, 0.0455733947455883, 0.01464177668094635, -0.5505044460296631, -0.04667435958981514, 0.6562145352363586, -0.43016040325164795, 0.6687467098236084, -0.2510126531124115, 1.7055913209915161, -0.26902154088020325, 0.1740787923336029, 1.022892713546753, -1.6683834791183472, -0.13490250706672668, -0.05344695597887039, -0.6311322450637817, 1.2365663051605225, -0.4012615978717804, 0.8369668126106262, 0.35338294506073, 0.1866019070148468, 0.14560222625732422, 0.0372016504406929, 0.22584624588489532, 2.3087165355682373, 0.1282903254032135, 1.9784445762634277, -0.8146947026252747, 0.2060326635837555, 0.2081228494644165, 0.17148202657699585, 1.1391671895980835, 0.031613048166036606, 0.19248582422733307, 0.7004448175430298, 0.22663483023643494, 0.9030722379684448, 0.19882452487945557, -0.10039782524108887, 0.14013423025608063, -0.3251481056213379, -0.009638619609177113, 0.012603357434272766, 0.12411358207464218, 1.5592650175094604, -0.29562920331954956, 0.22632785141468048, 0.7431677579879761, 0.22168876230716705, 0.1336921900510788, 0.15738660097122192, 0.7775781154632568, 0.4278307259082794, -0.1443280726671219, 0.6397842764854431, -0.33777227997779846, 1.4241160154342651, -0.4718071222305298, -1.8342417478561401, -0.9222788214683533, -0.18660643696784973, -1.5172264575958252, -0.459936261177063, -1.029493808746338, -0.07860841602087021, 0.05089494213461876, -0.5695934295654297, 0.5447896718978882, -0.16310769319534302, -1.644662857055664, 1.2612234354019165, -0.6344168782234192, -1.4769775867462158, -0.4381667673587799, -0.09695205837488174, 1.6314407587051392, -1.9077882766723633, -0.8728135824203491, -0.2010010927915573, -0.650428056716919, 2.80798077583313, -1.0931936502456665, 2.313230037689209, -1.5663578510284424, 0.3733544945716858, 0.029870375990867615, -0.28860244154930115, 1.643944501876831, 0.05558261275291443, 1.4962915182113647, -0.6748395562171936, -1.0123000144958496, 0.40946778655052185, 2.16379714012146, -0.4165806770324707, -0.0007042880170047283, -0.04354092851281166, 0.39467570185661316, 0.988477885723114, 0.5092170238494873, -3.496379852294922, 1.0893685817718506, -0.17456096410751343, 0.9227175712585449, 1.0166957378387451, 0.8639548420906067, -0.11212709546089172, -1.1770859956741333, 0.3056812882423401, 2.9641222953796387, 0.08952975273132324, 0.24140118062496185, -0.1497032642364502, 0.9686696529388428, -1.8672382831573486, 2.496551752090454, -0.13143734633922577, 0.022543206810951233, -0.01755949854850769, -0.08144736289978027, -1.0296828746795654, -0.20672965049743652, -2.2289326190948486, -0.2528209090232849, 0.034015100449323654, -0.4231516420841217, 0.9421952962875366, 0.6151567697525024, -0.2577710747718811, -0.19971047341823578, 0.3555968105792999, -0.11241678893566132, -1.6128675937652588, -0.036066923290491104, 0.11150253564119339, 0.04265588894486427, 0.08331118524074554, 0.043525367975234985, -0.1639089286327362, 0.08571986854076385, 1.663506269454956, 0.3617931306362152, -0.2106046974658966, -0.028964770957827568, 0.23519004881381989, 0.043513067066669464, -0.14941290020942688, -1.1099518537521362, -0.4183278977870941, 0.057504717260599136, -0.44966065883636475, 0.2530271112918854, 0.7120652198791504, 0.31751251220703125, 0.3588264286518097, 0.007539236452430487, 0.5165863633155823, 0.7672351598739624, 1.4773085117340088, 0.9564943909645081, -0.03669226914644241, 0.10371550172567368, 0.8756062984466553, -0.10180030763149261, 1.1196860074996948, 1.232648253440857, -0.2371227890253067, 0.7963196039199829, 2.3039324283599854, 0.5229052901268005, -0.08092869073152542, -1.2775368690490723, -0.08499381691217422, 1.3953086137771606, 0.048650700598955154, 0.31994953751564026, -1.5254185199737549, 0.571503221988678, -0.9290536046028137, 2.4334800243377686, 0.12851503491401672, -0.060889266431331635, -0.03088875487446785, 0.2996072471141815, -1.5740095376968384, -0.15322649478912354, 0.3255504369735718, 0.17982587218284607, -0.07064061611890793, 0.027400879189372063, -0.015905478969216347, 0.22176624834537506, -0.08379621058702469, -0.08040034770965576, 0.7538523077964783, -0.37568268179893494, -0.5214720368385315, 0.24340495467185974, 0.02788112685084343, 0.0858444795012474, 1.7825618982315063, 0.01776277832686901, -0.13816384971141815, 0.29572629928588867, 1.432948350906372, 0.2594909369945526, 0.158401757478714, 0.26715222001075745, 0.39381927251815796, 0.15259887278079987, -0.3058440387248993, -0.5851178765296936, -0.19885599613189697, -0.14835509657859802, 0.1463586390018463, 0.5930176973342896, -0.09539854526519775, 0.017600711435079575, 1.7478611469268799, -0.057308487594127655, -0.16134606301784515, 0.15972205996513367, 1.0781590938568115, 1.7751686573028564, 0.06279503554105759, 0.31996166706085205, 1.2415857315063477, 0.19723382592201233, 1.6525874137878418, -0.24608707427978516, 0.5904304385185242, -0.04730795696377754, 2.9479587078094482, -0.12818187475204468, 0.09393583238124847, 0.5822604894638062, 0.9487078189849854, 1.1885219812393188, 0.020937804132699966, 1.679785132408142, 0.4288475513458252, 0.06316924095153809, 0.402811199426651, 1.8674631118774414, 0.017297973856329918, -0.07406944036483765, -0.058057479560375214, 0.2238684892654419, 0.09798227995634079, 0.05963636562228203, -0.6057414412498474, -0.6251099109649658, 0.06549300998449326, -0.21244165301322937, -0.032711248844861984, -0.19371061027050018, 0.021420985460281372, -0.10990916937589645, -0.09058518707752228, -0.15354013442993164, -0.11879584193229675, -0.27084407210350037, 0.2929602861404419, -0.030502337962388992, 0.9252667427062988, 0.01936941221356392, -0.09613639861345291, 0.3016701936721802, -0.8620819449424744, 0.1562022864818573, 0.07987434417009354, -0.8626691102981567, 0.5199958086013794, 0.04203823581337929, 0.40078264474868774, -0.08768493682146072, -0.49671971797943115, 0.09360658377408981, -1.153770923614502, 2.897650957107544, 1.1021747589111328, 2.361402988433838, 1.729899287223816, -1.0475002527236938, 0.9799634218215942, 3.172744035720825, 3.038576126098633, 5.334508895874023, -0.13743223249912262, -0.17746074497699738, -0.6843743324279785, -0.4254837930202484, -1.9051932096481323, 3.100696563720703, -1.2699953317642212, 1.524437665939331, 2.134303331375122, 1.332594871520996, -0.14599695801734924, -1.2352699041366577, 0.7861503958702087, 4.1863908767700195, 0.42209330201148987, -0.37106624245643616, -2.4013984203338623, 1.5838502645492554, -4.912504196166992, -2.142212152481079, 0.05242771655321121, -0.06596671044826508, 0.09630121290683746, -0.02715042047202587, 1.8235713243484497, -0.11793043464422226, -0.7424610257148743, 2.048804759979248, -0.05399546027183533, 0.2075289636850357, 0.2965945601463318, -0.40630486607551575, 0.025142742320895195, -0.07808148115873337, 0.5840730667114258, -0.2319745570421219, -0.29526057839393616, -0.10902292281389236, 0.02717934548854828, 0.22107918560504913, -0.1386418491601944, 0.04843321442604065, -0.14286191761493683, -0.2120991051197052, 0.5710838437080383, 0.47913452982902527, 0.06119571998715401, -0.6376736164093018, 0.22173619270324707, 0.18888399004936218, -0.25964710116386414, 0.1787329614162445, -0.061813607811927795, 0.06352747231721878, 0.002506694057956338, 0.2866130769252777, 0.2810325622558594, 0.16795435547828674, -0.9775987863540649, 0.3725805878639221, 0.18469104170799255, 0.26967063546180725, 0.5409116148948669, -0.5259599685668945, -0.1235441043972969, -0.061180341988801956, -0.30302926898002625, 0.07734726369380951, -0.6408386826515198, 0.45806658267974854, -0.2374490648508072, 0.15179581940174103, 0.873836874961853, 0.21483010053634644, -0.08065817505121231, -0.43302837014198303, -0.19175229966640472, 0.42977258563041687, 0.13725799322128296, -0.443432480096817, -0.22850921750068665, 0.26200196146965027, -0.13665589690208435, 0.11825236678123474, 0.09344198554754257, -0.06877490878105164, 0.10415531694889069, 0.06761714816093445, -0.2713727056980133, -0.013875133357942104, 0.15239645540714264, -0.10806018859148026, -0.00408428069204092, 0.024097586050629616, 0.07618247717618942, 0.38984042406082153, -0.14256557822227478, -0.06494417786598206, -0.09161190688610077, -0.10670017451047897, 0.0004995481576770544, 0.20931410789489746, -0.13801072537899017, 0.22970570623874664, 0.29211220145225525, 0.17021074891090393, 0.08534355461597443, -0.06489386409521103, -0.08772087842226028, 0.25838619470596313, -0.03552195429801941, 0.5524990558624268, -0.005631606560200453, 0.19618870317935944, 0.11875887960195541, 0.25923091173171997, -0.07398591190576553, -0.007200117688626051, 0.0791284367442131, 0.06750894337892532, -0.2058221697807312, 0.16089095175266266, 0.0003241011290811002, -0.33735546469688416, -0.08220793306827545, 0.3799252212047577, 0.33899974822998047, 1.0257693529129028, 0.10547713190317154, 0.20562976598739624, -0.12248971313238144, 0.01789422519505024, -0.3631132245063782, -0.007790178060531616, 0.3518211543560028, -0.0032514098566025496, 0.09701500833034515, 0.09253739565610886, 0.17666901648044586, 0.3236941993236542, -0.04778623208403587, 1.5471341609954834, -0.24611888825893402, 0.19101695716381073, 0.37223634123802185, 0.012949150055646896, 0.7357848882675171, 0.4311964809894562, 0.03661855682730675, 0.035280145704746246, 0.15536685287952423, -0.9820806384086609, -0.7700751423835754, -0.7364174723625183, -0.06036195158958435, 0.34929049015045166, -0.09058157354593277, -0.7783129811286926, -0.7563311457633972, -0.28238773345947266, -0.08693599700927734, -0.07405050098896027, -0.8557611703872681, 0.06112788990139961, 0.1905171126127243, -0.6112973093986511, 0.2939000129699707, -0.3896971046924591, 0.21895377337932587, -0.28179553151130676, -0.13973619043827057, 0.897110641002655, -0.8305953145027161, -0.7103744149208069, -0.160143181681633, -0.17606782913208008, 1.027769923210144, -0.38116806745529175, 0.9731638431549072, 0.5320854187011719, -0.03620602563023567, -0.06438139081001282, 0.09530013054609299, -0.053060468286275864, -0.13475842773914337, -0.06278730183839798, 0.241708442568779, 0.36352667212486267, -0.12325092405080795, -0.32840123772621155, -0.14677003026008606, 0.3589012026786804, 0.03326288238167763, 0.19112421572208405, -0.0021118316799402237, 0.06886796653270721, 0.48735862970352173, -0.23652523756027222, 0.049529802054166794, -0.16488131880760193, -0.3551475703716278, -0.04615270346403122, 0.04317379370331764, 0.5944402813911438, -0.11609625071287155, -0.2093983143568039, -0.0926545038819313, 0.42561718821525574, 0.5537589192390442, -0.15949267148971558, 0.5370775461196899, 0.05193065106868744, -0.02819988876581192, -0.025396160781383514, 0.3454790711402893, -0.6897662281990051, 1.4276543855667114, -0.6345979571342468, -0.8846490979194641, 0.7232672572135925, -0.26230737566947937, -0.9514790177345276, -0.7028306722640991, 0.5418860912322998, 0.04236488789319992, -0.026902783662080765, -0.17160281538963318, 0.21613164246082306, 1.0072808265686035, -0.9201171398162842, 0.4285217821598053, -0.5246028900146484, 0.22612883150577545, -0.16604389250278473, -0.06910185515880585, 1.5496833324432373, -0.647285521030426, -1.2336485385894775, -0.10125169157981873, -0.8331336975097656, 1.5781394243240356, -0.8683661818504333, 0.8545770049095154, -0.3129393458366394, -0.09575632959604263, -0.09558863937854767, 0.09452901780605316, -0.07805225253105164, -0.10704854130744934, 0.05819415673613548, -0.35091152787208557, 0.09866845607757568, 0.008100364357233047, 0.020168602466583252, 0.12700681388378143, 0.5448155999183655, -0.0809670016169548, -0.04792659729719162, -0.11036738753318787, 0.0165641438215971, -0.5002715587615967, 0.1720900684595108, 0.0571289137005806, -0.08054706454277039, 0.11227000504732132, -0.054510749876499176, 0.056524429470300674, 0.2985854148864746, -0.2613793611526489, 0.3099592328071594, 0.07931353151798248, 0.1516726016998291, 0.17264294624328613, -0.08266056329011917, 0.24556942284107208, -0.02326260693371296, -0.04982900246977806, -0.09506835788488388, -0.17502926290035248, 0.3948485553264618, 1.242875099182129, 0.3389798700809479, 0.640075147151947, 1.4073352813720703, -0.09416782855987549, 0.397623211145401, -0.022469131276011467, -0.13250195980072021, 0.03213911131024361, 0.02420162595808506, -0.30056053400039673, -0.1368507295846939, 0.6970329284667969, 0.10081525892019272, 0.014117076061666012, -0.02327914535999298, -0.5483961701393127, -0.02104783058166504, -0.02485869824886322, -0.05732174590229988, -0.4312852919101715, 0.16704611480236053, 0.06388595700263977, -0.7326329946517944, -0.07477225363254547, 0.10064177960157394, -0.42309504747390747, -0.7898285984992981, 0.13707974553108215, 0.11525125056505203, 0.19158881902694702, 0.2539481222629547, 1.2961561679840088, 0.08252177387475967, 0.08583444356918335, 0.5307696461677551, 0.08991097658872604, -0.04896195977926254, 0.4100625216960907, 0.7037535905838013, -0.09917104244232178, 0.06716573238372803, 0.4786067605018616, 0.025322336703538895, -0.1221931129693985, -0.05290830880403519, 0.13725855946540833, -0.05953660234808922, 0.058988749980926514, -0.008386281318962574, -0.0007170755416154861, -0.7202895283699036, 0.9022360444068909, 0.023884721100330353, 0.1356533020734787, -0.7276594638824463, -0.6991783380508423, 0.14205685257911682, -0.07902856171131134, 0.2136523723602295, 0.023110903799533844, -0.14264196157455444, -0.3585375249385834, 0.04476384073495865, -1.7309622764587402, -0.009921322576701641, -0.4952850043773651, -0.6655576825141907, 0.11444424837827682, -0.006107978988438845, -0.1504378765821457, 0.498505562543869, 0.14805686473846436, 0.045861415565013885, 0.5782687067985535, -0.11375963687896729, -1.537678837776184, -0.05308990180492401, -0.37757259607315063, 0.2614874243736267, 0.675743043422699, 0.042364202439785004, -0.020479876548051834, -0.41597041487693787, 1.1769752502441406, -0.25456756353378296, -0.0020890587475150824, -0.5255832672119141, -0.604127824306488, 0.33364638686180115, -0.554093062877655, 0.13854312896728516, 0.010237070731818676, 0.136844664812088, -0.16278181970119476, 0.055488381534814835, 0.13369277119636536, 0.08146566152572632, -0.5220462679862976, -0.05135186016559601, 0.15426219999790192, -0.027560172602534294, -0.23860661685466766, 0.20902501046657562, 0.033559754490852356, -0.05294346436858177, -0.16638877987861633, -0.0943274274468422, 0.01647883467376232, 0.25115182995796204, -0.13306257128715515, 0.03627742826938629, 0.025969425216317177, 0.13394686579704285, 0.05639111250638962, -0.2428308129310608, -0.4735027849674225, -0.23949778079986572, -0.05173254758119583, -0.43104371428489685, -0.19238078594207764, 0.11299412697553635, -0.9012013077735901, -0.012938455678522587, 0.07172731310129166, 0.04103350266814232, -0.08204876631498337, 0.2510344088077545, -0.29964345693588257, 0.12971386313438416, -0.03221212700009346, -1.1382626295089722, 0.16232575476169586, -0.12047342956066132, 0.39985689520835876, 0.7175275087356567, 0.0835876315832138, 0.14313775300979614, -0.14548510313034058, -0.013141408562660217, -0.8903818726539612, -0.1547679752111435, -0.17352372407913208, 0.1544230580329895, -0.791252851486206, 0.15585817396640778, 0.14741353690624237, 0.014807786792516708, 0.39692381024360657, 0.374683678150177, 0.014116824604570866, -0.07363443076610565, 0.4166473150253296, 0.014033148065209389, -0.8632465600967407, -0.8706669807434082, -0.025164447724819183, -0.08031026273965836, -0.10727193206548691, 0.344089150428772, -0.35382571816444397, 0.16505783796310425, -0.9844785928726196, -1.2694804668426514, 0.0657564327120781, 0.22415374219417572, 0.31305161118507385, 0.7128980159759521, -0.11356357485055923, -0.002295102458447218, -0.616895318031311, -0.12288957089185715, -0.9861095547676086, 0.37310418486595154, 0.04366327449679375, 0.15709978342056274, -0.32731419801712036, 0.022237462922930717, 0.09752839058637619, -0.18648457527160645, -0.3371957242488861, 0.6116662621498108, -0.03138459473848343, -0.708375096321106, 0.10971454530954361, 0.21769806742668152, -1.0356965065002441, -0.549980103969574, -0.03679553046822548, -0.03563263639807701, -0.058639463037252426, -0.5249553918838501, -1.42250394821167, -0.3645966649055481, 0.09267786890268326, 0.12340370565652847, -0.01975809782743454, -0.4774149954319, -0.34768903255462646, 0.07064497470855713, -0.1109001636505127, -0.03929866850376129, -1.0727133750915527, 0.027551794424653053, 0.5997251272201538, -0.2612462043762207, -0.18548372387886047, -0.12115854769945145, 0.7320253252983093, -0.12890233099460602, -0.06634974479675293, 0.060658957809209824, -1.1896892786026, -0.46378272771835327, 0.038874536752700806, -0.8692812323570251, -0.04848707839846611, -0.07513845711946487, 0.11024627834558487, -0.14921486377716064, 0.01934160850942135, -0.021826349198818207, -0.08842607587575912, 0.16674229502677917, -1.1649057865142822, 0.329624742269516, 0.23726072907447815, -1.359386920928955, 0.01772487349808216, 0.006223808042705059, -0.024046605452895164, 0.6750558018684387, -0.043227724730968475, 0.03270195052027702, -0.3084578216075897, -0.17721189558506012, 0.6637387275695801, -0.2204921841621399, -0.06893770396709442, -0.25579574704170227, -0.5107470154762268, 0.013362592086195946, 0.1009441465139389, 0.16232213377952576, -0.4966869056224823, -0.19155815243721008, 0.0024774749763309956, 0.7642917633056641, 0.2553240954875946, -0.24341954290866852, 0.005773685872554779, 0.3603553771972656, 0.02393399178981781, -0.19585753977298737, 0.28205406665802, -0.6451786756515503, 0.21655867993831635, -0.6517611145973206, -0.9580857753753662, -0.7548487782478333, -0.3752657175064087, -0.5153046250343323, -0.9054129123687744, -0.6384823322296143, -0.14260180294513702, -0.03847625479102135, -0.9864584803581238, -0.21440397202968597, 0.5328252911567688, -0.2373451143503189, 0.3808537721633911, -0.21021315455436707, -0.6371162533760071, -0.30115440487861633, 0.018796313554048538, -0.09494969248771667, -1.0682458877563477, -0.7698332667350769, -0.1656969040632248, 0.4457526206970215, 0.33356741070747375, -0.22479143738746643, 0.8280386924743652, 0.0714256688952446, 0.25993821024894714, -0.06504908204078674, 0.29631805419921875, -0.7842066884040833, -0.38790377974510193, -0.6968457698822021, 0.0802793875336647, -0.3416096568107605, -0.14775334298610687, -0.5361917614936829, -0.9042757153511047, -0.30212947726249695, -0.1236836314201355, -0.1048203855752945, 0.5864809155464172, 0.2563715875148773, 0.034912656992673874, -0.37847596406936646, 0.2468286156654358, -0.3048863410949707, 1.0863912105560303, -0.3346291482448578, -0.009361266158521175, 0.031092865392565727, 0.20000988245010376, -0.8591514229774475, -0.06362777948379517, -0.06336759775876999, 0.34046265482902527, -0.3230701684951782, 0.7983863949775696, 0.6536858081817627, -0.13981713354587555, -0.11997086554765701, 0.05914558097720146, -0.18546545505523682, -1.1519593000411987, -0.20007282495498657, -0.376431405544281, -0.5203710198402405, -0.11434485763311386, -0.6293883323669434, 0.027206163853406906, 0.4759308397769928, -0.012318297289311886, 0.139991894364357, -0.3668461740016937, 0.05538753792643547, 0.25942540168762207, -0.4676875174045563, -0.05336807668209076, -0.05422776937484741, -0.24855266511440277, 0.029236996546387672, -0.0008365744142793119, 0.1422465294599533, -0.539863646030426, -0.22043491899967194, -0.0940476581454277, 0.5741415023803711, 0.5021787285804749, -0.1776861697435379, 0.6831851601600647, -0.6202167272567749, -0.012580136768519878, -0.11639834940433502, 0.0886855274438858, -0.11549930274486542, -0.2570710778236389, -0.2724430561065674, -0.4616924822330475, -0.5898549556732178, 0.023223629221320152, -0.5058082342147827, 0.026879962533712387, 0.879170298576355, 0.10094835609197617, -0.04487979784607887, -0.5895633101463318, -0.10129048675298691, 0.2721979022026062, -0.3252864181995392, 0.11751158535480499, -0.08288343250751495, 0.6954948306083679, 0.116179458796978, 0.0866018757224083, 0.4430600106716156, -0.3967020809650421, 0.059911493211984634, -0.07114192843437195, -0.05304009094834328, 0.7419975996017456, -0.041608016937971115, 0.1460745930671692, -0.7643864154815674, -0.04112949222326279, -0.008617037907242775, 0.1461961716413498, -0.3554842472076416, -1.5300740003585815, -0.36436277627944946, 0.4136042594909668, -1.3850157260894775, 0.02580186165869236, -0.758127748966217, -0.28748205304145813, 0.7492597103118896, -0.11478064954280853, -0.12402705103158951, -1.098635196685791, -0.023773714900016785, 0.08625513315200806, -0.42077386379241943, 0.10841109603643417, -0.08255419880151749, 0.7750386595726013, 0.012761478312313557, -0.10002359747886658, 0.11479714512825012, -1.7289612293243408, -0.36158180236816406, -0.029102418571710587, 0.23346702754497528, 0.3128969371318817, -0.05993233248591423, 0.2638646364212036, 0.3631925582885742, 0.03147093206644058, -0.18572033941745758, 0.04861919954419136, -0.12845556437969208, -0.3620944619178772, -0.0036471739877015352, -0.08803010731935501, -0.07009492069482803, -0.17180640995502472, 0.003649357706308365, 0.05061199888586998, 0.009418223984539509, -0.16261698305606842, -0.07630142569541931, -0.16900834441184998, -0.09755486994981766, -0.14677584171295166, 0.07452154904603958, -0.017101801931858063, 0.08787214756011963, -0.16596637666225433, 0.10759925842285156, -0.052219316363334656, 0.18238675594329834, -0.1356203556060791, -0.005589386448264122, -0.0020554829388856888, -0.06436245888471603, 0.15941175818443298, 0.03776891157031059, 0.1094895452260971, -0.223105326294899, -0.006281900219619274, 0.039585817605257034, 0.16996271908283234, -0.03988954424858093, -0.6909704804420471, -0.12507376074790955, -0.17937299609184265, -0.45019611716270447, -0.02403884567320347, -0.0732831135392189, -0.04411686956882477, 0.1179628074169159, -0.09284333884716034, -0.1231406107544899, -0.33956944942474365, -0.11325091123580933, 0.07960552722215652, -0.05717000365257263, 0.12019960582256317, 0.003792976262047887, 0.12378270924091339, 0.025419972836971283, -0.12457612156867981, 0.042613282799720764, -0.4721721410751343, 0.0922091081738472, -0.02579035796225071, -0.1118028312921524, 0.2647688388824463, 0.03438045457005501, 0.1384834498167038, -0.029584184288978577, -0.05251554772257805, -0.10618855804204941, -0.16957835853099823, 0.010320117697119713, 0.2533566355705261, 0.011622186750173569, 0.7646355032920837, 0.5694866180419922, -0.07417026907205582, -0.08811241388320923, 0.057641033083200455, -0.10459528118371964, 0.06096767634153366, 0.0752219632267952, 0.109213687479496, -0.035934560000896454, 1.5617132186889648, -0.2876870334148407, -0.3234752118587494, -0.035731781274080276, -0.43530529737472534, -0.12420165538787842, 0.1071874275803566, -0.2556430697441101, -0.9477798938751221, -0.14769145846366882, -0.04263526573777199, -0.9726343750953674, -1.0099728107452393, -0.12499689310789108, -0.7295466661453247, 0.45158278942108154, 0.022024117410182953, 0.06991339474916458, -0.036721523851156235, 0.6717091202735901, -0.25794899463653564, 0.4604341685771942, -0.323861300945282, -0.16723985970020294, 0.15166734158992767, 0.39418596029281616, 0.7518942356109619, -0.13674864172935486, 0.07082170993089676, -0.0033538145944476128, 0.8046954870223999, -0.15920709073543549, -0.8661888241767883, 0.4145407974720001, -0.2841566801071167, 0.2678319811820984, 0.7242010831832886, 0.10460256040096283, 0.026346351951360703, -1.1143252849578857, 1.2702230215072632, 0.3953559100627899, 0.05287092924118042, 0.7883195281028748, -1.1789665222167969, 0.3530139923095703, -0.4466545581817627, 0.21915999054908752, 0.09030556678771973, 0.17498326301574707, 0.3680012822151184, -0.2258838713169098, 0.20402801036834717, -0.44088876247406006, 0.009083319455385208, -0.18299537897109985, 0.02554577775299549, -0.424248605966568, -0.3083131015300751, 0.32125645875930786, 0.0388825349509716, -0.022480575367808342, -0.47412464022636414, -0.050123028457164764, 0.09905306994915009, -0.21429146826267242, 0.23057454824447632, -0.2222399264574051, 0.6645714044570923, -0.055044934153556824, -0.11913352459669113, 0.24298882484436035, -0.5423044562339783, -0.4668588936328888, -0.049079615622758865, -0.2896270751953125, 0.2710249722003937, -0.09329062700271606, 0.08416066318750381, -0.49828076362609863, 0.12151596695184708, -0.04906802251935005, 0.1260264366865158, -0.4558323323726654, 0.7284383773803711, -0.5244945287704468, 0.14152655005455017, -0.05738981440663338, -0.07307864725589752, -0.43559953570365906, -0.6730573177337646, 0.28323325514793396, 0.3326241374015808, 0.17466191947460175, -0.46961691975593567, 0.1663978546857834, 0.5252173542976379, -0.18133987486362457, 0.18472306430339813, -0.03498246893286705, 0.7759236693382263, -0.0036317582707852125, -0.03271619603037834, 0.48300671577453613, -0.7573627233505249, -1.0741442441940308, -0.03681642562150955, -0.31518739461898804, 0.4206327497959137, -0.05461306869983673, -0.03090750053524971, -0.3996622562408447, 0.019329680129885674, -0.10843764245510101, -0.02594013884663582, -0.3187852203845978, 0.31479793787002563, -0.35366934537887573, -0.385170042514801, 0.18942375481128693, -0.030042409896850586, -0.3801514804363251, -0.7790907621383667, -0.5741665959358215, 0.24052870273590088, 0.3297480046749115, -0.07981465756893158, -0.13075965642929077, -0.8601657748222351, -0.217871755361557, -0.04176352545619011, -0.019315194338560104, 0.49894848465919495, -0.03664788231253624, 0.018403278663754463, -0.155339777469635, -0.22395849227905273, -1.0355304479599, 0.05844681337475777, -0.10552158206701279, -0.7069502472877502, 0.1146092638373375, 0.09054549038410187, 0.23983079195022583, -0.047762610018253326, 0.14457854628562927, -0.16380205750465393, 0.22728052735328674, 0.046883031725883484, 0.009012040682137012, 0.06785175949335098, -0.042744994163513184, 0.11384143680334091, -0.07699266821146011, 0.09177685528993607, 0.0002991310611832887, -0.058064065873622894, 0.028577882796525955, 0.23859792947769165, -0.033508460968732834, 0.06581828743219376, -0.011119592934846878, 0.01431264728307724, -0.1324365884065628, -0.031841520220041275, 0.06538034975528717, -0.06985461711883545, -0.06666697561740875, 0.27042731642723083, 0.1364130824804306, -0.08147923648357391, -0.11247538030147552, -0.10509341955184937, -0.04832719638943672, -0.12067148089408875, 0.18246851861476898, -0.10636421293020248, -0.08817584812641144, -0.18834038078784943, 0.15660707652568817, 0.7541239261627197, 0.18428415060043335, -0.04778559133410454, 0.044583510607481, -0.05171824246644974, 0.023181816563010216, 0.2880699932575226, 0.2660614848136902, 0.1985040307044983, 0.2740916609764099, 0.2137524038553238, -0.0596252866089344, -0.6847730875015259, -0.04700859263539314, -0.15189750492572784, 0.10023047029972076, -0.9680785536766052, 0.1088150218129158, 0.056320250034332275, -0.027585303410887718, 0.38871726393699646, -0.04826262593269348, 0.08477482944726944, 0.15535034239292145, -0.3607971966266632, 0.028828710317611694, -1.2449254989624023, -0.03682328388094902, 0.017258193343877792, -0.08054588735103607, -0.09123452007770538, 0.10221780836582184, -1.8456073999404907, 0.15127158164978027, -0.3426695466041565, -0.41284382343292236, -0.021242186427116394, -0.23812687397003174, -0.12540274858474731, 0.08061689883470535, 0.07917724549770355, 0.18719157576560974, -0.6243124604225159, -0.056389398872852325, 0.7454854249954224, -0.11542211472988129, -0.03831758722662926, -0.021118855103850365, -1.2951158285140991, -0.05122242495417595, 0.07506193965673447, 0.3946370780467987, -1.430766224861145, -0.06163899600505829, 0.024579372256994247, -1.1977646350860596, 0.5097607374191284, -0.2047393023967743, -0.24184776842594147, -0.6192637085914612, 0.1223837360739708, -0.04397295415401459, 0.02130272425711155, 0.11992094665765762, 0.047976914793252945, -0.03536313772201538, -0.08015607297420502, -0.021067684516310692, -0.046013087034225464, -0.005957912653684616, 0.12435130029916763, -0.03217064216732979, 0.03640154376626015, 0.08291679620742798, -0.032269757241010666, -0.0462244376540184, -0.1241687759757042, 0.09185636788606644, -0.029407599940896034, 0.13233204185962677, -0.18221986293792725, 0.06277070939540863, -0.13663242757320404, -0.02978929504752159, 0.2442990392446518, -0.02405082993209362, -0.034694571048021317, -0.028557807207107544, -0.014017688110470772, 0.09199733287096024, -0.13363777101039886, -0.16642634570598602, -0.0089031383395195, -0.0017781293718144298, 0.011180034838616848, 0.6528355479240417, 0.14352652430534363, 0.45135635137557983, 0.34667766094207764, -0.2318749874830246, 0.16210153698921204, 0.24405547976493835, 0.6759781837463379, 0.47741854190826416, 0.13084231317043304, 0.2378956377506256, 0.8664800524711609, 0.22325648367404938, -1.4175158739089966, 0.16550320386886597, 0.1663646697998047, 0.027453672140836716, -0.8319567441940308, 0.03698233887553215, 0.15337300300598145, 0.32175973057746887, 1.5262564420700073, 0.8984664082527161, 0.07746715098619461, 1.0880486965179443, 0.0157331433147192, -0.005973580293357372, -0.2560722231864929, -0.10000854730606079, -0.12162566184997559, -0.023906337097287178, -0.08457157015800476, 0.16889691352844238, 0.7741765975952148, 0.2546047270298004, -0.06591648608446121, 0.1418153941631317, -0.014878228306770325, 0.07422778755426407, 0.18541355431079865, 0.2512991726398468, 0.23023365437984467, 0.28234460949897766, 0.2536555528640747, 0.04997434839606285, -0.2905072271823883, 0.03813077509403229, -0.16579321026802063, -0.020926490426063538, -0.9531317949295044, -0.032795507460832596, 0.04237215220928192, 0.029470868408679962, 0.734641432762146, 0.1320323497056961, 0.016476888209581375, 0.13300231099128723, -0.3280453681945801, 0.00488217081874609, -0.6621236801147461, 0.22288662195205688, -0.1150127649307251, -0.10347143560647964, -0.21004337072372437, 0.09529450535774231, 0.07692096382379532, 0.13589222729206085, -0.011164151132106781, 0.15389101207256317, 0.015657847747206688, 0.3079589903354645, 0.14623130857944489, -0.4013538658618927, 0.2775859832763672, 0.1535348743200302, 0.17885252833366394, 0.0939614549279213, -0.20791089534759521, 0.2434632033109665, -0.16786497831344604, 0.17919351160526276, 0.7485623359680176, 0.12351652979850769, 0.13429871201515198, -0.3341223895549774, 0.150529146194458, 0.3201638460159302, -0.05277126654982567, -0.17608405649662018, -0.6268393397331238, 0.07725395262241364, -0.8343943357467651, 0.4107627868652344, -0.08671339601278305, 0.05672174692153931, -0.11553125083446503, 0.10277252644300461, 0.1274590939283371, 0.0390499122440815, 0.007958116941154003, -0.05646379664540291, 0.13428820669651031, -0.04742218181490898, 0.1207507997751236, 0.014789264649152756, -0.04370565339922905, 0.11969158053398132, 0.09605640172958374, 0.236264169216156, 0.13566508889198303, -0.049567896872758865, -0.09656678140163422, -0.03653880953788757, -0.19112110137939453, 0.06594578921794891, 0.04545370489358902, 0.005169132258743048, 0.2381334751844406, 0.0740596130490303, 0.0816279873251915, 0.02005479857325554, -0.017897676676511765, -0.04468044266104698, -0.06385284662246704, 0.03963454067707062, 0.09034371376037598, -0.03321346268057823, -0.022629758343100548, -0.06539533287286758, -0.8881492614746094, -0.07560593634843826, 0.20416243374347687, -0.8733445405960083, -0.04650050774216652, -0.23321226239204407, -0.23539459705352783, 0.3605407178401947, -0.12655670940876007, 0.01729412190616131, -0.2937367260456085, -0.04377825930714607, 0.37069469690322876, -0.2886204719543457, 0.2861199975013733, -0.08339237421751022, -0.9951737523078918, -0.13076892495155334, -0.046982862055301666, 0.3007463216781616, 0.32168036699295044, -0.3021022081375122, 0.08179591596126556, 0.8468358516693115, 0.6709465980529785, -0.11508048325777054, 0.43833059072494507, 0.34616997838020325, 0.061280298978090286, 0.05732988566160202, -0.09382296353578568, -0.1330086588859558, 0.4070802330970764, -0.0819477066397667, -0.803286612033844, 0.2799190878868103, -0.03075617551803589, 0.06228264048695564, -0.262844443321228, 0.5645757913589478, -0.0931129977107048, -0.0672619566321373, -0.5562487244606018, -0.037826258689165115, -1.1943424940109253, 0.11654848605394363, 0.044922176748514175, 0.12476873397827148, -0.9210143089294434, -0.0638386532664299, 0.01174765545874834, 0.4148350656032562, -0.36047786474227905, -0.1715804785490036, -0.09681855142116547, -0.3298887312412262, 0.52762371301651, 0.0034064468927681446, -0.4310885965824127, -0.8518097996711731, 0.023929890245199203, -0.10723301023244858, 0.0334608368575573, -0.12888580560684204, 0.5450479984283447, -0.04348622262477875, -0.28046566247940063, 0.3572638928890228, -0.056362371891736984, -0.3241328001022339, 0.049364276230335236, 0.0795932188630104, 0.15257680416107178, 0.1513066589832306, 0.19226688146591187, 0.03364617004990578, -0.7704846262931824, -0.2673293650150299, 0.11692855507135391, 0.09526296705007553, -0.19536897540092468, 0.15516297519207, 0.006393094547092915, 0.186052143573761, 0.24347421526908875, -0.22137825191020966, -0.12829314172267914, -0.009425332769751549, -0.08023949712514877, 0.09194624423980713, 0.26080819964408875, -0.16661012172698975, -0.0874428004026413, -0.10621354728937149, 0.10903197526931763, -0.45582184195518494, 0.11699795722961426, -0.4609934091567993, 0.25013747811317444, -0.8889373540878296, -0.007443924434483051, -0.601915180683136, -0.45782846212387085, 0.24036337435245514, 0.18282099068164825, 0.056386321783065796, -0.18693549931049347, 0.14781445264816284, 0.193755641579628, -0.15411031246185303, 0.20142719149589539, -0.11222594231367111, 0.900920033454895, -0.14322178065776825, 0.036484524607658386, 0.3320219814777374, -0.17409256100654602, -0.8464705348014832, -0.11539995670318604, -0.16839398443698883, 0.24556602537631989, -0.11277332901954651, -0.056489624083042145, -0.20917244255542755, 0.1167941614985466, 0.03921867907047272, 0.049753110855817795, -0.12311085313558578, -1.0861767530441284, -0.0037471067626029253, 0.3422326445579529, 0.06063590571284294, 0.04574272409081459, -0.07548899203538895, -0.013546097092330456, -0.08181678503751755, 0.18025244772434235, 0.09558569639921188, -0.21345557272434235, -0.1682491898536682, -1.0110492706298828, -0.04706917703151703, 0.06365358829498291, 0.11142050474882126, -0.4465842545032501, 0.17742052674293518, 0.020356638357043266, -0.07974354922771454, 0.312009334564209, -0.14577165246009827, -0.025690438225865364, -0.34998852014541626, -0.12668463587760925, -0.007731976918876171, 0.3823750913143158, -0.5569169521331787, 0.03204069286584854, -0.14709384739398956, 0.08033723384141922, -0.35575613379478455, 0.4893745183944702, -0.3169727027416229, -0.3291670083999634, 0.06182588264346123, -0.06910229474306107, -0.26420533657073975, -0.9429556727409363, -0.1883956491947174, 0.23421832919120789, 0.25041377544403076, -0.46687278151512146, 0.14690501987934113, 0.020810818299651146, 0.023218246176838875, 0.05505399405956268, -0.03439067304134369, 0.7756309509277344, -0.09669849276542664, 0.10696183145046234, 0.15873202681541443, -0.6508551836013794, -1.2239189147949219, -0.026949089020490646, -0.23383304476737976, 0.29158636927604675, -0.08330012857913971, -0.10201986879110336, -0.21659840643405914, -0.09452737867832184, -0.007190546952188015, -0.04552355781197548, 0.12640680372714996, 1.047791838645935, 0.06420113891363144, -1.1368942260742188, -0.004984957631677389, -0.002627577167004347, -0.08901393413543701, 0.08723165094852448, 0.0649801641702652, 0.10919102281332016, 0.05272802710533142, 0.35897940397262573, 0.10109933465719223, -0.5854082107543945, 0.06649861484766006, -0.0197342187166214, -0.031937628984451294, -0.9657912850379944, 0.06342610716819763, -0.040212493389844894, 0.12015431374311447, 0.814507246017456, 0.08136798441410065, -0.016761809587478638, -0.13818217813968658, 0.12470248341560364, -0.0032158379908651114, -0.039737503975629807, -0.10417366772890091, -0.26532602310180664, -0.0021870669443160295, -0.2746042311191559, 0.03703711926937103, 0.11016706377267838, 0.036146342754364014, 0.09954043477773666, 0.1360095739364624, 0.0033918488770723343, -0.0017477218061685562, 0.07915813475847244, -0.04546375200152397, 0.34705349802970886, 0.36471107602119446, 0.34456321597099304, 0.1778194159269333, 0.3036198019981384, -0.010589106008410454, 0.00804199744015932, -0.1497846096754074, -0.6034560799598694, 0.006009408738464117, 0.05617554858326912, 0.28127631545066833, -0.12179001420736313, 0.21916332840919495, -0.08639160543680191, 0.1545129269361496, 0.10546950995922089, -0.06380295753479004, -0.303907573223114, 0.2059018313884735, -0.1045151874423027, 0.09951302409172058, -0.35465410351753235, 0.36831027269363403, 0.44578686356544495, 0.521725058555603, 1.481379747390747, 0.4414904713630676, 0.06487837433815002, 0.14081215858459473, 0.5143638253211975, 0.4327024519443512, -0.02902940846979618, 0.09659277647733688, 1.6149300336837769, 0.0061831120401620865, 0.05686911568045616, 0.2390187680721283, -0.29568231105804443, 0.3100162744522095, -0.20849686861038208, 0.19934776425361633, 0.042514581233263016, -0.9110913872718811, 1.8537585735321045, 0.29597827792167664, 0.055050741881132126, 0.9003639817237854, -1.3605445623397827, 0.33668819069862366, -0.7825252413749695, 1.0223591327667236, -0.19092383980751038, 0.06121746450662613, -0.3361319899559021, -0.047204647213220596, 0.02128254808485508, -0.1378941833972931, -0.12807628512382507, -0.07202836871147156, -0.15660731494426727, -0.18297068774700165, -0.10682129859924316, 0.00027236100868321955, 0.13497915863990784, 0.11325651407241821, -0.15463405847549438, 0.048970021307468414, 0.18987780809402466, -0.07605453580617905, 0.14238692820072174, -0.10129206627607346, -0.4157266616821289, -0.13932250440120697, 0.07527043670415878, 0.15379531681537628, -0.21105262637138367, 0.029373958706855774, -0.1393062174320221, 0.058506570756435394, 0.14579038321971893, 0.09435340017080307, 0.13165900111198425, 0.16217097640037537, -0.15307314693927765, -0.19331757724285126, -0.21827420592308044, -0.04449772089719772, 0.16081011295318604, -0.3097693920135498, -0.1877402663230896, -0.10872510075569153, -0.03495371714234352, -0.24555876851081848, -0.05545393005013466, 1.0558284521102905, 0.22774097323417664, 0.13547095656394958, -0.1803281158208847, 0.1720910668373108, 1.6172782182693481, -0.1287154108285904, 0.07793808728456497, -0.13177400827407837, -0.987227737903595, -0.2014102339744568, 0.12440183013677597, 0.41033121943473816, -0.7749748826026917, 0.08942079544067383, -0.04113280400633812, -0.32634177803993225, 0.11845925450325012, -0.14653873443603516, -0.6051867008209229, 0.5605610013008118, -0.0019052720163017511, 0.002824875758960843, 0.28390035033226013, -0.6606103777885437, -0.13651813566684723, -0.6358236074447632, -0.7079728841781616, -0.0338900126516819, -0.1442568451166153, -0.779625415802002, -0.9236100912094116, -0.051822479814291, -0.22121784090995789, 0.09480053931474686, -0.6369991302490234, -0.1589171588420868, 0.1357969045639038, -0.5379757881164551, 0.2839903235435486, -0.4131481349468231, -1.0245438814163208, -0.29838961362838745, 0.01206789817661047, -0.11409687995910645, -0.18959368765354156, -1.3173574209213257, -0.13361823558807373, -0.6130568385124207, 0.49763813614845276, -0.33908024430274963, 0.38354355096817017, -0.20914676785469055, -0.1126917377114296, -0.09436889737844467, -0.1364908218383789, 0.0010091472649946809, 0.4610821306705475, -0.0469614639878273, 4.394754796521738e-05, 0.1634310930967331, -0.09336929768323898, 0.016271209344267845, 0.006686209235340357, -0.10076940059661865, 0.16937266290187836, 0.13994160294532776, 0.18418119847774506, -0.06394854187965393, -0.08517982810735703, -0.023471562191843987, -0.03735104948282242, 0.01868601143360138, 0.23482197523117065, 0.04083248972892761, 0.10261710733175278, 0.057588476687669754, 0.21862532198429108, -0.024102833122015, -0.11232854425907135, -0.07464086264371872, -0.22349537909030914, -0.0576084740459919, -0.08191322535276413, -0.01390897948294878, -0.0734715685248375, -0.08283328264951706, 0.04812616854906082, 0.09044545888900757, -0.07416095584630966, 0.052441615611314774, 0.018750514835119247, 0.018018702045083046, 0.04777243733406067, -0.07608302682638168, 0.07776623219251633, 0.044272154569625854, -0.0019817643333226442, 0.028773687779903412, 0.019033636897802353, 0.035013675689697266, -0.04890324920415878, -0.08150437474250793, 0.017709163948893547, -0.033167626708745956, -0.061006736010313034, -0.014568919315934181, 0.007901372388005257, -0.037808630615472794, 0.023415610194206238, -0.005368453916162252, -0.06626841425895691, -0.10505077987909317, 0.04918202757835388, 0.017544250935316086, -0.08752612769603729, -0.06597909331321716, -0.15244582295417786, -0.07165702432394028, -0.21919748187065125, -0.11068257689476013, 0.5273436903953552, 0.03575626760721207, -0.13330641388893127, 0.0491894967854023, -0.026293424889445305, 0.015285179018974304, -0.23042136430740356, -0.44252264499664307, 0.055426791310310364, 0.2198713719844818, 0.09295289218425751, 0.051859114319086075, -0.28980758786201477, 0.021159697324037552, -0.23343263566493988, 0.07732114940881729, 0.4916153848171234, -0.011380705051124096, 0.1605636328458786, -0.14822916686534882, 0.20137843489646912, -0.2313501238822937, -0.08076797425746918, -0.36718425154685974, -0.5999022126197815, 0.08982247859239578, -0.291599303483963, 0.0360817015171051, -0.057524118572473526, 0.03421291708946228, -0.06289570778608322, 0.355288565158844, 0.04298986494541168, 0.14246660470962524, 0.5732722878456116, 0.05688966065645218, 0.05456797406077385, 0.18344727158546448, 0.2688785493373871, 0.23487405478954315, -0.033623889088630676, -0.05444587022066116, 0.6358715891838074, -0.15467002987861633, -0.05965244770050049, 0.016783662140369415, -0.05126849561929703, -0.0197808425873518, -0.3840581178665161, 0.0016227328451350331, -0.11132814735174179, -0.24102167785167694, 0.5289251804351807, 0.2893125116825104, 0.13288891315460205, 0.3759661614894867, 0.03438175469636917, 0.04810907319188118, -0.19394443929195404, 0.3028019666671753, 0.04045563563704491, -0.09105969220399857, -0.13792487978935242, 0.18998819589614868, 0.20129497349262238, 0.09115882962942123, -0.41077691316604614, -1.138978123664856, 0.04224490374326706, -0.023017531260848045, -0.20132599771022797, 0.8273245692253113, 0.15507762134075165, 0.060010917484760284, -0.14907437562942505, -0.001456952653825283, 0.7130931615829468, -0.13411743938922882, -0.022887127473950386, -0.1374906748533249, -0.5375348329544067, 0.07850687950849533, 0.12038028985261917, 0.2755589783191681, -0.32158318161964417, -0.277643084526062, -0.06094934791326523, -0.06103121116757393, 0.1293889731168747, -0.1825413554906845, -0.7134694457054138, -0.10958568751811981, -0.013203415088355541, -0.011067409068346024, -0.004120719153434038, 0.19109198451042175, 0.31866714358329773, 0.042867064476013184, -0.2242424339056015, 0.20194204151630402, 0.11215141415596008, -0.0025379136204719543, 0.11298615485429764, 0.015602187253534794, 0.17675620317459106, 0.1581423282623291, -0.0058614276349544525, -0.08541309833526611, -0.37100139260292053, -0.09065168350934982, -0.01733030192553997, 0.041428614407777786, 0.0777919590473175, 0.039402857422828674, 0.07326262444257736, 0.10547890514135361, 0.20926909148693085, -0.07604566216468811, 0.05078103020787239, -0.3662642538547516, -0.10103436559438705, 0.09232281148433685, -0.05697714909911156, -0.012302273884415627, -0.09060926735401154, 0.031009286642074585, -0.1818254441022873, 0.2608874440193176, 0.4427393972873688, 0.2509607672691345, 0.5366948246955872, 0.08626062422990799, 0.04767189174890518, 0.2721671462059021, 0.4523737132549286, -0.17661263048648834, 0.09983697533607483, 0.1358858197927475, 0.3134461045265198, -0.09046362340450287, -0.7193371057510376, 0.42166656255722046, -0.21707583963871002, 0.19357769191265106, 0.9542177319526672, 0.11894812434911728, 0.18452879786491394, -1.0092973709106445, 0.7211568355560303, 0.6840210556983948, 0.06756816804409027, -0.4200364649295807, -1.6868665218353271, 0.23155710101127625, -0.8157144784927368, 0.11484675109386444, 0.06621209532022476, 0.14133259654045105, 0.16218972206115723, 0.2038244754076004, -0.05528745800256729, -0.04557877779006958, 0.03421721234917641, -0.016095206141471863, -0.02494511753320694, -0.15902550518512726, 0.052274081856012344, 0.25103312730789185, 0.02886289916932583, 0.09393437951803207, 0.08965510129928589, -0.17938822507858276, -0.1395575851202011, 0.0777730941772461, 0.15695130825042725, 0.13919474184513092, -0.29116082191467285, 0.2066468894481659, 0.04220586642622948, -0.07638360559940338, 0.1871437132358551, 0.13492679595947266, -0.0699857622385025, -0.01756192557513714, 0.12038818001747131, 0.05794278159737587, 0.004445997532457113, -0.04436291754245758, 0.038809750229120255, 0.13994698226451874, 0.1115545928478241, 0.03802298754453659, 0.20526541769504547, -0.15678657591342926, 0.22570690512657166, -0.9042269587516785, -0.04220693185925484, -0.2089211642742157, 0.3052788972854614, 0.8989560604095459, 0.08523385226726532, 0.10924158245325089, -0.598637580871582, 0.06121977046132088, -0.24017275869846344, -0.099361352622509, -0.09731864184141159, -0.12005598843097687, 0.010911501944065094, 0.17120146751403809, 0.01143253967165947, 0.43740350008010864, -0.04086359590291977, 0.1487438827753067, 0.019841304048895836, -0.23677854239940643, 0.26792848110198975, -0.015276181511580944, -0.014864224009215832, -1.803236722946167, 0.03768523409962654, 0.1595800518989563, -0.3539089262485504, 0.5029585957527161, -0.7954739332199097, 0.41910287737846375, -2.3948705196380615, -0.6888275742530823, 0.22007116675376892, 0.6780291795730591, 1.10609769821167, 0.8804816007614136, 0.0010774660622701049, 0.05360361561179161, 0.20286893844604492, 0.1263466328382492, -4.4185614585876465, 0.45913392305374146, -0.1802019327878952, 0.41399824619293213, 0.8426762223243713, 0.27748310565948486, 0.006686118431389332, -0.9056428670883179, -0.060914698988199234, 0.5580703616142273, 0.04231804981827736, 0.4968250095844269, -0.07009328156709671, 0.5200051069259644, -0.9678443670272827, -1.4127362966537476, -0.0028124109376221895, 0.021379059180617332, 0.18073731660842896, -0.2903454303741455, -2.2540664672851562, -0.3359616696834564, -2.5509166717529297, -0.4378843307495117, -0.23448407649993896, -0.7245803475379944, 0.37035149335861206, -0.14527568221092224, -0.17773659527301788, -0.0667693018913269, -0.5891630053520203, 0.31565821170806885, -2.271634578704834, -0.7025730609893799, 0.5609476566314697, -0.11591724306344986, 0.5310206413269043, -0.06848058104515076, -0.008874704129993916, 0.05472875013947487, -0.6184250712394714, -0.35834190249443054, -0.11146853864192963, -0.1518196165561676, 1.2548421621322632, -0.11923778057098389, 0.03913157805800438, -0.9626862406730652, 0.20916898548603058, 0.10529621690511703, -0.2717232406139374, 0.7276817560195923, 0.3632400929927826, 0.5514346957206726, 0.17453865706920624, -0.12397033721208572, 0.15164436399936676, 0.945858359336853, 0.39563101530075073, 0.6275362968444824, -0.1699085235595703, -0.15154294669628143, 0.5499669909477234, -0.03677963465452194, 0.8717746138572693, 0.8140519857406616, -0.2162589430809021, 0.7048284411430359, 0.9254563450813293, 0.41169852018356323, -0.10935747623443604, -0.7000221014022827, 1.1526124477386475, 0.5050444006919861, 0.25637054443359375, 0.5973502993583679, -0.3166360557079315, 0.6433148980140686, -1.3047736883163452, 0.490486204624176, -0.03513455018401146, -0.014318534173071384, 0.15751369297504425, -0.5301920175552368, -1.3789489269256592, -0.5654117465019226, -0.4375883936882019, 0.15847943723201752, -0.1417371779680252, -0.728111207485199, 0.16868987679481506, 0.8704891204833984, 0.0498577319085598, 0.05520980805158615, -0.8008624911308289, -0.173714280128479, 0.5729427933692932, -0.6740729212760925, 0.628210186958313, -0.07319458574056625, 1.1679880619049072, -0.24127064645290375, 0.0675681084394455, 0.4629051685333252, -1.4882605075836182, -0.46958887577056885, 0.01553459744900465, -0.17407478392124176, 1.4227715730667114, -0.21177634596824646, 0.1440897136926651, -0.614548921585083, 0.31473013758659363, 0.13171270489692688, -0.10948623716831207, 0.239125594496727, 0.3617786169052124, 0.308871328830719, 0.3819255530834198, -0.3829796612262726, 0.0879737064242363, 0.4651588201522827, 0.05939710885286331, -0.7819843888282776, 0.12462159246206284, 0.1815280020236969, 1.0502393245697021, 0.2715066373348236, -1.7166640758514404, 0.5449768900871277, -0.36027199029922485, 0.35017579793930054, 0.4401918947696686, 0.3221619427204132, 0.08460491895675659, -0.3275775909423828, 2.1091811656951904, -0.12147048115730286, 0.07507305592298508, 0.7746594548225403, -0.4175854027271271, 0.35635367035865784, -0.188980370759964, 0.4814389944076538, 0.44771191477775574, -0.05698027461767197, 0.6395397186279297, -0.5641934275627136, 0.9164777994155884, -0.556128978729248, -0.7405056953430176, -1.3638321161270142, -0.4603787064552307, -1.5631221532821655, 0.21494795382022858, 0.3749389350414276, -0.023657700046896935, -0.15585967898368835, -0.7556667327880859, 0.3910214304924011, -0.3398885428905487, -2.0505855083465576, 1.3118788003921509, -1.0061994791030884, -0.4917546212673187, -0.3935989439487457, 0.05547448247671127, 1.711338758468628, -2.694678544998169, -1.0016971826553345, -0.2153898924589157, -0.46458110213279724, 2.6254396438598633, -1.3733032941818237, 1.6328102350234985, -2.7635490894317627, 0.31232428550720215, -0.001322329044342041, -0.374036580324173, 1.661737084388733, 0.2042974978685379, 1.3053821325302124, -0.5285008549690247, -0.9978272318840027, 0.48559048771858215, 2.0750675201416016, -0.3001222014427185, 0.060225050896406174, -0.07275204360485077, 0.2904095947742462, 1.0283269882202148, 0.4919266700744629, -3.400852680206299, 1.1431469917297363, -0.18749922513961792, 0.8643862009048462, 1.006821632385254, 0.857106626033783, -0.14859943091869354, -1.2730590105056763, 0.492861807346344, 3.04114031791687, 0.16276878118515015, 0.30155089497566223, -0.22761869430541992, 1.0120171308517456, -1.999463677406311, 2.412980794906616, -0.19007928669452667, -0.014624332077801228, 0.030102699995040894, 0.00992114283144474, -0.9209277033805847, -0.0956292673945427, -2.136925458908081, -0.3541615307331085, 0.07003884762525558, -0.5063157677650452, 0.921093225479126, 0.4843408167362213, -0.11725388467311859, -0.17741219699382782, 0.4646771252155304, -0.1660287231206894, -1.6170554161071777, -0.14840805530548096, 0.14603397250175476, 0.034671492874622345, 0.03760119155049324, -0.03912697732448578, -0.014489456079900265, -0.07027806341648102, 1.7070913314819336, 0.3874723017215729, -0.07114765793085098, 0.09597378224134445, 0.1706116646528244, -0.014743056148290634, -0.29575783014297485, -1.0897566080093384, -0.35221460461616516, 0.04864777252078056, -0.4971540570259094, 0.33355626463890076, 0.5990608930587769, 0.26789966225624084, 0.2892436683177948, 0.07090755552053452, 0.4987991154193878, 0.9080673456192017, 1.4749886989593506, 0.9157153964042664, 0.050634704530239105, 0.1319143921136856, 0.9279422760009766, -0.08173143863677979, 1.068504810333252, 1.2020448446273804, -0.2903106212615967, 0.7106646299362183, 2.260601282119751, 0.37411588430404663, -0.0010658559622243047, -1.1882598400115967, -0.025644950568675995, 1.5566672086715698, 0.1894378811120987, 0.4215395152568817, -1.5675063133239746, 0.7140893340110779, -1.093342900276184, 2.50368332862854, 0.19002003967761993, -0.10516016185283661, 0.08537212759256363, 0.26743146777153015, -1.5743621587753296, -0.1713617742061615, 0.4224882125854492, 0.19323161244392395, -0.07137569040060043, -0.039493903517723083, -0.1257963478565216, 0.3651488125324249, -0.09411544352769852, -0.18622243404388428, 0.6937713027000427, -0.5113645792007446, -0.5609276294708252, 0.24185332655906677, 0.026951167732477188, 0.06997067481279373, 1.6591707468032837, -0.13525693118572235, -0.1202821284532547, 0.33300602436065674, 1.5399000644683838, 0.21454781293869019, 0.15772342681884766, 0.3149320185184479, 0.25278782844543457, 0.1789325624704361, -0.41323044896125793, -0.46050533652305603, -0.2479649782180786, -0.07232432067394257, 0.0016430191462859511, 0.6234433650970459, -0.07425494492053986, 0.0388939343392849, 1.6682560443878174, -0.15329162776470184, -0.08139852434396744, 0.16426607966423035, 1.059570074081421, 1.7703089714050293, 0.12023056298494339, 0.30826902389526367, 1.1959445476531982, 0.025731954723596573, 1.6011252403259277, -0.19254949688911438, 0.5367366671562195, -0.04358174279332161, 2.937298059463501, -0.14482364058494568, 0.08325028419494629, 0.5571908950805664, 1.0281881093978882, 1.3295389413833618, 0.10347435623407364, 1.69235098361969, 0.4061412215232849, -0.051287490874528885, 0.4460909068584442, 1.938755989074707, 0.0882282704114914, -0.09283186495304108, -0.049404315650463104, 0.3207051157951355, -0.06828609108924866, 0.05106934532523155, -0.6639280915260315, -0.5908538103103638, 0.030579382553696632, -0.14411625266075134, -0.1714707314968109, -0.23508800566196442, -0.041212473064661026, -0.06140612065792084, -0.11061717569828033, -0.17738178372383118, -0.19478686153888702, -0.1450037658214569, 0.2238272875547409, 0.01850544661283493, 0.9626601934432983, 0.03018486499786377, 0.00511177396401763, 0.4854881465435028, -0.8981572985649109, 0.1043301597237587, 0.11555889993906021, -0.9760497808456421, 0.5356532335281372, 0.020817210897803307, 0.29108428955078125, -0.09327305108308792, -0.3979399502277374, 0.27093157172203064, -1.158475399017334, 2.6791398525238037, 0.6231740713119507, 2.3545782566070557, 1.2872862815856934, -1.062560796737671, 1.0626481771469116, 3.1469664573669434, 2.829134941101074, 3.581507682800293, -0.1863483041524887, -0.1837582141160965, -0.5894435048103333, -0.49701550602912903, -2.6440694332122803, 3.1162197589874268, -1.47189199924469, 1.7243678569793701, 1.8846296072006226, 1.4898388385772705, -0.22868354618549347, -1.7273999452590942, 0.7764797806739807, 3.855414867401123, 0.5152597427368164, -0.7420346736907959, -2.7417800426483154, 1.730027198791504, -5.0121355056762695, -2.6841306686401367, 0.09743445366621017, -0.04816887900233269, 0.015198764391243458, -0.11040611565113068, 1.6644185781478882, -0.04751547425985336, -0.7009204030036926, 2.1415109634399414, 0.07336628437042236, 0.2362697869539261, 0.3258201479911804, -0.41693469882011414, -0.06655069440603256, -0.10167998820543289, 0.5137559175491333, -0.09574484080076218, -0.2223534882068634, -0.0896361693739891, 0.07377701252698898, 0.2471473515033722, -0.06595542281866074, -0.07075819373130798, -0.14628250896930695, -0.295051634311676, 0.6533586382865906, 0.5486297011375427, 0.07111666351556778, -0.6011842489242554, 0.2083183228969574, 0.14423209428787231, -0.24268820881843567, 0.08388662338256836, 0.11744178086519241, 0.086097352206707, -0.2206851989030838, 0.5034824013710022, 1.2131203413009644, 0.42403024435043335, -0.6172060370445251, 1.0985748767852783, 0.2587991952896118, 0.42001402378082275, 0.954357922077179, -0.45689132809638977, -0.07195693254470825, -0.1309097856283188, -0.77534419298172, -0.008820893242955208, -0.9954050183296204, 0.5668490529060364, -0.30165895819664, 0.34924763441085815, 1.0108921527862549, 0.2541404068470001, -0.08838705718517303, -0.38661178946495056, -0.42364686727523804, 0.45888370275497437, 0.06403814256191254, 0.25223249197006226, -0.3594837188720703, 0.3994112014770508, -0.9025184512138367, -0.8181785345077515, 0.016035644337534904, -0.07031720131635666, 0.059262700378894806, -0.11109340935945511, -0.4019993841648102, 0.030925050377845764, 0.23644274473190308, -0.2031134068965912, 0.1282346546649933, 0.13370144367218018, -0.04819421097636223, 0.29199355840682983, -0.06672383844852448, -0.002395759569481015, 0.02137262374162674, -0.07310915738344193, 0.10864600539207458, 0.23178017139434814, -0.10408039391040802, 0.1591966599225998, 0.0433313325047493, 0.12139866501092911, 0.010503907687962055, -0.11424683779478073, -0.033462777733802795, 0.19287919998168945, 0.02079792693257332, 0.4446919858455658, -0.11709755659103394, 0.2905298173427582, 0.06143999472260475, 0.37889808416366577, -0.04296046495437622, -0.13701649010181427, 0.22512122988700867, 0.08075686544179916, -0.21539480984210968, -0.17160587012767792, 0.41591912508010864, 0.6115368604660034, -0.09280768781900406, -0.3235594928264618, -0.07640521973371506, 0.7696210741996765, 0.25786736607551575, 0.2936817705631256, 0.060659267008304596, 0.01064208522439003, -0.12181981652975082, -0.4565601348876953, 0.41928279399871826, -0.23519685864448547, -0.5702024102210999, -0.1381669044494629, 0.14142759144306183, 0.5338212847709656, 0.17915087938308716, 0.9785040616989136, -0.2733539044857025, -0.145216703414917, 0.6392491459846497, -0.15127728879451752, 1.0867379903793335, 0.48445644974708557, 0.10848230868577957, -0.049198802560567856, 0.17305052280426025, -0.5376408696174622, -0.1188061311841011, -0.403112530708313, 1.0879226922988892, 1.4105596542358398, -0.09158697724342346, -0.5439372062683105, -0.323373019695282, 0.3378848135471344, -0.1252388209104538, -0.039312757551670074, -1.0317578315734863, 0.12013012915849686, 0.2218632698059082, -0.49922922253608704, 0.07540643960237503, -0.3621678650379181, 1.1416572332382202, -0.1631687730550766, -0.11088500916957855, 0.79817795753479, -1.2832732200622559, -0.7245014309883118, -0.08287721127271652, 0.03265674412250519, 0.373649924993515, -0.32822680473327637, 0.6871670484542847, 1.1691672801971436, -0.07009271532297134, 0.005372195038944483, 0.1681065559387207, -0.06929819285869598, -0.34738269448280334, -0.08716181665658951, 0.06494879722595215, 0.32178357243537903, -0.1276555359363556, -0.1770453006029129, 0.09557636827230453, 0.4678819179534912, 0.06383083760738373, 0.14018763601779938, 0.07090818136930466, 0.08243290334939957, -0.2030777633190155, -0.15111374855041504, 0.059409189969301224, -0.09334783256053925, -0.3440023362636566, 0.07378905266523361, 0.03377017006278038, 0.5696001052856445, 0.045048777014017105, 0.11223448067903519, -0.09480169415473938, 0.628631055355072, 0.4057203233242035, -0.16145570576190948, 0.4520394504070282, -0.03400137647986412, 0.1274409294128418, -0.14106574654579163, 0.64875328540802, -0.3919062316417694, 1.2771145105361938, -0.7609527707099915, -1.5634056329727173, 0.6598158478736877, -0.40304383635520935, -1.4577311277389526, 0.05016828700900078, 0.15731701254844666, 0.07132459431886673, -0.07821701467037201, -0.4964003264904022, 0.26693397760391235, 0.7588167786598206, -1.3159700632095337, 0.4421234428882599, -0.9299007654190063, 0.7476245760917664, -0.4954036772251129, -0.10265057533979416, 1.6594923734664917, -0.855174720287323, -0.8339698314666748, -0.11041825264692307, -0.8665148615837097, 1.5213124752044678, -1.1001410484313965, 0.9153916835784912, -0.6978909373283386, 0.0909542590379715, -0.03012607805430889, 0.2090432047843933, -0.0610579289495945, -0.15714019536972046, -0.03891472890973091, 0.1070992648601532, -0.06401190906763077, 0.0020682101603597403, -0.17385321855545044, 0.038578685373067856, 0.07720211893320084, -0.00918118841946125, 0.06317710131406784, -0.17940108478069305, -0.04027678444981575, 0.3950190246105194, 0.003630522871389985, 0.07212535291910172, 0.0562899224460125, 0.07319188117980957, -0.03435398265719414, -0.02140284702181816, 0.5012547969818115, -0.5199407935142517, 0.3323613703250885, -0.025131279602646828, 0.44100719690322876, 0.5374218225479126, -0.048741210252046585, 0.4070160984992981, 0.08759652078151703, 0.018012404441833496, -0.14591820538043976, -0.1854383498430252, 0.4690026640892029, 1.770040512084961, 0.46629980206489563, -1.121740460395813, 1.6601111888885498, 0.0352470800280571, 0.12551693618297577, 0.7521867752075195, -0.4452172517776489, 0.05698337033390999, 0.1231919378042221, -0.1630835384130478, -0.1521875262260437, -0.2915211617946625, 0.04640890657901764, 0.047001663595438004, 0.05648155137896538, 0.022193748503923416, 0.09332168847322464, 0.009058760479092598, 0.3303159475326538, 0.3487071096897125, 0.7601957321166992, -0.09751071780920029, -0.8859935402870178, 0.06881625950336456, -0.005045867059379816, -0.8364384174346924, -1.0655516386032104, 0.02895379066467285, 0.11087094247341156, 0.1518813818693161, -0.09527707099914551, 1.4045265913009644, 0.01204643677920103, 0.033608898520469666, 1.0859813690185547, 0.018240204080939293, -0.5265770554542542, 0.2424401193857193, 1.1947818994522095, 0.051840730011463165, -0.035262949764728546, 0.2912740707397461, 0.08429858833551407, -0.29949259757995605, -0.4493121802806854, 0.20191693305969238, -0.12849973142147064, -0.38819462060928345, -0.12198542803525925, -0.11238585412502289, -0.2589077055454254, 0.496193528175354, -0.5644121766090393, -0.0036308271810412407, -0.8031257390975952, -0.24585551023483276, -0.18185937404632568, 0.1391458660364151, 0.28034311532974243, -0.04114082455635071, 0.014105445705354214, -0.18237675726413727, -0.06287533789873123, -1.654882550239563, -0.1932988166809082, -0.9990911483764648, -1.2934085130691528, -0.11879805475473404, -0.3762545883655548, 0.06652604788541794, 0.6369966864585876, 0.1974821239709854, 0.1829114854335785, 0.14423541724681854, -0.16726154088974, -0.6090812087059021, -0.2599855959415436, -0.14180387556552887, 0.01714470051229, 0.28115203976631165, -0.026163043454289436, 0.12946777045726776, -0.11524119973182678, 0.38986679911613464, -0.329116553068161, -0.04105471447110176, -0.6576520204544067, -0.23414552211761475, 0.04971484839916229, -0.3571205139160156, -0.7508913278579712, 0.008014886640012264, 0.08275485038757324, -0.04255007207393646, 0.013325387611985207, 0.6873410940170288, 0.14047057926654816, -0.6709523797035217, 0.13876239955425262, 0.06220788508653641, 0.078760527074337, -0.20375579595565796, -0.05125883221626282, -0.0057414076291024685, 0.09664525836706161, -0.1735209822654724, -0.006560181733220816, 0.23171837627887726, 0.2601436972618103, -0.12944963574409485, 0.0052415961399674416, 0.5507450699806213, 0.14704537391662598, 0.10656388103961945, -0.3118714392185211, -0.05872775614261627, -0.3453034460544586, 0.021499712020158768, 0.0004081332008354366, -0.20902903378009796, 0.15523235499858856, -0.6896544098854065, -0.1847313791513443, -0.026189342141151428, -0.0139959417283535, -0.12200990319252014, 0.4576326310634613, -0.3939098119735718, 0.26240599155426025, -0.6261829733848572, -0.47217899560928345, 0.1494636833667755, 0.021927805617451668, 0.35427939891815186, 0.22987256944179535, 0.1498631238937378, 0.10789331048727036, 0.08040746301412582, -0.07479388266801834, -2.8305442333221436, 0.21093231439590454, -0.3480898439884186, 0.1451370120048523, -0.11253836005926132, 0.18876203894615173, 0.03167659416794777, -0.16943606734275818, 0.6606364250183105, 0.5376598238945007, 0.15288616716861725, -0.3007965683937073, -0.22510097920894623, 0.23691989481449127, -1.4606990814208984, -1.0520727634429932, -0.07355406880378723, -0.06594730913639069, -0.11490494012832642, 0.3834570050239563, -0.6374434232711792, 0.3714427053928375, -1.406756043434143, -0.10434985905885696, -0.014620915986597538, 0.30548426508903503, 0.6225271821022034, 0.6321143507957458, -0.005412230268120766, 0.0980290025472641, -0.6074948906898499, 0.03593834862112999, -1.2786602973937988, 0.4370236396789551, -0.10834699869155884, 0.23518690466880798, 0.4322972595691681, 0.004685441963374615, 0.0939471423625946, -0.013520225882530212, -0.1393270194530487, 0.7123154401779175, 0.05024228245019913, 0.28593844175338745, 0.04825649410486221, 0.3347780704498291, -1.3480910062789917, -1.1253653764724731, 0.004320565145462751, 0.12926040589809418, 0.0069195860996842384, -0.12476209551095963, -1.0629829168319702, -0.17782144248485565, -0.3045045733451843, 0.3659028708934784, 0.0883166640996933, -0.2528306543827057, 0.10747210681438446, 0.005303611513227224, 0.02730591408908367, -0.13101467490196228, -0.9233517646789551, -0.1010938510298729, 0.0713123306632042, -0.28222623467445374, -0.10820841044187546, -0.04092346504330635, 1.1413393020629883, 0.056305546313524246, -0.10642344504594803, 0.31278759241104126, -1.211624026298523, 0.12486416101455688, 0.16213886439800262, -0.2582508325576782, 0.1974625438451767, -0.15357977151870728, 0.280276358127594, -0.23971529304981232, 0.09355577826499939, 0.022805463522672653, -0.06798326969146729, 0.059391915798187256, -1.5721207857131958, 0.24071747064590454, 0.2112690955400467, -1.4158074855804443, -0.02968226559460163, 0.05669409781694412, -0.5606909990310669, 0.49258697032928467, 0.026163838803768158, 0.011789198964834213, 0.07039672881364822, -0.16973669826984406, 0.628956139087677, -0.06432285904884338, 0.11472750455141068, -0.1288064569234848, -0.14417272806167603, 0.09680066257715225, -0.07201069593429565, 0.17573942244052887, -0.8237440586090088, -0.402291476726532, 0.04340280592441559, 0.08777648210525513, 0.3570050895214081, -0.09388941526412964, 0.3306649625301361, 0.3731527328491211, 0.01464774738997221, -0.16120105981826782, 0.18403610587120056, -0.45103371143341064, -0.418504923582077, -0.5165970325469971, -0.5431984663009644, -0.8973535895347595, -0.13609471917152405, -0.370587021112442, -0.743219792842865, -0.6130723357200623, -0.18752248585224152, -0.13345730304718018, -0.7863376140594482, -0.24772287905216217, -0.06008649617433548, -0.24608567357063293, 0.2456548810005188, -0.12995342910289764, -0.3537360429763794, -0.18567515909671783, 0.04624197632074356, -0.17561288177967072, -1.1855669021606445, -0.6554412245750427, -0.11161645501852036, 0.004857349209487438, 0.25473693013191223, -0.1880165934562683, 0.7579352855682373, -0.16842417418956757, 0.14515867829322815, -0.04064279422163963, 0.23868565261363983, -0.5032128095626831, -0.7986142635345459, -0.46829718351364136, -0.051533300429582596, -0.8005093932151794, -0.14658355712890625, -0.5537616014480591, -0.5356849431991577, -0.25067219138145447, -0.03093780018389225, -0.15374360978603363, 0.629146933555603, 0.008662056177854538, -0.6425966620445251, -0.28638067841529846, 0.27339884638786316, -0.2517879903316498, 1.209067702293396, -0.2235017716884613, -0.04786926880478859, -0.22452813386917114, 0.32227930426597595, -0.3910061717033386, -0.07617942243814468, -0.5985175371170044, 0.3148050308227539, -0.20932629704475403, 0.6501896381378174, 0.9484554529190063, -0.12848730385303497, -0.137576162815094, 0.04916583001613617, -0.18848969042301178, -1.0911725759506226, -0.25689008831977844, -0.6532034873962402, -0.3297809362411499, -0.07721028476953506, -0.4532713294029236, -0.1332390308380127, 0.429014652967453, 0.06280617415904999, 0.07286641001701355, -0.42636969685554504, 0.08845504373311996, -0.3715611398220062, -0.3136528730392456, 0.041106872260570526, -0.11677257716655731, -0.2746790051460266, 0.03408889099955559, 0.11481687426567078, 0.02123226225376129, -0.7586016058921814, -0.4769388735294342, 0.0255375225096941, 0.7801834344863892, 0.2835250496864319, -0.2052903026342392, 0.28828904032707214, -0.3266694247722626, 0.08328096568584442, -0.1440657675266266, 0.12119648605585098, -0.36222541332244873, -0.020533397793769836, -0.5297892093658447, 0.30353158712387085, -0.5783562660217285, -0.021213693544268608, -0.8596109747886658, -0.14019931852817535, 0.590027928352356, 0.14586417376995087, -0.03433247655630112, -0.2646598219871521, -0.034850798547267914, -0.517754852771759, -0.6528799533843994, 0.10007809102535248, -0.0903145968914032, 0.0005116965621709824, 0.05928930640220642, 0.0426538847386837, 0.02606743387877941, 0.28966379165649414, -0.2020639032125473, -0.14028704166412354, -0.055283065885305405, 0.5672798156738281, -0.006634114310145378, 0.1149718165397644, -0.17562808096408844, -0.12505526840686798, 0.013927072286605835, 0.14801380038261414, -0.4771784245967865, -0.5858405232429504, -0.5087717175483704, 0.9557143449783325, -1.2767601013183594, -0.02616090327501297, -0.8569476008415222, -0.7025684714317322, -0.08771845698356628, -0.193691685795784, -0.10805221647024155, -0.4090364873409271, -0.14100460708141327, -0.6630492210388184, -0.47913140058517456, 0.16094161570072174, -0.05819815397262573, 0.2982994616031647, -0.052098266780376434, 0.08213797956705093, -0.004169780761003494, -1.1606577634811401, -0.7794755697250366, -0.08584905415773392, 0.11709395051002502, 0.27738112211227417, -0.13295793533325195, 0.3206802308559418, 0.7990803122520447, -0.01607990823686123, -0.13240939378738403, 0.16643057763576508, -0.18169157207012177, -0.022338232025504112, -0.1794222593307495, -0.13782471418380737, -0.12769977748394012, -0.14927715063095093, -0.047652389854192734, -0.0006407755427062511, -0.001404851209372282, -0.163253054022789, -0.0035565693397074938, -0.05317264795303345, -0.001590658794157207, -0.08131571114063263, -0.0070879291743040085, 0.0243922621011734, 0.03752191737294197, -0.130592942237854, 0.13352522253990173, 0.08150459825992584, 0.4375682771205902, -0.2547110617160797, -0.045013152062892914, -0.034159574657678604, 0.11615361273288727, 0.1985039860010147, 0.0829736664891243, 0.24127419292926788, -0.13303950428962708, 0.026985231786966324, -0.06183788180351257, 0.1258629858493805, -0.14056681096553802, -0.7705639004707336, -0.046806808561086655, -0.024761898443102837, -0.3556211292743683, -0.0232998039573431, -0.06987182796001434, -0.06513717770576477, -0.01926402747631073, -0.1235329806804657, 0.012730184942483902, -0.2829785645008087, -0.09175068140029907, -0.09985774755477905, -0.0759773701429367, 0.06219093129038811, 0.0736134722828865, 0.1417415738105774, -0.027080262079834938, -0.012669773772358894, 0.1380172073841095, -0.3037663698196411, 0.16790641844272614, -0.006825084798038006, 0.06852242350578308, 0.18307900428771973, 0.11095061898231506, 0.1275324821472168, 0.041330736130476, -0.16472485661506653, 0.036588117480278015, -0.05378499999642372, -0.16206280887126923, 0.12776686251163483, -0.11892293393611908, 0.5360640287399292, 0.38997340202331543, -0.1421678513288498, -0.39121100306510925, 0.15572012960910797, -0.9027613401412964, 0.11211079359054565, 0.01599777676165104, 0.574446439743042, 0.057167649269104004, 1.4714323282241821, -0.4478577673435211, -0.23469765484333038, -0.19060401618480682, -0.16562753915786743, -0.17978794872760773, 0.14544633030891418, -0.29825645685195923, -0.011560877785086632, -0.018978718668222427, -0.12585429847240448, -0.30169355869293213, -0.9512582421302795, -0.22387279570102692, -0.5632080435752869, 0.8963891863822937, 0.025286810472607613, 0.1180754005908966, -0.18068672716617584, 0.3675953149795532, -0.3657677471637726, 0.4809156656265259, -0.9693701863288879, 0.1627454161643982, 0.1905844360589981, 0.6570005416870117, 0.25434932112693787, -0.20679150521755219, 0.04208797216415405, 0.1528480499982834, 0.44864368438720703, -0.22652047872543335, -0.8140866756439209, 0.516129732131958, -0.34586572647094727, 0.3505944013595581, -0.10346568375825882, 0.23164819180965424, 0.09360350668430328, -1.1271226406097412, 1.0458650588989258, 0.20147620141506195, 0.15559600293636322, 0.7894954085350037, -1.1811470985412598, 0.41660597920417786, -0.6312923431396484, -0.21123988926410675, 0.3207964301109314, 0.0949169397354126, 0.20257209241390228, -0.010252679698169231, 0.27972131967544556, -0.3307435214519501, -0.3870553970336914, -0.16782480478286743, 0.07146455347537994, -0.7296198010444641, 0.3725675940513611, 0.1913076490163803, -0.06290031224489212, -0.020120231434702873, -0.41201964020729065, -0.14784926176071167, -0.26619967818260193, -0.47699981927871704, 0.19036832451820374, -0.07228699326515198, 1.1053725481033325, -0.14259222149848938, -0.049125298857688904, 0.008334238082170486, -0.33164066076278687, -0.07083556801080704, 0.03449544683098793, -0.1975809633731842, 0.27231305837631226, -0.021900035440921783, 0.2308434545993805, -0.8161770701408386, 0.04599054157733917, -0.0021706062834709883, 0.08852729201316833, -0.3815672695636749, 0.679200291633606, -0.5231086611747742, -0.5146868824958801, 0.05467639118432999, -0.0847473219037056, -0.6479998826980591, 0.07234346121549606, 0.012866152450442314, 0.3501933515071869, 0.26021990180015564, -0.4749177396297455, 0.014661121182143688, 0.01786566711962223, -0.6227959990501404, 0.04478666931390762, -0.1528102457523346, 1.0913257598876953, -0.052483025938272476, 0.0014509160537272692, 0.3115213215351105, -0.6261767745018005, -0.6031689643859863, -0.06681346893310547, -0.8406330943107605, 0.3942866027355194, -0.19369971752166748, -0.00828915648162365, -0.8986647725105286, -0.003398568369448185, -0.07251718640327454, -0.13842898607254028, -0.6030463576316833, 0.8675833344459534, -0.6089627742767334, 0.004237376619130373, 0.7538709044456482, -0.04767632484436035, -0.8709009885787964, -0.7478206157684326, -0.827216625213623, 0.3346926271915436, 0.312635600566864, -0.19718609750270844, 0.005317052360624075, -0.6182891726493835, -0.37865403294563293, 0.07867367565631866, -0.09208545088768005, 1.381856918334961, -0.2257964313030243, 0.09842908382415771, -0.09789979457855225, -0.4994125962257385, -1.4164193868637085, -0.12866759300231934, -0.17436039447784424, -0.7937382459640503, -0.03306840360164642, -0.0545182004570961, 0.27252963185310364, -0.12170916795730591, 0.020022010430693626, -0.08895254135131836, 0.17966531217098236, 0.10741026699542999, 0.09315197169780731, 0.036214396357536316, 0.048910338431596756, 0.11904836446046829, -0.02941105328500271, -0.0027040857821702957, 0.20818205177783966, -0.037287481129169464, 0.08905190974473953, 0.17965790629386902, 0.04457734152674675, 0.013381131924688816, -0.049513597041368484, -0.07631781697273254, -0.14461050927639008, -0.6324242949485779, 0.02526659145951271, 0.13221199810504913, 0.0036215097643435, 0.18053922057151794, -0.010599954053759575, 0.05648275464773178, -0.04848930239677429, -0.05117250233888626, -0.08777497708797455, -0.2626689076423645, 0.10364076495170593, -0.1265963464975357, -0.038995787501335144, -0.17756029963493347, 0.08097800612449646, 0.7147861123085022, 0.24294406175613403, -0.5197249054908752, 0.5924896597862244, 0.032670728862285614, 0.08595819026231766, -0.025067225098609924, 0.3978641927242279, 0.1459612399339676, 0.15187834203243256, 0.3807317614555359, 0.0863603726029396, -0.46682822704315186, 0.14298440515995026, -0.23641087114810944, 0.21046893298625946, -1.4371315240859985, -0.02851743809878826, 0.09675917029380798, -0.014147037640213966, 0.5720922350883484, 0.1250145137310028, -0.02241724170744419, 0.12160674482584, -0.4053236246109009, 0.03623013570904732, -1.1877515316009521, -0.09599350392818451, -0.04645217955112457, -0.10125676542520523, -0.0546264611184597, -0.08993053436279297, -1.1786500215530396, -0.17184127867221832, -0.9328656196594238, 0.2644203305244446, 0.05805531516671181, -0.3972805142402649, -0.18380385637283325, 0.1950725018978119, 0.11750612407922745, 0.024274859577417374, -0.3584612011909485, 0.050865087658166885, 0.29208651185035706, -0.25661882758140564, -0.016800925135612488, -0.03426816314458847, -0.511788010597229, -0.047451749444007874, 0.1464596390724182, 0.19561587274074554, -1.0464781522750854, -0.3256191909313202, -0.03614841774106026, -0.12484745681285858, 0.43092697858810425, -0.05392761155962944, -0.34554484486579895, -0.4670630097389221, 0.10579678416252136, -0.009495911188423634, -0.015516766346991062, 0.06966003030538559, 0.11899448186159134, 0.10359615087509155, 0.03306896984577179, 0.06241398677229881, 0.06710132211446762, 0.026448572054505348, -0.031790006905794144, 0.09233886003494263, -0.08375908434391022, 0.08438679575920105, 0.028515486046671867, 0.021056901663541794, 0.004975807853043079, -0.10534768551588058, 0.10916099697351456, -0.05361085757613182, -0.18544842302799225, -0.01832282356917858, -0.09177444130182266, -0.04759332165122032, 0.22810505330562592, 0.09274017065763474, 0.07999038696289062, -0.04073137044906616, -0.002737038768827915, -0.009515788406133652, -0.013989157974720001, -0.10089069604873657, 0.03487986698746681, -0.038311343640089035, -0.18458974361419678, 1.0894042253494263, -0.1759914606809616, 0.5293886661529541, -0.3746277093887329, 0.020720113068819046, 0.34157681465148926, 0.3414633274078369, 0.8757074475288391, 0.303825706243515, 0.39088916778564453, 0.3671723008155823, 0.9942479133605957, 0.40149664878845215, -1.7979177236557007, 0.45839136838912964, -0.006198386661708355, -0.1287233978509903, 0.049286969006061554, 0.1214834675192833, 0.2940751910209656, 0.257669061422348, 1.5229051113128662, 1.2149707078933716, 0.03782610222697258, 0.5046957731246948, -0.6632031798362732, -0.07035590708255768, -0.6396031379699707, 0.24249576032161713, -0.17488673329353333, 0.014120999723672867, -0.12123503535985947, 0.1914004683494568, 0.43063193559646606, 0.34367063641548157, -0.4001213312149048, 0.35632917284965515, -0.03561133146286011, 0.06743908673524857, 0.03338588401675224, 0.017750557512044907, 0.19098572432994843, 0.28122782707214355, 0.1898251473903656, -0.018372738733887672, -0.29233279824256897, 0.08318346738815308, -0.21335464715957642, -0.018345465883612633, -0.8592617511749268, 0.08440008759498596, 0.08260004222393036, -0.09765301644802094, 0.6386544108390808, 0.09448131173849106, 0.08193027228116989, 0.22712314128875732, -0.432982861995697, -0.10682499408721924, -0.8870769739151001, 0.008027138188481331, -0.05909409001469612, -0.05686977878212929, -0.26302385330200195, 0.2744770646095276, 0.3281405568122864, 0.3436703383922577, -0.138394296169281, 0.3338466286659241, -0.019829902797937393, 0.717341423034668, 0.35657069087028503, -0.19128131866455078, 0.26373380422592163, 0.3243602514266968, -0.0342872217297554, 0.046448152512311935, -0.3177569508552551, 0.6266328692436218, -0.4094114601612091, 0.26140058040618896, 0.661709189414978, 0.28581756353378296, -0.0036867784801870584, -0.2612980902194977, 0.20401374995708466, 0.8192000985145569, 0.0924404039978981, 0.14462387561798096, -0.6210470795631409, 0.30555081367492676, -1.288939118385315, 0.20990952849388123, -0.04054513946175575, 0.0627075806260109, -0.04324284940958023, -0.03531092777848244, 0.09297057241201401, -0.009053900837898254, -0.03285485506057739, -0.128640815615654, -0.007101938594132662, -0.1275559365749359, -0.0021060712169855833, 0.25766298174858093, 0.023189624771475792, 0.13273367285728455, 0.02550462633371353, 0.19511394202709198, -0.059974607080221176, 0.04039507359266281, 0.10128644853830338, -0.03396400064229965, -0.5203191041946411, 0.0679035559296608, -0.03813330456614494, -0.03649666905403137, 0.02139156684279442, -0.059740275144577026, 0.07731036096811295, 0.02755102515220642, -0.08548188954591751, -0.10315853357315063, 0.006258477922528982, 0.09224860370159149, -0.04494672268629074, -0.021414462476968765, -0.09674277901649475, -0.13287529349327087, -1.046130657196045, -0.05728845298290253, 0.203569695353508, -0.8219723105430603, -0.007364912889897823, -0.013863335363566875, -0.31650227308273315, 0.728946328163147, -0.12248007953166962, 0.09768956154584885, -0.0736682340502739, -0.10431094467639923, 0.3347308933734894, -0.12317821383476257, -0.028010671958327293, -0.015275736339390278, -0.505534291267395, -0.03408433496952057, -0.002993345260620117, -0.17218635976314545, 0.07369493693113327, -0.3189232647418976, -0.010091240517795086, 0.7408910989761353, 0.025346072390675545, -0.07511437684297562, 0.13308705389499664, 0.5487878918647766, 0.07630018144845963, -0.02206190675497055, 0.029136700555682182, -0.18953680992126465, 0.1329003870487213, -0.18735235929489136, -0.6647433638572693, 0.3949647843837738, -0.04779943451285362, -0.02035597711801529, -0.1078660637140274, 0.08023908734321594, 0.011357614770531654, 0.004233964718878269, -0.15901032090187073, 0.00011136347893625498, -0.597930908203125, -0.030983589589595795, 0.1123204454779625, 0.04087848216295242, 0.6560711860656738, -0.1099507287144661, 0.012602412141859531, 0.3835151195526123, 0.009901509620249271, -0.11480752378702164, 0.010946384631097317, 0.2961370348930359, 0.5701931118965149, -0.02738841250538826, -0.1639997959136963, -0.38724133372306824, 0.09931958466768265, -0.050436608493328094, 0.07111763954162598, 0.0017758230678737164, 0.44953399896621704, 0.08350279927253723, -0.47238850593566895, 0.4456932246685028, -0.1268402338027954, -0.45325934886932373, 0.3345145285129547, -0.18505406379699707, 0.39265525341033936, 0.3234473466873169, -0.03963621333241463, 0.14238940179347992, -0.5455914735794067, -0.3523212671279907, 0.16685473918914795, 0.00425498653203249, 0.23292334377765656, 0.09095827490091324, 0.017985370010137558, 0.32514867186546326, -0.021226825192570686, -0.26408636569976807, -0.12806843221187592, -0.2773723900318146, -0.04111501947045326, 0.003760055173188448, 0.07567502558231354, -0.3426283299922943, -0.05719143524765968, 0.021733183413743973, 0.0418950691819191, -0.51219642162323, 0.2477981150150299, -0.4567126929759979, -0.4638337194919586, -1.0655324459075928, -0.044555407017469406, -0.9890466928482056, -0.20076921582221985, -0.3135955035686493, 0.07347194105386734, 0.0789218470454216, -0.24567638337612152, -0.06841646134853363, -0.33410653471946716, -0.6871885657310486, 0.20582309365272522, -0.2822027802467346, 0.4299503266811371, -0.1764432191848755, 0.08257884532213211, -0.028852935880422592, -0.016712384298443794, -0.7571624517440796, -0.17466938495635986, -0.8903629779815674, 0.18918506801128387, -0.19919130206108093, -0.07801712304353714, -0.9918453693389893, 0.02175823040306568, 0.012439019978046417, 0.2031889110803604, -0.03855140879750252, -1.1883522272109985, -0.011494250036776066, 0.46096235513687134, -0.1469462662935257, -0.0705864429473877, -0.22185148298740387, 0.1743963658809662, 0.01748424954712391, 0.13000591099262238, 0.28235360980033875, -0.43439754843711853, -0.13239236176013947, 0.16724880039691925, -0.39507514238357544, 0.4104388952255249, -0.11004383116960526, 0.11028160154819489, 0.19244994223117828, 0.060141146183013916, 0.6620085835456848, -0.19327425956726074, -0.22328150272369385, 0.010350116528570652, 0.5094559192657471, 0.5169137716293335, -0.16481629014015198, 0.9028981328010559, -0.7922704815864563, 0.048086024820804596, -0.10353894531726837, -0.03487235680222511, -0.5060071349143982, 1.0537316799163818, -0.5096961259841919, -0.5764057040214539, 0.3591420352458954, -0.19653312861919403, -0.7737810611724854, -0.5812497735023499, -0.44909027218818665, 0.2942288815975189, 0.1916755586862564, -0.4466642141342163, 0.08490286022424698, -0.2949599027633667, -0.44139596819877625, 0.1446891576051712, -0.22659796476364136, 1.1562201976776123, -0.19016683101654053, -0.03426876291632652, 0.24026668071746826, -0.7027496099472046, -1.4054594039916992, -0.027158409357070923, -0.5955634117126465, 0.3894984722137451, -0.06479647755622864, 0.004227857571095228, -0.22339490056037903, -0.05943361669778824, 0.03213181719183922, -0.023808248341083527, 0.11870253086090088, 0.3240745961666107, -0.10156244039535522, -0.828044056892395, 0.3005776107311249, 0.030140835791826248, -0.2678709924221039, 0.08676431328058243, -0.1871076226234436, 0.09629551321268082, 0.08212148398160934, 0.28495457768440247, 0.08222519606351852, 0.15275806188583374, -0.07912909239530563, -0.017620228230953217, -0.07114247232675552, -0.3626154661178589, -0.0928896889090538, 0.13193270564079285, 0.20654313266277313, 0.4448022246360779, 0.15099291503429413, 0.012329780496656895, 0.47598105669021606, 0.3116071820259094, -0.061715707182884216, 0.19077765941619873, 0.09154284000396729, -0.08997922390699387, -0.1183534562587738, -0.35657867789268494, -0.03701692819595337, 0.04312949255108833, 0.011537528596818447, 0.04456616938114166, 0.08565717935562134, -0.002337726764380932, 0.06636232137680054, -0.06521954387426376, 0.2340635508298874, 0.25720247626304626, 0.28755250573158264, 0.22564612329006195, 0.2719040513038635, 0.0836312472820282, -0.07460951805114746, -0.1190958097577095, -0.12652844190597534, -0.9606150984764099, -0.0010035382583737373, 0.046975456178188324, 0.27534958720207214, -0.1316743642091751, 0.012604736723005772, -0.03617453947663307, 0.15224316716194153, 0.15564224123954773, -0.07175932079553604, -0.18541505932807922, 0.2321365773677826, -0.09348592907190323, 0.04975905641913414, -0.46167096495628357, 0.2300463765859604, -0.21307027339935303, 0.47691863775253296, 1.347057580947876, 0.48627471923828125, 0.06541767716407776, 0.2719407379627228, 0.07541452348232269, 1.0663893222808838, 0.04877220094203949, 0.039786674082279205, 1.514311671257019, -0.09171649813652039, 0.35261645913124084, 0.5082550048828125, -0.42915666103363037, 0.3309445381164551, -1.4354050159454346, 0.19947007298469543, 0.005220376420766115, -1.1662017107009888, 1.8916116952896118, 0.25655630230903625, 0.10231021791696548, 1.0761159658432007, -1.6609399318695068, 0.5092219114303589, -0.9659772515296936, 1.1427615880966187, -0.2346418797969818, -0.02309873141348362, -0.4243960380554199, -0.013212383724749088, -0.030661718919873238, -0.13517877459526062, -0.09592180699110031, 0.08003955334424973, -0.2052566260099411, -0.20704138278961182, -0.1322699338197708, -0.06582904607057571, 0.20444591343402863, 0.10251771658658981, -0.001795638003386557, 0.2299073338508606, -0.04452318325638771, -0.05756281316280365, -0.11918497830629349, 0.08028189837932587, -0.13963079452514648, -0.07352989166975021, 0.17581777274608612, 0.24155963957309723, -0.26920637488365173, -0.007598439697176218, -0.14111065864562988, -0.04048195853829384, 0.026449449360370636, 0.07802212983369827, -0.027670981362462044, 0.14244213700294495, -0.3842805027961731, -0.1268846094608307, -0.35049477219581604, -0.13632097840309143, -0.027617665007710457, -0.27684545516967773, -0.09931064397096634, 0.8546813130378723, -0.17721045017242432, -0.19017788767814636, -0.1694677770137787, 1.5249972343444824, 0.3044528663158417, 0.34485116600990295, 0.043743934482336044, 0.20257604122161865, 1.0339487791061401, 0.018831629306077957, -0.08011861145496368, -0.11165767163038254, -0.4589445888996124, -0.09223899990320206, 0.20512883365154266, 0.1706254631280899, -0.7666922211647034, -0.06272010505199432, -0.21171052753925323, -0.6441397070884705, -0.2038886845111847, -0.08935069292783737, -0.7889194488525391, 1.227315902709961, 0.04294359311461449, 0.15111276507377625, 0.07266706973314285, -0.5004028677940369, -0.6897879242897034, -0.3969181478023529, -1.0229378938674927, 0.2878556549549103, -0.005854882765561342, -0.5556100606918335, -0.6830258965492249, 0.41002073884010315, -0.15670530498027802, 0.08654125779867172, -0.2888745665550232, -0.21899402141571045, -0.2201494723558426, -0.5929251909255981, 0.07159724086523056, -0.2619593143463135, 0.025729797780513763, -0.05506301298737526, 0.16333581507205963, -0.49077853560447693, -0.06509202718734741, -1.0457100868225098, -0.006829448975622654, -0.3418298363685608, -0.14107638597488403, -0.16071011126041412, 0.22889000177383423, 0.3588946759700775, -0.06260360032320023, 0.006032859906554222, -0.10195060074329376, 0.17490960657596588, 0.3928290903568268, 0.07740309834480286, -0.15929225087165833, 0.13677258789539337, 0.05433513969182968, -0.0769178569316864, 0.1056191697716713, -0.09493464231491089, 0.2116740643978119, 0.21526139974594116, -0.012216749601066113, 0.05650532618165016, -0.02675839327275753, -0.023156901821494102, -0.011075610294938087, -0.09341209381818771, 0.4061518609523773, 0.1038014143705368, -0.02757141925394535, 0.13613374531269073, 0.10515870153903961, 0.14098607003688812, -0.061785727739334106, -0.21305465698242188, -0.17599380016326904, 0.017257897183299065, -0.2953324615955353, -0.06823326647281647, -0.012803894467651844, -0.07125595957040787, -0.05715348199009895, -0.00934977550059557, -0.07293733954429626, 0.04608350992202759, -0.2379017025232315, 0.050337933003902435, 0.07856161892414093, -0.1107298955321312, -0.03804244473576546, -0.010491116903722286, 0.041639335453510284, 0.046862661838531494, 0.08054113388061523, -0.022572457790374756, -0.04526190087199211, -0.06794004887342453, 0.04312216863036156, -0.0015985555946826935, -0.010773793794214725, 0.021109335124492645, 0.050295066088438034, 0.11269862949848175, -0.03356717526912689, 0.03165750205516815, 0.07046422362327576, -0.12554851174354553, 0.13156279921531677, -0.1313660740852356, -0.05981319397687912, 0.02789481170475483, -0.020520886406302452, 0.040460966527462006, -0.14987944066524506, 0.09402427822351456, 0.8063035607337952, 0.11033613979816437, -0.13785545527935028, 0.24875357747077942, -0.06819100677967072, 0.2583186626434326, 0.01623982936143875, -0.19652672111988068, 0.0940903052687645, 0.14117871224880219, -0.01799364946782589, -0.032059866935014725, -0.3625462055206299, 0.3180497884750366, -0.2579965889453888, 0.10518477857112885, 0.845723032951355, -0.05674144998192787, -0.0010039277840405703, -0.1254817396402359, -0.05985138565301895, 0.12682804465293884, -0.07534851133823395, -0.4010923504829407, -0.6221279501914978, 0.2871164083480835, -0.4721899926662445, -0.18318389356136322, -0.022474411875009537, 0.04980587586760521, -0.059100281447172165, 0.17993506789207458, -0.15855015814304352, 0.2631259560585022, 0.3234497904777527, 0.23097528517246246, 0.06614667922258377, 0.21212156116962433, -0.20744113624095917, 0.7514076828956604, -0.05299286171793938, -0.014193560928106308, 0.7239215970039368, 0.0591147355735302, 0.08502276241779327, 0.15543510019779205, 0.06917769461870193, -0.02511497586965561, -1.0882847309112549, 0.06816843152046204, 0.05549807474017143, -0.3505620062351227, 0.6540927886962891, -0.07589198648929596, 0.042712628841400146, 0.3959185779094696, -0.10264057666063309, 0.14791437983512878, -0.3152642846107483, 0.2393030971288681, 0.05956737697124481, 0.044747740030288696, -0.2645729184150696, -0.055101580917835236, -0.3390449583530426, 0.18223287165164948, -1.0833992958068848, -0.21336796879768372, -0.04731554538011551, 0.04960951954126358, -0.7607563138008118, 0.5750551819801331, 0.1737833321094513, 0.1785668134689331, 0.13764269649982452, -0.16519686579704285, 0.10914667695760727, -0.11720990389585495, -0.011895126663148403, -0.06692590564489365, -0.02129138633608818, -0.06686408817768097, -0.02604670636355877, 0.13262569904327393, -0.1741456538438797, -0.5739973783493042, -0.09621161222457886, -0.5441665053367615, -0.2737025022506714, -0.11171681433916092, -0.4568735957145691, 0.33885136246681213, 0.018730591982603073, -0.07682060450315475, 0.07550213485956192, 0.059282705187797546, 0.12750430405139923, -0.07490094006061554, -0.24997183680534363, 0.21552100777626038, -0.003920193295925856, -0.12351860105991364, 0.24724234640598297, -0.04255622997879982, 0.03542494401335716, 0.20158766210079193, 0.11408628523349762, -0.047182489186525345, -0.006441629491746426, -0.10937178134918213, -0.016684982925653458, -0.06430638581514359, 0.19251534342765808, 0.14732211828231812, 0.02299160324037075, 0.057035330682992935, 0.03242674097418785, -0.015247691422700882, -0.042376622557640076, -0.2655336856842041, -0.1657998263835907, -0.03708744794130325, -0.08990436047315598, -0.2195058912038803, -0.039391424506902695, 0.06258713454008102, -0.4114840626716614, 0.5884813070297241, 0.40935972332954407, 0.4832691550254822, 0.4939587116241455, 0.4392067790031433, 0.13846364617347717, 0.916481614112854, 0.6702561378479004, 0.2871958911418915, 0.039687588810920715, 0.16353046894073486, 0.6154780983924866, -0.09690269827842712, -1.0160781145095825, 0.9401465654373169, -0.40795567631721497, 0.34989312291145325, 0.3095434308052063, 0.39224478602409363, -0.0011767166433855891, -1.085546851158142, 0.9668545722961426, 1.38893461227417, -0.042107366025447845, -0.23347429931163788, -1.9072860479354858, 0.45945632457733154, -1.5700830221176147, 0.14160776138305664, 0.14791437983512878, -0.019695572555065155, 0.03681420534849167, 0.03450780361890793, 0.010715018026530743, -0.09291532635688782, -0.15891613066196442, 0.04219648241996765, -0.044777579605579376, -0.2410126030445099, 0.06172160804271698, 0.3015333116054535, -0.07845715433359146, 0.15147408843040466, -0.053283195942640305, -0.1298774927854538, 0.03958553075790405, -0.050661101937294006, 0.17016072571277618, 0.21269109845161438, -0.14853283762931824, 0.08953089267015457, -0.0250686202198267, -0.03865217790007591, 0.11805932223796844, -0.000676617375575006, -0.0723726823925972, -0.057535670697689056, 0.04636669158935547, 0.003694877726957202, 0.09503728896379471, 0.10411929339170456, 0.04725826159119606, -0.005306272767484188, 0.14931917190551758, 0.02285042405128479, 0.10576876252889633, -0.211665540933609, -0.4026048481464386, -0.4396283030509949, -0.13999028503894806, -0.4506961405277252, 0.7915387153625488, 0.5665436387062073, 0.1262628138065338, -0.06187291070818901, -0.8345805406570435, 0.012002660892903805, -0.19580170512199402, -0.5376131534576416, 0.020737623795866966, -0.22329317033290863, 0.492838591337204, -0.12429510802030563, -0.010802429169416428, 0.7023670077323914, -0.3646461069583893, 0.2655259072780609, -0.0015004882588982582, -0.7073447108268738, 0.2175799161195755, -0.32617661356925964, 0.1546301394701004, -1.5418517589569092, 0.22950413823127747, 0.1392347663640976, 0.041513171046972275, 0.7153090834617615, -0.5320301651954651, 0.40483757853507996, -1.5343414545059204, -0.8623253107070923, 0.11429229378700256, 0.441689133644104, 1.549401044845581, 0.4521338641643524, 0.04763856902718544, 0.08297547698020935, -0.07502217590808868, 0.5049264430999756, -5.127251148223877, 0.28584280610084534, 0.21309508383274078, 0.27437230944633484, -0.113576740026474, 0.16997501254081726, 0.017666613683104515, 0.04201803356409073, -0.3861141800880432, 0.8818961381912231, 0.18139876425266266, 0.32062941789627075, 0.3269365727901459, 0.05489543080329895, -0.23379787802696228, -1.6971681118011475, 0.13372072577476501, 0.07060814648866653, 0.3157287836074829, -0.6455225348472595, 0.009032531641423702, -0.7646937370300293, -0.7641488313674927, 1.0717724561691284, -0.24042220413684845, -0.9838796257972717, -0.17452269792556763, 1.143568515777588, 0.0009512012475170195, -0.09272078424692154, -0.19291523098945618, 0.42056384682655334, -3.0431790351867676, -0.6589411497116089, 0.5762858390808105, -0.09669418632984161, -1.1838363409042358, -0.18811562657356262, -0.12376556545495987, 0.3657403290271759, -0.470777302980423, -1.011418104171753, -0.18480199575424194, 0.8402702808380127, 1.4402706623077393, -0.25777938961982727, 0.13919684290885925, -0.3462594449520111, 0.23614948987960815, 0.07052548974752426, 0.08979278802871704, 1.031919240951538, 1.388047695159912, 0.4795578420162201, -0.918185293674469, -0.12158601731061935, 0.1699657440185547, 0.8098145127296448, 0.23631881177425385, -0.04322297126054764, 0.01461753062903881, 0.005948305130004883, 0.31763094663619995, -0.02297717146575451, 0.8902435898780823, 0.5517382025718689, 0.355072557926178, 0.3584250509738922, 0.21743717789649963, 0.15862621366977692, -0.03560876101255417, 0.4803313612937927, 0.5912878513336182, 1.1726031303405762, 0.20992277562618256, 0.33351007103919983, 0.08615849167108536, 0.10891634225845337, -0.517242968082428, -0.08215902745723724, 0.10040933638811111, 0.01969057507812977, 0.43251582980155945, -1.0671180486679077, 0.44928625226020813, -0.9883352518081665, -0.527347981929779, 1.8925083875656128, -0.34192705154418945, -0.867885410785675, 0.16558122634887695, 2.4835867881774902, -0.042930345982313156, 0.048465654253959656, -0.46638593077659607, 0.01314568892121315, 1.2634776830673218, -0.29811206459999084, 0.7051795721054077, -0.13811998069286346, -1.125610113143921, -0.3265063166618347, 0.16706137359142303, 0.7235074043273926, -1.036469578742981, -0.9503366947174072, 0.0432116873562336, 1.1658787727355957, 1.6231818199157715, -0.3148241937160492, 0.03092607669532299, -0.588128387928009, 0.3342430293560028, 0.03556608036160469, 0.3062852621078491, 0.6873945593833923, 1.5924758911132812, 0.4932933449745178, -1.001089334487915, -0.04304979369044304, 0.09044339507818222, 0.6295010447502136, 0.18174944818019867, -0.905793309211731, -0.006943220738321543, 0.2529013156890869, 0.6282097101211548, 0.4163099229335785, -1.0816264152526855, 0.5496745109558105, 0.24004147946834564, 0.0929122194647789, -0.5004215240478516, 0.21403108537197113, -0.0006210525170899928, 0.7002249956130981, 1.2415214776992798, 0.3348775804042816, 0.089460089802742, 0.13669736683368683, 0.0014515118673443794, -0.019342174753546715, 0.680949866771698, -0.10402921587228775, 0.5512287616729736, -0.053882963955402374, 0.5132009983062744, -0.7877200841903687, 1.0292973518371582, -0.41552460193634033, -0.08924326300621033, -0.9426872730255127, -0.2595522105693817, -1.170332431793213, 0.23043063282966614, -0.22334498167037964, 0.023623479530215263, -0.032703906297683716, -0.3406980633735657, 0.5012272596359253, -1.265146017074585, -1.8464109897613525, 0.8560641407966614, -0.6553357243537903, -0.31668680906295776, -0.374002069234848, 0.12349332123994827, 0.8498077988624573, -2.141282558441162, -0.6671350002288818, 0.041600264608860016, -0.5270369052886963, 1.9285727739334106, -0.8006461262702942, 1.286429524421692, -2.7296810150146484, 0.36921608448028564, -0.03632889315485954, -0.3526891767978668, 1.6413569450378418, 0.23005826771259308, 1.374200463294983, -0.6028102040290833, -0.950154185295105, 0.37635937333106995, 2.1128129959106445, -0.41615647077560425, -0.03659268096089363, -0.022710422053933144, 0.38462817668914795, 1.0073965787887573, 0.4346880316734314, -3.414124011993408, 1.0981757640838623, -0.34629884362220764, 0.8172262907028198, 1.0629535913467407, 0.9158646464347839, -0.13051538169384003, -1.179794192314148, 0.4314119219779968, 3.016650915145874, 0.07323966920375824, 0.24596352875232697, -0.21987155079841614, 1.015733242034912, -1.9453967809677124, 2.4308345317840576, -0.0626821294426918, -0.04697336629033089, -0.002026152331382036, -0.16901741921901703, -0.8980086445808411, -0.2642640471458435, -2.1199731826782227, -0.289335697889328, 0.0875391736626625, -0.4506421983242035, 0.9213321208953857, 0.6025385856628418, -0.29123857617378235, -0.3163760304450989, 0.3957920968532562, -0.08821611106395721, -1.5702612400054932, -0.13303214311599731, 0.10597223788499832, 0.04670647904276848, 0.048711273819208145, 0.11952012777328491, -0.029272647574543953, 0.06345541030168533, 1.717125654220581, 0.4074918329715729, -0.12860265374183655, -0.07075274735689163, 0.10805957019329071, 0.05552585422992706, -0.3103298544883728, -1.2055586576461792, -0.3988663852214813, 0.16779527068138123, -0.419977068901062, 0.4151517450809479, 0.6504194736480713, 0.33722466230392456, 0.3155321180820465, -0.0790809616446495, 0.4778963029384613, 0.9257827997207642, 1.523115873336792, 0.9755683541297913, 0.04318434000015259, 0.20225663483142853, 0.7674386501312256, 0.00336443935520947, 1.0678828954696655, 1.218976378440857, -0.24251575767993927, 0.8992091417312622, 2.3746798038482666, 0.4567064046859741, 0.02399528957903385, -1.11936354637146, 0.049675073474645615, 1.4524043798446655, 0.032442331314086914, 0.47884905338287354, -1.591625690460205, 0.5990816950798035, -0.9793354272842407, 2.513326644897461, 0.040418751537799835, -0.14733834564685822, 0.050861191004514694, 0.157974973320961, -1.4403773546218872, -0.1449299156665802, 0.3728228807449341, 0.0766267254948616, 0.002952439710497856, -0.09852070361375809, -0.017397964373230934, 0.236550435423851, -0.040452536195516586, -0.1512525975704193, 0.7911526560783386, -0.4862382411956787, -0.4154701232910156, 0.17058292031288147, 0.10284163057804108, 0.19725701212882996, 1.6403506994247437, -0.01858193427324295, -0.1223418116569519, 0.3436962962150574, 1.453420639038086, 0.3042536675930023, -0.004426652565598488, 0.31624719500541687, 0.32802510261535645, 0.10057514905929565, -0.39257779717445374, -0.5793370604515076, -0.1332755982875824, -0.09717191755771637, 0.060973864048719406, 0.5499507188796997, -0.14050863683223724, 0.11280298978090286, 1.6212496757507324, -0.139250710606575, -0.13319525122642517, 0.1196509525179863, 1.2314412593841553, 1.9336702823638916, 0.01098985318094492, 0.23561081290245056, 1.3459417819976807, 0.06657370179891586, 1.5981075763702393, -0.2514314353466034, 0.5094926953315735, -0.0445539616048336, 2.937971353530884, -0.2022624909877777, 0.21638043224811554, 0.4905319809913635, 0.933739185333252, 1.31293523311615, 0.10864701122045517, 1.8466168642044067, 0.5108760595321655, -0.012367866933345795, 0.3653324544429779, 2.0227065086364746, 0.14308226108551025, -0.08075730502605438, -0.10248842090368271, 0.31374359130859375, -0.00604482414200902, -0.08780504018068314, -0.601356565952301, -0.6573019027709961, -0.03390596807003021, -0.10896895080804825, -0.16357704997062683, -0.29311469197273254, -0.08339240401983261, -0.03747689723968506, -0.06889041513204575, -0.08571960777044296, -0.27394992113113403, -0.17998725175857544, 0.18233336508274078, 0.11199415475130081, 0.8658443689346313, 0.14381098747253418, -0.05861913040280342, 0.4893452227115631, -0.896846354007721, 0.08795218914747238, -0.009412499144673347, -0.9857796430587769, 0.6116815805435181, 0.020781325176358223, 0.3956100344657898, -0.10314307361841202, -0.351332426071167, 0.13273316621780396, -1.0503394603729248, 2.6219961643218994, 1.1220827102661133, 2.358440399169922, 0.33342573046684265, -1.0073004961013794, 0.7983012795448303, 2.9576470851898193, 2.6613948345184326, 2.906179666519165, -0.05581370368599892, -0.08145072311162949, -0.6339198350906372, -0.3163720369338989, -1.920307993888855, 2.9408175945281982, -1.4105677604675293, 1.4264707565307617, 1.074371576309204, 1.3107937574386597, -0.16052503883838654, -1.0538808107376099, 0.5641613006591797, 3.8144688606262207, 0.48084792494773865, -0.8417984843254089, -2.0063230991363525, 1.3961262702941895, -4.0995049476623535, -3.1325714588165283, 0.11326006799936295, -0.11593259871006012, 0.02323968894779682, -0.012078303843736649, 1.6714626550674438, -0.11880341917276382, -0.754798948764801, 2.0242888927459717, 0.04590783268213272, 0.16824881732463837, 0.3551062345504761, -0.44301095604896545, -0.044372595846652985, -0.10634153336286545, 0.619880199432373, -0.11128591746091843, -0.3498760163784027, -0.034563709050416946, -0.005314819049090147, 0.25714051723480225, -0.069233238697052, 0.022180626168847084, -0.05593517795205116, -0.1963413655757904, 0.6685344576835632, 0.44460824131965637, -0.04016706719994545, -0.7294759750366211, 0.2613891661167145, 0.2581554353237152, -0.23396611213684082, 0.09211952984333038, -0.030793705955147743, -0.01646135188639164, -0.43083301186561584, 0.13936012983322144, 2.0506505966186523, 0.23109766840934753, -1.7066458463668823, 0.5135194063186646, 0.0408577024936676, 0.07363130152225494, 0.19651509821414948, -0.5148575901985168, -0.13378672301769257, -0.2504790425300598, -1.7073752880096436, -0.18609550595283508, -1.776803731918335, 0.1303437501192093, -0.5702304840087891, 0.17763662338256836, -3.0892174243927, 0.10723493993282318, -0.055235374718904495, -0.5303021669387817, -2.8008813858032227, 0.2742561101913452, 0.015198598615825176, -3.2346317768096924, -0.4006565511226654, 0.315851092338562, -1.2752916812896729, -0.6349819302558899, 0.013707048259675503, -0.013901003636419773, -0.20748044550418854, 0.09498477727174759, -0.013456260785460472, 0.05554693937301636, 0.38988637924194336, 0.18396280705928802, 0.10919007658958435, 0.31782594323158264, -0.03331822529435158, 0.1697126179933548, -0.032204266637563705, -0.02579522132873535, -0.19784216582775116, -0.1576918512582779, -0.23137177526950836, 0.35389330983161926, -0.21918685734272003, 0.13646869361400604, 0.5951632261276245, 0.25946229696273804, 0.10694489628076553, -0.339230477809906, -0.1029924601316452, -0.19866837561130524, 0.11246136575937271, -0.059480346739292145, -0.34250929951667786, 0.10868211835622787, -0.8265674114227295, -0.3630111813545227, -0.052238527685403824, -0.05106453225016594, 0.3941909670829773, -0.08298961073160172, -0.2998448312282562, -0.2283579260110855, 0.4353591203689575, -0.541126012802124, -0.07201492786407471, -0.046718060970306396, -0.29587361216545105, 0.5251783728599548, 0.1898183971643448, 0.29667869210243225, 0.09668128937482834, 0.14536137878894806, -0.7451017498970032, -0.33161866664886475, 0.5401325225830078, -0.31573179364204407, 0.7735870480537415, -0.10095322132110596, 0.17993265390396118, 1.2890374660491943, 0.749495267868042, 1.2378144264221191, -0.15831142663955688, 1.28799569606781, 1.3227580785751343, -0.422340452671051, 1.9409927129745483, 0.21598440408706665, 0.12202254682779312, -0.2433997541666031, 0.826316237449646, -0.9757474660873413, -0.8231812119483948, -1.075200080871582, 0.6564114093780518, 0.38252824544906616, -0.5142584443092346, -0.628195583820343, 0.08731256425380707, 0.04528681933879852, -0.1015964150428772, 0.05282697454094887, 1.5932722091674805, 0.5788204669952393, -0.3317030072212219, -0.6161852478981018, 0.7106587886810303, -1.0375510454177856, 0.7995262145996094, -1.0581252574920654, 0.019680798053741455, 0.2761025130748749, 2.517463207244873, 1.3497705459594727, -0.2586354613304138, 4.072409629821777, 0.45048296451568604, -1.2328553199768066, 1.911251425743103, 2.6800498962402344, -0.05068134516477585, -0.029072068631649017, 0.016399797052145004, -0.2689753770828247, 0.717064380645752, -0.47742438316345215, 0.20119233429431915, 0.9403215646743774, -0.25603508949279785, -0.1993250846862793, 0.07249946892261505, 0.16483651101589203, 0.1473480761051178, 0.12616968154907227, -0.2906879186630249, -0.03213505446910858, -0.42547842860221863, -0.18875227868556976, 0.21851643919944763, -0.35182029008865356, 0.28488343954086304, -0.0605672262609005, 0.17073050141334534, 0.22689953446388245, 0.20433790981769562, 0.10198470205068588, -0.0637875497341156, 0.9859476089477539, 0.013103539124131203, -0.46354877948760986, 0.1504918336868286, -0.6651036739349365, 0.12032131850719452, -0.1751255840063095, 1.0927693843841553, -1.5800211429595947, 0.9228819608688354, -1.4714618921279907, -1.4097912311553955, -0.18646401166915894, -0.9214679002761841, -2.729417085647583, -0.8825411200523376, -0.9791991710662842, 0.1657140851020813, 0.020342113450169563, 0.7180983424186707, 0.5632003545761108, -0.323566198348999, -2.564847469329834, 1.0651401281356812, -1.9016155004501343, -0.8166407346725464, -1.2642542123794556, -0.06979767233133316, 0.23127126693725586, 1.6134814023971558, -0.6033591032028198, -0.3796767592430115, 2.6200311183929443, 0.9014670252799988, -2.5484092235565186, 1.9321855306625366, -0.0017914584605023265, -0.05949842184782028, -0.02459488995373249, -0.09632480889558792, -0.11602012068033218, 1.0285089015960693, -0.03578697144985199, 0.581087589263916, 0.22016660869121552, -0.07041387259960175, 0.14189468324184418, -0.2089691013097763, -0.29363584518432617, -0.012570100836455822, 0.03116804175078869, 0.2037719041109085, 0.01897933892905712, 0.09326404333114624, 0.37014567852020264, -0.10409453511238098, 0.08891845494508743, 1.215956211090088, -0.037171073257923126, 0.09076093882322311, -0.04535447433590889, 0.46143490076065063, -0.07529057562351227, -0.031057486310601234, 0.48801887035369873, -0.7600759267807007, 0.0026160406414419413, -1.526434302330017, -0.4831739366054535, -0.014077234081923962, -0.03554575517773628, 0.06833669543266296, 0.5615385174751282, 2.3592634201049805, 0.5741977095603943, 1.440701961517334, 1.476824164390564, -0.1097644567489624, 0.3309098184108734, 0.9030749797821045, -0.240517720580101, 0.024704955518245697, 0.14833180606365204, 0.19354835152626038, -0.09647084772586823, 2.1548242568969727, 0.39114487171173096, -0.1326361745595932, 0.2165723741054535, 0.6657034158706665, -0.008793121203780174, 0.11086198687553406, 0.09122167527675629, -0.3087291419506073, 1.3266081809997559, 0.01183619350194931, -0.5409244894981384, -0.42701730132102966, 0.19041119515895844, -0.5534613728523254, 0.5073100924491882, -0.06382057815790176, 0.14699740707874298, -0.3920779824256897, 0.975637674331665, 1.8882081508636475, 1.0201863050460815, -0.023221518844366074, 0.8759832382202148, 0.32301753759384155, 1.0962730646133423, 1.2090656757354736, 2.7425971031188965, -0.07621701061725616, 0.08520590513944626, 0.17850852012634277, -0.14793476462364197, -0.6895262598991394, 1.0014441013336182, -0.5103635191917419, 0.6789922118186951, 1.9530435800552368, 0.6673099994659424, -0.0702020525932312, -0.5454212427139282, -0.13171063363552094, 1.6967830657958984, 0.12184283882379532, -2.0412538051605225, -1.428249478340149, 0.9663944840431213, -2.2368884086608887, 0.6143786311149597, 0.14647012948989868, -0.0820094645023346, 0.8538833856582642, -1.5364915132522583, 3.8107950687408447, -1.5625767707824707, 1.499006986618042, 0.12586632370948792, -0.6378087401390076, -2.648320436477661, -1.4098966121673584, -1.3404706716537476, 0.19313736259937286, 0.18421851098537445, 0.8327962160110474, 0.35155266523361206, 2.3205349445343018, -2.3807389736175537, 0.9110375642776489, -1.2131397724151611, 0.08142539858818054, -1.0090893507003784, 0.194471538066864, 0.9175006151199341, -0.06768421828746796, -1.6061729192733765, -0.28199586272239685, 0.9653668403625488, 1.0331199169158936, -1.3826044797897339, 2.4519126415252686, 1.4282639026641846, -0.004260649438947439, 0.1645362824201584, -0.740375816822052, 0.4542156755924225, 0.489105761051178, 0.6232061386108398, -1.7868919372558594, 1.451522946357727, 0.4183063805103302, 0.5708550810813904, 0.03208373114466667, 0.6832214593887329, 0.12620766460895538, 0.0020917048677802086, -0.4871784746646881, -0.08654162287712097, -0.8961206078529358, 0.5717495083808899, -0.46899908781051636, 0.4012393057346344, 0.4914208650588989, 0.5175166726112366, -0.030975183472037315, -1.6171596050262451, -0.6386381983757019, -0.503508985042572, 0.18465176224708557, -1.0392119884490967, -1.4909917116165161, 0.5631862282752991, -1.9844025373458862, -0.8107975125312805, -0.09403559565544128, 0.04131881892681122, -0.14588257670402527, 0.660757303237915, 1.1942734718322754, 0.6167190074920654, -0.40661177039146423, -0.760918915271759, 0.22103288769721985, 0.6311530470848083, 0.7032373547554016, 1.3552474975585938, 0.10225242376327515, 0.2718007266521454, -0.2800460457801819, 0.03254815191030502, -1.448310136795044, 0.5671781897544861, -0.35391709208488464, 0.2432072013616562, 0.3514721989631653, 0.39293450117111206, 0.05342972278594971, 0.3985682725906372, -0.16526299715042114, 1.0514506101608276, 0.0883643627166748, 0.11210359632968903, 0.151483952999115, 0.10467520356178284, -1.4515957832336426, -0.5071737766265869, -0.013007665053009987, 9.531292016617954e-05, -0.22991839051246643, -0.46294206380844116, 0.9205047488212585, -0.2553272545337677, -1.596131682395935, 0.36812978982925415, -0.08784107118844986, -0.3204811215400696, -1.0096203088760376, 0.011830861680209637, -0.048389777541160583, -0.004796445369720459, 0.018651152029633522, -0.14482012391090393, -1.1386284828186035, -0.2502475082874298, -0.21244771778583527, 0.033359725028276443, 0.37470874190330505, -0.0861716940999031, -0.025861410424113274, 0.13069260120391846, 0.738608717918396, -0.7160401344299316, 0.1491425782442093, -0.3163263499736786, -0.33966824412345886, 0.05992436036467552, -2.6458323001861572, 0.1257045716047287, 0.08901380747556686, 0.05045155808329582, 0.12001659721136093, -0.20086230337619781, -1.4360172748565674, -0.06250672787427902, 1.2767571210861206, -0.2366926074028015, -0.004404294304549694, -0.286713182926178, -0.2098594605922699, -0.9814437627792358, 0.02132914960384369, 0.0012452845694497228, -0.5664536356925964, -0.1183483749628067, 0.6617279648780823, -0.19868503510951996, -0.20781844854354858, 0.036920543760061264, -0.2273896187543869, -0.03286724537611008, -0.10290665924549103, -0.24335063993930817, -1.5485962629318237, -0.04419020563364029, 0.09673719853162766, -0.6410340070724487, -0.6457197666168213, -0.1646425724029541, 0.028352970257401466, 0.46672263741493225, -0.2203439176082611, 0.32776889204978943, -1.5576390027999878, 1.2169240713119507, -0.008053448051214218, 1.3752697706222534, -0.772477388381958, -0.35774746537208557, 1.0644739866256714, 2.215649366378784, 0.7452793121337891, 0.6330272555351257, -0.10461264103651047, -0.1359986960887909, -0.06539047509431839, -0.8889856338500977, -0.9856467843055725, 1.9769437313079834, -2.4244515895843506, 1.7389103174209595, 3.870891809463501, 1.2627670764923096, 0.24131275713443756, -2.0486369132995605, 0.32264623045921326, 0.7975587844848633, 0.6547828316688538, -0.7136973738670349, -3.185133695602417, 1.729271650314331, -3.2320244312286377, -1.0473238229751587, -0.20647460222244263, 0.15111246705055237, -0.6637114882469177, 0.2444332093000412, 0.9996690154075623, 0.4079856276512146, 0.7327052354812622, -0.6568688750267029, 0.42323222756385803, 1.0971248149871826, -0.038158200681209564, -0.31083056330680847, -0.1300702840089798, -0.10435366630554199, -0.38414114713668823, -0.4196370542049408, 0.012809153646230698, 0.8369646668434143, -0.9413271546363831, 0.8744643926620483, 3.289583921432495, 0.608224630355835, -0.014233876019716263, -0.8233523964881897, 0.11890333145856857, -0.01458500325679779, 0.18897658586502075, -0.6059786677360535, -1.236919641494751, 1.0307424068450928, -1.304842472076416, -1.3262706995010376, 0.305612176656723, -0.1686968058347702, 0.9985147714614868, -2.52701997756958, -1.3420329093933105, -1.754103660583496, -0.1641608625650406, -0.7832256555557251, -1.1021052598953247, -2.578181028366089, -3.440070629119873, -2.962200403213501, 0.14165133237838745, 0.01872965320944786, 1.2568702697753906, 0.4005897045135498, -1.193751335144043, -2.33339262008667, 0.5512025952339172, -1.4183870553970337, -1.809775710105896, -1.2169009447097778, -0.19326786696910858, -1.1772228479385376, 1.4900243282318115, -4.7328619956970215, -0.28750714659690857, 0.4257259964942932, -0.3749558925628662, -1.8090485334396362, 1.1123467683792114, -0.15886957943439484, -0.0394420325756073, -0.009238040074706078, -0.12006551772356033, -0.18146494030952454, -0.7277569770812988, -0.09678026288747787, 0.5313103199005127, -0.6714690327644348, 0.04733394458889961, -0.10205511003732681, -0.0917881652712822, 0.1080896183848381, 0.02586347982287407, 0.15519322454929352, -0.5357614159584045, -0.042678747326135635, 0.14818622171878815, -0.2024453580379486, -0.06528184562921524, -0.02832576259970665, 0.495098739862442, 0.09235011786222458, 0.1588950902223587, 0.30742505192756653, -0.9329512715339661, -0.10472256690263748, -0.06362501531839371, -0.5106338858604431, 0.1273847222328186, -0.0011345676612108946, -0.109743632376194, -0.7241463661193848, 0.13735856115818024, -0.153353750705719, 0.3920891582965851, -1.3282561302185059, 0.3732850253582001, -1.1286391019821167, 0.7852920889854431, 0.6023548245429993, -0.33839309215545654, -2.1402270793914795, -1.2408459186553955, -0.1524222195148468, 0.15628086030483246, 0.15674570202827454, -0.4608220160007477, -0.006744497921317816, -0.6929224133491516, -1.8557226657867432, 0.4211820363998413, -1.5274393558502197, -0.11804768443107605, -0.6083317995071411, 0.07830630987882614, -0.12521237134933472, 1.8636970520019531, -1.3713295459747314, -0.39204540848731995, 1.7428838014602661, 0.3443922996520996, -1.424812912940979, 0.8471611738204956, -1.1247206926345825, -0.1567007154226303, -0.034349225461483, -0.45379218459129333, 0.13576892018318176, -1.2704828977584839, -0.00029685470508411527, -0.05206812545657158, -0.18249130249023438, 0.13560056686401367, 0.1495516151189804, -0.45565301179885864, -0.4253324568271637, -0.08242931216955185, -0.043655481189489365, -0.6409071087837219, -0.3034322261810303, -0.8543859720230103, 0.15731117129325867, -0.2949468195438385, 0.15044094622135162, 1.234544277191162, 0.21444635093212128, 0.041414227336645126, -1.0569289922714233, -0.5744828581809998, -0.5447693467140198, -0.030395295470952988, -1.2320926189422607, -1.1042579412460327, 0.211947962641716, -0.9424059391021729, -2.1171224117279053, 0.08601881563663483, -0.15664111077785492, 0.08693087846040726, -0.16038022935390472, 0.1890832781791687, -0.13367857038974762, 0.007341310381889343, 0.06382083147764206, 0.060970693826675415, 0.10472079366445541, -0.1012621521949768, 0.12848518788814545, -0.08417252451181412, -0.0661703571677208, -0.04425317794084549, -0.1785985678434372, -0.1450577825307846, 0.24967442452907562, -0.03072926215827465, 0.056253477931022644, 0.9014539122581482, 0.21852163970470428, -0.04765141382813454, -0.17171384394168854, 0.3510601818561554, 0.20744213461875916, 0.09368526935577393, 0.05017197132110596, -0.08205478638410568, -0.0015640544006600976, -0.33863940834999084, -0.24611711502075195, 0.04141814634203911, -0.08113814890384674, -0.202963188290596, -0.02998022548854351, -0.2740992307662964, 0.04108025133609772, -0.008963673375546932, -0.09891048818826675, -0.015392906963825226, 0.23537807166576385, -0.25354257225990295, -0.04130561649799347, -0.09894154965877533, 0.040165118873119354, -0.017560943961143494, -0.19140981137752533, -0.34279170632362366, 0.09849090129137039, -0.08487716317176819, -0.04131826385855675, 1.4633128643035889, 0.1841038465499878, -0.07444977760314941, -0.4445219933986664, 0.26463478803634644, -0.0015549709787592292, 0.12177488207817078, -0.1159808486700058, -0.4231916069984436, -0.04778008535504341, -0.23484107851982117, -0.5540024042129517, -0.05452093854546547, 0.02306901477277279, 0.04860701039433479, -0.06607729196548462, 0.59029620885849, -0.08432988822460175, 1.747114896774292, -0.3975844383239746, -0.15738151967525482, -0.01086149737238884, -0.08968834578990936, -1.0866129398345947, 0.09551916271448135, 0.19177541136741638, 0.35040396451950073, 0.03762844204902649, 3.5168087482452393, -0.02153310738503933, -0.33116933703422546, -0.10330455005168915, 0.1392020434141159, -0.07954961806535721, 0.18889203667640686, -0.4274102449417114, -1.1378487348556519, 0.29438841342926025, -0.0767369493842125, -0.7111782431602478, -1.7729754447937012, 0.009302375838160515, -0.69619220495224, 1.2425181865692139, -0.0863778367638588, 0.14114926755428314, -0.8800734877586365, 1.4663355350494385, 0.3213129937648773, 1.0604846477508545, -1.4614933729171753, 1.0148522853851318, 0.5296711325645447, 1.3666770458221436, 1.9880292415618896, 1.4974929094314575, -0.11036283522844315, 0.06049514561891556, -1.0738688707351685, -0.41536298394203186, -1.5480053424835205, 1.2857282161712646, -1.0407049655914307, 0.8406163454055786, -0.20514610409736633, 0.8997846245765686, 0.15505176782608032, -0.12018050253391266, -1.4850176572799683, 1.2811967134475708, 0.2546154260635376, -1.474908709526062, -0.3424263894557953, 1.0117931365966797, -3.0388593673706055, -0.08944419026374817, 0.4409635066986084, 0.036717161536216736, 0.539580762386322, -1.0293092727661133, 0.14246876537799835, -0.8508593440055847, -0.4492976665496826, -0.43865931034088135, -0.7758886218070984, -2.1821508407592773, -0.8686546087265015, -0.7746646404266357, 0.03674923628568649, 0.11577925831079483, -0.2593352496623993, -0.11233252286911011, -0.6676555275917053, -1.7905374765396118, 0.29751262068748474, -1.1097679138183594, -0.7063654661178589, -0.7473185062408447, -0.13518847525119781, -0.5454705953598022, 0.8199539184570312, -0.7404423952102661, -0.33860379457473755, 0.8837544322013855, -0.2648739218711853, -0.913913369178772, 0.39429718255996704, -0.8944804668426514, 0.07958024740219116, -0.11865914613008499, 0.17720159888267517, -1.1294740438461304, -0.1251179426908493, -0.9954856634140015, -1.1758177280426025, -0.5813440084457397, -0.3225451111793518, -2.129312753677368, -1.3624919652938843, -0.8208210468292236, 0.2922966778278351, 0.14968879520893097, -0.039016690105199814, 0.09555239975452423, -0.7274401187896729, -1.734392523765564, 0.2679390609264374, -1.1771736145019531, -0.9413366317749023, -0.4647117853164673, -0.09601923078298569, -0.7639133334159851, 0.5211315751075745, -1.292332649230957, -0.2850464880466461, 0.4880298674106598, -0.22800613939762115, -1.0055184364318848, -0.13855332136154175, -0.9819387793540955, -0.20953191816806793, -0.03159508481621742, -0.01991328038275242, -0.5545691847801208, 2.947277069091797, -0.3778754472732544, 0.11009974777698517, 1.0023016929626465, -0.31561213731765747, -0.8877370953559875, -1.2050822973251343, -1.0807654857635498, 0.38085320591926575, 0.4535919427871704, -0.15805742144584656, 0.04489418864250183, -1.2471312284469604, -0.40539026260375977, -0.0420878641307354, -0.24047687649726868, -1.5733896493911743, -0.22683747112751007, 0.12053200602531433, -0.06300432235002518, -0.33265918493270874, -1.4717068672180176, -0.21444782614707947, -0.568483829498291, -0.7394831776618958, -0.2267211377620697, -0.28176698088645935, -0.0011033453047275543, -0.11487747728824615, 0.1866760551929474, -0.28823035955429077, 0.3197236955165863, -0.05428246036171913, 0.10980335623025894, -0.2438606470823288, 0.23624524474143982, 0.14436602592468262, 0.05157947540283203, 0.16641347110271454, 0.38535699248313904, 0.020420441403985023, 0.04471903666853905, 0.05720227584242821, 0.14366976916790009, -0.28404349088668823, 0.12858901917934418, -0.1735561639070511, 0.04818812757730484, -0.6174936890602112, 0.008942754939198494, 0.003278720425441861, -0.14869731664657593, -0.17504534125328064, 0.021952170878648758, 0.024134894832968712, -0.46877482533454895, 0.057879019528627396, 0.19250419735908508, -0.6041924357414246, 0.41541144251823425, -0.062108173966407776, 0.08408758044242859, -0.35342928767204285, 0.060580261051654816, 0.7933281064033508, 0.11704704165458679, -0.4564049541950226, 0.8254682421684265, 0.13427522778511047, 0.01787189394235611, 0.1392545998096466, 0.874422550201416, 0.13050460815429688, 0.2483331710100174, 0.534324049949646, -0.034353237599134445, -0.13253404200077057, 0.14110760390758514, -0.14405719935894012, 0.08199668675661087, -1.5888499021530151, 0.07319924980401993, -0.036516882479190826, 0.33161017298698425, 0.7715131044387817, 0.07151090353727341, 0.07551798224449158, 0.1824713498353958, -0.04059886559844017, 0.18946512043476105, -2.5348920822143555, 1.3629287481307983, -0.09560119360685349, -0.10287076234817505, -0.13620847463607788, -0.2706196904182434, -1.0072548389434814, -0.2319825440645218, 0.24307510256767273, -0.24493928253650665, 0.026755308732390404, 0.17299412190914154, -0.5082003474235535, -0.9468531608581543, 0.07022331655025482, 0.04620926082134247, -0.48227736353874207, 0.030637674033641815, -0.6321232318878174, 0.10181961953639984, -0.2915825843811035, -0.1598575860261917, -0.4760010242462158, 0.05683637037873268, 0.07330753654241562, -0.7413807511329651, -0.665963351726532, -0.4684494137763977, -0.10094218701124191, -1.179600477218628, -1.2926056385040283, -0.23171046376228333, -2.1588449478149414, -1.9933969974517822, -0.0031168684363365173, 0.0658063068985939, -0.04633058235049248, 0.25830987095832825, 0.4364840090274811, 0.05296707898378372, 0.047788105905056, 0.06124499440193176, -0.06918065249919891, 0.05232931673526764, 0.158875972032547, 0.1371232122182846, -0.09774581342935562, -0.05093388631939888, -0.1197868213057518, -0.09337255358695984, -0.03047361597418785, -0.03151523321866989, -0.002719410927966237, 0.0433943010866642, -0.7120393514633179, -0.04108549654483795, 0.024287670850753784, 0.005375226493924856, -0.2710583209991455, 0.23644064366817474, 0.11754252016544342, -0.041902489960193634, 0.15428097546100616, 0.11402296274900436, 0.00818691123276949, 0.07840568572282791, 0.019769929349422455, -0.023479754105210304, -0.12385194003582001, 0.3052654564380646, 1.2978142499923706, 0.22096695005893707, 0.18115770816802979, 0.35471978783607483, 0.09524758905172348, -0.3249891996383667, 0.5361915230751038, -0.060138966888189316, 0.5204022526741028, 0.35213425755500793, 0.4818738102912903, 0.5303485989570618, -0.5019806623458862, -0.25936728715896606, 0.38572558760643005, -0.3746970593929291, 0.5218100547790527, -0.09005697816610336, 0.2352653294801712, -0.08529272675514221, -0.10721008479595184, 0.7633541822433472, -0.0371062271296978, 0.11480242013931274, 0.10909826308488846, -0.21627642214298248, 0.09681257605552673, 0.18852771818637848, -0.1844976842403412, 0.015794409438967705, -0.2707122266292572, 0.1979433000087738, 1.1809253692626953, 0.32787418365478516, -0.461525022983551, 0.7088853716850281, 0.02954389713704586, -0.042163554579019547, 0.08897844702005386, 0.5510237812995911, 0.24206387996673584, 0.17147967219352722, 0.43026313185691833, 0.11837508529424667, 0.2989487648010254, 0.02016052044928074, -0.29608485102653503, 0.024824446067214012, -1.2727084159851074, 0.20578399300575256, 0.21741558611392975, 0.15825438499450684, 0.3079686462879181, -0.0618119016289711, 0.04700566083192825, 0.08958044648170471, -0.05084291100502014, 0.045373931527137756, -1.8391458988189697, 0.8706073760986328, -0.14119276404380798, -0.02196958288550377, 0.000812538608442992, -0.22508569061756134, 1.3398597240447998, -0.265319287776947, -0.3885009288787842, 1.2669346332550049, -0.10593193024396896, -0.5041307210922241, -0.36288872361183167, -0.06213437020778656, 0.31393396854400635, 0.2882588803768158, -0.1143837496638298, 0.11102750897407532, 0.5099855065345764, -0.23218753933906555, -0.1666661500930786, -0.13027040660381317, -1.792536735534668, 0.01846759393811226, 0.054850559681653976, 0.2902017831802368, -0.20986953377723694, -0.730365514755249, -0.1279274821281433, -0.41979262232780457, 0.1880623996257782, -0.16049042344093323, -0.427403062582016, 0.19393394887447357, 0.0775834172964096, 0.1277196705341339, -0.11433171480894089, 0.06586988270282745, -0.5651286244392395, 0.008233645930886269, -0.13897909224033356, 0.17845864593982697, -0.05202227085828781, -0.026482081040740013, 0.1801895648241043, 0.38800185918807983, 0.04743068292737007, 0.17546993494033813, 0.560863196849823, 0.2849152982234955, -0.10761459916830063, 0.08825109899044037, 0.032782599329948425, 0.011955422349274158, -0.21649624407291412, -0.09143440425395966, -0.030882373452186584, 0.12526537477970123, 0.17105154693126678, 0.22766008973121643, -0.03312290087342262, 0.4089196026325226, 0.14662140607833862, 0.0622565895318985, 0.18431007862091064, 0.4689822196960449, -0.14504651725292206, 0.3404105007648468, -0.9455705285072327, 1.5259435176849365, -0.8802372813224792, 0.9967853426933289, -1.6590914726257324, -1.1738710403442383, 0.7027089595794678, 1.8518022298812866, 1.1292601823806763, 1.919754147529602, -0.08664005994796753, 0.08625923842191696, -0.9983201026916504, -0.5006661415100098, -0.42415979504585266, 1.6746422052383423, -0.9538286924362183, 1.2016440629959106, 2.0040392875671387, 1.007510781288147, -0.06001358851790428, 0.08053231239318848, -1.3929847478866577, 1.7041531801223755, 0.45522648096084595, -1.8144757747650146, -0.260856032371521, 1.2665908336639404, -2.537466526031494, 0.19030319154262543, -0.11172328144311905, -0.012817654758691788, -0.2880321741104126, -0.13381223380565643, 1.5635490417480469, -0.16035519540309906, -1.3086981773376465, 0.7323070168495178, -0.05287179723381996, 0.33868226408958435, -0.48592609167099, -0.42565277218818665, -0.10917504876852036, -0.0629018172621727, 0.23360508680343628, -0.19411376118659973, -1.4777305126190186, 0.23309926688671112, -0.2381308525800705, 0.2792406976222992, 1.4435503482818604, 0.07363736629486084, -0.06451374292373657, 0.3662097454071045, -0.2026083767414093, -0.2525482773780823, 0.15620264410972595, -0.9727508425712585, 0.3579368591308594, 0.17218314111232758, -1.4196912050247192, -0.22229906916618347, -0.01778562366962433, -0.015600658021867275, -0.042415328323841095, -0.17572301626205444, 2.177337884902954, 0.1017695963382721, -0.7770284414291382, 0.2483849823474884, -0.19978278875350952, -0.6436761617660522, -0.06876611709594727, -0.016157427802681923, 0.4214746654033661, 0.2393130660057068, 0.10102874040603638, -0.026093637570738792, -0.6464919447898865, -0.37992730736732483, 0.21371477842330933, -0.016850268468260765, -0.0381433367729187, 0.10505541414022446, 0.03777042403817177, 0.5316770672798157, -0.5519946813583374, 0.04967900365591049, -0.07978709787130356, -0.23262296617031097, -0.0873168557882309, -0.049729324877262115, -0.07594453543424606, 0.07784649729728699, 0.03642711043357849, -0.16856414079666138, 0.24430017173290253, -1.3190889358520508, 1.148931622505188, -1.3728325366973877, -1.048178791999817, -0.24747276306152344, -0.5035679340362549, -3.1466329097747803, -2.089228868484497, -1.2719594240188599, 0.20007848739624023, 0.14569352567195892, -0.655086874961853, 0.1805620640516281, -0.7203915119171143, -2.551534414291382, 0.4839344024658203, -1.5812249183654785, -1.8306792974472046, -0.7417675852775574, 0.070809505879879, -0.6687904596328735, -0.30921056866645813, -2.036681652069092, -0.41972312331199646, -0.09474056959152222, -0.04577522352337837, -1.6782464981079102, 0.06460852921009064, -1.3460979461669922, 0.10004276782274246, 0.14149445295333862, 0.4164862036705017, -0.07076676934957504, 1.3027739524841309, -0.3089945614337921, -0.21133776009082794, -0.10926712304353714, -0.08477215468883514, -0.01335112564265728, 0.25000467896461487, -0.06266912817955017, 0.30646583437919617, 0.37501823902130127, 0.3340297043323517, -0.10550793260335922, 0.5881781578063965, -0.31370025873184204, 0.527552604675293, -0.004497373942285776, 2.776402473449707, -0.09088899195194244, 0.08269836753606796, 0.8294571042060852, 0.5171536803245544, 0.7462296485900879, -0.00978382583707571, 1.9481014013290405, 0.9794327616691589, -0.21563389897346497, 1.2507133483886719, 0.06747020781040192, -0.09078048169612885, -0.11031613498926163, -0.09623174369335175, -0.46622025966644287, 0.8793882131576538, -0.29745373129844666, -1.3056670427322388, -1.1721341609954834, -0.21170073747634888, -1.1699613332748413, -1.2886329889297485, -1.2839362621307373, 0.22365374863147736, 0.24614275991916656, -0.30685293674468994, 0.021079171448946, -1.5295864343643188, -0.6886977553367615, -0.2606920599937439, -0.20445069670677185, -2.0240604877471924, -0.19004090130329132, 0.05221407487988472, -1.1494346857070923, -0.653294563293457, -1.0090237855911255, -0.07937690615653992, -0.9279648661613464, -0.8302488923072815, -0.29388993978500366, -1.1932846307754517, -0.8836466670036316, 0.018559608608484268, 0.09506485611200333, -0.09714161604642868, 0.057982318103313446, 1.494012475013733, 0.06616383045911789, -0.9200518727302551, -0.0013933265581727028, 0.057469069957733154, -0.09753948450088501, -0.36170345544815063, -0.5749489068984985, 0.10321997106075287, 0.10655972361564636, 0.5956024527549744, 0.014338301494717598, -0.6561275124549866, 0.08390149474143982, -0.1974230855703354, -0.09428640455007553, 0.19563224911689758, 0.11170550435781479, 0.14415471255779266, -0.07589134573936462, 1.0291088819503784, -0.3642897605895996, -0.1038711816072464, -0.2502061128616333, -0.6209043264389038, 0.1171146109700203, -3.0483288764953613, 0.1073845699429512, -0.1839529126882553, -0.14610181748867035, -0.43199530243873596, 0.05057292431592941, -0.7331692576408386, -0.2116159051656723, 0.030300091952085495, 0.24542002379894257, 0.11883223801851273, 0.16315452754497528, -0.0014719886239618063, 0.1399817317724228, 0.5816135406494141, 0.4765586256980896, 0.8834250569343567, 0.1452338844537735, -0.003457403974607587, 0.26274678111076355, -0.141806960105896, 0.4134090542793274, 0.9890096783638, 0.11265301704406738, 0.16034670174121857, 0.08687950670719147, 0.049931660294532776, -0.023287806659936905, -0.024696044623851776, 0.23508073389530182, 0.07901233434677124, 0.5846889615058899, -0.24335451424121857, 0.5078794360160828, 0.04665929079055786, 0.2488734871149063, -0.7312222123146057, 0.5896048545837402, -0.9178746938705444, 0.6478520035743713, 0.6770160794258118, 0.570662796497345, 0.3934849202632904, 0.6445788145065308, 0.9410641193389893, 2.4983606338500977, -0.1093645915389061, -0.012283243238925934, 0.6293277740478516, 0.008720182813704014, -0.3027234971523285, 0.6900884509086609, -0.724556028842926, 0.3521929681301117, -3.4322056770324707, 0.592667281627655, 0.08321063220500946, -0.28225183486938477, 0.6437302231788635, 0.6504852175712585, 0.26649579405784607, 0.29605990648269653, -0.43655264377593994, 0.5143027901649475, -2.3881757259368896, 1.6284650564193726, -0.2995140254497528, -0.16830028593540192, -0.23169131577014923, -0.23375891149044037, -0.2226513922214508, -0.2418971061706543, 0.16366158425807953, -0.04098908603191376, -0.1559537947177887, -0.17210376262664795, -0.20311805605888367, -0.10546629875898361, 0.2815549671649933, 0.127863347530365, 0.21076709032058716, 0.047045979648828506, 0.07922990620136261, -0.08877626806497574, -0.09275422990322113, -0.017160553485155106, 0.9399991035461426, -0.031576093286275864, 0.13900886476039886, 0.132301926612854, 0.3198169469833374, -0.30190834403038025, -0.13520844280719757, 0.27954137325286865, 0.025368021801114082, 0.050459135323762894, 0.0019795550033450127, -0.11241300404071808, -0.37075433135032654, -0.13025957345962524, -0.27601003646850586, -0.3061036169528961, -2.2252275943756104, -0.613174319267273, -0.6836788654327393, 0.8363221883773804, 0.009104142896831036, -0.14042356610298157, -0.31404954195022583, 1.2346891164779663, 0.22459249198436737, 0.4267716407775879, 1.4796971082687378, 0.20487774908542633, 0.09598545730113983, 0.10497988760471344, -0.039855457842350006, 0.03641413152217865, 0.60396808385849, -0.27091529965400696, 0.17412346601486206, 0.08025124669075012, 1.7774224281311035, -0.2360336184501648, -0.07946954667568207, 0.6474255919456482, -0.3465353846549988, -0.04730989784002304, -0.544617772102356, 0.5707768797874451, -0.1976568102836609, 0.2720341980457306, -0.8881664872169495, 1.2475887537002563, -0.33693861961364746, 1.040624737739563, -3.617849588394165, -0.656445324420929, 0.7176124453544617, 2.0177295207977295, 1.5225613117218018, 2.2034904956817627, -0.26223301887512207, -0.08817316591739655, -0.7815948128700256, -0.530074954032898, -1.9137099981307983, 1.7598998546600342, -0.7988523244857788, 1.7485896348953247, 3.2772765159606934, 0.9613934755325317, -0.14771687984466553, -0.40589722990989685, -2.097992420196533, 1.8497577905654907, 0.679737389087677, -2.8548524379730225, -0.2073369175195694, 1.4778990745544434, -2.0287115573883057, -0.8740690350532532, -0.0273201372474432, -0.0821089819073677, 0.0107773682102561, 0.08339513838291168, 1.2800966501235962, -0.05474918708205223, -0.39064687490463257, 0.31291529536247253, 0.006439893506467342, -0.1916378140449524, -0.03085789643228054, 0.2315133661031723, 0.12146908044815063, 0.19298608601093292, 0.07627394050359726, 0.12473706156015396, -0.0726371705532074, -0.13895092904567719, -0.019719909876585007, 0.00888769794255495, -0.79086834192276, -0.05141350254416466, 0.12833431363105774, 0.21993795037269592, -0.38094639778137207, 0.11896704882383347, -0.11656653881072998, -0.45838242769241333, 0.016738593578338623, -0.068269282579422, -0.4165586829185486, 0.23771457374095917, -0.03150457143783569, 0.06595523655414581, -0.09706824272871017, 0.02207009121775627, 0.42722442746162415, -0.06023234874010086, 0.038050491362810135, 0.21232189238071442, -0.014100282453000546, -0.20531387627124786, -0.16528470814228058, 0.07522089034318924, 0.056284088641405106, 0.206253781914711, 0.14315550029277802, 0.1446486860513687, -0.07577502727508545, -0.12813010811805725, -0.1847851276397705, -0.1559535413980484, 0.20938917994499207, 0.13985206186771393, 0.15144690871238708, 0.04780147969722748, 0.005613651126623154, -0.2146032750606537, -0.052893828600645065, -0.03936178237199783, -0.21620209515094757, -0.15126444399356842, -0.6520704030990601, 0.0306207574903965, -0.01867089234292507, -0.05942552164196968, -0.0906861424446106, -0.10094903409481049, 1.2211424112319946, -0.16137300431728363, -0.3864597678184509, 0.7528654932975769, -0.08695980906486511, -0.42605870962142944, -0.35874271392822266, 0.08909636735916138, 0.11641974002122879, 0.07475049048662186, -0.004469778388738632, 0.09241221100091934, -0.4603726863861084, -0.25354933738708496, -0.2791251838207245, -0.12406353652477264, -0.36261844635009766, -0.047650039196014404, 0.16964156925678253, 0.11927616596221924, -0.33710309863090515, -0.6282487511634827, 0.016966672614216805, -0.898265540599823, -0.5462016463279724, 0.04534601420164108, -0.7549567222595215, -0.019374839961528778, 0.11509282886981964, 0.17746546864509583, -0.4540485441684723, 1.003252387046814, -0.14289207756519318, 0.5571153163909912, -0.18351760506629944, 0.5513875484466553, 0.3828105926513672, 0.8425937294960022, 0.8632131218910217, 2.462860584259033, -0.1377820521593094, -0.08153916150331497, -0.006269516423344612, -0.09973925352096558, -0.330432653427124, 0.7641816139221191, -0.3029559850692749, 0.5770326256752014, -1.0416237115859985, 0.37346088886260986, -0.05826238542795181, 0.1915084570646286, -0.22287502884864807, 1.0200629234313965, 0.22231610119342804, -0.42367568612098694, 0.29867616295814514, 0.5696008205413818, -1.3364520072937012, 0.6343351006507874, -0.012134379707276821, 0.2571932077407837, -0.716434895992279, 0.20907433331012726, -1.8616572618484497, 0.28328433632850647, -0.6358442306518555, -0.8997821807861328, 0.2969442307949066, 0.9130756855010986, -0.2181035280227661, 0.32812604308128357, 0.016273289918899536, -0.09178035706281662, 1.9035545587539673, -0.15349596738815308, -1.0638680458068848, 0.7739134430885315, -0.8303420543670654, 0.6781953573226929, 2.0885725021362305, 0.6523848176002502, 0.12667696177959442, -1.2585221529006958, 2.8585565090179443, -0.4041249752044678, 0.3233850598335266, 0.5499131679534912, -1.6005820035934448, 0.6663928031921387, -2.009089946746826, 0.49340683221817017, -0.1008291095495224, -0.09720297902822495, 0.027002638205885887, 0.11404965817928314, 1.4995676279067993, 0.04145411401987076, -0.2424919754266739, 0.19108453392982483, 0.05372259393334389, -0.2585850954055786, 0.005944346077740192, 0.16229505836963654, 0.06193088740110397, 0.23646831512451172, -0.0180031917989254, 0.08638212829828262, -0.061099573969841, -0.12453259527683258, -0.0401562824845314, -0.09367751330137253, -0.654459536075592, -0.06006757169961929, -0.009426891803741455, 0.11157237738370895, -0.30934202671051025, 0.27021583914756775, 0.011725588701665401, -0.10350266844034195, 0.09940973669290543, -0.004233415238559246, 0.07336883991956711, 0.09421562403440475, -0.10182683169841766, 0.13795407116413116, -0.007813198491930962, 0.24338313937187195, 0.870995283126831, 0.16863518953323364, 1.2062036991119385, 2.4598610401153564, 0.09349751472473145, 0.07627714425325394, 0.2521812915802002, 1.1822199821472168, 0.20226384699344635, 0.15078620612621307, 0.3169098198413849, 0.21215415000915527, 0.28888005018234253, 0.20221532881259918, -0.2035798281431198, -0.00642949715256691, -1.2973538637161255, 0.17334258556365967, 0.1661911904811859, 0.5487946271896362, 0.4614189863204956, -0.205196812748909, 0.07650372385978699, -0.5313194394111633, 0.1354745775461197, -0.044662583619356155, -1.0050859451293945, 0.43600040674209595, 0.044384345412254333, 0.008565034717321396, -0.01995297521352768, 0.20966634154319763, 0.33820441365242004, 0.130340576171875, -0.034127458930015564, 0.03176601603627205, 0.21554891765117645, 0.06350157409906387, 0.027364159002900124, 0.40760350227355957, 0.012605828233063221, 0.1668390929698944, 0.11950220912694931, -0.05039868503808975, 0.09778464585542679, 0.23864251375198364, -0.06983238458633423, 0.25183719396591187, 0.9217276573181152, 0.12642033398151398, 0.025895310565829277, 0.0543605238199234, 0.1552039533853531, 0.5195791721343994, 0.13923096656799316, -0.09530510008335114, 0.19137392938137054, 0.23639656603336334, -0.29965558648109436, 0.24569205939769745, 0.2743861675262451, -0.15121054649353027, 1.2326405048370361, -1.5353293418884277, -0.012730538845062256, -1.5951803922653198, -0.14435839653015137, 0.4346488416194916, -1.0041725635528564, -2.459566831588745, -0.6808385848999023, -0.4847675859928131, 0.18278749287128448, 0.09482836723327637, 0.9711978435516357, 0.4645325839519501, 0.35143083333969116, -2.423630475997925, 0.9814305901527405, -1.6824101209640503, 1.2479920387268066, -1.3480485677719116, -0.14452341198921204, 0.5617528557777405, 2.6733522415161133, -0.34395837783813477, -0.32202407717704773, 5.277592658996582, 1.1767596006393433, -2.0051748752593994, 2.1932289600372314, -0.09336923807859421, 0.173142671585083, 0.09791113436222076, 0.1358315497636795, -0.1423478126525879, -0.9810318350791931, 0.03140407055616379, -1.1547898054122925, -0.3961515426635742, 0.1223018616437912, -0.19978919625282288, 1.5683872699737549, 0.4663134813308716, 0.09808678925037384, 0.15423080325126648, 0.1510239541530609, 0.6686992049217224, -4.560009956359863, 0.025010602548718452, 0.12467796355485916, -0.1882551610469818, 2.1423516273498535, -0.16960540413856506, 0.03042704053223133, -0.812459409236908, -0.2798362672328949, 0.6819677352905273, 0.061074793338775635, -0.0590314120054245, 0.039802804589271545, -0.17027239501476288, 0.17183467745780945, -1.9792965650558472, 0.1857472062110901, 0.26960015296936035, 0.8993943333625793, -0.23235362768173218, -1.2894850969314575, -0.2752222418785095, -8.5686674118042, -0.371269166469574, -0.12585751712322235, -0.42686551809310913, 1.3858771324157715, 1.7914413213729858, 0.1340148001909256, 0.28930819034576416, -0.43842077255249023, 1.1338739395141602, -11.658422470092773, -0.3259744942188263, 0.6744150519371033, -0.37850701808929443, 0.8434507846832275, -0.310426265001297, -0.40484562516212463, -0.6942794919013977, 1.2605589628219604, 0.8502305746078491, -0.028649192303419113, -0.40952345728874207, 2.1177475452423096, -1.0186488628387451, 0.3832334280014038, -2.708916425704956, 0.39732709527015686, 0.14508020877838135, 0.2472430169582367, 0.3871828615665436, 0.050951045006513596, 0.10292237997055054, 0.9627716541290283, -0.47332248091697693, -0.19437560439109802, 0.1218293160200119, -0.39119115471839905, 0.5371572971343994, 0.035283975303173065, -0.004211180377751589, 0.526014506816864, 0.17850488424301147, 0.4155610501766205, -0.08767826110124588, 0.15030868351459503, -0.06701458245515823, 1.760298728942871, -0.08264397829771042, 0.11405827850103378, 0.1474144607782364, 0.3924575448036194, 0.5061832070350647, -0.021775394678115845, -0.3099350929260254, 0.14075402915477753, -0.15158121287822723, 0.4580044150352478, -0.16143736243247986, 0.3479209542274475, 0.00861441157758236, 0.9089656472206116, -0.11278671771287918, 0.3506145775318146, -0.16541343927383423, -1.399651050567627, 2.198397397994995, -0.17147374153137207, -0.028784453868865967, 0.35722506046295166, 1.2861368656158447, 0.3589564561843872, 0.13495869934558868, -0.2670494019985199, -0.20127233862876892, 1.2436326742172241, 0.11608918011188507, 0.8132616877555847, -0.31368350982666016, -2.2557532787323, -0.17380964756011963, 0.12641587853431702, 2.028371572494507, 1.681215763092041, 0.4497912526130676, -0.06314639002084732, -0.007174525409936905, 2.221778392791748, -0.6919233798980713, 1.0999460220336914, -0.16656790673732758, 0.08966608345508575, 0.06269628554582596, -0.04979150742292404, 0.6544480323791504, 0.6933166980743408, 0.6022270321846008, 0.4001638889312744, -1.232221245765686, 0.05643220990896225, 0.3875240683555603, 0.13950005173683167, 0.044498588889837265, 0.026263002306222916, -0.11766622960567474, -0.20935270190238953, -0.170236274600029, -1.6610265970230103, 0.36510011553764343, 0.05743419751524925, -0.08897838741540909, 2.0950615406036377, 0.16585709154605865, -0.03408682718873024, 0.11333920061588287, -0.6574301719665527, 0.08415167778730392, 0.07191189378499985, -0.9576461911201477, 0.01873853988945484, -0.048946160823106766, -0.24023079872131348, -1.780822992324829, 0.6224789619445801, 0.036386020481586456, 1.3617537021636963, -0.1647309958934784, 2.6101505756378174, -0.27092891931533813, 1.5973148345947266, 0.07103987783193588, -0.39594563841819763, -1.4375449419021606, -0.6838529109954834, -0.6024158596992493, 0.18272900581359863, 0.11065949499607086, -0.649323582649231, 0.6669619679450989, 4.224827766418457, -0.9576629400253296, 1.9889503717422485, -2.050417184829712, -4.307076454162598, -0.8182203769683838, 0.08244729787111282, 3.412722110748291, -0.20859847962856293, -1.0848509073257446, -0.49221619963645935, 3.5313687324523926, 4.450783729553223, -1.9829696416854858, 5.177473545074463, -1.1576542854309082, 0.4726468324661255, 0.005931248422712088, -0.3261641561985016, 1.5156631469726562, 0.22926415503025055, 1.4648984670639038, -0.6596290469169617, -0.9863447546958923, 0.3544609248638153, 2.061387777328491, -0.3552730083465576, 0.06592360138893127, 0.07276561856269836, 0.3224165439605713, 0.9939013123512268, 0.46144866943359375, -3.3949990272521973, 1.0744686126708984, -0.2767842710018158, 0.9201799631118774, 0.9606887102127075, 0.8899292349815369, -0.06345850974321365, -1.2585195302963257, 0.4152348041534424, 2.93061900138855, 0.22129912674427032, 0.2964993119239807, -0.15316209197044373, 1.0425738096237183, -1.9804638624191284, 2.429542303085327, -0.06681734323501587, 0.11508648842573166, 0.058020275086164474, -0.1222684383392334, -1.0649945735931396, -0.17911773920059204, -2.1172423362731934, -0.35448387265205383, -0.04075339064002037, -0.4950500428676605, 0.9650367498397827, 0.48109158873558044, -0.2718828618526459, -0.2758203446865082, 0.3857385814189911, -0.06297172605991364, -1.473010778427124, -0.06053360179066658, 0.02815747819840908, 0.12462567538022995, 0.05489469692111015, 0.03396936133503914, -0.01843736506998539, -0.03454991430044174, 1.6098885536193848, 0.40496906638145447, -0.15619522333145142, 0.03540018945932388, 0.24612297117710114, 0.16915155947208405, -0.2054668366909027, -1.0871199369430542, -0.2661808729171753, 0.11799797415733337, -0.4706153869628906, 0.28671854734420776, 0.6254568099975586, 0.30631566047668457, 0.20347662270069122, -0.010061834007501602, 0.4758283197879791, 0.9059106111526489, 1.5620124340057373, 0.8917844891548157, 0.0926005020737648, 0.06146758794784546, 0.8868581056594849, 0.03693154454231262, 1.0773088932037354, 1.3264416456222534, -0.24895808100700378, 0.8616204261779785, 2.273606061935425, 0.3870998024940491, 0.0870688185095787, -1.2889883518218994, -0.0786108449101448, 1.4396668672561646, 0.16166411340236664, 0.35429057478904724, -1.5894970893859863, 0.60232013463974, -1.1083897352218628, 2.6132285594940186, 0.16006214916706085, -0.10704825818538666, 0.04765352979302406, 0.21453271806240082, -1.4041749238967896, -0.15797382593154907, 0.3844323754310608, 0.2535013258457184, 0.0045942701399326324, 0.045763880014419556, -0.06374106556177139, 0.20734818279743195, -0.10937682539224625, -0.15329021215438843, 0.7374926209449768, -0.495885968208313, -0.4576624035835266, 0.1959908902645111, 0.14530141651630402, 0.1865711212158203, 1.6883867979049683, -0.03304116055369377, -0.17694972455501556, 0.28904837369918823, 1.4592311382293701, 0.2602914869785309, 0.15153545141220093, 0.34796908497810364, 0.2543136477470398, 0.07028529047966003, -0.42977049946784973, -0.48498502373695374, -0.15032827854156494, -0.12492629885673523, -0.031700532883405685, 0.6678594350814819, -0.2070767730474472, 0.0553947277367115, 1.5800514221191406, -0.02280436083674431, -0.18623845279216766, 0.2001725733280182, 1.1935718059539795, 1.9420967102050781, 0.1902022510766983, 0.311290979385376, 1.3119306564331055, 0.15253284573554993, 1.5505712032318115, -0.08663862198591232, 0.5597462058067322, -0.017255816608667374, 2.7679855823516846, -0.248149573802948, 0.1973305493593216, 0.6245800256729126, 0.9328848123550415, 1.270401120185852, 0.08302367478609085, 1.7048791646957397, 0.5594996809959412, -0.06002615764737129, 0.33558645844459534, 1.921898365020752, 0.1524425745010376, -0.08436371386051178, -0.13864676654338837, 0.293510377407074, 0.04822362959384918, -0.04944797232747078, -0.556975781917572, -0.6230413913726807, -0.08126728981733322, -0.12410079687833786, -0.10087034851312637, -0.23007559776306152, -0.06117089465260506, -0.156734436750412, -0.1671246439218521, -0.2080654799938202, -0.27842384576797485, -0.13746249675750732, 0.30243825912475586, 0.07890778034925461, 0.9071829915046692, 0.14041796326637268, -0.033809397369623184, 0.33500269055366516, -0.7753276228904724, 0.09461643546819687, -0.0046760146506130695, -0.8714585304260254, 0.6009762287139893, 0.0036033005453646183, 0.4448360800743103, -0.003893578890711069, -0.3274768888950348, 0.18843691051006317, -1.0330086946487427, 2.707688331604004, 1.1155551671981812, 2.5398108959198, 0.3692387640476227, -0.9638095498085022, 0.80869460105896, 3.1304128170013428, 2.7118747234344482, 2.9706313610076904, -0.2384040653705597, -0.08300512284040451, -0.8461426496505737, -0.36562174558639526, -1.7775062322616577, 3.1743862628936768, -1.5227924585342407, 1.407031774520874, 1.0344229936599731, 1.3171757459640503, -0.2107793092727661, -0.9757810235023499, 0.1035742461681366, 4.254002571105957, 0.47730717062950134, -0.8877809047698975, -2.191537618637085, 1.3492491245269775, -4.233893394470215, -3.3284525871276855, 0.10999653488397598, 0.03325626999139786, -0.013360046781599522, -0.12042269110679626, 1.77843177318573, -0.1791803538799286, -0.8155999779701233, 2.0486934185028076, 0.061339229345321655, 0.15629728138446808, 0.328957200050354, -0.3387174904346466, 0.0693366527557373, -0.12384011596441269, 0.6238759756088257, -0.16255129873752594, -0.26967671513557434, 0.08422023802995682, -0.05053822696208954, 0.1555534452199936, -0.21674084663391113, 0.11445635557174683, -0.05131058022379875, -0.20602935552597046, 0.6419201493263245, 0.5025228261947632, 0.0224445927888155, -0.7713271379470825, 0.09016327559947968, 0.14629420638084412, -0.38204506039619446, 0.03922972455620766], "convKernelA": [-0.5955744981765747, -0.1687670201063156, 1.7702499628067017, 0.251421183347702, -0.021246954798698425, 1.4870399236679077, 0.3675062954425812, -1.3085662126541138, 0.8297663331031799, 1.1347312927246094, -0.16516970098018646, -1.0743038654327393, 0.3488720953464508, 0.7050637602806091, -0.038748323917388916, -0.982224702835083, 1.3915807008743286, 0.7824035286903381, -0.368696928024292, -0.8781127333641052, -0.16428028047084808, -0.2929238975048065, -0.7484990358352661, 0.6308647394180298, 0.11794063448905945, 0.7434850335121155, -0.3271646797657013, -0.1363126039505005, 0.598919689655304, 0.6170339584350586, -0.12388601899147034, -2.7756786346435547, 0.16838839650154114, 0.11698748916387558, -0.04812391847372055, 0.01663373038172722, -0.03160424903035164, 0.37904801964759827, -0.1384565234184265, 0.0517367459833622, 0.07552509754896164, 0.0935739204287529, -0.05511639267206192, -0.12860527634620667, 0.04810396954417229, -0.33252111077308655, 0.3472098708152771, 0.09381397813558578, -0.19022870063781738, 0.09806035459041595, -0.18844853341579437, -0.3956814706325531, 0.11866375058889389, 0.18664014339447021, -0.24088065326213837, -0.013392096385359764, 0.245820090174675, 0.02875375561416149, -0.2561706006526947, -0.32696473598480225, -0.23705174028873444, 0.009328817017376423, 0.19596664607524872, 0.3869165778160095, -0.4328746497631073, -0.4665001630783081, 0.25620347261428833, -0.2618367373943329, 0.12147751450538635, 1.1451756954193115, -0.0125177763402462, 0.7493121027946472, -0.04372308403253555, -0.26303136348724365, 0.03637094795703888, -0.7529345154762268, 0.40538403391838074, 0.04332784190773964, 0.3174971044063568, 0.34538283944129944, -1.1411638259887695, 0.354767382144928, -0.049668289721012115, 0.3305648863315582, 0.027320362627506256, 0.6250708699226379, -0.8125719428062439, -0.1571674793958664, 0.26525211334228516, -0.4014534652233124, -0.13036169111728668, 0.7042442560195923, 0.14377285540103912, -0.08202796429395676, 0.1280864179134369, 0.7478421330451965, 0.2204185426235199, 0.06632047146558762, -0.7168869376182556, -0.35667669773101807, -0.9107052683830261, 0.470797061920166, -0.4463818669319153, 0.13629189133644104, -0.7094162702560425, -0.8531801104545593, 0.11549384146928787, 1.0647274255752563, 1.5083644390106201, -0.4551326036453247, -0.34066930413246155, 0.6426422595977783, -0.13545070588588715, 0.10341554880142212, 0.059786275029182434, -1.0760247707366943, 0.4990510046482086, 0.7743589282035828, 1.0863767862319946, -0.268178254365921, -0.13924795389175415, -0.9101467132568359, -0.4904410243034363, 0.03938263654708862, -0.5083490610122681, -1.1354577541351318, -0.07905038446187973, 1.29180109500885, 0.35293683409690857, 0.5729063153266907, 0.1269594430923462, -0.29617393016815186, 0.2228151559829712, 1.574889898300171, -0.06195366010069847, 1.1228338479995728, 0.07368004322052002, -0.42559683322906494, -0.29988497495651245, 0.2839083969593048, -0.34548887610435486, -0.2731287479400635, 1.2101083993911743, -0.5819196701049805, -0.20485341548919678, 0.09171652048826218, 0.03460615500807762, 0.3359854519367218, -0.17490313947200775, -0.221185564994812, 0.00733791571110487, -0.21494042873382568, 0.05787162482738495, -0.33104225993156433, 0.1059364601969719, -0.8449575901031494, 0.06946064531803131, -0.4501096308231354, 0.062115564942359924, 0.20475587248802185, 1.1222641468048096, 1.6258610486984253, 0.362414687871933, -0.08602962642908096, -0.09246654808521271, 0.12083292752504349, -0.009556111879646778, 0.816515326499939, 0.2798145115375519, -1.3018052577972412, -0.25394904613494873, -0.2783128023147583, 0.5294557809829712, 0.2685551047325134, 1.394504189491272, 0.2008654922246933, 0.7944684624671936, 0.3837284743785858, -0.3127789795398712, -1.0689513683319092, -0.03987130895256996, 0.041783105581998825, 0.21885856986045837, 0.01763295568525791, -0.27514588832855225, -0.6345451474189758, -0.8584120273590088, -0.6183194518089294, 0.361281156539917, -2.1591947078704834, 0.03429364040493965, 1.0378897190093994, -0.5645548701286316, -0.16539569199085236, -0.029988819733262062, -0.17472122609615326, 0.3573980927467346, 0.5911001563072205, 0.09391706436872482, 0.17326486110687256, 0.12338957190513611, -0.005329293664544821, -0.12805917859077454, -0.29366275668144226, 0.15462470054626465, -0.23718009889125824, 0.3356460630893707, -0.6259236931800842, -0.07736203074455261, 0.8626732230186462, -0.3350381553173065, -0.6055537462234497, -0.2315647304058075, -0.4220272898674011, -0.44841447472572327, -0.15187515318393707, 0.07192163914442062, -0.22536811232566833, -0.28453147411346436, -0.41299793124198914, 0.0811227485537529, -0.08751935511827469, -0.09584782272577286, 0.11025290191173553, 0.9076057076454163, 0.9580425024032593, 1.7077603340148926, -0.036849480122327805, 1.3268989324569702, -0.4704928398132324, 0.19445738196372986, 1.9187002182006836, 1.3674378395080566, 0.87533038854599, -0.38688895106315613, -0.17549289762973785, 1.000342607498169, 1.4142258167266846, 1.3429373502731323, 0.4164762794971466, 1.1349427700042725, 1.4990227222442627, -0.23952654004096985, 0.3127875328063965, -0.04112009331583977, -0.745087742805481, 1.072196364402771, 0.6137018203735352, 0.25797995924949646, 0.7126414775848389, 0.14551199972629547, -0.6692778468132019, 0.703773558139801, 0.6142289638519287, 0.19707874953746796, 0.5596305727958679, -0.4210868775844574, -0.5205762982368469, 1.2235500812530518, 0.5338233709335327, 0.12197566032409668, 0.07049864530563354, 0.10283763706684113, 1.0473421812057495, -0.31870362162590027, -0.4415771961212158, 0.43902236223220825, 0.13334789872169495, 0.679599940776825, 0.7594393491744995, 0.45017796754837036, -0.6332136988639832, 0.4273301362991333, 0.6446999311447144, 0.7926923036575317, 0.6331607699394226, 0.05378880351781845, 1.0850685834884644, 1.4260737895965576, 0.2404627799987793, 0.4035836458206177, 0.5126004219055176, 0.9786380529403687, 1.7794770002365112, 0.11102086305618286, -0.26700451970100403, 0.2887916564941406, -0.676511824131012, 0.4003027379512787, -0.11604347825050354, 0.8153904676437378, -0.1877410113811493, -0.39129212498664856, -1.1291106939315796, 0.32256215810775757, 0.43514928221702576, 0.004617924336344004, -0.17682699859142303, -0.538496196269989, -1.4717042446136475, -0.2968125641345978, -0.053160883486270905, 1.3739523887634277, 0.9417378902435303, -0.05232199281454086, -0.724647581577301, -0.5426743030548096, -0.07150580734014511, -0.21099252998828888, -0.8997548222541809, -1.7914983034133911, -0.012577848508954048, -0.036862049251794815, -0.14225322008132935, -0.30174124240875244, -1.820320725440979, 0.13412636518478394, -0.34559985995292664, 0.00021318501967471093, 0.8568916320800781, -0.04684506356716156, 1.0045380592346191, 0.7131938934326172, 0.10103931277990341, 0.40472540259361267, -0.3085537850856781, -0.12760159373283386, -0.3504365086555481, 0.5278862714767456, 0.42131704092025757, -0.016744064167141914, -0.6857239603996277, -0.362917959690094, -0.07435104250907898, 1.0388909578323364, -0.2890617251396179, 0.947035551071167, 0.05060955137014389, -0.283346563577652, -1.1829222440719604, -0.23230934143066406, 0.40213465690612793, -1.1578309535980225, 0.129544198513031, 0.02339409850537777, 0.14068016409873962, 0.03108338639140129, 0.7180984616279602, 0.05827914923429489, 0.47369569540023804, 0.13072286546230316, 0.30521076917648315, -0.0727737545967102, -0.3911014795303345, 0.34427469968795776, 0.0910072848200798, 0.9443588852882385, 0.7505204677581787, -0.0015964799094945192, 0.14968743920326233, 0.5582001805305481, 0.1813768446445465, 0.19415472447872162, 0.5053720474243164, -0.23220035433769226, -0.1843579113483429, -0.024823887273669243, 0.6039484739303589, -0.7149931788444519, 0.463011234998703, 0.12775756418704987, 1.1760259866714478, -0.1518830806016922, 0.16055510938167572, 0.7673773765563965, 0.34584057331085205, 0.13979500532150269, 0.1037597581744194, 0.7750878930091858, 1.5316287279129028, 0.07036618143320084, 0.7073335647583008, 0.2712441682815552, 0.1783343106508255, -0.333702027797699, 0.2560742497444153, -0.5858947038650513, 0.2125856578350067, 0.9001124501228333, 1.1936067342758179, 0.15808871388435364, -0.7087435126304626, 0.4139902591705322, 0.6102489233016968, 0.08542069792747498, -1.991618275642395, 0.41808801889419556, -0.6861277222633362, -0.059365689754486084, -0.3015207350254059, -0.45915383100509644, 1.2716251611709595, 0.08853991329669952, 0.2824137508869171, 0.40192651748657227, 1.002074122428894, -0.6774630546569824, -0.22314132750034332, 0.20789769291877747, 0.10576785355806351, -0.13182714581489563, 1.678886890411377, -0.05787832662463188, 1.4755977392196655, 0.18800030648708344, -0.6066117882728577, -0.17788265645503998, 0.528799831867218, 0.20859523117542267, -0.5798057913780212, -0.4773913025856018, 1.4902138710021973, -0.10677086561918259, 0.9453198313713074, -0.6870954632759094, 0.2641323506832123, -0.5515279769897461, -0.7748898863792419, -0.04124737158417702, 0.2564876675605774, 0.624992311000824, -0.30535411834716797, 0.8419834971427917, -0.18060144782066345, -0.38475272059440613, -2.5232324600219727, -0.01488678902387619, -1.0027680397033691, -0.8219693899154663, -0.14337004721164703, -0.11606399714946747, 0.03358044475317001, -1.067436933517456, -1.2318928241729736, -0.14462974667549133, 0.3268972933292389, -0.4334697425365448, -0.4408535659313202, -0.732997477054596, -0.5624866485595703, -0.050732679665088654, 0.3818126618862152, 0.6697226166725159, -0.040566928684711456, -0.10493842512369156, -0.09623851627111435, 0.39993953704833984, -0.6691684126853943, 0.16206321120262146, 0.4602689743041992, 0.22851116955280304, -0.6346681118011475, -0.3623008728027344, -0.1009308248758316, -0.44738125801086426, 0.8458056449890137, 0.3546507954597473, -0.39287275075912476, 0.04118892922997475, 0.0993448942899704, -0.41637301445007324, -0.5360349416732788, 0.14481279253959656, -0.48715174198150635, 0.3928884267807007, 1.4876071214675903, -0.5312719345092773, -2.2853925228118896, 0.37098428606987, -0.5734099745750427, 0.1647215336561203, 0.10960234701633453, -0.07147788256406784, -0.5233024954795837, -1.3098822832107544, 0.2403561919927597, -0.2762223184108734, -0.5968542695045471, -0.6545803546905518, -0.2993162274360657, -0.46449995040893555, -0.23345313966274261, 0.5844779014587402, -0.8645353317260742, -0.05841728672385216, -0.4512464106082916, 0.5621399283409119, -0.030724240466952324, -0.3168843686580658, -2.3064651489257812, 0.38574689626693726, -0.3786270320415497, 0.6330469846725464, -0.4172438979148865, -0.18033766746520996, -0.4458710253238678, -1.074041724205017, -0.5443424582481384, -0.4590330123901367, -1.0068289041519165, -0.3071248233318329, -1.334302306175232, 0.41729629039764404, 0.9485319256782532, 0.1847824603319168, 0.040616296231746674, -0.47106337547302246, -0.5162615180015564, -0.5082690119743347, -0.6800470948219299, -0.1598045974969864, -0.01967594586312771, 0.07170665264129639, -2.7361152172088623, -2.5032684803009033, -0.36084285378456116, 0.48395809531211853, -0.750194787979126, 1.0708487033843994, -0.21825583279132843, -0.2873042821884155, -0.40466248989105225, 0.23645365238189697, 0.6163670420646667, -1.9092564582824707, -0.023989953100681305, -0.08566995710134506, 0.4311109781265259, -1.0279394388198853, 0.6982186436653137, -0.34824028611183167, 0.6451654434204102, -0.5340750813484192, -0.34993410110473633, -0.2466781586408615, -0.8212475180625916, -0.7987479567527771, -0.07432476431131363, -0.05176684260368347, 1.3276818990707397, -0.12323275953531265, 0.7479169368743896, -0.18912914395332336, -0.18978644907474518, -0.0030940710566937923, 0.5752432942390442, -0.392544150352478, -0.40083247423171997, -0.7243338823318481, -0.4942418932914734, -0.06415493786334991, -0.2332036942243576, -0.1368367075920105, 0.985809326171875, 0.08115459978580475, 0.4877457320690155, -0.6261546611785889, -0.29166877269744873, 0.125322163105011, -0.33196645975112915, 0.07917037606239319, 0.2661043107509613, -0.11854418367147446, -0.4954448938369751, 0.11372639983892441, -1.582065463066101, 0.666480541229248, 0.2874978184700012, -0.6393892168998718, -0.28025996685028076, -0.2628292441368103, 1.1458388566970825, -0.097795769572258, -0.5617951154708862, -0.41169026494026184, -0.581955075263977, -0.15055525302886963, -1.889901041984558, 0.15272612869739532, -0.7818870544433594, 1.0820927619934082, 0.13276983797550201, -0.4295040965080261, -0.014544257894158363, -0.0994512140750885, -0.12856902182102203, -0.15468379855155945, 0.6922704577445984, -1.9691377878189087, -0.3425324261188507, 0.2501085698604584, -0.7086960077285767, -0.33187541365623474, -0.01711212657392025, -0.08125714212656021, -0.8537554144859314, -0.05078594759106636, 0.8229121565818787, 0.1550619751214981, -0.3412596583366394, 0.06703389436006546, 0.24745149910449982, -0.955354630947113, 0.04475812241435051, -0.15033426880836487, -1.8129301071166992, -0.5516632199287415, -0.6892706155776978, -0.2184186577796936, 0.5536812543869019, -0.33819523453712463, -0.9824466705322266, 0.18056528270244598, -1.204917073249817, 0.2354687601327896, -0.6714365482330322, 0.11864853650331497, -0.36303281784057617, 0.23783116042613983, 0.7025027275085449, -0.7696521282196045, -0.3924827575683594, -0.10370554029941559, -0.5650746822357178, -0.14994150400161743, -0.06489912420511246, -0.5757604241371155, -0.6216455101966858, 0.061966829001903534, -0.9790217876434326, 0.35361161828041077, -0.02533220499753952, -0.21819834411144257, -0.3573403060436249, -0.22688812017440796, 0.17121386528015137, -0.18177972733974457, 0.09490001946687698, -0.012073799036443233, -0.12160410732030869, -0.3540082275867462, -0.08639183640480042, 0.13339167833328247, -0.22274285554885864, 0.19298601150512695, 0.032523155212402344, -0.21206194162368774, 0.11080051958560944, -0.0756075531244278, -0.4278092384338379, 0.1367025077342987, 0.052130114287137985, -0.5006775856018066, -0.17737528681755066, 0.03915758803486824, -0.24230164289474487, -0.15574756264686584, -0.31761103868484497, -0.03285432606935501, 0.1377764195203781, -0.018819522112607956, 0.23542387783527374, 0.0779515728354454, 0.049651067703962326, -0.3836052715778351, 0.0988910123705864, -0.03648187220096588, 0.5271199941635132, -0.3402836322784424, -0.6646739840507507, -0.16690368950366974, -0.23422902822494507, -0.0872999057173729, -0.005742254666984081, -0.017133628949522972, -0.5642499327659607, 0.38167476654052734, -0.1819918304681778, 0.08938463777303696, 0.09312690049409866, -0.15425458550453186, -0.711008608341217, 0.1836293339729309, 0.16364674270153046, -0.43495550751686096, -0.4435875117778778, -0.11945020407438278, -0.4905839264392853, -0.20430518686771393, -0.041002899408340454, -0.3862903416156769, -0.288604199886322, 0.002794787986204028, 0.16689150035381317, 0.45495936274528503, 0.10327953845262527, 0.7693105936050415, -0.07155458629131317, -0.2357921153306961, 0.5493378639221191, 0.06679143756628036, 2.20218825340271, -0.025113685056567192, -0.17365916073322296, -0.22479771077632904, 0.3266332745552063, 0.07244502007961273, 0.6314547061920166, 0.4996090531349182, -0.19614195823669434, 1.1282354593276978, 0.7996413111686707, -0.4507136940956116, -0.9091956615447998, -0.06919020414352417, -1.1326524019241333, 0.6430554389953613, 0.21051862835884094, 0.13869234919548035, 0.163941890001297, -0.2822739779949188, -0.6575180888175964, 0.12181220948696136, -0.7868375778198242, 0.0017285725334659219, -0.36937224864959717, -0.7507431507110596, -0.6640429496765137, 0.40784117579460144, 0.4376070499420166, 0.43274131417274475, 0.018738895654678345, -0.28017523884773254, -0.4756278395652771, 0.7342109680175781, 0.42975911498069763, 0.5619389414787292, -0.611497163772583, -0.7026194930076599, -0.05477308854460716, 0.3176847994327545, 0.11823374032974243, -0.15417082607746124, 0.7137618064880371, 0.253886342048645, 0.9005492925643921, -0.010336664505302906, -0.0793469175696373, -0.6145187616348267, 0.14289627969264984, 0.18021002411842346, 0.1834309995174408, 0.257187157869339, 0.21823568642139435, -0.07285363972187042, -0.4858621656894684, -0.13009966909885406, -0.547207772731781, 0.044863708317279816, 0.5400856733322144, 1.8878037929534912, 0.07137767970561981, 0.3276709020137787, 1.741313099861145, 0.03518177568912506, -1.193652629852295, 0.6989010572433472, 0.9082077741622925, -0.45038479566574097, -0.860525906085968, -0.023473519831895828, 1.00486159324646, -0.16874542832374573, -0.8456500172615051, 1.7686034440994263, 0.745329737663269, -0.1328846663236618, -0.7430042028427124, -0.1719135344028473, -0.6204549670219421, -0.7972869873046875, 0.5006606578826904, 0.1279923915863037, 0.9370399713516235, -0.5376340746879578, -0.12225718796253204, 0.7167587876319885, 0.9124812483787537, -0.2543319761753082, -2.40459942817688, -0.06782027333974838, 0.10933589190244675, 0.040192827582359314, 0.07354669272899628, -0.04983767494559288, 0.20101112127304077, 0.10463975369930267, -0.1484275460243225, 0.0554240383207798, 0.09737103432416916, 0.10915768891572952, -0.18997474014759064, -0.2822015583515167, -0.16790148615837097, 0.22632358968257904, -0.07831649482250214, -0.012729372829198837, 0.06037158519029617, -0.12228834629058838, -0.35806649923324585, -0.05035204812884331, 0.08319748193025589, -0.2741170823574066, -0.07874173671007156, 0.22102530300617218, -0.31774869561195374, -0.15435266494750977, -0.042357973754405975, -0.2615389823913574, 0.2847587764263153, -0.10983844846487045, 0.3353257477283478, -0.36413875222206116, -0.24387940764427185, -0.33392998576164246, -0.24551080167293549, 0.15240921080112457, 1.523788571357727, -0.13387803733348846, 0.4243565797805786, 0.10345525294542313, -0.2236301153898239, -0.10991039872169495, -0.9131030440330505, 0.09844803065061569, -0.11877460777759552, 0.01909487135708332, 0.35558778047561646, -0.8327303528785706, 0.5935617685317993, -0.17036215960979462, 0.21393026411533356, -0.1080705001950264, 0.42392146587371826, -0.914326548576355, -0.03569239750504494, 0.41786450147628784, -0.21893419325351715, -0.18584893643856049, 1.663727879524231, -0.05987676978111267, -0.32208478450775146, 0.21253541111946106, 1.0393893718719482, 0.20968900620937347, -0.13848119974136353, -0.7862205505371094, -0.3153268098831177, -0.9214409589767456, 0.5343812704086304, -0.44469624757766724, -0.2226855605840683, -0.7695959210395813, -1.2137272357940674, 0.09891148656606674, 1.0269654989242554, 1.2625032663345337, -0.5243848562240601, -0.20357458293437958, 0.9988255500793457, -0.0018936754204332829, 0.19999444484710693, -0.15788616240024567, -1.100647211074829, 0.5380264520645142, 0.9738818407058716, 1.3651854991912842, -0.5699320435523987, -0.09883599728345871, -0.8434275388717651, -0.5607261061668396, 0.42873337864875793, -0.40457335114479065, -1.438175082206726, -0.10727294534444809, 1.231334924697876, 0.39374902844429016, 0.4135507643222809, -0.4637031555175781, -0.032020263373851776, -0.08044282346963882, 1.2584755420684814, 0.04793056473135948, 1.3633382320404053, -0.235875204205513, -0.1246173158288002, -0.3020055890083313, 0.057390328496694565, -0.5905876159667969, -0.09626132994890213, 1.073408603668213, -0.4912814497947693, -0.2469387650489807, -0.2020132690668106, -0.3615364134311676, -0.042114149779081345, -0.013954529538750648, 0.011328325606882572, -0.040603090077638626, -0.08367511630058289, 0.22088707983493805, -0.48518869280815125, 0.015134447254240513, -0.7661333680152893, -0.05009079352021217, -0.30044201016426086, 0.08685880899429321, 0.2792648375034332, 0.9190360903739929, 1.3545103073120117, 0.496446818113327, -0.003060532035306096, -0.41249626874923706, 0.05540868267416954, 0.027964580804109573, 0.8447722792625427, -0.19580060243606567, -1.2812527418136597, -0.24580706655979156, -0.15150399506092072, 0.6439034342765808, 0.20526209473609924, 1.7445212602615356, 0.5944147706031799, 0.8352226614952087, 0.3274431824684143, -0.43308475613594055, -0.7624518871307373, 0.2703174948692322, -0.3457656800746918, 0.13085313141345978, 0.24767674505710602, 0.13755835592746735, -0.3680259883403778, -0.7282117605209351, -0.3911096453666687, 0.4432585537433624, -2.1316721439361572, 0.034473612904548645, 1.1235603094100952, -0.32720616459846497, -0.22307752072811127, -0.026885537430644035, -0.1917533576488495, 0.5597657561302185, 1.062303066253662, 0.008927715942263603, 0.15721634030342102, 0.22762367129325867, -0.1618090122938156, -0.23864863812923431, -0.32039159536361694, 0.3236348032951355, -0.04346533864736557, 0.007806841284036636, -0.279672235250473, -0.7332159280776978, 0.7886231541633606, -0.23314252495765686, -0.39751312136650085, 0.04230060800909996, -0.37564465403556824, -0.5272881984710693, 0.026449332013726234, 0.1794569045305252, -0.12492412328720093, -0.16789007186889648, 0.032938774675130844, -0.1548348069190979, 0.11034134775400162, 0.1204276755452156, -0.12693509459495544, 0.47141021490097046, 0.8685682415962219, 1.5142107009887695, 0.16080382466316223, 1.1516863107681274, -0.4860140383243561, 0.39410895109176636, 2.050294876098633, 0.6975210905075073, 0.04255778342485428, -0.009679394774138927, -0.11385729163885117, 0.8232836127281189, 0.7365570664405823, 1.3245599269866943, 0.09494330734014511, 1.0277152061462402, 1.1283081769943237, 0.0871572270989418, 0.4866520166397095, -0.22893314063549042, -1.030612826347351, 0.8706888556480408, 0.4146534502506256, 0.09679699689149857, 0.42413797974586487, 0.27593836188316345, -0.8158064484596252, 0.42103004455566406, -0.08717244118452072, 0.13241946697235107, 0.7000337243080139, -0.685860812664032, -0.3512180745601654, 1.1586854457855225, 0.4637930691242218, 0.17313848435878754, -0.3422519266605377, -0.13189932703971863, 0.8131368160247803, -0.07687024772167206, -0.5926733016967773, 0.5344248414039612, 0.17731107771396637, 0.5734032392501831, 0.2661552429199219, 0.2994456887245178, -0.6230877637863159, 0.6392742395401001, 0.771280825138092, 0.6790924072265625, 0.8461101651191711, 0.2284684032201767, 1.0211830139160156, 1.1993659734725952, 0.19859030842781067, 0.31022948026657104, 0.3345763087272644, 0.7155706286430359, 1.6326276063919067, -0.03180668130517006, -0.3512309789657593, 0.22048068046569824, -0.9301708340644836, 0.2611219882965088, -0.08019303530454636, 1.084505558013916, -0.22702988982200623, -0.4048271179199219, -1.6465678215026855, 0.26614537835121155, 0.6869690418243408, 0.03042072057723999, -0.14524821937084198, -0.17376229166984558, -1.5331439971923828, 0.057183753699064255, 0.2562464475631714, 1.4373518228530884, 1.0037368535995483, -0.034921225160360336, -0.6454061269760132, -0.6693190932273865, 0.126299649477005, -0.37332630157470703, -0.9873459339141846, -1.6579869985580444, 0.03480297699570656, 0.10782815515995026, 0.07461873441934586, -0.21049699187278748, -1.500693440437317, 0.17868317663669586, -0.040618155151605606, 0.002632744377478957, 0.7834880352020264, 0.15076710283756256, 1.180773377418518, 0.9328060746192932, -0.10722912847995758, 0.882670521736145, -0.3639454245567322, 0.01512338500469923, -0.7827242612838745, 0.21508163213729858, 0.228358656167984, 0.08900276571512222, -0.9271067976951599, -0.4374845325946808, 0.025093436241149902, 1.1456451416015625, -0.2048620581626892, 0.8400798439979553, -0.00486970879137516, -0.04600978270173073, -1.3611410856246948, -0.26392558217048645, 0.5284256339073181, -1.4723440408706665, 0.20273657143115997, 0.19187231361865997, 0.2849140167236328, -0.0014339836779981852, 0.6995328068733215, -0.08230292797088623, 0.5951039791107178, -0.13342851400375366, 0.26893487572669983, 0.0701814591884613, -0.16070926189422607, -0.2167191505432129, -0.12585321068763733, 1.3002065420150757, 0.3834421634674072, 0.05297912657260895, -0.12351221591234207, 0.9283130168914795, 0.17235030233860016, -0.003160582622513175, 0.502068281173706, -0.43447303771972656, -0.18276719748973846, 0.24205468595027924, 0.17122268676757812, -0.4566093683242798, 0.6777458786964417, -0.02856474369764328, 1.1872642040252686, -0.4033944308757782, 0.3130536377429962, 0.7718257308006287, 0.20372331142425537, 0.26577356457710266, -0.11078627407550812, 0.8102240562438965, 1.6040953397750854, 0.11114221811294556, 0.8800091743469238, 0.11839088052511215, -0.16861480474472046, -0.27600646018981934, 0.3069438636302948, -0.8597844243049622, 0.053597211837768555, 1.194799780845642, 0.36257728934288025, 0.3253909945487976, -0.9012331962585449, 0.8395180106163025, 0.37582167983055115, 0.03788374364376068, -1.6133233308792114, 0.5596155524253845, -0.6059102416038513, 0.08628689497709274, -0.23685488104820251, -0.5150026679039001, 1.0251846313476562, 0.14333659410476685, 0.3186350464820862, 0.15165753662586212, 1.2544952630996704, -0.9332828521728516, 0.12559984624385834, 0.08507717400789261, 0.07088834792375565, -0.16863323748111725, 1.5993608236312866, -0.06396828591823578, 1.2026829719543457, 0.2924902141094208, -0.5441490411758423, -0.018641142174601555, 0.5626412034034729, 0.2341732233762741, -0.08514877408742905, -0.6281720399856567, 1.3886120319366455, -0.09924571961164474, 1.2968659400939941, -0.370057612657547, 0.3770655393600464, -0.6569027900695801, -1.1006064414978027, -0.28155404329299927, -0.14490695297718048, 0.33664605021476746, -0.4876314401626587, 0.9934764504432678, -0.03316380828619003, -0.18782198429107666, -2.3343687057495117, 0.10610059648752213, -0.3208169639110565, -0.7414377331733704, -0.02205614000558853, -0.21591822803020477, 0.11698566377162933, -1.2564517259597778, -1.2854094505310059, -0.13482902944087982, -0.04760569706559181, -0.32774683833122253, -0.5945873856544495, -0.976830244064331, -0.8442078828811646, -0.2944721281528473, 0.009697338566184044, 0.5224280953407288, 0.15214520692825317, -0.14611589908599854, -0.285651832818985, 0.5238268971443176, -0.8242445588111877, -0.02271798439323902, 0.5091425180435181, 0.17153242230415344, -0.5459397435188293, -0.6045324802398682, -0.09152933955192566, -0.782697856426239, 0.8459481000900269, 0.30321380496025085, -0.5264793634414673, 0.15391619503498077, -0.009805840440094471, -0.46860048174858093, -0.4453252851963043, 0.14713972806930542, -0.4011405110359192, 0.29777398705482483, 1.4312429428100586, -0.33073505759239197, -2.3578085899353027, 0.04630317911505699, -0.530479907989502, 0.3232755959033966, 0.05390861630439758, 0.32258808612823486, -0.6918192505836487, -1.0101990699768066, -0.47850292921066284, -0.3586899936199188, -0.4274592101573944, -0.7482833862304688, -0.3225250840187073, -0.5463024377822876, -0.1098288744688034, 0.9191417098045349, -0.21949079632759094, -0.6929062008857727, 0.14788475632667542, 0.32988256216049194, 0.09179375320672989, -0.20988377928733826, -2.4121127128601074, 0.4257090091705322, -0.4607880413532257, 0.48226022720336914, -0.37120842933654785, -0.005489605013281107, -0.19705632328987122, -0.6810824871063232, -0.7073356509208679, -0.3422873318195343, -0.8157355785369873, -0.3336961567401886, -1.5939421653747559, 0.5977253317832947, 0.8456035256385803, 0.13634301722049713, -0.1425071358680725, -0.15303023159503937, -0.2973516881465912, -0.41512325406074524, -0.7555485963821411, 0.07176242768764496, 0.3670569956302643, -0.07512403279542923, -2.583002805709839, -2.520930051803589, -0.3820610046386719, 0.6753892302513123, -1.016035795211792, 1.026146411895752, -0.06043455749750137, -0.33790841698646545, -0.5737888216972351, 0.3172740638256073, 0.6563568115234375, -1.7666151523590088, 0.015038721263408661, 0.027254845947027206, 0.38908275961875916, -0.8915479779243469, 0.7798340320587158, -0.3907192051410675, 0.6219163537025452, -0.4350368082523346, 0.015751248225569725, -0.011908777058124542, -1.0320695638656616, -1.2070167064666748, -0.001637352746911347, -0.15840348601341248, 1.6647918224334717, -0.018337441608309746, 0.7451861500740051, 0.16371756792068481, -0.03261733427643776, 0.0635102167725563, 1.1268856525421143, -0.6003028154373169, -0.6805371046066284, -0.5134920477867126, -0.06755191087722778, -0.5975132584571838, -0.09286738187074661, 0.12086104601621628, 1.097027063369751, 0.11902114748954773, 0.47387799620628357, -0.22069984674453735, -0.18107320368289948, 0.16603048145771027, -0.43490907549858093, 0.23528526723384857, 0.3513941168785095, -0.06773345172405243, -0.1231946274638176, 0.4114089906215668, -1.3698102235794067, 0.6099283695220947, 0.3103206157684326, -1.0072741508483887, -0.28232452273368835, 0.18536104261875153, 0.827260434627533, 0.04279973357915878, -0.9527363777160645, -0.009034520015120506, -0.3527570962905884, -0.21189957857131958, -1.9115233421325684, -0.22166667878627777, -0.7462510466575623, 0.9042486548423767, -0.17141567170619965, -0.5538067817687988, 0.10669993609189987, -0.3189557194709778, 0.17498338222503662, 0.1209246814250946, 0.41208893060684204, -1.9041696786880493, -0.41109612584114075, -0.015987571328878403, -0.9302162528038025, -0.17748688161373138, -0.26157888770103455, -0.21588252484798431, -0.7973358631134033, -0.033086147159338, 0.6122467517852783, 0.33535218238830566, -0.08556555211544037, -0.24197101593017578, 0.02311762236058712, -0.40082162618637085, 0.12111885100603104, -0.20415636897087097, -1.7991163730621338, -0.16855067014694214, -0.38632768392562866, -0.03415801003575325, 0.2610843777656555, 0.002948518842458725, -1.0200773477554321, 0.10037262737751007, -0.982441782951355, 0.5139304399490356, -0.42623135447502136, -0.059491295367479324, -0.1056278795003891, 0.16635289788246155, 0.7898579835891724, -0.7224634289741516, -0.28143033385276794, 0.18925127387046814, -0.7278878688812256, -0.2850758135318756, 0.2546370327472687, -0.34674787521362305, -0.8633887767791748, 0.16976957023143768, -1.4000093936920166, 0.16979892551898956, 0.03533879294991493, -0.24987934529781342, -0.29242002964019775, 0.047454580664634705, 0.5374376177787781, -0.18732935190200806, 0.03776063397526741, -0.23049430549144745, -0.08864017575979233, -0.23966147005558014, 0.009886398911476135, -0.058342095464468, -0.37425699830055237, -0.09101945906877518, 0.08946952223777771, -0.05934783071279526, -0.08154063671827316, -0.12770912051200867, -0.4506554901599884, 0.0574028417468071, -0.14799153804779053, -0.1436861902475357, -0.06018822640180588, -0.06632760912179947, -0.25477397441864014, -0.26291587948799133, 0.029444843530654907, -0.07040776312351227, -0.12298501282930374, 0.04171775281429291, 0.14081652462482452, -0.02436990849673748, 0.08324460685253143, -0.15625835955142975, 0.06628504395484924, 0.02532350644469261, 0.4709428548812866, -0.35660862922668457, -0.6916323304176331, -0.2876766622066498, -0.24359853565692902, 0.03175370767712593, 0.22802378237247467, -0.009793245233595371, -0.4964344799518585, 0.02126189135015011, -0.03222886472940445, 0.14899876713752747, 0.2927830219268799, 0.06392530351877213, -0.9104090929031372, 0.177116259932518, 0.3606404960155487, -0.5570259690284729, -0.43944796919822693, 0.1044408529996872, -0.49094903469085693, -0.3661207854747772, 0.3002323806285858, -0.20762504637241364, -0.05413791164755821, -0.13385596871376038, 0.05976448208093643, 0.23049134016036987, 0.1976669877767563, 0.4346250593662262, -0.3118124008178711, -0.513325035572052, 0.33379247784614563, -0.08066338300704956, 2.1885571479797363, -0.4718393385410309, -0.6641470193862915, -0.1838732659816742, 0.5514785647392273, -0.008973652496933937, 0.5683255791664124, 0.5383623242378235, -0.22255975008010864, 1.5980538129806519, 0.24952158331871033, -0.019483257085084915, -0.5696076154708862, -0.5194344520568848, -1.718191385269165, 0.6949442028999329, 0.081416055560112, 0.05356287211179733, 0.18379206955432892, -0.2158513069152832, -0.7559409141540527, 0.32018059492111206, -0.742610514163971, -0.07395476847887039, 0.08590250462293625, -0.7609725594520569, -0.5403251051902771, 0.37604114413261414, 0.38115841150283813, 0.6235920786857605, -0.19377408921718597, -0.10208907723426819, -0.43542852997779846, 0.8200924396514893, 0.2892927825450897, 0.5836739540100098, -0.35999131202697754, -1.0787475109100342, 0.22449439764022827, 0.323498010635376, -0.09822118282318115, -0.14459142088890076, 0.5889190435409546, 0.18544550240039825, 1.0970954895019531, -0.17877323925495148, -0.08582767099142075, -0.5740231871604919, 0.19686180353164673, 0.29045799374580383, 0.12909933924674988, 0.32361963391304016, -0.08285516500473022, 0.08578543365001678, -0.24061933159828186, -0.09135137498378754, -0.7089128494262695, -0.285044401884079, 0.2819858193397522, 1.919743299484253, 0.31336236000061035, 0.026921870186924934, 1.8356105089187622, 0.1515984982252121, -1.4026679992675781, 0.4650266170501709, 0.8855624198913574, -0.2307147979736328, -0.9950222969055176, -0.03239244222640991, 0.6827043294906616, -0.24484317004680634, -0.5018813610076904, 1.7291843891143799, 0.7808037996292114, -0.07636129856109619, -0.8891396522521973, -0.45519477128982544, -0.39066746830940247, -0.982372522354126, 0.5360811352729797, 0.22124841809272766, 0.820902943611145, -0.5049529671669006, -0.29721492528915405, 0.4254719913005829, 0.5219491124153137, -0.1010180190205574, -2.6563634872436523, -0.02608358860015869, -0.008673403412103653, -0.07586593925952911, -0.1882966160774231, 0.022586656734347343, 0.22284099459648132, 0.21386222541332245, -0.074234738945961, 0.19905738532543182, 0.03437023237347603, 0.15465007722377777, -0.09441658854484558, 0.04059996455907822, -0.2942586839199066, 0.22933633625507355, -0.3341566324234009, -0.3576488792896271, -0.03476880490779877, 0.04502999410033226, -0.3261003792285919, -0.08340926468372345, 0.31776827573776245, -0.12372073531150818, -0.033725786954164505, 0.05583848059177399, -0.029976194724440575, -0.1079857125878334, 0.05603981763124466, -0.2079363763332367, 0.2713012993335724, 0.007026693783700466, 0.2405342012643814, -0.315100759267807, -0.31442782282829285, -0.3118622303009033, -0.3897290825843811, 0.22512151300907135, 1.3316583633422852, -0.06912796944379807, 0.6273125410079956, 0.20922711491584778, -0.05471034720540047, 0.04084993153810501, -1.4003883600234985, 0.38662365078926086, -0.05851960554718971, -0.000714124646037817, 0.11200670152902603, -1.177032709121704, 0.7620841264724731, -0.23052802681922913, 0.2878832221031189, -0.02204037271440029, 0.5730224251747131, -0.9116772413253784, -0.10412686318159103, 0.33396536111831665, -0.41931378841400146, -0.1275184452533722, 0.8311646580696106, 0.0638786032795906, 0.03537236899137497, -0.0733209028840065, 0.6601399779319763, 0.4459996223449707, 0.044323574751615524, -1.2281817197799683, -0.22787430882453918, -0.765235185623169, 0.2738051414489746, -0.2150363326072693, 0.09445775300264359, -0.5747724771499634, -0.8433828949928284, 0.22680243849754333, 1.0512290000915527, 1.0290862321853638, -0.40767863392829895, -0.35997316241264343, 0.3796164393424988, -0.06606055051088333, 0.349607914686203, -0.06942029297351837, -0.9494084119796753, 0.3525056540966034, 0.8902677893638611, 1.3625216484069824, -0.42383885383605957, -0.1599404662847519, -0.6248863339424133, -0.536238431930542, 0.14539998769760132, -0.35643279552459717, -1.3656713962554932, -0.11693272739648819, 1.0243072509765625, 0.2847081124782562, 0.4406590163707733, -0.5290066003799438, -0.2954743802547455, 0.13500255346298218, 1.4867398738861084, 0.005178982391953468, 1.246075987815857, -0.05738560110330582, -0.3725511431694031, -0.5127356648445129, 0.2447950392961502, -0.37341219186782837, -0.06620576232671738, 1.1490508317947388, -0.645061194896698, -0.20948918163776398, 0.03709912672638893, -0.05478304624557495, 0.3686753213405609, -0.09999821335077286, -0.2843697965145111, -0.3732326626777649, -0.41752558946609497, 0.3801405429840088, -0.3975791335105896, 0.08204147964715958, -0.9997577667236328, -0.2767629027366638, -0.3203364312648773, 0.2606681287288666, 0.31745055317878723, 0.8965738415718079, 1.287593960762024, 0.34404975175857544, -0.13413573801517487, -0.5961800217628479, -0.025798281654715538, 0.09003018587827682, 0.43800798058509827, -0.11284230649471283, -1.0736515522003174, -0.27359235286712646, -0.1873367726802826, 0.8418917655944824, 0.020245740190148354, 1.5950214862823486, 0.6994789242744446, 0.8217232823371887, 0.17608267068862915, -0.4377864897251129, -1.4519128799438477, 0.13338756561279297, -0.12975278496742249, 0.45291709899902344, -0.03868946433067322, -0.048751477152109146, -0.6240441799163818, -1.0025382041931152, -0.46085211634635925, 0.26379716396331787, -1.913585901260376, -0.17918211221694946, 1.2883681058883667, -0.4212389588356018, 0.07153772562742233, 0.09304510802030563, -0.1176823079586029, 0.5308800935745239, 0.981995701789856, 0.020521078258752823, -0.23795442283153534, 0.26465925574302673, 0.0483882799744606, -0.30264052748680115, -0.6184110641479492, 0.13552813231945038, -0.32786446809768677, 0.23540429770946503, -0.5705104470252991, -0.4742945730686188, 0.8570852875709534, -0.2217649519443512, -0.7865668535232544, -0.25243932008743286, -0.44873949885368347, -0.8613584637641907, -0.17455725371837616, 0.2823270559310913, -0.10574028640985489, -0.09717254340648651, -0.2685220241546631, -0.203041210770607, -0.05720415338873863, -0.17611800134181976, -0.3402644693851471, 0.727617621421814, 0.6676704287528992, 1.6666675806045532, 0.025577720254659653, 1.3799350261688232, 0.16054978966712952, 0.40820643305778503, 1.9178340435028076, 0.9908089637756348, -0.05803702026605606, -0.34232214093208313, 0.07328802347183228, 0.8003359436988831, 0.8473708629608154, 0.8228409886360168, 0.2137184590101242, 0.811708390712738, 1.1188783645629883, -0.025606313720345497, 0.3703209459781647, -0.038794223219156265, -1.2272096872329712, 0.8484697937965393, 0.3051178753376007, 0.3117513656616211, 0.5364810228347778, 0.3392583131790161, -0.9029433727264404, 0.17044194042682648, 0.6390353441238403, 0.1620679795742035, 0.885471761226654, -0.9017970561981201, -0.59029221534729, 1.430047869682312, 0.5666260719299316, 0.13500745594501495, -0.20613451302051544, 0.031494446098804474, 0.7401394844055176, -0.19422543048858643, -0.8436851501464844, 0.8337602615356445, 0.17815954983234406, 0.7538684010505676, 0.4414452016353607, 0.302560418844223, -0.4880449175834656, 0.606084942817688, 0.7884185910224915, 0.6249628067016602, 0.866836428642273, 0.2250460535287857, 0.9084737300872803, 1.3942710161209106, 0.09857694059610367, 0.3443872630596161, 0.2655928134918213, 0.8897606134414673, 1.6368616819381714, 0.10533913969993591, -0.1991320699453354, 0.5931646227836609, -0.7592892050743103, 0.34874624013900757, -0.11061868071556091, 0.5523186922073364, -0.364307165145874, 0.05092761293053627, -1.4291083812713623, 0.25414302945137024, 0.7431247234344482, -0.05470249801874161, -0.2409706860780716, -0.636329710483551, -1.5137518644332886, -0.32149407267570496, -0.03782902657985687, 1.1993849277496338, 1.3507380485534668, 0.5041021704673767, -0.5131250023841858, -0.6710360646247864, -0.17749075591564178, -0.1210038810968399, -0.8412929773330688, -1.6767919063568115, -0.17016693949699402, -0.05296875908970833, -0.008932980708777905, -0.35674193501472473, -1.356792688369751, 0.14664287865161896, 0.10655684024095535, 0.04488538205623627, 0.9003457427024841, 0.20336033403873444, 0.9698583483695984, 0.9187269806861877, -0.1859741508960724, 0.44123268127441406, -0.11539442092180252, -0.20103512704372406, -0.48741012811660767, 0.43155989050865173, 0.6651787757873535, -0.08355306088924408, -0.9698544144630432, -0.9858649373054504, -0.08068844676017761, 1.0160101652145386, 0.15167704224586487, 1.0341856479644775, -0.03628811240196228, -0.09364895522594452, -0.9300962090492249, -0.26752880215644836, 0.5685470104217529, -1.985819935798645, 0.006800111383199692, -0.055850714445114136, 0.19946688413619995, -0.08048789203166962, 0.8678634166717529, 0.058212123811244965, 0.7823204398155212, -0.043444227427244186, 0.1466616839170456, -0.19357064366340637, 0.17102795839309692, 0.032475199550390244, 0.1871325671672821, 1.1714473962783813, 0.41056010127067566, 0.1909259855747223, 0.14367946982383728, 0.9874792695045471, 0.320194810628891, -0.11705788224935532, 0.5392100214958191, -0.614395022392273, -0.21337781846523285, 0.45514580607414246, -0.22615882754325867, -0.23665860295295715, 0.6662646532058716, 0.02238553762435913, 1.3095128536224365, -0.34396326541900635, 0.47581472992897034, 0.5504052639007568, 0.05076589807868004, 0.4904884994029999, -0.20419159531593323, 0.7415806651115417, 1.7383880615234375, 0.03335675597190857, 0.6584965586662292, 0.17006291449069977, 0.14524413645267487, -0.23597659170627594, 0.41048377752304077, -0.5561356544494629, 0.005845703650265932, 1.0843775272369385, 0.893708348274231, -0.06315214931964874, -0.817010760307312, 0.6442455053329468, 0.36101576685905457, 0.010914976708590984, -1.4501872062683105, 0.08830161392688751, -0.8096835613250732, 0.0830846056342125, -0.7495290637016296, -0.37578752636909485, 0.9536025524139404, 0.1708841621875763, 0.3056481182575226, 0.31171879172325134, 1.4357807636260986, -0.44446343183517456, -0.10197817534208298, 0.18940719962120056, -0.054238345474004745, -0.16604112088680267, 1.7280453443527222, -0.24348527193069458, 1.1330301761627197, 0.07698164135217667, -0.6265618205070496, 0.3085463345050812, 0.36526012420654297, 0.24090708792209625, -0.44623124599456787, -0.9980673789978027, 1.3606137037277222, -0.04966749995946884, 1.0241014957427979, -1.0063486099243164, 0.3990063965320587, -0.867385745048523, -1.1710996627807617, -0.013774160295724869, -0.11328566819429398, 0.48472264409065247, 0.0366676039993763, 1.0048869848251343, -0.26564592123031616, -0.4128483533859253, -2.3982179164886475, 0.011945215985178947, -1.392727017402649, -0.6750967502593994, -0.12050329893827438, -0.17578694224357605, 0.2743348479270935, -1.183236837387085, -1.11383855342865, -0.008122344501316547, -0.2214089334011078, -0.2971692979335785, -0.45734089612960815, -0.8516197800636292, -0.5769304037094116, 0.15548309683799744, 0.20511789619922638, 0.4069242775440216, 0.1488138884305954, -0.1866331398487091, -0.28231707215309143, 0.486200213432312, -0.5487233996391296, -0.152986079454422, 0.6227943897247314, 0.1992291957139969, -0.5695520639419556, -0.4406079053878784, -0.2462608367204666, -0.9514268040657043, 0.7487161755561829, 0.12661488354206085, -0.4655439853668213, -0.1358819454908371, 0.10940823704004288, -0.3817484974861145, -0.3266492486000061, 0.2446582168340683, -0.35979869961738586, 0.42811018228530884, 1.2954415082931519, -0.3743174374103546, -1.8452270030975342, 0.15196222066879272, -0.4778815805912018, 0.16533124446868896, 0.12893469631671906, 0.6237930059432983, -0.35251960158348083, -1.1749669313430786, 0.31095820665359497, -0.329805850982666, 0.021523036062717438, -0.5178729295730591, 0.1591324508190155, -0.3458775579929352, -0.3943288028240204, 0.6500941514968872, -0.361428827047348, -0.19725637137889862, 0.318156361579895, 1.4355820417404175, 0.07704239338636398, -0.11167079210281372, -2.297506332397461, 0.3049548268318176, -0.3802824020385742, 0.9681862592697144, -0.45618411898612976, -0.10045846551656723, -0.24119380116462708, -0.9290599822998047, -0.5573022961616516, -0.5865269303321838, -0.5925570130348206, -0.1920725405216217, -1.0780563354492188, 0.6768851280212402, 0.5527340769767761, 0.31901347637176514, -0.07173889130353928, -0.6322672963142395, -0.29396650195121765, -0.5054342150688171, -0.7253713011741638, -0.3722100555896759, 0.23069970309734344, -0.059227753430604935, -2.644512176513672, -2.378953456878662, -0.6801699995994568, 0.9373398423194885, -0.9552006125450134, 0.8015757203102112, -0.592111349105835, -0.20328383147716522, -0.10048338770866394, -0.08112072199583054, 0.6361095905303955, -1.9555693864822388, 0.01118871383368969, 0.10069155693054199, 0.3700289726257324, -1.1011654138565063, 0.6463900804519653, -0.4496597945690155, 0.7847585678100586, -0.5280026793479919, -0.041646674275398254, -0.0957806259393692, -0.47402989864349365, -1.0297375917434692, -0.1755555272102356, -0.052159979939460754, 1.2977073192596436, -0.0017103777499869466, 0.7503304481506348, -0.09457027912139893, -0.09164638072252274, -0.0030004745349287987, 0.979338526725769, -0.6371785402297974, -0.4783071279525757, -0.43074581027030945, -0.5628846883773804, -0.420627623796463, 0.005975911393761635, -0.2763986587524414, 0.6519818305969238, -0.10109031200408936, 0.420408695936203, -0.43304508924484253, -0.1441483050584793, 0.33606114983558655, -0.6534579992294312, 0.0943223237991333, 0.07451272755861282, -0.1892527937889099, -0.647014319896698, 0.22017371654510498, -1.3157784938812256, 0.5995065569877625, 0.6613648533821106, -0.780457615852356, -0.29694053530693054, -0.18866543471813202, 1.2559765577316284, -0.08217953145503998, -1.1898657083511353, -0.2456396222114563, -0.5258607268333435, -0.18348869681358337, -1.839195966720581, -0.25618278980255127, -0.6433692574501038, 1.0636990070343018, -0.09095899015665054, -0.25766900181770325, -0.14050471782684326, -0.4607207477092743, -0.14760670065879822, 0.10231567919254303, 0.5099285840988159, -2.1317808628082275, -0.39536216855049133, 0.33412569761276245, -0.7400871515274048, -0.19607189297676086, 0.04333171993494034, -0.30510011315345764, -0.5084250569343567, -0.16109135746955872, 0.869935154914856, -0.14234325289726257, -0.5654705762863159, -0.5132414698600769, 0.08382968604564667, -0.3934937119483948, 0.4483293890953064, -0.3950461447238922, -1.578385829925537, -0.42523613572120667, -0.012735472060739994, 0.18373991549015045, 0.36986568570137024, -0.41218987107276917, -0.5867204070091248, -0.07991790771484375, -1.4295456409454346, 0.2599831819534302, -0.5941730737686157, -0.09670562297105789, -0.47385022044181824, 0.06159546226263046, 0.9115727543830872, -0.17207218706607819, -0.43031513690948486, -0.1896151304244995, -0.6173028945922852, -0.40460681915283203, 0.00021002875291742384, -0.31618648767471313, -0.27267253398895264, 0.06679833680391312, -1.3492525815963745, 0.16980524361133575, -0.21421362459659576, -0.35733485221862793, -0.08420077711343765, 0.034458186477422714, 0.02723613940179348, 0.022317036986351013, 0.029683830216526985, -0.080910824239254, -0.35842540860176086, -0.08134970813989639, -0.028719305992126465, 0.02615233324468136, -0.15137682855129242, 0.06367459148168564, -0.034408606588840485, 0.026869025081396103, 0.11309250444173813, -0.16421270370483398, -0.1660318821668625, -0.08289404958486557, 0.027459125965833664, -0.0323367677628994, -0.02311747334897518, 0.012545944191515446, -0.1448746770620346, 0.17657813429832458, -0.16245488822460175, -0.004133760463446379, 0.13707078993320465, 0.12622296810150146, 0.0388178825378418, 0.21987168490886688, 0.05242357403039932, -0.37511691451072693, -0.16490468382835388, 0.04274297505617142, 0.3143587112426758, -0.0936986431479454, -0.33960390090942383, -0.22586721181869507, -0.09772998094558716, 0.11701501905918121, 0.25620755553245544, 0.0724637359380722, -0.2128019481897354, 0.09119748324155807, -0.1464812010526657, -0.05019306391477585, -0.08005890250205994, 0.1478118896484375, -0.65610671043396, 0.2635740041732788, 0.292440265417099, -0.43603405356407166, -0.30357369780540466, -0.10426079481840134, -0.5013208985328674, -0.3649561107158661, 0.28634679317474365, -0.21667832136154175, 0.09107444435358047, 0.043044574558734894, 0.17401345074176788, 0.4995085299015045, 0.10803602635860443, 0.7472789883613586, -0.08110013604164124, -0.4362572133541107, 0.02955423854291439, -0.19374322891235352, 2.321030378341675, -0.32700827717781067, -0.6259027719497681, -0.24777087569236755, 0.22622215747833252, 0.3295218050479889, 0.3729865550994873, 0.5377390384674072, 0.35243016481399536, 1.5937451124191284, 0.5712361335754395, -0.375139057636261, -0.7747043371200562, -0.0919567346572876, -2.252424955368042, 0.5841733813285828, -0.06812180578708649, 0.014438742771744728, 0.001943339011631906, -0.4663751721382141, -0.897131621837616, 0.17546607553958893, -0.6911885142326355, -0.0488458089530468, -0.04025424271821976, -1.1854853630065918, -0.8490875363349915, 0.5006455779075623, 0.4681207537651062, -0.11268752813339233, 0.15863725543022156, 0.008825291879475117, -0.4527363181114197, 0.4636802673339844, 0.1529422104358673, 0.5652414560317993, -0.4813588559627533, -0.8665327429771423, -0.1585703045129776, 0.24876520037651062, -0.2874590754508972, -0.3553833067417145, 0.42516136169433594, 0.2451484352350235, 1.0467040538787842, -0.3297983705997467, 0.14787393808364868, -0.5423322916030884, 0.1252167522907257, 0.21069587767124176, 0.1752355545759201, 0.3841997981071472, 0.06354004144668579, 0.07705429941415787, -0.6217761635780334, 0.025811349973082542, -1.1183992624282837]}, {"inputChannelsDim": 32, "bnVariance": [140.39083862304688], "roundsDim": 1, "convBias": [-0.0006067044450901449], "bnBeta": [0.1577526330947876], "typesDim": 1, "kernelRoundsDim": 1, "className": "ception", "upsamplingRoundsDimFactor": 1, "bnGamma": [0.08999225497245789], "channelsDim": 1, "convKernel": [0.0002743372751865536, 0.0002616129640955478, -0.03608838468790054, 0.41916313767433167, -1.5600974559783936, 0.3142854571342468, -2.382161855697632, -1.3709231615066528, 0.010540579445660114, 0.6934057474136353, 0.4276791512966156, 0.9226216673851013, 0.0002607903734315187, 0.00027646691887639463, -0.202773779630661, -0.05008561909198761, -1.7121624946594238, 0.4625867009162903, -0.06558939069509506, 0.10277783870697021, 1.1671943664550781, 0.036954741925001144, 0.00031925083021633327, -0.4359789490699768, -0.9859321117401123, 1.1205791234970093, 0.0002524958399590105, -0.9077939987182617, -0.7375813126564026, 0.17564912140369415, -1.95090651512146, -0.673832893371582], "bnMean": [0.3616018295288086], "kernelTypesDim": 1, "upsamplingTypesDimFactor": 1}]